{
  "version": "1.0",
  "truncation": null,
  "padding": null,
  "added_tokens": [
    {
      "id": 0,
      "content": "<|endoftext|>",
      "single_word": false,
      "lstrip": false,
      "rstrip": false,
      "normalized": false,
      "special": true
    },
    {
      "id": 1,
      "content": "<|padding|>",
      "single_word": false,
      "lstrip": false,
      "rstrip": false,
      "normalized": false,
      "special": true
    }
  ],
  "normalizer": {
    "type": "NFC"
  },
  "pre_tokenizer": {
    "type": "ByteLevel",
    "add_prefix_space": false,
    "trim_offsets": true,
    "use_regex": true
  },
  "post_processor": {
    "type": "ByteLevel",
    "add_prefix_space": true,
    "trim_offsets": false,
    "use_regex": true
  },
  "decoder": {
    "type": "ByteLevel",
    "add_prefix_space": true,
    "trim_offsets": true,
    "use_regex": true
  },
  "model": {
    "type": "BPE",
    "dropout": null,
    "unk_token": null,
    "continuing_subword_prefix": null,
    "end_of_word_suffix": null,
    "fuse_unk": false,
    "byte_fallback": false,
    "ignore_merges": false,
    "vocab": {
      "<|endoftext|>": 0,
      "<|padding|>": 1,
      "!": 2,
      "\"": 3,
      "#": 4,
      "$": 5,
      "%": 6,
      "&": 7,
      "'": 8,
      "(": 9,
      ")": 10,
      "*": 11,
      "+": 12,
      ",": 13,
      "-": 14,
      ".": 15,
      "/": 16,
      "0": 17,
      "1": 18,
      "2": 19,
      "3": 20,
      "4": 21,
      "5": 22,
      "6": 23,
      "7": 24,
      "8": 25,
      "9": 26,
      ":": 27,
      ";": 28,
      "<": 29,
      "=": 30,
      ">": 31,
      "?": 32,
      "@": 33,
      "A": 34,
      "B": 35,
      "C": 36,
      "D": 37,
      "E": 38,
      "F": 39,
      "G": 40,
      "H": 41,
      "I": 42,
      "J": 43,
      "K": 44,
      "L": 45,
      "M": 46,
      "N": 47,
      "O": 48,
      "P": 49,
      "Q": 50,
      "R": 51,
      "S": 52,
      "T": 53,
      "U": 54,
      "V": 55,
      "W": 56,
      "X": 57,
      "Y": 58,
      "Z": 59,
      "[": 60,
      "\\": 61,
      "]": 62,
      "^": 63,
      "_": 64,
      "`": 65,
      "a": 66,
      "b": 67,
      "c": 68,
      "d": 69,
      "e": 70,
      "f": 71,
      "g": 72,
      "h": 73,
      "i": 74,
      "j": 75,
      "k": 76,
      "l": 77,
      "m": 78,
      "n": 79,
      "o": 80,
      "p": 81,
      "q": 82,
      "r": 83,
      "s": 84,
      "t": 85,
      "u": 86,
      "v": 87,
      "w": 88,
      "x": 89,
      "y": 90,
      "z": 91,
      "|": 92,
      "}": 93,
      "~": 94,
      "¡": 95,
      "¢": 96,
      "£": 97,
      "¤": 98,
      "¥": 99,
      "¦": 100,
      "§": 101,
      "¨": 102,
      "©": 103,
      "ª": 104,
      "«": 105,
      "¬": 106,
      "®": 107,
      "¯": 108,
      "°": 109,
      "±": 110,
      "²": 111,
      "³": 112,
      "´": 113,
      "µ": 114,
      "¶": 115,
      "·": 116,
      "¸": 117,
      "¹": 118,
      "º": 119,
      "»": 120,
      "¼": 121,
      "½": 122,
      "¾": 123,
      "¿": 124,
      "Â": 125,
      "Ã": 126,
      "Ä": 127,
      "Å": 128,
      "Æ": 129,
      "Ç": 130,
      "È": 131,
      "É": 132,
      "Ê": 133,
      "Ë": 134,
      "Ì": 135,
      "Í": 136,
      "Î": 137,
      "Ï": 138,
      "Ð": 139,
      "Ñ": 140,
      "Ò": 141,
      "Ó": 142,
      "Ô": 143,
      "Õ": 144,
      "Ö": 145,
      "×": 146,
      "Ø": 147,
      "Ù": 148,
      "Ú": 149,
      "Û": 150,
      "Ü": 151,
      "Ý": 152,
      "Þ": 153,
      "ß": 154,
      "à": 155,
      "á": 156,
      "â": 157,
      "ã": 158,
      "ä": 159,
      "å": 160,
      "æ": 161,
      "ç": 162,
      "è": 163,
      "é": 164,
      "ê": 165,
      "ë": 166,
      "ì": 167,
      "í": 168,
      "ï": 169,
      "ð": 170,
      "ó": 171,
      "ĉ": 172,
      "Ċ": 173,
      "Ġ": 174,
      "Ģ": 175,
      "ģ": 176,
      "Ĥ": 177,
      "ĥ": 178,
      "Ħ": 179,
      "ħ": 180,
      "Ĩ": 181,
      "ĩ": 182,
      "Ī": 183,
      "ī": 184,
      "Ĭ": 185,
      "ĭ": 186,
      "Į": 187,
      "į": 188,
      "İ": 189,
      "ı": 190,
      "Ĳ": 191,
      "ĳ": 192,
      "Ĵ": 193,
      "ĵ": 194,
      "Ķ": 195,
      "ķ": 196,
      "ĸ": 197,
      "Ĺ": 198,
      "ĺ": 199,
      "Ļ": 200,
      "ļ": 201,
      "Ľ": 202,
      "ľ": 203,
      "Ŀ": 204,
      "ŀ": 205,
      "Ł": 206,
      "ł": 207,
      "Ń": 208,
      "th": 209,
      "the": 210,
      "Ġthe": 211,
      "âĢ": 212,
      "in": 213,
      "ing": 214,
      "an": 215,
      "and": 216,
      "on": 217,
      "en": 218,
      "of": 219,
      "Ġof": 220,
      "ion": 221,
      "tion": 222,
      "Th": 223,
      "Ġand": 224,
      "ve": 225,
      "Ġw": 226,
      "ch": 227,
      "ent": 228,
      "ou": 229,
      "or": 230,
      "for": 231,
      "ow": 232,
      "âĢĻ": 233,
      "Ġb": 234,
      "Ġin": 235,
      "om": 236,
      "Ġwh": 237,
      "ation": 238,
      "al": 239,
      "qu": 240,
      "to": 241,
      "Ġto": 242,
      "at": 243,
      "that": 244,
      "ar": 245,
      "er": 246,
      "re": 247,
      "ed": 248,
      "Ġthat": 249,
      "ver": 250,
      "ther": 251,
      "The": 252,
      "ro": 253,
      "pro": 254,
      "00": 255,
      "Ġbe": 256,
      "ex": 257,
      "ment": 258,
      "19": 259,
      "ly": 260,
      "âĢľ": 261,
      "âĢĿ": 262,
      "gh": 263,
      "Ġh": 264,
      "Ġfor": 265,
      "Ġ(": 266,
      "vi": 267,
      "ab": 268,
      "Ġha": 269,
      "Ġhave": 270,
      "ĠC": 271,
      "Ġf": 272,
      "ĠA": 273,
      "ĠS": 274,
      "com": 275,
      "rom": 276,
      "Ġfrom": 277,
      "con": 278,
      "ic": 279,
      "Ġwi": 280,
      "Ġwith": 281,
      "Ġby": 282,
      "Ġcon": 283,
      "In": 284,
      "our": 285,
      "oun": 286,
      "un": 287,
      "ur": 288,
      "ough": 289,
      "igh": 290,
      "Ġpro": 291,
      "ĠM": 292,
      "is": 293,
      "it": 294,
      "ive": 295,
      "st": 296,
      "ight": 297,
      "if": 298,
      "200": 299,
      "ĠP": 300,
      "ity": 301,
      "ct": 302,
      "ally": 303,
      "ra": 304,
      "ir": 305,
      "im": 306,
      "il": 307,
      "ol": 308,
      "ri": 309,
      "other": 310,
      "Ġwa": 311,
      "Ġwas": 312,
      "ĠB": 313,
      "Ġm": 314,
      "am": 315,
      "Ġwil": 316,
      "Ġwill": 317,
      "le": 318,
      "able": 319,
      "âĢĵ": 320,
      "âĢĶ": 321,
      "ĠH": 322,
      "ction": 323,
      "iz": 324,
      "ĠThe": 325,
      "Ġex": 326,
      "Ġcom": 327,
      "Ġwor": 328,
      "out": 329,
      "about": 330,
      "no": 331,
      "not": 332,
      "Ġnot": 333,
      "ter": 334,
      "Ġa": 335,
      "Ġma": 336,
      "Ġth": 337,
      "Ġthis": 338,
      "Ġp": 339,
      "Ġre": 340,
      "Ġc": 341,
      "ce": 342,
      "ence": 343,
      "ĠW": 344,
      "ĠI": 345,
      "ĠG": 346,
      "ĠF": 347,
      "ĠR": 348,
      "ĠD": 349,
      "Ġcomp": 350,
      "op": 351,
      "Ġis": 352,
      "ist": 353,
      "This": 354,
      "ure": 355,
      "ĠE": 356,
      "ci": 357,
      "ck": 358,
      "ish": 359,
      "Ġcan": 360,
      "ĠN": 361,
      "20": 362,
      "ĠJ": 363,
      "Ġexp": 364,
      "ĠL": 365,
      "Ġd": 366,
      "id": 367,
      "Ġde": 368,
      "ound": 369,
      "Ġdis": 370,
      "Ġon": 371,
      "ĠIn": 372,
      "Ġwhi": 373,
      "Ġwhich": 374,
      "Ġcomm": 375,
      "um": 376,
      "ul": 377,
      "all": 378,
      "oul": 379,
      "ould": 380,
      "you": 381,
      "Ġyou": 382,
      "Ġbu": 383,
      "Ġtheir": 384,
      "Ġbut": 385,
      "ĠT": 386,
      "Ġpre": 387,
      "ical": 388,
      "Ġwork": 389,
      "over": 390,
      "own": 391,
      "form": 392,
      "Ġwould": 393,
      "Ġhis": 394,
      "Ġhigh": 395,
      "ĠU": 396,
      "ition": 397,
      "od": 398,
      "ood": 399,
      "Ġn": 400,
      "ven": 401,
      "Ġ1": 402,
      "ff": 403,
      "Ġne": 404,
      "ount": 405,
      "Ġ19": 406,
      "ill": 407,
      "ĠUn": 408,
      "'s": 409,
      "Ġs": 410,
      "Ġsh": 411,
      "Ġl": 412,
      "Ġst": 413,
      "Ġt": 414,
      "Ġg": 415,
      "Ġit": 416,
      "Ġar": 417,
      "Ġare": 418,
      "ĠO": 419,
      "Ġun": 420,
      "ig": 421,
      "ign": 422,
      "ag": 423,
      "age": 424,
      "Ġsu": 425,
      "Ġabout": 426,
      "Ġother": 427,
      "Ġor": 428,
      "Ġan": 429,
      "Ġch": 430,
      "us": 431,
      "Ġus": 432,
      "ous": 433,
      "Ġcont": 434,
      "ant": 435,
      "ance": 436,
      "ult": 437,
      "ĠCh": 438,
      "Ġ\"": 439,
      "ĠK": 440,
      "ut": 441,
      "ud": 442,
      "Ġstud": 443,
      "ust": 444,
      "Ġshould": 445,
      "Ġall": 446,
      "Ġmor": 447,
      "Ġmore": 448,
      "vel": 449,
      "velop": 450,
      "Ġdevelop": 451,
      "Ġnew": 452,
      "ack": 453,
      "Ġhe": 454,
      "201": 455,
      "rough": 456,
      "Ġthrough": 457,
      "Ġthan": 458,
      "ong": 459,
      "ang": 460,
      "ain": 461,
      "ad": 462,
      "ay": 463,
      "ect": 464,
      "ffect": 465,
      "ject": 466,
      "act": 467,
      "as": 468,
      "es": 469,
      "ies": 470,
      "Ġwe": 471,
      "Ġwer": 472,
      "Ġwere": 473,
      "em": 474,
      "Ġas": 475,
      "ast": 476,
      "ak": 477,
      "ach": 478,
      "sion": 479,
      "ost": 480,
      "est": 481,
      "irst": 482,
      "Ġfirst": 483,
      "Ġmost": 484,
      "ace": 485,
      "aus": 486,
      "Ġhas": 487,
      "Ġhad": 488,
      "ces": 489,
      "Ġman": 490,
      "Ġtim": 491,
      "Ġsuch": 492,
      "ĠâĢľ": 493,
      "og": 494,
      "olog": 495,
      "end": 496,
      "Ġout": 497,
      "ru": 498,
      "du": 499,
      "Ġprodu": 500,
      "Ġim": 501,
      "Ġimp": 502,
      "Ġle": 503,
      "ople": 504,
      "eople": 505,
      "Ġpeople": 506,
      "ble": 507,
      "Ġcould": 508,
      "Ġj": 509,
      "stem": 510,
      "ystem": 511,
      "ome": 512,
      "Ġsome": 513,
      "Ġno": 514,
      "Ġsystem": 515,
      "Ġinto": 516,
      "iff": 517,
      "Ġdiff": 518,
      "ific": 519,
      "reat": 520,
      "Ġat": 521,
      "ate": 522,
      "ated": 523,
      "Ġ200": 524,
      "ĠTh": 525,
      "your": 526,
      "Ġyour": 527,
      "ort": 528,
      "port": 529,
      "Ġimport": 530,
      "Ġjust": 531,
      "lud": 532,
      "clud": 533,
      "Ġinclud": 534,
      "el": 535,
      "ell": 536,
      "et": 537,
      "art": 538,
      "Ġpart": 539,
      "Ġpl": 540,
      "Ġper": 541,
      "ber": 542,
      "ĠV": 543,
      "Ġ18": 544,
      "formation": 545,
      "Ġchang": 546,
      "Ġchil": 547,
      "Ġchild": 548,
      "ap": 549,
      "Ġsp": 550,
      "Ġdo": 551,
      "Ġv": 552,
      "dition": 553,
      "Ġund": 554,
      "Ġunder": 555,
      "ard": 556,
      "ative": 557,
      "ĠThis": 558,
      "lect": 559,
      "umber": 560,
      "Ġnumber": 561,
      "Ġmay": 562,
      "Ġmak": 563,
      "Ġk": 564,
      "Ġkn": 565,
      "ot": 566,
      "Ġwho": 567,
      "Ġwhen": 568,
      "ĠSt": 569,
      "ution": 570,
      "up": 571,
      "Ġup": 572,
      "ub": 573,
      "ubl": 574,
      "Ġ2": 575,
      "Ġal": 576,
      "Ġe": 577,
      "Ġr": 578,
      "ĠY": 579,
      "Ġover": 580,
      "Ġvi": 581,
      "Ġeffect": 582,
      "Ġtime": 583,
      "||": 584,
      "cess": 585,
      "Ġtak": 586,
      "Ġdiffer": 587,
      "ire": 588,
      "ivi": 589,
      "Ġprovi": 590,
      "Ġprovid": 591,
      "Ġtra": 592,
      "Ġop": 593,
      "arch": 594,
      "earch": 595,
      "Ġimportant": 596,
      "Ġpubl": 597,
      "Ġhow": 598,
      "Ġknow": 599,
      "Ġen": 600,
      "Ġqu": 601,
      "Ġwhat": 602,
      "ater": 603,
      "Ġwater": 604,
      "ok": 605,
      "ook": 606,
      "os": 607,
      "ob": 608,
      "ove": 609,
      "Ġsub": 610,
      "Ġgr": 611,
      "ause": 612,
      "cause": 613,
      "Ġbecause": 614,
      "ĠIt": 615,
      "Ġgrou": 616,
      "Ġbeen": 617,
      "Ġsup": 618,
      "Ġlevel": 619,
      "oci": 620,
      "oc": 621,
      "Ġals": 622,
      "Ġalso": 623,
      "rib": 624,
      "very": 625,
      "Ġmany": 626,
      "Ġ3": 627,
      "Ġob": 628,
      ").": 629,
      "iver": 630,
      "ĠUniver": 631,
      "ik": 632,
      "Ġlik": 633,
      "Ġlike": 634,
      "Ġdifferent": 635,
      "Ġtw": 636,
      "Ġtwo": 637,
      "ew": 638,
      "Ġknown": 639,
      "ĠWh": 640,
      "ph": 641,
      "ple": 642,
      "ample": 643,
      "Ġexample": 644,
      "Ġ199": 645,
      "ates": 646,
      "ature": 647,
      "low": 648,
      "ember": 649,
      "ĠNew": 650,
      "Ġinter": 651,
      "Ġinformation": 652,
      "ollow": 653,
      "Ġfollow": 654,
      "Ġsupport": 655,
      "Ġonly": 656,
      "quire": 657,
      "ility": 658,
      "Ġcommun": 659,
      "ian": 660,
      "ible": 661,
      "Ġproble": 662,
      "ia": 663,
      "Ġproblem": 664,
      "Ġstudent": 665,
      "Ġway": 666,
      "Ġ201": 667,
      "ities": 668,
      "Ġprocess": 669,
      "000": 670,
      "fter": 671,
      "Ġafter": 672,
      "ability": 673,
      "Ġgroup": 674,
      "Ġeven": 675,
      "Ġcl": 676,
      "overn": 677,
      "overnment": 678,
      "Ġspe": 679,
      "Ġspeci": 680,
      "Ġbuil": 681,
      "stru": 682,
      "ail": 683,
      "ary": 684,
      "Ġcount": 685,
      "Ġthos": 686,
      "Ġright": 687,
      "Ġevery": 688,
      "Ġvery": 689,
      "ac": 690,
      "Ġcol": 691,
      "Ġeach": 692,
      "Ġif": 693,
      "Ġplace": 694,
      "Ġneed": 695,
      "Ġgen": 696,
      "Ġlong": 697,
      "ology": 698,
      "Ġfound": 699,
      "ving": 700,
      "Ġthose": 701,
      "Ġgovernment": 702,
      "ric": 703,
      "ran": 704,
      "Ġtran": 705,
      "rit": 706,
      "ry": 707,
      "ron": 708,
      "viron": 709,
      "vironment": 710,
      "Ġenvironment": 711,
      "Ġchildr": 712,
      "Ġchildren": 713,
      "Ġtrans": 714,
      "Ġwrit": 715,
      "Ġlif": 716,
      "ful": 717,
      "ular": 718,
      "ĠAn": 719,
      "ram": 720,
      "gram": 721,
      "Ġprogram": 722,
      "ract": 723,
      "Ġra": 724,
      "Ġact": 725,
      "irect": 726,
      "Ġactivi": 727,
      "Ġad": 728,
      "raph": 729,
      "âĢĺ": 730,
      "Ġrequire": 731,
      "Ġgener": 732,
      "illion": 733,
      "ind": 734,
      "old": 735,
      "ved": 736,
      "way": 737,
      "Ġgreat": 738,
      "Ġres": 739,
      "Ġresearch": 740,
      "Ġresult": 741,
      "cience": 742,
      "Ġused": 743,
      "Ġem": 744,
      "Wh": 745,
      "Ġour": 746,
      "Ġy": 747,
      "Ġye": 748,
      "Ġyear": 749,
      "Ġro": 750,
      "ividu": 751,
      "Ġab": 752,
      "Ġgrow": 753,
      "Ġthough": 754,
      "Ġhel": 755,
      "Ġhelp": 756,
      "ll": 757,
      "Ġwell": 758,
      "Ġworl": 759,
      "Ġworld": 760,
      "pl": 761,
      "ip": 762,
      "ial": 763,
      "aterial": 764,
      "ib": 765,
      "ccess": 766,
      "ark": 767,
      "olution": 768,
      "ool": 769,
      "chool": 770,
      "Ġtreat": 771,
      "Ġcreat": 772,
      "Ġpos": 773,
      "Ġph": 774,
      "ulation": 775,
      "opulation": 776,
      "ational": 777,
      "Ġschool": 778,
      "Ġpartic": 779,
      "Ġparticular": 780,
      "Ġaround": 781,
      "ources": 782,
      "Ġplant": 783,
      "Ġse": 784,
      "Ġone": 785,
      "Ġuse": 786,
      "cre": 787,
      "creas": 788,
      "Ġincreas": 789,
      "Ġday": 790,
      "Ġstudy": 791,
      "Ġ4": 792,
      "ious": 793,
      "ological": 794,
      "Ġhum": 795,
      "Ġhuman": 796,
      "Ġev": 797,
      "Ġloc": 798,
      "ord": 799,
      "cord": 800,
      "ory": 801,
      "istory": 802,
      "Ġpr": 803,
      "Ġprof": 804,
      "aw": 805,
      "tw": 806,
      "Ġbetw": 807,
      "Ġbetwe": 808,
      "Ġbetween": 809,
      "Ġelect": 810,
      "ually": 811,
      "ĠEn": 812,
      "Ġag": 813,
      "Ġagain": 814,
      "Ġap": 815,
      "Ġappro": 816,
      "Ġapp": 817,
      "Ġappl": 818,
      "Ġimpro": 819,
      "Ġresp": 820,
      "Ġrespon": 821,
      "ame": 822,
      "Ġam": 823,
      "Ġreport": 824,
      "Ġany": 825,
      "hip": 826,
      "Ġpublic": 827,
      "ĠStates": 828,
      "Ġcall": 829,
      "land": 830,
      "Ġshow": 831,
      "Ġyears": 832,
      "Ġbefor": 833,
      "Ġlead": 834,
      "tain": 835,
      "pt": 836,
      "cept": 837,
      "pos": 838,
      "ext": 839,
      "Ġmod": 840,
      "Ġplan": 841,
      "conom": 842,
      "Ġeconom": 843,
      "Ġear": 844,
      "cient": 845,
      "ĠâĢĵ": 846,
      "Ġso": 847,
      "Ġsign": 848,
      "ĠCom": 849,
      "ĠAm": 850,
      "ĠAmer": 851,
      "ĠAmeric": 852,
      "ĠAmerican": 853,
      "Ġpol": 854,
      "Ġrel": 855,
      "Ġbefore": 856,
      "ower": 857,
      "Ġpower": 858,
      "Ġwher": 859,
      "Ġwhere": 860,
      "Ġwhil": 861,
      "dividu": 862,
      "Ġbl": 863,
      "Ġback": 864,
      "ink": 865,
      "Ġthink": 866,
      "ick": 867,
      "ine": 868,
      "ission": 869,
      "ations": 870,
      "cent": 871,
      "Ġpercent": 872,
      "Ġac": 873,
      "occ": 874,
      "Ġocc": 875,
      "Ġ5": 876,
      "Ġamong": 877,
      "Ġdirect": 878,
      "Ġagainst": 879,
      "Ġris": 880,
      "Ġrisk": 881,
      "Ġform": 882,
      "Ġcontro": 883,
      "ĠPro": 884,
      "rop": 885,
      "Ġsoci": 886,
      "Ġmaterial": 887,
      "term": 888,
      "Ġdevelopment": 889,
      "Ġblood": 890,
      "Ġgood": 891,
      "Ġher": 892,
      "uch": 893,
      "Ġmuch": 894,
      "Ġpopulation": 895,
      "Ġnow": 896,
      "Ġanother": 897,
      "Ġthre": 898,
      "res": 899,
      "ress": 900,
      "ers": 901,
      "red": 902,
      "Ġpres": 903,
      "__": 904,
      "arg": 905,
      "Ġlarg": 906,
      "Ġvar": 907,
      "Ġits": 908,
      "Ġproject": 909,
      "Ġobject": 910,
      "Ġhistory": 911,
      "Ġsignific": 912,
      "ĠUnit": 913,
      "Ġsame": 914,
      "Ġ10": 915,
      "Ġbo": 916,
      "Ġboth": 917,
      "Ġbas": 918,
      "Ġcountry": 919,
      "Ġcondition": 920,
      "Ġcons": 921,
      "Ġaddition": 922,
      "Ġfood": 923,
      "Ġfact": 924,
      "Ġpublish": 925,
      "ailable": 926,
      "vailable": 927,
      "Ġcar": 928,
      "Ġbecom": 929,
      "Ġplay": 930,
      "Ġsay": 931,
      "dividual": 932,
      "ident": 933,
      "ide": 934,
      "aid": 935,
      "Ġsaid": 936,
      "Ġconsid": 937,
      "Ġconsider": 938,
      "Ġdisc": 939,
      "Ġwom": 940,
      "Ġlook": 941,
      "Ġbook": 942,
      "Ġpresent": 943,
      "Ġproduct": 944,
      "Ġyoun": 945,
      "alth": 946,
      "Ġhealth": 947,
      "ath": 948,
      "Ġwomen": 949,
      "ten": 950,
      "Ġlife": 951,
      "Ġtreatment": 952,
      "Ġmaj": 953,
      "Ġmajor": 954,
      "Ġmad": 955,
      "Ġmade": 956,
      "Ġme": 957,
      "Ġmean": 958,
      "Ġcaus": 959,
      "ĠUnited": 960,
      "ĠUnivers": 961,
      "ĠUniversity": 962,
      "ically": 963,
      "Ġreg": 964,
      "Ġregion": 965,
      "Ġequ": 966,
      "Ġart": 967,
      "Ġfind": 968,
      "outh": 969,
      "Ġmake": 970,
      "Ġsecon": 971,
      "Ġsecond": 972,
      "ĠNational": 973,
      "Ġcommon": 974,
      "Ġdist": 975,
      "Ġ-": 976,
      "Ġactivit": 977,
      "ism": 978,
      "Ġsur": 979,
      "Ġoccur": 980,
      "mall": 981,
      "Ġsmall": 982,
      "Ġthree": 983,
      "Ġwhile": 984,
      "Ġown": 985,
      "Ġdown": 986,
      "Ġbuild": 987,
      "Ġword": 988,
      "elf": 989,
      "Ġsuccess": 990,
      "Ġamount": 991,
      "Ġcalled": 992,
      "ograph": 993,
      "Ġallow": 994,
      "urn": 995,
      "tern": 996,
      "ĠHow": 997,
      "Ġgra": 998,
      "Ġget": 999,
      "Ġgo": 1000,
      "Ġcontain": 1001,
      "ĠFor": 1002,
      "Ġperform": 1003,
      "chn": 1004,
      "echn": 1005,
      "Ġtechn": 1006,
      "Ġfun": 1007,
      "Ġfunction": 1008,
      "ave": 1009,
      "Ġclas": 1010,
      "Ġwithout": 1011,
      "ork": 1012,
      "ĠCon": 1013,
      "Ġlaw": 1014,
      "ffic": 1015,
      "Ġsignificant": 1016,
      "ĠOn": 1017,
      "Ġhim": 1018,
      "Ġindividual": 1019,
      "Ġrem": 1020,
      "Ġremain": 1021,
      "Ġstate": 1022,
      "imate": 1023,
      "struction": 1024,
      "Ġ&": 1025,
      "ĠYou": 1026,
      "ression": 1027,
      "Ġexper": 1028,
      "Ġexperi": 1029,
      "Ġexpl": 1030,
      "Ġdi": 1031,
      "Ġdur": 1032,
      "Ġduring": 1033,
      "Ġredu": 1034,
      "),": 1035,
      "Ġ[": 1036,
      "ĠEng": 1037,
      "Ġsubject": 1038,
      "Ġmillion": 1039,
      "duct": 1040,
      "Ġtradition": 1041,
      "Ġspec": 1042,
      "Ġspecific": 1043,
      "Ġearly": 1044,
      "struct": 1045,
      "Ġpo": 1046,
      "Ġpoin": 1047,
      "Ġpoint": 1048,
      "Ġpract": 1049,
      "Ġadd": 1050,
      "day": 1051,
      "Ġbod": 1052,
      "Ġbody": 1053,
      "Ġclass": 1054,
      "ĠYork": 1055,
      "Ġscient": 1056,
      "Ġsim": 1057,
      "Ġmust": 1058,
      "Ġmove": 1059,
      "vices": 1060,
      "gan": 1061,
      "Ġorgan": 1062,
      "Ġorganiz": 1063,
      "Ġwar": 1064,
      "Ġwant": 1065,
      "Ġevent": 1066,
      "Ġcent": 1067,
      "Ġcentur": 1068,
      "Ġcell": 1069,
      "Ġabove": 1070,
      "Ġinterest": 1071,
      "Ġunderst": 1072,
      "Ġunderstand": 1073,
      "Ġcontrol": 1074,
      "lish": 1075,
      "ablish": 1076,
      "ĠEnglish": 1077,
      "establish": 1078,
      "Ġtest": 1079,
      "Ġusually": 1080,
      "Ġcause": 1081,
      "ĠComm": 1082,
      "Ġread": 1083,
      "Ġend": 1084,
      "Ġexperience": 1085,
      "Ġ6": 1086,
      "Ġclos": 1087,
      "resent": 1088,
      "present": 1089,
      "Ġrepresent": 1090,
      "Ġtechnology": 1091,
      "vention": 1092,
      "ural": 1093,
      "atural": 1094,
      "Ġnatural": 1095,
      "avi": 1096,
      "vice": 1097,
      "view": 1098,
      "Ġview": 1099,
      "Ġref": 1100,
      "ient": 1101,
      "atient": 1102,
      "Ġpatient": 1103,
      "ily": 1104,
      "amily": 1105,
      "Ġfamily": 1106,
      "ix": 1107,
      "Ġvari": 1108,
      "Ġvarious": 1109,
      "Ġavailable": 1110,
      "Ġnecess": 1111,
      "Ġcontin": 1112,
      "Ġcontinu": 1113,
      "Ġmain": 1114,
      "ĠBut": 1115,
      "ock": 1116,
      "Ġmon": 1117,
      "ption": 1118,
      "Ġlear": 1119,
      "Ġlearn": 1120,
      "Ġspace": 1121,
      "Ġhand": 1122,
      "Ġhome": 1123,
      "Ġdid": 1124,
      "Ġyoung": 1125,
      "Ġdat": 1126,
      "Ġdata": 1127,
      "Ġstr": 1128,
      "Ġstart": 1129,
      "Ġstill": 1130,
      "Ġstand": 1131,
      "Ġstandard": 1132,
      "Ġland": 1133,
      "Ġstru": 1134,
      "Ġstruct": 1135,
      "Ġstructure": 1136,
      "ward": 1137,
      "man": 1138,
      "Ġimm": 1139,
      "Ġimage": 1140,
      "Ġfl": 1141,
      "Ġ20": 1142,
      "Ġterm": 1143,
      "Ġatt": 1144,
      "though": 1145,
      "Ġground": 1146,
      "Ġcap": 1147,
      "Ġstudents": 1148,
      "sible": 1149,
      "Ġpossible": 1150,
      "Ġname": 1151,
      "fficient": 1152,
      "ĠZ": 1153,
      "Ġstudies": 1154,
      "ĠAr": 1155,
      "ĠAl": 1156,
      "ribut": 1157,
      "ating": 1158,
      "Ġprot": 1159,
      "Ġresources": 1160,
      "Ġdoes": 1161,
      "ines": 1162,
      "ince": 1163,
      "ource": 1164,
      "identif": 1165,
      "Ġspecies": 1166,
      "Ġval": 1167,
      "Ġvalu": 1168,
      "Ġprotect": 1169,
      "Ġmember": 1170,
      "per": 1171,
      "Ġproper": 1172,
      "perature": 1173,
      "emperature": 1174,
      "ential": 1175,
      "crib": 1176,
      "ĠAnd": 1177,
      "estion": 1178,
      "Ġquestion": 1179,
      "Ġdef": 1180,
      "Ġconf": 1181,
      "ĠIf": 1182,
      "Ġdeterm": 1183,
      "Ġstrong": 1184,
      "Ġfew": 1185,
      "read": 1186,
      "Ġthere": 1187,
      "Ġ$": 1188,
      "ultural": 1189,
      "Ġcommunity": 1190,
      "Ġrecord": 1191,
      "Ġaccord": 1192,
      "ĠEx": 1193,
      "Ġmark": 1194,
      "Ġext": 1195,
      "ith": 1196,
      "ibility": 1197,
      "Ġparticip": 1198,
      "Ġapproach": 1199,
      "Ġalong": 1200,
      "ulture": 1201,
      "Ġdifference": 1202,
      "Ġestablish": 1203,
      "Ã©": 1204,
      "Ġtimes": 1205,
      "'t": 1206,
      "Ġshort": 1207,
      "Ġsince": 1208,
      "Ġ15": 1209,
      "eld": 1210,
      "ield": 1211,
      "Ġmodel": 1212,
      "iven": 1213,
      "Ġgiven": 1214,
      "twork": 1215,
      "Ġacc": 1216,
      "Ġaccount": 1217,
      "ĠRe": 1218,
      "Ġlarge": 1219,
      "ĠQ": 1220,
      "Ġincluding": 1221,
      "Ġusing": 1222,
      "Ġ17": 1223,
      "stit": 1224,
      "stitution": 1225,
      "stitut": 1226,
      "ribution": 1227,
      "Ġmonth": 1228,
      "Ġoff": 1229,
      "Ġinf": 1230,
      "face": 1231,
      "Ġsurface": 1232,
      "Ġsever": 1233,
      "Ġseveral": 1234,
      "ever": 1235,
      "ĠHowever": 1236,
      "Ġhowever": 1237,
      "Ġcour": 1238,
      "Ġmeas": 1239,
      "Ġmeasure": 1240,
      "Ġmeth": 1241,
      "Ġmethod": 1242,
      "iqu": 1243,
      "Ġcur": 1244,
      "Ġcurr": 1245,
      "Ġcurrent": 1246,
      "vent": 1247,
      "Ġprevent": 1248,
      "av": 1249,
      "Ġcountri": 1250,
      "ized": 1251,
      "urop": 1252,
      "ĠEurop": 1253,
      "âĢ¦": 1254,
      "Ġ198": 1255,
      "overed": 1256,
      "Ġoften": 1257,
      "ality": 1258,
      "Ġnor": 1259,
      "cid": 1260,
      "Ġsug": 1261,
      "Ġsugg": 1262,
      "Ġsuggest": 1263,
      "âĢ¢": 1264,
      "Ġoffic": 1265,
      "Ġpractic": 1266,
      "Ġcountries": 1267,
      "Ġprin": 1268,
      "Ġprim": 1269,
      "Ġfield": 1270,
      "ull": 1271,
      "Ġposition": 1272,
      "Ġtemperature": 1273,
      "Ġrecent": 1274,
      "Ġsocial": 1275,
      "Ġlater": 1276,
      "ase": 1277,
      "ĠHe": 1278,
      "ĠHealth": 1279,
      "cially": 1280,
      "Ġenough": 1281,
      "Ġfre": 1282,
      "Ġnetwork": 1283,
      "Ġnear": 1284,
      "Ġnever": 1285,
      "Ġidentif": 1286,
      "Ġ7": 1287,
      "Ġent": 1288,
      "Ġalway": 1289,
      "ertain": 1290,
      "Ġcertain": 1291,
      "ĠInd": 1292,
      "ĠIntern": 1293,
      "rain": 1294,
      "Ġdiffic": 1295,
      "Ġdifficult": 1296,
      "Ġadv": 1297,
      "Ġhaving": 1298,
      "iving": 1299,
      "ĠGod": 1300,
      "iod": 1301,
      "Ġperiod": 1302,
      "Ġpers": 1303,
      "Ġperson": 1304,
      "ĠâĢĺ": 1305,
      "ox": 1306,
      "ax": 1307,
      "Ġspecial": 1308,
      "Ġalread": 1309,
      "Ġblack": 1310,
      "pend": 1311,
      "Ġ8": 1312,
      "Ġ9": 1313,
      "uc": 1314,
      "educ": 1315,
      "Ġeduc": 1316,
      "Ġeducation": 1317,
      "Ġturn": 1318,
      "Ġimprove": 1319,
      "ual": 1320,
      "angu": 1321,
      "anguage": 1322,
      "Ġlanguage": 1323,
      "Ġrang": 1324,
      "Ġlight": 1325,
      "duc": 1326,
      "Ġnext": 1327,
      "10": 1328,
      "Ġtechniqu": 1329,
      "Ġmight": 1330,
      "cl": 1331,
      "li": 1332,
      "Ġbeli": 1333,
      "Ġbelie": 1334,
      "Ġgl": 1335,
      "Ġglob": 1336,
      "Ġold": 1337,
      "Ġimpact": 1338,
      "Ġprom": 1339,
      "vest": 1340,
      "Ġtext": 1341,
      "Ġprinci": 1342,
      "cial": 1343,
      "Ġclimate": 1344,
      "ĠTher": 1345,
      "ĠThere": 1346,
      "ĠâĢĶ": 1347,
      "Ġaddress": 1348,
      "Ġscientist": 1349,
      "Ġscientific": 1350,
      "Ġexist": 1351,
      "Ġlocal": 1352,
      "ĠAmerica": 1353,
      "Ġactually": 1354,
      "Ġmaintain": 1355,
      "Ġexplain": 1356,
      "sign": 1357,
      "Ġdesign": 1358,
      "Ġinfl": 1359,
      "Ġcentury": 1360,
      "Ġdiscus": 1361,
      "Ġvol": 1362,
      "vol": 1363,
      "Ġinvol": 1364,
      "Ġide": 1365,
      "ugh": 1366,
      "ĠSh": 1367,
      "Ġlive": 1368,
      "Ġdon": 1369,
      "air": 1370,
      "Ġattack": 1371,
      "Ġartic": 1372,
      "Ġarticle": 1373,
      "ather": 1374,
      "Ġ16": 1375,
      "Ġ12": 1376,
      "ern": 1377,
      "Ġmodern": 1378,
      "acter": 1379,
      "aracter": 1380,
      "Ġcharacter": 1381,
      "ĠBrit": 1382,
      "ĠBritish": 1383,
      "Ġdeath": 1384,
      "Ġevi": 1385,
      "Ġevid": 1386,
      "Ġevidence": 1387,
      "vious": 1388,
      "Ġhous": 1389,
      "Ġphy": 1390,
      "Ġphys": 1391,
      "Ġ'": 1392,
      "Ġve": 1393,
      "ublic": 1394,
      "Ġwid": 1395,
      "ments": 1396,
      "Ġrun": 1397,
      "val": 1398,
      "Ġheart": 1399,
      "part": 1400,
      "partment": 1401,
      "Ġentire": 1402,
      "Ġinflu": 1403,
      "row": 1404,
      "Ġnational": 1405,
      "Ġphysical": 1406,
      "Ġsimil": 1407,
      "Ġsimilar": 1408,
      "Ġsimple": 1409,
      "Ġver": 1410,
      "Ġaccess": 1411,
      "atter": 1412,
      "ĠEurope": 1413,
      "Ġquality": 1414,
      "uth": 1415,
      "uthor": 1416,
      "Ġauthor": 1417,
      "ator": 1418,
      "Ġpolit": 1419,
      "Ġpolitical": 1420,
      "Ġpolic": 1421,
      "Ġorig": 1422,
      "Ġorigin": 1423,
      "Ġaffect": 1424,
      "Ġbrain": 1425,
      "Ġbre": 1426,
      "Ġkind": 1427,
      "Ġke": 1428,
      "Ġwind": 1429,
      "Ġser": 1430,
      "Ġservices": 1431,
      "Ġset": 1432,
      "Ġsk": 1433,
      "ceive": 1434,
      "Ġreceive": 1435,
      "Ġservice": 1436,
      "Ġlast": 1437,
      "Ġproduction": 1438,
      "ection": 1439,
      "lection": 1440,
      "Ġinfection": 1441,
      "les": 1442,
      "Ġcomple": 1443,
      "Ġcomplet": 1444,
      "Ġfrequ": 1445,
      "Ġcannot": 1446,
      "augh": 1447,
      "ization": 1448,
      "ize": 1449,
      "Ġhead": 1450,
      "Ġrespect": 1451,
      "Ġexpect": 1452,
      "Ġprevious": 1453,
      "atory": 1454,
      "ank": 1455,
      "each": 1456,
      "Ġteach": 1457,
      "tention": 1458,
      "ĠAll": 1459,
      "pect": 1460,
      "ĠInstitut": 1461,
      "tle": 1462,
      "ittle": 1463,
      "Ġlittle": 1464,
      "ite": 1465,
      "ge": 1466,
      "gether": 1467,
      "Ġtake": 1468,
      "erg": 1469,
      "Ġenerg": 1470,
      "Ġenergy": 1471,
      "Ġeng": 1472,
      "Ġengine": 1473,
      "Ġlow": 1474,
      "Ġlower": 1475,
      "soci": 1476,
      "Ġassoci": 1477,
      "Ġassociated": 1478,
      "ĠSoci": 1479,
      "otential": 1480,
      "Ġscience": 1481,
      "ĠScience": 1482,
      "urther": 1483,
      "urch": 1484,
      "Ġfurther": 1485,
      "Ġtru": 1486,
      "Ġconduct": 1487,
      "Ġ197": 1488,
      "ĠQu": 1489,
      "Ġactivities": 1490,
      "enc": 1491,
      "ency": 1492,
      "Ġsc": 1493,
      "Ġthey": 1494,
      "ĠJew": 1495,
      "Ġlink": 1496,
      "ĠIndian": 1497,
      "18": 1498,
      "Ġnecessary": 1499,
      "fort": 1500,
      "ffort": 1501,
      "Ġeffort": 1502,
      "af": 1503,
      "Ġsaf": 1504,
      "resident": 1505,
      "Ġrather": 1506,
      "Ġgive": 1507,
      "Ġeffective": 1508,
      "havi": 1509,
      "Ġbehavi": 1510,
      "Ġopen": 1511,
      "Ġoper": 1512,
      "yp": 1513,
      "Ġtyp": 1514,
      "Ġpotential": 1515,
      "Ġapplic": 1516,
      "____": 1517,
      "ĠCol": 1518,
      "Ġitself": 1519,
      "atch": 1520,
      "ocus": 1521,
      "Ġfocus": 1522,
      "erman": 1523,
      "ĠGerman": 1524,
      "ĠWhen": 1525,
      "Ġhap": 1526,
      "Ġhapp": 1527,
      "Ġgu": 1528,
      "ird": 1529,
      "Ġanim": 1530,
      "Ġanimal": 1531,
      "Ġalready": 1532,
      "Ġnon": 1533,
      "Ġthing": 1534,
      "und": 1535,
      "ond": 1536,
      "ason": 1537,
      "Ġreason": 1538,
      "Ġfund": 1539,
      "ĠUS": 1540,
      "Ġrelig": 1541,
      "cis": 1542,
      "cision": 1543,
      "Ġrec": 1544,
      "Ġrecog": 1545,
      "Ġrecogn": 1546,
      "Ġdoct": 1547,
      "Ġrad": 1548,
      "Ġradi": 1549,
      "Ġind": 1550,
      "Ġindust": 1551,
      "ich": 1552,
      "Ġearli": 1553,
      "Ġskill": 1554,
      "Ġbelieve": 1555,
      ".\"": 1556,
      "ris": 1557,
      "Ġco": 1558,
      "Ġfollowing": 1559,
      "Ġproduc": 1560,
      "Ġproduce": 1561,
      "Ġtogether": 1562,
      "ifi": 1563,
      "ified": 1564,
      "Ġsociet": 1565,
      "ĠSouth": 1566,
      "ĠSome": 1567,
      "ĠWhat": 1568,
      "Ġleg": 1569,
      "Ġleast": 1570,
      "Ġlab": 1571,
      "Ġopport": 1572,
      "Ġopportun": 1573,
      "ww": 1574,
      "Ġwritten": 1575,
      "Ġrest": 1576,
      "Ġempl": 1577,
      "Ġemplo": 1578,
      "Ġemploy": 1579,
      "vation": 1580,
      "Ġaccept": 1581,
      "Ġacro": 1582,
      "Ġconsum": 1583,
      "Ġrelations": 1584,
      "Ġrelationship": 1585,
      "Ġrelative": 1586,
      "ĠInternational": 1587,
      "Ġmil": 1588,
      "ium": 1589,
      "Ġdepend": 1590,
      "Ġhappen": 1591,
      "Ġprofes": 1592,
      "Ġmanage": 1593,
      "wh": 1594,
      "ash": 1595,
      "oh": 1596,
      "ĠJoh": 1597,
      "ĠJohn": 1598,
      "esearch": 1599,
      "ĠResearch": 1600,
      "agno": 1601,
      "Ġdiagno": 1602,
      "ah": 1603,
      "az": 1604,
      "Ġdecision": 1605,
      "Ġbuilding": 1606,
      "Ġappe": 1607,
      "Ġappear": 1608,
      "Ġmarket": 1609,
      "What": 1610,
      "nes": 1611,
      "ness": 1612,
      "Ġtravel": 1613,
      "Ġactivity": 1614,
      "Ġcollect": 1615,
      "Ġnature": 1616,
      "Ġrelated": 1617,
      "Ġprinciple": 1618,
      "Ġcrit": 1619,
      "Ġcor": 1620,
      "Ġcase": 1621,
      "ease": 1622,
      "Ġdisease": 1623,
      "lease": 1624,
      "comm": 1625,
      "commend": 1626,
      "Ġrecommend": 1627,
      "Ġcost": 1628,
      "Ġcle": 1629,
      "Ġclear": 1630,
      "Ġresearchers": 1631,
      "Ġinvolved": 1632,
      "fric": 1633,
      "ĠAfric": 1634,
      "Ġpain": 1635,
      "Ġmanagement": 1636,
      "Ġbecome": 1637,
      "one": 1638,
      "ĠPh": 1639,
      "oph": 1640,
      "Ġfour": 1641,
      "Ġindustry": 1642,
      "Ġpar": 1643,
      "Ġparent": 1644,
      "Ġreligious": 1645,
      "ification": 1646,
      "elve": 1647,
      "thing": 1648,
      "Ġsomething": 1649,
      "Ġeconomic": 1650,
      "Ġremove": 1651,
      "Ġfull": 1652,
      "Ġinvest": 1653,
      "Ġleave": 1654,
      "Ġreach": 1655,
      "Ġprofession": 1656,
      "Ġwhite": 1657,
      "Ġflow": 1658,
      "ither": 1659,
      "Ġeither": 1660,
      "thern": 1661,
      "Ġeas": 1662,
      "Ġele": 1663,
      "ivers": 1664,
      "Ġunivers": 1665,
      "Ġcomb": 1666,
      "Ġkill": 1667,
      "ably": 1668,
      "Ġseem": 1669,
      "Ġsee": 1670,
      "ĠDe": 1671,
      "ĠDepartment": 1672,
      "ue": 1673,
      "Ġinclude": 1674,
      "Ġgrowth": 1675,
      "ourn": 1676,
      "ournal": 1677,
      "Ġintern": 1678,
      "Ġinternational": 1679,
      "Ġliving": 1680,
      "Ġsuccessful": 1681,
      "ĠSchool": 1682,
      "ĠStud": 1683,
      "ustr": 1684,
      "Ġlim": 1685,
      "Ġlimit": 1686,
      "Ġlist": 1687,
      "ilities": 1688,
      "Ġri": 1689,
      "Ġtri": 1690,
      "Ġpri": 1691,
      "Ġhard": 1692,
      "Ġregard": 1693,
      "oward": 1694,
      "Ġtoward": 1695,
      "itive": 1696,
      "ĠSp": 1697,
      "Ġfactor": 1698,
      "Ġreduce": 1699,
      "ĠCent": 1700,
      "Ġofficial": 1701,
      "Ġchange": 1702,
      "Ġchanges": 1703,
      "Ġexpos": 1704,
      "Ġ30": 1705,
      "Ġthroughout": 1706,
      "ountain": 1707,
      "outhern": 1708,
      "ptom": 1709,
      "mptom": 1710,
      "ymptom": 1711,
      "Ġsymptom": 1712,
      "Ġthem": 1713,
      "ĠNor": 1714,
      "ĠNorth": 1715,
      "Ġearth": 1716,
      "Ġemerg": 1717,
      "Ġindic": 1718,
      "Ġbehavior": 1719,
      "Ġadult": 1720,
      "Ġmult": 1721,
      "Ġmin": 1722,
      "Ġconcept": 1723,
      "Ġ14": 1724,
      "Ġru": 1725,
      "Ġaccording": 1726,
      "50": 1727,
      "irc": 1728,
      "Ġcirc": 1729,
      "came": 1730,
      "Ġbecame": 1731,
      "Ġbegan": 1732,
      "round": 1733,
      "Ġ196": 1734,
      "Ġserious": 1735,
      "igure": 1736,
      "ĠEnvironment": 1737,
      "Ġspeak": 1738,
      "arm": 1739,
      "Ġ100": 1740,
      "Ġ13": 1741,
      "Ġ11": 1742,
      "Ġsuff": 1743,
      "Ġspread": 1744,
      "Ġbreak": 1745,
      "ĠX": 1746,
      "ug": 1747,
      "ugust": 1748,
      "rug": 1749,
      "Ġdrug": 1750,
      ".âĢĿ": 1751,
      "Ġmatter": 1752,
      "Ġcontribut": 1753,
      "ception": 1754,
      "Ġlef": 1755,
      "Ġleft": 1756,
      "Ġles": 1757,
      "Ġless": 1758,
      "Ġlet": 1759,
      "Ġmus": 1760,
      "Ġ2012": 1761,
      "Ġ2010": 1762,
      "Ġ2011": 1763,
      "Ġlikely": 1764,
      "Ġquick": 1765,
      "Ġdoctor": 1766,
      "Ġord": 1767,
      "Ġorder": 1768,
      "Ġoppos": 1769,
      "ĠEngland": 1770,
      "ĠProgram": 1771,
      "Ġsource": 1772,
      "undred": 1773,
      "Ġpost": 1774,
      "Ġpas": 1775,
      "Ġpass": 1776,
      "ases": 1777,
      "Ġcases": 1778,
      "eng": 1779,
      "ength": 1780,
      "ens": 1781,
      "Ġsens": 1782,
      "Ġmen": 1783,
      "Ġtaken": 1784,
      "ecially": 1785,
      "pecially": 1786,
      "especially": 1787,
      "Ġespecially": 1788,
      "Ġ|": 1789,
      "Ġrefer": 1790,
      "Ġthreat": 1791,
      "ptember": 1792,
      "uture": 1793,
      "Ġfuture": 1794,
      "Ġsurvi": 1795,
      "atic": 1796,
      "attle": 1797,
      "Ġpositive": 1798,
      "Ġhour": 1799,
      "Ġcame": 1800,
      "ile": 1801,
      "istic": 1802,
      "Ġconsist": 1803,
      "rist": 1804,
      "ĠChrist": 1805,
      "ĠChristian": 1806,
      "Ġdue": 1807,
      "turn": 1808,
      "Ġreturn": 1809,
      "Ġfree": 1810,
      "Ġwhol": 1811,
      "Ġgeneral": 1812,
      "Ġgenerally": 1813,
      "Ġnorm": 1814,
      "Ġimag": 1815,
      "oftw": 1816,
      "ef": 1817,
      "enef": 1818,
      "Ġbenef": 1819,
      "Ġbenefit": 1820,
      "opular": 1821,
      "cern": 1822,
      "Ġconcern": 1823,
      "Ġwild": 1824,
      "duction": 1825,
      "Ġinvestig": 1826,
      "ĠWith": 1827,
      "Ġpopular": 1828,
      "ike": 1829,
      "Ġcare": 1830,
      "Ġcollection": 1831,
      "uter": 1832,
      "Ġcomputer": 1833,
      "ologist": 1834,
      "empt": 1835,
      "Ġattempt": 1836,
      "ounc": 1837,
      "ake": 1838,
      "Ġchem": 1839,
      "Ġchemical": 1840,
      "12": 1841,
      "amp": 1842,
      "Ġcamp": 1843,
      "Ġculture": 1844,
      "Ġfarm": 1845,
      "www": 1846,
      "raw": 1847,
      "Ġdraw": 1848,
      "ĠHistory": 1849,
      "Ġglobal": 1850,
      "stance": 1851,
      "Ġregular": 1852,
      "Ġalthough": 1853,
      "ĠAlthough": 1854,
      "Ġ194": 1855,
      "Ġdem": 1856,
      "like": 1857,
      "ĠState": 1858,
      "ucle": 1859,
      "Ġnucle": 1860,
      "ĠWhile": 1861,
      "Ġcontact": 1862,
      "Ġdefin": 1863,
      "Ġthird": 1864,
      "Ġobtain": 1865,
      "Ġinfluence": 1866,
      "mber": 1867,
      "ovember": 1868,
      "cember": 1869,
      "ĠDecember": 1870,
      "most": 1871,
      "Ġalmost": 1872,
      "Ġbro": 1873,
      "Ġbird": 1874,
      "Ġcommunities": 1875,
      "Ġcommunic": 1876,
      "Ġmeet": 1877,
      "Ġdiscover": 1878,
      "Ġcover": 1879,
      "Ġdiscovered": 1880,
      "tim": 1881,
      "Ġsometim": 1882,
      "Ġthought": 1883,
      "Ġyet": 1884,
      "ĠThey": 1885,
      "Ġmy": 1886,
      "Ġmed": 1887,
      "Ġmedical": 1888,
      "Ġmedic": 1889,
      "Ġmet": 1890,
      "Ġblock": 1891,
      "ĠCount": 1892,
      "Ġhundred": 1893,
      "ĠChurch": 1894,
      "scrib": 1895,
      "Ġdescrib": 1896,
      "urpos": 1897,
      "Ġpurpos": 1898,
      "Ġpropos": 1899,
      "ĠAfter": 1900,
      "ĠPresident": 1901,
      "//": 1902,
      "://": 1903,
      "Ġreflect": 1904,
      "Ġpublished": 1905,
      "Ġlos": 1906,
      "Ġstates": 1907,
      "Ġinvolve": 1908,
      "ĠComp": 1909,
      "verage": 1910,
      "Ġriver": 1911,
      "Ġenc": 1912,
      "Ġencour": 1913,
      "Ġstor": 1914,
      "istor": 1915,
      "Ġhistor": 1916,
      "Ġpriv": 1917,
      "ription": 1918,
      "cription": 1919,
      "anc": 1920,
      "Ġalways": 1921,
      "Ġsays": 1922,
      "Ġbuilt": 1923,
      "Ġmaking": 1924,
      "Ġmakes": 1925,
      "rim": 1926,
      "rink": 1927,
      "Ġsw": 1928,
      "Ġjob": 1929,
      "Ġmulti": 1930,
      "Ġmultiple": 1931,
      "Ġhold": 1932,
      "ĠThat": 1933,
      "Ġvariet": 1934,
      "Ġsol": 1935,
      "Ġprotection": 1936,
      "Ġsite": 1937,
      "Ġ0": 1938,
      "ĠAugust": 1939,
      "Ġsometimes": 1940,
      "Ġstory": 1941,
      "Ġeasily": 1942,
      "Ġprivate": 1943,
      "attern": 1944,
      "Ġpattern": 1945,
      "Ġbelow": 1946,
      "Ġversion": 1947,
      "Ġvir": 1948,
      "Ġbr": 1949,
      "ration": 1950,
      "ren": 1951,
      "rench": 1952,
      "ĠFrench": 1953,
      "Ġtrain": 1954,
      "Ġarch": 1955,
      "Ġarm": 1956,
      "Ġchurch": 1957,
      "ivil": 1958,
      "ervation": 1959,
      "Ġevolution": 1960,
      "volution": 1961,
      "Ġline": 1962,
      "line": 1963,
      "ld": 1964,
      "orld": 1965,
      "ĠWorld": 1966,
      "Ġcompl": 1967,
      "Ġcomplex": 1968,
      "Ġcompan": 1969,
      "Ġcompar": 1970,
      "Ther": 1971,
      "There": 1972,
      "ĠWe": 1973,
      "ĠWest": 1974,
      "Ġshe": 1975,
      "ĠWash": 1976,
      "ĠDevelop": 1977,
      "riend": 1978,
      "Ġfriend": 1979,
      "Ġindustri": 1980,
      "Ġareas": 1981,
      "Ġclean": 1982,
      "Ġkid": 1983,
      "Ġseason": 1984,
      "Ġlove": 1985,
      "Ġelectric": 1986,
      "Ġ50": 1987,
      "Ġbased": 1988,
      "Ġaltern": 1989,
      "Ġshar": 1990,
      "Ġadm": 1991,
      "par": 1992,
      "Ġprepar": 1993,
      "Ġsepar": 1994,
      "oto": 1995,
      "Ġphoto": 1996,
      "Ġsto": 1997,
      "Ġbeing": 1998,
      "Ġelectron": 1999,
      "199": 2000,
      "ree": 2001,
      "Ġfe": 2002,
      "Ġfeature": 2003,
      "Ġfeel": 2004,
      "ep": 2005,
      "Ġkeep": 2006,
      "Ġkey": 2007,
      "Ġstep": 2008,
      "Ġcharacteristic": 2009,
      "ild": 2010,
      "ildren": 2011,
      "ination": 2012,
      "gin": 2013,
      "Ġbegin": 2014,
      "rid": 2015,
      "usion": 2016,
      "Ġdecl": 2017,
      "Ġill": 2018,
      "Ġable": 2019,
      "Ġ=": 2020,
      "Ġel": 2021,
      "Ġo": 2022,
      "Ġoil": 2023,
      "ER": 2024,
      "Ġreligion": 2025,
      "ĠCl": 2026,
      "light": 2027,
      "Ġacros": 2028,
      "Ġacross": 2029,
      "Ġoccup": 2030,
      "Ġpast": 2031,
      "Â°": 2032,
      "ibr": 2033,
      "ibrary": 2034,
      "ĠOr": 2035,
      "Ġever": 2036,
      "ether": 2037,
      "Ġwhether": 2038,
      "ently": 2039,
      "Ġcontent": 2040,
      "Ġdisord": 2041,
      "ouble": 2042,
      "ccord": 2043,
      "Ġletter": 2044,
      "ister": 2045,
      "elves": 2046,
      "selves": 2047,
      "Ġthemselves": 2048,
      "ounter": 2049,
      "Ġcivil": 2050,
      "Ġsize": 2051,
      "Ġgre": 2052,
      "Ġgreen": 2053,
      "Ġreview": 2054,
      "Ġcorre": 2055,
      "Ġcorrect": 2056,
      "ĠWar": 2057,
      "Ġconver": 2058,
      "Ġvac": 2059,
      "Ġfac": 2060,
      "Ġfish": 2061,
      "Ġfire": 2062,
      "ĠJewish": 2063,
      "How": 2064,
      "On": 2065,
      "30": 2066,
      "Ġdivi": 2067,
      "ivit": 2068,
      "ivity": 2069,
      "place": 2070,
      "Ġ--": 2071,
      "Ġremember": 2072,
      "Ġrock": 2073,
      "ĠRiver": 2074,
      "Ġheld": 2075,
      "Ġsearch": 2076,
      "Ġgradu": 2077,
      "Ġprovide": 2078,
      "Ġwhole": 2079,
      "Ġcomplete": 2080,
      "osoph": 2081,
      "ilosoph": 2082,
      "Ġphilosoph": 2083,
      "ouncil": 2084,
      "Ġrole": 2085,
      "Ġsix": 2086,
      "ĠEduc": 2087,
      "ĠAustr": 2088,
      "ĠAustral": 2089,
      "Ġillustr": 2090,
      "Ġshown": 2091,
      "Ġprimary": 2092,
      "Ġside": 2093,
      "Ġself": 2094,
      "Ġsources": 2095,
      "self": 2096,
      "Ġhimself": 2097,
      "Ġflu": 2098,
      "ues": 2099,
      "Ġbacter": 2100,
      "ridge": 2101,
      "Ġdrink": 2102,
      "Ġpage": 2103,
      "Ġknowl": 2104,
      "Ġknowled": 2105,
      "Ġknowledge": 2106,
      "hib": 2107,
      "You": 2108,
      "tro": 2109,
      "troduc": 2110,
      "ton": 2111,
      "Ġpropert": 2112,
      "When": 2113,
      "Ġsection": 2114,
      "action": 2115,
      "Ġselect": 2116,
      "Ġdetermine": 2117,
      "Ġput": 2118,
      "Ġ2009": 2119,
      "ĠAd": 2120,
      "Ġbest": 2121,
      "Ġpred": 2122,
      "Ġsurround": 2123,
      "Ġcanc": 2124,
      "Ġcancer": 2125,
      "graph": 2126,
      "Ġphotograph": 2127,
      "ĠNovember": 2128,
      "Ġreduc": 2129,
      "Ġsurve": 2130,
      "Ġunt": 2131,
      "Ġuntil": 2132,
      "Ġoption": 2133,
      "ning": 2134,
      "Ġbeginning": 2135,
      "An": 2136,
      "NA": 2137,
      "Ġdemand": 2138,
      "Ġdemon": 2139,
      "Ġdemonst": 2140,
      "Ġcommand": 2141,
      "Ġmag": 2142,
      "osph": 2143,
      "Ġrequired": 2144,
      "work": 2145,
      "oid": 2146,
      "void": 2147,
      "bably": 2148,
      "Ġprobably": 2149,
      "Ġaway": 2150,
      "Ġstrate": 2151,
      "Ġstrateg": 2152,
      "Ġupon": 2153,
      "ĠWill": 2154,
      "echnology": 2155,
      ",\"": 2156,
      "Ġattention": 2157,
      "umm": 2158,
      "Ġsumm": 2159,
      "Ġcours": 2160,
      "Ġcourse": 2161,
      "ccording": 2162,
      "Ġalternative": 2163,
      "Ġconcent": 2164,
      "Ġconn": 2165,
      "Ġconnect": 2166,
      "Ġconnection": 2167,
      "irection": 2168,
      "Ġdirection": 2169,
      "Ġresponsible": 2170,
      "Ġrespons": 2171,
      "Ġtransport": 2172,
      "Ġtoday": 2173,
      "Ġperformance": 2174,
      "Ġaverage": 2175,
      "Ġaction": 2176,
      "Ġ2008": 2177,
      "imately": 2178,
      "Ġcontroll": 2179,
      "11": 2180,
      "Ġnam": 2181,
      "ose": 2182,
      "Ġseries": 2183,
      "quence": 2184,
      "Ġfail": 2185,
      "tail": 2186,
      "Ġdetail": 2187,
      "Ġfin": 2188,
      "Ġfigure": 2189,
      "Ġwithin": 2190,
      "ximately": 2191,
      "Ġapproximately": 2192,
      "Ġnorth": 2193,
      "Ġnorthern": 2194,
      "Ġpoll": 2195,
      "clusion": 2196,
      "ĠÂ": 2197,
      "ĠAct": 2198,
      "Ġcolor": 2199,
      "Ġbillion": 2200,
      "Ġship": 2201,
      "Ġequip": 2202,
      "iv": 2203,
      "Ġtax": 2204,
      "Ġreally": 2205,
      "Ġtry": 2206,
      "ĠEuropean": 2207,
      "amil": 2208,
      "Ġfamil": 2209,
      "Ġfamilies": 2210,
      "Ġfil": 2211,
      "Ġdemonstr": 2212,
      "Ġmilit": 2213,
      "Ġmilitary": 2214,
      "Ġ2013": 2215,
      "troduction": 2216,
      "Ġactive": 2217,
      "Ġrange": 2218,
      "Ġvirus": 2219,
      "ush": 2220,
      "Ġmovement": 2221,
      "Ġjournal": 2222,
      "ĠJournal": 2223,
      "Ġjo": 2224,
      "Ġjoin": 2225,
      "Ġthings": 2226,
      "Ġthous": 2227,
      "Ġthousand": 2228,
      "Ġjud": 2229,
      "Ġquite": 2230,
      "Ġwhy": 2231,
      "epend": 2232,
      "Ġindepend": 2233,
      "Ġskin": 2234,
      "Ġpap": 2235,
      "Ġpaper": 2236,
      "oftwar": 2237,
      "Ġet": 2238,
      "Ġest": 2239,
      "Ġestim": 2240,
      "Ġlargest": 2241,
      "Ġlearning": 2242,
      "Ġarg": 2243,
      "Ġargu": 2244,
      "cur": 2245,
      "curity": 2246,
      "Ġsecurity": 2247,
      "iversity": 2248,
      "Ġcity": 2249,
      "Ġstop": 2250,
      "Ġeducational": 2251,
      "Ġsolution": 2252,
      "ĠOther": 2253,
      "Ġrout": 2254,
      "Ġrate": 2255,
      "orn": 2256,
      "iber": 2257,
      "Ġbi": 2258,
      "ially": 2259,
      "ĠCenter": 2260,
      "alk": 2261,
      "Ġtalk": 2262,
      "Ġwalk": 2263,
      "Ġvacc": 2264,
      "ĠMay": 2265,
      "Äģ": 2266,
      "Ġhouse": 2267,
      "Ġlarger": 2268,
      "ĠIndia": 2269,
      ",âĢĿ": 2270,
      "ĠMarch": 2271,
      "ĠMan": 2272,
      "Ġdiscussion": 2273,
      "Ġbroad": 2274,
      "Ġhere": 2275,
      "If": 2276,
      "hibit": 2277,
      "Ġsit": 2278,
      "Ġsitu": 2279,
      "Ġreference": 2280,
      "ired": 2281,
      "Ġmind": 2282,
      "ung": 2283,
      "rought": 2284,
      "Ġbrought": 2285,
      "ift": 2286,
      "ĠEar": 2287,
      "ĠEarth": 2288,
      "Ġseen": 2289,
      "ground": 2290,
      "otion": 2291,
      "iction": 2292,
      "Ġmention": 2293,
      "ortion": 2294,
      "ict": 2295,
      "icture": 2296,
      "Ġpicture": 2297,
      "Ġpredict": 2298,
      "Ġexposure": 2299,
      "Ġcarb": 2300,
      "Ġcarbon": 2301,
      "Ġcarri": 2302,
      "ĠUnion": 2303,
      "Ġobs": 2304,
      "Ġobser": 2305,
      "rof": 2306,
      "off": 2307,
      "stant": 2308,
      "play": 2309,
      "Ġdisplay": 2310,
      "ĠWashing": 2311,
      "ĠWashington": 2312,
      "Ġcome": 2313,
      "Ġadmin": 2314,
      "Ġadminist": 2315,
      "Ġsociety": 2316,
      "Ġlabor": 2317,
      "fact": 2318,
      "ufact": 2319,
      "Ġmanufact": 2320,
      "Ġcontext": 2321,
      "etic": 2322,
      "Ġgenetic": 2323,
      "Ġonline": 2324,
      "astern": 2325,
      "ĠWestern": 2326,
      "Ġcharg": 2327,
      "arget": 2328,
      "Ġtarget": 2329,
      "Ġchall": 2330,
      "Ġchalleng": 2331,
      "Ġshall": 2332,
      "Ġfall": 2333,
      "tter": 2334,
      "Ġbetter": 2335,
      "For": 2336,
      "Ġimportance": 2337,
      "16": 2338,
      "17": 2339,
      "15": 2340,
      "Ġ2007": 2341,
      "Ġemission": 2342,
      "Ġpresident": 2343,
      "ĠWilli": 2344,
      "ĠWilliam": 2345,
      "Ġexam": 2346,
      "ie": 2347,
      "chie": 2348,
      "Ġachie": 2349,
      "Ġachieve": 2350,
      "ief": 2351,
      "14": 2352,
      "13": 2353,
      "Ġfeet": 2354,
      "arily": 2355,
      "uel": 2356,
      "Ġfuel": 2357,
      "Ġidea": 2358,
      "Ġideas": 2359,
      "Ġelements": 2360,
      "ĠEducation": 2361,
      "tober": 2362,
      "ctober": 2363,
      "ĠOctober": 2364,
      "Ġphysic": 2365,
      "Ġtype": 2366,
      "Ġtypes": 2367,
      "Ġtypically": 2368,
      "Ġsoil": 2369,
      "Ġtechnolog": 2370,
      "Ġability": 2371,
      "Ġz": 2372,
      "IV": 2373,
      "It": 2374,
      "Ġcourt": 2375,
      "Ġexpert": 2376,
      "Ġplac": 2377,
      "Ġavoid": 2378,
      "abit": 2379,
      "Ġhabit": 2380,
      "Ġextre": 2381,
      "Ġextrem": 2382,
      "Ġsample": 2383,
      "Ġextend": 2384,
      "Ġ25": 2385,
      "itud": 2386,
      "Ġcells": 2387,
      "Ġemotion": 2388,
      "Ġtherefor": 2389,
      "cu": 2390,
      "Ġdocu": 2391,
      "Ġdocument": 2392,
      "Ġwood": 2393,
      "Ġmeans": 2394,
      "now": 2395,
      "ellow": 2396,
      "Ġface": 2397,
      "Ġuniqu": 2398,
      "lege": 2399,
      "ĠCollege": 2400,
      "Ġclose": 2401,
      "Ġslow": 2402,
      "Ġaccom": 2403,
      "Ġlay": 2404,
      "Ġcarry": 2405,
      "Ġrep": 2406,
      "ĠAp": 2407,
      "ĠApr": 2408,
      "ĠApril": 2409,
      "Ġcritical": 2410,
      "ĠAfrican": 2411,
      "ĠAfrica": 2412,
      "Ġneg": 2413,
      "Ġnegative": 2414,
      "Ġneigh": 2415,
      "Ġvariety": 2416,
      "ream": 2417,
      "ĠDavi": 2418,
      "Ġcommit": 2419,
      "ruit": 2420,
      "Ġfruit": 2421,
      "ov": 2422,
      "cies": 2423,
      "encies": 2424,
      "Ġarea": 2425,
      "Ġmagn": 2426,
      "Ġdistribution": 2427,
      "Ġparticularly": 2428,
      "raf": 2429,
      "raft": 2430,
      "Ġstrength": 2431,
      "Ġlength": 2432,
      "Ġimmun": 2433,
      "rad": 2434,
      "ford": 2435,
      "Ġmother": 2436,
      "Ġtell": 2437,
      "ĠSociet": 2438,
      "gress": 2439,
      "Ġprogress": 2440,
      "Ġexpress": 2441,
      "Ġbig": 2442,
      "Ġlocated": 2443,
      "idd": 2444,
      "iddle": 2445,
      "Ġrespond": 2446,
      "Ġdecreas": 2447,
      "Ġmedia": 2448,
      "Ġexplor": 2449,
      "Ġminut": 2450,
      "Ġsimp": 2451,
      "Ġsimply": 2452,
      "Ġair": 2453,
      "Ġnormal": 2454,
      "Ġreal": 2455,
      "Ġenvironmental": 2456,
      "Ġthus": 2457,
      "cret": 2458,
      "Ġpoor": 2459,
      "rict": 2460,
      "Ġdistrict": 2461,
      "riculture": 2462,
      "Ġcoast": 2463,
      "Ġsound": 2464,
      "ĠFran": 2465,
      "ĠFirst": 2466,
      "ital": 2467,
      "Ġcapital": 2468,
      "Ġprovides": 2469,
      "mosph": 2470,
      "Ġatmosph": 2471,
      "Ġillness": 2472,
      "Ġnothing": 2473,
      "oth": 2474,
      "Ġsouth": 2475,
      "Ġoce": 2476,
      "Ġocean": 2477,
      "Ġdam": 2478,
      "Ġdamage": 2479,
      "Ġreceived": 2480,
      "less": 2481,
      "Ġmech": 2482,
      "Ġmechan": 2483,
      "ĠCan": 2484,
      "ĠCanad": 2485,
      "Ġconstruction": 2486,
      "Ġwast": 2487,
      "ript": 2488,
      "Ġguid": 2489,
      "Ġsafet": 2490,
      "Ġsafety": 2491,
      "Ġdiet": 2492,
      "Ġreduction": 2493,
      "ĠJap": 2494,
      "ĠJapan": 2495,
      "Ġshap": 2496,
      "ercis": 2497,
      "Ġexercis": 2498,
      "ĠInstitute": 2499,
      "Ġmechanism": 2500,
      "reek": 2501,
      "Ġagree": 2502,
      "hap": 2503,
      "Ġperhap": 2504,
      "hold": 2505,
      "Ġhousehold": 2506,
      "Ġoriginal": 2507,
      "fer": 2508,
      "ference": 2509,
      "Ġresident": 2510,
      "Ġident": 2511,
      "Ġsupp": 2512,
      "Ġsupply": 2513,
      "ice": 2514,
      "ĠJun": 2515,
      "Ġtrad": 2516,
      "Ġaccur": 2517,
      "ensive": 2518,
      "Ġfive": 2519,
      "Ġequipment": 2520,
      "ongress": 2521,
      "ĠCongress": 2522,
      "hood": 2523,
      "Ġoffer": 2524,
      "Ġsuffer": 2525,
      "forn": 2526,
      "fornia": 2527,
      "ifornia": 2528,
      "alifornia": 2529,
      "ĠCalifornia": 2530,
      "Ġincludes": 2531,
      "Ġincluded": 2532,
      "Ġdeveloped": 2533,
      "Ġrais": 2534,
      "Ġserve": 2535,
      "Ġexperienc": 2536,
      "Ġexperiment": 2537,
      "ĠGen": 2538,
      "Ġapprop": 2539,
      "Ġappropri": 2540,
      "Ġappropriate": 2541,
      "ĠGovernment": 2542,
      "Ġwide": 2543,
      "ĠPl": 2544,
      "Ġcoll": 2545,
      "Ġsl": 2546,
      "ĠPress": 2547,
      "Ġstress": 2548,
      "Ġstat": 2549,
      "Ġconsumption": 2550,
      "Ġhigher": 2551,
      "Ġdetermin": 2552,
      "Ġsuper": 2553,
      "Ġdeep": 2554,
      "leep": 2555,
      "Ġsleep": 2556,
      "Ġsoftwar": 2557,
      "Ġweight": 2558,
      "Ġnight": 2559,
      "Ġnut": 2560,
      "Ġnutri": 2561,
      "Ġeventually": 2562,
      "Ġextra": 2563,
      "Ġprofessional": 2564,
      "Ġanything": 2565,
      "Ġeverything": 2566,
      "Ġmusic": 2567,
      "Ġprint": 2568,
      "ront": 2569,
      "Ġfront": 2570,
      "sociation": 2571,
      "ĠHIV": 2572,
      "Ġ40": 2573,
      "ĠInternet": 2574,
      "Ġwarm": 2575,
      "aff": 2576,
      "yn": 2577,
      "Ġsyn": 2578,
      "ĠGreat": 2579,
      "ĠGreek": 2580,
      "Ġcop": 2581,
      "Ġsymptoms": 2582,
      "Ġprovided": 2583,
      "Ġpric": 2584,
      "Ġpath": 2585,
      "Ġbacteria": 2586,
      "Ġplanet": 2587,
      "Ġvalue": 2588,
      "Ġprimarily": 2589,
      "ĠAustralia": 2590,
      "Ġuseful": 2591,
      "Ġproblems": 2592,
      "ĠWork": 2593,
      "cious": 2594,
      "Ġir": 2595,
      "eptember": 2596,
      "ĠSeptember": 2597,
      "ership": 2598,
      "ship": 2599,
      "Ġhistorical": 2600,
      "igital": 2601,
      "pital": 2602,
      "ospital": 2603,
      "Ġtown": 2604,
      "Ġte": 2605,
      "Ġteam": 2606,
      "Ġtr": 2607,
      "right": 2608,
      "rive": 2609,
      "rown": 2610,
      "ral": 2611,
      "Ġcentral": 2612,
      "ecause": 2613,
      "Ġage": 2614,
      "Ġteachers": 2615,
      "Ġconservation": 2616,
      "Ġpromot": 2617,
      "Ġneighb": 2618,
      "Ġwoman": 2619,
      "ublish": 2620,
      "bert": 2621,
      "Ġpolicy": 2622,
      "Ġfrequently": 2623,
      "Ġtend": 2624,
      "Ġpay": 2625,
      "aily": 2626,
      "Ġdaily": 2627,
      "ĠCouncil": 2628,
      "ĠCar": 2629,
      "Ġresource": 2630,
      "Ġresist": 2631,
      "Ġbring": 2632,
      "cular": 2633,
      "Ġetc": 2634,
      "Ġharm": 2635,
      "Ġhop": 2636,
      "Ġbasic": 2637,
      "gen": 2638,
      "get": 2639,
      "Ġveget": 2640,
      "gg": 2641,
      "Ġstrugg": 2642,
      "Ġexten": 2643,
      "rogen": 2644,
      "Ġcollege": 2645,
      "Ġconstant": 2646,
      "irth": 2647,
      "Ġbirth": 2648,
      "Ġimple": 2649,
      "Ġimplement": 2650,
      "Ġquickly": 2651,
      "Ġegg": 2652,
      "Ġobvious": 2653,
      "Ġseparate": 2654,
      "ĠII": 2655,
      "Ġ24": 2656,
      "Ġbelieved": 2657,
      "Ġbelief": 2658,
      "Ġexpression": 2659,
      "Ġincrease": 2660,
      "Ġwave": 2661,
      "ĠProject": 2662,
      "ruary": 2663,
      "bruary": 2664,
      "ricultural": 2665,
      "ĠHigh": 2666,
      "Ġancient": 2667,
      "Ġtherefore": 2668,
      "Ġmix": 2669,
      "Ġmission": 2670,
      "Ġmem": 2671,
      "Ġmemory": 2672,
      "Ġkept": 2673,
      "Ġcapac": 2674,
      "Ġcapacity": 2675,
      "Ġbrother": 2676,
      "ead": 2677,
      "stead": 2678,
      "cad": 2679,
      "Ġdecad": 2680,
      "Ġdecid": 2681,
      "cident": 2682,
      "Ġincreased": 2683,
      "Ġincreasing": 2684,
      "Ġmiddle": 2685,
      "Ġmar": 2686,
      "Ġmarri": 2687,
      "ĠSociety": 2688,
      "ify": 2689,
      "side": 2690,
      "Ġoutside": 2691,
      "Ġposs": 2692,
      "Ġdefinition": 2693,
      "Ġsubstance": 2694,
      "itor": 2695,
      "Ġmonitor": 2696,
      "Ġgas": 2697,
      "Ġconditions": 2698,
      "Ġconsidered": 2699,
      "Ġhospital": 2700,
      "ĠOrgan": 2701,
      "Ġpie": 2702,
      "Ġcompanies": 2703,
      "Ġcompany": 2704,
      "Ġscre": 2705,
      "ting": 2706,
      "Ġgetting": 2707,
      "Ġminim": 2708,
      "aim": 2709,
      "Ġclaim": 2710,
      "aving": 2711,
      "ĠOffic": 2712,
      "Ġlack": 2713,
      "Ġobserved": 2714,
      "Ġsites": 2715,
      "But": 2716,
      "Ġsetting": 2717,
      "ĠCentral": 2718,
      "Ġspir": 2719,
      "Ġspirit": 2720,
      "irm": 2721,
      "Ġconfirm": 2722,
      "Ġpress": 2723,
      "Ġpressure": 2724,
      "ĠAs": 2725,
      "ĠAssociation": 2726,
      "ĠAt": 2727,
      "Ġant": 2728,
      "Ġpatients": 2729,
      "Ġscientists": 2730,
      "icro": 2731,
      "Ġmicro": 2732,
      "ircraft": 2733,
      "ĠCounty": 2734,
      "Ġtrack": 2735,
      "uck": 2736,
      "Ġatmospher": 2737,
      "Ġcolon": 2738,
      "Ġburn": 2739,
      "Ġcho": 2740,
      "io": 2741,
      "ĠTo": 2742,
      "ĠRo": 2743,
      "ĠRobert": 2744,
      "Ġappli": 2745,
      "ask": 2746,
      "Ġtask": 2747,
      "ass": 2748,
      "ĠJune": 2749,
      "ĠChildren": 2750,
      "Ġsurvey": 2751,
      "Ġsituation": 2752,
      "int": 2753,
      "oint": 2754,
      "Ġscreen": 2755,
      "Ġborn": 2756,
      "Ġbus": 2757,
      "Ġbusines": 2758,
      "Ġbusiness": 2759,
      "Ġonce": 2760,
      "cell": 2761,
      "Ġproduced": 2762,
      "ĠEnerg": 2763,
      "Ġtransfer": 2764,
      "ĠGener": 2765,
      "ĠGeneral": 2766,
      "Ġenter": 2767,
      "Ġopportunity": 2768,
      "Ġopportunities": 2769,
      "ON": 2770,
      "Ġlit": 2771,
      "Ġliter": 2772,
      "Ġliterature": 2773,
      "Ġlot": 2774,
      "Ġmeaning": 2775,
      "ange": 2776,
      "We": 2777,
      "Ġcompos": 2778,
      "Ġcultural": 2779,
      "Ġmanag": 2780,
      "Ġlog": 2781,
      "Ġlo": 2782,
      "Ġlevels": 2783,
      "Ġpollution": 2784,
      "Ġunderstanding": 2785,
      "Ġ2006": 2786,
      "Ġunit": 2787,
      "eck": 2788,
      "Ġcheck": 2789,
      "Ġapplications": 2790,
      "Ġapplication": 2791,
      "Ġrules": 2792,
      "Ġrates": 2793,
      "irgin": 2794,
      "ĠVirgin": 2795,
      "Ġsex": 2796,
      "Ġseve": 2797,
      "Ġsevere": 2798,
      "Ġdistance": 2799,
      "ĠFrancis": 2800,
      "Ġviol": 2801,
      "ased": 2802,
      "based": 2803,
      "Ġoccas": 2804,
      "Ġoccasion": 2805,
      "Ġvict": 2806,
      "While": 2807,
      "uge": 2808,
      "Ġprote": 2809,
      "Ġprotein": 2810,
      "Ġadj": 2811,
      "Ġadop": 2812,
      "Ġgain": 2813,
      "Ġtaking": 2814,
      "Ġtakes": 2815,
      "Ġwall": 2816,
      "Ġsugar": 2817,
      "Ġbreast": 2818,
      "ĠMar": 2819,
      "Ġfar": 2820,
      "are": 2821,
      "Ġrare": 2822,
      "Ġsafe": 2823,
      "mission": 2824,
      "ĠCommission": 2825,
      "ĠCommun": 2826,
      "unch": 2827,
      "Ġsun": 2828,
      "Ġrecover": 2829,
      "ĠDavid": 2830,
      "entially": 2831,
      "Ġter": 2832,
      "Ġterrit": 2833,
      "Ġarrive": 2834,
      "ycl": 2835,
      "acy": 2836,
      "ek": 2837,
      "Ġweek": 2838,
      "Ġask": 2839,
      "Ġweb": 2840,
      "Ġemb": 2841,
      "Ġanal": 2842,
      "Ġanaly": 2843,
      "ray": 2844,
      "rap": 2845,
      "put": 2846,
      "uk": 2847,
      "Ġsust": 2848,
      "Ġsustain": 2849,
      "Ã¡": 2850,
      "ÃŃ": 2851,
      "Ġcompet": 2852,
      "ĠDis": 2853,
      "head": 2854,
      "Ġtechnologies": 2855,
      "ĠOne": 2856,
      "Ġsold": 2857,
      "fect": 2858,
      "Ġperfect": 2859,
      "Ġquant": 2860,
      "Ġexact": 2861,
      "ĠCanada": 2862,
      "Ġchoose": 2863,
      "Ġchoice": 2864,
      "ĠYour": 2865,
      "ĠGu": 2866,
      "Ġtraining": 2867,
      "Ġmo": 2868,
      "Ġmoving": 2869,
      "Ġmountain": 2870,
      "Ġreaction": 2871,
      "Ġprior": 2872,
      "ore": 2873,
      "se": 2874,
      "Ġthese": 2875,
      "ĠThese": 2876,
      "te": 2877,
      "teg": 2878,
      "Ġinteg": 2879,
      "Ġwhose": 2880,
      "ife": 2881,
      "ear": 2882,
      "Ġdone": 2883,
      "Ġextreme": 2884,
      "ebruary": 2885,
      "ĠFebruary": 2886,
      "ants": 2887,
      "Ġpractice": 2888,
      "life": 2889,
      "Ġwords": 2890,
      "Ġvis": 2891,
      "Ġvisit": 2892,
      "Ġvisual": 2893,
      "ĠBritain": 2894,
      "rote": 2895,
      "Ġwrote": 2896,
      "Ġwatch": 2897,
      "Ġwin": 2898,
      "Ġwinter": 2899,
      "Ġwww": 2900,
      "Ġwent": 2901,
      "Ġago": 2902,
      "Ġacid": 2903,
      "IN": 2904,
      "Ġ2000": 2905,
      "Ġ2005": 2906,
      "Ġdom": 2907,
      "ately": 2908,
      "Ġnearly": 2909,
      "ĠPart": 2910,
      "ĠSe": 2911,
      "Ġcreate": 2912,
      "Ġcreated": 2913,
      "ise": 2914,
      "wise": 2915,
      "water": 2916,
      "ĠWater": 2917,
      "ID": 2918,
      "Ġgoing": 2919,
      "Ġgoal": 2920,
      "uary": 2921,
      "anuary": 2922,
      "ĠJanuary": 2923,
      "Ġmach": 2924,
      "ouse": 2925,
      "ĠHouse": 2926,
      "Ġagricultural": 2927,
      "aughter": 2928,
      "ty": 2929,
      "Ġeasy": 2930,
      "Ġpurch": 2931,
      "Ġeval": 2932,
      "Ġevalu": 2933,
      "Ġrunning": 2934,
      "Ġsch": 2935,
      "Ġred": 2936,
      "ĠSystem": 2937,
      "Ġconstruct": 2938,
      "Ġadvanc": 2939,
      "Ġadvant": 2940,
      "Ġadvantage": 2941,
      "Ġadvance": 2942,
      "Ġtrue": 2943,
      "Ġox": 2944,
      "Ġsuppl": 2945,
      "log": 2946,
      "ĠDevelopment": 2947,
      "Ġnuclear": 2948,
      "ner": 2949,
      "Ġdivid": 2950,
      "Ġcut": 2951,
      "Ġdiscuss": 2952,
      "Ġsolar": 2953,
      "ĠHis": 2954,
      "ison": 2955,
      "Ġprison": 2956,
      "SA": 2957,
      "OR": 2958,
      "Ġroad": 2959,
      "Ġmis": 2960,
      "'re": 2961,
      "Ġtre": 2962,
      "Ġtree": 2963,
      "Ġregulation": 2964,
      "aunch": 2965,
      "Ġlaunch": 2966,
      "Ġinfect": 2967,
      "Ġrele": 2968,
      "Ġreleased": 2969,
      "ware": 2970,
      "Ġestimated": 2971,
      "Ġsm": 2972,
      "Ġsmok": 2973,
      "amm": 2974,
      "Ġtook": 2975,
      "Ġpossib": 2976,
      "Ġstaff": 2977,
      "Ġmap": 2978,
      "cle": 2979,
      "itude": 2980,
      "Ġappoint": 2981,
      "Ġmiles": 2982,
      "uff": 2983,
      "ĠJu": 2984,
      "ĠJuly": 2985,
      "gree": 2986,
      "Ġdegree": 2987,
      "Ġantib": 2988,
      "Ġanti": 2989,
      "Ġsupple": 2990,
      "Ġdatab": 2991,
      "Ġgraph": 2992,
      "Ġur": 2993,
      "alf": 2994,
      "Ġhalf": 2995,
      "Ġtraditional": 2996,
      "Ġcombination": 2997,
      "Ġyield": 2998,
      "Ġsuppos": 2999,
      "Ġmanufactur": 3000,
      "Ġinteraction": 3001,
      "Ġbackground": 3002,
      "Ġtrees": 3003,
      "enn": 3004,
      "oud": 3005,
      "pris": 3006,
      "Ġsurpris": 3007,
      "Ġbasis": 3008,
      "Ġdocuments": 3009,
      "Ġhabitat": 3010,
      "Ġpowerful": 3011,
      "Ġmembers": 3012,
      "Ġsure": 3013,
      "Ġsent": 3014,
      "Ġdatabase": 3015,
      "Ġsense": 3016,
      "Ġcontract": 3017,
      "Ġcontra": 3018,
      "Ġcontribution": 3019,
      "Ġrule": 3020,
      "abor": 3021,
      "Ġcollabor": 3022,
      "avor": 3023,
      "Ġfavor": 3024,
      "Ġdrive": 3025,
      "Ġsurg": 3026,
      "Ġdiab": 3027,
      "Ġdiabet": 3028,
      "pression": 3029,
      "ĠMus": 3030,
      "Ġstatus": 3031,
      "Ġdirectly": 3032,
      "Ġseven": 3033,
      "Ġcauses": 3034,
      "Ġcaused": 3035,
      "Ġmone": 3036,
      "Ġmoney": 3037,
      "de": 3038,
      "Ġvide": 3039,
      "Ġvideo": 3040,
      "ured": 3041,
      "Ġfailure": 3042,
      "Ġvill": 3043,
      "Ġvillage": 3044,
      "Ġunique": 3045,
      "Ġencourage": 3046,
      "Ġdevices": 3047,
      "book": 3048,
      "ĠDNA": 3049,
      "ĠAccording": 3050,
      "Ġgovern": 3051,
      "Ch": 3052,
      "ĠAb": 3053,
      "ym": 3054,
      "Ġsym": 3055,
      "Ġsymb": 3056,
      "Ġsymbol": 3057,
      "Ġdiabetes": 3058,
      "Ġloss": 3059,
      "And": 3060,
      "Ġnutrition": 3061,
      "come": 3062,
      "ott": 3063,
      "ought": 3064,
      "aught": 3065,
      "AR": 3066,
      "Ġidentify": 3067,
      "Ġidentifi": 3068,
      "Ġserved": 3069,
      "cript": 3070,
      "Ġpiece": 3071,
      "Ġpieces": 3072,
      "pective": 3073,
      "Ġperspective": 3074,
      "Ġyellow": 3075,
      "Ġbott": 3076,
      "Ġsoftware": 3077,
      "Ġattribut": 3078,
      "Ġinstead": 3079,
      "Ġfeed": 3080,
      "With": 3081,
      "ke": 3082,
      "Ġestablished": 3083,
      "ators": 3084,
      "Ġresistance": 3085,
      "Ġroot": 3086,
      "Ġroom": 3087,
      "oot": 3088,
      "Ġfoot": 3089,
      "Ġfather": 3090,
      "Ġweather": 3091,
      "ĠSo": 3092,
      "Ġpresence": 3093,
      "Ġreferred": 3094,
      "Ġhor": 3095,
      "Ġhost": 3096,
      "Ġlost": 3097,
      "Ġstock": 3098,
      "Ġey": 3099,
      "Ġstage": 3100,
      "reg": 3101,
      "rew": 3102,
      "ĠAg": 3103,
      "Ġ2004": 3104,
      "izens": 3105,
      "itizens": 3106,
      "Ġcitizens": 3107,
      "Ġattract": 3108,
      "Ġattach": 3109,
      "Ġattend": 3110,
      "Ġsqu": 3111,
      "Ġsquare": 3112,
      "Ġsecret": 3113,
      "ĠVirginia": 3114,
      "Ġport": 3115,
      "ĠMany": 3116,
      "ĠSup": 3117,
      "ĠNorthern": 3118,
      "ĠCivil": 3119,
      "Ġplanning": 3120,
      "Ġeffic": 3121,
      "Ġbodies": 3122,
      "Ġwriting": 3123,
      "Ġmajority": 3124,
      "anger": 3125,
      "Ġdanger": 3126,
      "Ġdri": 3127,
      "Ġ193": 3128,
      "Ġdivision": 3129,
      "ension": 3130,
      "Ġblue": 3131,
      "Ġprefer": 3132,
      "house": 3133,
      "Ġdrop": 3134,
      "vision": 3135,
      "jection": 3136,
      "ories": 3137,
      "Ġadditional": 3138,
      "Ġcloud": 3139,
      "Ġdistribut": 3140,
      "Ġfacilities": 3141,
      "abilities": 3142,
      "which": 3143,
      "Ġhy": 3144,
      "Ġhyd": 3145,
      "Ġhyp": 3146,
      "Ġproperty": 3147,
      "Ġproperties": 3148,
      "ĠBecause": 3149,
      "Ġcrop": 3150,
      "Ġ195": 3151,
      "Ġsubstant": 3152,
      "ES": 3153,
      "Ġrich": 3154,
      "Ġcareful": 3155,
      "ĠSpace": 3156,
      "Ġelement": 3157,
      "Ġadap": 3158,
      "cap": 3159,
      "Ġadapt": 3160,
      "Ġsexual": 3161,
      "Ġcool": 3162,
      "Ġvalues": 3163,
      "Ġcomes": 3164,
      "25": 3165,
      "Ġnation": 3166,
      "Ġlocation": 3167,
      "ĠPeople": 3168,
      "Ġrecently": 3169,
      "Ġanalys": 3170,
      "Ġanalysis": 3171,
      "Ġenj": 3172,
      "Ġenjo": 3173,
      "Ġenjoy": 3174,
      "Ġvirt": 3175,
      "Ġslave": 3176,
      "Ġann": 3177,
      "Ġannual": 3178,
      "Ġactual": 3179,
      "ann": 3180,
      "Ġthen": 3181,
      "Ġsequence": 3182,
      "Ġseek": 3183,
      "rick": 3184,
      "Ġeffects": 3185,
      "amin": 3186,
      "Ġbottom": 3187,
      "ĠPark": 3188,
      "Ġresponse": 3189,
      "Ġresponsibility": 3190,
      "Ġgave": 3191,
      "por": 3192,
      "empor": 3193,
      "orpor": 3194,
      "emporary": 3195,
      "Ġrap": 3196,
      "Ġrapid": 3197,
      "Ġwindow": 3198,
      "Ġstream": 3199,
      "ley": 3200,
      "Ġexpand": 3201,
      "sues": 3202,
      "Ġissues": 3203,
      "Ġmuscle": 3204,
      "Ġboard": 3205,
      "ĠCanadian": 3206,
      "Ġminutes": 3207,
      "Ġearlier": 3208,
      "Ġsufficient": 3209,
      "Ġefficient": 3210,
      "Ġec": 3211,
      "Ġeight": 3212,
      "Ġeth": 3213,
      "cop": 3214,
      "Ġmas": 3215,
      "Ġmass": 3216,
      "osystem": 3217,
      "Ġecosystem": 3218,
      "Ġelectricity": 3219,
      "Ġanimals": 3220,
      "ulated": 3221,
      "Ġfear": 3222,
      "Ġgame": 3223,
      "Ġep": 3224,
      "Ġeat": 3225,
      "Ġelection": 3226,
      "Ġtele": 3227,
      "Ġdog": 3228,
      "ASA": 3229,
      "ĠNASA": 3230,
      "ĠProf": 3231,
      "ĠPol": 3232,
      "ohol": 3233,
      "cohol": 3234,
      "Ġalcohol": 3235,
      "Ġresults": 3236,
      "Ġtruth": 3237,
      "Ġbank": 3238,
      "âĨ": 3239,
      "rief": 3240,
      "ustom": 3241,
      "Ġcustom": 3242,
      "Ġvolum": 3243,
      "Ġemph": 3244,
      "Ġemphas": 3245,
      "Ġ2003": 3246,
      "Ġ2001": 3247,
      "Ġ2002": 3248,
      "ĠPhil": 3249,
      "Ġvegetable": 3250,
      "Ġadvoc": 3251,
      "Ġ21": 3252,
      "Ġfast": 3253,
      "Ġfight": 3254,
      "Ġfrequency": 3255,
      "ides": 3256,
      "ĠPublic": 3257,
      "public": 3258,
      "ĠRepublic": 3259,
      "Ġcenturies": 3260,
      "Ġsettle": 3261,
      "Ġes": 3262,
      "Ġess": 3263,
      "Ġessential": 3264,
      "Ġescap": 3265,
      "ames": 3266,
      "ĠJames": 3267,
      "Ġcontrast": 3268,
      "Ġalone": 3269,
      "ĠArch": 3270,
      "ĠArm": 3271,
      "ĠArt": 3272,
      "Ġfilm": 3273,
      "ĠEm": 3274,
      "Ġdays": 3275,
      "ipp": 3276,
      "Ġshift": 3277,
      "ĠFrom": 3278,
      "room": 3279,
      "Ġclassroom": 3280,
      "mental": 3281,
      "Ġpersonal": 3282,
      "Ġchief": 3283,
      "sue": 3284,
      "Ġissue": 3285,
      "issue": 3286,
      "Ġtissue": 3287,
      "Ġconclud": 3288,
      "Â·": 3289,
      "Ġcrim": 3290,
      "hind": 3291,
      "Ġbehind": 3292,
      "lict": 3293,
      "Ġconflict": 3294,
      "erve": 3295,
      "Ġreve": 3296,
      "Ġreveal": 3297,
      "ynam": 3298,
      "ĠMost": 3299,
      "Ġ186": 3300,
      "ycle": 3301,
      "Ġobserv": 3302,
      "Ġparents": 3303,
      "Ġwest": 3304,
      "Ġwestern": 3305,
      "stro": 3306,
      "Ġdestro": 3307,
      "Ġdestroy": 3308,
      "stall": 3309,
      "ster": 3310,
      "Ġdevice": 3311,
      "Ġagencies": 3312,
      "Ġimproved": 3313,
      "Ġtrib": 3314,
      "Ġcold": 3315,
      "ranch": 3316,
      "Ġbranch": 3317,
      "Ġaspect": 3318,
      "Ġguide": 3319,
      "ĠChines": 3320,
      "ĠChinese": 3321,
      "Ġlines": 3322,
      "Ġlate": 3323,
      "Ġgreater": 3324,
      "let": 3325,
      "ret": 3326,
      "pret": 3327,
      "Ġinterpret": 3328,
      "Ġcapt": 3329,
      "tect": 3330,
      "Ġdetect": 3331,
      "Ġdel": 3332,
      "Ġvit": 3333,
      "Ġvitamin": 3334,
      "Ġvision": 3335,
      "ework": 3336,
      "ramework": 3337,
      "istry": 3338,
      "Ġrepl": 3339,
      "Ġglass": 3340,
      "Ġnecessarily": 3341,
      "acific": 3342,
      "ĠPacific": 3343,
      "Ġmachine": 3344,
      "Ġindependent": 3345,
      "Ġintegr": 3346,
      "Ġincreases": 3347,
      "Ġrelatively": 3348,
      "Ġacquire": 3349,
      "Ġdoesn": 3350,
      "Un": 3351,
      "ne": 3352,
      "Ġveh": 3353,
      "Ġvehic": 3354,
      "Ġnutrient": 3355,
      "Ġmathe": 3356,
      "Ġmathem": 3357,
      "Ġmax": 3358,
      "Ġmaxim": 3359,
      "Ġmaster": 3360,
      "Ġcenter": 3361,
      "Ġcal": 3362,
      "Ġcalc": 3363,
      "Ġsignal": 3364,
      "Ġcod": 3365,
      "Ġwildlife": 3366,
      "Ġsouthern": 3367,
      "Ġconvention": 3368,
      "Ġhours": 3369,
      "ĠWeb": 3370,
      "AT": 3371,
      "After": 3372,
      "ina": 3373,
      "ĠChina": 3374,
      "rupt": 3375,
      "Ġmedicine": 3376,
      "hibition": 3377,
      "Ġaccident": 3378,
      "Ġmonths": 3379,
      "rance": 3380,
      "ĠFrance": 3381,
      "Ġcompon": 3382,
      "Ġcomponent": 3383,
      "ĠArab": 3384,
      "Ġnative": 3385,
      "Ġannounc": 3386,
      "Ġcommer": 3387,
      "Ġcommercial": 3388,
      "Ġsummer": 3389,
      "Ġliber": 3390,
      "Ġdark": 3391,
      "Ġprovision": 3392,
      "Ġbreath": 3393,
      "overty": 3394,
      "ĠMich": 3395,
      "inary": 3396,
      "Ġparticles": 3397,
      "ĠDr": 3398,
      "ĠAcad": 3399,
      "ĠAcadem": 3400,
      "active": 3401,
      "ump": 3402,
      "Ġprop": 3403,
      "Ġproportion": 3404,
      "Ġportion": 3405,
      "Ġrelev": 3406,
      "Ġwond": 3407,
      "itch": 3408,
      "mit": 3409,
      "Ġpermit": 3410,
      "ych": 3411,
      "sych": 3412,
      "Ġpsych": 3413,
      "ouch": 3414,
      "avy": 3415,
      "Ġheavy": 3416,
      "Ġeconomy": 3417,
      "Ġorganism": 3418,
      "Ġ60": 3419,
      "Ġemergency": 3420,
      "iency": 3421,
      "Ġefficiency": 3422,
      "jur": 3423,
      "Ġinjur": 3424,
      "Ġmilk": 3425,
      "Ġviolence": 3426,
      "stron": 3427,
      "stronom": 3428,
      "ronic": 3429,
      "dom": 3430,
      "ĠRom": 3431,
      "ĠRoman": 3432,
      "Ġgold": 3433,
      "Ġplants": 3434,
      "ists": 3435,
      "oup": 3436,
      "roup": 3437,
      "Ġexperiments": 3438,
      "Ġorganizations": 3439,
      "Ġorganization": 3440,
      "Ġswitch": 3441,
      "quest": 3442,
      "Ġrequest": 3443,
      "Ġflood": 3444,
      "Ġgiving": 3445,
      "wide": 3446,
      "Ġdigital": 3447,
      "Ġadjust": 3448,
      "Ġpossibility": 3449,
      "Ġsomeone": 3450,
      "Ġreading": 3451,
      "Ġanalyz": 3452,
      "Ġchronic": 3453,
      "Ġbab": 3454,
      "aries": 3455,
      "Ġdistin": 3456,
      "Ġdistinct": 3457,
      "Ġbox": 3458,
      "ĠDisease": 3459,
      "Ġinstru": 3460,
      "Ġrelease": 3461,
      "Ġfinding": 3462,
      "cut": 3463,
      "ecut": 3464,
      "Ġexecut": 3465,
      "col": 3466,
      "corpor": 3467,
      "Ġcombin": 3468,
      "Ġliqu": 3469,
      "Ġliquid": 3470,
      "Ġencounter": 3471,
      "Ġcounter": 3472,
      "Ġconclusion": 3473,
      "Ġhuge": 3474,
      "Ġhom": 3475,
      "Ġ190": 3476,
      "40": 3477,
      "80": 3478,
      "ert": 3479,
      "Ġlonger": 3480,
      "Ġreplace": 3481,
      "Ġgrowing": 3482,
      "Ġdeveloping": 3483,
      "ancy": 3484,
      "ography": 3485,
      "Ġencourag": 3486,
      "ense": 3487,
      "Ġpolicies": 3488,
      "Ġeating": 3489,
      "ancial": 3490,
      "Ġfinancial": 3491,
      "ynamic": 3492,
      "Ġoccurred": 3493,
      "ters": 3494,
      "ĠInformation": 3495,
      "ondon": 3496,
      "ĠLondon": 3497,
      "Ġassign": 3498,
      "Ġreplac": 3499,
      "Ġparticipants": 3500,
      "Ġbright": 3501,
      "nown": 3502,
      "known": 3503,
      "Ġdemoc": 3504,
      "ĠNo": 3505,
      "ĠNot": 3506,
      "Ġ+": 3507,
      "Ġice": 3508,
      "Ġx": 3509,
      "Ġcro": 3510,
      "Ġcros": 3511,
      "Ġcross": 3512,
      "sh": 3513,
      "resh": 3514,
      "Ġfresh": 3515,
      "Ġcorres": 3516,
      "Ġcorresp": 3517,
      "Ġcorrespond": 3518,
      "Ġfile": 3519,
      "Ġgroups": 3520,
      "app": 3521,
      "Ġbecomes": 3522,
      "Ġlegis": 3523,
      "Ġlegisl": 3524,
      "Ġradiation": 3525,
      "Ġstri": 3526,
      "Ġexcess": 3527,
      "ĠMore": 3528,
      "Ġcommunication": 3529,
      "Ġradio": 3530,
      "eases": 3531,
      "Ġdiseases": 3532,
      "Ġdangerous": 3533,
      "ervice": 3534,
      "ĠService": 3535,
      "Ġadvice": 3536,
      "field": 3537,
      "Ġscal": 3538,
      "Ġmouth": 3539,
      "Ġmot": 3540,
      "Ġvictim": 3541,
      "Ġstar": 3542,
      "imension": 3543,
      "Ġexcell": 3544,
      "Ġemail": 3545,
      "Ġwish": 3546,
      "Ġtouch": 3547,
      "Ġrequirements": 3548,
      "Ġsea": 3549,
      "Ġneighbor": 3550,
      "Ġcard": 3551,
      "Ġpractices": 3552,
      "Ġadministration": 3553,
      "Ġspeed": 3554,
      "Ġcovered": 3555,
      "Ġtransmit": 3556,
      "Ġproducts": 3557,
      "ĠTran": 3558,
      "Ġcopy": 3559,
      "ney": 3560,
      "umb": 3561,
      "ĠColumb": 3562,
      "Ġchance": 3563,
      "Ġreported": 3564,
      "long": 3565,
      "rong": 3566,
      "Ġwrong": 3567,
      "Ġproduces": 3568,
      "Ġwhom": 3569,
      "ĠRus": 3570,
      "ĠRuss": 3571,
      "ĠRussian": 3572,
      "ĠAustralian": 3573,
      "Ġtable": 3574,
      "Ġvariable": 3575,
      "Ġadver": 3576,
      "ĠIm": 3577,
      "Ġforces": 3578,
      "athol": 3579,
      "atholic": 3580,
      "ĠCatholic": 3581,
      "Ġmental": 3582,
      "Ġtechniques": 3583,
      "ĠBook": 3584,
      "ĠBl": 3585,
      "ĠBlack": 3586,
      "Ġpack": 3587,
      "Ġconcentr": 3588,
      "Ġconcentration": 3589,
      "Ex": 3590,
      "Ġoptim": 3591,
      "Ġmorning": 3592,
      "ĠEast": 3593,
      "Ġsaw": 3594,
      "ĠLaw": 3595,
      "Ġagriculture": 3596,
      "Ġcolle": 3597,
      "Ġcolleag": 3598,
      "Ġcolleagues": 3599,
      "Ġworking": 3600,
      "uring": 3601,
      "ĠDuring": 3602,
      "Ġchallen": 3603,
      "Ġchallenge": 3604,
      "yclop": 3605,
      "Ġintroduc": 3606,
      "Ġvolun": 3607,
      "Ġlaboratory": 3608,
      "ring": 3609,
      "Ġspring": 3610,
      "Ġspend": 3611,
      "Ġspect": 3612,
      "Ġcommission": 3613,
      "Ġelse": 3614,
      "Ġcorpor": 3615,
      "Ġintervention": 3616,
      "Ġkidney": 3617,
      "rint": 3618,
      "Ġcred": 3619,
      "Ġcredit": 3620,
      "Ġexcept": 3621,
      "Ġexception": 3622,
      "Ġexhibit": 3623,
      "Ġbiological": 3624,
      "Ġtechnical": 3625,
      "Ġ23": 3626,
      "Ġ22": 3627,
      "ĠEnergy": 3628,
      "Ġtrade": 3629,
      "Ġproc": 3630,
      "Ġproced": 3631,
      "Ġprocedure": 3632,
      "ĠWhite": 3633,
      "yond": 3634,
      "Ġbeyond": 3635,
      "Ġbattle": 3636,
      "oxide": 3637,
      "Ġult": 3638,
      "Ġultimately": 3639,
      "________": 3640,
      "ĠFl": 3641,
      "ulate": 3642,
      "ĠSince": 3643,
      "Ġdes": 3644,
      "Ġdescription": 3645,
      "Ġdeb": 3646,
      "amb": 3647,
      "back": 3648,
      "ĠRich": 3649,
      "ĠRichard": 3650,
      "According": 3651,
      "Ġrepro": 3652,
      "ĠContro": 3653,
      "Ġvisible": 3654,
      "Ġrain": 3655,
      "force": 3656,
      "Ġknew": 3657,
      "Ġrecognized": 3658,
      "Ġgrant": 3659,
      "Ġmathematic": 3660,
      "ĠStudent": 3661,
      "Ġdepression": 3662,
      "ux": 3663,
      "Ġidentified": 3664,
      "Ġload": 3665,
      "Ġskills": 3666,
      "Ġextern": 3667,
      "Ġposses": 3668,
      "Ġnames": 3669,
      "Ġnamed": 3670,
      "Ġadopt": 3671,
      "Ġstay": 3672,
      "Ġfat": 3673,
      "Ġfem": 3674,
      "Ġfemal": 3675,
      "Ġsal": 3676,
      "Ġinstall": 3677,
      "oard": 3678,
      "Ġpurpose": 3679,
      "Ġ26": 3680,
      "Ġbaby": 3681,
      "Ġfluid": 3682,
      "ivision": 3683,
      "Ġimmed": 3684,
      "Ġimmedi": 3685,
      "Ġimmediately": 3686,
      "Ġimmig": 3687,
      "Ġschol": 3688,
      "Ġscholar": 3689,
      "oll": 3690,
      "ĠShe": 3691,
      "ole": 3692,
      "olecu": 3693,
      "Ġmolecu": 3694,
      "olecular": 3695,
      "ĠLe": 3696,
      "ĠLabor": 3697,
      "ĠLibrary": 3698,
      "Ġlibrary": 3699,
      "fore": 3700,
      "Ġstrategies": 3701,
      "Ġresolution": 3702,
      "Ġcurrently": 3703,
      "Ġbrief": 3704,
      "Ġbar": 3705,
      "arian": 3706,
      "Ġcomparison": 3707,
      "Ġ27": 3708,
      "Ġ28": 3709,
      "Ġeasi": 3710,
      "Ġelim": 3711,
      "org": 3712,
      "change": 3713,
      "amous": 3714,
      "Ġfamous": 3715,
      "However": 3716,
      "ĠThom": 3717,
      "ĠThomas": 3718,
      "Ġgreenhouse": 3719,
      "ĠEd": 3720,
      "Ġfair": 3721,
      "Ġfirm": 3722,
      "Ġphysician": 3723,
      "Ġ/": 3724,
      "Ġer": 3725,
      "Ġerr": 3726,
      "Ġerror": 3727,
      "der": 3728,
      "ĠUnder": 3729,
      "Ġpot": 3730,
      "Ġpotentially": 3731,
      "Ġvot": 3732,
      "Ġshare": 3733,
      "Ġimpos": 3734,
      "Ġimpossible": 3735,
      "Ġeye": 3736,
      "Ġeyes": 3737,
      "oub": 3738,
      "Ġdoub": 3739,
      "Ġrelevant": 3740,
      "Ġmagnetic": 3741,
      "cession": 3742,
      "Ġengineer": 3743,
      "ere": 3744,
      "where": 3745,
      "Ġexercise": 3746,
      "Ġimpl": 3747,
      "Ġteaching": 3748,
      "Ġbase": 3749,
      "Ġcode": 3750,
      "Ġvaccine": 3751,
      "Ġmanner": 3752,
      "Ġpractical": 3753,
      "EN": 3754,
      "AN": 3755,
      "Ġspok": 3756,
      "Ġeveryone": 3757,
      "ĠGroup": 3758,
      "Ġoperations": 3759,
      "ival": 3760,
      "Ġequival": 3761,
      "Ġfactors": 3762,
      "Ġplaced": 3763,
      "Ġmotion": 3764,
      "ĠRes": 3765,
      "ĠResources": 3766,
      "Ġdesigned": 3767,
      "Ġmarriage": 3768,
      "ĠTherefore": 3769,
      "âĨĳ": 3770,
      "Some": 3771,
      "ĠSocial": 3772,
      "Ġexc": 3773,
      "Ġexchange": 3774,
      "To": 3775,
      "Ġhair": 3776,
      "Ġuses": 3777,
      "Ġcomfort": 3778,
      "fortun": 3779,
      "fortunately": 3780,
      "unction": 3781,
      "raction": 3782,
      "Ġpolitic": 3783,
      "Ġtypical": 3784,
      "ĠTim": 3785,
      "Ġvisitor": 3786,
      "New": 3787,
      "ĠFlor": 3788,
      "ĠFlorid": 3789,
      "Ġsolid": 3790,
      "'ll": 3791,
      "uro": 3792,
      "Ġneuro": 3793,
      "uild": 3794,
      "Ġtelevision": 3795,
      "Ã¼": 3796,
      "Ġhope": 3797,
      "Ġcycle": 3798,
      "itect": 3799,
      "Ġarchitect": 3800,
      "ĠReg": 3801,
      "rag": 3802,
      "rack": 3803,
      "conomic": 3804,
      "Ġestimates": 3805,
      "Ġstories": 3806,
      "Ġcontrover": 3807,
      "mon": 3808,
      "ĠMon": 3809,
      "Ġequal": 3810,
      "Ġfinal": 3811,
      "Ġselection": 3812,
      "ĠFrank": 3813,
      "Ġrevolution": 3814,
      "ĠDirect": 3815,
      "Ġhot": 3816,
      "Ġht": 3817,
      "Ġhtt": 3818,
      "Ġhttp": 3819,
      "Ġphase": 3820,
      "ĠReport": 3821,
      "akes": 3822,
      "Ġmal": 3823,
      "eral": 3824,
      "ederal": 3825,
      "Ġfederal": 3826,
      "Ġmineral": 3827,
      "ĠFederal": 3828,
      "inal": 3829,
      "Ġlegal": 3830,
      "Ġindustrial": 3831,
      "Ġteacher": 3832,
      "Ġgard": 3833,
      "Ġgarden": 3834,
      "omen": 3835,
      "Ġfinally": 3836,
      "Ġfinish": 3837,
      "Ġdep": 3838,
      "Ġwaste": 3839,
      "Ġtrouble": 3840,
      "Ġdouble": 3841,
      "Ġtrend": 3842,
      "Ġtrust": 3843,
      "ender": 3844,
      "ulf": 3845,
      "Ġconscious": 3846,
      "Ġregister": 3847,
      "ĠHistor": 3848,
      "exic": 3849,
      "ĠMexic": 3850,
      "ĠMexico": 3851,
      "Ġvolunte": 3852,
      "Ġcompletely": 3853,
      "Ġapply": 3854,
      "Ġappar": 3855,
      "Ġhar": 3856,
      "Ġharvest": 3857,
      "Ġeastern": 3858,
      "Ġcompared": 3859,
      "Ġinterview": 3860,
      "ĠReview": 3861,
      "Ġdry": 3862,
      "Ġtransl": 3863,
      "ĠJust": 3864,
      "Ġoutput": 3865,
      "Ġdioxide": 3866,
      "ĠEven": 3867,
      "Ġapplied": 3868,
      "year": 3869,
      "appear": 3870,
      "Ġaccompl": 3871,
      "Ġaccomplish": 3872,
      "Ġremoved": 3873,
      "ĠPar": 3874,
      "ĠHar": 3875,
      "ĠChar": 3876,
      "ĠCharles": 3877,
      "quently": 3878,
      "with": 3879,
      "we": 3880,
      "ĠRet": 3881,
      "ĠRetri": 3882,
      "ĠRetrie": 3883,
      "ĠRetrieved": 3884,
      "Ġacad": 3885,
      "Ġacadem": 3886,
      "Ġleaving": 3887,
      "Ġinflamm": 3888,
      "Ġdescribed": 3889,
      "urg": 3890,
      "Ġtraffic": 3891,
      "Ġeast": 3892,
      "Ġ189": 3893,
      "ĠTechnology": 3894,
      "ato": 3895,
      "aith": 3896,
      "Ġfaith": 3897,
      "mith": 3898,
      "ĠSmith": 3899,
      "Ġinstance": 3900,
      "aj": 3901,
      "ographic": 3902,
      "Ġtrial": 3903,
      "Ġtrigg": 3904,
      "ĠSc": 3905,
      "ĠWild": 3906,
      "ĠWildlife": 3907,
      "IS": 3908,
      "Ġrace": 3909,
      "Ġchap": 3910,
      "Ġchapter": 3911,
      "rael": 3912,
      "srael": 3913,
      "ĠIsrael": 3914,
      "annel": 3915,
      "Ġchannel": 3916,
      "Ġremark": 3917,
      "Ġperhaps": 3918,
      "astic": 3919,
      "Ġplastic": 3920,
      "Ġacademic": 3921,
      "Ġcomplic": 3922,
      "leg": 3923,
      "aut": 3924,
      "autif": 3925,
      "autiful": 3926,
      "au": 3927,
      "Ġworth": 3928,
      "Ġsystems": 3929,
      "ouple": 3930,
      "Ġcouple": 3931,
      "IC": 3932,
      "Ġachieved": 3933,
      "Ġforce": 3934,
      "Ġadded": 3935,
      "Ġwealth": 3936,
      "Ġweak": 3937,
      "Ġcompound": 3938,
      "Ġbound": 3939,
      "Ġround": 3940,
      "ĠFound": 3941,
      "ĠFoundation": 3942,
      "Ġhydrogen": 3943,
      "St": 3944,
      "aint": 3945,
      "obile": 3946,
      "Ġquestions": 3947,
      "Ġyourself": 3948,
      "Ġfill": 3949,
      "Ġfix": 3950,
      "Ġthick": 3951,
      "Ġexpensive": 3952,
      "Ġcircum": 3953,
      "Ġcircumstance": 3954,
      "time": 3955,
      "Ġcontinue": 3956,
      "Ġmoved": 3957,
      "Ġhyper": 3958,
      "Ġnormally": 3959,
      "Ġinside": 3960,
      "ellig": 3961,
      "tellig": 3962,
      "telligence": 3963,
      "Ġexistence": 3964,
      "ĠConstitution": 3965,
      "Ġinstitution": 3966,
      "Ġconstitution": 3967,
      "Ġpurposes": 3968,
      "ĠCour": 3969,
      "ĠCourt": 3970,
      "cip": 3971,
      "cipl": 3972,
      "grad": 3973,
      "cond": 3974,
      "ĠSecond": 3975,
      "Ġdaughter": 3976,
      "'ve": 3977,
      "Ġprogramm": 3978,
      "ĠDay": 3979,
      "ĠRussia": 3980,
      "Ġwonder": 3981,
      "Ġslight": 3982,
      "ĠOld": 3983,
      "Ġtold": 3984,
      "ĠUN": 3985,
      "ĠLaboratory": 3986,
      "ĠMiddle": 3987,
      "Ġmeeting": 3988,
      "position": 3989,
      "Ġotherwise": 3990,
      "):": 3991,
      "Ġsil": 3992,
      "Ġconsult": 3993,
      "ault": 3994,
      "ĠLife": 3995,
      "Ġnovel": 3996,
      "Ġextremely": 3997,
      "IT": 3998,
      "lthough": 3999,
      "Although": 4000,
      "ION": 4001,
      "Ġpainting": 4002,
      "ĠPlan": 4003,
      "60": 4004,
      "Ġ80": 4005,
      "Ġ1990": 4006,
      "70": 4007,
      "Ġauthority": 4008,
      "Ġheat": 4009,
      "Ġsuggestion": 4010,
      "Ġscale": 4011,
      "eace": 4012,
      "Ġpeace": 4013,
      "Ġplease": 4014,
      "Ġpoverty": 4015,
      "equence": 4016,
      "Ġconsequence": 4017,
      "ĠGe": 4018,
      "ĠGeorg": 4019,
      "ĠGeor": 4020,
      "ĠGeorge": 4021,
      "Ġrecognize": 4022,
      "Ġelimin": 4023,
      "Ġprofess": 4024,
      "Ġprofessor": 4025,
      "ĠSecret": 4026,
      "Ġsoldi": 4027,
      "II": 4028,
      "habit": 4029,
      "Ġgrown": 4030,
      "Ġbrown": 4031,
      "Ġtransmission": 4032,
      "athe": 4033,
      "amental": 4034,
      "Ġfundamental": 4035,
      "Ġscript": 4036,
      "Ġhealthy": 4037,
      "ively": 4038,
      "Ġscen": 4039,
      "mark": 4040,
      "Ġpark": 4041,
      "ĠFlorida": 4042,
      "Ġprecis": 4043,
      "Ġmid": 4044,
      "Ã¶": 4045,
      "Ġessentially": 4046,
      "Ġcurric": 4047,
      "Ġcurricul": 4048,
      "izing": 4049,
      "Ġnum": 4050,
      "Ġnumer": 4051,
      "Ġnumerous": 4052,
      "Ġmaterials": 4053,
      "Ġchar": 4054,
      "Ġcharact": 4055,
      "ĠCity": 4056,
      "Ġflight": 4057,
      "Ã³": 4058,
      "oday": 4059,
      "Ġneither": 4060,
      "Ġrise": 4061,
      "Ġlabel": 4062,
      "Ġspee": 4063,
      "Ġspeech": 4064,
      "ĠSch": 4065,
      "Ġgot": 4066,
      "otic": 4067,
      "tic": 4068,
      "ĠEngine": 4069,
      "Ġtwent": 4070,
      "Ġhydro": 4071,
      "Ġ29": 4072,
      "24": 4073,
      "ĠScott": 4074,
      "Ġtherap": 4075,
      "Ġtherapy": 4076,
      "Ġlung": 4077,
      "ĠRevolution": 4078,
      "exas": 4079,
      "ĠTexas": 4080,
      "example": 4081,
      "Ġcoord": 4082,
      "cientists": 4083,
      "Ġupper": 4084,
      "Ġcharacters": 4085,
      "Ġdiscrim": 4086,
      "ĠLord": 4087,
      "Ġlimited": 4088,
      "emple": 4089,
      "Ġinfluenc": 4090,
      "Ġclin": 4091,
      "Ġclinical": 4092,
      "Ġdecades": 4093,
      "Ġhighly": 4094,
      "Ġut": 4095,
      "ĠSouthern": 4096,
      "ĠSovi": 4097,
      "ĠSoviet": 4098,
      "iet": 4099,
      "ior": 4100,
      "Ġstudi": 4101,
      "ĠGermany": 4102,
      "Ġindex": 4103,
      "Ġinvolving": 4104,
      "ector": 4105,
      "Ġsector": 4106,
      "Ġsoon": 4107,
      "Ġdeliver": 4108,
      "aking": 4109,
      "ambridge": 4110,
      "Ġcomposition": 4111,
      "Ġestimate": 4112,
      "Ġed": 4113,
      "Ġeditor": 4114,
      "Ġ<": 4115,
      "Ġcook": 4116,
      "by": 4117,
      "emb": 4118,
      "Ġkids": 4119,
      "Ġevents": 4120,
      "Ġ1999": 4121,
      "pite": 4122,
      "Ġdespite": 4123,
      "Ġprincip": 4124,
      "Ġrights": 4125,
      "Ġmaximum": 4126,
      "Ġfreed": 4127,
      "Ġfreedom": 4128,
      "Ġneeded": 4129,
      "Ġoperating": 4130,
      "Ã¢": 4131,
      "rate": 4132,
      "Ġpoly": 4133,
      "Ġpoison": 4134,
      "ĠTeach": 4135,
      "Ġmolecules": 4136,
      "ĠProfes": 4137,
      "Research": 4138,
      "uman": 4139,
      "ĠHuman": 4140,
      "ĠJapanes": 4141,
      "ĠJapanese": 4142,
      "Ġextent": 4143,
      "Ġextract": 4144,
      "Ġsurvival": 4145,
      "Ġsing": 4146,
      "Ġsingle": 4147,
      "Ġproviding": 4148,
      "ĠTrans": 4149,
      "Ġterritory": 4150,
      "Ġbecoming": 4151,
      "Ġclick": 4152,
      "born": 4153,
      "istration": 4154,
      "Ġdeclar": 4155,
      "Ġgeneration": 4156,
      "Ġvo": 4157,
      "Ġvoice": 4158,
      "23": 4159,
      "Ġrestrict": 4160,
      "retch": 4161,
      "Ġcontamin": 4162,
      "Ġurb": 4163,
      "Ġurban": 4164,
      "Ġcommitte": 4165,
      "Ġ#": 4166,
      "Ġfemale": 4167,
      "Ġsubmit": 4168,
      "ĠCo": 4169,
      "earning": 4170,
      "Ġsurger": 4171,
      "Ġsurgery": 4172,
      "Ġminor": 4173,
      "Ġsoldiers": 4174,
      "ĠOf": 4175,
      "co": 4176,
      "lo": 4177,
      "load": 4178,
      "lim": 4179,
      "ĠMuslim": 4180,
      "ĠMuse": 4181,
      "ĠMuseum": 4182,
      "One": 4183,
      "pire": 4184,
      "ĠEmpire": 4185,
      "Ġdesire": 4186,
      "Ġworldwide": 4187,
      "Ġedition": 4188,
      "Ġdomin": 4189,
      "Ġdomest": 4190,
      "Ġdomestic": 4191,
      "Ġdomain": 4192,
      "ĠÂ©": 4193,
      "Ġdisappear": 4194,
      "ĠAbout": 4195,
      "Ġdead": 4196,
      "ffair": 4197,
      "ĠColumbia": 4198,
      "Ġdoll": 4199,
      "Ġdollar": 4200,
      "west": 4201,
      "Ġequivalent": 4202,
      "Ġsave": 4203,
      "Ġdiscipl": 4204,
      "ĠHere": 4205,
      "ĠSpe": 4206,
      "ĠRight": 4207,
      "Ġcolum": 4208,
      "Ġcolumn": 4209,
      "Ġspiritual": 4210,
      "ĠRead": 4211,
      "rest": 4212,
      "Ġaccomp": 4213,
      "Ġaccompan": 4214,
      "Ġjoint": 4215,
      "ĠCont": 4216,
      "orm": 4217,
      "Other": 4218,
      "ĠVol": 4219,
      "Ġevol": 4220,
      "board": 4221,
      "Ġwon": 4222,
      "Ġiron": 4223,
      "Ġserver": 4224,
      "Ġsurvive": 4225,
      "iodiversity": 4226,
      "Ġexcellent": 4227,
      "22": 4228,
      "Ġapart": 4229,
      "Ġdisorders": 4230,
      "Ġdisorder": 4231,
      "Ġworkers": 4232,
      "duce": 4233,
      "ones": 4234,
      "ĠArmy": 4235,
      "Ġcities": 4236,
      "Ġsentence": 4237,
      "Ġadministr": 4238,
      "range": 4239,
      "Ġagency": 4240,
      "ĠAgency": 4241,
      "Ġexpected": 4242,
      "Ġdeal": 4243,
      "reet": 4244,
      "Ġstreet": 4245,
      "ĠStreet": 4246,
      "Ġvaluable": 4247,
      "Ġstretch": 4248,
      "Ġgrade": 4249,
      "then": 4250,
      "anish": 4251,
      "ĠSpanish": 4252,
      "Ġexactly": 4253,
      "Ġunknown": 4254,
      "29": 4255,
      "Another": 4256,
      "ING": 4257,
      "Ġdownload": 4258,
      "hensive": 4259,
      "rehensive": 4260,
      "Ġcomprehensive": 4261,
      "ĠInter": 4262,
      "Ġcritic": 4263,
      "Ġelectronic": 4264,
      "Ġwidely": 4265,
      "Ġ90": 4266,
      "Ġgrand": 4267,
      "ĠWomen": 4268,
      "enomen": 4269,
      "Ġphenomen": 4270,
      "ĠThus": 4271,
      "ĠEach": 4272,
      "ĠNe": 4273,
      "ĠNatural": 4274,
      "Ġgames": 4275,
      "ĠStudies": 4276,
      "Ġ.": 4277,
      "rel": 4278,
      "related": 4279,
      "ĠPre": 4280,
      "ĠGre": 4281,
      "ĠGreen": 4282,
      "led": 4283,
      "nowled": 4284,
      "cknowled": 4285,
      "ler": 4286,
      "Ġsnow": 4287,
      "yl": 4288,
      "ling": 4289,
      "ĠGl": 4290,
      "ĠGlob": 4291,
      "vil": 4292,
      "ville": 4293,
      "ĠControl": 4294,
      "Ġintroduced": 4295,
      "ĠFurther": 4296,
      "Ġcolour": 4297,
      "Ġjudg": 4298,
      "Ġlesson": 4299,
      "Ġoriginally": 4300,
      "erv": 4301,
      "Ġ70": 4302,
      "atur": 4303,
      "att": 4304,
      "Ġcat": 4305,
      "aturally": 4306,
      "Ġnaturally": 4307,
      "Ġperman": 4308,
      "irl": 4309,
      "Ġgirl": 4310,
      "Ġbehaviour": 4311,
      "Ġrefuge": 4312,
      "Ġsend": 4313,
      "Ġsort": 4314,
      "ĠPsych": 4315,
      "Ġson": 4316,
      "ĠCommon": 4317,
      "Ġnar": 4318,
      "Ġnarrow": 4319,
      "Ġmatch": 4320,
      "Ġolder": 4321,
      "rac": 4322,
      "Ġstorage": 4323,
      "Ġstorm": 4324,
      "ĠCompan": 4325,
      "Ġbur": 4326,
      "Ġrecycl": 4327,
      "Ġbelong": 4328,
      "Ġtaught": 4329,
      "Ġcomment": 4330,
      "Ġadminister": 4331,
      "Ġadvi": 4332,
      "Ġrural": 4333,
      "ĠOb": 4334,
      "be": 4335,
      "omb": 4336,
      "utom": 4337,
      "Ġautom": 4338,
      "Ġwrite": 4339,
      "ype": 4340,
      "Ġcru": 4341,
      "Ġmom": 4342,
      "Ġmoment": 4343,
      "Ġbeautiful": 4344,
      "ĠCommit": 4345,
      "ĠCommitte": 4346,
      "ĠLou": 4347,
      "ĠLouis": 4348,
      "structure": 4349,
      "rastructure": 4350,
      "Ġinfrastructure": 4351,
      "ĠCarol": 4352,
      "ĠCarolina": 4353,
      "ĠAnother": 4354,
      "Ġdepartment": 4355,
      "Ġengage": 4356,
      "Ġengag": 4357,
      "oseph": 4358,
      "ĠJoseph": 4359,
      "ĠSpecial": 4360,
      "Ġcurriculum": 4361,
      "Ġtechnique": 4362,
      "PA": 4363,
      "stand": 4364,
      "Ġren": 4365,
      "Ġrenew": 4366,
      "Ġrat": 4367,
      "Not": 4368,
      "Ġmedium": 4369,
      "Ġret": 4370,
      "Ġsensitive": 4371,
      "rig": 4372,
      "Ġpreg": 4373,
      "Ġpregn": 4374,
      "Ġpregnancy": 4375,
      "Ġprevention": 4376,
      "ED": 4377,
      "Ġshape": 4378,
      "Ġprov": 4379,
      "Ġking": 4380,
      "Ġobjective": 4381,
      "he": 4382,
      "ĠToday": 4383,
      "ĠTw": 4384,
      "berg": 4385,
      "Ġopin": 4386,
      "Ġopinion": 4387,
      "Ġsuit": 4388,
      "From": 4389,
      "Ġagent": 4390,
      "ĠSecurity": 4391,
      "ĠBe": 4392,
      "Ġge": 4393,
      "Ġatmosphere": 4394,
      "Ġimproving": 4395,
      "urb": 4396,
      "Ġdisturb": 4397,
      "Ġarrange": 4398,
      "Ġdidn": 4399,
      "ogn": 4400,
      "ognitive": 4401,
      "Ġcampa": 4402,
      "Ġcampaign": 4403,
      "BN": 4404,
      "SBN": 4405,
      "ĠISBN": 4406,
      "Ġreality": 4407,
      "ypt": 4408,
      "gypt": 4409,
      "ĠEgypt": 4410,
      "Ġreduced": 4411,
      "Ġimmediate": 4412,
      "Ġoxy": 4413,
      "Ġoxygen": 4414,
      "ĠCompany": 4415,
      "Ġcrucial": 4416,
      "ĠOver": 4417,
      "Ġcopyright": 4418,
      "organ": 4419,
      "ors": 4420,
      "Ġprograms": 4421,
      "Ġdiagnos": 4422,
      "Ġdiagnosis": 4423,
      "Ġtwice": 4424,
      "Ġallerg": 4425,
      "Ġi": 4426,
      "Ġfamili": 4427,
      "Ġfamiliar": 4428,
      "Ġoperation": 4429,
      "Ġinterface": 4430,
      "Ġessay": 4431,
      "Ġsustainable": 4432,
      "tock": 4433,
      "Ġhighlight": 4434,
      "Ġhighest": 4435,
      "ĠUK": 4436,
      "Ġ1980": 4437,
      "Ġorganic": 4438,
      "pic": 4439,
      "Ġtopic": 4440,
      "Ġdoubt": 4441,
      "Ġcaptured": 4442,
      "Ġleadership": 4443,
      "Ġvary": 4444,
      "Ġ1998": 4445,
      "Ġmetal": 4446,
      "Ġpreviously": 4447,
      "Ġdistinction": 4448,
      "26": 4449,
      "27": 4450,
      "28": 4451,
      "198": 4452,
      "Ġcontinued": 4453,
      "Ġprice": 4454,
      "Ġprices": 4455,
      "Ġforest": 4456,
      "wer": 4457,
      "swer": 4458,
      "Ġanswer": 4459,
      "war": 4460,
      "well": 4461,
      "Ġhear": 4462,
      "ĠNow": 4463,
      "Ġjourn": 4464,
      "espite": 4465,
      "ĠThen": 4466,
      "Ġsituations": 4467,
      "iotic": 4468,
      "Ġantibiotic": 4469,
      "Ġrid": 4470,
      "ĠAgriculture": 4471,
      "Ġobservations": 4472,
      "Ġdram": 4473,
      "Ġhaz": 4474,
      "Ġhazard": 4475,
      "ham": 4476,
      "Ġfacility": 4477,
      "Ġoverall": 4478,
      "Ġball": 4479,
      "empl": 4480,
      "Ġslightly": 4481,
      "Ġapproved": 4482,
      "Ġign": 4483,
      "eign": 4484,
      "Ġforeign": 4485,
      "ade": 4486,
      "road": 4487,
      "Ġdriver": 4488,
      "Ġdriving": 4489,
      "Ġsac": 4490,
      "Ġsport": 4491,
      "burg": 4492,
      "Ġinstruction": 4493,
      "more": 4494,
      "Ġdelay": 4495,
      "Ġrough": 4496,
      "ĠChild": 4497,
      "ians": 4498,
      "ictionary": 4499,
      "Ġrob": 4500,
      "Ġterms": 4501,
      "Ġidentity": 4502,
      "21": 4503,
      "ĠClass": 4504,
      "Ġcommonly": 4505,
      "ully": 4506,
      "Ġfully": 4507,
      "Ġclearly": 4508,
      "atric": 4509,
      "iatric": 4510,
      "riction": 4511,
      "Ġcontemporary": 4512,
      "Ġwebs": 4513,
      "Ġwebsite": 4514,
      "ĠFrancisco": 4515,
      "Ġrail": 4516,
      "Ġutil": 4517,
      "Ġdamag": 4518,
      "name": 4519,
      "udd": 4520,
      "uddh": 4521,
      "ĠBuddh": 4522,
      "here": 4523,
      "ivenes": 4524,
      "Ġauthorities": 4525,
      "Ġargument": 4526,
      "lescop": 4527,
      "Ġchildhood": 4528,
      "Ġexternal": 4529,
      "ĠEnvironmental": 4530,
      "ier": 4531,
      "ience": 4532,
      "udience": 4533,
      "Ġeasier": 4534,
      "Ġbatter": 4535,
      "Ġlatter": 4536,
      "Ġbit": 4537,
      "Ġbad": 4538,
      "bit": 4539,
      "ĠJud": 4540,
      "Ġratio": 4541,
      "Ġ*": 4542,
      "Ġoffice": 4543,
      "Ġcompetition": 4544,
      "Ġdecline": 4545,
      "Ġreducing": 4546,
      "Con": 4547,
      "ĠEl": 4548,
      "Ġnerve": 4549,
      "wood": 4550,
      "ĠSw": 4551,
      "Ġwound": 4552,
      "Ġsuc": 4553,
      "Ġsucce": 4554,
      "ĠYear": 4555,
      "Ġdivers": 4556,
      "Ġ1997": 4557,
      "ĠGuide": 4558,
      "istrict": 4559,
      "ĠJews": 4560,
      "tend": 4561,
      "Ġintend": 4562,
      "Ġflo": 4563,
      "Ġ>": 4564,
      "Ġmoon": 4565,
      "Ġcapture": 4566,
      "Ġpoet": 4567,
      "Ġinternal": 4568,
      "Ġtransform": 4569,
      "ĠAtl": 4570,
      "ĠAtlant": 4571,
      "Ġchanged": 4572,
      "Ġchanging": 4573,
      "That": 4574,
      "Ġasked": 4575,
      "Ġpermanent": 4576,
      "Ġneighborhood": 4577,
      "Ġfollowed": 4578,
      "Ġreform": 4579,
      "ropical": 4580,
      "ĠInstead": 4581,
      "Ġvehicles": 4582,
      "Ġvehicle": 4583,
      "cles": 4584,
      "Ġmuscles": 4585,
      "Ġminister": 4586,
      "Ġcoming": 4587,
      "Ġcomments": 4588,
      "Ġcarried": 4589,
      "Ġpush": 4590,
      "Ġdeli": 4591,
      "Ġdelivery": 4592,
      "Ġtelescop": 4593,
      "Ġrank": 4594,
      "atell": 4595,
      "Ġsatell": 4596,
      "Ġsatellite": 4597,
      "Ġroll": 4598,
      "All": 4599,
      "roll": 4600,
      "tocol": 4601,
      "Ġstatistic": 4602,
      "thetic": 4603,
      "posit": 4604,
      "Ġdeposit": 4605,
      "Ġwait": 4606,
      "ute": 4607,
      "olute": 4608,
      "Ġ1970": 4609,
      "Ġfert": 4610,
      "Ġstreng": 4611,
      "Ġstrengthen": 4612,
      "Ġdev": 4613,
      "ously": 4614,
      "Ġcontinent": 4615,
      "ĠThrough": 4616,
      "Ġpurchase": 4617,
      "Ġvalid": 4618,
      "Ġinstruments": 4619,
      "Ġinstrument": 4620,
      "ĠSun": 4621,
      "Ġmamm": 4622,
      "Ġmut": 4623,
      "Ġmere": 4624,
      "Ġopposite": 4625,
      "Ġdig": 4626,
      "Ġmig": 4627,
      "Ġmes": 4628,
      "Ġmess": 4629,
      "Ġmessage": 4630,
      "Ġvia": 4631,
      "tal": 4632,
      "Ġtotal": 4633,
      "omet": 4634,
      "Ġbigg": 4635,
      "Ġvolume": 4636,
      "ĠCommittee": 4637,
      "Ġfarmers": 4638,
      "erved": 4639,
      "Ġspecifically": 4640,
      "ĠTwo": 4641,
      "ĠDo": 4642,
      "othe": 4643,
      "Ġhypothe": 4644,
      "oy": 4645,
      "ploy": 4646,
      "Ġbuy": 4647,
      "Ġbud": 4648,
      "Ġbudget": 4649,
      "Ġlived": 4650,
      "Ġlives": 4651,
      "cyclop": 4652,
      "ĠEncyclop": 4653,
      "Ġrul": 4654,
      "Ġideal": 4655,
      "ĠDivision": 4656,
      "Ġindicate": 4657,
      "eth": 4658,
      "Ġteeth": 4659,
      "norm": 4660,
      "Ġabnorm": 4661,
      "Ġabs": 4662,
      "Ġabsolute": 4663,
      "Ġabsor": 4664,
      "aster": 4665,
      "Ġmarine": 4666,
      "word": 4667,
      "Ġbord": 4668,
      "Ġpur": 4669,
      "ĠFood": 4670,
      "waren": 4671,
      "warenes": 4672,
      "Ġabsorb": 4673,
      "Ġcriminal": 4674,
      "nov": 4675,
      "istance": 4676,
      "Ġhomes": 4677,
      "drom": 4678,
      "Ġsyndrom": 4679,
      "Ġindependence": 4680,
      "uit": 4681,
      "Ġcircuit": 4682,
      "Ġimplic": 4683,
      "atically": 4684,
      "what": 4685,
      "Ġsomewhat": 4686,
      "Ġmagaz": 4687,
      "greg": 4688,
      "Ġ1996": 4689,
      "ĠElect": 4690,
      "lectual": 4691,
      "ellectual": 4692,
      "ĠEvery": 4693,
      "ĠEastern": 4694,
      "Ġabund": 4695,
      "Ġabus": 4696,
      "employ": 4697,
      "ĠOffice": 4698,
      "Ġsignificantly": 4699,
      "Ġrepresentative": 4700,
      "celer": 4701,
      "Ġacceler": 4702,
      "ĠOnce": 4703,
      "Ġrapidly": 4704,
      "Ġwif": 4705,
      "Ġwife": 4706,
      "Ġobservation": 4707,
      "Ġminimum": 4708,
      "Ġmedications": 4709,
      "ĠKing": 4710,
      "ĠKingdom": 4711,
      "ĠDistrict": 4712,
      "HE": 4713,
      "ĠTHE": 4714,
      "ceiving": 4715,
      "Ġdiversity": 4716,
      "Ġgrew": 4717,
      "ĠAsia": 4718,
      "Ġdepth": 4719,
      "oft": 4720,
      "ĠPrevention": 4721,
      "ĠClimate": 4722,
      ");": 4723,
      "stream": 4724,
      "erson": 4725,
      "Ġleaders": 4726,
      "Ġleading": 4727,
      "Ġusers": 4728,
      "Ġliver": 4729,
      "Ġbrok": 4730,
      "Ġrecognition": 4731,
      "Ġtransition": 4732,
      "aul": 4733,
      "ĠPaul": 4734,
      "Ġdynamic": 4735,
      "Ġoffers": 4736,
      "Ġsupplies": 4737,
      "ĠManage": 4738,
      "ĠManagement": 4739,
      "gre": 4740,
      "Ġdegre": 4741,
      "Ġdegrees": 4742,
      "ites": 4743,
      "izes": 4744,
      "Ġchallenges": 4745,
      "claim": 4746,
      "ĠBoard": 4747,
      "Ġaccurate": 4748,
      "Ġaccuracy": 4749,
      "Ġreserved": 4750,
      "Ġtrying": 4751,
      "ĠCap": 4752,
      "vas": 4753,
      "ĠNature": 4754,
      "Ġadvanced": 4755,
      "Ġchemistry": 4756,
      "rust": 4757,
      "ustri": 4758,
      "Ġdefined": 4759,
      "ted": 4760,
      "Ġstarted": 4761,
      "tection": 4762,
      "Ġintended": 4763,
      "rigin": 4764,
      "Ġworship": 4765,
      "Ġedge": 4766,
      "Ġappre": 4767,
      "Ġappreci": 4768,
      "ĠAlex": 4769,
      "ĠAlexand": 4770,
      "ĠUse": 4771,
      "Ġconstitut": 4772,
      "Ġpossibly": 4773,
      "Ġrestriction": 4774,
      "point": 4775,
      "Ġframework": 4776,
      "ĠThose": 4777,
      "Ġefforts": 4778,
      "Ġdirector": 4779,
      "Ġpassage": 4780,
      "Ġreserve": 4781,
      "quir": 4782,
      "Ġstructural": 4783,
      "Ġdec": 4784,
      "ec": 4785,
      "ecution": 4786,
      "Ġ1995": 4787,
      "Ġreact": 4788,
      "Ġsmaller": 4789,
      "Ġprocesses": 4790,
      "Ġevolved": 4791,
      "Ġvalley": 4792,
      "Ġsignificance": 4793,
      "Ġappearance": 4794,
      "Ġpermission": 4795,
      "Ġcommitted": 4796,
      "Ġfrag": 4797,
      "Ġanyone": 4798,
      "uish": 4799,
      "inguish": 4800,
      "Ġdistinguish": 4801,
      "Ġprescrib": 4802,
      "Ġpreserve": 4803,
      "ĠPort": 4804,
      "Ġelectr": 4805,
      "Ġelectrical": 4806,
      "ibraries": 4807,
      "Ġnearby": 4808,
      "Ġimmune": 4809,
      "Ġpolice": 4810,
      "Ġmovements": 4811,
      "xford": 4812,
      "ĠOxford": 4813,
      "Ġreceiving": 4814,
      "Ġfeeling": 4815,
      "Ġcausing": 4816,
      "Ġperceive": 4817,
      "Â®": 4818,
      "racy": 4819,
      "Ġdemocracy": 4820,
      "cture": 4821,
      "Ġarchitecture": 4822,
      "Ġvast": 4823,
      "Ġneeds": 4824,
      "Ġemissions": 4825,
      "ĠSpain": 4826,
      "Ġmachines": 4827,
      "elines": 4828,
      "Ġguidelines": 4829,
      "Ġlooking": 4830,
      "ĠMark": 4831,
      "78": 4832,
      "Ġfloor": 4833,
      "iology": 4834,
      "Ġtub": 4835,
      "Ġserving": 4836,
      "These": 4837,
      "sequently": 4838,
      "Ġindividuals": 4839,
      "Ġbenefits": 4840,
      "Ġcorn": 4841,
      "Ġquot": 4842,
      "Ġspot": 4843,
      "Ġ188": 4844,
      "Ġmoist": 4845,
      "Ġmovi": 4846,
      "Ġgene": 4847,
      "Ġgenes": 4848,
      "Ġfiber": 4849,
      "Ġcompleted": 4850,
      "Ġorbit": 4851,
      "ĠMountain": 4852,
      "Ġstatement": 4853,
      "IDS": 4854,
      "Ġbroken": 4855,
      "Ġreduces": 4856,
      "embly": 4857,
      "ĠWind": 4858,
      "ĠWindow": 4859,
      "Ġrespir": 4860,
      "pir": 4861,
      "ĠSpring": 4862,
      "Ġang": 4863,
      "xiet": 4864,
      "Ġhoriz": 4865,
      "Ġhorizon": 4866,
      "Ġenh": 4867,
      "Ġenhance": 4868,
      "Ġenhanc": 4869,
      "Ġkingdom": 4870,
      "Ġboy": 4871,
      "Ġrever": 4872,
      "ĠConvention": 4873,
      "Â©": 4874,
      "Ġapparently": 4875,
      "Ġ1960": 4876,
      "Ġarrest": 4877,
      "Ġstudied": 4878,
      "Ġagreement": 4879,
      "ĠBy": 4880,
      "Ġearliest": 4881,
      "Ġarrived": 4882,
      "Ġunlike": 4883,
      "Ġincorpor": 4884,
      "vail": 4885,
      "while": 4886,
      "Ġmethods": 4887,
      "Ġrot": 4888,
      "tellectual": 4889,
      "ĠScot": 4890,
      "Ġtemple": 4891,
      "Ġhol": 4892,
      "Ġhun": 4893,
      "Ġhon": 4894,
      "Ġexplo": 4895,
      "Ġexplan": 4896,
      "ĠOrganization": 4897,
      "ĠEdward": 4898,
      "ĠLearning": 4899,
      "Ġmeasuring": 4900,
      "itation": 4901,
      "ury": 4902,
      "ĠGeorgia": 4903,
      "ewhere": 4904,
      "ĠEconomic": 4905,
      "Ġfeatures": 4906,
      "umption": 4907,
      "ruption": 4908,
      "Ġsurrounding": 4909,
      "Ġsyndrome": 4910,
      "Ġpump": 4911,
      "eter": 4912,
      "ameter": 4913,
      "ule": 4914,
      "ele": 4915,
      "Ġcele": 4916,
      "Ġceleb": 4917,
      "Ġcelebr": 4918,
      "yle": 4919,
      "Ġstyle": 4920,
      "level": 4921,
      "ĠStudy": 4922,
      "Ġindicates": 4923,
      "Ġdefend": 4924,
      "Ġdiscrimination": 4925,
      "Ġbabies": 4926,
      "Com": 4927,
      "Ġdate": 4928,
      "Ġdrought": 4929,
      "Ġdied": 4930,
      "Ġdiameter": 4931,
      "Ġdepict": 4932,
      "During": 4933,
      "Ġordinary": 4934,
      "ĠConf": 4935,
      "Ġethn": 4936,
      "Ġethnic": 4937,
      "ulner": 4938,
      "Ġvulner": 4939,
      "cientific": 4940,
      "go": 4941,
      "Ġbirds": 4942,
      "Ġmeant": 4943,
      "Ġsaving": 4944,
      "Ġopposition": 4945,
      "Ġlocations": 4946,
      "ĠPhoto": 4947,
      "ĠPhy": 4948,
      "Ġstrategy": 4949,
      "Ġsoft": 4950,
      "Ġsoul": 4951,
      "Ġdetermined": 4952,
      "Ġrepe": 4953,
      "Ġrepeated": 4954,
      "charg": 4955,
      "Ġleaf": 4956,
      "Ġthreaten": 4957,
      "Ġmale": 4958,
      "Ġchain": 4959,
      "Ġisland": 4960,
      "Ġgoes": 4961,
      "Ġdecade": 4962,
      "Ġmotor": 4963,
      "Ġexisting": 4964,
      "Ġrefus": 4965,
      "Ġearthqu": 4966,
      "Ġrespectively": 4967,
      "ogen": 4968,
      "Ġblog": 4969,
      "Ġkil": 4970,
      "ĠProtection": 4971,
      "Ġcoop": 4972,
      "Ġcooper": 4973,
      "Ġcoordin": 4974,
      "Ġdiv": 4975,
      "RE": 4976,
      "clus": 4977,
      "Ġexclus": 4978,
      "ius": 4979,
      "Ġreli": 4980,
      "Ġrelief": 4981,
      "Ġsimpl": 4982,
      "Ġwarning": 4983,
      "Ġprecise": 4984,
      "Ġcompris": 4985,
      "Ġcris": 4986,
      "Ġcrisis": 4987,
      "osis": 4988,
      "Ġcognitive": 4989,
      "Ġgreatest": 4990,
      "Ġeffectivenes": 4991,
      "Ġcapable": 4992,
      "Ġcre": 4993,
      "Ġcreation": 4994,
      "Ġcult": 4995,
      "reak": 4996,
      "break": 4997,
      "Ġoutbreak": 4998,
      "Ġdestruction": 4999,
      "90": 5000,
      "Ġdepart": 5001,
      "ensus": 5002,
      "Ġmassive": 5003,
      "Ġcalci": 5004,
      "Ġcalcium": 5005,
      "Ġcoal": 5006,
      "Ġpregnant": 5007,
      "Ġprotocol": 5008,
      "Ġinjury": 5009,
      "Ġinjuries": 5010,
      "Ġbreed": 5011,
      "rus": 5012,
      "rant": 5013,
      "ratic": 5014,
      "Ġnarr": 5015,
      "Ġnegot": 5016,
      "Ġgender": 5017,
      "Ġevil": 5018,
      "ST": 5019,
      "Ã¤": 5020,
      "Ġ1994": 5021,
      "Ġfeedback": 5022,
      "Ġlayer": 5023,
      "Ġnegoti": 5024,
      "press": 5025,
      "top": 5026,
      "Ġarmy": 5027,
      "Ġmeat": 5028,
      "Ġneut": 5029,
      "Ġpaid": 5030,
      "ancer": 5031,
      "ĠCancer": 5032,
      "Ġschem": 5033,
      "ett": 5034,
      "ĠAnt": 5035,
      "ĠLanguage": 5036,
      "xic": 5037,
      "Ġfram": 5038,
      "Ġlecture": 5039,
      "ĠBar": 5040,
      "Ġsus": 5041,
      "Ġsuspect": 5042,
      "fl": 5043,
      "ĠFurthermore": 5044,
      "Ġmoral": 5045,
      "ĠGlobal": 5046,
      "Ġquar": 5047,
      "Ġqual": 5048,
      "roop": 5049,
      "Ġtroop": 5050,
      "Ġcreating": 5051,
      "Ġinvestment": 5052,
      "Ġprincipal": 5053,
      "Ġexposed": 5054,
      "Ġpair": 5055,
      "Ġpick": 5056,
      "Ġenem": 5057,
      "Ġheight": 5058,
      "ane": 5059,
      "Ġbomb": 5060,
      "cover": 5061,
      "certain": 5062,
      "ĠBefore": 5063,
      "Ġanalog": 5064,
      "Stud": 5065,
      "Ġperception": 5066,
      "Ġflex": 5067,
      "Ġhonor": 5068,
      "Ġclient": 5069,
      "Ġengineering": 5070,
      "ague": 5071,
      "Figure": 5072,
      "Ġrespiratory": 5073,
      "Ġidentification": 5074,
      "Ġuncertain": 5075,
      "Ġexport": 5076,
      "ĠFort": 5077,
      "Ġformer": 5078,
      "Pro": 5079,
      "ctic": 5080,
      "ĠArctic": 5081,
      "ĠAtlantic": 5082,
      "Ġtour": 5083,
      "Ġfertil": 5084,
      "ĠHospital": 5085,
      "ulating": 5086,
      "Ġjudge": 5087,
      "ĠPeter": 5088,
      "Ġten": 5089,
      "Ġsuperior": 5090,
      "ĠExpl": 5091,
      "Ġstruggle": 5092,
      "Ġdimension": 5093,
      "à¤": 5094,
      "Ġschools": 5095,
      "Ġmort": 5096,
      "Ġmortality": 5097,
      "elt": 5098,
      "Ġfelt": 5099,
      "Ġsides": 5100,
      "Ġproperly": 5101,
      "ĠPhilosoph": 5102,
      "Ġpersist": 5103,
      "Ġadults": 5104,
      "Ġmobile": 5105,
      "Ġretain": 5106,
      "ĠIII": 5107,
      "Ġseems": 5108,
      "ĠFamily": 5109,
      "Ġswe": 5110,
      "Ġrepair": 5111,
      "Ġappeal": 5112,
      "unk": 5113,
      "Ġnations": 5114,
      "Ġstrict": 5115,
      "Ġprovince": 5116,
      "Ġelectro": 5117,
      "Ġmyster": 5118,
      "Ġourselves": 5119,
      "lam": 5120,
      "ĠAcademy": 5121,
      "Ġlat": 5122,
      "Ġlatest": 5123,
      "ĠOur": 5124,
      "Ġexamin": 5125,
      "Ġexamination": 5126,
      "contro": 5127,
      "Ġrecon": 5128,
      "Ġkilled": 5129,
      "Ġsubstantial": 5130,
      "Ġnur": 5131,
      "ama": 5132,
      "ĠObama": 5133,
      "Ġresid": 5134,
      "Ġroof": 5135,
      "Ġcomput": 5136,
      "Ġcreature": 5137,
      "Ĥ¬": 5138,
      "âĤ¬": 5139,
      "Ġdischarg": 5140,
      "Ġenable": 5141,
      "Ġenforce": 5142,
      "kin": 5143,
      "rin": 5144,
      "ĠMin": 5145,
      "ĠMinister": 5146,
      "lin": 5147,
      "ĠMicro": 5148,
      "Ġtwenty": 5149,
      "Ġ1992": 5150,
      "Ġ1993": 5151,
      "Ġ1991": 5152,
      "AL": 5153,
      "Ġsong": 5154,
      "Ġsn": 5155,
      "Ġsem": 5156,
      "Ġpoem": 5157,
      "rich": 5158,
      "standing": 5159,
      "Ġclim": 5160,
      "ishop": 5161,
      "shop": 5162,
      "Ġshows": 5163,
      "redient": 5164,
      "Ġbone": 5165,
      "Ġphone": 5166,
      "Ġdiscovery": 5167,
      "ĠPublish": 5168,
      "icip": 5169,
      "key": 5170,
      "Ġfrequent": 5171,
      "Ġcutting": 5172,
      "Ġrenewable": 5173,
      "ĠConference": 5174,
      "Ġdefense": 5175,
      "Ġsilver": 5176,
      "Ġautomatically": 5177,
      "Ġbiology": 5178,
      "Ġdramatic": 5179,
      "Ġdramatically": 5180,
      "Ġwhe": 5181,
      "Ġjustice": 5182,
      "ĠâĨĳ": 5183,
      "ĠAir": 5184,
      "Ġgift": 5185,
      "Ġvoc": 5186,
      "ĠSee": 5187,
      "nership": 5188,
      "Ġirrig": 5189,
      "raight": 5190,
      "Ġstraight": 5191,
      "Ġstim": 5192,
      "Ġstem": 5193,
      "Ġstrain": 5194,
      "Ġitem": 5195,
      "comp": 5196,
      "troduce": 5197,
      "Ġacute": 5198,
      "slam": 5199,
      "ĠIslam": 5200,
      "cidence": 5201,
      "Ġabsence": 5202,
      "Ġagre": 5203,
      "Ġaggress": 5204,
      "Because": 5205,
      "cend": 5206,
      "Ġdescend": 5207,
      "Ġdesert": 5208,
      "aur": 5209,
      "Ġspent": 5210,
      "Ġaccomm": 5211,
      "Ġconcret": 5212,
      "Ġpull": 5213,
      "Ġborder": 5214,
      "Ġmodified": 5215,
      "Ġuser": 5216,
      "erence": 5217,
      "Ġconference": 5218,
      "Ġaccum": 5219,
      "Ġengines": 5220,
      "Ġmolecular": 5221,
      "Ġzone": 5222,
      "ze": 5223,
      "zz": 5224,
      "raz": 5225,
      "razil": 5226,
      "ĠBrazil": 5227,
      "zym": 5228,
      "Ġenzym": 5229,
      "Ġdoctr": 5230,
      "iti": 5231,
      "itiative": 5232,
      "throp": 5233,
      "Ġdream": 5234,
      "Ġgravi": 5235,
      "Ġconducted": 5236,
      "ĠCons": 5237,
      "ĠConservation": 5238,
      "Ġaffected": 5239,
      "itial": 5240,
      "Ġinitial": 5241,
      "Ġfit": 5242,
      "Ġimages": 5243,
      "ateg": 5244,
      "Ġcateg": 5245,
      "Ġcategories": 5246,
      "Ġcategory": 5247,
      "Ġbenefic": 5248,
      "inistration": 5249,
      "ministration": 5250,
      "ĠAdministration": 5251,
      "Ġmath": 5252,
      "Ġseed": 5253,
      "Ġkm": 5254,
      "Ġdebate": 5255,
      "Ġsud": 5256,
      "Ġsudd": 5257,
      "Ġsudden": 5258,
      "etwork": 5259,
      "ĠNetwork": 5260,
      "Ġpet": 5261,
      "Ġpray": 5262,
      "xiety": 5263,
      "roke": 5264,
      "Ġstroke": 5265,
      "Ġobserve": 5266,
      "weight": 5267,
      "Ġaircraft": 5268,
      "Ġprompt": 5269,
      "Ġpromis": 5270,
      "ession": 5271,
      "Ġsession": 5272,
      "Ġextension": 5273,
      "Ġextens": 5274,
      "Ġextensive": 5275,
      "times": 5276,
      "ĠSometimes": 5277,
      "Ġways": 5278,
      "Ġarray": 5279,
      "Ġguard": 5280,
      "ĠAmong": 5281,
      "ĠSecretary": 5282,
      "ĠLake": 5283,
      "fford": 5284,
      "from": 5285,
      "Ġcharge": 5286,
      "Ġchrom": 5287,
      "theless": 5288,
      "Ġunless": 5289,
      "Ġpurchased": 5290,
      "Ġlegislation": 5291,
      "ĠJes": 5292,
      "ĠJesus": 5293,
      "raham": 5294,
      "ĠAbraham": 5295,
      "Ġneck": 5296,
      "Ġnest": 5297,
      "emoc": 5298,
      "ĠDemoc": 5299,
      "Ġtwelve": 5300,
      "Here": 5301,
      "ervices": 5302,
      "ĠServices": 5303,
      "ĠSuch": 5304,
      "ĠSim": 5305,
      "Ġentry": 5306,
      "Ġignor": 5307,
      "More": 5308,
      "ĠKore": 5309,
      "Ġcry": 5310,
      "Ġexce": 5311,
      "Ġexplanation": 5312,
      "ĠTreat": 5313,
      "Ġvent": 5314,
      "craft": 5315,
      "Ġspacecraft": 5316,
      "Ġvulnerable": 5317,
      "Ġaccommod": 5318,
      "Ġjump": 5319,
      "ĠDef": 5320,
      "Ġremind": 5321,
      "Ġremot": 5322,
      "Ġremo": 5323,
      "Ġremoval": 5324,
      "rem": 5325,
      "ĠSuprem": 5326,
      "equ": 5327,
      "Ġadequ": 5328,
      "ope": 5329,
      "ale": 5330,
      "Ġtit": 5331,
      "Ġtitle": 5332,
      "Ġsand": 5333,
      "Ġtoxic": 5334,
      "Ġtank": 5335,
      "Ġadequate": 5336,
      "ervative": 5337,
      "Ġprofit": 5338,
      "Ġfacult": 5339,
      "ĠAddition": 5340,
      "ĠCambridge": 5341,
      "Ġcontinues": 5342,
      "Ġdetection": 5343,
      "Ġfacil": 5344,
      "Ġfacilit": 5345,
      "Ġsuitable": 5346,
      "Ġalter": 5347,
      "Ġproposed": 5348,
      "Ġwire": 5349,
      "Ġwit": 5350,
      "Ġwitness": 5351,
      "ĠDemocratic": 5352,
      "Ġdemocratic": 5353,
      "Ġpreserved": 5354,
      "Ġforward": 5355,
      "Ġgluc": 5356,
      "Ġglucose": 5357,
      "Ġclust": 5358,
      "Ġelev": 5359,
      "Ġfiles": 5360,
      "Ġfilter": 5361,
      "Ġphosph": 5362,
      "Ġpartnership": 5363,
      "Ġworse": 5364,
      "Ġhorse": 5365,
      "Ġcombined": 5366,
      "ied": 5367,
      "ai": 5368,
      "RO": 5369,
      "ĠCO": 5370,
      "idden": 5371,
      "Ġtip": 5372,
      "Ġepid": 5373,
      "Ġepidem": 5374,
      "Am": 5375,
      "Amer": 5376,
      "Americ": 5377,
      "American": 5378,
      "Ġbeneficial": 5379,
      "orial": 5380,
      "Ġvirtual": 5381,
      "Ġvirtually": 5382,
      "Ġincreasingly": 5383,
      "cape": 5384,
      "Ġliteracy": 5385,
      "Ġcultiv": 5386,
      "ĠAnn": 5387,
      "Ġexamine": 5388,
      "uzz": 5389,
      "Re": 5390,
      "Ġdescribe": 5391,
      "Ġdescribes": 5392,
      "Ġste": 5393,
      "He": 5394,
      "itudes": 5395,
      "ĠMary": 5396,
      "vailability": 5397,
      "ĠMed": 5398,
      "ĠMedic": 5399,
      "ĠMedicine": 5400,
      "ĠMedical": 5401,
      "ĠMc": 5402,
      "ĠMod": 5403,
      "ody": 5404,
      "body": 5405,
      "ode": 5406,
      "Ġgod": 5407,
      "ethod": 5408,
      "ĠMass": 5409,
      "ĠMassach": 5410,
      "ĠMassachus": 5411,
      "ĠMassachusett": 5412,
      "Ġgather": 5413,
      "Ġpassed": 5414,
      "Ġsucceed": 5415,
      "Ġquarter": 5416,
      "Ġartific": 5417,
      "Ġartificial": 5418,
      "Ġgravity": 5419,
      "uilding": 5420,
      "ĠYoun": 5421,
      "ĠYoung": 5422,
      "ounce": 5423,
      "cest": 5424,
      "Ġancest": 5425,
      "ĠOce": 5426,
      "ĠOcean": 5427,
      "elling": 5428,
      "35": 5429,
      "45": 5430,
      "Ġ185": 5431,
      "75": 5432,
      "aven": 5433,
      "Ġrailroad": 5434,
      "ĠWhere": 5435,
      "ĠBrown": 5436,
      "ĠJack": 5437,
      "Ġstone": 5438,
      "ĠPhys": 5439,
      "Ġens": 5440,
      "Ġensure": 5441,
      "asure": 5442,
      "Ġenorm": 5443,
      "century": 5444,
      "ĠPower": 5445,
      "power": 5446,
      "Ġvital": 5447,
      "Ġearthquake": 5448,
      "ĠIndepend": 5449,
      "ata": 5450,
      "ĠData": 5451,
      "Ġenormous": 5452,
      "ogue": 5453,
      "venue": 5454,
      "Ġargue": 5455,
      "Ġtropical": 5456,
      "Ġclosely": 5457,
      "Today": 5458,
      "ET": 5459,
      "Ġterr": 5460,
      "rand": 5461,
      "Ġcourses": 5462,
      "Ġrh": 5463,
      "Ġpound": 5464,
      "aneously": 5465,
      "Ġracial": 5466,
      "Ġgram": 5467,
      "thentic": 5468,
      "Most": 5469,
      "Ġuniversity": 5470,
      "Ġpharm": 5471,
      "Ġphra": 5472,
      "Ġpromote": 5473,
      "Ġremote": 5474,
      "ime": 5475,
      "Ġpe": 5476,
      "Ġpeak": 5477,
      "Ġpat": 5478,
      "Ġpp": 5479,
      "Ġstore": 5480,
      "Ġsuscept": 5481,
      "Al": 5482,
      "ivation": 5483,
      "novation": 5484,
      "Ġdefinite": 5485,
      "100": 5486,
      "heim": 5487,
      "awai": 5488,
      "Ġaccurately": 5489,
      "irty": 5490,
      "Ġdispos": 5491,
      "Ġrender": 5492,
      "ciple": 5493,
      "ylv": 5494,
      "ylvan": 5495,
      "ylvania": 5496,
      "ĠTechn": 5497,
      "Ġdefic": 5498,
      "Ġdefect": 5499,
      "ĠBible": 5500,
      "Ġadmit": 5501,
      "Ġcollap": 5502,
      "ecific": 5503,
      "ĠWhy": 5504,
      "ĠVict": 5505,
      "ĠVictor": 5506,
      "ĠArchive": 5507,
      "Ġ500": 5508,
      "500": 5509,
      "stronaut": 5510,
      "Ġmainten": 5511,
      "Ġmaintenance": 5512,
      "Ġinten": 5513,
      "ĠOnline": 5514,
      "Ġfellow": 5515,
      "ĠTheir": 5516,
      "Ġanxiety": 5517,
      "Ġdeploy": 5518,
      "ĠScotland": 5519,
      "Ġprotest": 5520,
      "DA": 5521,
      "Ġbarri": 5522,
      "urance": 5523,
      "urric": 5524,
      "urricane": 5525,
      "ĠSur": 5526,
      "ĠSurve": 5527,
      "ĠSurvey": 5528,
      "Ġrecruit": 5529,
      "ĠMac": 5530,
      "ĠMart": 5531,
      "amber": 5532,
      "Ġchamber": 5533,
      "Ġtum": 5534,
      "rum": 5535,
      "Ġspectrum": 5536,
      "Ġdisaster": 5537,
      "Ġheard": 5538,
      "Ġdriven": 5539,
      "Ġcalculation": 5540,
      "Ġpriest": 5541,
      "ester": 5542,
      "olester": 5543,
      "olesterol": 5544,
      "Ġcholesterol": 5545,
      "Ġsecondary": 5546,
      "Ġlisten": 5547,
      "ĠClin": 5548,
      "Ġcorrel": 5549,
      "gov": 5550,
      "ĠSub": 5551,
      "ĠGrand": 5552,
      "ĠGovern": 5553,
      "oon": 5554,
      "Ġgeomet": 5555,
      "En": 5556,
      "EC": 5557,
      "AC": 5558,
      "Ġempire": 5559,
      "Ġimplications": 5560,
      "ifications": 5561,
      "rific": 5562,
      "Ġsacrific": 5563,
      "enior": 5564,
      "Ġsenior": 5565,
      "Ġsat": 5566,
      "Ġsatis": 5567,
      "Ġsatisf": 5568,
      "alance": 5569,
      "Ġbalance": 5570,
      "Ġvictory": 5571,
      "ashion": 5572,
      "Ġfashion": 5573,
      "Ġsalt": 5574,
      "Ġtool": 5575,
      "Ġtools": 5576,
      "ĠSpecies": 5577,
      "Ġinteresting": 5578,
      "ĠMartin": 5579,
      "ĠRegion": 5580,
      "ĠDirector": 5581,
      "Ġsolve": 5582,
      "ĠCoast": 5583,
      "Ġ1950": 5584,
      "ĠIll": 5585,
      "Ġincome": 5586,
      "ĠÂ·": 5587,
      "Ġcalories": 5588,
      "just": 5589,
      "36": 5590,
      "Ġdecided": 5591,
      "Ġharmful": 5592,
      "Ġmotiv": 5593,
      "coln": 5594,
      "incoln": 5595,
      "ĠLincoln": 5596,
      "Ġearn": 5597,
      "itis": 5598,
      "Ġbiggest": 5599,
      "Ġbond": 5600,
      "Ġbul": 5601,
      "ula": 5602,
      "ma": 5603,
      "Ġbill": 5604,
      "Ġmill": 5605,
      "Ġthousands": 5606,
      "Ġsupplement": 5607,
      "ĠLat": 5608,
      "ĠLatin": 5609,
      "Ġworkshop": 5610,
      "Ġpossibilities": 5611,
      "ĠUnfortunately": 5612,
      "ĠCentury": 5613,
      "Ġenterpris": 5614,
      "ĠVal": 5615,
      "ĠValley": 5616,
      "ĠViet": 5617,
      "ĠVietn": 5618,
      "Ġpapers": 5619,
      "Ġroutine": 5620,
      "Ġthinking": 5621,
      "stract": 5622,
      "Ġexperienced": 5623,
      "ĠHawai": 5624,
      "Ġsec": 5625,
      "Ġsecure": 5626,
      "Ġconventional": 5627,
      "Ġwheel": 5628,
      "Ġstruck": 5629,
      "38": 5630,
      "Ġrefers": 5631,
      "Ġpsychological": 5632,
      "Ġallowed": 5633,
      "Ġtreated": 5634,
      "Ġdrugs": 5635,
      "Ġbuff": 5636,
      "Ġmeasured": 5637,
      "Ġreject": 5638,
      "ĠSunday": 5639,
      "Ġprove": 5640,
      "Ġmerely": 5641,
      "zheim": 5642,
      "ĠAlzheim": 5643,
      "itz": 5644,
      "Ġexcit": 5645,
      "Ġpassion": 5646,
      "Joh": 5647,
      "John": 5648,
      "pe": 5649,
      "Ġjourne": 5650,
      "Ġjourney": 5651,
      "Ġboundaries": 5652,
      "Ġflag": 5653,
      "Ġflat": 5654,
      "Ġboat": 5655,
      "Ġboost": 5656,
      "vid": 5657,
      "ĠStand": 5658,
      "ĠStandard": 5659,
      "Ġband": 5660,
      "Ġdeficiency": 5661,
      "ascular": 5662,
      "ovascular": 5663,
      "rill": 5664,
      "Ġdrill": 5665,
      "Ġden": 5666,
      "Ġentirely": 5667,
      "oly": 5668,
      "Ġeffectively": 5669,
      "Ġcertainly": 5670,
      "wareness": 5671,
      "otherap": 5672,
      "Ġcam": 5673,
      "Ġcamer": 5674,
      "Ġlargely": 5675,
      "ĠRecord": 5676,
      "Ġder": 5677,
      "Ġderive": 5678,
      "Ġderived": 5679,
      "Ġexhibition": 5680,
      "class": 5681,
      "Ġvarieties": 5682,
      "Ġdesired": 5683,
      "Ġabstract": 5684,
      "avour": 5685,
      "Ġsweet": 5686,
      "ĠExper": 5687,
      "Now": 5688,
      "print": 5689,
      "pecific": 5690,
      "Ġcarefully": 5691,
      "Ġobl": 5692,
      "Ġoblig": 5693,
      "Ġstick": 5694,
      "Ġdust": 5695,
      "Ġsimulation": 5696,
      "Ġsimult": 5697,
      "Ġsimultaneously": 5698,
      "Ġedit": 5699,
      "ĠMicha": 5700,
      "ĠMichael": 5701,
      "ĠMichig": 5702,
      "ĠMichigan": 5703,
      "Ġ35": 5704,
      "Ġperformed": 5705,
      "Ġmarried": 5706,
      "Ġobes": 5707,
      "Ġobesity": 5708,
      "ensity": 5709,
      "Ġdensity": 5710,
      "ĠCommunity": 5711,
      "Ġultra": 5712,
      "Ġultimate": 5713,
      "ĠJustice": 5714,
      "Ġrestor": 5715,
      "Ġmagnitude": 5716,
      "Ġdrain": 5717,
      "ĠNavy": 5718,
      "ĠBoth": 5719,
      "ĠChange": 5720,
      "Ġcit": 5721,
      "Ġcand": 5722,
      "Ġcandid": 5723,
      "Ġcast": 5724,
      "Ġnarrative": 5725,
      "Ġrecip": 5726,
      "Ġcatch": 5727,
      "Ġobjects": 5728,
      "Ġburied": 5729,
      "Ġled": 5730,
      "take": 5731,
      "Ġaccompanied": 5732,
      "ĠMinnes": 5733,
      "48": 5734,
      "Ġturb": 5735,
      "ĠMinistry": 5736,
      "Ġattitudes": 5737,
      "Ġattitude": 5738,
      "Ġsett": 5739,
      "Ġsettled": 5740,
      "ĠÂ£": 5741,
      "RI": 5742,
      "western": 5743,
      "ĠModern": 5744,
      "ĠMinnesot": 5745,
      "terior": 5746,
      "Health": 5747,
      "Ġshot": 5748,
      "Ġ300": 5749,
      "Ġalleg": 5750,
      "her": 5751,
      "ht": 5752,
      "htm": 5753,
      "html": 5754,
      "htt": 5755,
      "http": 5756,
      "Ph": 5757,
      "Photo": 5758,
      "aph": 5759,
      "ery": 5760,
      "ĠHer": 5761,
      "ĠPer": 5762,
      "ĠHoly": 5763,
      "ĠMont": 5764,
      "Ġenemy": 5765,
      "estival": 5766,
      "Ġvalve": 5767,
      "Ġplain": 5768,
      "Ġmechanical": 5769,
      "Ġmentioned": 5770,
      "cont": 5771,
      "Ġmathemat": 5772,
      "Ġmathematical": 5773,
      "Ġfemales": 5774,
      "Ġdie": 5775,
      "Ġmainly": 5776,
      "Ġphilosophy": 5777,
      "Ġrecall": 5778,
      "Ġgall": 5779,
      "vasion": 5780,
      "vasive": 5781,
      "Ġunion": 5782,
      "acco": 5783,
      "Ġspecified": 5784,
      "ĠMoreover": 5785,
      "ĠAccess": 5786,
      "First": 5787,
      "ĠAlask": 5788,
      "Ġtrip": 5789,
      "earn": 5790,
      "Ġneutral": 5791,
      "Ġhunting": 5792,
      "Ġhole": 5793,
      "Ġhit": 5794,
      "esign": 5795,
      "ĠDesign": 5796,
      "Ġsacred": 5797,
      "athered": 5798,
      "Ġempt": 5799,
      "Ġutility": 5800,
      "ithm": 5801,
      "Ġveter": 5802,
      "tood": 5803,
      "Ġhouses": 5804,
      "Ġawareness": 5805,
      "health": 5806,
      "ette": 5807,
      "ĠSan": 5808,
      "Ġpan": 5809,
      "Ġpanel": 5810,
      "Ġpron": 5811,
      "Ġendanger": 5812,
      "nect": 5813,
      "Ġmetab": 5814,
      "Ġmetabol": 5815,
      "Ġsought": 5816,
      "Ġspecim": 5817,
      "Ġhardware": 5818,
      "Ġaware": 5819,
      "Ġoccupied": 5820,
      "Ġstrik": 5821,
      "Ġstrike": 5822,
      "Ġstrip": 5823,
      "fferson": 5824,
      "Ġdebt": 5825,
      "Ġeld": 5826,
      "free": 5827,
      "ĠThree": 5828,
      "ĠFree": 5829,
      "Ġfindings": 5830,
      "Ġmigration": 5831,
      "Ġblind": 5832,
      "ĠEarly": 5833,
      "Ġtail": 5834,
      "Ar": 5835,
      "Ġtransmitted": 5836,
      "Ġlaid": 5837,
      "Ġextin": 5838,
      "Ġextinction": 5839,
      "Ġgradually": 5840,
      "Ġdemonstrated": 5841,
      "Ġgenerated": 5842,
      "Ġuniverse": 5843,
      "Ġabuse": 5844,
      "ĠCollection": 5845,
      "Ġapparent": 5846,
      "down": 5847,
      "ĠTra": 5848,
      "ĠTest": 5849,
      "Ġadopted": 5850,
      "Ġtesting": 5851,
      "Ġcert": 5852,
      "Ġcaught": 5853,
      "Ġdial": 5854,
      "Ġrevi": 5855,
      "icide": 5856,
      "osaur": 5857,
      "Ġprediction": 5858,
      "ĠPenn": 5859,
      "ĠEliz": 5860,
      "ĠElizab": 5861,
      "ĠElizabeth": 5862,
      "vin": 5863,
      "ĠChap": 5864,
      "ĠChapter": 5865,
      "unicip": 5866,
      "Ġanticip": 5867,
      "ĠColor": 5868,
      "ĠColorad": 5869,
      "ĠColorado": 5870,
      "Ġprohibit": 5871,
      "Ġproce": 5872,
      "Ġproceed": 5873,
      "Ġproved": 5874,
      "Ġprob": 5875,
      "Ġentertain": 5876,
      "Ġdevot": 5877,
      "Ġannually": 5878,
      "ĠAre": 5879,
      "Ġlivestock": 5880,
      "Ġterror": 5881,
      "Ġcamera": 5882,
      "ĠParis": 5883,
      "scape": 5884,
      "Ġlandscape": 5885,
      "Ġsched": 5886,
      "Ġschedule": 5887,
      "Ġcalculated": 5888,
      "ĠSte": 5889,
      "Ġconsistent": 5890,
      "Ġshell": 5891,
      "Ġdeliber": 5892,
      "Ġgrain": 5893,
      "Ġindicated": 5894,
      "Ġconservative": 5895,
      "issues": 5896,
      "Ġtissues": 5897,
      "illeg": 5898,
      "Ġilleg": 5899,
      "Ġconst": 5900,
      "Ġconstrain": 5901,
      "raq": 5902,
      "ĠIraq": 5903,
      "Ġmammal": 5904,
      "ĠItal": 5905,
      "ĠItalian": 5906,
      "ĠItaly": 5907,
      "ito": 5908,
      "flow": 5909,
      "Ġconsciousness": 5910,
      "Ġmeasurements": 5911,
      "ĠBank": 5912,
      "ĠPhilipp": 5913,
      "Ġgrad": 5914,
      "Ġintegrated": 5915,
      "son": 5916,
      "ĠJohnson": 5917,
      "ĠJackson": 5918,
      "33": 5919,
      "Ġpercentage": 5920,
      "Ġexecutive": 5921,
      "ĠWood": 5922,
      "Ġrand": 5923,
      "Ġrandom": 5924,
      "ĠCamp": 5925,
      "ĠRoy": 5926,
      "ĠRoyal": 5927,
      "Ġheavi": 5928,
      "Ġecological": 5929,
      "ĠEPA": 5930,
      "orough": 5931,
      "Ġthorough": 5932,
      "ĠThough": 5933,
      "Ġinteract": 5934,
      "Ġmeters": 5935,
      "itrogen": 5936,
      "Ġnitrogen": 5937,
      "Ġarguments": 5938,
      "orithm": 5939,
      "gorithm": 5940,
      "Ġalgorithm": 5941,
      "tical": 5942,
      "Ġoptical": 5943,
      "Ġvertical": 5944,
      "At": 5945,
      "ĠRome": 5946,
      "Ġkilome": 5947,
      "Ġkilometers": 5948,
      "ĠHome": 5949,
      "Ġsick": 5950,
      "Ġsight": 5951,
      "ĠAng": 5952,
      "Ġmarg": 5953,
      "Ġabdom": 5954,
      "Ġlabour": 5955,
      "By": 5956,
      "Ġrecept": 5957,
      "theast": 5958,
      "outheast": 5959,
      "estyle": 5960,
      "Ġlifestyle": 5961,
      "Ġinterior": 5962,
      "Ġinteractive": 5963,
      "ENT": 5964,
      "Ġrecovery": 5965,
      "ĠUp": 5966,
      "Ġbridge": 5967,
      "Ġremoving": 5968,
      "ĠFigure": 5969,
      "Ġrobot": 5970,
      "Ġcancers": 5971,
      "Ġreb": 5972,
      "Ġfift": 5973,
      "ĠPost": 5974,
      "Ġtransportation": 5975,
      "Ġchoic": 5976,
      "Ġchoices": 5977,
      "Ġdivided": 5978,
      "rants": 5979,
      "Ġimmigrants": 5980,
      "habitants": 5981,
      "Ġhung": 5982,
      "fully": 5983,
      "Ġhelpful": 5984,
      "Ġtruly": 5985,
      "Ġtruck": 5986,
      "ĠWik": 5987,
      "Ġstandards": 5988,
      "Ġ150": 5989,
      "Ġinterfer": 5990,
      "Ġcriter": 5991,
      "Ġcriteria": 5992,
      "Ġheaven": 5993,
      "steroid": 5994,
      "ĠHistorical": 5995,
      "ographical": 5996,
      "Ġmoisture": 5997,
      "ureau": 5998,
      "ĠBureau": 5999,
      "ĠPortug": 6000,
      "Ġemotional": 6001,
      "Ġabnormal": 6002,
      "Ġflash": 6003,
      "Ġhorizontal": 6004,
      "Ġbooks": 6005,
      "Ġgenerate": 6006,
      "Ġgenerations": 6007,
      "Ġcouncil": 6008,
      "Ġartists": 6009,
      "pread": 6010,
      "espread": 6011,
      "Ġwidespread": 6012,
      "Ġbread": 6013,
      "Ġpromin": 6014,
      "Ġprominent": 6015,
      "Ġpromise": 6016,
      "includ": 6017,
      "Ġexclud": 6018,
      "Ġcoin": 6019,
      "rates": 6020,
      "Ġnavi": 6021,
      "Ġnavig": 6022,
      "Ġimplementation": 6023,
      "ĠWikip": 6024,
      "ĠÃ": 6025,
      "Ġaff": 6026,
      "Ġtheory": 6027,
      "rince": 6028,
      "ĠPrince": 6029,
      "Since": 6030,
      "AS": 6031,
      "rent": 6032,
      "ĠPlease": 6033,
      "ĠTimes": 6034,
      "ries": 6035,
      "Ġthirty": 6036,
      "ĠBay": 6037,
      "Ġtoo": 6038,
      "ĠSaf": 6039,
      "Ġaudience": 6040,
      "rison": 6041,
      "Ġtract": 6042,
      "Ġrub": 6043,
      "urrent": 6044,
      "Ġcapabilities": 6045,
      "Ġdisabilities": 6046,
      "Ġdisput": 6047,
      "Ġexceed": 6048,
      "avery": 6049,
      "Ġslavery": 6050,
      "Ġcorner": 6051,
      "Ġintense": 6052,
      "Ġintens": 6053,
      "Ġdemonstrate": 6054,
      "ball": 6055,
      "Ġmedication": 6056,
      "Ġmedicines": 6057,
      "Ġsettlement": 6058,
      "ĠSea": 6059,
      "Ġaccessible": 6060,
      "udio": 6061,
      "ges": 6062,
      "Ġuniversities": 6063,
      "ĠRock": 6064,
      "Ġgun": 6065,
      "Ġwheat": 6066,
      "Ġpasseng": 6067,
      "Ġshowed": 6068,
      "Ġmer": 6069,
      "Ġmercur": 6070,
      "Ġsheet": 6071,
      "abb": 6072,
      "abled": 6073,
      "Ġexpan": 6074,
      "Ġexpansion": 6075,
      "tension": 6076,
      "olk": 6077,
      "Ġfolk": 6078,
      "Ä«": 6079,
      "herit": 6080,
      "Ġregul": 6081,
      "Ġtechnological": 6082,
      "uto": 6083,
      "escent": 6084,
      "olescent": 6085,
      "Ġadolescent": 6086,
      "iles": 6087,
      "ĠHol": 6088,
      "ĠChief": 6089,
      "Ġbroke": 6090,
      "mentary": 6091,
      "ĠRel": 6092,
      "Ġaband": 6093,
      "Ġabandon": 6094,
      "ĠLand": 6095,
      "Ġcontinuous": 6096,
      "ume": 6097,
      "ĠVolume": 6098,
      "see": 6099,
      "imm": 6100,
      "39": 6101,
      "Ġprecip": 6102,
      "Ġreflection": 6103,
      "Ġche": 6104,
      "Ġcheap": 6105,
      "ae": 6106,
      "Ġarchae": 6107,
      "ee": 6108,
      "See": 6109,
      "offee": 6110,
      "Ġcore": 6111,
      "ene": 6112,
      "que": 6113,
      "Ġinde": 6114,
      "Ġindeed": 6115,
      "Ġindig": 6116,
      "ĠSupreme": 6117,
      "Ġdiverse": 6118,
      "Ġlose": 6119,
      "Ġchair": 6120,
      "can": 6121,
      "Ġvolcan": 6122,
      "Ġvolt": 6123,
      "Ġvoltage": 6124,
      "car": 6125,
      "ced": 6126,
      "Ġforced": 6127,
      "Ġpreced": 6128,
      "cale": 6129,
      "Ġpreval": 6130,
      "rence": 6131,
      "ĠMr": 6132,
      "Ġastronom": 6133,
      "fall": 6134,
      "Ġrainfall": 6135,
      "look": 6136,
      "ĠMexican": 6137,
      "Ġreached": 6138,
      "Ġcr": 6139,
      "Ġleaves": 6140,
      "Ġstimul": 6141,
      "Ġinput": 6142,
      "Ġquiet": 6143,
      "Ġacqu": 6144,
      "ĠDictionary": 6145,
      "Ġclasses": 6146,
      "Ġcharacterized": 6147,
      "Ġshoot": 6148,
      "Ã¨": 6149,
      "quent": 6150,
      "sequent": 6151,
      "Ġsubsequent": 6152,
      "Ġsubstitut": 6153,
      "ĠQuestion": 6154,
      "ĠQue": 6155,
      "Ġwhate": 6156,
      "Ġwhatever": 6157,
      "Ġguidance": 6158,
      "ĠComputer": 6159,
      "Ġformat": 6160,
      "Ġsister": 6161,
      "arctic": 6162,
      "ĠAntarctic": 6163,
      "othing": 6164,
      "Ġclothing": 6165,
      "Ġbones": 6166,
      "Ġothers": 6167,
      "Ġstrange": 6168,
      "ĠAdam": 6169,
      "sembly": 6170,
      "Ġintegration": 6171,
      "Ġcoffee": 6172,
      "ATION": 6173,
      "Ġpackage": 6174,
      "ĠWil": 6175,
      "ĠWilson": 6176,
      "ĠWrit": 6177,
      "Ġsatellites": 6178,
      "Ġfavorite": 6179,
      "Ġfos": 6180,
      "Ġfoss": 6181,
      "Ġfossil": 6182,
      "Ġcontrolled": 6183,
      "Ġroughly": 6184,
      "ey": 6185,
      "rane": 6186,
      "Ġcommittee": 6187,
      "Ġcraft": 6188,
      "Ġdraft": 6189,
      "Ġindirect": 6190,
      "ĠGulf": 6191,
      "ĠGold": 6192,
      "ĠGo": 6193,
      "ĠGoog": 6194,
      "ĠGoogle": 6195,
      "ĠGood": 6196,
      "Ġpreferred": 6197,
      "oured": 6198,
      "otherapy": 6199,
      "Ġafford": 6200,
      "Ġparticipate": 6201,
      "Ġflowers": 6202,
      "Ġnerv": 6203,
      "Ġnervous": 6204,
      "US": 6205,
      "apon": 6206,
      "Ġweapon": 6207,
      "ĠOp": 6208,
      "Ġsocieties": 6209,
      "Ġparticipation": 6210,
      "Ġconcentrations": 6211,
      "Ġcoun": 6212,
      "Ġprobability": 6213,
      "ches": 6214,
      "och": 6215,
      "UR": 6216,
      "sect": 6217,
      "Ġinsect": 6218,
      "Ġweeks": 6219,
      "Ġinform": 6220,
      "atform": 6221,
      "Ġplatform": 6222,
      "iform": 6223,
      "Ġuniform": 6224,
      "ductive": 6225,
      "Ġreproductive": 6226,
      "Ġdelive": 6227,
      "Ġdelivered": 6228,
      "ecutive": 6229,
      "Ġgathered": 6230,
      "Read": 6231,
      "Ġstead": 6232,
      "Ġstation": 6233,
      "Ġholid": 6234,
      "Ġholiday": 6235,
      "Ġshop": 6236,
      "Ġformula": 6237,
      "win": 6238,
      "Ġofficers": 6239,
      "Ġcounty": 6240,
      "Ġpossession": 6241,
      "Ġsupplements": 6242,
      "Ġ187": 6243,
      "37": 6244,
      "Ġwarming": 6245,
      "Ġhearing": 6246,
      "gression": 6247,
      "Ġoccurring": 6248,
      "going": 6249,
      "Ġsky": 6250,
      "Ġslowly": 6251,
      "Ġfine": 6252,
      "Ġwebsites": 6253,
      "olar": 6254,
      "Ġassociation": 6255,
      "Ġevaluation": 6256,
      "Ġcontribute": 6257,
      "Ġputting": 6258,
      "Ġradical": 6259,
      "enry": 6260,
      "ĠHenry": 6261,
      "Ġmanif": 6262,
      "Ġmanifest": 6263,
      "Ġeducators": 6264,
      "Ġdrinking": 6265,
      "Ġemployment": 6266,
      "ĠÎ": 6267,
      "Ġrecommendations": 6268,
      "Ġrecommended": 6269,
      "Ġtowards": 6270,
      "Ġdefault": 6271,
      "test": 6272,
      "ago": 6273,
      "icago": 6274,
      "ĠChicago": 6275,
      "Ġchart": 6276,
      "Ġpotato": 6277,
      "Ġrequires": 6278,
      "Ġconnected": 6279,
      "Ġsuicide": 6280,
      "Ġvote": 6281,
      "Ġ1930": 6282,
      "Ġple": 6283,
      "Ġpleasure": 6284,
      "ĠPhilad": 6285,
      "ĠPhiladel": 6286,
      "ĠPhiladelph": 6287,
      "ĠPhiladelphia": 6288,
      "Ġitems": 6289,
      "Ġprepared": 6290,
      "Ġindigen": 6291,
      "Ġindigenous": 6292,
      "ĠLiber": 6293,
      "Ġflexible": 6294,
      "yright": 6295,
      "opyright": 6296,
      "Ġhistoric": 6297,
      "Ġcreative": 6298,
      "Ġphrase": 6299,
      "itially": 6300,
      "Ġofficially": 6301,
      "Ġreliable": 6302,
      "Ġconsiderable": 6303,
      "rish": 6304,
      "ĠIrish": 6305,
      "unish": 6306,
      "Ġpunish": 6307,
      "ĠSpir": 6308,
      "ĠSpirit": 6309,
      "ĠSafet": 6310,
      "ĠSafety": 6311,
      "ĠCreat": 6312,
      "Ġcattle": 6313,
      "novative": 6314,
      "Ġchromos": 6315,
      "Ġpip": 6316,
      "Ġpest": 6317,
      "Ġsteel": 6318,
      "Ġsteam": 6319,
      "Ġannounced": 6320,
      "Ġobtained": 6321,
      "ĠOrigin": 6322,
      "Ġuniversal": 6323,
      "ãģ": 6324,
      "enz": 6325,
      "Ġinfluenz": 6326,
      "Ġcurve": 6327,
      "Ġstring": 6328,
      "Ġequally": 6329,
      "hio": 6330,
      "ĠOhio": 6331,
      "Ġthin": 6332,
      "Ġregarding": 6333,
      "Ġclock": 6334,
      "Ġshock": 6335,
      "Ġorganis": 6336,
      "Ġcrew": 6337,
      "brew": 6338,
      "ĠHebrew": 6339,
      "ĠAndrew": 6340,
      "Ġproposal": 6341,
      "Ġtroops": 6342,
      "Ġchick": 6343,
      "Cl": 6344,
      "Click": 6345,
      "Ġdegrad": 6346,
      "34": 6347,
      "Ġemphasis": 6348,
      "Ġpsychology": 6349,
      "Ġabsorption": 6350,
      "Ġidentical": 6351,
      "Ġsuccessfully": 6352,
      "ĠSumm": 6353,
      "Note": 6354,
      "Ġsurvived": 6355,
      "Ġdrawn": 6356,
      "Ġstatist": 6357,
      "Ġargues": 6358,
      "Ġturned": 6359,
      "Ġnet": 6360,
      "care": 6361,
      "fare": 6362,
      "abil": 6363,
      "Ġsubstantially": 6364,
      "ĠCreek": 6365,
      "ij": 6366,
      "Ġfaster": 6367,
      "Ġtrigger": 6368,
      "ĠUSA": 6369,
      "Ã±": 6370,
      "Ġraised": 6371,
      "Ġraise": 6372,
      "Ġconcrete": 6373,
      "anced": 6374,
      "Ġacknowled": 6375,
      "Ġremarkable": 6376,
      "nowledge": 6377,
      "Ġ45": 6378,
      "ĠMis": 6379,
      "ĠMiss": 6380,
      "ĠMissour": 6381,
      "ĠMissis": 6382,
      "Ġnan": 6383,
      "Ġnine": 6384,
      "velength": 6385,
      "Ġwavelength": 6386,
      "ĠEnd": 6387,
      "ario": 6388,
      "Ġreplaced": 6389,
      "ĠCentre": 6390,
      "Ġentrance": 6391,
      "arwin": 6392,
      "ĠDarwin": 6393,
      "Ġmagazine": 6394,
      "Ġseat": 6395,
      "ĠLeg": 6396,
      "Ġapple": 6397,
      "abric": 6398,
      "Ġfabric": 6399,
      "ingredient": 6400,
      "Ġingredient": 6401,
      "Ġinitiative": 6402,
      "thma": 6403,
      "Ġsitting": 6404,
      "ĠForest": 6405,
      "fish": 6406,
      "Ġpassword": 6407,
      "Ġhormon": 6408,
      "Ġregulatory": 6409,
      "ĠNeuro": 6410,
      "Ġreproduction": 6411,
      "controll": 6412,
      "Ġagreed": 6413,
      "aved": 6414,
      "Ġliterary": 6415,
      "Ġmount": 6416,
      "Ġproducing": 6417,
      "edia": 6418,
      "ĠEncyclopedia": 6419,
      "ĠWikipedia": 6420,
      "ĠVietnam": 6421,
      "á¸": 6422,
      "Ġinfluential": 6423,
      "Ġadvent": 6424,
      "Ġmunicip": 6425,
      "Ġdoing": 6426,
      "UN": 6427,
      "Ġdifferences": 6428,
      "Ġirrit": 6429,
      "writ": 6430,
      "Ġdefine": 6431,
      "Ġdevast": 6432,
      "ĠLong": 6433,
      "Ġfever": 6434,
      "evertheless": 6435,
      "ĠBlue": 6436,
      "ĠConnect": 6437,
      "Ġmuse": 6438,
      "Ġmuseum": 6439,
      "Ġmusical": 6440,
      "Ġimpress": 6441,
      "Ġindependently": 6442,
      "plete": 6443,
      "Ġclothe": 6444,
      "urder": 6445,
      "Ġmurder": 6446,
      "Ġmist": 6447,
      "Ġneur": 6448,
      "Ġneuron": 6449,
      "Ġcurrency": 6450,
      "ĠAuthor": 6451,
      "uthentic": 6452,
      "Ġmonitoring": 6453,
      "Ġpatent": 6454,
      "quito": 6455,
      "osquito": 6456,
      "ios": 6457,
      "Ġcharacteristics": 6458,
      "aval": 6459,
      "ava": 6460,
      "ĠAssembly": 6461,
      "Ġcosts": 6462,
      "ĠPerhap": 6463,
      "ĠMaryland": 6464,
      "lia": 6465,
      "ĠParlia": 6466,
      "ĠParliament": 6467,
      "une": 6468,
      "Ġdecide": 6469,
      "urkey": 6470,
      "emia": 6471,
      "ĠClark": 6472,
      "Ġfertiliz": 6473,
      "Ġinfant": 6474,
      "Ġinfants": 6475,
      "vant": 6476,
      "Ġsharp": 6477,
      "Ġverb": 6478,
      "Ġsail": 6479,
      "Ġparal": 6480,
      "Ġparalle": 6481,
      "Ġparallel": 6482,
      "Ġscenario": 6483,
      "Ġsurge": 6484,
      "Ġgardens": 6485,
      "itage": 6486,
      "ĠHeritage": 6487,
      "Ġheritage": 6488,
      "Ġacquired": 6489,
      "Ġmild": 6490,
      "Ġcommunications": 6491,
      "Ġcommunicate": 6492,
      "Ġ180": 6493,
      "ĠAlbert": 6494,
      "Ġapproval": 6495,
      "Ġcarboh": 6496,
      "ĠAssoci": 6497,
      "Ġexecution": 6498,
      "47": 6499,
      "49": 6500,
      "Ġbacterial": 6501,
      "ĠRoad": 6502,
      "Ġreward": 6503,
      "Ġtemporary": 6504,
      "olve": 6505,
      "Ġproph": 6506,
      "Ġproof": 6507,
      "alax": 6508,
      "Ġgalax": 6509,
      "olved": 6510,
      "46": 6511,
      "Ġcopper": 6512,
      "Ġrealize": 6513,
      "roph": 6514,
      "ĠReserve": 6515,
      "yd": 6516,
      "Ġcarbohyd": 6517,
      "Ġexplore": 6518,
      "Ġconversion": 6519,
      "ĠExample": 6520,
      "Ġstuff": 6521,
      "Ġstated": 6522,
      "Ġhidden": 6523,
      "count": 6524,
      "Ġunemploy": 6525,
      "Ġconfident": 6526,
      "ĠFish": 6527,
      "Ġ31": 6528,
      "Ġconverted": 6529,
      "lor": 6530,
      "Ġchlor": 6531,
      "Ġdrawing": 6532,
      "ĠMissouri": 6533,
      "Ġexplosion": 6534,
      "Ġready": 6535,
      "Ġparty": 6536,
      "Ġpartner": 6537,
      "Ġreadily": 6538,
      "Ġparticle": 6539,
      "Ġdecrease": 6540,
      "ique": 6541,
      "Ġscatter": 6542,
      "Ġdut": 6543,
      "Ġshut": 6544,
      "Ġpollut": 6545,
      "Ġexclusively": 6546,
      "Qu": 6547,
      "Ġstood": 6548,
      "Ġdropp": 6549,
      "pap": 6550,
      "spap": 6551,
      "Ġnewspap": 6552,
      "prof": 6553,
      "Ġgap": 6554,
      "Ġgone": 6555,
      "phone": 6556,
      "Ġtelephone": 6557,
      "stone": 6558,
      "Ġtransformation": 6559,
      "Ġdigest": 6560,
      "cast": 6561,
      "Ġbroadcast": 6562,
      "ĠOut": 6563,
      "Ġcoastal": 6564,
      "Ġregional": 6565,
      "Ġneglect": 6566,
      "Ġages": 6567,
      "ĠAppl": 6568,
      "Ġprecipitation": 6569,
      "ĠSteph": 6570,
      "Ġselected": 6571,
      "Ġstopp": 6572,
      "Ġinterpretation": 6573,
      "Ġpromotion": 6574,
      "ĠParty": 6575,
      "ony": 6576,
      "Ġleader": 6577,
      "ĠLike": 6578,
      "Ġvegetation": 6579,
      "Ġseparated": 6580,
      "Ġcomplicated": 6581,
      "Ġcomplications": 6582,
      "ĠAgain": 6583,
      "ĠOnly": 6584,
      "Ġpen": 6585,
      "utism": 6586,
      "Ġinfected": 6587,
      "Ġfrequencies": 6588,
      "agn": 6589,
      "agnetic": 6590,
      "ners": 6591,
      "Ġpartners": 6592,
      "ĠPrin": 6593,
      "ĠReference": 6594,
      "bl": 6595,
      "Ġparts": 6596,
      "Ġparties": 6597,
      "lands": 6598,
      "reland": 6599,
      "ĠIreland": 6600,
      "Ġcontains": 6601,
      "Ġevaluate": 6602,
      "Ġconsumers": 6603,
      "ĠCor": 6604,
      "People": 6605,
      "Ġvaccines": 6606,
      "Ġ:": 6607,
      "draw": 6608,
      "Ġamaz": 6609,
      "Ġheavily": 6610,
      "Ġbrush": 6611,
      "Ġcombat": 6612,
      "Ġinterval": 6613,
      "Ġconvin": 6614,
      "call": 6615,
      "called": 6616,
      "ustain": 6617,
      "Ġintensity": 6618,
      "Ġbiodiversity": 6619,
      "icides": 6620,
      "Ġpesticides": 6621,
      "ĠYet": 6622,
      "Ġcompanion": 6623,
      "Ġinflammation": 6624,
      "Ġformation": 6625,
      "Ġplate": 6626,
      "comfort": 6627,
      "Ġsusceptible": 6628,
      "Ġregime": 6629,
      "Ġsuppress": 6630,
      "32": 6631,
      "ston": 6632,
      "stic": 6633,
      "Ġdiagnostic": 6634,
      "Ġton": 6635,
      "Ġtempor": 6636,
      "Ġthrow": 6637,
      "ĠWord": 6638,
      "Ġreserv": 6639,
      "Ġmeasures": 6640,
      "enth": 6641,
      "eenth": 6642,
      "Ġfulf": 6643,
      "Ġfulfill": 6644,
      "Ġparlia": 6645,
      "Ġenroll": 6646,
      "Ġadministrative": 6647,
      "Ġgases": 6648,
      "Ġgro": 6649,
      "OT": 6650,
      "Ġevolutionary": 6651,
      "Ġdiscour": 6652,
      "Ġchemotherapy": 6653,
      "Ġphenomenon": 6654,
      "rade": 6655,
      "ĠâĢ¦": 6656,
      "Ġpresented": 6657,
      "Ġoperate": 6658,
      "Ġpatterns": 6659,
      "ĠField": 6660,
      "Ġaspects": 6661,
      "Ġlearned": 6662,
      "ĠÂ»": 6663,
      "Ġtumors": 6664,
      "Ġtumor": 6665,
      "99": 6666,
      "ologists": 6667,
      "Ġraw": 6668,
      "Ġtransferred": 6669,
      "Ġpoetry": 6670,
      "iter": 6671,
      "iterrane": 6672,
      "ĠMediterrane": 6673,
      "gener": 6674,
      "ĠMethod": 6675,
      "Ġminute": 6676,
      "ĠFranklin": 6677,
      "Ġpreservation": 6678,
      "2010": 6679,
      "ules": 6680,
      "Ġexcav": 6681,
      "Ġsynthe": 6682,
      "Ġreturned": 6683,
      "Ġdemonstration": 6684,
      "Ġrow": 6685,
      "Ġbow": 6686,
      "Why": 6687,
      "Ġregularly": 6688,
      "Ġasthma": 6689,
      "Ġpermitted": 6690,
      "Ġdivine": 6691,
      "Ġradioactive": 6692,
      "Ġsunlight": 6693,
      "Ġcomponents": 6694,
      "istant": 6695,
      "aust": 6696,
      "na": 6697,
      "Ġallows": 6698,
      "Ġpool": 6699,
      "Ġgrid": 6700,
      "ieval": 6701,
      "Ġmedieval": 6702,
      "Ġinches": 6703,
      "rition": 6704,
      "utrition": 6705,
      "Ġremains": 6706,
      "Ġremained": 6707,
      "Ġcommitment": 6708,
      "Ġprofound": 6709,
      "use": 6710,
      "Ġsin": 6711,
      "Ġsaved": 6712,
      "cin": 6713,
      "Ġdeclin": 6714,
      "eline": 6715,
      "nel": 6716,
      "Ġpersonnel": 6717,
      "unnel": 6718,
      "Ġcentre": 6719,
      "Ġimmigration": 6720,
      "Ġdoctrine": 6721,
      "Ġintroduction": 6722,
      "ĠLittle": 6723,
      "quar": 6724,
      "quarters": 6725,
      "Ġoccurs": 6726,
      "Ġfung": 6727,
      "Ġtast": 6728,
      "Ġfault": 6729,
      "allow": 6730,
      "Ġoccurrence": 6731,
      "ĠLawrence": 6732,
      "Ġmetaph": 6733,
      "AM": 6734,
      "ĠEngineer": 6735,
      "Ġadoption": 6736,
      "Ġnotion": 6737,
      "Ġcenters": 6738,
      "Ġcircle": 6739,
      "Ġspl": 6740,
      "Ġsplit": 6741,
      "ĠDefense": 6742,
      "Ġlayers": 6743,
      "Ġpathway": 6744,
      "ĠOF": 6745,
      "Ġcollected": 6746,
      "Ġmiss": 6747,
      "Ġelabor": 6748,
      "Ġscar": 6749,
      "Ġscope": 6750,
      "ino": 6751,
      "ĠIllino": 6752,
      "ĠIllinois": 6753,
      "do": 6754,
      "ameters": 6755,
      "Ġparameters": 6756,
      "Ġdatabases": 6757,
      "Ġsulf": 6758,
      "Ġupd": 6759,
      "Ġupdated": 6760,
      "ĠEffect": 6761,
      "Ġflavor": 6762,
      "Ġrelax": 6763,
      "CO": 6764,
      "Ġlegend": 6765,
      "Ġindustries": 6766,
      "exual": 6767,
      "Ġgenome": 6768,
      "bacco": 6769,
      "Once": 6770,
      "ĠForce": 6771,
      "Man": 6772,
      "Many": 6773,
      "urt": 6774,
      "ĠAIDS": 6775,
      "efferson": 6776,
      "ĠJefferson": 6777,
      "Ġlaws": 6778,
      "Ġhousing": 6779,
      "Ġswimm": 6780,
      "Ġadverse": 6781,
      "Ġadvert": 6782,
      "Ġoffered": 6783,
      "ĠTemple": 6784,
      "cred": 6785,
      "Ġpul": 6786,
      "Where": 6787,
      "Ġwonderful": 6788,
      "vad": 6789,
      "ĠHarv": 6790,
      "ĠHarvard": 6791,
      "aution": 6792,
      "ĠWell": 6793,
      "Ġves": 6794,
      "Ġvess": 6795,
      "Ġvessel": 6796,
      "Ġvect": 6797,
      "Ġappears": 6798,
      "Ġappeared": 6799,
      "Ġfairly": 6800,
      "Ġfly": 6801,
      "Ġformed": 6802,
      "Ġorganized": 6803,
      "Ġfunding": 6804,
      "type": 6805,
      "Ġhealthcare": 6806,
      "profit": 6807,
      "after": 6808,
      "Ġfriends": 6809,
      "Ġtube": 6810,
      "Ġabilities": 6811,
      "irt": 6812,
      "Ġcirculation": 6813,
      "Ġchoos": 6814,
      "Ġproductivity": 6815,
      "Ġimprovement": 6816,
      "Ġmeasurement": 6817,
      "ĠTime": 6818,
      "ĠCommand": 6819,
      "Ġorders": 6820,
      "Ġliterally": 6821,
      "Ġmosquito": 6822,
      "Ġmyth": 6823,
      "Ġobserver": 6824,
      "ĠCro": 6825,
      "ergy": 6826,
      "appro": 6827,
      "Ġcrime": 6828,
      "liminary": 6829,
      "2012": 6830,
      "Ġcycl": 6831,
      "Ġterritories": 6832,
      "ĠFre": 6833,
      "Ġregardless": 6834,
      "including": 6835,
      "logy": 6836,
      "Ġtap": 6837,
      "ibilities": 6838,
      "Ġresponsibilities": 6839,
      "Ġresponses": 6840,
      "ĠSaint": 6841,
      "Ġcomplaint": 6842,
      "Ġcelebrate": 6843,
      "Ġcelebration": 6844,
      "Ġ1989": 6845,
      "Ġdetailed": 6846,
      "Ġdetails": 6847,
      "stood": 6848,
      "Ġunderstood": 6849,
      "pre": 6850,
      "ĠCorp": 6851,
      "iological": 6852,
      "iant": 6853,
      "Ġgiant": 6854,
      "Ġrarely": 6855,
      "Ġprofile": 6856,
      "apt": 6857,
      "phere": 6858,
      "band": 6859,
      "usband": 6860,
      "Ġhusband": 6861,
      "Ġbrand": 6862,
      "Ġsupposed": 6863,
      "theastern": 6864,
      "Ġprevalence": 6865,
      "Ġthread": 6866,
      "roid": 6867,
      "Ġfro": 6868,
      "Ġera": 6869,
      "Ġerect": 6870,
      "Ġerup": 6871,
      "Ġ978": 6872,
      "Ġmeal": 6873,
      "Ġurg": 6874,
      "rat": 6875,
      "ĠDemocrat": 6876,
      "rang": 6877,
      "Ġarrang": 6878,
      "Ġarter": 6879,
      "Ġaren": 6880,
      "ĠPrim": 6881,
      "ĠPri": 6882,
      "emical": 6883,
      "44": 6884,
      "Ġconven": 6885,
      "Ġven": 6886,
      "orrow": 6887,
      "Ġcoverage": 6888,
      "Ġusual": 6889,
      "inosaur": 6890,
      "ĠRights": 6891,
      "Ġfailed": 6892,
      "arge": 6893,
      "31": 6894,
      "Ġpreference": 6895,
      "agram": 6896,
      "Ġdiagram": 6897,
      "Ġly": 6898,
      "Ġod": 6899,
      "Ġclinic": 6900,
      "Ġangle": 6901,
      "Ġconfront": 6902,
      "ĠStat": 6903,
      "ĠStatistic": 6904,
      "sistance": 6905,
      "Ġassistance": 6906,
      "ĠMaterial": 6907,
      "Your": 6908,
      "duced": 6909,
      "Ġintellectual": 6910,
      "Ġfurn": 6911,
      "Ġfavour": 6912,
      "Ġfle": 6913,
      "ecast": 6914,
      "ĠNative": 6915,
      "65": 6916,
      "half": 6917,
      "ĠDespite": 6918,
      "Every": 6919,
      "EL": 6920,
      "Ġnoise": 6921,
      "Ġchos": 6922,
      "Ġchosen": 6923,
      "ĠOpen": 6924,
      "Ġshared": 6925,
      "ĠRoose": 6926,
      "ĠRoosevel": 6927,
      "state": 6928,
      "Ġcolonial": 6929,
      "Ġprescription": 6930,
      "DF": 6931,
      "Ġflour": 6932,
      "Ġrice": 6933,
      "Ġnotice": 6934,
      "Ġmice": 6935,
      "Ġmel": 6936,
      "ĠModel": 6937,
      "Ġ75": 6938,
      "Ġpoints": 6939,
      "Ġforms": 6940,
      "Ġinstitutions": 6941,
      "surance": 6942,
      "Ġneighbour": 6943,
      "Ġsubmitted": 6944,
      "Ġphysically": 6945,
      "Ġflexibility": 6946,
      "Ġcolleges": 6947,
      "Ġpop": 6948,
      "Ġodd": 6949,
      "ocal": 6950,
      "Ġsuspend": 6951,
      "Ġcrack": 6952,
      "Ġweakness": 6953,
      "connect": 6954,
      "logical": 6955,
      "ĠRos": 6956,
      "âĪ": 6957,
      "ĠBattle": 6958,
      "Under": 6959,
      "ĠNaz": 6960,
      "Ġframe": 6961,
      "Ġvocab": 6962,
      "Ġvocabul": 6963,
      "Ġvocabulary": 6964,
      "Ġschedul": 6965,
      "Ġsmart": 6966,
      "Ġarri": 6967,
      "Ġarrival": 6968,
      "rian": 6969,
      "overe": 6970,
      "overeign": 6971,
      "Ġsovereign": 6972,
      "Ġsubsequently": 6973,
      "Ġcertific": 6974,
      "Ġcontrovers": 6975,
      "Ġrelation": 6976,
      "Ġcollaboration": 6977,
      "ugg": 6978,
      "agg": 6979,
      "ĠIndustri": 6980,
      "ĠAustri": 6981,
      "ĠIndones": 6982,
      "everal": 6983,
      "Ġfell": 6984,
      "Ġsell": 6985,
      "ĠAdd": 6986,
      "ĠAdv": 6987,
      "Ġdebris": 6988,
      "Ġmostly": 6989,
      "emble": 6990,
      "emistry": 6991,
      "ifying": 6992,
      "Ã¦": 6993,
      "ĠPlace": 6994,
      "valu": 6995,
      "Ġcreates": 6996,
      "Ġtried": 6997,
      "Ġpil": 6998,
      "Ġpilot": 6999,
      "Ġboil": 7000,
      "ĠLeague": 7001,
      "Ġreleases": 7002,
      "Ġstatistical": 7003,
      "etherlands": 7004,
      "Ġfraction": 7005,
      "Ġfought": 7006,
      "ana": 7007,
      "oma": 7008,
      "ĠRepublican": 7009,
      "ĠAlzheimer": 7010,
      "á¹": 7011,
      "ĠStudents": 7012,
      "aneous": 7013,
      "Ġamb": 7014,
      "Ġmemb": 7015,
      "Ġmembrane": 7016,
      "Ġmolecule": 7017,
      "Ġdecor": 7018,
      "Ġdecay": 7019,
      "odox": 7020,
      "thodox": 7021,
      "ĠOrthodox": 7022,
      "Ġrig": 7023,
      "ĠPhysic": 7024,
      "Ġdestroyed": 7025,
      "ĠMe": 7026,
      "ĠMaj": 7027,
      "Ġsmoke": 7028,
      "Ġdefe": 7029,
      "Ġroute": 7030,
      "Ġescape": 7031,
      "HO": 7032,
      "Ġpure": 7033,
      "ediatric": 7034,
      "Ġprevail": 7035,
      "Ġrestaur": 7036,
      "Ġprinciples": 7037,
      "Ġscan": 7038,
      "Ġscor": 7039,
      "ĠMor": 7040,
      "Ġinfluenza": 7041,
      "omy": 7042,
      "omin": 7043,
      "Ġpredomin": 7044,
      "omach": 7045,
      "Ġstomach": 7046,
      "Ġatom": 7047,
      "Ġnumbers": 7048,
      "Ġpossess": 7049,
      "ĠProtest": 7050,
      "Ġprojects": 7051,
      "Ġtaste": 7052,
      "ĠBehavi": 7053,
      "So": 7054,
      "Ġdinosaur": 7055,
      "Ġdiver": 7056,
      "cket": 7057,
      "Ġpocket": 7058,
      "Ġanywhere": 7059,
      "ooth": 7060,
      "Ġsmooth": 7061,
      "ĠMos": 7062,
      "ĠMil": 7063,
      "Ġtrail": 7064,
      "Ġmethane": 7065,
      "Ad": 7066,
      "Ġongoing": 7067,
      "Ġprem": 7068,
      "Ġpret": 7069,
      "Ġpretty": 7070,
      "Cont": 7071,
      "unt": 7072,
      "Ġresemble": 7073,
      "Ġembry": 7074,
      "Ġju": 7075,
      "Ġbrow": 7076,
      "Ġtrap": 7077,
      "Ġannounce": 7078,
      "Ġannivers": 7079,
      "Ġadvis": 7080,
      "ures": 7081,
      "Our": 7082,
      "Ġepis": 7083,
      "ĠNov": 7084,
      "Ġtower": 7085,
      "Ġpropag": 7086,
      "uke": 7087,
      "Ġinfectious": 7088,
      "ĠClick": 7089,
      "odium": 7090,
      "Ġcalend": 7091,
      "Ġcalendar": 7092,
      "ophistic": 7093,
      "Ġsophistic": 7094,
      "Ġprivi": 7095,
      "Ġarchive": 7096,
      "Ġexcessive": 7097,
      "Ġaggressive": 7098,
      "radu": 7099,
      "Ġprovin": 7100,
      "Ġrational": 7101,
      "Ġlibraries": 7102,
      "Ġblow": 7103,
      "Ġhappy": 7104,
      "Ġfaculty": 7105,
      "ky": 7106,
      "Ġpolar": 7107,
      "Ġconvinced": 7108,
      "through": 7109,
      "Ġoccasionally": 7110,
      "vit": 7111,
      "Ġsharing": 7112,
      "Ġstarting": 7113,
      "Ġsodium": 7114,
      "Ġtranspl": 7115,
      "Ġtransplant": 7116,
      "Ġloose": 7117,
      "Ġchip": 7118,
      "olf": 7119,
      "Ġwithdraw": 7120,
      "agraph": 7121,
      "Ġparagraph": 7122,
      "Ġatmospheric": 7123,
      "Ġtranspar": 7124,
      "Ġancestors": 7125,
      "Ġeliminate": 7126,
      "ĠCheck": 7127,
      "ĠKenn": 7128,
      "Ġvideos": 7129,
      "ĠMinnesota": 7130,
      "Ġrepublic": 7131,
      "Ġimprovements": 7132,
      "Ġfertility": 7133,
      "Ġcopies": 7134,
      "Ġoutdo": 7135,
      "ĠArtic": 7136,
      "forest": 7137,
      "ĠZe": 7138,
      "ĠZeal": 7139,
      "ĠZealand": 7140,
      "erm": 7141,
      "Ġlym": 7142,
      "Ġlymph": 7143,
      "2011": 7144,
      "Ġinternet": 7145,
      "Ġadmitted": 7146,
      "emember": 7147,
      "Ġaccus": 7148,
      "Ġ400": 7149,
      "Ġamend": 7150,
      "world": 7151,
      "Ġestablishment": 7152,
      "iment": 7153,
      "ĠFour": 7154,
      "under": 7155,
      "ĠFund": 7156,
      "ĠOreg": 7157,
      "ĠOregon": 7158,
      "iagno": 7159,
      "Ġprepare": 7160,
      "Ġpreparation": 7161,
      "Ġquantities": 7162,
      "Ġquantity": 7163,
      "Ġquantum": 7164,
      "ĠChristianity": 7165,
      "Ġminority": 7166,
      "ĠAgricultural": 7167,
      "Ġrising": 7168,
      "Ġeruption": 7169,
      "Ġgreatly": 7170,
      "aci": 7171,
      "Ġglaci": 7172,
      "Ġexpressed": 7173,
      "ĠAlaska": 7174,
      "Ġaffirm": 7175,
      "ĠProfess": 7176,
      "ĠProfessor": 7177,
      "Ġgraduate": 7178,
      "Ġdress": 7179,
      "Ġdepress": 7180,
      "Ġ1920": 7181,
      "Ġbind": 7182,
      "eneath": 7183,
      "Ġbeneath": 7184,
      "Ġownership": 7185,
      "Ġabundant": 7186,
      "Ġabundance": 7187,
      "Ġextraord": 7188,
      "Ġextraordinary": 7189,
      "ciplinary": 7190,
      "amination": 7191,
      "Ġcontamination": 7192,
      "Ġcontrad": 7193,
      "Ġdiagnosed": 7194,
      "Ġintelligence": 7195,
      "Ġincident": 7196,
      "uccess": 7197,
      "Ġbattery": 7198,
      "Ġbatteries": 7199,
      "Ġvaries": 7200,
      "ĠMain": 7201,
      "ĠNations": 7202,
      "Ġcriticism": 7203,
      "Ħ¢": 7204,
      "âĦ¢": 7205,
      "Ġcalculate": 7206,
      "Ġyard": 7207,
      "Ġmanip": 7208,
      "ĠCorpor": 7209,
      "Ġassociate": 7210,
      "yroid": 7211,
      "Ġadjac": 7212,
      "Ġadjacent": 7213,
      "ental": 7214,
      "etwe": 7215,
      "etween": 7216,
      "ĠVis": 7217,
      "Ġconve": 7218,
      "vince": 7219,
      "Ġdominant": 7220,
      "ĠAN": 7221,
      "ĠAND": 7222,
      "University": 7223,
      "ĠLiter": 7224,
      "Ġcompetitive": 7225,
      "World": 7226,
      "Ġhistorians": 7227,
      "rook": 7228,
      "Ġthyroid": 7229,
      "ĠApple": 7230,
      "imal": 7231,
      "ĠAnimal": 7232,
      "usual": 7233,
      "Ġunusual": 7234,
      "Ġcatal": 7235,
      "Ġconfusion": 7236,
      "Ġconfid": 7237,
      "Ġconfidence": 7238,
      "Ġinherit": 7239,
      "ĠFollow": 7240,
      "Ġsupplied": 7241,
      "Ġmyself": 7242,
      "Ġattached": 7243,
      "Ġillegal": 7244,
      "ĠMoon": 7245,
      "adder": 7246,
      "owder": 7247,
      "ĠOrder": 7248,
      "add": 7249,
      "ald": 7250,
      "atitis": 7251,
      "ĠGovernor": 7252,
      "utch": 7253,
      "ĠDutch": 7254,
      "nesday": 7255,
      "Ġfourth": 7256,
      "Ġactivist": 7257,
      "Ġbra": 7258,
      "tra": 7259,
      "ĠSam": 7260,
      "ĠSamuel": 7261,
      "Ġsynthetic": 7262,
      "ĠArchitect": 7263,
      "author": 7264,
      "Ġcrow": 7265,
      "Ġcrowd": 7266,
      "Ġreverse": 7267,
      "Ġcollapse": 7268,
      "telligent": 7269,
      "ĠAppro": 7270,
      "ĠFather": 7271,
      "ĠFin": 7272,
      "ĠFinally": 7273,
      "Ġapproaches": 7274,
      "Ġsummary": 7275,
      "veloc": 7276,
      "Ġveloc": 7277,
      "Ġvelocity": 7278,
      "Ġinterested": 7279,
      "Ġpursue": 7280,
      "Ġcryst": 7281,
      "Ġcrystal": 7282,
      "Ġengineers": 7283,
      "gl": 7284,
      "ougl": 7285,
      "Ġvariations": 7286,
      "ĠEmerg": 7287,
      "Ġaccepted": 7288,
      "Ġpig": 7289,
      "Ġpup": 7290,
      "Ġcup": 7291,
      "Despite": 7292,
      "Ġresulting": 7293,
      "Ġscene": 7294,
      "ĠLearn": 7295,
      "Ġdialect": 7296,
      "Ġdialogue": 7297,
      "Ġeverywhere": 7298,
      "uscript": 7299,
      "Ġmanuscript": 7300,
      "cus": 7301,
      "cussion": 7302,
      "Ġreaders": 7303,
      "aturday": 7304,
      "Ġeveryday": 7305,
      "pon": 7306,
      "Ġoppon": 7307,
      "pired": 7308,
      "ĠRespon": 7309,
      "Ġunderground": 7310,
      "Ġassembly": 7311,
      "Ġduty": 7312,
      "Ġduties": 7313,
      "ĠThank": 7314,
      "Ġtests": 7315,
      "EM": 7316,
      "Ġofficials": 7317,
      "ĠIslamic": 7318,
      "Ġmodule": 7319,
      "Ġmouse": 7320,
      "Ġopponent": 7321,
      "ĠPrinciple": 7322,
      "Ġsaying": 7323,
      "Ġstored": 7324,
      "ĠPlant": 7325,
      "Ġempty": 7326,
      "uesday": 7327,
      "ĠMonday": 7328,
      "riday": 7329,
      "ĠFriday": 7330,
      "ĠHill": 7331,
      "ĠMy": 7332,
      "Ġextended": 7333,
      "iovascular": 7334,
      "Ġcardiovascular": 7335,
      "Ġdependent": 7336,
      "Student": 7337,
      "Ġsmoking": 7338,
      "Ġimagine": 7339,
      "ĠRelig": 7340,
      "foot": 7341,
      "Ġdeclared": 7342,
      "Ġshad": 7343,
      "Ġshadow": 7344,
      "Ġbigger": 7345,
      "95": 7346,
      "05": 7347,
      "Ġ1940": 7348,
      "01": 7349,
      "ĠSimil": 7350,
      "ĠSimilar": 7351,
      "Ġoutcome": 7352,
      "CR": 7353,
      "ĠElectronic": 7354,
      "Ġvolunt": 7355,
      "ĠEducational": 7356,
      "Ġspecimens": 7357,
      "Ġachieving": 7358,
      "Ġprovinces": 7359,
      "cretion": 7360,
      "Ġcompletion": 7361,
      "Through": 7362,
      "Ġfixed": 7363,
      "Ġpractition": 7364,
      "Last": 7365,
      "last": 7366,
      "lastname": 7367,
      "Ġdiscussed": 7368,
      "regular": 7369,
      "Ġirregular": 7370,
      "Ġguar": 7371,
      "Ġguarant": 7372,
      "Ġdistant": 7373,
      "Ġensuring": 7374,
      "Ġpronounc": 7375,
      "Ġmercury": 7376,
      "istan": 7377,
      "akistan": 7378,
      "ĠPakistan": 7379,
      "aken": 7380,
      "Ġran": 7381,
      "Ġurine": 7382,
      "Ġessence": 7383,
      "ĠAmaz": 7384,
      "Ġvariation": 7385,
      "Ġinvestigation": 7386,
      "BC": 7387,
      "ĠSupport": 7388,
      "onald": 7389,
      "ĠArticle": 7390,
      "Ġachievement": 7391,
      "Ġroles": 7392,
      "Ġrose": 7393,
      "vidence": 7394,
      "itary": 7395,
      "ĠMilitary": 7396,
      "oston": 7397,
      "ĠBoston": 7398,
      "197": 7399,
      "Ġaggreg": 7400,
      "Ġgar": 7401,
      "ĠProfession": 7402,
      "Ġrecovered": 7403,
      "covered": 7404,
      "Ġsuprem": 7405,
      "Ġclassified": 7406,
      "Ġrevealed": 7407,
      "Ġsuggested": 7408,
      "Ġsuggests": 7409,
      "Ġgras": 7410,
      "Ġgrass": 7411,
      "Ġgrave": 7412,
      "Ġdepending": 7413,
      "Ġenforcement": 7414,
      "brid": 7415,
      "Ġhybrid": 7416,
      "shire": 7417,
      "onym": 7418,
      "Ġcontaining": 7419,
      "reece": 7420,
      "ĠGreece": 7421,
      "Ġequality": 7422,
      "Ġsurviv": 7423,
      "Ġapplies": 7424,
      "commun": 7425,
      "ĠRoosevelt": 7426,
      "ĠDrug": 7427,
      "ĠDiseases": 7428,
      "ĠWithout": 7429,
      "ifth": 7430,
      "Ġfifth": 7431,
      "Ġeggs": 7432,
      "Ġimpression": 7433,
      "Ġartist": 7434,
      "ĠSeveral": 7435,
      "Ġlake": 7436,
      "Ð°": 7437,
      "conduct": 7438,
      "cons": 7439,
      "conscious": 7440,
      "Ġcircumstances": 7441,
      "iness": 7442,
      "Ġhappiness": 7443,
      "usiness": 7444,
      "ĠClinical": 7445,
      "Ġjuice": 7446,
      "ĠBuilding": 7447,
      "Ġmodels": 7448,
      "ĠPolic": 7449,
      "ĠPolicy": 7450,
      "Ġgraphic": 7451,
      "pace": 7452,
      "acebook": 7453,
      "ĠFacebook": 7454,
      "Ġworks": 7455,
      "ĠDiscover": 7456,
      "Ġlinked": 7457,
      "Ġ65": 7458,
      "Ġscore": 7459,
      "Sh": 7460,
      "Ġwriter": 7461,
      "Ġwriters": 7462,
      "Ġwrites": 7463,
      "No": 7464,
      "PS": 7465,
      "Ġfold": 7466,
      "ĠType": 7467,
      "Ġstores": 7468,
      "Ġcandidate": 7469,
      "Ġcandidates": 7470,
      "Ġtunnel": 7471,
      "Ġjoined": 7472,
      "presentative": 7473,
      "ĠQueen": 7474,
      "ĠWall": 7475,
      "junction": 7476,
      "Ġbladder": 7477,
      "Ġevident": 7478,
      "Ġviolent": 7479,
      "Ġmarch": 7480,
      "Ġweigh": 7481,
      "Ġworst": 7482,
      "Ġworry": 7483,
      "Ġrequir": 7484,
      "Ġplus": 7485,
      "Ġplot": 7486,
      "otton": 7487,
      "Ġcotton": 7488,
      "Ġresolve": 7489,
      "Ġearthquakes": 7490,
      "Ġtendency": 7491,
      "Ġremaining": 7492,
      "Ġopposed": 7493,
      "ĠFact": 7494,
      "Ġgives": 7495,
      "Ġ36": 7496,
      "ĠChris": 7497,
      "Ġwireless": 7498,
      "Ġexploit": 7499,
      "rash": 7500,
      "Ġcrash": 7501,
      "bra": 7502,
      "Å¡": 7503,
      "Artic": 7504,
      "Ġteen": 7505,
      "Ġguarantee": 7506,
      "Ġhill": 7507,
      "ĠBlood": 7508,
      "ished": 7509,
      "Ġconvert": 7510,
      "Ġproven": 7511,
      "ĠThird": 7512,
      "Ġexplic": 7513,
      "Ġexplicit": 7514,
      "ĠPap": 7515,
      "ĠAsian": 7516,
      "elect": 7517,
      "ivities": 7518,
      "ĠRad": 7519,
      "Ġregions": 7520,
      "Ġpriority": 7521,
      "Ġcorrection": 7522,
      "Ġdiscipline": 7523,
      "ĠExecutive": 7524,
      "auty": 7525,
      "Ġbeauty": 7526,
      "Ġdy": 7527,
      "iance": 7528,
      "Ġtrick": 7529,
      "ĠNetherlands": 7530,
      "Ġcolonies": 7531,
      "Ġgalaxies": 7532,
      "eries": 7533,
      "Ġenemies": 7534,
      "ologies": 7535,
      "ologically": 7536,
      "ologic": 7537,
      "Ġprivacy": 7538,
      "Ġseverity": 7539,
      "Ġstrongly": 7540,
      "Ġactiv": 7541,
      "Ġgeographic": 7542,
      "rub": 7543,
      "effect": 7544,
      "ĠEgyptian": 7545,
      "ĠMediterranean": 7546,
      "Ġinfluenced": 7547,
      "together": 7548,
      "Ġ`": 7549,
      "Ġunits": 7550,
      "Ġconsequences": 7551,
      "fficiency": 7552,
      "ĠRob": 7553,
      "cal": 7554,
      "Ġclosed": 7555,
      "Ġcloser": 7556,
      "ider": 7557,
      "ĠConsider": 7558,
      "ĠMount": 7559,
      "Ġhands": 7560,
      "Ġhandle": 7561,
      "ifies": 7562,
      "Ġrecorded": 7563,
      "Ġrecords": 7564,
      "Ġexperts": 7565,
      "Ġexpertise": 7566,
      "ans": 7567,
      "ansas": 7568,
      "ĠKansas": 7569,
      "Ġgirls": 7570,
      "Ġproud": 7571,
      "Ġboundary": 7572,
      "Ġov": 7573,
      "Ġintegral": 7574,
      "Ġmales": 7575,
      "ĠPrize": 7576,
      "Ġexh": 7577,
      "Ġexhaust": 7578,
      "ocaust": 7579,
      "ĠHolocaust": 7580,
      "Ġvegetables": 7581,
      "uct": 7582,
      "Ġextinct": 7583,
      "aylor": 7584,
      "Ġsurgical": 7585,
      "ĠPhysical": 7586,
      "Ġrival": 7587,
      "Ġcitiz": 7588,
      "ycles": 7589,
      "Ġswallow": 7590,
      "**": 7591,
      "Ġcomprom": 7592,
      "Ġcompens": 7593,
      "ffairs": 7594,
      "Ġspray": 7595,
      "third": 7596,
      "Ġallowing": 7597,
      "ĠPolit": 7598,
      "Ġconfig": 7599,
      "Ġconfigur": 7600,
      "Ġjur": 7601,
      "Ġjuris": 7602,
      "Ġjurisd": 7603,
      "Ġjurisdiction": 7604,
      "Ġfiction": 7605,
      "Ġfract": 7606,
      "ĠPract": 7607,
      "Ġcontroversial": 7608,
      "Ġbiom": 7609,
      "Ġcelebrated": 7610,
      "Ġherb": 7611,
      "but": 7612,
      "Ġclimb": 7613,
      "Ġcooperation": 7614,
      "Ġtriang": 7615,
      "Ġreign": 7616,
      "Ġexplained": 7617,
      "OS": 7618,
      "ĠMill": 7619,
      "ĠGuard": 7620,
      "Ġcomfortable": 7621,
      "Ġblank": 7622,
      "Ġfilled": 7623,
      "forced": 7624,
      "Ġwanted": 7625,
      "Ġtextbook": 7626,
      "Ġconcerned": 7627,
      "Ġelevation": 7628,
      "Ġsalmon": 7629,
      "green": 7630,
      "Ġrein": 7631,
      "Ġreinforce": 7632,
      "efin": 7633,
      "ĠTradition": 7634,
      "herent": 7635,
      "Ġuncle": 7636,
      "letter": 7637,
      "Ġcivilization": 7638,
      "ĠVi": 7639,
      "ĠView": 7640,
      "ias": 7641,
      "ĠPres": 7642,
      "Ġampl": 7643,
      "develop": 7644,
      "Ġlens": 7645,
      "Ġelected": 7646,
      "Ġconfus": 7647,
      "Ġherself": 7648,
      "contin": 7649,
      "Ġbarrel": 7650,
      "ridges": 7651,
      "Ġwages": 7652,
      "Ġedges": 7653,
      "eep": 7654,
      "ĠKeep": 7655,
      "Ġholes": 7656,
      "ĠPeace": 7657,
      "ĠPal": 7658,
      "ĠPalest": 7659,
      "ĠPoint": 7660,
      "Ġoptions": 7661,
      "aud": 7662,
      "Ġlock": 7663,
      "Ġcomposed": 7664,
      "Be": 7665,
      "Before": 7666,
      "Ġqualities": 7667,
      "aria": 7668,
      "Ġmalaria": 7669,
      "Ġwear": 7670,
      "uclear": 7671,
      "Ġbishop": 7672,
      "lfare": 7673,
      "Ġwelfare": 7674,
      "Ġreports": 7675,
      "Ġportray": 7676,
      "comes": 7677,
      "Ġoutcomes": 7678,
      "ĠAdvanced": 7679,
      "otechnology": 7680,
      "Ġsurviving": 7681,
      "ĠProtocol": 7682,
      "ieve": 7683,
      "Ġlie": 7684,
      "ĠNumber": 7685,
      "ĠCaptain": 7686,
      "Ġelementary": 7687,
      "Ġminimize": 7688,
      "Ġextensively": 7689,
      "verse": 7690,
      "Ġrepeat": 7691,
      "Ġmoder": 7692,
      "Ġmoderate": 7693,
      "Ġcond": 7694,
      "Ġconjunction": 7695,
      "Ġofficer": 7696,
      "Ġsurveill": 7697,
      "Ġsurveillance": 7698,
      "blem": 7699,
      "ĠProblem": 7700,
      "mail": 7701,
      "Ġcompli": 7702,
      "Ġcompil": 7703,
      "Ġcompress": 7704,
      "National": 7705,
      "IL": 7706,
      "IG": 7707,
      "III": 7708,
      "ML": 7709,
      "atern": 7710,
      "ĠLead": 7711,
      "Ġfestival": 7712,
      "Ð¾": 7713,
      "Ġfluor": 7714,
      "night": 7715,
      "Ġtight": 7716,
      "Ġtension": 7717,
      "rove": 7718,
      "Ġreef": 7719,
      "Ġdipl": 7720,
      "Ġreput": 7721,
      "uther": 7722,
      "ifer": 7723,
      "itivity": 7724,
      "Ġsensitivity": 7725,
      "Children": 7726,
      "Christ": 7727,
      "Ġ1988": 7728,
      "itarian": 7729,
      "Ġzones": 7730,
      "ĠConstant": 7731,
      "Ġburd": 7732,
      "Ġburden": 7733,
      "Ġalign": 7734,
      "Ġcoordination": 7735,
      "Ġvaccination": 7736,
      "Ġsustainability": 7737,
      "Ġvirtue": 7738,
      "sylvania": 7739,
      "ĠPennsylvania": 7740,
      "Ġdetermination": 7741,
      "ĠWal": 7742,
      "Ġzer": 7743,
      "Ġzero": 7744,
      "Ġdifficulty": 7745,
      "Ġdifficulties": 7746,
      "Ġreplic": 7747,
      "Ġlic": 7748,
      "Ġlicens": 7749,
      "Ġlicense": 7750,
      "emeter": 7751,
      "88": 7752,
      "embled": 7753,
      "ĠAmericans": 7754,
      "Copyright": 7755,
      "ĠCopyright": 7756,
      "urk": 7757,
      "ĠTurk": 7758,
      "osm": 7759,
      "Ġcosm": 7760,
      "Ġqualified": 7761,
      "keley": 7762,
      "Ġsophisticated": 7763,
      "ĠKorea": 7764,
      "Ġanniversary": 7765,
      "Ġcomplain": 7766,
      "Ġteens": 7767,
      "Please": 7768,
      "ĠDoct": 7769,
      "ĠAncient": 7770,
      "ĠWeek": 7771,
      "Ġsemi": 7772,
      "ili": 7773,
      "Ġconvenient": 7774,
      "wealth": 7775,
      "itative": 7776,
      "vestig": 7777,
      "Ġliberty": 7778,
      "Ġshark": 7779,
      "Ġshield": 7780,
      "Ġwrap": 7781,
      "ĠIran": 7782,
      "Ġappointed": 7783,
      "ĠLouisian": 7784,
      "Ġhaven": 7785,
      "Ġpublication": 7786,
      "Ġtranslation": 7787,
      "Ġenabled": 7788,
      "Ġchapters": 7789,
      "Ġprivileg": 7790,
      "Ġstatements": 7791,
      "Ġtrem": 7792,
      "Ġtremend": 7793,
      "Ġtreasure": 7794,
      "Ġdeleg": 7795,
      "Ġlegislature": 7796,
      "Ġlegislative": 7797,
      "ĠLuther": 7798,
      "Ġchest": 7799,
      "hyd": 7800,
      "have": 7801,
      "Ġsuffering": 7802,
      "ownload": 7803,
      "Ġdiplom": 7804,
      "Ġplent": 7805,
      "Ġplenty": 7806,
      "Ġresidents": 7807,
      "mar": 7808,
      "Ġgrammar": 7809,
      "men": 7810,
      "Ġholy": 7811,
      "Ġwine": 7812,
      "Åį": 7813,
      "Ġnewspaper": 7814,
      "Ġcensus": 7815,
      "ĠBrook": 7816,
      "Ġpowder": 7817,
      "ippi": 7818,
      "ĠPerson": 7819,
      "Ġbully": 7820,
      "ynast": 7821,
      "yndrom": 7822,
      "clos": 7823,
      "Ġenclos": 7824,
      "ĠSuper": 7825,
      "Ġcareer": 7826,
      "ĠAlexander": 7827,
      "Ġscrap": 7828,
      "Ġsuspic": 7829,
      "ĠEngineering": 7830,
      "Ġlies": 7831,
      "teenth": 7832,
      "orth": 7833,
      "worth": 7834,
      "ĠMajor": 7835,
      "Ġchose": 7836,
      "Ġ~": 7837,
      "Ġoldest": 7838,
      "ennial": 7839,
      "ste": 7840,
      "stein": 7841,
      "Ġdest": 7842,
      "Ġresidence": 7843,
      "Ġtwentie": 7844,
      "Ġentit": 7845,
      "Ġentitled": 7846,
      "Ġshrub": 7847,
      "Ġalarm": 7848,
      "Ġperceived": 7849,
      "lerance": 7850,
      "TML": 7851,
      "Ġmotivation": 7852,
      "08": 7853,
      "Ġpredators": 7854,
      "Ġcycles": 7855,
      "Ġstones": 7856,
      "Ġphones": 7857,
      "Ġcrown": 7858,
      "bon": 7859,
      "carbon": 7860,
      "izations": 7861,
      "izz": 7862,
      "Ġcere": 7863,
      "Ġpartially": 7864,
      "CC": 7865,
      "ogram": 7866,
      "Ġhappened": 7867,
      "Over": 7868,
      "ĠDougl": 7869,
      "Ġrect": 7870,
      "rect": 7871,
      "Ġmonarch": 7872,
      "Ġmonkey": 7873,
      "Ġemit": 7874,
      "Ġirrigation": 7875,
      "Ġbear": 7876,
      "ara": 7877,
      "Ġjudic": 7878,
      "Ġparas": 7879,
      "Ġparad": 7880,
      "oney": 7881,
      "Ġhoney": 7882,
      "Ġ..": 7883,
      "Ġ...": 7884,
      "upiter": 7885,
      "ĠJupiter": 7886,
      "ĠResource": 7887,
      "Source": 7888,
      "ĠDisord": 7889,
      "ĠMedia": 7890,
      "Ġmail": 7891,
      "Ġmac": 7892,
      "Ġcontaminated": 7893,
      "Gen": 7894,
      "General": 7895,
      "umin": 7896,
      "Ġunable": 7897,
      "Ġunf": 7898,
      "fection": 7899,
      "ĠHealthwise": 7900,
      "Ġaccordance": 7901,
      "Ġspoken": 7902,
      "Ġdistributed": 7903,
      "Ġcampus": 7904,
      "Ġmarked": 7905,
      "ĠPhilip": 7906,
      "Ġhypothes": 7907,
      "Ġhypothesis": 7908,
      "Ġnewspapers": 7909,
      "raduate": 7910,
      "Ġmicrob": 7911,
      "Ġjudgment": 7912,
      "ament": 7913,
      "ĠTestament": 7914,
      "Ġpunishment": 7915,
      "Ġcommod": 7916,
      "Ġeleph": 7917,
      "Ġsteps": 7918,
      "Ġbeliever": 7919,
      "Ġiniti": 7920,
      "ilt": 7921,
      "Ġpupil": 7922,
      "oke": 7923,
      "Ġtraum": 7924,
      "eteenth": 7925,
      "ineteenth": 7926,
      "Ġnineteenth": 7927,
      "Ġnice": 7928,
      "abet": 7929,
      "phabet": 7930,
      "iabet": 7931,
      "ĠLet": 7932,
      "ĠPractice": 7933,
      "Ġshowing": 7934,
      "Ġdeficit": 7935,
      "Ġfoods": 7936,
      "Ġobserving": 7937,
      "Ġcontinually": 7938,
      "Ġinvent": 7939,
      "Ġelder": 7940,
      "ulsion": 7941,
      "ulpt": 7942,
      "Ġsculpt": 7943,
      "196": 7944,
      "sewhere": 7945,
      "Ġelsewhere": 7946,
      "Ġdetermines": 7947,
      "Ġforecast": 7948,
      "Ġadmission": 7949,
      "Ġbranches": 7950,
      "Ġmemories": 7951,
      "romagnetic": 7952,
      "Ġelectromagnetic": 7953,
      "Ġtimber": 7954,
      "Ġretreat": 7955,
      "Ġattraction": 7956,
      "Ġdisrupt": 7957,
      "ĠKey": 7958,
      "orney": 7959,
      "Ġattorney": 7960,
      "Ġresistant": 7961,
      "Ġfeather": 7962,
      "acial": 7963,
      "iabetes": 7964,
      "Ġfatty": 7965,
      "Ġcounterpart": 7966,
      "uous": 7967,
      "ĠSection": 7968,
      "Ġlaunched": 7969,
      "tran": 7970,
      "ties": 7971,
      "Ġrecipient": 7972,
      "Ġorient": 7973,
      "ĠLouisiana": 7974,
      "DC": 7975,
      "ĠMcC": 7976,
      "ierarch": 7977,
      "Ġhierarch": 7978,
      "Ġconsumer": 7979,
      "Ġdestination": 7980,
      "Ġloop": 7981,
      "January": 7982,
      "ĠJac": 7983,
      "ĠJacob": 7984,
      "Ġtransaction": 7985,
      "Ġapprox": 7986,
      "dis": 7987,
      "ĠAdditionally": 7988,
      "Ġconstantly": 7989,
      "Ab": 7990,
      "About": 7991,
      "ĠPortugues": 7992,
      "ĠMassachusetts": 7993,
      "Ġprimitive": 7994,
      "Ġvolunteers": 7995,
      "2000": 7996,
      "Ġgalaxy": 7997,
      "AP": 7998,
      "ĠHall": 7999
    },
    "merges": [
      [
        "t",
        "h"
      ],
      [
        "th",
        "e"
      ],
      [
        "Ġ",
        "the"
      ],
      [
        "â",
        "Ģ"
      ],
      [
        "i",
        "n"
      ],
      [
        "in",
        "g"
      ],
      [
        "a",
        "n"
      ],
      [
        "an",
        "d"
      ],
      [
        "o",
        "n"
      ],
      [
        "e",
        "n"
      ],
      [
        "o",
        "f"
      ],
      [
        "Ġ",
        "of"
      ],
      [
        "i",
        "on"
      ],
      [
        "t",
        "ion"
      ],
      [
        "T",
        "h"
      ],
      [
        "Ġ",
        "and"
      ],
      [
        "v",
        "e"
      ],
      [
        "Ġ",
        "w"
      ],
      [
        "c",
        "h"
      ],
      [
        "en",
        "t"
      ],
      [
        "o",
        "u"
      ],
      [
        "o",
        "r"
      ],
      [
        "f",
        "or"
      ],
      [
        "o",
        "w"
      ],
      [
        "âĢ",
        "Ļ"
      ],
      [
        "Ġ",
        "b"
      ],
      [
        "Ġ",
        "in"
      ],
      [
        "o",
        "m"
      ],
      [
        "Ġw",
        "h"
      ],
      [
        "a",
        "tion"
      ],
      [
        "a",
        "l"
      ],
      [
        "q",
        "u"
      ],
      [
        "t",
        "o"
      ],
      [
        "Ġ",
        "to"
      ],
      [
        "a",
        "t"
      ],
      [
        "th",
        "at"
      ],
      [
        "a",
        "r"
      ],
      [
        "e",
        "r"
      ],
      [
        "r",
        "e"
      ],
      [
        "e",
        "d"
      ],
      [
        "Ġ",
        "that"
      ],
      [
        "ve",
        "r"
      ],
      [
        "the",
        "r"
      ],
      [
        "Th",
        "e"
      ],
      [
        "r",
        "o"
      ],
      [
        "p",
        "ro"
      ],
      [
        "0",
        "0"
      ],
      [
        "Ġb",
        "e"
      ],
      [
        "e",
        "x"
      ],
      [
        "m",
        "ent"
      ],
      [
        "1",
        "9"
      ],
      [
        "l",
        "y"
      ],
      [
        "âĢ",
        "ľ"
      ],
      [
        "âĢ",
        "Ŀ"
      ],
      [
        "g",
        "h"
      ],
      [
        "Ġ",
        "h"
      ],
      [
        "Ġ",
        "for"
      ],
      [
        "Ġ",
        "("
      ],
      [
        "v",
        "i"
      ],
      [
        "a",
        "b"
      ],
      [
        "Ġh",
        "a"
      ],
      [
        "Ġha",
        "ve"
      ],
      [
        "Ġ",
        "C"
      ],
      [
        "Ġ",
        "f"
      ],
      [
        "Ġ",
        "A"
      ],
      [
        "Ġ",
        "S"
      ],
      [
        "c",
        "om"
      ],
      [
        "r",
        "om"
      ],
      [
        "Ġf",
        "rom"
      ],
      [
        "c",
        "on"
      ],
      [
        "i",
        "c"
      ],
      [
        "Ġw",
        "i"
      ],
      [
        "Ġwi",
        "th"
      ],
      [
        "Ġb",
        "y"
      ],
      [
        "Ġ",
        "con"
      ],
      [
        "I",
        "n"
      ],
      [
        "ou",
        "r"
      ],
      [
        "ou",
        "n"
      ],
      [
        "u",
        "n"
      ],
      [
        "u",
        "r"
      ],
      [
        "ou",
        "gh"
      ],
      [
        "i",
        "gh"
      ],
      [
        "Ġ",
        "pro"
      ],
      [
        "Ġ",
        "M"
      ],
      [
        "i",
        "s"
      ],
      [
        "i",
        "t"
      ],
      [
        "i",
        "ve"
      ],
      [
        "s",
        "t"
      ],
      [
        "igh",
        "t"
      ],
      [
        "i",
        "f"
      ],
      [
        "2",
        "00"
      ],
      [
        "Ġ",
        "P"
      ],
      [
        "it",
        "y"
      ],
      [
        "c",
        "t"
      ],
      [
        "al",
        "ly"
      ],
      [
        "r",
        "a"
      ],
      [
        "i",
        "r"
      ],
      [
        "i",
        "m"
      ],
      [
        "i",
        "l"
      ],
      [
        "o",
        "l"
      ],
      [
        "r",
        "i"
      ],
      [
        "o",
        "ther"
      ],
      [
        "Ġw",
        "a"
      ],
      [
        "Ġwa",
        "s"
      ],
      [
        "Ġ",
        "B"
      ],
      [
        "Ġ",
        "m"
      ],
      [
        "a",
        "m"
      ],
      [
        "Ġwi",
        "l"
      ],
      [
        "Ġwil",
        "l"
      ],
      [
        "l",
        "e"
      ],
      [
        "ab",
        "le"
      ],
      [
        "âĢ",
        "ĵ"
      ],
      [
        "âĢ",
        "Ķ"
      ],
      [
        "Ġ",
        "H"
      ],
      [
        "c",
        "tion"
      ],
      [
        "i",
        "z"
      ],
      [
        "Ġ",
        "The"
      ],
      [
        "Ġ",
        "ex"
      ],
      [
        "Ġ",
        "com"
      ],
      [
        "Ġw",
        "or"
      ],
      [
        "ou",
        "t"
      ],
      [
        "ab",
        "out"
      ],
      [
        "n",
        "o"
      ],
      [
        "no",
        "t"
      ],
      [
        "Ġ",
        "not"
      ],
      [
        "t",
        "er"
      ],
      [
        "Ġ",
        "a"
      ],
      [
        "Ġm",
        "a"
      ],
      [
        "Ġ",
        "th"
      ],
      [
        "Ġth",
        "is"
      ],
      [
        "Ġ",
        "p"
      ],
      [
        "Ġ",
        "re"
      ],
      [
        "Ġ",
        "c"
      ],
      [
        "c",
        "e"
      ],
      [
        "en",
        "ce"
      ],
      [
        "Ġ",
        "W"
      ],
      [
        "Ġ",
        "I"
      ],
      [
        "Ġ",
        "G"
      ],
      [
        "Ġ",
        "F"
      ],
      [
        "Ġ",
        "R"
      ],
      [
        "Ġ",
        "D"
      ],
      [
        "Ġcom",
        "p"
      ],
      [
        "o",
        "p"
      ],
      [
        "Ġ",
        "is"
      ],
      [
        "is",
        "t"
      ],
      [
        "Th",
        "is"
      ],
      [
        "u",
        "re"
      ],
      [
        "Ġ",
        "E"
      ],
      [
        "c",
        "i"
      ],
      [
        "c",
        "k"
      ],
      [
        "is",
        "h"
      ],
      [
        "Ġc",
        "an"
      ],
      [
        "Ġ",
        "N"
      ],
      [
        "2",
        "0"
      ],
      [
        "Ġ",
        "J"
      ],
      [
        "Ġex",
        "p"
      ],
      [
        "Ġ",
        "L"
      ],
      [
        "Ġ",
        "d"
      ],
      [
        "i",
        "d"
      ],
      [
        "Ġd",
        "e"
      ],
      [
        "oun",
        "d"
      ],
      [
        "Ġd",
        "is"
      ],
      [
        "Ġ",
        "on"
      ],
      [
        "Ġ",
        "In"
      ],
      [
        "Ġwh",
        "i"
      ],
      [
        "Ġwhi",
        "ch"
      ],
      [
        "Ġcom",
        "m"
      ],
      [
        "u",
        "m"
      ],
      [
        "u",
        "l"
      ],
      [
        "al",
        "l"
      ],
      [
        "ou",
        "l"
      ],
      [
        "oul",
        "d"
      ],
      [
        "y",
        "ou"
      ],
      [
        "Ġ",
        "you"
      ],
      [
        "Ġb",
        "u"
      ],
      [
        "Ġthe",
        "ir"
      ],
      [
        "Ġbu",
        "t"
      ],
      [
        "Ġ",
        "T"
      ],
      [
        "Ġp",
        "re"
      ],
      [
        "ic",
        "al"
      ],
      [
        "Ġwor",
        "k"
      ],
      [
        "o",
        "ver"
      ],
      [
        "ow",
        "n"
      ],
      [
        "for",
        "m"
      ],
      [
        "Ġw",
        "ould"
      ],
      [
        "Ġh",
        "is"
      ],
      [
        "Ġh",
        "igh"
      ],
      [
        "Ġ",
        "U"
      ],
      [
        "i",
        "tion"
      ],
      [
        "o",
        "d"
      ],
      [
        "o",
        "od"
      ],
      [
        "Ġ",
        "n"
      ],
      [
        "v",
        "en"
      ],
      [
        "Ġ",
        "1"
      ],
      [
        "f",
        "f"
      ],
      [
        "Ġn",
        "e"
      ],
      [
        "oun",
        "t"
      ],
      [
        "Ġ",
        "19"
      ],
      [
        "il",
        "l"
      ],
      [
        "ĠU",
        "n"
      ],
      [
        "'",
        "s"
      ],
      [
        "Ġ",
        "s"
      ],
      [
        "Ġs",
        "h"
      ],
      [
        "Ġ",
        "l"
      ],
      [
        "Ġ",
        "st"
      ],
      [
        "Ġ",
        "t"
      ],
      [
        "Ġ",
        "g"
      ],
      [
        "Ġ",
        "it"
      ],
      [
        "Ġ",
        "ar"
      ],
      [
        "Ġar",
        "e"
      ],
      [
        "Ġ",
        "O"
      ],
      [
        "Ġ",
        "un"
      ],
      [
        "i",
        "g"
      ],
      [
        "ig",
        "n"
      ],
      [
        "a",
        "g"
      ],
      [
        "ag",
        "e"
      ],
      [
        "Ġs",
        "u"
      ],
      [
        "Ġ",
        "about"
      ],
      [
        "Ġ",
        "other"
      ],
      [
        "Ġ",
        "or"
      ],
      [
        "Ġ",
        "an"
      ],
      [
        "Ġ",
        "ch"
      ],
      [
        "u",
        "s"
      ],
      [
        "Ġ",
        "us"
      ],
      [
        "ou",
        "s"
      ],
      [
        "Ġcon",
        "t"
      ],
      [
        "an",
        "t"
      ],
      [
        "an",
        "ce"
      ],
      [
        "ul",
        "t"
      ],
      [
        "ĠC",
        "h"
      ],
      [
        "Ġ",
        "\""
      ],
      [
        "Ġ",
        "K"
      ],
      [
        "u",
        "t"
      ],
      [
        "u",
        "d"
      ],
      [
        "Ġst",
        "ud"
      ],
      [
        "u",
        "st"
      ],
      [
        "Ġsh",
        "ould"
      ],
      [
        "Ġ",
        "all"
      ],
      [
        "Ġm",
        "or"
      ],
      [
        "Ġmor",
        "e"
      ],
      [
        "ve",
        "l"
      ],
      [
        "vel",
        "op"
      ],
      [
        "Ġde",
        "velop"
      ],
      [
        "Ġne",
        "w"
      ],
      [
        "a",
        "ck"
      ],
      [
        "Ġh",
        "e"
      ],
      [
        "20",
        "1"
      ],
      [
        "r",
        "ough"
      ],
      [
        "Ġth",
        "rough"
      ],
      [
        "Ġth",
        "an"
      ],
      [
        "on",
        "g"
      ],
      [
        "an",
        "g"
      ],
      [
        "a",
        "in"
      ],
      [
        "a",
        "d"
      ],
      [
        "a",
        "y"
      ],
      [
        "e",
        "ct"
      ],
      [
        "ff",
        "ect"
      ],
      [
        "j",
        "ect"
      ],
      [
        "a",
        "ct"
      ],
      [
        "a",
        "s"
      ],
      [
        "e",
        "s"
      ],
      [
        "i",
        "es"
      ],
      [
        "Ġw",
        "e"
      ],
      [
        "Ġw",
        "er"
      ],
      [
        "Ġwer",
        "e"
      ],
      [
        "e",
        "m"
      ],
      [
        "Ġa",
        "s"
      ],
      [
        "a",
        "st"
      ],
      [
        "a",
        "k"
      ],
      [
        "a",
        "ch"
      ],
      [
        "s",
        "ion"
      ],
      [
        "o",
        "st"
      ],
      [
        "e",
        "st"
      ],
      [
        "ir",
        "st"
      ],
      [
        "Ġf",
        "irst"
      ],
      [
        "Ġm",
        "ost"
      ],
      [
        "a",
        "ce"
      ],
      [
        "a",
        "us"
      ],
      [
        "Ġha",
        "s"
      ],
      [
        "Ġha",
        "d"
      ],
      [
        "ce",
        "s"
      ],
      [
        "Ġm",
        "an"
      ],
      [
        "Ġt",
        "im"
      ],
      [
        "Ġsu",
        "ch"
      ],
      [
        "Ġ",
        "âĢľ"
      ],
      [
        "o",
        "g"
      ],
      [
        "ol",
        "og"
      ],
      [
        "en",
        "d"
      ],
      [
        "Ġ",
        "out"
      ],
      [
        "r",
        "u"
      ],
      [
        "d",
        "u"
      ],
      [
        "Ġpro",
        "du"
      ],
      [
        "Ġ",
        "im"
      ],
      [
        "Ġim",
        "p"
      ],
      [
        "Ġ",
        "le"
      ],
      [
        "op",
        "le"
      ],
      [
        "e",
        "ople"
      ],
      [
        "Ġp",
        "eople"
      ],
      [
        "b",
        "le"
      ],
      [
        "Ġc",
        "ould"
      ],
      [
        "Ġ",
        "j"
      ],
      [
        "st",
        "em"
      ],
      [
        "y",
        "stem"
      ],
      [
        "om",
        "e"
      ],
      [
        "Ġs",
        "ome"
      ],
      [
        "Ġ",
        "no"
      ],
      [
        "Ġs",
        "ystem"
      ],
      [
        "Ġin",
        "to"
      ],
      [
        "if",
        "f"
      ],
      [
        "Ġd",
        "iff"
      ],
      [
        "if",
        "ic"
      ],
      [
        "re",
        "at"
      ],
      [
        "Ġ",
        "at"
      ],
      [
        "at",
        "e"
      ],
      [
        "at",
        "ed"
      ],
      [
        "Ġ",
        "200"
      ],
      [
        "Ġ",
        "Th"
      ],
      [
        "y",
        "our"
      ],
      [
        "Ġ",
        "your"
      ],
      [
        "or",
        "t"
      ],
      [
        "p",
        "ort"
      ],
      [
        "Ġimp",
        "ort"
      ],
      [
        "Ġj",
        "ust"
      ],
      [
        "l",
        "ud"
      ],
      [
        "c",
        "lud"
      ],
      [
        "Ġin",
        "clud"
      ],
      [
        "e",
        "l"
      ],
      [
        "el",
        "l"
      ],
      [
        "e",
        "t"
      ],
      [
        "ar",
        "t"
      ],
      [
        "Ġp",
        "art"
      ],
      [
        "Ġp",
        "l"
      ],
      [
        "Ġp",
        "er"
      ],
      [
        "b",
        "er"
      ],
      [
        "Ġ",
        "V"
      ],
      [
        "Ġ1",
        "8"
      ],
      [
        "form",
        "ation"
      ],
      [
        "Ġch",
        "ang"
      ],
      [
        "Ġch",
        "il"
      ],
      [
        "Ġchil",
        "d"
      ],
      [
        "a",
        "p"
      ],
      [
        "Ġs",
        "p"
      ],
      [
        "Ġd",
        "o"
      ],
      [
        "Ġ",
        "v"
      ],
      [
        "d",
        "ition"
      ],
      [
        "Ġun",
        "d"
      ],
      [
        "Ġund",
        "er"
      ],
      [
        "ar",
        "d"
      ],
      [
        "at",
        "ive"
      ],
      [
        "Ġ",
        "This"
      ],
      [
        "le",
        "ct"
      ],
      [
        "um",
        "ber"
      ],
      [
        "Ġn",
        "umber"
      ],
      [
        "Ġma",
        "y"
      ],
      [
        "Ġma",
        "k"
      ],
      [
        "Ġ",
        "k"
      ],
      [
        "Ġk",
        "n"
      ],
      [
        "o",
        "t"
      ],
      [
        "Ġwh",
        "o"
      ],
      [
        "Ġwh",
        "en"
      ],
      [
        "ĠS",
        "t"
      ],
      [
        "u",
        "tion"
      ],
      [
        "u",
        "p"
      ],
      [
        "Ġ",
        "up"
      ],
      [
        "u",
        "b"
      ],
      [
        "ub",
        "l"
      ],
      [
        "Ġ",
        "2"
      ],
      [
        "Ġ",
        "al"
      ],
      [
        "Ġ",
        "e"
      ],
      [
        "Ġ",
        "r"
      ],
      [
        "Ġ",
        "Y"
      ],
      [
        "Ġ",
        "over"
      ],
      [
        "Ġ",
        "vi"
      ],
      [
        "Ġe",
        "ffect"
      ],
      [
        "Ġtim",
        "e"
      ],
      [
        "|",
        "|"
      ],
      [
        "ces",
        "s"
      ],
      [
        "Ġt",
        "ak"
      ],
      [
        "Ġdiff",
        "er"
      ],
      [
        "i",
        "re"
      ],
      [
        "i",
        "vi"
      ],
      [
        "Ġpro",
        "vi"
      ],
      [
        "Ġprovi",
        "d"
      ],
      [
        "Ġt",
        "ra"
      ],
      [
        "Ġ",
        "op"
      ],
      [
        "ar",
        "ch"
      ],
      [
        "e",
        "arch"
      ],
      [
        "Ġimport",
        "ant"
      ],
      [
        "Ġp",
        "ubl"
      ],
      [
        "Ġh",
        "ow"
      ],
      [
        "Ġkn",
        "ow"
      ],
      [
        "Ġ",
        "en"
      ],
      [
        "Ġ",
        "qu"
      ],
      [
        "Ġwh",
        "at"
      ],
      [
        "at",
        "er"
      ],
      [
        "Ġw",
        "ater"
      ],
      [
        "o",
        "k"
      ],
      [
        "o",
        "ok"
      ],
      [
        "o",
        "s"
      ],
      [
        "o",
        "b"
      ],
      [
        "o",
        "ve"
      ],
      [
        "Ġsu",
        "b"
      ],
      [
        "Ġg",
        "r"
      ],
      [
        "aus",
        "e"
      ],
      [
        "c",
        "ause"
      ],
      [
        "Ġbe",
        "cause"
      ],
      [
        "ĠI",
        "t"
      ],
      [
        "Ġgr",
        "ou"
      ],
      [
        "Ġbe",
        "en"
      ],
      [
        "Ġsu",
        "p"
      ],
      [
        "Ġle",
        "vel"
      ],
      [
        "o",
        "ci"
      ],
      [
        "o",
        "c"
      ],
      [
        "Ġal",
        "s"
      ],
      [
        "Ġals",
        "o"
      ],
      [
        "ri",
        "b"
      ],
      [
        "ver",
        "y"
      ],
      [
        "Ġman",
        "y"
      ],
      [
        "Ġ",
        "3"
      ],
      [
        "Ġ",
        "ob"
      ],
      [
        ")",
        "."
      ],
      [
        "i",
        "ver"
      ],
      [
        "ĠUn",
        "iver"
      ],
      [
        "i",
        "k"
      ],
      [
        "Ġl",
        "ik"
      ],
      [
        "Ġlik",
        "e"
      ],
      [
        "Ġdiffer",
        "ent"
      ],
      [
        "Ġt",
        "w"
      ],
      [
        "Ġtw",
        "o"
      ],
      [
        "e",
        "w"
      ],
      [
        "Ġkn",
        "own"
      ],
      [
        "ĠW",
        "h"
      ],
      [
        "p",
        "h"
      ],
      [
        "p",
        "le"
      ],
      [
        "am",
        "ple"
      ],
      [
        "Ġex",
        "ample"
      ],
      [
        "Ġ19",
        "9"
      ],
      [
        "at",
        "es"
      ],
      [
        "at",
        "ure"
      ],
      [
        "l",
        "ow"
      ],
      [
        "em",
        "ber"
      ],
      [
        "ĠN",
        "ew"
      ],
      [
        "Ġin",
        "ter"
      ],
      [
        "Ġin",
        "formation"
      ],
      [
        "ol",
        "low"
      ],
      [
        "Ġf",
        "ollow"
      ],
      [
        "Ġsup",
        "port"
      ],
      [
        "Ġon",
        "ly"
      ],
      [
        "qu",
        "ire"
      ],
      [
        "il",
        "ity"
      ],
      [
        "Ġcomm",
        "un"
      ],
      [
        "i",
        "an"
      ],
      [
        "i",
        "ble"
      ],
      [
        "Ġpro",
        "ble"
      ],
      [
        "i",
        "a"
      ],
      [
        "Ġproble",
        "m"
      ],
      [
        "Ġstud",
        "ent"
      ],
      [
        "Ġwa",
        "y"
      ],
      [
        "Ġ",
        "201"
      ],
      [
        "it",
        "ies"
      ],
      [
        "Ġpro",
        "cess"
      ],
      [
        "00",
        "0"
      ],
      [
        "f",
        "ter"
      ],
      [
        "Ġa",
        "fter"
      ],
      [
        "ab",
        "ility"
      ],
      [
        "Ġgrou",
        "p"
      ],
      [
        "Ġe",
        "ven"
      ],
      [
        "Ġc",
        "l"
      ],
      [
        "over",
        "n"
      ],
      [
        "overn",
        "ment"
      ],
      [
        "Ġsp",
        "e"
      ],
      [
        "Ġspe",
        "ci"
      ],
      [
        "Ġbu",
        "il"
      ],
      [
        "st",
        "ru"
      ],
      [
        "a",
        "il"
      ],
      [
        "ar",
        "y"
      ],
      [
        "Ġc",
        "ount"
      ],
      [
        "Ġth",
        "os"
      ],
      [
        "Ġr",
        "ight"
      ],
      [
        "Ġe",
        "very"
      ],
      [
        "Ġ",
        "very"
      ],
      [
        "a",
        "c"
      ],
      [
        "Ġc",
        "ol"
      ],
      [
        "Ġe",
        "ach"
      ],
      [
        "Ġ",
        "if"
      ],
      [
        "Ġpl",
        "ace"
      ],
      [
        "Ġne",
        "ed"
      ],
      [
        "Ġg",
        "en"
      ],
      [
        "Ġl",
        "ong"
      ],
      [
        "olog",
        "y"
      ],
      [
        "Ġf",
        "ound"
      ],
      [
        "v",
        "ing"
      ],
      [
        "Ġthos",
        "e"
      ],
      [
        "Ġg",
        "overnment"
      ],
      [
        "r",
        "ic"
      ],
      [
        "r",
        "an"
      ],
      [
        "Ġt",
        "ran"
      ],
      [
        "r",
        "it"
      ],
      [
        "r",
        "y"
      ],
      [
        "r",
        "on"
      ],
      [
        "vi",
        "ron"
      ],
      [
        "viron",
        "ment"
      ],
      [
        "Ġen",
        "vironment"
      ],
      [
        "Ġchild",
        "r"
      ],
      [
        "Ġchildr",
        "en"
      ],
      [
        "Ġtran",
        "s"
      ],
      [
        "Ġw",
        "rit"
      ],
      [
        "Ġl",
        "if"
      ],
      [
        "f",
        "ul"
      ],
      [
        "ul",
        "ar"
      ],
      [
        "ĠA",
        "n"
      ],
      [
        "ra",
        "m"
      ],
      [
        "g",
        "ram"
      ],
      [
        "Ġpro",
        "gram"
      ],
      [
        "ra",
        "ct"
      ],
      [
        "Ġ",
        "ra"
      ],
      [
        "Ġa",
        "ct"
      ],
      [
        "ire",
        "ct"
      ],
      [
        "Ġact",
        "ivi"
      ],
      [
        "Ġa",
        "d"
      ],
      [
        "ra",
        "ph"
      ],
      [
        "âĢ",
        "ĺ"
      ],
      [
        "Ġre",
        "quire"
      ],
      [
        "Ġgen",
        "er"
      ],
      [
        "ill",
        "ion"
      ],
      [
        "in",
        "d"
      ],
      [
        "ol",
        "d"
      ],
      [
        "ve",
        "d"
      ],
      [
        "w",
        "ay"
      ],
      [
        "Ġg",
        "reat"
      ],
      [
        "Ġre",
        "s"
      ],
      [
        "Ġres",
        "earch"
      ],
      [
        "Ġres",
        "ult"
      ],
      [
        "ci",
        "ence"
      ],
      [
        "Ġus",
        "ed"
      ],
      [
        "Ġ",
        "em"
      ],
      [
        "W",
        "h"
      ],
      [
        "Ġ",
        "our"
      ],
      [
[...]
