{
  "version": "1.0",
  "truncation": null,
  "padding": null,
  "added_tokens": [
    {
      "id": 0,
      "content": "<|endoftext|>",
      "single_word": false,
      "lstrip": false,
      "rstrip": false,
      "normalized": false,
      "special": true
    },
    {
      "id": 1,
      "content": "<|padding|>",
      "single_word": false,
      "lstrip": false,
      "rstrip": false,
      "normalized": false,
      "special": true
    }
  ],
  "normalizer": {
    "type": "NFC"
  },
  "pre_tokenizer": {
    "type": "ByteLevel",
    "add_prefix_space": false,
    "trim_offsets": true,
    "use_regex": true
  },
  "post_processor": {
    "type": "ByteLevel",
    "add_prefix_space": true,
    "trim_offsets": false,
    "use_regex": true
  },
  "decoder": {
    "type": "ByteLevel",
    "add_prefix_space": true,
    "trim_offsets": true,
    "use_regex": true
  },
  "model": {
    "type": "Unigram",
    "unk_id": null,
    "vocab": [
      [
        "<|endoftext|>",
        0.0
      ],
      [
        "<|padding|>",
        0.0
      ],
      [
        "Ġ",
        -2.3368654011256247
      ],
      [
        ",",
        -3.285974942057738
      ],
      [
        "Ġthe",
        -3.289583634717939
      ],
      [
        ".",
        -3.3324715556441795
      ],
      [
        "s",
        -3.6100237098466823
      ],
      [
        "a",
        -3.774682610772864
      ],
      [
        "Ġof",
        -3.775144297661871
      ],
      [
        "Ġand",
        -3.962685132199286
      ],
      [
        "Ċ",
        -4.006314207844099
      ],
      [
        "Ġto",
        -4.092524396266516
      ],
      [
        "Ġin",
        -4.348157745866548
      ],
      [
        "-",
        -4.556589030498415
      ],
      [
        "t",
        -4.678181783788183
      ],
      [
        "o",
        -4.7521028874651385
      ],
      [
        "Ġis",
        -4.843213931650663
      ],
      [
        "n",
        -4.872926249842475
      ],
      [
        "Ġthat",
        -5.048687821190544
      ],
      [
        "i",
        -5.151594562170462
      ],
      [
        "Ġfor",
        -5.172617358531166
      ],
      [
        "(",
        -5.275600831787283
      ],
      [
        "d",
        -5.290103948821162
      ],
      [
        "e",
        -5.335693621794583
      ],
      [
        "Ġare",
        -5.455216158058377
      ],
      [
        "\"",
        -5.487121748714175
      ],
      [
        "Ġwith",
        -5.4969406687178335
      ],
      [
        "'",
        -5.600233047067519
      ],
      [
        "Ġbe",
        -5.600530726965614
      ],
      [
        ":",
        -5.643418343811538
      ],
      [
        "Ġby",
        -5.649186395068654
      ],
      [
        "Ġor",
        -5.679637173884673
      ],
      [
        "ĠThe",
        -5.743537292623767
      ],
      [
        "Ġwas",
        -5.755611364411042
      ],
      [
        "Ġfrom",
        -5.785937204332972
      ],
      [
        ")",
        -5.790906277270238
      ],
      [
        "ing",
        -5.931036115399971
      ],
      [
        "Ġhave",
        -6.006601501335073
      ],
      [
        "Ġan",
        -6.069666648365764
      ],
      [
        "Ġnot",
        -6.082855387288619
      ],
      [
        "âĢĻ",
        -6.107351225130602
      ],
      [
        "Ġthis",
        -6.107751000905324
      ],
      [
        "The",
        -6.178298334576192
      ],
      [
        "I",
        -6.186124266369152
      ],
      [
        "Ġcan",
        -6.189140392799041
      ],
      [
        "Ġyou",
        -6.238630684986649
      ],
      [
        "A",
        -6.2449209497944445
      ],
      [
        "Ġwhich",
        -6.295078691766019
      ],
      [
        "Ġtheir",
        -6.307424005836809
      ],
      [
        "y",
        -6.362986010179753
      ],
      [
        "ly",
        -6.379471467558121
      ],
      [
        ";",
        -6.412185228552138
      ],
      [
        "Ġthey",
        -6.442549437201119
      ],
      [
        "Ġhas",
        -6.449217065538585
      ],
      [
        "Ġwere",
        -6.454493514904778
      ],
      [
        "Ġmore",
        -6.46058251658558
      ],
      [
        "Ġwill",
        -6.489784344278203
      ],
      [
        "f",
        -6.53042265261926
      ],
      [
        "Ġone",
        -6.548450955562778
      ],
      [
        "r",
        -6.554028776045893
      ],
      [
        "Ġbut",
        -6.581019854310695
      ],
      [
        "Ġhis",
        -6.632343565761314
      ],
      [
        "Ġall",
        -6.6749678875998
      ],
      [
        "/",
        -6.679307136322322
      ],
      [
        "Ġother",
        -6.687203955007703
      ],
      [
        "Ġalso",
        -6.706976609007665
      ],
      [
        "he",
        -6.710696962298057
      ],
      [
        "Ġwe",
        -6.72918388767644
      ],
      [
        "1",
        -6.753831529560809
      ],
      [
        "Ġyour",
        -6.756343044621529
      ],
      [
        "Ġabout",
        -6.758431375588998
      ],
      [
        ").",
        -6.803660709051769
      ],
      [
        "Ġwho",
        -6.833772784326303
      ],
      [
        "Ġthan",
        -6.850190387466823
      ],
      [
        "Ġbeen",
        -6.851454066467987
      ],
      [
        "Ġmay",
        -6.856999995726424
      ],
      [
        "ĠIn",
        -6.878904423100179
      ],
      [
        "Ġits",
        -6.889245410989828
      ],
      [
        "Ġhad",
        -6.891069550560495
      ],
      [
        "2",
        -6.8997411807297535
      ],
      [
        "?",
        -6.9220382561303655
      ],
      [
        "ĠâĢľ",
        -6.941347280182232
      ],
      [
        "S",
        -6.944254833584894
      ],
      [
        "Ġinto",
        -6.966295750378496
      ],
      [
        "m",
        -6.9772700105414565
      ],
      [
        "Ġtime",
        -7.010580306452283
      ],
      [
        "Ġwhen",
        -7.0184141636784165
      ],
      [
        "Ġwould",
        -7.019848225582237
      ],
      [
        "Ġthese",
        -7.023132907281889
      ],
      [
        "ĠIt",
        -7.0488479445122465
      ],
      [
        "Ġsome",
        -7.057442180527454
      ],
      [
        "Ġpeople",
        -7.062510510830151
      ],
      [
        "Ġthere",
        -7.095995178449758
      ],
      [
        "Ġthem",
        -7.09852202241027
      ],
      [
        "Ġmost",
        -7.115718502975815
      ],
      [
        "Ġout",
        -7.116821706444107
      ],
      [
        "|",
        -7.117007367485167
      ],
      [
        "Ġsuch",
        -7.119727168488861
      ],
      [
        "ĠThis",
        -7.144892774414348
      ],
      [
        "Ġup",
        -7.157064438562159
      ],
      [
        "Ġonly",
        -7.165491584296168
      ],
      [
        "Ġuse",
        -7.166390793550502
      ],
      [
        "Ġfirst",
        -7.192888325377744
      ],
      [
        "3",
        -7.213242454579893
      ],
      [
        "Ġtwo",
        -7.226151862998464
      ],
      [
        "Ġused",
        -7.249078606430707
      ],
      [
        "Ġnew",
        -7.252291290982072
      ],
      [
        "Ġover",
        -7.253831862221073
      ],
      [
        "Ġmany",
        -7.255261739770452
      ],
      [
        "Ġour",
        -7.268487803541953
      ],
      [
        "Ġwhat",
        -7.279254986572299
      ],
      [
        "),",
        -7.288736518522732
      ],
      [
        "Ġyears",
        -7.343343054364606
      ],
      [
        "us",
        -7.3484885916926945
      ],
      [
        "c",
        -7.3827770824321295
      ],
      [
        "Ġany",
        -7.385028316214077
      ],
      [
        "p",
        -7.38783480242866
      ],
      [
        "Ġhow",
        -7.390900872380705
      ],
      [
        "Ġcould",
        -7.428327629769523
      ],
      [
        "l",
        -7.428922939657928
      ],
      [
        "h",
        -7.432813212348492
      ],
      [
        "C",
        -7.437589637611474
      ],
      [
        "Ġwater",
        -7.445640364772416
      ],
      [
        "Ġbetween",
        -7.449061968417295
      ],
      [
        "Ġthrough",
        -7.4577805360731375
      ],
      [
        "Ġshould",
        -7.463151180672941
      ],
      [
        "In",
        -7.465838156291339
      ],
      [
        "5",
        -7.47624307405184
      ],
      [
        "Ġlike",
        -7.476637299018938
      ],
      [
        "Ġwell",
        -7.477770169533569
      ],
      [
        "Ġsaid",
        -7.492805343800468
      ],
      [
        "4",
        -7.50076896809912
      ],
      [
        "Ġwork",
        -7.52928081242519
      ],
      [
        "Ġwhere",
        -7.537442493620697
      ],
      [
        "âĢĿ",
        -7.544067954021886
      ],
      [
        "Ġafter",
        -7.588634470108008
      ],
      [
        "Ġmake",
        -7.5917004601129
      ],
      [
        "Ġthose",
        -7.600511281614171
      ],
      [
        "Ġbecause",
        -7.602397759064349
      ],
      [
        "D",
        -7.608555701516943
      ],
      [
        "Ġvery",
        -7.618115049089104
      ],
      [
        "Ġinformation",
        -7.646752786608804
      ],
      [
        "Ġsystem",
        -7.677540729007708
      ],
      [
        "Ġeven",
        -7.682555419255895
      ],
      [
        "Ġworld",
        -7.696427024621803
      ],
      [
        "Ġeach",
        -7.696697678198424
      ],
      [
        "th",
        -7.7036967867084
      ],
      [
        "Ġway",
        -7.709471894153657
      ],
      [
        "Ġfound",
        -7.710547853108565
      ],
      [
        "Ġher",
        -7.715139365328048
      ],
      [
        "Ġbeing",
        -7.724093667577073
      ],
      [
        "Ġchildren",
        -7.728058582221069
      ],
      [
        "Ġmade",
        -7.729887058631728
      ],
      [
        "Ġmuch",
        -7.736628779715584
      ],
      [
        "Ġduring",
        -7.740666723246971
      ],
      [
        "Ġsame",
        -7.755287184758112
      ],
      [
        "ĠHe",
        -7.762464853023916
      ],
      [
        "Ġlife",
        -7.762954945010176
      ],
      [
        "in",
        -7.763603264952799
      ],
      [
        "Ġyear",
        -7.766819763100683
      ],
      [
        "Ġhigh",
        -7.77338691959365
      ],
      [
        "Ġunder",
        -7.779272466263162
      ],
      [
        "Ġpart",
        -7.785009378689232
      ],
      [
        "U",
        -7.794505454355347
      ],
      [
        "T",
        -7.79609335510748
      ],
      [
        "Ġjust",
        -7.801119282747255
      ],
      [
        "the",
        -7.811486037686668
      ],
      [
        "Ġhelp",
        -7.814162242157749
      ],
      [
        "b",
        -7.819643384700681
      ],
      [
        "Ġsee",
        -7.822890951277575
      ],
      [
        "Ġdifferent",
        -7.82414292120019
      ],
      [
        "Ġneed",
        -7.826738106866463
      ],
      [
        "Ġboth",
        -7.829588886582487
      ],
      [
        "6",
        -7.838525500950475
      ],
      [
        "Ġstudy",
        -7.855145085713566
      ],
      [
        "Ġbefore",
        -7.856653133952932
      ],
      [
        "âĢĶ",
        -7.860892505892538
      ],
      [
        "g",
        -7.861022788634395
      ],
      [
        "Ġnumber",
        -7.866860634138009
      ],
      [
        "%",
        -7.867655072652973
      ],
      [
        "Ġun",
        -7.875165341434176
      ],
      [
        "||",
        -7.878462678511394
      ],
      [
        "Ġimportant",
        -7.881346298697421
      ],
      [
        "ĠThey",
        -7.88481613165378
      ],
      [
        "Ġstudents",
        -7.886395183378562
      ],
      [
        "ĠNew",
        -7.889599274749086
      ],
      [
        "Ġlong",
        -7.891459584209642
      ],
      [
        "Ġnow",
        -7.895061085504686
      ],
      [
        "ĠIf",
        -7.900288035834356
      ],
      [
        "000",
        -7.900706706389775
      ],
      [
        "Ġresearch",
        -7.905675647100408
      ],
      [
        "Ġthree",
        -7.913259764086513
      ],
      [
        "E",
        -7.924396468570313
      ],
      [
        "ĠM",
        -7.9244196251843615
      ],
      [
        "Ġdata",
        -7.938271711540219
      ],
      [
        "Ġhealth",
        -7.9413700931500895
      ],
      [
        "Ġoften",
        -7.94429326784287
      ],
      [
        "ĠâĢĵ",
        -7.947479084361435
      ],
      [
        "This",
        -7.950597730295081
      ],
      [
        "Ġget",
        -7.958302881801187
      ],
      [
        "able",
        -7.9585417849646465
      ],
      [
        "Ġmust",
        -7.9740382306978095
      ],
      [
        "Ġwhile",
        -7.990021853204731
      ],
      [
        ".âĢĿ",
        -7.990250561009152
      ],
      [
        "Ġstate",
        -7.996261222698346
      ],
      [
        "Ġusing",
        -7.999835991568894
      ],
      [
        "ĠUniversity",
        -8.000491393393173
      ],
      [
        "ĠFor",
        -8.001705580420508
      ],
      [
        "ĠAmerican",
        -8.002975542296715
      ],
      [
        "Ġtake",
        -8.003344761808636
      ],
      [
        "and",
        -8.00663301686782
      ],
      [
        "Ġown",
        -8.007889823250787
      ],
      [
        "Ġcalled",
        -8.008811122233826
      ],
      [
        "Ġday",
        -8.012260217165737
      ],
      [
        "Ġgood",
        -8.031446081139887
      ],
      [
        "u",
        -8.03448438647011
      ],
      [
        "8",
        -8.03718437304634
      ],
      [
        "ĠBut",
        -8.042885261066125
      ],
      [
        "ĠP",
        -8.0441136595536
      ],
      [
        "0",
        -8.044420064242669
      ],
      [
        "[",
        -8.04518739859199
      ],
      [
        "Ġknow",
        -8.047782598549231
      ],
      [
        "Ġhim",
        -8.048252478574291
      ],
      [
        "ĠB",
        -8.048262609302617
      ],
      [
        "Ġhuman",
        -8.050246571091837
      ],
      [
        "7",
        -8.061307620552807
      ],
      [
        "Ġsmall",
        -8.063742156124631
      ],
      [
        "Ġincluding",
        -8.064125521342687
      ],
      [
        "Ġexample",
        -8.06434016427585
      ],
      [
        "Ġaround",
        -8.082935654449338
      ],
      [
        "Ġdoes",
        -8.08419668888537
      ],
      [
        "Ġpower",
        -8.095854094452193
      ],
      [
        "Ġlarge",
        -8.09603080701042
      ],
      [
        "Ġknown",
        -8.100499912147514
      ],
      [
        "Ġback",
        -8.116754420321204
      ],
      [
        "&",
        -8.120079872175443
      ],
      [
        "or",
        -8.124133249788557
      ],
      [
        "Ġstill",
        -8.12851357429679
      ],
      [
        "Ġfood",
        -8.129280289253478
      ],
      [
        "ĠUnited",
        -8.14033690324156
      ],
      [
        "Ġplace",
        -8.147911329593796
      ],
      [
        "Ġbody",
        -8.149116261164481
      ],
      [
        "Ġmy",
        -8.15171039506724
      ],
      [
        "Ġschool",
        -8.153527440688404
      ],
      [
        "Ġdid",
        -8.15551353536055
      ],
      [
        "Ġpublic",
        -8.156467310726548
      ],
      [
        "Ġgovernment",
        -8.15691661394543
      ],
      [
        "Ġdown",
        -8.159157808572976
      ],
      [
        "Ġshe",
        -8.164146349286035
      ],
      [
        "!",
        -8.164645207295123
      ],
      [
        "Ġ10",
        -8.169998317677617
      ],
      [
        "R",
        -8.1749855294352
      ],
      [
        "]",
        -8.183441523041685
      ],
      [
        "Ġenergy",
        -8.183737672179516
      ],
      [
        "âĢĵ",
        -8.189472669340622
      ],
      [
        "Ġmight",
        -8.194510187422132
      ],
      [
        "Ġdisease",
        -8.195128216879887
      ],
      [
        "Ġwithin",
        -8.197943808056486
      ],
      [
        "Ġform",
        -8.201142657912522
      ],
      [
        "Ġright",
        -8.201869898933694
      ],
      [
        "Ġchange",
        -8.202368280165633
      ],
      [
        "Ġwithout",
        -8.204627133236793
      ],
      [
        "Ġless",
        -8.208062278287652
      ],
      [
        "Ġanother",
        -8.212169545418874
      ],
      [
        "Ġwomen",
        -8.212777008990118
      ],
      [
        "ĠStates",
        -8.223623790546144
      ],
      [
        "Ġearly",
        -8.230578337148419
      ],
      [
        "L",
        -8.231683567210968
      ],
      [
        "Ġsays",
        -8.239644175907854
      ],
      [
        "Ġinclude",
        -8.24061992920357
      ],
      [
        "Ġdevelopment",
        -8.242231601070042
      ],
      [
        "Ġend",
        -8.244564825974784
      ],
      [
        "ĠWe",
        -8.244952820288825
      ],
      [
        "Ġagainst",
        -8.249896322895015
      ],
      [
        "H",
        -8.25381902792466
      ],
      [
        "ĠThese",
        -8.255920417718022
      ],
      [
        "Ġpercent",
        -8.256149106493314
      ],
      [
        "Ġspecies",
        -8.258104897351133
      ],
      [
        "9",
        -8.261267185656713
      ],
      [
        "Ġfind",
        -8.261520936844327
      ],
      [
        "Ġevery",
        -8.261992520175978
      ],
      [
        "ĠNational",
        -8.264879891802648
      ],
      [
        "Ġprocess",
        -8.26565866544325
      ],
      [
        "Ġfew",
        -8.268687421836036
      ],
      [
        "ĠAs",
        -8.269622325780007
      ],
      [
        "Ġchild",
        -8.276806998523833
      ],
      [
        "Ġgreat",
        -8.277878637206248
      ],
      [
        "Ġcommon",
        -8.283621814813458
      ],
      [
        "Ġhistory",
        -8.286495802079784
      ],
      [
        "Ġgroup",
        -8.298693407098764
      ],
      [
        ",âĢĿ",
        -8.303702743397494
      ],
      [
        "Ġseveral",
        -8.308227854069061
      ],
      [
        "Ġset",
        -8.309574323161243
      ],
      [
        "Ġlast",
        -8.322570366862351
      ],
      [
        "Ġbecome",
        -8.326038163477335
      ],
      [
        "Ġblood",
        -8.326355127690075
      ],
      [
        "Ġper",
        -8.328853969951222
      ],
      [
        "Ġrisk",
        -8.333883981226805
      ],
      [
        "âĢľ",
        -8.34400122249131
      ],
      [
        "ĠJ",
        -8.349949722155918
      ],
      [
        "$",
        -8.355738928460429
      ],
      [
        "Ġprovide",
        -8.357357878057075
      ],
      [
        "Ġsince",
        -8.35922632969369
      ],
      [
        "Ġavailable",
        -8.361091805879855
      ],
      [
        "Ġage",
        -8.362856694922783
      ],
      [
        "Ġorder",
        -8.365276500863352
      ],
      [
        "Ġfamily",
        -8.369474165233981
      ],
      [
        "Ġhere",
        -8.37304615158594
      ],
      [
        "ĠThere",
        -8.374392826413237
      ],
      [
        "ĠAnd",
        -8.38182630148354
      ],
      [
        "Ġcontrol",
        -8.382635145979156
      ],
      [
        "Ġlight",
        -8.389204284776334
      ],
      [
        "Ġname",
        -8.39193991431641
      ],
      [
        "F",
        -8.3928852796159
      ],
      [
        "Ġsupport",
        -8.395561447696746
      ],
      [
        "Ġamong",
        -8.398157161040372
      ],
      [
        "N",
        -8.39853127918581
      ],
      [
        "ĠGod",
        -8.399863343691498
      ],
      [
        "Ġareas",
        -8.40186878994692
      ],
      [
        "Ġpossible",
        -8.404203424082697
      ],
      [
        "Ġcause",
        -8.408891618587171
      ],
      [
        "ĠG",
        -8.412861911871202
      ],
      [
        "Ġhome",
        -8.416377234386019
      ],
      [
        "Ġpoint",
        -8.4163795732762
      ],
      [
        "Ġwant",
        -8.425818170048435
      ],
      [
        "Ġlocal",
        -8.426164002669399
      ],
      [
        "Ġcountry",
        -8.429241113862185
      ],
      [
        "Ġnon",
        -8.430498537219357
      ],
      [
        "Ġsocial",
        -8.43158222279553
      ],
      [
        "Ġfollowing",
        -8.434189778607669
      ],
      [
        "Ġgo",
        -8.437149359504769
      ],
      [
        "Ġpresent",
        -8.44339711627657
      ],
      [
        "k",
        -8.447599126219483
      ],
      [
        "Ġbetter",
        -8.44878440918544
      ],
      [
        "Ġmeans",
        -8.45215362665648
      ],
      [
        "ĠTo",
        -8.456624863034735
      ],
      [
        "O",
        -8.456940324435303
      ],
      [
        "Ġbest",
        -8.457128129654366
      ],
      [
        "Ġcase",
        -8.463443670476064
      ],
      [
        "ĠHowever",
        -8.464687605360263
      ],
      [
        "Ġmillion",
        -8.4656585468851
      ],
      [
        "Ġprogram",
        -8.465880213533692
      ],
      [
        "Ġgiven",
        -8.466347883353011
      ],
      [
        "Ġperson",
        -8.467058725182245
      ],
      [
        "Ġlevel",
        -8.467159542591006
      ],
      [
        "Ġuntil",
        -8.46742997007573
      ],
      [
        "Ġtreatment",
        -8.471229810323074
      ],
      [
        "Ġcome",
        -8.476426319166688
      ],
      [
        "Ġ20",
        -8.483002485247825
      ],
      [
        "Ġmen",
        -8.484116376965943
      ],
      [
        "Ġthink",
        -8.48633218918212
      ],
      [
        "Ġlow",
        -8.488726049099439
      ],
      [
        "Ġland",
        -8.488981857238766
      ],
      [
        "Ġlater",
        -8.491507256000515
      ],
      [
        "Ġlittle",
        -8.494821059983563
      ],
      [
        "Ġfact",
        -8.497818451332105
      ],
      [
        "Ġsecond",
        -8.500837181562785
      ],
      [
        "Ġsay",
        -8.508350191912088
      ],
      [
        "Ġme",
        -8.510688244313025
      ],
      [
        "x",
        -8.512093066113527
      ],
      [
        "v",
        -8.512350778150724
      ],
      [
        "ĠWhen",
        -8.517022910983874
      ],
      [
        "Ġpopulation",
        -8.517409923526955
      ],
      [
        "Ġfour",
        -8.520220129657677
      ],
      [
        "ĠYou",
        -8.522687754912303
      ],
      [
        "Ġresult",
        -8.525603947475068
      ],
      [
        "Ġnatural",
        -8.526051846602071
      ],
      [
        "Ġcancer",
        -8.527712518277076
      ],
      [
        "ers",
        -8.528240337187968
      ],
      [
        "Ġdon",
        -8.528457697278927
      ],
      [
        "Ġcentury",
        -8.530886117514111
      ],
      [
        "Ġcells",
        -8.536228440728468
      ],
      [
        "We",
        -8.542109907087111
      ],
      [
        "Ġbook",
        -8.542636003233124
      ],
      [
        "Ġproblem",
        -8.54540859113666
      ],
      [
        "Ġproblems",
        -8.547298283124093
      ],
      [
        "Ġbased",
        -8.552426295215273
      ],
      [
        "Ġhowever",
        -8.553023134412415
      ],
      [
        "Ġmajor",
        -8.553647254303282
      ],
      [
        "Ġarea",
        -8.559707995687333
      ],
      [
        "Ġoff",
        -8.56032037237386
      ],
      [
        "Ġthings",
        -8.563490872888812
      ],
      [
        "ĠâĢĶ",
        -8.566073694930273
      ],
      [
        "Ġtype",
        -8.568169432621445
      ],
      [
        "w",
        -8.574475763177338
      ],
      [
        "Ġair",
        -8.586115200794943
      ],
      [
        "Ġman",
        -8.588597590651565
      ],
      [
        "Ġcare",
        -8.589708603512806
      ],
      [
        "Ġfar",
        -8.59417751896002
      ],
      [
        "Ġsite",
        -8.59962968103074
      ],
      [
        "Ġusually",
        -8.599801709118749
      ],
      [
        "...",
        -8.600394531051059
      ],
      [
        "Ġcommunity",
        -8.600701432861966
      ],
      [
        "Ġlook",
        -8.601854324932644
      ],
      [
        "Ġtimes",
        -8.604100857135665
      ],
      [
        "=",
        -8.604589209769387
      ],
      [
        "Ġperiod",
        -8.604773800492387
      ],
      [
        "Ġlevels",
        -8.605899797961019
      ],
      [
        "Ġwar",
        -8.607445927048092
      ],
      [
        "Ġabove",
        -8.607626933923914
      ],
      [
        "Ġlaw",
        -8.60975559398586
      ],
      [
        "Ġbecame",
        -8.61792605769994
      ],
      [
        "Ġleast",
        -8.620158793893271
      ],
      [
        "Ġdays",
        -8.623786232231906
      ],
      [
        "Ġeducation",
        -8.625509852506214
      ],
      [
        "Ġlikely",
        -8.62621199802721
      ],
      [
        "Ġcourse",
        -8.628317252497869
      ],
      [
        "Ġgeneral",
        -8.632700050637606
      ],
      [
        "Ġalong",
        -8.63337609531667
      ],
      [
        "Ġleft",
        -8.640365679503262
      ],
      [
        "W",
        -8.642219369344192
      ],
      [
        "Ġ--",
        -8.64266278446686
      ],
      [
        "Ġcountries",
        -8.644576480937623
      ],
      [
        "ĠAmerica",
        -8.650032043692855
      ],
      [
        "Ġincrease",
        -8.650336477154207
      ],
      [
        "ĠWar",
        -8.651404923193152
      ],
      [
        "Ġothers",
        -8.654466032765445
      ],
      [
        "Ġtest",
        -8.655173713838053
      ],
      [
        "What",
        -8.65796792828079
      ],
      [
        "Ġlanguage",
        -8.658764808280331
      ],
      [
        "For",
        -8.659365917068374
      ],
      [
        "Ġresults",
        -8.659393343863345
      ],
      [
        "Ġside",
        -8.664708953640147
      ],
      [
        "Ġnext",
        -8.665745433758358
      ],
      [
        "Ġfree",
        -8.666435207910459
      ],
      [
        "ĠâĢĺ",
        -8.66758459428272
      ],
      [
        "Ġsystems",
        -8.671390806976206
      ],
      [
        "Ġheart",
        -8.671952791377672
      ],
      [
        "Ġscience",
        -8.672630806674448
      ],
      [
        "ĠWorld",
        -8.673979528400688
      ],
      [
        "Ġproject",
        -8.675844311542006
      ],
      [
        "Ġcurrent",
        -8.67646139421254
      ],
      [
        "Ġreport",
        -8.680847909206637
      ],
      [
        "Ġgive",
        -8.681534555672293
      ],
      [
        "ĠYork",
        -8.682572412056052
      ],
      [
        "Ġspace",
        -8.682851012831744
      ],
      [
        "com",
        -8.69341645461709
      ],
      [
        "Ġtoday",
        -8.694494832798267
      ],
      [
        "There",
        -8.694679255497306
      ],
      [
        "Ġnever",
        -8.69565724726473
      ],
      [
        "Ġshow",
        -8.701090639501942
      ],
      [
        "Ġrange",
        -8.702011568068412
      ],
      [
        "Ġcity",
        -8.707806067251244
      ],
      [
        "Ġmaking",
        -8.7103186186885
      ],
      [
        "Ġconditions",
        -8.710784212091363
      ],
      [
        "Ġhigher",
        -8.710849128865988
      ],
      [
        "Ġhand",
        -8.711049091214765
      ],
      [
        "Ġsimilar",
        -8.7114396871461
      ],
      [
        "Ġstudies",
        -8.71311232475794
      ],
      [
        "Ġkeep",
        -8.713767760684487
      ],
      [
        "Ġdue",
        -8.71582768798168
      ],
      [
        "Ġfuture",
        -8.715854355238074
      ],
      [
        "Ġupon",
        -8.72172407426938
      ],
      [
        "Ġtogether",
        -8.724781432168406
      ],
      [
        "10",
        -8.726868584191347
      ],
      [
        "Ġalways",
        -8.728430388202977
      ],
      [
        "Ġold",
        -8.729675090799713
      ],
      [
        "Ġdeath",
        -8.733345572722815
      ],
      [
        "Ġwhether",
        -8.733603993045175
      ],
      [
        "Ġwords",
        -8.734418048129934
      ],
      [
        "man",
        -8.734799670921992
      ],
      [
        "Ġline",
        -8.74042253148131
      ],
      [
        "Ġchanges",
        -8.742881581225872
      ],
      [
        "Ġrole",
        -8.745012149364259
      ],
      [
        "Ġshort",
        -8.745376665830504
      ],
      [
        "Ġcertain",
        -8.74549575649442
      ],
      [
        "Ġaway",
        -8.746225436527068
      ],
      [
        "Ġsomething",
        -8.747948046304094
      ],
      [
        "Ġtechnology",
        -8.749134464078995
      ],
      [
        "Ġvarious",
        -8.750920584118239
      ],
      [
        "Ġsurface",
        -8.751025203549457
      ],
      [
        "Ġbrain",
        -8.751213935384536
      ],
      [
        "Ġread",
        -8.754647916987707
      ],
      [
        "M",
        -8.755214602693165
      ],
      [
        "Ġenough",
        -8.756987138892281
      ],
      [
        "Ġput",
        -8.75793644047811
      ],
      [
        "Ġpast",
        -8.759998701972528
      ],
      [
        "Ġresearchers",
        -8.76214812669468
      ],
      [
        "ĠJohn",
        -8.765636866523927
      ],
      [
        "Ġfurther",
        -8.76674328232742
      ],
      [
        "Ġfull",
        -8.766984676477323
      ],
      [
        "Ġpolitical",
        -8.767113918838442
      ],
      [
        "Ġespecially",
        -8.767351517982513
      ],
      [
        "B",
        -8.769989458662655
      ],
      [
        "Ġdeveloped",
        -8.771348867319949
      ],
      [
        "Ġacross",
        -8.772541265729
      ],
      [
        "ĠState",
        -8.774221395792143
      ],
      [
        "Ġ12",
        -8.776058466284267
      ],
      [
        "Ġlearning",
        -8.777679349108833
      ],
      [
        "ve",
        -8.779496885527555
      ],
      [
        "Ġgroups",
        -8.779748238898362
      ],
      [
        "Ġeffects",
        -8.779985389556796
      ],
      [
        "Ġmaterial",
        -8.782070977436897
      ],
      [
        "Ġcases",
        -8.78248653048259
      ],
      [
        "Ġyoung",
        -8.782765614518818
      ],
      [
        "Ġhaving",
        -8.78398482152734
      ],
      [
        "ability",
        -8.78560494752249
      ],
      [
        "Ġeither",
        -8.788203301317001
      ],
      [
        "Ġlearn",
        -8.788678523223776
      ],
      [
        "ĠHealth",
        -8.7889410958762
      ],
      [
        "ĠEnglish",
        -8.790383263026754
      ],
      [
        "Ġproduction",
        -8.790933806698616
      ],
      [
        "Ġpatients",
        -8.793355719866677
      ],
      [
        "Ġevidence",
        -8.794429197170484
      ],
      [
        "Ġfield",
        -8.794798425914799
      ],
      [
        "Ġnational",
        -8.796469614890887
      ],
      [
        "of",
        -8.798238145540695
      ],
      [
        "ĠNorth",
        -8.79841191393634
      ],
      [
        "Ġvalue",
        -8.798546404745604
      ],
      [
        "ity",
        -8.798867926053552
      ],
      [
        "Ġsource",
        -8.799065759368652
      ],
      [
        "Ġrather",
        -8.799077635426226
      ],
      [
        "Ġcame",
        -8.799255081520325
      ],
      [
        "Ġal",
        -8.799298079174397
      ],
      [
        "Ġworking",
        -8.799469804899761
      ],
      [
        "Ġfive",
        -8.799568355807947
      ],
      [
        "ĠWhat",
        -8.801253049760952
      ],
      [
        "www",
        -8.801271644660442
      ],
      [
        "Ġopen",
        -8.803040688280834
      ],
      [
        "ĠEarth",
        -8.803495677969973
      ],
      [
        "Ġ15",
        -8.80485457321781
      ],
      [
        "Ġnear",
        -8.80616103497716
      ],
      [
        "Ġindividual",
        -8.806818499760766
      ],
      [
        "Ġeffect",
        -8.807006290757531
      ],
      [
        "Ġplants",
        -8.808018560294169
      ],
      [
        "ĠK",
        -8.80916192475426
      ],
      [
        "Ġsingle",
        -8.812400004530128
      ],
      [
        "Ġthough",
        -8.812484399424903
      ],
      [
        "Ġseen",
        -8.81557085096311
      ],
      [
        "Ġlower",
        -8.816982134571036
      ],
      [
        "Ġplant",
        -8.817778859445012
      ],
      [
        "Ġcreate",
        -8.817855264608081
      ],
      [
        "Ġrate",
        -8.818321434369954
      ],
      [
        "Ġtaken",
        -8.820261023282859
      ],
      [
        "Ġlead",
        -8.820809050272894
      ],
      [
        "ĠSome",
        -8.825474499352302
      ],
      [
        "Ġdesign",
        -8.825577085514704
      ],
      [
        "ĠSouth",
        -8.82576753144444
      ],
      [
        "Ġresources",
        -8.82884715122296
      ],
      [
        "Ġword",
        -8.83047568573574
      ],
      [
        "Ġwhy",
        -8.834819455540371
      ],
      [
        "Ġspecific",
        -8.834868565826946
      ],
      [
        "Ġexperience",
        -8.835330390511192
      ],
      [
        "Ġalready",
        -8.835475077797847
      ],
      [
        "Ġ30",
        -8.836974381101792
      ],
      [
        "Ġmain",
        -8.837667607515675
      ],
      [
        "Ġpublished",
        -8.841123826720791
      ],
      [
        "Ġclimate",
        -8.841489048244368
      ],
      [
        "ĠAn",
        -8.84301526602805
      ],
      [
        "Ġarticle",
        -8.84405774585327
      ],
      [
        "Ġaccording",
        -8.84729806924114
      ],
      [
        "Ġenvironment",
        -8.849116793899286
      ],
      [
        "://",
        -8.85102942369717
      ],
      [
        "ĠOne",
        -8.852122863710493
      ],
      [
        "Ġreduce",
        -8.85706230204057
      ],
      [
        "ĠAt",
        -8.858512063469151
      ],
      [
        "ĠSo",
        -8.859820822510468
      ],
      [
        "Ġaccess",
        -8.86432689762789
      ],
      [
        "Ġdone",
        -8.864582618425976
      ],
      [
        "Ġbegan",
        -8.865789639973114
      ],
      [
        "ĠMay",
        -8.8700230745955
      ],
      [
        "Ġamount",
        -8.871185187038687
      ],
      [
        "Ġunderstand",
        -8.872482282174799
      ],
      [
        "Ġeconomic",
        -8.873209395475048
      ],
      [
        "Ġgoing",
        -8.873306124951096
      ],
      [
        "Ġparticular",
        -8.873638348394856
      ],
      [
        "Ġview",
        -8.874597551970462
      ],
      [
        "Ġwhite",
        -8.874988665283812
      ],
      [
        "Ġsize",
        -8.875271698423324
      ],
      [
        "Ġlive",
        -8.877909993258244
      ],
      [
        "ness",
        -8.879171969753035
      ],
      [
        "Ġmembers",
        -8.879270085770003
      ],
      [
        "Ġmedical",
        -8.879769230556919
      ],
      [
        "Ġaddition",
        -8.879836156642787
      ],
      [
        "Ġknowledge",
        -8.883586479639943
      ],
      [
        "Ġonce",
        -8.886852577827607
      ],
      [
        "Ġwhole",
        -8.889180177482801
      ],
      [
        "Ġrights",
        -8.8923252192949
      ],
      [
        "ĠDr",
        -8.893331446250196
      ],
      [
        "Ġcost",
        -8.894732737666605
      ],
      [
        "ĠThat",
        -8.8949175106545
      ],
      [
        "Ġphysical",
        -8.895044524588423
      ],
      [
        "Ġactivity",
        -8.895951669624292
      ],
      [
        "Ġgrowth",
        -8.898617279829695
      ],
      [
        "_",
        -8.899207728569536
      ],
      [
        "ll",
        -8.900338917196779
      ],
      [
        "Ġthemselves",
        -8.90041694268679
      ],
      [
        "Ġbuilding",
        -8.901004116079461
      ],
      [
        "Ġbelow",
        -8.901353013798632
      ],
      [
        "Ġ2012",
        -8.901388885290677
      ],
      [
        "Ġagain",
        -8.90223780992026
      ],
      [
        "Ġdevelop",
        -8.902685256029613
      ],
      [
        "Ġquestion",
        -8.903006192991814
      ],
      [
        "Ġactivities",
        -8.90330840330498
      ],
      [
        "Ġitself",
        -8.904382589364392
      ],
      [
        "Ġoil",
        -8.904810803687086
      ],
      [
        "Ġcannot",
        -8.908320905346276
      ],
      [
        "Ġnature",
        -8.911926058552597
      ],
      [
        "Ġhalf",
        -8.912945601340807
      ],
      [
        "Ġreally",
        -8.91615976612263
      ],
      [
        "Ġreal",
        -8.91630602530289
      ],
      [
        "Ġthought",
        -8.916793260394675
      ],
      [
        "Ġneeds",
        -8.916840043379636
      ],
      [
        "Ġalmost",
        -8.917578107853311
      ],
      [
        "Ġtook",
        -8.917994300436712
      ],
      [
        "Ġliving",
        -8.919602262213411
      ],
      [
        "Ġcreated",
        -8.919728817223884
      ],
      [
        "Ġpaper",
        -8.921481514769681
      ],
      [
        "Ġanimals",
        -8.922313000064579
      ],
      [
        "Ġconsidered",
        -8.923094582064628
      ],
      [
        "ĠCenter",
        -8.92358100579356
      ],
      [
        "Ġyet",
        -8.923979485363176
      ],
      [
        "Ġregion",
        -8.924010492303841
      ],
      [
        "Ġstates",
        -8.92478076992438
      ],
      [
        "Ġblack",
        -8.924909425595068
      ],
      [
        "Ġincreased",
        -8.929163713240095
      ],
      [
        "Ġteam",
        -8.93251087807086
      ],
      [
        "Ġhead",
        -8.934293950641612
      ],
      [
        "Ġpotential",
        -8.93494243193868
      ],
      [
        "Ġclass",
        -8.935163011960809
      ],
      [
        "P",
        -8.937702994460016
      ],
      [
        "When",
        -8.938760347861718
      ],
      [
        "Ġ2010",
        -8.943218106325926
      ],
      [
        "Ġkey",
        -8.94492778796231
      ],
      [
        "Ġsignificant",
        -8.9455366598509
      ],
      [
        "Ġsimple",
        -8.948872878452413
      ],
      [
        "Ġscientists",
        -8.950032911085543
      ],
      [
        "ĠOn",
        -8.95075199258407
      ],
      [
        "Ġlot",
        -8.952426732470977
      ],
      [
        "ĠAll",
        -8.95375239210448
      ],
      [
        "Ġmove",
        -8.954054020276367
      ],
      [
        "Ġsymptoms",
        -8.954165736168235
      ],
      [
        "Ġsea",
        -8.954268880176729
      ],
      [
        "Ġassociated",
        -8.957110370787897
      ],
      [
        "Ġ2011",
        -8.960265383438708
      ],
      [
        "Ġpage",
        -8.960317204369627
      ],
      [
        "Ġcell",
        -8.963287804339307
      ],
      [
        "ĠResearch",
        -8.964431958911963
      ],
      [
        "ĠBritish",
        -8.967301848746427
      ],
      [
        "Ġpressure",
        -8.967670370681804
      ],
      [
        "Ġneeded",
        -8.968418997742448
      ],
      [
        "Ġrequired",
        -8.973271648214865
      ],
      [
        "Ġcomputer",
        -8.974118432470798
      ],
      [
        "Ġbelieve",
        -8.977086221112415
      ],
      [
        "Ġgas",
        -8.97956845375713
      ],
      [
        "Ġproduce",
        -8.979714359821633
      ],
      [
        "Ġtypes",
        -8.979752868300986
      ],
      [
        "):",
        -8.980699125082188
      ],
      [
        "Ġrelated",
        -8.983698488584288
      ],
      [
        "Ġproducts",
        -8.984121499630875
      ],
      [
        "Ġstory",
        -8.984721823050744
      ],
      [
        "Ġprovided",
        -8.985277764605579
      ],
      [
        "Ġself",
        -8.98703952930659
      ],
      [
        "Ġglobal",
        -8.989212727507809
      ],
      [
        "Ġmodel",
        -8.989782715243308
      ],
      [
        "Ġmonths",
        -8.989821314080688
      ],
      [
        "based",
        -8.990227899942267
      ],
      [
        "Ġhard",
        -8.991694513698503
      ],
      [
        "Ġtotal",
        -8.992150858308479
      ],
      [
        "Ġquality",
        -8.99265904531551
      ],
      [
        "Ġways",
        -8.994691673323217
      ],
      [
        "ĠHis",
        -8.997055384975315
      ],
      [
        "Ġground",
        -8.99712123944614
      ],
      [
        "*",
        -8.998074228031651
      ],
      [
        "Ġrecent",
        -8.999039020141144
      ],
      [
        "ĠSt",
        -9.00336747131329
      ],
      [
        "ĠInstitute",
        -9.007529702391876
      ],
      [
        "Ġidea",
        -9.011069060498931
      ],
      [
        "Ġstart",
        -9.011976889175267
      ],
      [
        "Ġactually",
        -9.012509407268148
      ],
      [
        "Ġstudent",
        -9.014305927593258
      ],
      [
        "Ġquestions",
        -9.01694972547812
      ],
      [
        "Ġpractice",
        -9.016987831690074
      ],
      [
        "Ġmodern",
        -9.019306369409112
      ],
      [
        "But",
        -9.021564618618797
      ],
      [
        "ĠScience",
        -9.021990966406618
      ],
      [
        "Ġprovides",
        -9.02276500761951
      ],
      [
        "Ġservice",
        -9.02732482974341
      ],
      [
        "Ġprevent",
        -9.027662451571988
      ],
      [
        "Ġ100",
        -9.028553065370769
      ],
      [
        "Ġimpact",
        -9.030175469177614
      ],
      [
        "Ġspecial",
        -9.030726705745783
      ],
      [
        "Ġaverage",
        -9.03235233228258
      ],
      [
        "Ġissue",
        -9.033932870410023
      ],
      [
        "ĠDepartment",
        -9.036683849266614
      ],
      [
        "Ġmakes",
        -9.036877941598089
      ],
      [
        "Ġsense",
        -9.03768887397541
      ],
      [
        "Ġissues",
        -9.041390533006842
      ],
      [
        "Ġmaterials",
        -9.04210456978213
      ],
      [
        "ĠNo",
        -9.042242519318568
      ],
      [
        "Ġfunction",
        -9.042379737428297
      ],
      [
        "Ġprograms",
        -9.043848240756825
      ],
      [
        "Ġclear",
        -9.046159393548615
      ],
      [
        "up",
        -9.046645799859563
      ],
      [
        "Ġenvironmental",
        -9.047805680993076
      ],
      [
        "Ġ11",
        -9.047835655765844
      ],
      [
        "Ġaction",
        -9.050896433658686
      ],
      [
        "Ġnecessary",
        -9.052880525352586
      ],
      [
        "Ġbuilt",
        -9.053846751024778
      ],
      [
        "Ġmatter",
        -9.054769229772448
      ],
      [
        "Ġlist",
        -9.05542334640796
      ],
      [
        "Ġ2009",
        -9.056671368783723
      ],
      [
        "Ġplay",
        -9.058780927583095
      ],
      [
        "Ġtext",
        -9.061082179968729
      ],
      [
        "Ġreported",
        -9.061186676391406
      ],
      [
        "Ġmoney",
        -9.061345759166818
      ],
      [
        "Ġterm",
        -9.06288739790454
      ],
      [
        "Ġsubject",
        -9.06443475498138
      ],
      [
        "ĠBy",
        -9.065113481388162
      ],
      [
        "Ġpost",
        -9.066979775274444
      ],
      [
        "Ġunderstanding",
        -9.06791323457234
      ],
      [
        "Ġdoctor",
        -9.068289316257648
      ],
      [
        "Ġservices",
        -9.069644937581632
      ],
      [
        "Ġparents",
        -9.070863707914588
      ],
      [
        "Ġclose",
        -9.07209421909946
      ],
      [
        "Ġpre",
        -9.074895889520077
      ],
      [
        "Ġever",
        -9.076614811379086
      ],
      [
        "Ġdifficult",
        -9.076833052304446
      ],
      [
        "Ġstructure",
        -9.078540209834474
      ],
      [
        "Ġlate",
        -9.082984426317823
      ],
      [
        "Ġeffective",
        -9.083540190621278
      ],
      [
        "Ġhttp",
        -9.085259313309669
      ],
      [
        "Ġreading",
        -9.088290537824497
      ],
      [
        "Ġthroughout",
        -9.089725073713549
      ],
      [
        "Ġ2008",
        -9.091138695003604
      ],
      [
        "Ġturn",
        -9.09141268499448
      ],
      [
        "Ġtrue",
        -9.09299304163334
      ],
      [
        "Ġhours",
        -9.093054206820696
      ],
      [
        "Ġweight",
        -9.093149647145465
      ],
      [
        "Ġsure",
        -9.095967589906213
      ],
      [
        "Ġmanagement",
        -9.096612867646751
      ],
      [
        "Ġparts",
        -9.097223487633944
      ],
      [
        "Ġimage",
        -9.098096231860517
      ],
      [
        "Ġago",
        -9.098579786447385
      ],
      [
        "Ġshows",
        -9.099496815130198
      ],
      [
        "Ġ50",
        -9.100284260568094
      ],
      [
        "ĠUS",
        -9.10081131915324
      ],
      [
        "Ġoriginal",
        -9.102866889635056
      ],
      [
        "Ġschools",
        -9.103014451995836
      ],
      [
        "Ġapproach",
        -9.10347342251434
      ],
      [
        "Ġgreater",
        -9.10462269042462
      ],
      [
        "Ġfeel",
        -9.104971202188638
      ],
      [
        "Ġlonger",
        -9.106988119441102
      ],
      [
        "Ġskin",
        -9.107428287125677
      ],
      [
        "Ġkind",
        -9.108255062350027
      ],
      [
        "Ġact",
        -9.10840995591589
      ],
      [
        "Ġtop",
        -9.109706946842673
      ],
      [
        "Ġterms",
        -9.111029634434985
      ],
      [
        "+",
        -9.114288790554316
      ],
      [
        "Ġinternational",
        -9.114565381975364
      ],
      [
        "Ġplan",
        -9.114599764032793
      ],
      [
        "Ġloss",
        -9.116867941489582
      ],
      [
        "Ġmethod",
        -9.117118000751017
      ],
      [
        "Ġ18",
        -9.118040526861927
      ],
      [
        "Ġcaused",
        -9.120361296367635
      ],
      [
        "Ġcall",
        -9.120451961347666
      ],
      [
        "Ġrun",
        -9.122512729156488
      ],
      [
        "Ġfire",
        -9.122645934970873
      ],
      [
        "org",
        -9.123175479205528
      ],
      [
        "Ġmean",
        -9.124812066345902
      ],
      [
        "ĠAfter",
        -9.124870752149986
      ],
      [
        "12",
        -9.125117937268133
      ],
      [
        "Ġsometimes",
        -9.125483845467224
      ],
      [
        "Ġreason",
        -9.125822083679036
      ],
      [
        "Ġtell",
        -9.12813525753784
      ],
      [
        "Ġinterest",
        -9.12823846182305
      ],
      [
        "Ġgenerally",
        -9.129083336636802
      ],
      [
        "ĠSchool",
        -9.129647993685872
      ],
      [
        "Ġforce",
        -9.129744835695677
      ],
      [
        "Ġsix",
        -9.131994844050524
      ],
      [
        "Ġfeet",
        -9.133097329757724
      ],
      [
        "Ġposition",
        -9.135108320204626
      ],
      [
        "Ġworks",
        -9.135146687635835
      ],
      [
        "Ġtemperature",
        -9.136374236437913
      ],
      [
        "Ġproduced",
        -9.138018849503522
      ],
      [
        "Ġfish",
        -9.138199994429923
      ],
      [
        "by",
        -9.13921659734812
      ],
      [
        "Ġled",
        -9.139327602329768
      ],
      [
        "Ġanalysis",
        -9.140879524463086
      ],
      [
        "Ġdesigned",
        -9.142319444181709
      ],
      [
        "Ġwritten",
        -9.1426456660127
      ],
      [
        "Ġweek",
        -9.143064987641194
      ],
      [
        "Ġstrong",
        -9.14323658186064
      ],
      [
        "Ġallow",
        -9.147846677884791
      ],
      [
        "Ġindustry",
        -9.153124068794131
      ],
      [
        "Ġfactors",
        -9.153215866859949
      ],
      [
        "Ġscientific",
        -9.154526161374484
      ],
      [
        "ĠCalifornia",
        -9.155258255181614
      ],
      [
        "Ġshown",
        -9.15637428293188
      ],
      [
        "Ġprobably",
        -9.157029038863218
      ],
      [
        "According",
        -9.159938244091355
      ],
      [
        "Ġreturn",
        -9.1604092812322
      ],
      [
        "During",
        -9.164025960232966
      ],
      [
        "Ġsoil",
        -9.164649417130024
      ],
      [
        "Ġtaking",
        -9.164713359869715
      ],
      [
        "Ġsociety",
        -9.168362022678512
      ],
      [
        "Ġheld",
        -9.168699791753305
      ],
      [
        "Ġmilitary",
        -9.16891521325869
      ],
      [
        "Ġtheory",
        -9.170900709106206
      ],
      [
        "ĠEurope",
        -9.171475490866014
      ],
      [
        "Ġmovement",
        -9.17571537814506
      ],
      [
        "Ġseries",
        -9.175724151048946
      ],
      [
        "Ġbusiness",
        -9.176134460910054
      ],
      [
        "Ġstandard",
        -9.177507651546756
      ],
      [
        "Ġestablished",
        -9.177859265574147
      ],
      [
        "ĠRiver",
        -9.17923743724609
      ],
      [
        "Ġthing",
        -9.180473981197268
      ],
      [
        "Ġinvolved",
        -9.18219253363766
      ],
      [
        "Ġcontent",
        -9.184236095797791
      ],
      [
        "Ġpolicy",
        -9.185145223632508
      ],
      [
        "Ġpain",
        -9.185382105696611
      ],
      [
        "Ġbring",
        -9.18639475562682
      ],
      [
        "Ġ2007",
        -9.188604749077651
      ],
      [
        "Ġincluded",
        -9.190371931018582
      ],
      [
        "ĠMarch",
        -9.190432954376645
      ],
      [
        "Ġparticularly",
        -9.19048701676545
      ],
      [
        "You",
        -9.192038113917825
      ],
      [
        "Ġ25",
        -9.193310808353273
      ],
      [
        "Ġevents",
        -9.195906856675323
      ],
      [
        "Ġ16",
        -9.196062977398777
      ],
      [
        "Ġmind",
        -9.196587574401685
      ],
      [
        "Ġresponse",
        -9.197454066837665
      ],
      [
        "Ġred",
        -9.197953358590128
      ],
      [
        "Ġsources",
        -9.198965635909175
      ],
      [
        "Ġimprove",
        -9.199308392525069
      ],
      [
        "ĠShe",
        -9.199723292405295
      ],
      [
        "Ġdetermine",
        -9.200587467438108
      ],
      [
        "Ġonline",
        -9.201217386246846
      ],
      [
        "Ġhouse",
        -9.202370984753754
      ],
      [
        "Ġpoor",
        -9.202882747580668
      ],
      [
        "Ġ14",
        -9.204644472640576
      ],
      [
        "Ġcontact",
        -9.205794877947971
      ],
      [
        "Ġthus",
        -9.206175367549754
      ],
      [
        "Ġanimal",
        -9.206197427474274
      ],
      [
        "Ġoccur",
        -9.207113070009536
      ],
      [
        "ĠJune",
        -9.209221705130066
      ],
      [
        "Ġincludes",
        -9.210214884595215
      ],
      [
        "Ġoutside",
        -9.210223979677338
      ],
      [
        "Ġcomplete",
        -9.21315810853504
      ],
      [
        "ĠPress",
        -9.213460957818974
      ],
      [
        "Ġwhose",
        -9.213529010430728
      ],
      [
        "Ġheat",
        -9.215462454010847
      ],
      [
        "ĠAct",
        -9.217167874480308
      ],
      [
        "less",
        -9.218083449938565
      ],
      [
        "ĠFrench",
        -9.218478810436238
      ],
      [
        "ĠEuropean",
        -9.218972933218112
      ],
      [
        "Ġbasic",
        -9.21913663002994
      ],
      [
        "Ġsimply",
        -9.219848375419552
      ],
      [
        "Ġtraining",
        -9.220041612283866
      ],
      [
        "Ġdeveloping",
        -9.220963218853052
      ],
      [
        "ĠWashington",
        -9.221867162140542
      ],
      [
        "Ġvariety",
        -9.22386202669558
      ],
      [
        "Ġculture",
        -9.22393943166469
      ],
      [
        "Ġbuild",
        -9.225972792940093
      ],
      [
        "Ġcarbon",
        -9.226714158298387
      ],
      [
        "Ġgrow",
        -9.227603300868097
      ],
      [
        "ĠHow",
        -9.22812325407156
      ],
      [
        "Ġindividuals",
        -9.228337907066598
      ],
      [
        "Ġaffect",
        -9.228420830965398
      ],
      [
        "Ġface",
        -9.228912555500878
      ],
      [
        "Ġcolor",
        -9.230357674169149
      ],
      [
        "Ġnormal",
        -9.232183795698257
      ],
      [
        "ice",
        -9.233043692841802
      ],
      [
        "Ġdamage",
        -9.233838898296195
      ],
      [
        "Ġcondition",
        -9.233876578341103
      ],
      [
        "age",
        -9.234324172819226
      ],
      [
        "Ġalthough",
        -9.23629447102644
      ],
      [
        "Ġshare",
        -9.239562308229576
      ],
      [
        "ĠWith",
        -9.240208410314072
      ],
      [
        "Ġskills",
        -9.241708757523218
      ],
      [
        "Ġcomplex",
        -9.244122716893902
      ],
      [
        "Ġadd",
        -9.245499020206632
      ],
      [
        "Ġprotect",
        -9.246880676920956
      ],
      [
        "ĠII",
        -9.247782505648518
      ],
      [
        "Ġ13",
        -9.249267097330724
      ],
      [
        ">",
        -9.249453458074498
      ],
      [
        "Ġpersonal",
        -9.252582033598898
      ],
      [
        "ĠHistory",
        -9.253873619267337
      ],
      [
        "Ġcomes",
        -9.254663370076148
      ],
      [
        "Ġart",
        -9.255003228825649
      ],
      [
        "Ġcontinue",
        -9.255465001346328
      ],
      [
        "ĠWest",
        -9.255742835084828
      ],
      [
        "Ġ19",
        -9.256260762518142
      ],
      [
        "ĠAfrican",
        -9.263307184154264
      ],
      [
        "Ġmarket",
        -9.263476958112056
      ],
      [
        "Ġforms",
        -9.263571309292402
      ],
      [
        "âĢ¢",
        -9.26386493995443
      ],
      [
        "ĠApril",
        -9.264596287970456
      ],
      [
        "Ġrest",
        -9.26466131032215
      ],
      [
        "G",
        -9.265333615996948
      ],
      [
        "On",
        -9.266070551812469
      ],
      [
        "Ġentire",
        -9.266759797862363
      ],
      [
        "ĠInternational",
        -9.267273264331
      ],
      [
        "Ġetc",
        -9.267677828110898
      ],
      [
        "time",
        -9.271454853706116
      ],
      [
        "Ġthird",
        -9.272317028392138
      ],
      [
        "Ġcompany",
        -9.27258720219493
      ],
      [
        "ĠChina",
        -9.273814261986267
      ],
      [
        "How",
        -9.27405083825402
      ],
      [
        "Ġlarger",
        -9.27437536424508
      ],
      [
        "Ġmiles",
        -9.277974556951069
      ],
      [
        "ĠGerman",
        -9.279325918182698
      ],
      [
        "Ġcauses",
        -9.280307416816694
      ],
      [
        "z",
        -9.280827621444516
      ],
      [
        "Ġpopular",
        -9.28091224585584
      ],
      [
        "Ġlives",
        -9.282262262931052
      ],
      [
        "Ġadded",
        -9.282335602542718
      ],
      [
        "Ġaccount",
        -9.28530516491563
      ],
      [
        "Ġauthor",
        -9.285580682802175
      ],
      [
        "ĠJuly",
        -9.286586058082204
      ],
      [
        "Ġtherefore",
        -9.2884842476434
      ],
      [
        "Ġfederal",
        -9.288965521934868
      ],
      [
        "year",
        -9.290733075037892
      ],
      [
        "11",
        -9.292533610848078
      ],
      [
        "for",
        -9.293052190469153
      ],
      [
        "Ġwent",
        -9.293391082814336
      ],
      [
        "Ġmethods",
        -9.294809450287556
      ],
      [
        "Ġadditional",
        -9.297029741917129
      ],
      [
        "Ġeye",
        -9.29756450370897
      ],
      [
        "Ġbeginning",
        -9.2994716573451
      ],
      [
        "Ġnation",
        -9.300308100631774
      ],
      [
        "ĠMany",
        -9.300365542958648
      ],
      [
        "Ġnumbers",
        -9.300617587983394
      ],
      [
        "ĠPresident",
        -9.300641099582403
      ],
      [
        "Ġreceived",
        -9.300650118576195
      ],
      [
        "Ġwriting",
        -9.30083236633802
      ],
      [
        "Ġdeep",
        -9.300909936558394
      ],
      [
        "Ġprivate",
        -9.30475163312354
      ],
      [
        "Ġnight",
        -9.30533708780152
      ],
      [
        "ĠAfrica",
        -9.306701807839652
      ],
      [
        "Ġnearly",
        -9.31002991913559
      ],
      [
        "Ġbig",
        -9.311322221838
      ],
      [
        "Ġearth",
        -9.31188727832251
      ],
      [
        "Ġinstead",
        -9.3139782699212
      ],
      [
        "Ġmeaning",
        -9.314106339644916
      ],
      [
        "Ġrequire",
        -9.316926949405804
      ],
      [
        "Ġhold",
        -9.318089725534518
      ],
      [
        "ĠWhile",
        -9.320241384776509
      ],
      [
        "Ġgrowing",
        -9.32045959677916
      ],
      [
        "Ġteachers",
        -9.321020706966326
      ],
      [
        "Ġdoing",
        -9.32228032808496
      ],
      [
        "Ġhealthy",
        -9.324574956970013
      ],
      [
        "Ġbehavior",
        -9.324822202806317
      ],
      [
        "Ġdiet",
        -9.32487633732434
      ],
      [
        "Ġattention",
        -9.325092061340063
      ],
      [
        "Ġprimary",
        -9.327574408931053
      ],
      [
        "Ġshall",
        -9.330609111166424
      ],
      [
        "ism",
        -9.330656364080792
      ],
      [
        "Ġreligious",
        -9.33168267472314
      ],
      [
        "Ġhimself",
        -9.331747120315894
      ],
      [
        "ĠCounty",
        -9.332797408588796
      ],
      [
        "Ġsection",
        -9.334555384176628
      ],
      [
        "Ġ17",
        -9.337689708513068
      ],
      [
        "ĠIndia",
        -9.33848534198685
      ],
      [
        "Ġlove",
        -9.339035164051346
      ],
      [
        "Ġappear",
        -9.339216716419054
      ],
      [
        "Ġquite",
        -9.340346095482426
      ],
      [
        "Ġtry",
        -9.34109426426212
      ],
      [
        "Ġfall",
        -9.341876318643427
      ],
      [
        "Ġfamilies",
        -9.34226926718122
      ],
      [
        "Ġfocus",
        -9.342510762834856
      ],
      [
        "Ġrise",
        -9.342956085166715
      ],
      [
        "ĠChurch",
        -9.343692543668032
      ],
      [
        "Ġobject",
        -9.344563169940685
      ],
      [
        "ĠEngland",
        -9.346972833668149
      ],
      [
        "Ġcommunities",
        -9.348811507754473
      ],
      [
        "like",
        -9.349133446688352
      ],
      [
        "Ġmusic",
        -9.350180456697572
      ],
      [
        "Ġbrought",
        -9.350495944039505
      ],
      [
        "Ġsafety",
        -9.353024519111518
      ],
      [
        "Ġeasy",
        -9.354227265935474
      ],
      [
        "Ġreceive",
        -9.35489120539677
      ],
      [
        "Ġwide",
        -9.355652001048878
      ],
      [
        "Ġlet",
        -9.356577587890648
      ],
      [
        "Ġperformance",
        -9.358467213948831
      ],
      [
        "Ġbillion",
        -9.359343179925142
      ],
      [
        "Ġappropriate",
        -9.36023794641353
      ],
      [
        "Ġtraditional",
        -9.36061012464634
      ],
      [
        "Ġdirectly",
        -9.36075123544413
      ],
      [
        "Ġco",
        -9.36085072688532
      ],
      [
        "Ġsites",
        -9.36156629172096
      ],
      [
        "Ġseems",
        -9.362172898910131
      ],
      [
        "ĠMost",
        -9.363460932064374
      ],
      [
        "Ġsolar",
        -9.363986459217845
      ],
      [
        "Ġanswer",
        -9.364293885689412
      ],
      [
        "One",
        -9.364297374325217
      ],
      [
        "um",
        -9.364628835361186
      ],
      [
        "Ġlargest",
        -9.365917178406365
      ],
      [
        "Ġbooks",
        -9.36653569095264
      ],
      [
        "ĠJanuary",
        -9.36713359512408
      ],
      [
        "Ġteaching",
        -9.367265104297584
      ],
      [
        "Ġrecord",
        -9.36812800578358
      ],
      [
        "Ġdescribed",
        -9.368750911119443
      ],
      [
        "Ġcentral",
        -9.368980660552994
      ],
      [
        "Ġconsider",
        -9.3698905045598
      ],
      [
        "Ġ2006",
        -9.372249278233342
      ],
      [
        "Ġ40",
        -9.377442313370702
      ],
      [
        "Ġmass",
        -9.37745460555809
      ],
      [
        "Ġfile",
        -9.378648595468894
      ],
      [
        "Ġtree",
        -9.378728346060583
      ],
      [
        "Ġflow",
        -9.379825880929362
      ],
      [
        "Ġsound",
        -9.3808218982667
      ],
      [
        "Ġactive",
        -9.383299864147755
      ],
      [
        "Ġgreen",
        -9.383364519891378
      ],
      [
        "Ġinfluence",
        -9.384221662721195
      ],
      [
        "ĠCity",
        -9.384421740699864
      ],
      [
        "ĠV",
        -9.386015348853809
      ],
      [
        "Ġlost",
        -9.386866482959045
      ],
      [
        "Ġaddress",
        -9.387070873968938
      ],
      [
        "Ġlength",
        -9.38793129743168
      ],
      [
        "Ġ24",
        -9.388366578866457
      ],
      [
        "Ġcenter",
        -9.388372338127532
      ],
      [
        "ĠKing",
        -9.388859066413367
      ],
      [
        "Ġlack",
        -9.389107429540054
      ],
      [
        "ĠIndian",
        -9.389232996857375
      ],
      [
        "Ġtrade",
        -9.390497490372336
      ],
      [
        "ĠSeptember",
        -9.390918988421635
      ],
      [
        "Ġlimited",
        -9.391422315463169
      ],
      [
        "term",
        -9.391436716837898
      ],
      [
        "Ġhope",
        -9.39199305007657
      ],
      [
        "Ġcut",
        -9.394015616917471
      ],
      [
        "Ġ21",
        -9.398723319725178
      ],
      [
        "Ġefforts",
        -9.400376518821547
      ],
      [
        "Ġask",
        -9.400950244651188
      ],
      [
        "Ġspread",
        -9.401043198213117
      ],
      [
        "And",
        -9.401082476561236
      ],
      [
        "Ġsoon",
        -9.40138266430461
      ],
      [
        "ĠOctober",
        -9.402896307434052
      ],
      [
        ");",
        -9.40322912645069
      ],
      [
        "ĠAugust",
        -9.403294922449769
      ],
      [
        "Ġfollow",
        -9.403918955407317
      ],
      [
        "Ġdied",
        -9.40754312770768
      ],
      [
        "Ġancient",
        -9.407783630001942
      ],
      [
        "Ġdirect",
        -9.409117822660068
      ],
      [
        "Ġmeet",
        -9.409588814468163
      ],
      [
        "Ġproduct",
        -9.410689363158928
      ],
      [
        "Ġfuel",
        -9.411024165795247
      ],
      [
        "Ġideas",
        -9.411295797673066
      ],
      [
        "Ġrare",
        -9.412177800565544
      ],
      [
        "Ġsummer",
        -9.412594948156745
      ],
      [
        "way",
        -9.412641108327628
      ],
      [
        "Ġinfection",
        -9.413430745400303
      ],
      [
        "Ġdifference",
        -9.414278588749866
      ],
      [
        "By",
        -9.415814031058105
      ],
      [
        "Ġlocated",
        -9.41852597946883
      ],
      [
        "Ġfather",
        -9.418700469102877
      ],
      [
        "Ġimages",
        -9.419091327256671
      ],
      [
        "ĠJewish",
        -9.420723050527418
      ],
      [
        "Ġwind",
        -9.421402205680618
      ],
      [
        "Ġbenefits",
        -9.421479648634715
      ],
      [
        "Ġuses",
        -9.421591242464809
      ],
      [
        "compared",
        -9.421956200039435
      ],
      [
        "Ġpatient",
        -9.423323668126852
      ],
      [
        "âĢ¦",
        -9.4236055632804
      ],
      [
        "Ġnorth",
        -9.423636791558645
      ],
      [
        "Ġprotection",
        -9.42547804536148
      ],
      [
        "Ġtrees",
        -9.426385503707278
      ],
      [
        "Ġreview",
        -9.426503229536204
      ],
      [
        "ĠAlthough",
        -9.427358264748692
      ],
      [
        "Ġanti",
        -9.42754740281427
      ],
      [
        "Ġstarted",
        -9.428886883118624
      ],
      [
        "ĠCanada",
        -9.428919644675531
      ],
      [
        "Ġsupply",
        -9.430620257212125
      ],
      [
        "Ġtools",
        -9.430962116520767
      ],
      [
        "Ġ2000",
        -9.431337721992165
      ],
      [
        "Ġhighly",
        -9.432308476208956
      ],
      [
        "Ġensure",
        -9.433831185697471
      ],
      [
        "Ġborn",
        -9.433944422175738
      ],
      [
        "Ġproperty",
        -9.43638338802
      ],
      [
        "Ġuseful",
        -9.43706854351037
      ],
      [
        "Ġpoints",
        -9.43712805123105
      ],
      [
        "Ġbehind",
        -9.437691989546298
      ],
      [
        "Ġsun",
        -9.437890488039375
      ],
      [
        "Ġ2005",
        -9.438900539388731
      ],
      [
        "Y",
        -9.44004666526627
      ],
      [
        "Ġexercise",
        -9.44064418540744
      ],
      [
        "Ġleading",
        -9.44219715173933
      ],
      [
        "Ġserious",
        -9.442459451677625
      ],
      [
        "Retrieved",
        -9.443384259312774
      ],
      [
        "Ġnetwork",
        -9.44542535164877
      ],
      [
        "ĠSociety",
        -9.445713863884096
      ],
      [
        "ĠGeneral",
        -9.445806729792697
      ],
      [
        "Ġstop",
        -9.446504271716543
      ],
      [
        "Ġeasily",
        -9.447680205564314
      ],
      [
        "Ġtold",
        -9.44866505540014
      ],
      [
        "Ġinside",
        -9.448804314397414
      ],
      [
        "ĠDecember",
        -9.449352633097314
      ],
      [
        "Ġforces",
        -9.449996769042285
      ],
      [
        "Ġdoesn",
        -9.450092118453908
      ],
      [
        "Ġrates",
        -9.450676011241956
      ],
      [
        "Ġwrote",
        -9.451272286248518
      ],
      [
        "Ġcontains",
        -9.45134592656489
      ],
      [
        "Ġbegin",
        -9.452762794799682
      ],
      [
        "Ġdeal",
        -9.452856037171404
      ],
      [
        "Ġpay",
        -9.452940335705676
      ],
      [
        "Ġserve",
        -9.453225724350482
      ],
      [
        "Ġtoward",
        -9.453274312882272
      ],
      [
        "land",
        -9.453723601508946
      ],
      [
        "Ġdrug",
        -9.454418291185377
      ],
      [
        "Ġworkers",
        -9.4548479263959
      ],
      [
        "Ġstep",
        -9.455006424901237
      ],
      [
        "ĠEducation",
        -9.456368316008623
      ],
      [
        "Ġpositive",
        -9.456805078735751
      ],
      [
        "20",
        -9.45899527340157
      ],
      [
        "Ġcollection",
        -9.459421813779768
      ],
      [
        "Ġavoid",
        -9.459611981906267
      ],
      [
        "Ġquickly",
        -9.459619151245738
      ],
      [
        "Ġunique",
        -9.460655113030304
      ],
      [
        "Ġchemical",
        -9.461254893836484
      ],
      [
        "Ġvisit",
        -9.463386734727884
      ],
      [
        "Ġtakes",
        -9.464595299656436
      ],
      [
        "Ġmedia",
        -9.465727922339168
      ],
      [
        "Ġpurpose",
        -9.467887590370754
      ],
      [
        "Ġsent",
        -9.468762399237685
      ],
      [
        "Ġgetting",
        -9.468877254463171
      ],
      [
        "Ġtown",
        -9.469161118323656
      ],
      [
        "Ġcritical",
        -9.469218917895182
      ],
      [
        "ĠX",
        -9.469769868646294
      ],
      [
        "Ġbasis",
        -9.47016813065032
      ],
      [
        "Ġapplication",
        -9.47074006217329
      ],
      [
        "Ġevent",
        -9.470775788733876
      ],
      [
        "Ġcontinued",
        -9.47148319453616
      ],
      [
        "ĠGreat",
        -9.472873917727531
      ],
      [
        "ĠAmericans",
        -9.473527518501523
      ],
      [
        "Ġrecently",
        -9.473748840098745
      ],
      [
        "Ġlooking",
        -9.47376978906658
      ],
      [
        "Ġnothing",
        -9.474161129486358
      ],
      [
        "Ġfollowed",
        -9.474680466797258
      ],
      [
        "Ġpp",
        -9.476474392724391
      ],
      [
        "Ġkids",
        -9.477272819330096
      ],
      [
        "ĠJournal",
        -9.47870701721948
      ],
      [
        "Ġfeatures",
        -9.48074184143714
      ],
      [
        "Ġbirth",
        -9.481688411461898
      ],
      [
        "Ġmember",
        -9.483412173057186
      ],
      [
        "Ġdate",
        -9.486512093460906
      ],
      [
        "Ġsafe",
        -9.486803865505449
      ],
      [
        "Ġtests",
        -9.488212065381427
      ],
      [
        "ĠUnion",
        -9.488799334019092
      ],
      [
        "Ġattack",
        -9.48880119408775
      ],
      [
        "Ġmonth",
        -9.489005675594669
      ],
      [
        "asked",
        -9.489130055061404
      ],
      [
        "Ġmeasure",
        -9.489836892758484
      ],
      [
        "Ġvideo",
        -9.489925059567769
      ],
      [
        "ĠNovember",
        -9.491191284443754
      ],
      [
        "Ġwebsite",
        -9.492021586205508
      ],
      [
        "Ġsub",
        -9.492203551044277
      ],
      [
        "Ġremains",
        -9.493294162386906
      ],
      [
        "Ġspeed",
        -9.497675959419968
      ],
      [
        "Ġsituation",
        -9.49822369410468
      ],
      [
        "Ġdecision",
        -9.500892206305087
      ],
      [
        "Ġmultiple",
        -9.50139170266086
      ],
      [
        "Ġearlier",
        -9.503228186291445
      ],
      [
        "Ġ2013",
        -9.50352690909469
      ],
      [
        "Ġsearch",
        -9.503810172864666
      ],
      [
        "Ġsouth",
        -9.5050972697269
      ],
      [
        "Ġhumans",
        -9.506712570669142
      ],
      [
        "Ġsaw",
        -9.50718608793793
      ],
      [
        "Ġexpected",
        -9.507447805178725
      ],
      [
        "ĠAssociation",
        -9.507772926851551
      ],
      [
        "Ġmother",
        -9.509406873516571
      ],
      [
        "Ġsevere",
        -9.510211967841006
      ],
      [
        "Ġcode",
        -9.512715512162556
      ],
      [
        "K",
        -9.512930008893736
      ],
      [
        "ĠLondon",
        -9.512950169526444
      ],
      [
        "ized",
        -9.51295934315096
      ],
      [
        "Ġeffort",
        -9.513659155375214
      ],
      [
        "Ġdaily",
        -9.514395410654634
      ],
      [
        "ĠHouse",
        -9.514672596506085
      ],
      [
        "Ġelements",
        -9.514999730814983
      ],
      [
        "ĠEast",
        -9.515117579885684
      ],
      [
        "These",
        -9.515142840962008
      ],
      [
        "ĠSan",
        -9.515150352435866
      ],
      [
        "ĠCongress",
        -9.51568625972418
      ],
      [
        "Ġstandards",
        -9.518222479397354
      ],
      [
        "ĠFirst",
        -9.518597995919158
      ],
      [
        "ous",
        -9.51921562720774
      ],
      [
        "ĠMore",
        -9.519223417846312
      ],
      [
        "ally",
        -9.519491235027658
      ],
      [
        "Ġweeks",
        -9.519629369506838
      ],
      [
        "Ġvalues",
        -9.520062345449343
      ],
      [
        "Ġcompanies",
        -9.521102666154905
      ],
      [
        "Ġbase",
        -9.524102156886157
      ],
      [
        "Ġmeeting",
        -9.524137593637592
      ],
      [
        "Ġfinal",
        -9.524290991227526
      ],
      [
        "Ġsecurity",
        -9.525425508679769
      ],
      [
        "Ġmiddle",
        -9.52677034037981
      ],
      [
        "Ġfront",
        -9.526806476839274
      ],
      [
        "Ġlines",
        -9.528344009608212
      ],
      [
        "Ġincreasing",
        -9.529756456143788
      ],
      [
        "ĠDo",
        -9.52997023898448
      ],
      [
        "Ġgenetic",
        -9.530374918849985
      ],
      [
        "Ġmemory",
        -9.530642426179451
      ],
      [
        "Ġrule",
        -9.533225501941564
      ],
      [
        "Ġcontain",
        -9.535089447057592
      ],
      [
        "Ġsoftware",
        -9.535173038767752
      ],
      [
        "Ġsomeone",
        -9.5360477886671
      ],
      [
        "men",
        -9.53612561345567
      ],
      [
        "Ġcosts",
        -9.536152179934607
      ],
      [
        "Ġversion",
        -9.5363823972533
      ],
      [
        "Ġinstance",
        -9.538592940583028
      ],
      [
        "Ġweather",
        -9.538779468723646
      ],
      [
        "Ġobjects",
        -9.53945938290218
      ],
      [
        "Ġformed",
        -9.54075495566992
      ],
      [
        "Ġoffer",
        -9.540824599046864
      ],
      [
        "Ġfoods",
        -9.542018117081998
      ],
      [
        "Ġprotein",
        -9.54250996731834
      ],
      [
        "ĠFrom",
        -9.543062931216909
      ],
      [
        "Ġrelationship",
        -9.544084474265444
      ],
      [
        "Ġbirds",
        -9.54413920062558
      ],
      [
        "Ġconstruction",
        -9.544880588451027
      ],
      [
        "Ġprojects",
        -9.546407522418072
      ],
      [
        "Ġwaste",
        -9.547211535356592
      ],
      [
        "ĠHIV",
        -9.547649736715044
      ],
      [
        "Ġbenefit",
        -9.54824828646475
      ],
      [
        "Ġcar",
        -9.548425839363516
      ],
      [
        "Ġolder",
        -9.548683767487775
      ],
      [
        "Ġexposure",
        -9.548734883916858
      ],
      [
        "Ġnamed",
        -9.549803277485166
      ],
      [
        "Ġbeyond",
        -9.549843749613714
      ],
      [
        "Ġadults",
        -9.549962274795758
      ],
      [
        "Ġgoal",
        -9.55003817541095
      ],
      [
        "Ġallows",
        -9.550189680442296
      ],
      [
        "Ġseem",
        -9.55027184017878
      ],
      [
        "Ġdiscovered",
        -9.550322011517336
      ],
      [
        "Ġequal",
        -9.552089701646937
      ],
      [
        "Ġgave",
        -9.552391126564713
      ],
      [
        "Ġessential",
        -9.552721577203709
      ],
      [
        "Ġlegal",
        -9.552770590146034
      ],
      [
        "Ġattempt",
        -9.553241787803932
      ],
      [
        "Ġriver",
        -9.553583279874642
      ],
      [
        "ĠFrance",
        -9.554700841035334
      ],
      [
        "Ġcultural",
        -9.555797133794474
      ],
      [
        "Ġsmaller",
        -9.55593760359076
      ],
      [
        "Ġchurch",
        -9.556187217782448
      ],
      [
        "Ġdrugs",
        -9.55888806730683
      ],
      [
        "Ġremain",
        -9.559377037108677
      ],
      [
        "15",
        -9.55963303051096
      ],
      [
        "Ġlaws",
        -9.561062276213388
      ],
      [
        "ĠWilliam",
        -9.5610659051522
      ],
      [
        "Ġminutes",
        -9.561067209595976
      ],
      [
        "Ġeconomy",
        -9.561170868096232
      ],
      [
        "Ġcold",
        -9.56128803593662
      ],
      [
        "Ġformer",
        -9.56191413468796
      ],
      [
        "Ġhands",
        -9.562303888771744
      ],
      [
        "Ġcurrently",
        -9.563551927692982
      ],
      [
        "ĠFebruary",
        -9.56357895296675
      ],
      [
        "Ġdiseases",
        -9.563978809566455
      ],
      [
        "ĠOther",
        -9.564474609839454
      ],
      [
        "Ġwinter",
        -9.564664236600922
      ],
      [
        "Ġgame",
        -9.565676949924548
      ],
      [
        "ĠCouncil",
        -9.566686840422218
      ],
      [
        "Ġimportance",
        -9.566893374221442
      ],
      [
        "Ġsuccess",
        -9.56877259147055
      ],
      [
        "Ġhistorical",
        -9.569169355923762
      ],
      [
        "Ġperhaps",
        -9.570191329165702
      ],
      [
        "Ġprocesses",
        -9.571038764928558
      ],
      [
        "Ġresponsible",
        -9.571336006557296
      ],
      [
        "Ġwrite",
        -9.571941923347705
      ],
      [
        "Ġreach",
        -9.57304575167725
      ],
      [
        "ation",
        -9.575032712205497
      ],
      [
        "Ġalone",
        -9.578048999903752
      ],
      [
        "Ġchance",
        -9.578246777969946
      ],
      [
        "Ġdegree",
        -9.580649052933966
      ],
      [
        "Ġ2004",
        -9.58088609442544
      ],
      [
        "ĠChinese",
        -9.582695752418145
      ],
      [
        "Ġrequires",
        -9.58287232191668
      ],
      [
        "Ġseason",
        -9.582987886034823
      ],
      [
        "Ġappears",
        -9.58381367787688
      ],
      [
        "Ġmaintain",
        -9.583900651409037
      ],
      [
        "day",
        -9.58404720915847
      ],
      [
        "Ġallowed",
        -9.586004982630795
      ],
      [
        "one",
        -9.590026949432696
      ],
      [
        "Ġbad",
        -9.590401286372732
      ],
      [
        "ĠDNA",
        -9.59057807853418
      ],
      [
        "Ġplaces",
        -9.590998054978035
      ],
      [
        "ĠJesus",
        -9.59152504538508
      ],
      [
        "Ġidentify",
        -9.59201308450298
      ],
      [
        "Ġwoman",
        -9.5920772912406
      ],
      [
        "Ġcharacter",
        -9.59286859222401
      ],
      [
        "Ġgot",
        -9.594556170002871
      ],
      [
        "Ġstage",
        -9.595085561290958
      ],
      [
        "Ġcover",
        -9.595222253373516
      ],
      [
        "ĠPark",
        -9.595239090228556
      ],
      [
        "Ġanything",
        -9.595648452860448
      ],
      [
        "Ġwon",
        -9.596121246306598
      ],
      [
        "Ġuser",
        -9.596298358315773
      ],
      [
        "ĠChristian",
        -9.596753559946988
      ],
      [
        "Ġdry",
        -9.597031051707754
      ],
      [
        "ĠDay",
        -9.59732193549667
      ],
      [
        "Ġlocation",
        -9.59833831477841
      ],
      [
        "Some",
        -9.598834222336883
      ],
      [
        "Ġrelease",
        -9.600651677968091
      ],
      [
        "Ġequipment",
        -9.601050171354094
      ],
      [
        "Ġnative",
        -9.601820561303628
      ],
      [
        "Ġtesting",
        -9.602317742186314
      ],
      [
        "Ġnuclear",
        -9.602407399011014
      ],
      [
        "Ġteacher",
        -9.604335226122762
      ],
      [
        "Ġtravel",
        -9.605496672287709
      ],
      [
        "Ġlink",
        -9.60586218467136
      ],
      [
        "ĠJews",
        -9.60742890071634
      ],
      [
        "ĠInternet",
        -9.608092934922112
      ],
      [
        "Ġseparate",
        -9.60826173255959
      ],
      [
        "Ġroom",
        -9.608479352755756
      ],
      [
        "Ġcourt",
        -9.609172411576406
      ],
      [
        "Ġcheck",
        -9.610614742836944
      ],
      [
        "Ġscale",
        -9.6147171985896
      ],
      [
        "ĠGermany",
        -9.614943667909785
      ],
      [
        "ĠRoman",
        -9.615813856783566
      ],
      [
        "ĠGovernment",
        -9.61768770520066
      ],
      [
        "Ġfinancial",
        -9.617849898668029
      ],
      [
        "Ġrelatively",
        -9.619519237807948
      ],
      [
        "Ġhundred",
        -9.619522839559366
      ],
      [
        "Ġorganization",
        -9.62001339976335
      ],
      [
        "Ġoffice",
        -9.620313049755625
      ],
      [
        "Ġtend",
        -9.621067045037751
      ],
      [
        "Ġjob",
        -9.621157110580056
      ],
      [
        "Ġtechniques",
        -9.621951670134017
      ],
      [
        "Ġdevice",
        -9.623837287218674
      ],
      [
        "Ġstatus",
        -9.624689594975605
      ],
      [
        "Ġprevious",
        -9.62473134564561
      ],
      [
        "Ġweb",
        -9.624850405818078
      ],
      [
        "Ġidentified",
        -9.625106013271369
      ],
      [
        "Ġbreak",
        -9.62649029987768
      ],
      [
        "Ġunit",
        -9.627043993887517
      ],
      [
        "Ġnegative",
        -9.627213533058706
      ],
      [
        "ĠJames",
        -9.627218516591736
      ],
      [
        "Ġsleep",
        -9.627991587183194
      ],
      [
        "Ġvirus",
        -9.628629325200984
      ],
      [
        "ĠWeb",
        -9.628695659649864
      ],
      [
        "Ġ22",
        -9.628889162827212
      ],
      [
        "Ġleave",
        -9.629437065801255
      ],
      [
        "ĠDavid",
        -9.632342771035535
      ],
      [
        "Ġdrive",
        -9.632765775519992
      ],
      [
        "Ġsuccessful",
        -9.633018208190071
      ],
      [
        "Ġcapital",
        -9.634423388421196
      ],
      [
        "Ġstress",
        -9.634997668140134
      ],
      [
        "Ġconcept",
        -9.636152691702494
      ],
      [
        "Ġcommand",
        -9.637632032576573
      ],
      [
        "Â°",
        -9.638443220198663
      ],
      [
        "ĠCollege",
        -9.639507997246625
      ],
      [
        "Ġoccurs",
        -9.64024937980259
      ],
      [
        "ĠAustralia",
        -9.64143869234202
      ],
      [
        "ĠYour",
        -9.643027890671982
      ],
      [
        "Ġsolution",
        -9.646072395954016
      ],
      [
        "Ġmajority",
        -9.646980357309635
      ],
      [
        "Ġ2003",
        -9.649766850702193
      ],
      [
        "Ġpassed",
        -9.650116830208086
      ],
      [
        "Ġtypically",
        -9.651635909392338
      ],
      [
        "Ġapplications",
        -9.652642996389494
      ],
      [
        "30",
        -9.652686923899545
      ],
      [
        "ĠDe",
        -9.653811543516689
      ],
      [
        "Ġrace",
        -9.655413505654083
      ],
      [
        "Ġreports",
        -9.655876520871969
      ],
      [
        "Ġproviding",
        -9.656596325942678
      ],
      [
        "Ġmeasures",
        -9.656749508865
      ],
      [
        "He",
        -9.657600714309112
      ],
      [
        "ĠService",
        -9.657720106667393
      ],
      [
        "Ġshape",
        -9.658579352940023
      ],
      [
        "Ġforest",
        -9.659425466390791
      ],
      [
        "Ġreduced",
        -9.659904826999828
      ],
      [
        "Ġvolume",
        -9.662325251431838
      ],
      [
        "J",
        -9.662433356762438
      ],
      [
        "ĠLord",
        -9.66244384637374
      ],
      [
        "ĠNASA",
        -9.663039721179231
      ],
      [
        "Ġ60",
        -9.663473846742212
      ],
      [
        "Ġprice",
        -9.6635291423071
      ],
      [
        "Ġgives",
        -9.66436507697066
      ],
      [
        "ities",
        -9.66588017106466
      ],
      [
        "Ġaffected",
        -9.666249838716537
      ],
      [
        "ĠWestern",
        -9.666709144396416
      ],
      [
        "Ġmental",
        -9.666957123561724
      ],
      [
        "Ġdiabetes",
        -9.66720492194131
      ],
      [
        "Ġemissions",
        -9.667627730858658
      ],
      [
        "Ġradiation",
        -9.66774699369733
      ],
      [
        "Ġtowards",
        -9.669140400168247
      ],
      [
        "Ġshowed",
        -9.66965522017003
      ],
      [
        "Ġapplied",
        -9.67004935677116
      ],
      [
        "Ġbecomes",
        -9.67041506945443
      ],
      [
        "Ġworked",
        -9.67044800377244
      ],
      [
        "ĠMr",
        -9.670678703284846
      ],
      [
        "While",
        -9.67151762051426
      ],
      [
        "Ġtreat",
        -9.671722360696023
      ],
      [
        "Ġlayer",
        -9.67203203264338
      ],
      [
        "Ġcommercial",
        -9.673500996977214
      ],
      [
        "Ġbacteria",
        -9.67395603227414
      ],
      [
        "Ġseven",
        -9.67538646000027
      ],
      [
        "Ġplanet",
        -9.678147941028868
      ],
      [
        "Ġpicture",
        -9.679289208226583
      ],
      [
        "Ġthinking",
        -9.682436351463068
      ],
      [
        "ĠJapan",
        -9.683142312292778
      ],
      [
        "ĠMuseum",
        -9.683821124792798
      ],
      [
        "Ġmission",
        -9.684777237357396
      ],
      [
        "Ġdifferences",
        -9.68480537604071
      ],
      [
        "that",
        -9.685227343323463
      ],
      [
        "Ġincome",
        -9.685550951367176
      ],
      [
        "Ġmid",
        -9.685676048025831
      ],
      [
        "Ġdistance",
        -9.68586552557744
      ],
      [
        "Ġ2001",
        -9.685997319565352
      ],
      [
        "See",
        -9.687686051892133
      ],
      [
        "Ġrecords",
        -9.688733519398411
      ],
      [
        "Ġfindings",
        -9.689460986805546
      ],
      [
        "Ġstore",
        -9.690079816548256
      ],
      [
        "Ġcities",
        -9.690548709506634
      ],
      [
        "Ġten",
        -9.691108340350905
      ],
      [
        "13",
        -9.691386903947876
      ],
      [
        "Ġleaves",
        -9.691514581053172
      ],
      [
        "Ġinteresting",
        -9.691984559314191
      ],
      [
        "Ġnames",
        -9.692027344255278
      ],
      [
        "Ġfemale",
        -9.692989585346211
      ],
      [
        "Ġstaff",
        -9.694282226332392
      ],
      [
        "Ġtable",
        -9.694363199888128
      ],
      [
        "Ġprofessional",
        -9.69526382431941
      ],
      [
        "Ġrules",
        -9.695692353411726
      ],
      [
        "Ġfigure",
        -9.696045096236732
      ],
      [
        "ĠEven",
        -9.696051252546573
      ],
      [
        "Ġtherapy",
        -9.696352157522709
      ],
      [
        "Ġsugar",
        -9.696365483015986
      ],
      [
        "Ġopportunity",
        -9.696748421591344
      ],
      [
        "Ġcollege",
        -9.69727153781916
      ],
      [
        "Ġcoming",
        -9.697375655305656
      ],
      [
        "ĠWater",
        -9.697391906062702
      ],
      [
        "Ġmodels",
        -9.697479934255195
      ],
      [
        "Ġbaby",
        -9.698383391019949
      ],
      [
        "Ġcombination",
        -9.699006387189678
      ],
      [
        "Ġpowerful",
        -9.69906943260893
      ],
      [
        "Ġsuggest",
        -9.69931276440774
      ],
      [
        "Ġchanged",
        -9.699721262833767
      ],
      [
        "ĠGeorge",
        -9.699967228507845
      ],
      [
        "Ġreference",
        -9.70197517755303
      ],
      [
        "Ġcompletely",
        -9.70338398630938
      ],
      [
        "Ġprogress",
        -9.704949364142342
      ],
      [
        "After",
        -9.705255566245606
      ],
      [
        "ĠChrist",
        -9.705767216519035
      ],
      [
        "#",
        -9.7060341144791
      ],
      [
        "Ġeyes",
        -9.7070956210373
      ],
      [
        "Ġgoes",
        -9.707463493660034
      ],
      [
        "Ġforeign",
        -9.70750614654894
      ],
      [
        "Ġexisting",
        -9.707663950327488
      ],
      [
        "Ġpresence",
        -9.708136851716905
      ],
      [
        "Ġeducational",
        -9.708237564386778
      ],
      [
        "Ġcommonly",
        -9.709030522709076
      ],
      [
        "ĠSince",
        -9.709481712274364
      ],
      [
        "Ġapproximately",
        -9.709995957673025
      ],
      [
        "Ġgene",
        -9.712833436117526
      ],
      [
        "out",
        -9.713657670390754
      ],
      [
        "Ġ23",
        -9.716395894348992
      ],
      [
        "Ġpresented",
        -9.717317697741692
      ],
      [
        "14",
        -9.717442384856929
      ],
      [
        "Ġacid",
        -9.717497724321245
      ],
      [
        "Ġcross",
        -9.71755088095098
      ],
      [
        "ĠTexas",
        -9.718089803809375
      ],
      [
        "Ġ2002",
        -9.71817781587832
      ],
      [
        "Ġcarried",
        -9.718452720234865
      ],
      [
        "Ġdemand",
        -9.720376549967488
      ],
      [
        "ĠBecause",
        -9.722804382267254
      ],
      [
        "Ġeverything",
        -9.7234705946741
      ],
      [
        "Ġobserved",
        -9.72352211617615
      ],
      [
        "Ġcommunication",
        -9.7246297150073
      ],
      [
        "Ġfactor",
        -9.725620508481557
      ],
      [
        "Ġexist",
        -9.725694514656077
      ],
      [
        "ĠSee",
        -9.726154231461145
      ],
      [
        "Ġtool",
        -9.727256977129915
      ],
      [
        "which",
        -9.727484583157974
      ],
      [
        "Ġdirection",
        -9.727545997333264
      ],
      [
        "Ġmap",
        -9.72804850623529
      ],
      [
        "trying",
        -9.72840893833207
      ],
      [
        "ĠGreek",
        -9.730355357224
      ],
      [
        "Ġprofessor",
        -9.730929712641515
      ],
      [
        "Ġclassroom",
        -9.731128428423432
      ],
      [
        "ĠOf",
        -9.731228482958128
      ],
      [
        "ĠRe",
        -9.731259606233667
      ],
      [
        "Ġcreating",
        -9.73450864795792
      ],
      [
        "ĠJapanese",
        -9.734580982406246
      ],
      [
        "ISBN",
        -9.734779152904666
      ],
      [
        "Ġwhom",
        -9.735643314915135
      ],
      [
        "Ġtalk",
        -9.735989258806711
      ],
      [
        "Ġcapacity",
        -9.73662757389177
      ],
      [
        "Ġrespect",
        -9.736833940359704
      ],
      [
        "Ġregions",
        -9.736927796644116
      ],
      [
        "ĠLa",
        -9.737276497268937
      ],
      [
        "Ġlabor",
        -9.737557290093186
      ],
      [
        "ĠAlso",
        -9.737687931022997
      ],
      [
        "Ġdevices",
        -9.738182653405612
      ],
      [
        "Ġregular",
        -9.739112776716144
      ],
      [
        "Ġpractices",
        -9.73994637180679
      ],
      [
        "Ġnor",
        -9.74000126372242
      ],
      [
        "Ġvia",
        -9.741972378915449
      ],
      [
        "Ġkilled",
        -9.742683845622702
      ],
      [
        "ĠPaul",
        -9.743817078814867
      ],
      [
        "Ġbelieved",
        -9.74388202725172
      ],
      [
        "Ġspring",
        -9.7439712634026
      ],
      [
        "Ġreasons",
        -9.74555294418004
      ],
      [
        "ĠThus",
        -9.74609656394107
      ],
      [
        "Ġestimated",
        -9.746656632866644
      ],
      [
        "Ġusers",
        -9.746725672967044
      ],
      [
        "Ġeating",
        -9.746850796995249
      ],
      [
        "Ġstay",
        -9.748611459155349
      ],
      [
        "Ġportion",
        -9.74864137413707
      ],
      [
        "ĠIsrael",
        -9.748807229934336
      ],
      [
        "Ġclinical",
        -9.748934818263663
      ],
      [
        "placed",
        -9.749706701578924
      ],
      [
        "Ġtissue",
        -9.750308601715531
      ],
      [
        "Ġnoted",
        -9.751396369232555
      ],
      [
        "V",
        -9.75213690255366
      ],
      [
        "Ġnews",
        -9.752301031381718
      ],
      [
        "Ġsave",
        -9.752475602170096
      ],
      [
        "Ġexplain",
        -9.753064410856718
      ],
      [
        "Ġsouthern",
        -9.753136794202296
      ],
      [
        "Ġtax",
        -9.75394041790823
      ],
      [
        "Ġbit",
        -9.754350713986469
      ],
      [
        "Ġresource",
        -9.755073144042193
      ],
      [
        "Ġeventually",
        -9.756934410908114
      ],
      [
        "ĠMexico",
        -9.757605645064798
      ],
      [
        "Ġdark",
        -9.757830063746564
      ],
      [
        "Ġparty",
        -9.758004563525162
      ],
      [
        "16",
        -9.758236339269589
      ],
      [
        "ĠCourt",
        -9.758289905989978
      ],
      [
        "Ġmoving",
        -9.759088728180076
      ],
      [
        "Ġfruit",
        -9.760518878945934
      ],
      [
        "Ġdiscussion",
        -9.76069659866385
      ],
      [
        "Ġdistribution",
        -9.760877962884972
      ],
      [
        "line",
        -9.76145380440492
      ],
      [
        "Ġhighest",
        -9.761482445671955
      ],
      [
        "Ġsuggests",
        -9.761485135440315
      ],
      [
        "ĠTheir",
        -9.762922906185826
      ],
      [
        "Ġmedicine",
        -9.763805810832732
      ],
      [
        "Ġmale",
        -9.765240637592555
      ],
      [
        "Ġfamous",
        -9.765982705262712
      ],
      [
        "Ġdefined",
        -9.76614985737725
      ],
      [
        "Ġrich",
        -9.766548346970936
      ],
      [
        "Ġgeneration",
        -9.766756007472864
      ],
      [
        "Ġchoose",
        -9.768353482738222
      ],
      [
        "Ġtreated",
        -9.768598744617254
      ],
      [
        "Ġnorthern",
        -9.769856394245773
      ],
      [
        "Ġdis",
        -9.770675435590418
      ],
      [
        "Ġblue",
        -9.771143753153432
      ],
      [
        "Ġreleased",
        -9.773219610169214
      ],
      [
        "Ġfilm",
        -9.774552445242556
      ],
      [
        "Ġdead",
        -9.776560138599764
      ],
      [
        "Ġeight",
        -9.776586344503114
      ],
      [
        "Ġroad",
        -9.776880291323874
      ],
      [
        "Ġmoment",
        -9.777927543119418
      ],
      [
        "Ġplans",
        -9.779105281182872
      ],
      [
        "Ġdidn",
        -9.779542960627726
      ],
      [
        "Ġletter",
        -9.779662601281984
      ],
      [
        "With",
        -9.77972959402791
      ],
      [
        "Ġfat",
        -9.780163609053949
      ],
      [
        "ĠUse",
        -9.78176621781484
      ],
      [
        "Ġheavy",
        -9.783450107548006
      ],
      [
        "Ġdisorder",
        -9.785230990667657
      ],
      [
        "Ġdocument",
        -9.78541482949439
      ],
      [
        "ĠPeople",
        -9.786239233432028
      ],
      [
        "Ġannual",
        -9.786325199931378
      ],
      [
        "Ġconducted",
        -9.7878281301711
      ],
      [
        "Ġsample",
        -9.788814281642862
      ],
      [
        "ĠCo",
        -9.789087576933898
      ],
      [
        "Ġfast",
        -9.789403209400971
      ],
      [
        "Ġstyle",
        -9.78955129039768
      ],
      [
        "Ġclean",
        -9.789564518104736
      ],
      [
        "Ġ1990",
        -9.78968987763109
      ],
      [
        "Ġstar",
        -9.79022125964061
      ],
      [
        "Ġking",
        -9.790320666930466
      ],
      [
        "Ġcampaign",
        -9.790974872577396
      ],
      [
        "Ġoverall",
        -9.790990980060933
      ],
      [
        "Ġorganizations",
        -9.791476945194027
      ],
      [
        "Ġfriends",
        -9.792128182919916
      ],
      [
        "ĠHere",
        -9.793176376829146
      ],
      [
        "Ġpiece",
        -9.793812841052256
      ],
      [
        "Ġelse",
        -9.794009889391502
      ],
      [
        "Ġreligion",
        -9.794143415395403
      ],
      [
        "Ġfully",
        -9.794385432677815
      ],
      [
        "Ġimmediately",
        -9.79574859216365
      ],
      [
        "Ġupper",
        -9.795914198241706
      ],
      [
        "Ġdecades",
        -9.797397390872597
      ],
      [
        "All",
        -9.79797818953192
      ],
      [
        "Ġsign",
        -9.798928848680488
      ],
      [
        "Ġpattern",
        -9.79896180525646
      ],
      [
        "Ġtitle",
        -9.7989806606257
      ],
      [
        "ĠEach",
        -9.799072196144504
      ],
      [
        "Ġpromote",
        -9.800572766969792
      ],
      [
        "Ġatmosphere",
        -9.80079669832174
      ],
      [
        "Ġintroduced",
        -9.801211212816597
      ],
      [
        "ĠIsland",
        -9.801813634024214
      ],
      [
        "moved",
        -9.8026214979134
      ],
      [
        "Ġrunning",
        -9.803714691402938
      ],
      [
        "Ġfreedom",
        -9.803727134857317
      ],
      [
        "Ġstories",
        -9.805531589832468
      ],
      [
        "Ġcontext",
        -9.805715201028717
      ],
      [
        "Ġindependent",
        -9.805728907077478
      ],
      [
        "Ġphase",
        -9.806467620617806
      ],
      [
        "Ġproperties",
        -9.80694418812586
      ],
      [
        "Ġactual",
        -9.806969840315553
      ],
      [
        "Ġpatterns",
        -9.807051260420476
      ],
      [
        "ĠHuman",
        -9.808065276966593
      ],
      [
        "Ġpresident",
        -9.80934101820825
      ],
      [
        "ĠMedicine",
        -9.809400551591674
      ],
      [
        "ĠRobert",
        -9.810283523700546
      ],
      [
        "Ġturned",
        -9.810414264131134
      ],
      [
        "Ġofficial",
        -9.810585258097817
      ],
      [
        "Ġdetails",
        -9.81061943271004
      ],
      [
        "Ġenter",
        -9.811462499421276
      ],
      [
        "aid",
        -9.81384503220279
      ],
      [
        "ĠProgram",
        -9.814431393334766
      ],
      [
        "Ġcarry",
        -9.815097995227784
      ],
      [
        "Ġ28",
        -9.815639482740334
      ],
      [
        "Ġclaim",
        -9.815749774462171
      ],
      [
        "Ġlived",
        -9.815876398787594
      ],
      [
        "ĠSea",
        -9.816179307559189
      ],
      [
        "Ġpopulations",
        -9.816450531914423
      ],
      [
        "Ġleaders",
        -9.817188556800163
      ],
      [
        "ĠBlack",
        -9.81730226524345
      ],
      [
        "Ġbreast",
        -9.818021917058257
      ],
      [
        "Ġpath",
        -9.819000584198015
      ],
      [
        "Ġchoice",
        -9.819040978787609
      ],
      [
        "25",
        -9.819386680378903
      ],
      [
        "Ġdirector",
        -9.820447851362674
      ],
      [
        "Ġwild",
        -9.821810371576817
      ],
      [
        "Ġgiving",
        -9.82206822468556
      ],
      [
        "ĠSpace",
        -9.8222544044163
      ],
      [
        "ĠMedical",
        -9.822968784281482
      ],
      [
        "Ġproper",
        -9.823543719737287
      ],
      [
        "ĠArmy",
        -9.82394323258179
      ],
      [
        "Ġguide",
        -9.824343986259386
      ],
      [
        "Ġspeak",
        -9.824381986374178
      ],
      [
        "Ġplanning",
        -9.824629018059309
      ],
      [
        "Ġoperations",
        -9.825624913139915
      ],
      [
        "From",
        -9.82659869584933
      ],
      [
        "ary",
        -9.826808265891184
      ],
      [
        "Ġmachine",
        -9.827307370409128
      ],
      [
        "ĠChildren",
        -9.828454085650524
      ],
      [
        "Ġfoot",
        -9.828568596914147
      ],
      [
        "Ġsquare",
        -9.828570995861648
      ],
      [
        "Ġwrong",
        -9.829703252110326
      ],
      [
        "Ġcivil",
        -9.829934130534538
      ],
      [
        "Ġtarget",
        -9.830260965296118
      ],
      [
        "Ġocean",
        -9.832077322413603
      ],
      [
        "Ġperform",
        -9.832108867135572
      ],
      [
        "Ġpeace",
        -9.83218473269948
      ],
      [
        "Ġrock",
        -9.832364905663155
      ],
      [
        "Ġfunctions",
        -9.833125688105143
      ],
      [
        "Ġbottom",
        -9.83338385927819
      ],
      [
        "Ġclearly",
        -9.83427310140095
      ],
      [
        "Ġalternative",
        -9.834927825427204
      ],
      [
        "served",
        -9.834963609989588
      ],
      [
        "Ġsurvey",
        -9.836174154986436
      ],
      [
        "Ġconservation",
        -9.83638211829484
      ],
      [
        "Ġcorrect",
        -9.837161051288554
      ],
      [
        "Ġlearned",
        -9.83733330339994
      ],
      [
        "Ġeveryone",
        -9.837630319726935
      ],
      [
        "Ġmilk",
        -9.837736950332651
      ],
      [
        "Ġplease",
        -9.83882373840203
      ],
      [
        "Ġremove",
        -9.83884140688852
      ],
      [
        "Ġsignal",
        -9.839432257736055
      ],
      [
        "Ġfear",
        -9.839435948605264
      ],
      [
        "Ġslow",
        -9.839748882146983
      ],
      [
        "Q",
        -9.839837100802791
      ],
      [
        "@",
        -9.840602767721524
      ],
      [
        "Ġhelps",
        -9.840648529166916
      ],
      [
        "Ġvision",
        -9.840906131805502
      ],
      [
        "ĠSpanish",
        -9.84322745855878
      ],
      [
        "Ġbone",
        -9.843639138055693
      ],
      [
        "ĠDevelopment",
        -9.8438970841903
      ],
      [
        "Ġliterature",
        -9.843921792983837
      ],
      [
        "Ġexamples",
        -9.843983979048264
      ],
      [
        "Ġadult",
        -9.844928175257262
      ],
      [
        "That",
        -9.845057022545705
      ],
      [
        "Ġ26",
        -9.845437459963698
      ],
      [
        "Ġ1999",
        -9.846422828007372
      ],
      [
        "ĠNow",
        -9.847013839301669
      ],
      [
        "ĠPublic",
        -9.84705540664066
      ],
      [
        "Ġtechnologies",
        -9.8476429227663
      ],
      [
        "Ġproposed",
        -9.848241621527142
      ],
      [
        "Ġchapter",
        -9.849087996709086
      ],
      [
        "Ġsort",
        -9.849336826214133
      ],
      [
        "Ġcovered",
        -9.84935682013301
      ],
      [
        "Ġconsumption",
        -9.849406397510434
      ],
      [
        "Ġevolution",
        -9.84952094465718
      ],
      [
        "Ġfields",
        -9.850543733485384
      ],
      [
        "Ġcreation",
        -9.851963565185178
      ],
      [
        "Ġsigns",
        -9.85199330927081
      ],
      [
        "Ġfrequently",
        -9.85234659405789
      ],
      [
        "Ġbalance",
        -9.852434900020189
      ],
      [
        "Ġcontrast",
        -9.852510014123077
      ],
      [
        "Ġgold",
        -9.853506221309823
      ],
      [
        "Ġwidely",
        -9.853993273090136
      ],
      [
        "Ġdigital",
        -9.854496273392352
      ],
      [
        "ĠProject",
        -9.854652314759436
      ],
      [
        "supported",
        -9.855343768518187
      ],
      [
        "Ġmouth",
        -9.855669042473874
      ],
      [
        "Ġincreases",
        -9.856538704747155
      ],
      [
        "Ġoffers",
        -9.857844825629876
      ],
      [
        "Ġpass",
        -9.858648652257582
      ],
      [
        "ĠEnergy",
        -9.859589340281508
      ],
      [
        "related",
        -9.860448448700474
      ],
      [
        "Ġdisplay",
        -9.8608820213355
      ],
      [
        "ĠThomas",
        -9.8608945098381
      ],
      [
        "Ġactions",
        -9.861358299599647
      ],
      [
        "ĠLibrary",
        -9.861649984626467
      ],
      [
        "Ġgain",
        -9.862194321290756
      ],
      [
        "Ġremained",
        -9.862212577428515
      ],
      [
        "Ġforward",
        -9.864119587743726
      ],
      [
        "Ġthousand",
        -9.864164613192228
      ],
      [
        "Ġreached",
        -9.864385897103949
      ],
      [
        "Ġinternal",
        -9.86439412720468
      ],
      [
        "Ġresistance",
        -9.86486888827374
      ],
      [
        "Ġelectricity",
        -9.864923312512762
      ],
      [
        "ĠHigh",
        -9.86599586942734
      ],
      [
        "Ġperformed",
        -9.866548192914058
      ],
      [
        "Ġextremely",
        -9.867347812245209
      ],
      [
        "<",
        -9.867654942890494
      ],
      [
        "Ġdegrees",
        -9.86782730536976
      ],
      [
        "with",
        -9.869128293868773
      ],
      [
        "They",
        -9.869378486796307
      ],
      [
        "over",
        -9.869539497127915
      ],
      [
        "Ġblock",
        -9.870702087646622
      ],
      [
        "ĠWhite",
        -9.87173127685584
      ],
      [
        "Ġapply",
        -9.872627578678562
      ],
      [
        "Ġ27",
        -9.873497901086298
      ],
      [
        "Ġnumerous",
        -9.874855674693508
      ],
      [
        "Ġfailure",
        -9.875203858630044
      ],
      [
        "Ġisland",
        -9.875349802552114
      ],
      [
        "Ġgenes",
        -9.875524951029764
      ],
      [
        "Ġtruth",
        -9.876121885880837
      ],
      [
        "Ġremember",
        -9.876149607829277
      ],
      [
        "Ġreduction",
        -9.87634858534959
      ],
      [
        "Ġauthority",
        -9.876803398828356
      ],
      [
        "Ġmessage",
        -9.877351441101323
      ],
      [
        "Although",
        -9.877422975921046
      ],
      [
        "ĠPacific",
        -9.877541354657264
      ],
      [
        "Ġsend",
        -9.877583223761896
      ],
      [
        "Ġstructures",
        -9.878058384635452
      ],
      [
        "Ġbattle",
        -9.87843621159105
      ],
      [
        "Ġorganic",
        -9.879493279127455
      ],
      [
        "are",
        -9.879537231128218
      ],
      [
        "ĠOur",
        -9.88017545711703
      ],
      [
        "Ġcharge",
        -9.881159068525674
      ],
      [
        "Ġarmy",
        -9.881317367307789
      ],
      [
        "Ġseek",
        -9.881755299819604
      ],
      [
        "Ġdetermined",
        -9.881819903267616
      ],
      [
        "Ġhuge",
        -9.881952765784243
      ],
      [
        "referred",
        -9.88347793387991
      ],
      [
        "Ġtask",
        -9.88418136630384
      ],
      [
        "ĠInformation",
        -9.884249160027586
      ],
      [
        "Ġrequirements",
        -9.884885891758527
      ],
      [
        "Ġradio",
        -9.884920934278227
      ],
      [
        "New",
        -9.885006550601162
      ],
      [
        "ĠNot",
        -9.886910476535572
      ],
      [
        "Ġcoast",
        -9.88831227307722
      ],
      [
        "Ġunits",
        -9.888962414006413
      ],
      [
        "ĠAsia",
        -9.889215288808971
      ],
      [
        "Ġchief",
        -9.889441276900966
      ],
      [
        "Ġstrength",
        -9.890013857535756
      ],
      [
        "Ġchallenge",
        -9.89009863678341
      ],
      [
        "Ġoccurred",
        -9.89015585673662
      ],
      [
        "Ġwest",
        -9.8908400093676
      ],
      [
        "18",
        -9.890894164150424
      ],
      [
        "Ġurban",
        -9.891306518349792
      ],
      [
        "Ġnote",
        -9.891590858003704
      ],
      [
        "Ġinitial",
        -9.892739491011756
      ],
      [
        "Ġcomponents",
        -9.89297868449764
      ],
      [
        "Ġspeech",
        -9.893576220147176
      ],
      [
        "kept",
        -9.894600899352875
      ],
      [
        "Ġstatement",
        -9.894618739115655
      ],
      [
        "Ġbodies",
        -9.89485833569351
      ],
      [
        "Ġimmune",
        -9.89603037233437
      ],
      [
        "Ġcredit",
        -9.89712459408334
      ],
      [
        "ĠLaw",
        -9.897719864911444
      ],
      [
        "Ġtemperatures",
        -9.89816406211619
      ],
      [
        "Ġadvance",
        -9.89869015868655
      ],
      [
        "Using",
        -9.898779711558294
      ],
      [
        "ĠSystem",
        -9.899190082588994
      ],
      [
        "Ġoperation",
        -9.899303786844648
      ],
      [
        "Ġnotes",
        -9.899942498456944
      ],
      [
        "Ġarticles",
        -9.900384155816578
      ],
      [
        "removed",
        -9.90152964344982
      ],
      [
        "Ġcontribute",
        -9.901728372538097
      ],
      [
        "Ġsignificantly",
        -9.90224253224566
      ],
      [
        "ĠOffice",
        -9.902318112651518
      ],
      [
        "Ġdie",
        -9.902323534083031
      ],
      [
        "Ġfinding",
        -9.903429464247234
      ],
      [
        "Ġpolicies",
        -9.904189486975648
      ],
      [
        "Ġsteps",
        -9.90488994219954
      ],
      [
        "Ġdiscuss",
        -9.904931919642172
      ],
      [
        "ĠCatholic",
        -9.906356069841936
      ],
      [
        "Ġsexual",
        -9.907079496151235
      ],
      [
        "Ġwood",
        -9.907722322879666
      ],
      [
        "Ġfine",
        -9.907823379213928
      ],
      [
        "Ġcitizens",
        -9.909583650386152
      ],
      [
        "Ġfight",
        -9.90967273096124
      ],
      [
        "ĠVirginia",
        -9.911214539172825
      ],
      [
        "Ġopinion",
        -9.91166812788543
      ],
      [
        "Ġcycle",
        -9.912343216035191
      ],
      [
        "Ġconcern",
        -9.912812938099526
      ],
      [
        "Ġitems",
        -9.912944803710053
      ],
      [
        "Ġachieve",
        -9.91315724618165
      ],
      [
        "Ġstem",
        -9.914549629482028
      ],
      [
        "Ġbroad",
        -9.914888487394354
      ],
      [
        "Ġresulting",
        -9.915549198904309
      ],
      [
        "Ġindustrial",
        -9.915763330614691
      ],
      [
        "ĠFoundation",
        -9.915869179549537
      ],
      [
        "Ġsurgery",
        -9.915890405034222
      ],
      [
        "Ġpages",
        -9.917226135921712
      ],
      [
        "Ġrelative",
        -9.91786182262615
      ],
      [
        "Ġvote",
        -9.917975024694414
      ],
      [
        "Ġbuildings",
        -9.918741690437011
      ],
      [
        "ĠBe",
        -9.919983642131353
      ],
      [
        "Ġassessment",
        -9.92165164470215
      ],
      [
        "Ġspent",
        -9.92177245450548
      ],
      [
        "Many",
        -9.922114151443562
      ],
      [
        "Ġdraw",
        -9.922183551733433
      ],
      [
        "more",
        -9.923924299134704
      ],
      [
        "Ġwall",
        -9.925208138442704
      ],
      [
        "Ġwarm",
        -9.925319453987989
      ],
      [
        "Ġencourage",
        -9.925633105460458
      ],
      [
        "Ġfeed",
        -9.926294592330338
      ],
      [
        "Ġindicate",
        -9.927236356767905
      ],
      [
        "Ġ1998",
        -9.928948908906078
      ],
      [
        "Ġboard",
        -9.929256733255478
      ],
      [
        "Ġviolence",
        -9.929518817967809
      ],
      [
        "Ġconflict",
        -9.929554679956135
      ],
      [
        "Ġofficials",
        -9.929824826599072
      ],
      [
        "old",
        -9.92991536058832
      ],
      [
        "returned",
        -9.93000295484774
      ],
      [
        "Ġextensive",
        -9.930085966207688
      ],
      [
        "Ġpersons",
        -9.93017120814994
      ],
      [
        "thousands",
        -9.93070474380586
      ],
      [
        "Ġpreviously",
        -9.930825447220183
      ],
      [
        "Ġmeat",
        -9.931415473626274
      ],
      [
        "Other",
        -9.931546932109054
      ],
      [
        "Ġdebate",
        -9.93320622967567
      ],
      [
        "Ġfirm",
        -9.933866398049506
      ],
      [
        "Ġeast",
        -9.93454053578403
      ],
      [
        "Ġhappen",
        -9.934578963743292
      ],
      [
        "Ġopportunities",
        -9.934817849876026
      ],
      [
        "American",
        -9.935113850399787
      ],
      [
        "Â©",
        -9.936253496704287
      ],
      [
        "Ġhelped",
        -9.936963298568928
      ],
      [
        "Ġenjoy",
        -9.937843417905606
      ],
      [
        "Most",
        -9.938837309606958
      ],
      [
        "17",
        -9.93914011302988
      ],
      [
        "Ġbecoming",
        -9.93943844839974
      ],
      [
        "Ġmanner",
        -9.94036461070436
      ],
      [
        "looked",
        -9.940567152677326
      ],
      [
        "Ġmetal",
        -9.940746591772283
      ],
      [
        "Ġprior",
        -9.940864289484306
      ],
      [
        "Ġexpect",
        -9.94107559323082
      ],
      [
        "Ġrepresent",
        -9.941264234923771
      ],
      [
        "ĠLake",
        -9.941329520281808
      ],
      [
        "Ġorigin",
        -9.942445552501528
      ],
      [
        "Ġprinciples",
        -9.942498409841134
      ],
      [
        "Ġhour",
        -9.942525510193423
      ],
      [
        "Ġoutput",
        -9.94350248664611
      ],
      [
        "ĠLatin",
        -9.94370987572396
      ],
      [
        "Ġcharacteristics",
        -9.94480819319814
      ],
      [
        "Ġfaith",
        -9.945431834023069
      ],
      [
        "ĠBritain",
        -9.945556130568152
      ],
      [
        "Ġstrategies",
        -9.946075541667732
      ],
      [
        "ĠCentral",
        -9.9462479555878
      ],
      [
        "Ġauthors",
        -9.946454809360208
      ],
      [
        "Ġstand",
        -9.947139276842458
      ],
      [
        "Ġexistence",
        -9.947198102546974
      ],
      [
        "Ġwanted",
        -9.947729160304869
      ],
      [
        "Ġexplore",
        -9.949082099941352
      ],
      [
        "Ġalcohol",
        -9.949176377291884
      ],
      [
        "Ġclasses",
        -9.949608743289808
      ],
      [
        "Ġsurrounding",
        -9.949739220262916
      ],
      [
        "19",
        -9.950327913567287
      ],
      [
        "Ġhear",
        -9.951720448066306
      ],
      [
        "Ġaspects",
        -9.95250168950328
      ],
      [
        "Ġinstitutions",
        -9.952736315786089
      ],
      [
        "Ġmotion",
        -9.953069558840294
      ],
      [
        "ĠAir",
        -9.95340386959342
      ],
      [
        "Ġfit",
        -9.95352329124112
      ],
      [
        "Ġintended",
        -9.95364598789475
      ],
      [
        "More",
        -9.954054144152297
      ],
      [
        "Ġwestern",
        -9.954570994838347
      ],
      [
        "ĠCivil",
        -9.95503745338001
      ],
      [
        "Ġoxygen",
        -9.955216519080928
      ],
      [
        "Ġ80",
        -9.956064286611978
      ],
      [
        "ĠSun",
        -9.956792642049994
      ],
      [
        "Ġconnection",
        -9.95721266798637
      ],
      [
        "Ġextent",
        -9.957807700532824
      ],
      [
        "Ġkm",
        -9.958282488266384
      ],
      [
        "Ġacademic",
        -9.959790395033025
      ],
      [
        "Ġbackground",
        -9.961053259007912
      ],
      [
        "Ġdecided",
        -9.9618475027607
      ],
      [
        "Ġexpression",
        -9.962200920287463
      ],
      [
        "Ġcompleted",
        -9.962467224821202
      ],
      [
        "Ġvoice",
        -9.962621208044224
      ],
      [
        "Ġsaying",
        -9.963062831194817
      ],
      [
        "Ġvaccine",
        -9.963939848085698
      ],
      [
        "Ġexposed",
        -9.964489788933951
      ],
      [
        "Ġdog",
        -9.964570303126315
      ],
      [
        "ĠRed",
        -9.964680035836237
      ],
      [
        "Ġdescribe",
        -9.964894948926794
      ],
      [
        "Ġadvanced",
        -9.96554672881841
      ],
      [
        "Ġmoral",
        -9.965789413538308
      ],
      [
        "Ġextra",
        -9.966329795450674
      ],
      [
        "ĠCharles",
        -9.967340784831764
      ],
      [
        "Ġanyone",
        -9.96742564708916
      ],
      [
        "Ġfarmers",
        -9.967821326130538
      ],
      [
        "Ġreality",
        -9.967960041364774
      ],
      [
        "Ġhabitat",
        -9.96856494313056
      ],
      [
        "Ġmulti",
        -9.969234306096537
      ],
      [
        "ĠUK",
        -9.96924786697075
      ],
      [
        "Ġtechnique",
        -9.969884546112592
      ],
      [
        "Ġforced",
        -9.970473267077988
      ],
      [
        "No",
        -9.970882787855608
      ],
      [
        "Ġiron",
        -9.971181931332035
      ],
      [
        "Ġheard",
        -9.971507792661397
      ],
      [
        "Ġhair",
        -9.972790022983869
      ],
      [
        "Ġcent",
        -9.972812929624338
      ],
      [
        "Ġlargely",
        -9.973303504837729
      ],
      [
        "Ġcoal",
        -9.974262073120189
      ],
      [
        "ley",
        -9.97537913122184
      ],
      [
        "Ġexcept",
        -9.975707544350549
      ],
      [
        "Ġrecommended",
        -9.97573925327659
      ],
      [
        "Ġraise",
        -9.97659540983276
      ],
      [
        "Ġliquid",
        -9.978027709314889
      ],
      [
        "Ġprimarily",
        -9.978416628943856
      ],
      [
        "Ġtechnical",
        -9.979708555528424
      ],
      [
        "Ġsetting",
        -9.980135616074936
      ],
      [
        "Ġchanging",
        -9.980170114292932
      ],
      [
        "Ġobvious",
        -9.980237511023256
      ],
      [
        "Ġdecline",
        -9.98237509708651
      ],
      [
        "Ġabuse",
        -9.98393604823766
      ],
      [
        "Ġ200",
        -9.984452230818224
      ],
      [
        "Ġdisorders",
        -9.984515598215612
      ],
      [
        "exactly",
        -9.9857520150606
      ],
      [
        "Ġlimit",
        -9.986131636044098
      ],
      [
        "Ġinterested",
        -9.98621728938372
      ],
      [
        "Ġhost",
        -9.987175769103906
      ],
      [
        "Ġstars",
        -9.987483022889435
      ],
      [
        "appeared",
        -9.987842655277085
      ],
      [
        "Ġextreme",
        -9.98786597652895
      ],
      [
        "Ġreflect",
        -9.98812235318055
      ],
      [
        "Ġrefer",
        -9.98916629654607
      ],
      [
        "Ġemail",
        -9.98984163485537
      ],
      [
        "Ġdepression",
        -9.99082423787461
      ],
      [
        "ĠLife",
        -9.992683347764585
      ],
      [
        "off",
        -9.992703116450851
      ],
      [
        "Ġstation",
        -9.992763215811165
      ],
      [
        "side",
        -9.992775203907623
      ],
      [
        "Ġrecorded",
        -9.993600811219869
      ],
      [
        "ĠCommission",
        -9.99386220265204
      ],
      [
        "Ġmet",
        -9.994686637975596
      ],
      [
        "Ġbill",
        -9.995428098298085
      ],
      [
        "Ġagricultural",
        -9.995939088788218
      ],
      [
        "Ġfeature",
        -9.99654079494543
      ],
      [
        "ĠEnvironmental",
        -9.996893652042209
      ],
      [
        "Ġ90",
        -9.99729272070968
      ],
      [
        "Ġdefinition",
        -9.997768622379194
      ],
      [
        "Ġwife",
        -9.997897500288577
      ],
      [
        "ĠGreen",
        -9.99838092467657
      ],
      [
        "ĠBook",
        -9.998755951336028
      ],
      [
        "Ġcore",
        -9.999365694284904
      ],
      [
        "Ġbird",
        -9.9994642982856
      ],
      [
        "Ġstarting",
        -9.99954569490623
      ],
      [
        "Ġbiological",
        -10.00000877173914
      ],
      [
        "00",
        -10.000159018861536
      ],
      [
        "Ġaim",
        -10.000385166794372
      ],
      [
        "Ġfinally",
        -10.001128956913355
      ],
      [
        "Ġengineering",
        -10.001925298669905
      ],
      [
        "Ġoffered",
        -10.00254060839163
      ],
      [
        "Ġbrief",
        -10.003104594312724
      ],
      [
        "Ġlinks",
        -10.004016836517632
      ],
      [
        "Ġhit",
        -10.004969074390884
      ],
      [
        "Ġformation",
        -10.005468553151614
      ],
      [
        "Ġdecisions",
        -10.005637598368995
      ],
      [
        "Ġstorage",
        -10.00648315819742
      ],
      [
        "Ġmuscle",
        -10.006772738963424
      ],
      [
        "Ġ1997",
        -10.006806803127722
      ],
      [
        "Ġcausing",
        -10.006851877022363
      ],
      [
        "Ġfacilities",
        -10.007565916865431
      ],
      [
        "Ġheight",
        -10.00765721712944
      ],
      [
        "Ġobtain",
        -10.008136550194124
      ],
      [
        "j",
        -10.008219472870444
      ],
      [
        "Ġsex",
        -10.010602019992804
      ],
      [
        "Ġteach",
        -10.012285567780262
      ],
      [
        "Ġ29",
        -10.01231237258828
      ],
      [
        "Ġcombined",
        -10.01384106791523
      ],
      [
        "Ġsolid",
        -10.0143215458156
      ],
      [
        "ĠBay",
        -10.015255009274822
      ],
      [
        "ists",
        -10.015475924661082
      ],
      [
        "Ġdouble",
        -10.015814543868268
      ],
      [
        "Ġadvantage",
        -10.015917503439658
      ],
      [
        "Ġraised",
        -10.01667348363887
      ],
      [
        "Ġregarding",
        -10.016915339843033
      ],
      [
        "Ġnations",
        -10.01802883665088
      ],
      [
        "Ġreaction",
        -10.019491529217015
      ],
      [
        "Ġpurposes",
        -10.019553171135394
      ],
      [
        "Ġfresh",
        -10.02032556230075
      ],
      [
        "ĠTechnology",
        -10.020624413096227
      ],
      [
        "Ġvisual",
        -10.02112534663032
      ],
      [
        "ĠOr",
        -10.021630529271626
      ],
      [
        "Ġgreatest",
        -10.02172680471704
      ],
      [
        "divided",
        -10.022125371457944
      ],
      [
        "Ġcenturies",
        -10.022180231309962
      ],
      [
        "Ġcareer",
        -10.022295280438538
      ],
      [
        "Ġcouple",
        -10.022402529910488
      ],
      [
        "Ġleader",
        -10.024155734324328
      ],
      [
        "from",
        -10.025017782737644
      ],
      [
        "Ġship",
        -10.025086714732993
      ],
      [
        "Ġexchange",
        -10.025113134785688
      ],
      [
        "Ġcamera",
        -10.0252876242803
      ],
      [
        "Ġexperts",
        -10.025577383871322
      ],
      [
        "Ġexperiment",
        -10.026392103639884
      ],
      [
        "Ġpolice",
        -10.027772027853816
      ],
      [
        "Ġideal",
        -10.028036997596931
      ],
      [
        "be",
        -10.028596520821525
      ],
      [
        "led",
        -10.02865521518834
      ],
      [
        "ĠFlorida",
        -10.029041103545309
      ],
      [
        "Ġparticipants",
        -10.029123681617182
      ],
      [
        "ĠCommittee",
        -10.029786302564116
      ],
      [
        "Ġsuggested",
        -10.030236351630585
      ],
      [
        "Ġrequest",
        -10.030265984315893
      ],
      [
        "Ġprocedure",
        -10.030900437225064
      ],
      [
        "Ġpollution",
        -10.031415173146703
      ],
      [
        "Ġgoals",
        -10.031643683106925
      ],
      [
        "Ġdetailed",
        -10.032584109307187
      ],
      [
        "Ġdecrease",
        -10.033111404188462
      ],
      [
        "Ġtrial",
        -10.034635331807948
      ],
      [
        "ĠFederal",
        -10.03497942491158
      ],
      [
        "ĠCompany",
        -10.035396853561805
      ],
      [
        "Ġroot",
        -10.035414514323731
      ],
      [
        "Ġdomestic",
        -10.035965793210025
      ],
      [
        "ĠMiddle",
        -10.036107855836711
      ],
      [
        "Ġagencies",
        -10.036644595051513
      ],
      [
        "Ġyourself",
        -10.03678786051256
      ],
      [
        "Ġready",
        -10.039091232701614
      ],
      [
        "Ġkill",
        -10.039226318286897
      ],
      [
        "Ġconcerns",
        -10.03949704024689
      ],
      [
        "Ġparticles",
        -10.040265823107802
      ],
      [
        "Ġmentioned",
        -10.04035663146531
      ],
      [
        "Ġchallenges",
        -10.040671549020622
      ],
      [
        "Ġhousehold",
        -10.040692486523987
      ],
      [
        "Ġwarming",
        -10.040940457227912
      ],
      [
        "Ġimproved",
        -10.041439045488806
      ],
      [
        "Ġpractical",
        -10.041531552529651
      ],
      [
        "Ġoptions",
        -10.043525806893696
      ],
      [
        "Ġreducing",
        -10.043778383743444
      ],
      [
        "Ġoperating",
        -10.043993830388906
      ],
      [
        "Ġvast",
        -10.044589416453816
      ],
      [
        "Ġfundamental",
        -10.04544727525428
      ],
      [
        "Now",
        -10.045711955722387
      ],
      [
        "Ġyield",
        -10.046338622924846
      ],
      [
        "Ġconnected",
        -10.047178837462097
      ],
      [
        "Ġprices",
        -10.04735943637256
      ],
      [
        "Ġdangerous",
        -10.04739858716607
      ],
      [
        "Ġillness",
        -10.048493272668642
      ],
      [
        "Ġotherwise",
        -10.048686027509886
      ],
      [
        "Ġ70",
        -10.049051561844548
      ],
      [
        "Ġcollected",
        -10.050098435289064
      ],
      [
        "Ġjoint",
        -10.050130098053442
      ],
      [
        "Ġtradition",
        -10.05058823807978
      ],
      [
        "Ġmorning",
        -10.051422154313434
      ],
      [
        "Ġtopic",
        -10.051911473519336
      ],
      [
        "ĠCanadian",
        -10.05299104408688
      ],
      [
        "Ġglass",
        -10.053201047064904
      ],
      [
        "played",
        -10.054184351847388
      ],
      [
        "Ġinfections",
        -10.055402280891736
      ],
      [
        "Ġlibrary",
        -10.055589617253538
      ],
      [
        "Ġjournal",
        -10.056622752215134
      ],
      [
        "ĠSocial",
        -10.057285915920668
      ],
      [
        "50",
        -10.057860136911827
      ],
      [
        "Ġprepared",
        -10.058259801995453
      ],
      [
        "Ġconstant",
        -10.059011415247484
      ],
      [
        "Ġdiagnosis",
        -10.059748569484428
      ],
      [
        "Ġfrequency",
        -10.060114758504731
      ],
      [
        "Ġround",
        -10.06013016169294
      ],
      [
        "easier",
        -10.060341704344792
      ],
      [
        "500",
        -10.061395495484852
      ],
      [
        "ĠHenry",
        -10.061546185277658
      ],
      [
        "Ġchronic",
        -10.061867834339337
      ],
      [
        "Ġrecognize",
        -10.061880999410423
      ],
      [
        "Ġstudied",
        -10.061923747358204
      ],
      [
        "ĠOld",
        -10.06208214519337
      ],
      [
        "ĠFood",
        -10.062895508599714
      ],
      [
        "Ġsamples",
        -10.063079200992476
      ],
      [
        "Ġuniverse",
        -10.06430044938408
      ],
      [
        "Therefore",
        -10.064380298964336
      ],
      [
        "Ġmarriage",
        -10.064620136834268
      ],
      [
        "Ġprinciple",
        -10.065400381523489
      ],
      [
        "Ġ1980",
        -10.065905184555715
      ],
      [
        "22",
        -10.066600136451116
      ],
      [
        "Ġtrack",
        -10.066686024714969
      ],
      [
        "Ġlinked",
        -10.066744985524007
      ],
      [
        "Ġhospital",
        -10.067003750431764
      ],
      [
        "Ġelement",
        -10.067402027042862
      ],
      [
        "ĠWhy",
        -10.067598930468533
      ],
      [
        "Ġrecognized",
        -10.06764149201286
      ],
      [
        "Ġrecommend",
        -10.07019274608292
      ],
      [
        "ĠBible",
        -10.070693311888116
      ],
      [
        "24",
        -10.07178968562493
      ],
      [
        "Ġemergency",
        -10.071910495117327
      ],
      [
        "However",
        -10.072083873047664
      ],
      [
        "Ġplastic",
        -10.072119761559348
      ],
      [
        "Ġdatabase",
        -10.073288704761818
      ],
      [
        "Ġdepartment",
        -10.073771186816389
      ],
      [
        "Ġamounts",
        -10.074091700048571
      ],
      [
        "ĠMary",
        -10.07431372616113
      ],
      [
        "ĠRights",
        -10.075405372925822
      ],
      [
        "Ġstruggle",
        -10.077020780111578
      ],
      [
        "ĠRussian",
        -10.078387182693753
      ],
      [
        "Ġspirit",
        -10.078729391158086
      ],
      [
        "Ġcontinues",
        -10.079377030893726
      ],
      [
        "Ġchemicals",
        -10.080006159327946
      ],
      [
        "Ġsnow",
        -10.080469422658773
      ],
      [
        "ment",
        -10.08099051355932
      ],
      [
        "Ġobtained",
        -10.081250727052554
      ],
      [
        "Ġdiscovery",
        -10.08144029305335
      ],
      [
        "Ġ1996",
        -10.08151083600116
      ],
      [
        "ĠTwo",
        -10.081538629582562
      ],
      [
        "Ġelectrical",
        -10.082084505835724
      ],
      [
        "ĠSoviet",
        -10.08212489912262
      ],
      [
        "Ġagree",
        -10.083176054589918
      ],
      [
        "Ġworth",
        -10.083823574964676
      ],
      [
        "Ġgarden",
        -10.084130050284925
      ],
      [
        "Ġcontaining",
        -10.085273575340798
      ],
      [
        "Ġyellow",
        -10.085494998916118
      ],
      [
        "Ġvitamin",
        -10.086364302421767
      ],
      [
        "capable",
        -10.08675062464801
      ],
      [
        "Ġeggs",
        -10.086889279747398
      ],
      [
        "Ġlatter",
        -10.087388010235006
      ],
      [
        "Ġmeasured",
        -10.087533575687628
      ],
      [
        "Ġlanguages",
        -10.08862632049063
      ],
      [
        "Ġflight",
        -10.088711537312472
      ],
      [
        "Ġmis",
        -10.088754367194865
      ],
      [
        "Ġregional",
        -10.089325422362483
      ],
      [
        "Ġfarm",
        -10.089525373824827
      ],
      [
        "ĠNews",
        -10.089924589672725
      ],
      [
        "Ġsyndrome",
        -10.090343009194685
      ],
      [
        "Ġdocuments",
        -10.09099324883988
      ],
      [
        "Ġspend",
        -10.091040646817724
      ],
      [
        "Ġbegins",
        -10.09107984151274
      ],
      [
        "Ġrapidly",
        -10.091085543928664
      ],
      [
        "Ġenable",
        -10.09139219339297
      ],
      [
        "X",
        -10.092140551441354
      ],
      [
        "Ġfelt",
        -10.092164147994977
      ],
      [
        "tried",
        -10.09312202194209
      ],
      [
        "water",
        -10.094803500921392
      ],
      [
        "Ġsalt",
        -10.095196903182748
      ],
      [
        "Ġaware",
        -10.095225901071888
      ],
      [
        "Ġpoverty",
        -10.096692228962336
      ],
      [
        "Ġlose",
        -10.096731066591152
      ],
      [
        "Ġengine",
        -10.096809666750186
      ],
      [
        "Ġgrade",
        -10.097393784456878
      ],
      [
        "Ġefficiency",
        -10.097870193845807
      ],
      [
        "Ġinjury",
        -10.09871443522301
      ],
      [
        "Our",
        -10.09880436133919
      ],
      [
        "Ġexternal",
        -10.099379086712943
      ],
      [
        "Ġstone",
        -10.099862885483684
      ],
      [
        "Ġdrinking",
        -10.100335408717536
      ],
      [
        "ĠMars",
        -10.10059779688684
      ],
      [
        "Ġ1995",
        -10.100960403703336
      ],
      [
        "21",
        -10.10132067970505
      ],
      [
        "Ġdistrict",
        -10.10227326223736
      ],
      [
        "Ġsoldiers",
        -10.10314968531621
      ],
      [
        "listed",
        -10.103180350004148
      ],
      [
        "ĠGroup",
        -10.103442132815408
      ],
      [
        "not",
        -10.10371798867137
      ],
      [
        "Ġtroops",
        -10.10374756789853
      ],
      [
        "Ġformat",
        -10.104524071172255
      ],
      [
        "Ġbuy",
        -10.104591139659194
      ],
      [
        "Ġconcerned",
        -10.104812962989962
      ],
      [
        "Ġselected",
        -10.105257242282114
      ],
      [
        "Ġhearing",
        -10.105467387619928
      ],
      [
        "Ġperfect",
        -10.105953613034083
      ],
      [
        "Ġthreat",
        -10.106101687358382
      ],
      [
        "Ġmountain",
        -10.106161509825627
      ],
      [
        "Ġfunding",
        -10.10663197237342
      ],
      [
        "ĠSmith",
        -10.106858737909826
      ],
      [
        "Ġyouth",
        -10.107337124793863
      ],
      [
        "knew",
        -10.108119194217318
      ],
      [
        "Ġletters",
        -10.109169229128655
      ],
      [
        "ĠSuch",
        -10.111120113417108
      ],
      [
        "Ġslightly",
        -10.111150936210818
      ],
      [
        "unless",
        -10.111297780238466
      ],
      [
        "Here",
        -10.112773227861908
      ],
      [
        "Â·",
        -10.11287450351571
      ],
      [
        "Ġgenerate",
        -10.113744555954517
      ],
      [
        "Ġargument",
        -10.11396455945052
      ],
      [
        "focused",
        -10.11404664214288
      ],
      [
        "derived",
        -10.11445927363157
      ],
      [
        "Ġtypical",
        -10.11559033145904
      ],
      [
        "such",
        -10.116118444335344
      ],
      [
        "ĠWomen",
        -10.11697890061418
      ],
      [
        "Ġtaught",
        -10.117299150656796
      ],
      [
        "Ġselection",
        -10.117672234388689
      ],
      [
        "ĠMy",
        -10.11783548316432
      ],
      [
        "opened",
        -10.117853204699092
      ],
      [
        "Ġresponsibility",
        -10.11813182351388
      ],
      [
        "ĠNature",
        -10.11847671410902
      ],
      [
        "Ġclosely",
        -10.11858163855956
      ],
      [
        "Ġflu",
        -10.118601237925002
      ],
      [
        "Ġrespond",
        -10.119378513756182
      ],
      [
        "Ġdefine",
        -10.119385808478208
      ],
      [
        "Ġmoon",
        -10.119637792123484
      ],
      [
        "Ġrural",
        -10.120813585489577
      ],
      [
        "Ġwalk",
        -10.12161572696019
      ],
      [
        "Ġpassage",
        -10.121655138210624
      ],
      [
        "Ġclaims",
        -10.122543350937178
      ],
      [
        "Ġsequence",
        -10.12287367564764
      ],
      [
        "founded",
        -10.125384208346109
      ],
      [
        "Ġpress",
        -10.125590256278365
      ],
      [
        "Ġtested",
        -10.126113377880754
      ],
      [
        "ĠCarolina",
        -10.126239721121207
      ],
      [
        "Ġinvolves",
        -10.1263174227661
      ],
      [
        "adopted",
        -10.126635800647728
      ],
      [
        "example",
        -10.128223908256713
      ],
      [
        "Ġelectric",
        -10.12925040294282
      ],
      [
        "Ġcopy",
        -10.129372578036476
      ],
      [
        "mainly",
        -10.129945497993951
      ],
      [
        "Ġpanel",
        -10.130699827532986
      ],
      [
        "Ġstrategy",
        -10.131125944857857
      ],
      [
        "certainly",
        -10.131374780306542
      ],
      [
        "wise",
        -10.131815327633229
      ],
      [
        "Ġpieces",
        -10.132015885376072
      ],
      [
        "Ġclick",
        -10.132274835457102
      ],
      [
        "Ġexplained",
        -10.13235175487678
      ],
      [
        "ĠSouthern",
        -10.13249822746052
      ],
      [
        "Ġcomponent",
        -10.13449355736671
      ],
      [
        "inches",
        -10.136283581486945
      ],
      [
        "Ġexplanation",
        -10.136549024764266
      ],
      [
        "Ġdecade",
        -10.136636413791177
      ],
      [
        "specifically",
        -10.136676146552825
      ],
      [
        "Ġappearance",
        -10.137032502829625
      ],
      [
        "Ġexamine",
        -10.137365619158128
      ],
      [
        "Ġprocessing",
        -10.137989473039251
      ],
      [
        "ĠJoseph",
        -10.13804360207032
      ],
      [
        "Ġmarine",
        -10.138503359708276
      ],
      [
        "Ġestablish",
        -10.13859221411239
      ],
      [
        "ĠControl",
        -10.138597672953894
      ],
      [
        "Ġkinds",
        -10.138648869032965
      ],
      [
        "Ġoperate",
        -10.138895797866
      ],
      [
        "Ġadministration",
        -10.13993975820136
      ],
      [
        "Ġbeautiful",
        -10.140044340836416
      ],
      [
        "Ġcrops",
        -10.140124070429955
      ],
      [
        "Ġrapid",
        -10.140124401713178
      ],
      [
        "ĠBoth",
        -10.14147642328141
      ],
      [
        "Ġsubjects",
        -10.141597214814205
      ],
      [
        "Ġexperiences",
        -10.141891066140056
      ],
      [
        "filled",
        -10.142088730896385
      ],
      [
        "Ġhomes",
        -10.142154584830116
      ],
      [
        "Ġrelevant",
        -10.14234919031792
      ],
      [
        "ĠPeter",
        -10.14263954215716
      ],
      [
        "Ġfluid",
        -10.143823194071471
      ],
      [
        "Ġbox",
        -10.14407320782578
      ],
      [
        "Among",
        -10.1441755375722
      ],
      [
        "Ġaccept",
        -10.14464349500573
      ],
      [
        "Ġaircraft",
        -10.145099595546748
      ],
      [
        "Ġexperienced",
        -10.146096907421292
      ],
      [
        "Ġfriend",
        -10.146786466716453
      ],
      [
        "Instead",
        -10.14742117257266
      ],
      [
        "ill",
        -10.14762417439494
      ],
      [
        "100",
        -10.147792798833253
      ],
      [
        "Ġcorn",
        -10.14807221305898
      ],
      [
        "Ġstock",
        -10.148879367467828
      ],
      [
        "Ġfiles",
        -10.149252705668571
      ],
      [
        "Ġedition",
        -10.149254185402494
      ],
      [
        "Ġtransport",
        -10.149986383723908
      ],
      [
        "Ġfloor",
        -10.150405651164816
      ],
      [
        "Ġwave",
        -10.150989290453422
      ],
      [
        "Ġeffectively",
        -10.151364939908788
      ],
      [
        "Ġprincipal",
        -10.15158887032666
      ],
      [
        "Ġgames",
        -10.1520322715634
      ],
      [
        "Ġnovel",
        -10.15254756669676
      ],
      [
        "Ġefficient",
        -10.153034701683715
      ],
      [
        "Ġhappens",
        -10.153163841814536
      ],
      [
        "Ġaccepted",
        -10.155292543585134
      ],
      [
        "Ġcontrolled",
        -10.155311321428291
      ],
      [
        "Ġoriginally",
        -10.155458252766945
      ],
      [
        "Ġlatest",
        -10.15587298043374
      ],
      [
        "Ġmonitoring",
        -10.156156269809417
      ],
      [
        "Ġpark",
        -10.156830680506443
      ],
      [
        "Ġresidents",
        -10.157796136094015
      ],
      [
        "Ġ1970",
        -10.157861705837576
      ],
      [
        "Ġvisible",
        -10.158002578305132
      ],
      [
        "Ġconduct",
        -10.158146961626048
      ],
      [
        "Ġdrawing",
        -10.15855129815541
      ],
      [
        "ĠCan",
        -10.158610268646262
      ],
      [
        "ĠEgypt",
        -10.158637596727017
      ],
      [
        "01",
        -10.158860569823217
      ],
      [
        "ĠStudies",
        -10.158861735038814
      ],
      [
        "Ġproperly",
        -10.159004300604618
      ],
      [
        "depending",
        -10.159019905259022
      ],
      [
        "Ġonto",
        -10.15908092848695
      ],
      [
        "Ġsold",
        -10.160215831429769
      ],
      [
        "Ġdespite",
        -10.160779161239809
      ],
      [
        "ĠArt",
        -10.161592413367496
      ],
      [
        "but",
        -10.161621356528968
      ],
      [
        "Ġforests",
        -10.162954625311457
      ],
      [
        "Despite",
        -10.164156461493372
      ],
      [
        "Ġ31",
        -10.164650912163196
      ],
      [
        "ĠStudents",
        -10.165073316199424
      ],
      [
        "ĠCO",
        -10.16590599380814
      ],
      [
        "Ġteeth",
        -10.165988337191258
      ],
      [
        "Ġregard",
        -10.16603912162476
      ],
      [
        "ĠOnce",
        -10.166085862431688
      ],
      [
        "Ġmanage",
        -10.16619209344216
      ],
      [
        "free",
        -10.1666434898778
      ],
      [
        "Ġpaid",
        -10.166999922839782
      ],
      [
        "Ġmassive",
        -10.167091345612588
      ],
      [
        "ĠRussia",
        -10.16758728385232
      ],
      [
        "Ġdesire",
        -10.167789393794502
      ],
      [
        "Ġdoubt",
        -10.167988891939617
      ],
      [
        "all",
        -10.168010138961629
      ],
      [
        "married",
        -10.168067976362444
      ],
      [
        "Ġmaximum",
        -10.17016032644413
      ],
      [
        "Ġdepth",
        -10.170397810098724
      ],
      [
        "Ġscreen",
        -10.170671689877215
      ],
      [
        "Ġjobs",
        -10.170771930255372
      ],
      [
        "Ġshift",
        -10.17095344691772
      ],
      [
        "showing",
        -10.171316007086338
      ],
      [
        "Ġlaboratory",
        -10.172026018222027
      ],
      [
        "Ġhappened",
        -10.17208020590457
      ],
      [
        "Ġfollows",
        -10.17208399827293
      ],
      [
        "keeping",
        -10.17268589773521
      ],
      [
        "gov",
        -10.172696299111848
      ],
      [
        "called",
        -10.172722437364976
      ],
      [
        "Ġdetail",
        -10.172930811515128
      ],
      [
        "Ġincreasingly",
        -10.173377807185554
      ],
      [
        "Ġfun",
        -10.174493677814892
      ],
      [
        "ĠUN",
        -10.17456112308738
      ],
      [
        "Ġsurvive",
        -10.174612961112446
      ],
      [
        "ĠRepublic",
        -10.174853936103675
      ],
      [
        "Ġelectronic",
        -10.1749754621623
      ],
      [
        "Ġrelationships",
        -10.175547378411416
      ],
      [
        "wood",
        -10.175577399392877
      ],
      [
        "Ġgirls",
        -10.176640176477036
      ],
      [
        "Ġcount",
        -10.176938388815609
      ],
      [
        "Ġmeant",
        -10.178698721384126
      ],
      [
        "ĠStreet",
        -10.179344860649277
      ],
      [
        "Ġconcepts",
        -10.17952862410172
      ],
      [
        "Ġopening",
        -10.180666344031096
      ],
      [
        "Ġratio",
        -10.18092004146737
      ],
      [
        "discussed",
        -10.18154604112867
      ],
      [
        "Ġvehicle",
        -10.182950630598253
      ],
      [
        "Ġentirely",
        -10.183494286622548
      ],
      [
        "Ġconsequences",
        -10.185848825054176
      ],
      [
        "Ġsector",
        -10.18589969614996
      ],
      [
        "Ġmotor",
        -10.186581443010612
      ],
      [
        "level",
        -10.186826164523298
      ],
      [
        "Ġindeed",
        -10.186856109478104
      ],
      [
        "Ġliver",
        -10.18746739770749
      ],
      [
        "Ġcolleagues",
        -10.188917236235486
      ],
      [
        "Ġstated",
        -10.189072386830546
      ],
      [
        "mostly",
        -10.189516684626987
      ],
      [
        "ĠRichard",
        -10.189645716188313
      ],
      [
        "ĠProfessor",
        -10.189659194358777
      ],
      [
        "Ġparent",
        -10.189679789122806
      ],
      [
        "Ġcounty",
        -10.190666540840834
      ],
      [
        "Ġadvice",
        -10.191518299254334
      ],
      [
        "Ġcamp",
        -10.191741734947936
      ],
      [
        "Ġjustice",
        -10.192265476084108
      ],
      [
        "Ġsustainable",
        -10.193749370632156
      ],
      [
        "Ġexplains",
        -10.1937861975541
      ],
      [
        "ĠSecond",
        -10.194379959017876
      ],
      [
        "Ġemotional",
        -10.19463334150853
      ],
      [
        "Note",
        -10.194753669565392
      ],
      [
        "Ġoption",
        -10.195068217901062
      ],
      [
        "Ġleaving",
        -10.19592465261187
      ],
      [
        "Ġdistinct",
        -10.196019188069286
      ],
      [
        "Ġprotected",
        -10.196058304889592
      ],
      [
        "Ġagriculture",
        -10.196168099332269
      ],
      [
        "Ġagency",
        -10.19632910626753
      ],
      [
        "ĠForce",
        -10.196485715896086
      ],
      [
        "Ġnerve",
        -10.19745858723268
      ],
      [
        "Ġpair",
        -10.197815979101916
      ],
      [
        "ĠConstitution",
        -10.19802424369266
      ],
      [
        "contained",
        -10.1981335410066
      ],
      [
        "ĠRome",
        -10.19825146276644
      ],
      [
        "Ġpregnancy",
        -10.198531022152888
      ],
      [
        "Ġfailed",
        -10.199473241650969
      ],
      [
        "ĠNations",
        -10.19997641823413
      ],
      [
        "Another",
        -10.2001652303256
      ],
      [
        "Ġcomparison",
        -10.20045866697592
      ],
      [
        "Dr",
        -10.200588123785524
      ],
      [
        "Ġcrime",
        -10.20096197744092
      ],
      [
        "Ġinterests",
        -10.20111159051231
      ],
      [
        "scale",
        -10.201231581255662
      ],
      [
        "employed",
        -10.201361888499088
      ],
      [
        "ĠInc",
        -10.201400688243286
      ],
      [
        "Ġexperiments",
        -10.201472294395794
      ],
      [
        "Ġprevention",
        -10.202059992216702
      ],
      [
        "ended",
        -10.202168593272802
      ],
      [
        "Ġeastern",
        -10.203460728943927
      ],
      [
        "field",
        -10.203870770102874
      ],
      [
        "Ġaccurate",
        -10.20409394126922
      ],
      [
        "Ġsurprise",
        -10.204195908996953
      ],
      [
        "Ġtransfer",
        -10.20446320420291
      ],
      [
        "Ġbelief",
        -10.20477676852589
      ],
      [
        "ĠReport",
        -10.20585159584678
      ],
      [
        "Ġrain",
        -10.205945672204097
      ],
      [
        "Ġseeds",
        -10.206411845136198
      ],
      [
        "Ġfeeling",
        -10.20663291425054
      ],
      [
        "Ġlesson",
        -10.206790534275596
      ],
      [
        "23",
        -10.20778136740305
      ],
      [
        "Ġattacks",
        -10.208186250218588
      ],
      [
        "Ġvillage",
        -10.20842440239647
      ],
      [
        "ĠToday",
        -10.208588478685948
      ],
      [
        "Ġimpossible",
        -10.208994179381792
      ],
      [
        "Ġfossil",
        -10.211747160504784
      ],
      [
        "Ġmonitor",
        -10.211945656060191
      ],
      [
        "Ġcomprehensive",
        -10.212627000124655
      ],
      [
        "Ġassistance",
        -10.212669780365248
      ],
      [
        "allowing",
        -10.212832505218069
      ],
      [
        "Ġpure",
        -10.212968988148678
      ],
      [
        "Ġrisks",
        -10.213683350106944
      ],
      [
        "Ġfaster",
        -10.21406799677487
      ],
      [
        "Why",
        -10.214279618618487
      ],
      [
        "ear",
        -10.21482380351682
      ],
      [
        "Ġunknown",
        -10.21568303282749
      ],
      [
        "Ġcrisis",
        -10.216810665705838
      ],
      [
        "ĠChicago",
        -10.218876227095764
      ],
      [
        "Ġdrop",
        -10.21908344248808
      ],
      [
        "ĠCancer",
        -10.21988036881656
      ],
      [
        "Ġshared",
        -10.219990280266517
      ],
      [
        "Ġvegetables",
        -10.220737141519386
      ],
      [
        "Ġdepend",
        -10.220788304631588
      ],
      [
        "Ġexcellent",
        -10.221011042930495
      ],
      [
        "ling",
        -10.221321693664196
      ],
      [
        "Ġremaining",
        -10.221725917728255
      ],
      [
        "Ġarms",
        -10.2222171173677
      ],
      [
        "Ġlooks",
        -10.222703091713244
      ],
      [
        "Ġseed",
        -10.222771862964938
      ],
      [
        "Ġtwenty",
        -10.22329252344265
      ],
      [
        "Ġpossibly",
        -10.223711327426042
      ],
      [
        "Ġgrown",
        -10.223848540678445
      ],
      [
        "Ġsufficient",
        -10.224206945879905
      ],
      [
        "Ġprove",
        -10.224419125397825
      ],
      [
        "ated",
        -10.224887254381375
      ],
      [
        "Ġhelping",
        -10.225162507544288
      ],
      [
        "ring",
        -10.22521786119185
      ],
      [
        "ĠStudy",
        -10.22542081924682
      ],
      [
        "ĠBoard",
        -10.225780434587838
      ],
      [
        "Ġorbit",
        -10.226432950358952
      ],
      [
        "ĠColumbia",
        -10.226597480099384
      ],
      [
        "Ġprint",
        -10.227130247143842
      ],
      [
        "Ġdemonstrate",
        -10.22759703065738
      ],
      [
        "Ġwildlife",
        -10.228169709091944
      ],
      [
        "Ġidentity",
        -10.229270017954406
      ],
      [
        "Ġintroduction",
        -10.229749228729991
      ],
      [
        "Ġdescription",
        -10.230185958662736
      ],
      [
        "Ġpresentation",
        -10.230848577625096
      ],
      [
        "Ġnormally",
        -10.231705369558444
      ],
      [
        "Ġextend",
        -10.231890126674406
      ],
      [
        "Ġawareness",
        -10.231962474780625
      ],
      [
        "Ġparties",
        -10.2320222794394
      ],
      [
        "ĠAcademy",
        -10.233414563517094
      ],
      [
        "Ġdrink",
        -10.233654920183378
      ],
      [
        "Ġvital",
        -10.23413735299391
      ],
      [
        "ĠBrown",
        -10.23430041702782
      ],
      [
        "Ġorganized",
        -10.234405805062014
      ],
      [
        "destroyed",
        -10.23461419705174
      ],
      [
        "Ġcrop",
        -10.234617188701492
      ],
      [
        "Ġ1994",
        -10.234926695793446
      ],
      [
        "Ġperspective",
        -10.235083818856204
      ],
      [
        "ĠManagement",
        -10.23520152778062
      ],
      [
        "Ġviews",
        -10.235832656647194
      ],
      [
        "Ġcharacters",
        -10.235841773010636
      ],
      [
        "Ġinput",
        -10.2366200865344
      ],
      [
        "ĠTimes",
        -10.236704587778412
      ],
      [
        "Ġdescribes",
        -10.237008145948984
      ],
      [
        "ful",
        -10.237385030564898
      ],
      [
        "Ġpurchase",
        -10.238021981962648
      ],
      [
        "Ġfigures",
        -10.238954505756832
      ],
      [
        "Ġagreement",
        -10.239683517904432
      ],
      [
        "Ġpeak",
        -10.239697006361848
      ],
      [
        "Ġcalls",
        -10.23977340617676
      ],
      [
        "Ġlay",
        -10.240218393779392
      ],
      [
        "ĠMichael",
        -10.240227208706417
      ],
      [
        "Ġprocedures",
        -10.240334441341943
      ],
      [
        "joined",
        -10.240596483816187
      ],
      [
        "Ġphilosophy",
        -10.241404717718192
      ],
      [
        "ĠTHE",
        -10.242004977883369
      ],
      [
        "q",
        -10.242325631154204
      ],
      [
        "Ġrepresents",
        -10.24249832656767
      ],
      [
        "ĠNatural",
        -10.243497658009472
      ],
      [
        "Ġdose",
        -10.243510430407792
      ],
      [
        "Ġproteins",
        -10.24384590414112
      ],
      [
        "Ġdogs",
        -10.24495211884051
      ],
      [
        "Ġauthorities",
        -10.24529454025323
      ],
      [
        "Ġconcentration",
        -10.24568802463923
      ],
      [
        "Ġpossibility",
        -10.246122008986736
      ],
      [
        "Ġconclusion",
        -10.246288981980776
      ],
      [
        "Ġsmoke",
        -10.24709122836594
      ],
      [
        "Ġnotice",
        -10.247464246665071
      ],
      [
        "Last",
        -10.248411659644557
      ],
      [
        "red",
        -10.248747840774564
      ],
      [
        "Ġunderstood",
        -10.249000683669424
      ],
      [
        "Ġwalls",
        -10.249420851567196
      ],
      [
        "Ġnine",
        -10.24971928335565
      ],
      [
        "ĠValley",
        -10.249860742048172
      ],
      [
        "Ġexpressed",
        -10.250396513286857
      ],
      [
        "Ġphoto",
        -10.251658846982068
      ],
      [
        "ĠAustralian",
        -10.251841238911272
      ],
      [
        "ĠDisease",
        -10.252680197114705
      ],
      [
        "Ġmarked",
        -10.252768001536223
      ],
      [
        "Ġrepeated",
        -10.252829799414672
      ],
      [
        "Ġrepresented",
        -10.253165285140105
      ],
      [
        "ĠOver",
        -10.25335702714282
      ],
      [
        "elected",
        -10.253453388661924
      ],
      [
        "Ġdeaths",
        -10.25382034735122
      ],
      [
        "Ġleads",
        -10.254126198937044
      ],
      [
        "Ġperiods",
        -10.254362951116448
      ],
      [
        "Ġequivalent",
        -10.254365826283824
      ],
      [
        "Ġvary",
        -10.254819557718015
      ],
      [
        "Ġseat",
        -10.255038003786298
      ],
      [
        "Ġinfected",
        -10.255507036704222
      ],
      [
        "Ġstorm",
        -10.255517712236252
      ],
      [
        "Ġapproaches",
        -10.256196642922156
      ],
      [
        "Ġpotentially",
        -10.25674574435674
      ],
      [
        "Ġworse",
        -10.256806842350908
      ],
      [
        "Ġextended",
        -10.25685022396135
      ],
      [
        "ship",
        -10.257757919082517
      ],
      [
        "Ġ35",
        -10.257956352552403
      ],
      [
        "Ġpainting",
        -10.258206340654167
      ],
      [
        "Ġhole",
        -10.258351460603755
      ],
      [
        "Ġminimum",
        -10.259900507182664
      ],
      [
        "Ġmedications",
        -10.260008361236716
      ],
      [
        "Ġproducing",
        -10.260435672527922
      ],
      [
        "Ġfail",
        -10.260611965334643
      ],
      [
        "Ġclosed",
        -10.260871851471329
      ],
      [
        "Ġcommittee",
        -10.261438581160537
      ],
      [
        "Ġ1960",
        -10.261799353852377
      ],
      [
        "Ġconventional",
        -10.262064834574137
      ],
      [
        "Ġsurvival",
        -10.262307727911178
      ],
      [
        "Ġflowers",
        -10.263359617662298
      ],
      [
        "Ġsubstance",
        -10.263629213845038
      ],
      [
        "Ġimplementation",
        -10.263927724923612
      ],
      [
        "ĠFree",
        -10.263928937514075
      ],
      [
        "Ġthin",
        -10.264897214219571
      ],
      [
        "Ġgender",
        -10.265302086731614
      ],
      [
        "Ġconference",
        -10.26538785032594
      ],
      [
        "Ġphone",
        -10.26544989087375
      ],
      [
        "40",
        -10.2659760212263
      ],
      [
        "Ġcentre",
        -10.266839218136326
      ],
      [
        "Ġstream",
        -10.267149665138168
      ],
      [
        "Ġmagnetic",
        -10.267310523858097
      ],
      [
        "Ġtraffic",
        -10.267342661200177
      ],
      [
        "Ġexpensive",
        -10.26802083746946
      ],
      [
        "Ġwealth",
        -10.268201887638297
      ],
      [
        "Ġwindow",
        -10.269106477580978
      ],
      [
        "shaped",
        -10.26915948111168
      ],
      [
        "Ġtransmission",
        -10.270888034380532
      ],
      [
        "Ġevaluation",
        -10.27131011454133
      ],
      [
        "Ġborder",
        -10.271555889307855
      ],
      [
        "Ġworldwide",
        -10.273758244665906
      ],
      [
        "Ġtiny",
        -10.27395361819822
      ],
      [
        "Ġkidney",
        -10.274036776366442
      ],
      [
        "ĠNorthern",
        -10.274320042865732
      ],
      [
        "Since",
        -10.274473259970168
      ],
      [
        "arrived",
        -10.274605688224774
      ],
      [
        "Ġcool",
        -10.274776997332893
      ],
      [
        "Ġcomposition",
        -10.275043531394768
      ],
      [
        "ization",
        -10.275874205583603
      ],
      [
        "Ġfell",
        -10.276764594480907
      ],
      [
        "Ġspiritual",
        -10.2767875230367
      ],
      [
        "twice",
        -10.27701625884855
      ],
      [
        "Ġrevealed",
        -10.278483195042336
      ],
      [
        "Ġvaluable",
        -10.27888166576039
      ],
      [
        "Ġwish",
        -10.279077227254785
      ],
      [
        "Ġdiversity",
        -10.279434583488497
      ],
      [
        "Ġcomments",
        -10.27964234276369
      ],
      [
        "Ġsolutions",
        -10.279952768411022
      ],
      [
        "?\"",
        -10.280333457296049
      ],
      [
        "Ġtrip",
        -10.281149623391984
      ],
      [
        "Ġbank",
        -10.281574264498833
      ],
      [
        "ĠItaly",
        -10.282002853434706
      ],
      [
        "Ġfamiliar",
        -10.282215473144388
      ],
      [
        "Ġedge",
        -10.283014776257271
      ],
      [
        "Ġestimates",
        -10.283107428811144
      ],
      [
        "Ġbudget",
        -10.28318056713507
      ],
      [
        "Ġerror",
        -10.283647270152462
      ],
      [
        "ĠGuide",
        -10.284683893448603
      ],
      [
        "ĠOF",
        -10.284739877288438
      ],
      [
        "Ġsoft",
        -10.285295590553783
      ],
      [
        "necessarily",
        -10.285536282080336
      ],
      [
        "html",
        -10.285617052020111
      ],
      [
        "Ġjoin",
        -10.285711574669836
      ],
      [
        "Ġroutine",
        -10.285841080460544
      ],
      [
        "Ġlandscape",
        -10.285934564755824
      ],
      [
        "ĠIII",
        -10.28657562508002
      ],
      [
        "ance",
        -10.286614635795807
      ],
      [
        "Ġdaughter",
        -10.287197873840382
      ],
      [
        "ĠReview",
        -10.28722448390499
      ],
      [
        "Ġbridge",
        -10.28828511307628
      ],
      [
        "Ġmuseum",
        -10.288355673374085
      ],
      [
        "Ġdecide",
        -10.288827710298936
      ],
      [
        "ĠAnother",
        -10.289246317227873
      ],
      [
        "Ġdust",
        -10.289854487496992
      ],
      [
        "Ġsecret",
        -10.290558053039248
      ],
      [
        "Ġmillions",
        -10.291301471842926
      ],
      [
        "Ġgets",
        -10.29139890222803
      ],
      [
        "Ġprepare",
        -10.291693343578917
      ],
      [
        "Ġstroke",
        -10.292480188685724
      ],
      [
        "Ġstring",
        -10.29295067934023
      ],
      [
        "Finally",
        -10.293467127124847
      ],
      [
        "Ġmicro",
        -10.293921714666578
      ],
      [
        "Ġdebt",
        -10.294344631489372
      ],
      [
        "Ġinter",
        -10.295066587869952
      ],
      [
        "ĠAbout",
        -10.295299001912666
      ],
      [
        "Ġmath",
        -10.29626743305131
      ],
      [
        "ĠYet",
        -10.296789294603942
      ],
      [
        "Ġinvestment",
        -10.2969628643545
      ],
      [
        "Ġflat",
        -10.29811109564131
      ],
      [
        "ĠSpain",
        -10.29837017822144
      ],
      [
        "ĠData",
        -10.298503642706512
      ],
      [
        "Ġpermanent",
        -10.2990006704782
      ],
      [
        "Ġmention",
        -10.299191464017708
      ],
      [
        "Ġsecondary",
        -10.299391492534538
      ],
      [
        "Figure",
        -10.29941049808692
      ],
      [
        "ray",
        -10.299646532941466
      ],
      [
        "ĠUn",
        -10.299696816904827
      ],
      [
        "Ġbrother",
        -10.299809778380371
      ],
      [
        "Ġsky",
        -10.299820602300915
      ],
      [
        "ĠMD",
        -10.301089120149708
      ],
      [
        "Ġobservations",
        -10.302490360916613
      ],
      [
        "ĠMan",
        -10.30281251221198
      ],
      [
        "Ġlegislation",
        -10.303619558623778
      ],
      [
        "ĠOnly",
        -10.304317181504612
      ],
      [
        "Ġsuffer",
        -10.30487610320597
      ],
      [
        "ĠResources",
        -10.305741089753376
      ],
      [
        "Ġmaster",
        -10.307041856999636
      ],
      [
        "consists",
        -10.307438161096645
      ],
      [
        "Ġfair",
        -10.307676854633751
      ],
      [
        "Ġindex",
        -10.307749426097136
      ],
      [
        "Ġexhibit",
        -10.307753557732791
      ],
      [
        "27",
        -10.308094098215486
      ],
      [
        "Ġopposite",
        -10.308426734813835
      ],
      [
        "Ġremote",
        -10.308793699732986
      ],
      [
        "Ġgovernments",
        -10.30986339848873
      ],
      [
        "Ġflood",
        -10.309864826065589
      ],
      [
        "Ġhouses",
        -10.310836191813944
      ],
      [
        "ĠParty",
        -10.310993184531474
      ],
      [
        "approved",
        -10.311243555530394
      ],
      [
        "Ġinterpretation",
        -10.311290693872175
      ],
      [
        "Ġ300",
        -10.311983950329228
      ],
      [
        "grew",
        -10.312074278271467
      ],
      [
        "26",
        -10.312831947214724
      ],
      [
        "Ġgreenhouse",
        -10.312896789087016
      ],
      [
        "ĠGlobal",
        -10.31310611743951
      ],
      [
        "Ġwatch",
        -10.313678944415868
      ],
      [
        "ĠAgency",
        -10.313694457431616
      ],
      [
        "Ġtopics",
        -10.314009129006912
      ],
      [
        "ĠDon",
        -10.314422188050711
      ],
      [
        "ĠLike",
        -10.315431710744274
      ],
      [
        "Ġmolecules",
        -10.316003118680886
      ],
      [
        "Ġcomputers",
        -10.316153103140373
      ],
      [
        "Ġinterview",
        -10.31682807776636
      ],
      [
        "ĠAl",
        -10.317016823520492
      ],
      [
        "Ġdioxide",
        -10.317045890036871
      ],
      [
        "Ġrelations",
        -10.317127106447105
      ],
      [
        "Ġsides",
        -10.317875277555071
      ],
      [
        "claimed",
        -10.31835171979764
      ],
      [
        "Ġdiffer",
        -10.318511281283287
      ],
      [
        "Ġhandle",
        -10.318798342818376
      ],
      [
        "Ġguidelines",
        -10.319033217745122
      ],
      [
        "Ġimpacts",
        -10.319977531660385
      ],
      [
        "ĠDivision",
        -10.32013527726676
      ],
      [
        "neither",
        -10.320901022273466
      ],
      [
        "Ġelection",
        -10.320979868068498
      ],
      [
        "Ġpercentage",
        -10.321072804445588
      ],
      [
        "Ġreplace",
        -10.321515074151618
      ],
      [
        "Ġleadership",
        -10.321898189870014
      ],
      [
        "ĠRoyal",
        -10.322107658549168
      ],
      [
        "Ġfill",
        -10.322989628411252
      ],
      [
        "Ġdetect",
        -10.323023033924269
      ],
      [
        "Ġnone",
        -10.323331364637571
      ],
      [
        "Ġterritory",
        -10.323572259839986
      ],
      [
        "Ġphysics",
        -10.323590485647072
      ],
      [
        "Ġargue",
        -10.323676246806544
      ],
      [
        "Ġorganisms",
        -10.32470625878041
      ],
      [
        "Ġmedium",
        -10.325236522268414
      ],
      [
        "Ġsupplies",
        -10.325301357882624
      ],
      [
        "Ġsuffering",
        -10.325820076113338
      ],
      [
        "Ġcapture",
        -10.326075799350829
      ],
      [
        "Ġformal",
        -10.326365370285831
      ],
      [
        "Ġfacts",
        -10.326967496050246
      ],
      [
        "appointed",
        -10.327427549567444
      ],
      [
        "ĠEastern",
        -10.32790319170288
      ],
      [
        "Ġmechanism",
        -10.32983468765987
      ],
      [
        "Ġuniversal",
        -10.330274216640984
      ],
      [
        "ĠIndians",
        -10.330885450344656
      ],
      [
        "Ġpictures",
        -10.330923430887118
      ],
      [
        "Ġnarrow",
        -10.331006812456016
      ],
      [
        "entered",
        -10.331063667505058
      ],
      [
        "Ġcurriculum",
        -10.333332711671655
      ],
      [
        "Ġpublication",
        -10.333674013942252
      ],
      [
        "Ġsatellite",
        -10.3337407964581
      ],
      [
        "ĠAtlantic",
        -10.334698857685185
      ],
      [
        "Ġsecure",
        -10.335223037540128
      ],
      [
        "Ġimmediate",
        -10.335283180005051
      ],
      [
        "Ġentry",
        -10.335757898757416
      ],
      [
        "Ġresolution",
        -10.335766299460715
      ],
      [
        "Ġcircumstances",
        -10.335862786479108
      ],
      [
        "Ġsounds",
        -10.33587839449268
      ],
      [
        "ĠEmpire",
        -10.335959610023677
      ],
      [
        "Ġlab",
        -10.336156881328602
      ],
      [
        "Ġvessels",
        -10.336644236633358
      ],
      [
        "Ġassist",
        -10.336926406167418
      ],
      [
        "Ġwaves",
        -10.33695603032096
      ],
      [
        "Ġbio",
        -10.336985579230744
      ],
      [
        "Ġinstruction",
        -10.337043264706963
      ],
      [
        "Ġinstrument",
        -10.337344204297723
      ],
      [
        "Ġbear",
        -10.337773165093106
      ],
      [
        "fewer",
        -10.338800538713745
      ],
      [
        "ĠHer",
        -10.339196648327272
      ],
      [
        "Ġachieved",
        -10.33964380805534
      ],
      [
        "Ġparticipate",
        -10.339736848512986
      ],
      [
        "Ġwear",
        -10.339828883506229
      ],
      [
        "Ġgenerated",
        -10.339889116479618
      ],
      [
        "Ġdoor",
        -10.340127301446287
      ],
      [
        "Ġ1992",
        -10.340275522554052
      ],
      [
        "Ġassume",
        -10.34063981390628
      ],
      [
        "Ġhorse",
        -10.340746428293158
      ],
      [
        "Ġsituations",
        -10.3414391899026
      ],
      [
        "ĠNative",
        -10.341558503116396
      ],
      [
        "ĠMartin",
        -10.342183745772934
      ],
      [
        "ĠOhio",
        -10.342619859951723
      ],
      [
        "Ġunusual",
        -10.342853325597504
      ],
      [
        "ĠThose",
        -10.343873853562114
      ],
      [
        "ĠSciences",
        -10.34393752003759
      ],
      [
        "ĠParis",
        -10.343966911268115
      ],
      [
        "Ġstored",
        -10.344013401698266
      ],
      [
        "Ġfly",
        -10.344875962292145
      ],
      [
        "Ġplaying",
        -10.345046947146
      ],
      [
        "Ġaudience",
        -10.345195173520532
      ],
      [
        "Ġmaps",
        -10.345320594693511
      ],
      [
        "Ġenemy",
        -10.345655464535918
      ],
      [
        "Ġgap",
        -10.34572900247064
      ],
      [
        "Ġball",
        -10.34738012096716
      ],
      [
        "Ġ1993",
        -10.347696928429528
      ],
      [
        "Ġcoastal",
        -10.347787088984456
      ],
      [
        "Ġsentence",
        -10.348038778432889
      ],
      [
        "replaced",
        -10.348391672939425
      ],
      [
        "28",
        -10.348508820956528
      ],
      [
        "Ġdefense",
        -10.34874827143064
      ],
      [
        "ĠLand",
        -10.349935886067906
      ],
      [
        "Ġtreatments",
        -10.350472254988912
      ],
      [
        "Ġlimits",
        -10.352013719395218
      ],
      [
        "Ġbroken",
        -10.352488472859848
      ],
      [
        "ĠHome",
        -10.352626320982228
      ],
      [
        "somewhat",
        -10.352880196073556
      ],
      [
        "05",
        -10.353237103291375
      ],
      [
        "ĠIreland",
        -10.354159810386172
      ],
      [
        "ĠAdministration",
        -10.355085334412852
      ],
      [
        "%)",
        -10.355215747723127
      ],
      [
        "Ġselect",
        -10.355455265385434
      ],
      [
        "Ġcompetition",
        -10.35600735987012
      ],
      [
        "Ġzone",
        -10.356522406539607
      ],
      [
        "Ġrecovery",
        -10.356801813933323
      ],
      [
        "Ġpretty",
        -10.357309927004108
      ],
      [
        "Ġwonder",
        -10.358755975211912
      ],
      [
        "Ġchildhood",
        -10.359465578554868
      ],
      [
        "Ġnaturally",
        -10.359954778790414
      ],
      [
        "ĠHoly",
        -10.360686728686384
      ],
      [
        "ened",
        -10.36070097185179
      ],
      [
        "der",
        -10.36264829440985
      ],
      [
        "ĠBank",
        -10.363019978465278
      ],
      [
        "Ġgone",
        -10.363025406139814
      ],
      [
        "Ġpromise",
        -10.363101431561034
      ],
      [
        "ordered",
        -10.36385078425552
      ],
      [
        "Ġhonor",
        -10.36442259250033
      ],
      [
        "ĠEl",
        -10.36523446906077
      ],
      [
        "http",
        -10.365279712171075
      ],
      [
        "Ġframework",
        -10.365310702472792
      ],
      [
        "Ġslowly",
        -10.365339790112612
      ],
      [
        "long",
        -10.365384006936871
      ],
      [
        "Ġbright",
        -10.366146230332063
      ],
      [
        "resulted",
        -10.36619302955568
      ],
      [
        "Ġbrown",
        -10.367489308842664
      ],
      [
        "Ġsit",
        -10.368736264553558
      ],
      [
        "managed",
        -10.368918670841753
      ],
      [
        "back",
        -10.369125198395574
      ],
      [
        "Ġroots",
        -10.36974402608928
      ],
      [
        "Ġmovements",
        -10.369965427930312
      ],
      [
        ":||",
        -10.371268421498764
      ],
      [
        "Ġdivision",
        -10.371292711481882
      ],
      [
        "Ġconsistent",
        -10.371338505051549
      ],
      [
        "Ġtoxic",
        -10.371713420984836
      ],
      [
        "Ġuniversity",
        -10.372264828864829
      ],
      [
        "adding",
        -10.372723307502678
      ],
      [
        "signed",
        -10.372961858098728
      ],
      [
        "diagnosed",
        -10.373538767020769
      ],
      [
        "Ġcompare",
        -10.373843189831264
      ],
      [
        "ĠUSA",
        -10.37403638643996
      ],
      [
        "Ġdensity",
        -10.374058034011972
      ],
      [
        "Ġattached",
        -10.374891218837767
      ],
      [
        "Ġsensitive",
        -10.375021113925042
      ],
      [
        "trained",
        -10.375489975803935
      ],
      [
        "Ġpeer",
        -10.37564349656422
      ],
      [
        "Ġinfrastructure",
        -10.37618934333412
      ],
      [
        "Ġships",
        -10.376396494712726
      ],
      [
        "ĠAre",
        -10.376428521758417
      ],
      [
        "ĠLe",
        -10.376608270792705
      ],
      [
        "Ġtaste",
        -10.37705758037938
      ],
      [
        "Ġinstruments",
        -10.378679284623871
      ],
      [
        "Ġestimate",
        -10.37891111213202
      ],
      [
        "ĠDistrict",
        -10.379082974561342
      ],
      [
        "ĠItalian",
        -10.379416778314276
      ],
      [
        "Ġtransportation",
        -10.379517673819638
      ],
      [
        "Ġshot",
        -10.379883029860377
      ],
      [
        "ĠKingdom",
        -10.380471091090998
      ],
      [
        "Ġwarning",
        -10.38137503781425
      ],
      [
        "Ġtrouble",
        -10.381379141500735
      ],
      [
        "Ġ500",
        -10.381765765525506
      ],
      [
        "Ġtalking",
        -10.382002943935598
      ],
      [
        "Ġoral",
        -10.382455742586185
      ],
      [
        "Ġfalse",
        -10.382542015802
      ],
      [
        "Ġenhance",
        -10.383290267745402
      ],
      [
        "Ġexists",
        -10.38526702896777
      ],
      [
        "Ġindicates",
        -10.385461642642564
      ],
      [
        "29",
        -10.385603907896265
      ],
      [
        "ĠOcean",
        -10.386699991484686
      ],
      [
        "Ġannounced",
        -10.38703862246769
      ],
      [
        "Ġdifficulty",
        -10.388490790497436
      ],
      [
        "Ġmark",
        -10.388545889388492
      ],
      [
        "Ġachievement",
        -10.388555299596351
      ],
      [
        "Ġfixed",
        -10.388584017074676
      ],
      [
        "launched",
        -10.38941546736378
      ],
      [
        "Ġvehicles",
        -10.389621241299006
      ],
      [
        "Ġroute",
        -10.39095612901143
      ],
      [
        "Sometimes",
        -10.392036508429351
      ],
      [
        "Ġhelpful",
        -10.392231275268038
      ],
      [
        "Ġsuccessfully",
        -10.393462751675871
      ],
      [
        "Ġrelation",
        -10.393641240684111
      ],
      [
        "seemed",
        -10.39391450802637
      ],
      [
        "Ġintellectual",
        -10.39393126629335
      ],
      [
        "Ġfruits",
        -10.394005318730365
      ],
      [
        "Ġsupposed",
        -10.394336440745542
      ],
      [
        "Ġcognitive",
        -10.39531514443128
      ],
      [
        "Ġdiverse",
        -10.39556295943295
      ],
      [
        "Ġfever",
        -10.395655676851336
      ],
      [
        "Ġarchitecture",
        -10.395690141381026
      ],
      [
        "declared",
        -10.395711311744824
      ],
      [
        "Ġpick",
        -10.39634544872001
      ],
      [
        "Ġpreparation",
        -10.396405209079562
      ],
      [
        "Ġexamination",
        -10.396868901053974
      ],
      [
        "Ġconnect",
        -10.398098725719985
      ],
      [
        "Ġyounger",
        -10.398186061765232
      ],
      [
        "Ġpilot",
        -10.39838021808958
      ],
      [
        "Ġbones",
        -10.398769251504806
      ],
      [
        "ĠPost",
        -10.400513485365297
      ],
      [
        "including",
        -10.400799514161491
      ],
      [
        "Ġvariable",
        -10.401156360216666
      ],
      [
        "Ġchain",
        -10.401393663551898
      ],
      [
        "Ġregulations",
        -10.401884257482784
      ],
      [
        "Ġsignals",
        -10.402539854526916
      ],
      [
        "Ġcarefully",
        -10.403222547610495
      ],
      [
        "02",
        -10.403306865431777
      ],
      [
        "Ġhistoric",
        -10.404720586489749
      ],
      [
        "ĠLong",
        -10.4047540108629
      ],
      [
        "Ġdriving",
        -10.405084017244729
      ],
      [
        "Ġintake",
        -10.405183787381212
      ],
      [
        "ĠUnder",
        -10.405374199807666
      ],
      [
        "Ġnearby",
        -10.405670356986874
      ],
      [
        "Ġrising",
        -10.406011278345469
      ],
      [
        "well",
        -10.406273619241889
      ],
      [
        "Ġchosen",
        -10.407198461564882
      ],
      [
        "Ġmixed",
        -10.407775803769464
      ],
      [
        "Ġfighting",
        -10.40781993803988
      ],
      [
        "Ġnoise",
        -10.408154048523404
      ],
      [
        "Ġexpansion",
        -10.408534588039808
      ],
      [
        "Ġarm",
        -10.40891237554002
      ],
      [
        "Ġserver",
        -10.408999617603596
      ],
      [
        "rely",
        -10.409187091703416
      ],
      [
        "ĠLearning",
        -10.4094560317459
      ],
      [
        "Ġcloud",
        -10.41045121132923
      ],
      [
        "Ġparallel",
        -10.41150349240386
      ],
      [
        "Ġfoundation",
        -10.41170532513101
      ],
      [
        "merely",
        -10.411949380332707
      ],
      [
        "greatly",
        -10.412183782699302
      ],
      [
        "Ġlocations",
        -10.412544144017572
      ],
      [
        "Ġ1991",
        -10.413289995926874
      ],
      [
        "Ġdestruction",
        -10.41389988406446
      ],
      [
        "Ġreaders",
        -10.414338565256193
      ],
      [
        "agreed",
        -10.415024800659978
      ],
      [
        "ĠForest",
        -10.41562574399515
      ],
      [
        "Ġ45",
        -10.415684195205849
      ],
      [
        "unable",
        -10.415692592716418
      ],
      [
        "ĠEncyclopedia",
        -10.415890013192778
      ],
      [
        "Ġdeliver",
        -10.41615644480942
      ],
      [
        "Ġdrought",
        -10.416733820019092
      ],
      [
        "Ġapart",
        -10.416761381609737
      ],
      [
        "ĠMark",
        -10.417585869373278
      ],
      [
        "Ġstraight",
        -10.417877784822002
      ],
      [
        "Ġemployment",
        -10.418025027858327
      ],
      [
        "ĠSurvey",
        -10.418989576777328
      ],
      [
        "Ġescape",
        -10.419178724856833
      ],
      [
        "ĠPower",
        -10.419849724296272
      ],
      [
        "Ġsolve",
        -10.419873911635111
      ],
      [
        "ĠLaboratory",
        -10.419955612604406
      ],
      [
        "dedicated",
        -10.420345431766936
      ],
      [
        "My",
        -10.420751817130624
      ],
      [
        "owned",
        -10.420950289446594
      ],
      [
        "Ġpredict",
        -10.420987492658384
      ],
      [
        "Ġformula",
        -10.421708804805938
      ],
      [
        "Ġfunds",
        -10.421910312206924
      ],
      [
        "Ġinner",
        -10.421979361489074
      ],
      [
        "directed",
        -10.422067211783263
      ],
      [
        "ĠServices",
        -10.424665839448236
      ],
      [
        "Ġspot",
        -10.424915631289863
      ],
      [
        "Ġtelevision",
        -10.425052785323466
      ],
      [
        "ultimately",
        -10.425320040439772
      ],
      [
        "Ġtube",
        -10.42543375179957
      ],
      [
        "Ġgoods",
        -10.42547434284391
      ],
      [
        "holding",
        -10.42573808743776
      ],
      [
        "Ġintelligence",
        -10.426110598581811
      ],
      [
        "Ġofficers",
        -10.426533844173388
      ],
      [
        "Ġcollect",
        -10.42673852589946
      ],
      [
        "Ġdrawn",
        -10.426900818629628
      ],
      [
        "Ġevil",
        -10.427249221449369
      ],
      [
        "Ġwhatever",
        -10.427986785141554
      ],
      [
        "composed",
        -10.428093803553038
      ],
      [
        "ĠGood",
        -10.428305779881692
      ],
      [
        "Ġjourney",
        -10.428969583188271
      ],
      [
        "ĠLouis",
        -10.429121274301073
      ],
      [
        "Ġhousing",
        -10.429456365225018
      ],
      [
        "use",
        -10.42996199497311
      ],
      [
        "Ġethnic",
        -10.430041782237929
      ],
      [
        "ĠHill",
        -10.43048148636589
      ],
      [
        "Ġhydrogen",
        -10.431203871257196
      ],
      [
        "ĠTime",
        -10.431282377955933
      ],
      [
        "ĠLincoln",
        -10.431783008074255
      ],
      [
        "Ġlung",
        -10.431814000804197
      ],
      [
        "issued",
        -10.431953993781775
      ],
      [
        "Ġpolitics",
        -10.432648998231125
      ],
      [
        "Ġbiology",
        -10.432690884011164
      ],
      [
        "Ġtrain",
        -10.433426388236144
      ],
      [
        "Ġsymbol",
        -10.433453925057416
      ],
      [
        "Ġaccounts",
        -10.434653107538065
      ],
      [
        "Ġinsects",
        -10.435060745541692
      ],
      [
        "Ġtrials",
        -10.436257667706876
      ],
      [
        "Ġquick",
        -10.436529296523837
      ],
      [
        "Ġmobile",
        -10.436690647401202
      ],
      [
        "ĠHall",
        -10.437226859549824
      ],
      [
        "ĠJust",
        -10.437405803397713
      ],
      [
        "ĠAsian",
        -10.437736591134378
      ],
      [
        "ties",
        -10.438499763297228
      ],
      [
        "Ġwidespread",
        -10.438672146915309
      ],
      [
        "Ġstudying",
        -10.439826751353165
      ],
      [
        "Ġfacility",
        -10.440004582782342
      ],
      [
        "Ġsenior",
        -10.44042366808859
      ],
      [
        "maintained",
        -10.440699640292252
      ],
      [
        "Ġfeeding",
        -10.440723494283905
      ],
      [
        "Ġspeaking",
        -10.442183541667848
      ],
      [
        "Ġmuscles",
        -10.442240794526198
      ],
      [
        "Ġstages",
        -10.444295128125146
      ],
      [
        "Ġcars",
        -10.444650378087807
      ],
      [
        "Because",
        -10.445196729296274
      ],
      [
        "Ġlies",
        -10.445283335506543
      ],
      [
        "Ġweapons",
        -10.445432446659066
      ],
      [
        "breeding",
        -10.445877538106933
      ],
      [
        "Ġsharing",
        -10.44605539968777
      ],
      [
        "ĠIrish",
        -10.44627933576927
      ],
      [
        "known",
        -10.446369454174722
      ],
      [
        "Ġzero",
        -10.446734423540349
      ],
      [
        "Ġwriter",
        -10.446939802140784
      ],
      [
        "Ġdollars",
        -10.447130248423829
      ],
      [
        "Ġmode",
        -10.447238646015435
      ],
      [
        "Ġtranslation",
        -10.447658557437492
      ],
      [
        "cited",
        -10.448513452348504
      ],
      [
        "Ġrandom",
        -10.448949373525515
      ],
      [
        "Ġtouch",
        -10.449067965723655
      ],
      [
        "Ġmedication",
        -10.449384232983313
      ],
      [
        "Ġconsiderable",
        -10.449388971811992
      ],
      [
        "Ġminor",
        -10.44952545144355
      ],
      [
        "Ġsets",
        -10.450329059943446
      ],
      [
        "ĠFamily",
        -10.45035929508266
      ],
      [
        "Ġassociation",
        -10.450738156128352
      ],
      [
        "Ġtrace",
        -10.450983908545698
      ],
      [
        "sought",
        -10.451142100257366
      ],
      [
        "Ġinvolving",
        -10.45125210662522
      ],
      [
        "Ġplatform",
        -10.452241322867778
      ],
      [
        "ch",
        -10.452362491826518
      ],
      [
        "Ġpounds",
        -10.452650518658048
      ],
      [
        "Ġsilver",
        -10.452714378843435
      ],
      [
        "opposed",
        -10.45393183958566
      ],
      [
        "ĠOxford",
        -10.454500780362888
      ],
      [
        "Ġlaunch",
        -10.454786030236695
      ],
      [
        "Ġreader",
        -10.455178484726366
      ],
      [
        "Ġproduces",
        -10.455401546441124
      ],
      [
        "Ġdemonstrated",
        -10.455622955777212
      ],
      [
        "Ġcloser",
        -10.45613624259112
      ],
      [
        "Ġnutrients",
        -10.456424067052083
      ],
      [
        "Ġpermit",
        -10.456575508517314
      ],
      [
        "truly",
        -10.457315462460429
      ],
      [
        "Ġcat",
        -10.457329060796582
      ],
      [
        "funded",
        -10.457716860311123
      ],
      [
        "Ġexact",
        -10.458487733265292
      ],
      [
        "Ġsharp",
        -10.460253263357544
      ],
      [
        "Ġarray",
        -10.460377596837011
      ],
      [
        "making",
        -10.460432145369984
      ],
      [
        "Ġstrike",
        -10.46063494507605
      ],
      [
        "Ġstanding",
        -10.460899115325187
      ],
      [
        "Ġindependence",
        -10.460925477824144
      ],
      [
        "Ġband",
        -10.46121620720152
      ],
      [
        "planned",
        -10.461412273403104
      ],
      [
        "Ġframe",
        -10.461569594035677
      ],
      [
        "Ġmice",
        -10.4615761731443
      ],
      [
        "Ġconsumers",
        -10.462118815230053
      ],
      [
        "ised",
        -10.462341445563684
      ],
      [
        "Ġparticipation",
        -10.462902878260811
      ],
      [
        "Ġfourth",
        -10.462930990399672
      ],
      [
        "Ġcup",
        -10.46325251079648
      ],
      [
        "ĠSaint",
        -10.464613074082402
      ],
      [
        "Ġ32",
        -10.46530743985073
      ],
      [
        "Ġrivers",
        -10.465338385882236
      ],
      [
        "ĠBoston",
        -10.465629766475596
      ],
      [
        "Ġcrew",
        -10.465858002579072
      ],
      [
        "Ġimplement",
        -10.46589019622406
      ],
      [
        "Ġload",
        -10.466243971141616
      ],
      [
        "printed",
        -10.466326621595275
      ],
      [
        "Ġcard",
        -10.466633016460689
      ],
      [
        "Ġcolors",
        -10.466934299587107
      ],
      [
        "Ġintervention",
        -10.467186000301432
      ],
      [
        "ĠAge",
        -10.467279252389972
      ],
      [
        "ĠClimate",
        -10.467466761785548
      ],
      [
        "Ġengage",
        -10.468704179929505
      ],
      [
        "ĠGeorgia",
        -10.46900259817314
      ],
      [
        "Ġregularly",
        -10.469264272042937
      ],
      [
        "Ġpro",
        -10.469621283471678
      ],
      [
        "Ġmaintenance",
        -10.469885715291252
      ],
      [
        "Ġexpress",
        -10.470726612955552
      ],
      [
        "Ġflag",
        -10.471087579384408
      ],
      [
        "Ġcutting",
        -10.471249010058951
      ],
      [
        "May",
        -10.47133835251483
      ],
      [
        "deed",
        -10.472501911880023
      ],
      [
        "Ġroof",
        -10.47277989540006
      ],
      [
        "Ġ1950",
        -10.472904963610093
      ],
      [
        "Ġharm",
        -10.47366060522354
      ],
      [
        "Ġobesity",
        -10.474630235011889
      ],
      [
        "ĠPlan",
        -10.475059771365713
      ],
      [
        "Ġlessons",
        -10.475194259066615
      ],
      [
        "ĠConservation",
        -10.476180379633004
      ],
      [
        "Ġserving",
        -10.47677993581357
      ],
      [
        "Ġtasks",
        -10.477040515604186
      ],
      [
        "Ġfilter",
        -10.477083194646712
      ],
      [
        "Ġlands",
        -10.477097861883635
      ],
      [
        "ĠMake",
        -10.477872976096512
      ],
      [
        "Ġcholesterol",
        -10.478755001654964
      ],
      [
        "Ġstands",
        -10.479277678669725
      ],
      [
        "Ġgiant",
        -10.479477878065383
      ],
      [
        "Ġinvolve",
        -10.48026184574719
      ],
      [
        "Ġconstructed",
        -10.480288453968733
      ],
      [
        "Ġimprovement",
        -10.48081236106732
      ],
      [
        "Ġexpand",
        -10.48095074516654
      ],
      [
        "Ġhusband",
        -10.481021698629393
      ],
      [
        "Ġimproving",
        -10.482024494648492
      ],
      [
        "Ġha",
        -10.482322250061726
      ],
      [
        "Ġevaluate",
        -10.482350466653594
      ],
      [
        "indicated",
        -10.483349699191196
      ],
      [
        "committed",
        -10.483579153707066
      ],
      [
        "Ġmathematics",
        -10.483669368510876
      ],
      [
        "how",
        -10.484006838424698
      ],
      [
        "Ġpermission",
        -10.484334146486235
      ],
      [
        "Ġstrongly",
        -10.48440938472736
      ],
      [
        "ĠVol",
        -10.484524456566875
      ],
      [
        "Ġmagazine",
        -10.484679644112012
      ],
      [
        "Ġscreening",
        -10.48490604004078
      ],
      [
        "receiving",
        -10.48491613606816
      ],
      [
        "Ġfrequent",
        -10.485081053180522
      ],
      [
        "ĠPart",
        -10.48694576424215
      ],
      [
        "ĠDirector",
        -10.487778976553292
      ],
      [
        "ĠHospital",
        -10.487779599415164
      ],
      [
        "Ġinteraction",
        -10.488419603538564
      ],
      [
        "Ġmodified",
        -10.48848199385184
      ],
      [
        "Ġscene",
        -10.48899869322114
      ],
      [
        "ĠJohnson",
        -10.489013340192756
      ],
      [
        "Ġsmoking",
        -10.489401615371644
      ],
      [
        "Ġaspect",
        -10.489666732271344
      ],
      [
        "ĠArab",
        -10.489732839282308
      ],
      [
        "First",
        -10.489799978579011
      ],
      [
        "Ġislands",
        -10.490099183890228
      ],
      [
        "Ġphrase",
        -10.490198819209006
      ],
      [
        "ĠMuslim",
        -10.49051218302179
      ],
      [
        "Ġscientist",
        -10.490592931061215
      ],
      [
        "Ġrecognition",
        -10.49105865322772
      ],
      [
        "Ġproved",
        -10.49159777206737
      ],
      [
        "ĠPennsylvania",
        -10.49162337384507
      ],
      [
        "Ġfavor",
        -10.49240587839572
      ],
      [
        "Ġweak",
        -10.492559620637854
      ],
      [
        "Ġanswers",
        -10.492580117804916
      ],
      [
        "Ġsuitable",
        -10.493182349559014
      ],
      [
        "Ġcommitment",
        -10.49339589060006
      ],
      [
        "ĠGulf",
        -10.493561570365513
      ],
      [
        "Ġstable",
        -10.493892028619529
      ],
      [
        "Ġdanger",
        -10.494766968312277
      ],
      [
        "Ġsell",
        -10.494966258858376
      ],
      [
        "Ġcalcium",
        -10.495391625306176
      ],
      [
        "Ġboys",
        -10.495438679509668
      ],
      [
        "Ġrocks",
        -10.495621516325336
      ],
      [
        "Ġprominent",
        -10.496090587686812
      ],
      [
        "Ġsteel",
        -10.49619869399487
      ],
      [
        "ĠRevolution",
        -10.496484415336884
      ],
      [
        "ĠChange",
        -10.496735978798764
      ],
      [
        "Ġcaptured",
        -10.49695876486806
      ],
      [
        "reserved",
        -10.497339286951224
      ],
      [
        "Ġpartner",
        -10.497372137418008
      ],
      [
        "Ġcolumn",
        -10.497706359181816
      ],
      [
        "Ġstomach",
        -10.497892854484244
      ],
      [
        "spending",
        -10.498561385303413
      ],
      [
        "Ġoutbreak",
        -10.498568080142288
      ],
      [
        "ĠPage",
        -10.498810010003824
      ],
      [
        "Ġdisaster",
        -10.498817237379669
      ],
      [
        "ĠBill",
        -10.500025220053464
      ],
      [
        "Ġfishing",
        -10.500106769447733
      ],
      [
        "roughly",
        -10.500216313752134
      ],
      [
        "ĠEarly",
        -10.500406772356834
      ],
      [
        "Ġadequate",
        -10.500491250309262
      ],
      [
        "Ġmeasurements",
        -10.50076692285917
      ],
      [
        "ĠLet",
        -10.501084379851736
      ],
      [
        "Ġacres",
        -10.501118928876275
      ],
      [
        "Ġmanufacturing",
        -10.501320783436087
      ],
      [
        "Ġcopyright",
        -10.502031293970273
      ],
      [
        "Ġplus",
        -10.502129247670409
      ],
      [
        "Ġrevolution",
        -10.502204595483418
      ],
      [
        "Ġsports",
        -10.50272138390731
      ],
      [
        "Ġsubsequent",
        -10.502836076637756
      ],
      [
        "Ġtrust",
        -10.502870975467408
      ],
      [
        "ĠSecurity",
        -10.503089487454892
      ],
      [
        "can",
        -10.503294244318711
      ],
      [
        "Ġinjuries",
        -10.505836845121722
      ],
      [
        "century",
        -10.506617135024127
      ],
      [
        "Ġmoderate",
        -10.507006550715342
      ],
      [
        "Of",
        -10.507103796314237
      ],
      [
        "08",
        -10.507451274728144
      ],
      [
        "Ġtips",
        -10.50772898059444
      ],
      [
        "ĠEPA",
        -10.507795304068432
      ],
      [
        "Ġphysician",
        -10.509067607322455
      ],
      [
        "ĠChild",
        -10.50952374000313
      ],
      [
        "Ġthick",
        -10.510638228100571
      ],
      [
        "fairly",
        -10.510834251961562
      ],
      [
        "work",
        -10.5108948281834
      ],
      [
        "Ġlake",
        -10.51127008296296
      ],
      [
        "ĠGoogle",
        -10.511273531621306
      ],
      [
        "Ġvictims",
        -10.511454781331183
      ],
      [
        "Ġchoices",
        -10.51191333938291
      ],
      [
        "Ġmeters",
        -10.512419840713788
      ],
      [
        "Ġsoul",
        -10.512583163936378
      ],
      [
        "finished",
        -10.513217659952398
      ],
      [
        ")|",
        -10.513877074420169
      ],
      [
        "confirmed",
        -10.514276602979413
      ],
      [
        "Ġcrucial",
        -10.514856875965368
      ],
      [
        "ĠLanguage",
        -10.51503600156298
      ],
      [
        "assigned",
        -10.515120344338818
      ],
      [
        "Unfortunately",
        -10.515519040461092
      ],
      [
        "About",
        -10.515993796816572
      ],
      [
        "03",
        -10.516136707136106
      ],
      [
        "Ġscheme",
        -10.517126676081874
      ],
      [
        "Ġcriminal",
        -10.517375040457352
      ],
      [
        "Ġincident",
        -10.517428086417652
      ],
      [
        "04",
        -10.51750535388328
      ],
      [
        "armed",
        -10.51782995540592
      ],
      [
        "Ġobjective",
        -10.518186487864783
      ],
      [
        "Ġ(\"",
        -10.518852374716792
      ],
      [
        "Ġ150",
        -10.519246002757766
      ],
      [
        "Ġagents",
        -10.51963422956259
      ],
      [
        "Ġpreserve",
        -10.519791926636636
      ],
      [
        "Ġrecommendations",
        -10.51982935363051
      ],
      [
        "Ġappeal",
        -10.520489163633554
      ],
      [
        "Ġcounter",
        -10.521870817429802
      ],
      [
        "Ġnetworks",
        -10.522158356468363
      ],
      [
        "Ġgenerations",
[...]
