{
  "version": "1.0",
  "truncation": null,
  "padding": null,
  "added_tokens": [
    {
      "id": 0,
      "content": "<|endoftext|>",
      "single_word": false,
      "lstrip": false,
      "rstrip": false,
      "normalized": false,
      "special": true
    },
    {
      "id": 1,
      "content": "<|padding|>",
      "single_word": false,
      "lstrip": false,
      "rstrip": false,
      "normalized": false,
      "special": true
    }
  ],
  "normalizer": {
    "type": "NFC"
  },
  "pre_tokenizer": {
    "type": "ByteLevel",
    "add_prefix_space": false,
    "trim_offsets": true,
    "use_regex": true
  },
  "post_processor": {
    "type": "ByteLevel",
    "add_prefix_space": true,
    "trim_offsets": false,
    "use_regex": true
  },
  "decoder": {
    "type": "ByteLevel",
    "add_prefix_space": true,
    "trim_offsets": true,
    "use_regex": true
  },
  "model": {
    "type": "Unigram",
    "unk_id": null,
    "vocab": [
      [
        "<|endoftext|>",
        0.0
      ],
      [
        "<|padding|>",
        0.0
      ],
      [
        "Ġ",
        -2.464353954386457
      ],
      [
        "s",
        -3.1152161444776816
      ],
      [
        "Ġthe",
        -3.475064854600909
      ],
      [
        ",",
        -3.480442614608016
      ],
      [
        "a",
        -3.5098011620867062
      ],
      [
        ".",
        -3.5254497512647305
      ],
      [
        "Ġof",
        -3.967902111443859
      ],
      [
        "e",
        -3.997718048750478
      ],
      [
        "t",
        -4.096769539536247
      ],
      [
        "Ġand",
        -4.158178997642722
      ],
      [
        "Ċ",
        -4.200279678593581
      ],
      [
        "o",
        -4.252924439314061
      ],
      [
        "Ġto",
        -4.269583195641548
      ],
      [
        "n",
        -4.294986112648822
      ],
      [
        "i",
        -4.368393493817088
      ],
      [
        "Ġin",
        -4.505291185264266
      ],
      [
        "d",
        -4.558811909617081
      ],
      [
        "-",
        -4.745866942267941
      ],
      [
        "r",
        -4.875565329874814
      ],
      [
        "Ġis",
        -5.040148924387413
      ],
      [
        "Ġthat",
        -5.242414957985307
      ],
      [
        "ing",
        -5.311272571140176
      ],
      [
        "Ġfor",
        -5.332365297502797
      ],
      [
        "l",
        -5.4043266566321115
      ],
      [
        "(",
        -5.454753379234781
      ],
      [
        "y",
        -5.507161391230742
      ],
      [
        "Ġare",
        -5.64177418228638
      ],
      [
        "m",
        -5.6509760276015015
      ],
      [
        "\"",
        -5.65304512696186
      ],
      [
        "Ġwith",
        -5.687356208637194
      ],
      [
        "Ġbe",
        -5.725953275106294
      ],
      [
        "'",
        -5.785330060577655
      ],
      [
        "f",
        -5.801530009144704
      ],
      [
        ":",
        -5.836193487079681
      ],
      [
        "Ġby",
        -5.840390972295154
      ],
      [
        "p",
        -5.857646500172351
      ],
      [
        "A",
        -5.880105723659019
      ],
      [
        "Ġor",
        -5.898921123042326
      ],
      [
        "c",
        -5.899009978681187
      ],
      [
        "ĠThe",
        -5.90533178903266
      ],
      [
        "Ġwas",
        -5.940176715930246
      ],
      [
        ")",
        -5.96015365141627
      ],
      [
        "I",
        -5.977950314214231
      ],
      [
        "Ġfrom",
        -5.9797554389469045
      ],
      [
        "u",
        -5.987806347394759
      ],
      [
        "b",
        -6.028679219697596
      ],
      [
        "h",
        -6.07733584820946
      ],
      [
        "in",
        -6.124350240530097
      ],
      [
        "ly",
        -6.156943041274223
      ],
      [
        "Ġan",
        -6.173755059309132
      ],
      [
        "Ġhave",
        -6.201016908653511
      ],
      [
        "g",
        -6.207157064311911
      ],
      [
        "S",
        -6.22744571058902
      ],
      [
        "Ġnot",
        -6.234766714894102
      ],
      [
        "âĢĻ",
        -6.298827672195829
      ],
      [
        "Ġthis",
        -6.300023078272519
      ],
      [
        "Ġcan",
        -6.338811368992765
      ],
      [
        "The",
        -6.373856517523958
      ],
      [
        "or",
        -6.3924932443524725
      ],
      [
        "Ġyou",
        -6.431001127369589
      ],
      [
        "Ġwhich",
        -6.488644790567559
      ],
      [
        "Ġtheir",
        -6.502619751628842
      ],
      [
        "k",
        -6.515269263413064
      ],
      [
        "C",
        -6.539672266202356
      ],
      [
        "he",
        -6.598097072506086
      ],
      [
        ";",
        -6.602268438922714
      ],
      [
        "Ġhas",
        -6.640568445596164
      ],
      [
        "D",
        -6.6450450120733695
      ],
      [
        "Ġwere",
        -6.6479033317356535
      ],
      [
        "Ġmore",
        -6.654322484101433
      ],
      [
        "Ġwill",
        -6.662979453760588
      ],
      [
        "Ġthey",
        -6.6916885460827285
      ],
      [
        "th",
        -6.719447929593677
      ],
      [
        "w",
        -6.723712218499758
      ],
      [
        "1",
        -6.724293935960432
      ],
      [
        "T",
        -6.733632737893977
      ],
      [
        "Ġone",
        -6.757301499191685
      ],
      [
        "Ġbut",
        -6.758554429574563
      ],
      [
        "Ġhis",
        -6.816830931899586
      ],
      [
        "Ġall",
        -6.823811231822095
      ],
      [
        "ĠIn",
        -6.835804818432726
      ],
      [
        "/",
        -6.851408198697106
      ],
      [
        "us",
        -6.864295308895533
      ],
      [
        "Ġother",
        -6.866499839350766
      ],
      [
        "2",
        -6.872572068821734
      ],
      [
        "Ġwe",
        -6.885282826313084
      ],
      [
        "Ġalso",
        -6.899298887152478
      ],
      [
        "R",
        -6.9143513462837785
      ],
      [
        "E",
        -6.935030416298005
      ],
      [
        "Ġabout",
        -6.952231199351104
      ],
      [
        "Ġyour",
        -6.960059922692647
      ],
      [
        ").",
        -6.962725610843465
      ],
      [
        "M",
        -6.965838846100981
      ],
      [
        "Ġwho",
        -7.021140410074896
      ],
      [
        "Ġmay",
        -7.025127095253318
      ],
      [
        "Ġthan",
        -7.034363181291264
      ],
      [
        "ation",
        -7.045378342522934
      ],
      [
        "Ġbeen",
        -7.045849257570852
      ],
      [
        "v",
        -7.066658109542667
      ],
      [
        "L",
        -7.0708984940585875
      ],
      [
        "?",
        -7.079527812488564
      ],
      [
        "Ġhad",
        -7.085035229110357
      ],
      [
        "Ġits",
        -7.087393737129185
      ],
      [
        "F",
        -7.111679187023414
      ],
      [
        "ĠâĢľ",
        -7.130218361542612
      ],
      [
        "Ġinto",
        -7.151474019812609
      ],
      [
        "3",
        -7.151691722755787
      ],
      [
        "Ġtime",
        -7.179910046221801
      ],
      [
        "H",
        -7.190211918109425
      ],
      [
        "B",
        -7.193743326065404
      ],
      [
        "Ġwhen",
        -7.207091969312344
      ],
      [
        "ĠIt",
        -7.209264122845639
      ],
      [
        "Ġwould",
        -7.212977679339868
      ],
      [
        "Ġsome",
        -7.225023094870336
      ],
      [
        "U",
        -7.2415908222101155
      ],
      [
        "Ġthese",
        -7.245387044260335
      ],
      [
        "Ġout",
        -7.245682380404579
      ],
      [
        "|",
        -7.254423283006366
      ],
      [
        "Ġpeople",
        -7.256299259427028
      ],
      [
        "W",
        -7.262198468508073
      ],
      [
        "Ġthere",
        -7.285019536522082
      ],
      [
        "Ġup",
        -7.290332301903295
      ],
      [
        "Ġover",
        -7.297034862411479
      ],
      [
        "Ġ19",
        -7.303117888142959
      ],
      [
        "Ġmost",
        -7.304051717385491
      ],
      [
        "Ġsuch",
        -7.309353414705175
      ],
      [
        "O",
        -7.317570480133904
      ],
      [
        "N",
        -7.322786083628332
      ],
      [
        "ĠThis",
        -7.332591664425344
      ],
      [
        "ve",
        -7.340556703718638
      ],
      [
        "Ġuse",
        -7.341022100948869
      ],
      [
        "ĠB",
        -7.349980694441092
      ],
      [
        "x",
        -7.351934637795681
      ],
      [
        "Ġonly",
        -7.357599155530012
      ],
      [
        "Ġnew",
        -7.361176643552117
      ],
      [
        "5",
        -7.370519010320102
      ],
      [
        "Ġfirst",
        -7.386209617547845
      ],
      [
        "ter",
        -7.393769061654576
      ],
      [
        "able",
        -7.407987605477167
      ],
      [
        "Ġthem",
        -7.41181403401816
      ],
      [
        "Ġtwo",
        -7.417930385336106
      ],
      [
        "4",
        -7.419925454657482
      ],
      [
        "),",
        -7.434966063812128
      ],
      [
        "ers",
        -7.435581700487743
      ],
      [
        "P",
        -7.443329223440161
      ],
      [
        "Ġmany",
        -7.4492337646393505
      ],
      [
        "Ġused",
        -7.451374614997659
      ],
      [
        "Ġwhat",
        -7.464730194014802
      ],
      [
        "Ġour",
        -7.48948326353662
      ],
      [
        "ĠP",
        -7.517881484307324
      ],
      [
        "In",
        -7.547726688638784
      ],
      [
        "Ġyears",
        -7.548428280247753
      ],
      [
        "Ġwater",
        -7.552213804903641
      ],
      [
        "z",
        -7.557252292366376
      ],
      [
        "ĠG",
        -7.560137724617318
      ],
      [
        "G",
        -7.564616721774607
      ],
      [
        "Ġany",
        -7.586501124527466
      ],
      [
        "Ġhow",
        -7.588506946919939
      ],
      [
        "the",
        -7.596767623719227
      ],
      [
        "ur",
        -7.609504799331905
      ],
      [
        "âĢĿ",
        -7.614823176961746
      ],
      [
        "Ġ18",
        -7.616276498278248
      ],
      [
        "Ġcould",
        -7.621396105321928
      ],
      [
        "Ġun",
        -7.632024023562089
      ],
      [
        "ive",
        -7.638725081891128
      ],
      [
        "Ġwork",
        -7.639243708282056
      ],
      [
        "Ġbetween",
        -7.64285317539699
      ],
      [
        "ĠHe",
        -7.643337931104304
      ],
      [
        "Ġthrough",
        -7.6523763202424995
      ],
      [
        "Ġshould",
        -7.654160015730303
      ],
      [
        "Ġlike",
        -7.656112653719578
      ],
      [
        "and",
        -7.663390564182356
      ],
      [
        "ch",
        -7.666780991251469
      ],
      [
        "Ġwell",
        -7.671547808205499
      ],
      [
        "Ġsaid",
        -7.686762169046693
      ],
      [
        "0",
        -7.699271654415405
      ],
      [
        "ity",
        -7.711289577519512
      ],
      [
        "Ġwhere",
        -7.718634647181592
      ],
      [
        "6",
        -7.738651830235488
      ],
      [
        "Ġher",
        -7.739483548467701
      ],
      [
        "Ġmake",
        -7.760993237772899
      ],
      [
        "ment",
        -7.764639263606929
      ],
      [
        "Ġafter",
        -7.764962113322653
      ],
      [
        "age",
        -7.768068825030122
      ],
      [
        "Ġthose",
        -7.793191077695287
      ],
      [
        "Ġbecause",
        -7.796090190227376
      ],
      [
        "ĠM",
        -7.804188710851502
      ],
      [
        "19",
        -7.805203637419956
      ],
      [
        "Ġvery",
        -7.810365777668993
      ],
      [
        "ĠRe",
        -7.820171811194573
      ],
      [
        "Ġeven",
        -7.827382750043524
      ],
      [
        "Ġinformation",
        -7.831004039874344
      ],
      [
        "Ġsystem",
        -7.838304019895737
      ],
      [
        "Ġcon",
        -7.849091060371061
      ],
      [
        "Ġunder",
        -7.875463611310362
      ],
      [
        "Ġworld",
        -7.882581603525761
      ],
      [
        "Ġfound",
        -7.89593624959261
      ],
      [
        "Ġeach",
        -7.8981428474603455
      ],
      [
        "Ġpart",
        -7.900297599208692
      ],
      [
        "be",
        -7.903081571535592
      ],
      [
        "Ġbeing",
        -7.907468734739613
      ],
      [
        "Ġway",
        -7.908544025574749
      ],
      [
        "ĠFor",
        -7.913201855338872
      ],
      [
        "man",
        -7.914427814765602
      ],
      [
        "8",
        -7.918489851323482
      ],
      [
        "Ġchildren",
        -7.922582108521249
      ],
      [
        "Ġmade",
        -7.923331189370423
      ],
      [
        "7",
        -7.92360749353317
      ],
      [
        "Ġhigh",
        -7.924350313831949
      ],
      [
        "Ġmuch",
        -7.929765675107262
      ],
      [
        "Ġduring",
        -7.933859755121805
      ],
      [
        "Ġyear",
        -7.941094992430399
      ],
      [
        "Ġsee",
        -7.945163971969752
      ],
      [
        "Ġsame",
        -7.949075760133658
      ],
      [
        "ary",
        -7.953702312321953
      ],
      [
        "Ġjust",
        -7.954103259248003
      ],
      [
        "Ġdifferent",
        -7.954136402277738
      ],
      [
        "Ġlife",
        -7.954490321230043
      ],
      [
        "||",
        -7.9556597212833715
      ],
      [
        "ĠSt",
        -7.958475950708662
      ],
      [
        "Ġdis",
        -7.972306484552156
      ],
      [
        "000",
        -7.973123426777393
      ],
      [
        "Ġstudy",
        -7.974902841701192
      ],
      [
        "Ġhelp",
        -7.975824511955587
      ],
      [
        "ĠJ",
        -7.994313476079201
      ],
      [
        "ĠDe",
        -7.996540456369594
      ],
      [
        "Ġneed",
        -7.999565594264812
      ],
      [
        "Ġboth",
        -8.010077674809928
      ],
      [
        "um",
        -8.011069813562921
      ],
      [
        "âĢĶ",
        -8.019126811168661
      ],
      [
        "ĠNew",
        -8.023284223887655
      ],
      [
        "Ġnumber",
        -8.024978482983167
      ],
      [
        "Ġlong",
        -8.040122344180599
      ],
      [
        "%",
        -8.041515338673339
      ],
      [
        "Ġbefore",
        -8.042951140367926
      ],
      [
        "Ġget",
        -8.07347346537235
      ],
      [
        "Ġimportant",
        -8.073940938071798
      ],
      [
        "Ġnow",
        -8.07848464144154
      ],
      [
        "Ġstudents",
        -8.085336554020712
      ],
      [
        "Ġresearch",
        -8.085981493659396
      ],
      [
        "ness",
        -8.09305737726142
      ],
      [
        "ĠIf",
        -8.09553849567108
      ],
      [
        "ĠThey",
        -8.097980595533153
      ],
      [
        "Ġthree",
        -8.104454709591876
      ],
      [
        "Ġco",
        -8.110730700375814
      ],
      [
        "Ġdata",
        -8.111208201974856
      ],
      [
        "9",
        -8.114784210557058
      ],
      [
        "Ġgood",
        -8.123264571531292
      ],
      [
        "!",
        -8.124077127342275
      ],
      [
        "ĠâĢĵ",
        -8.128307038597528
      ],
      [
        "Ġhealth",
        -8.12942098419628
      ],
      [
        "ĠAs",
        -8.130286169815944
      ],
      [
        "Ġoften",
        -8.135774681718468
      ],
      [
        "ĠWe",
        -8.139824672563702
      ],
      [
        "Ġper",
        -8.140311538202607
      ],
      [
        "Ġhuman",
        -8.14072036953987
      ],
      [
        "com",
        -8.148641148583065
      ],
      [
        "ism",
        -8.15159106951367
      ],
      [
        "ance",
        -8.151721167520106
      ],
      [
        "Ġ10",
        -8.15230568671784
      ],
      [
        "Ġmust",
        -8.153023587340398
      ],
      [
        "[",
        -8.153751650226749
      ],
      [
        "Ġpro",
        -8.154172595188909
      ],
      [
        "ĠK",
        -8.155464486657463
      ],
      [
        "]",
        -8.155641005853056
      ],
      [
        "This",
        -8.157339375525137
      ],
      [
        "Ġstate",
        -8.159003557273362
      ],
      [
        "Ġknow",
        -8.172616098663028
      ],
      [
        ".âĢĿ",
        -8.172777200333512
      ],
      [
        "Ġday",
        -8.173465230224272
      ],
      [
        "K",
        -8.176646092231568
      ],
      [
        "Ġtake",
        -8.180621109628014
      ],
      [
        "ĠAmerican",
        -8.181942182602937
      ],
      [
        "Ġwhile",
        -8.184630158471546
      ],
      [
        "Ġend",
        -8.187479208614107
      ],
      [
        "ver",
        -8.189840115424158
      ],
      [
        "ĠUniversity",
        -8.19044643465075
      ],
      [
        "tic",
        -8.192898116209594
      ],
      [
        "Ġusing",
        -8.193246893311365
      ],
      [
        "ĠBut",
        -8.194046324706566
      ],
      [
        "ĠTo",
        -8.194148530930141
      ],
      [
        "V",
        -8.194808657030567
      ],
      [
        "Ġback",
        -8.195753276619167
      ],
      [
        "Ġown",
        -8.197184720319683
      ],
      [
        "Ġcalled",
        -8.2015992306821
      ],
      [
        "Y",
        -8.207435942630564
      ],
      [
        "Ġpower",
        -8.214420586815084
      ],
      [
        "ll",
        -8.220274125541144
      ],
      [
        "Ġplace",
        -8.222569479659171
      ],
      [
        "one",
        -8.226805208119803
      ],
      [
        "ated",
        -8.230923113146837
      ],
      [
        "per",
        -8.235312573431592
      ],
      [
        "up",
        -8.236346689537234
      ],
      [
        "Ġshe",
        -8.238851882463834
      ],
      [
        "Ġexample",
        -8.238874269611607
      ],
      [
        "Ġgovernment",
        -8.239911731479756
      ],
      [
        "Ġhim",
        -8.246764427649715
      ],
      [
        "Ġsmall",
        -8.252243722917488
      ],
      [
        "Ġmy",
        -8.253157686482531
      ],
      [
        "der",
        -8.25353670906379
      ],
      [
        "Ġincluding",
        -8.257165685895757
      ],
      [
        "ĠAn",
        -8.268075617335855
      ],
      [
        "Ġdoes",
        -8.271669893191667
      ],
      [
        "Ġdown",
        -8.273309926820037
      ],
      [
        "ĠMa",
        -8.273846444097195
      ],
      [
        "Ġaround",
        -8.275306418813692
      ],
      [
        "ence",
        -8.285786110710506
      ],
      [
        "Ġlarge",
        -8.289022505407436
      ],
      [
        "ating",
        -8.297206785190404
      ],
      [
        "Ġknown",
        -8.302125830990235
      ],
      [
        "Ġfood",
        -8.304332556138746
      ],
      [
        "j",
        -8.304852359236564
      ],
      [
        "Ġme",
        -8.307957566401901
      ],
      [
        "&",
        -8.311742495042516
      ],
      [
        "ĠLa",
        -8.31229265871606
      ],
      [
        "ice",
        -8.313081853809482
      ],
      [
        "Ġstill",
        -8.317819526199525
      ],
      [
        "Ġpre",
        -8.320222455335179
      ],
      [
        "Ġschool",
        -8.322262233441283
      ],
      [
        "Ġpublic",
        -8.32750163619753
      ],
      [
        "ĠSo",
        -8.330020486459853
      ],
      [
        "Ġhome",
        -8.331742312769519
      ],
      [
        "ĠUnited",
        -8.333839445228827
      ],
      [
        "ĠMe",
        -8.337311957279136
      ],
      [
        "Ġdid",
        -8.33889307857294
      ],
      [
        "Ġdevelopment",
        -8.33987987865119
      ],
      [
        "Ġland",
        -8.345131732157267
      ],
      [
        "ous",
        -8.346537860557786
      ],
      [
        "ĠLe",
        -8.351173143137357
      ],
      [
        "Ġset",
        -8.353679304571056
      ],
      [
        "Ġbody",
        -8.35510586271574
      ],
      [
        "Ġdisease",
        -8.370394986013451
      ],
      [
        "Ġright",
        -8.376281188161892
      ],
      [
        "Ġlight",
        -8.376735991426548
      ],
      [
        "ill",
        -8.377259399610624
      ],
      [
        "âĢĵ",
        -8.377332358949936
      ],
      [
        "Ġenergy",
        -8.377663185290231
      ],
      [
        "Ġrisk",
        -8.378564679169841
      ],
      [
        "Ġchange",
        -8.379589937383486
      ],
      [
        "Ġmight",
        -8.379654035220387
      ],
      [
        "Ġgo",
        -8.380241400295185
      ],
      [
        "Ġless",
        -8.382090052479684
      ],
      [
        "Ġfind",
        -8.38301898608038
      ],
      [
        "Ġcontrol",
        -8.383398186228069
      ],
      [
        "Ġform",
        -8.390798221079253
      ],
      [
        "Ġprocess",
        -8.39132475688379
      ],
      [
        "10",
        -8.39674811446251
      ],
      [
        "Ġwithout",
        -8.397596118946925
      ],
      [
        "land",
        -8.402032354121546
      ],
      [
        "ling",
        -8.402341090787646
      ],
      [
        "ure",
        -8.403362741999505
      ],
      [
        "Ġwomen",
        -8.405121939148827
      ],
      [
        "Ġanother",
        -8.40516658286124
      ],
      [
        "ĠAnd",
        -8.410722903634587
      ],
      [
        "Ġinclude",
        -8.411063325365056
      ],
      [
        "Ġnon",
        -8.41194504078447
      ],
      [
        "Ġ20",
        -8.41316295186545
      ],
      [
        "Ġwithin",
        -8.418863149978483
      ],
      [
        "Ġevery",
        -8.422693348493747
      ],
      [
        "Ġearly",
        -8.423115608483661
      ],
      [
        "mon",
        -8.423524361903473
      ],
      [
        "ĠStates",
        -8.427400364234641
      ],
      [
        "tal",
        -8.428451493678766
      ],
      [
        "Ġpercent",
        -8.438994936554796
      ],
      [
        "Ġlast",
        -8.440265505682104
      ],
      [
        "Ġsupport",
        -8.440444978509465
      ],
      [
        "res",
        -8.44278942622548
      ],
      [
        "Ġagainst",
        -8.443131092928327
      ],
      [
        "Ġchild",
        -8.445884824800793
      ],
      [
        "ĠNational",
        -8.446865524542488
      ],
      [
        "Ġsays",
        -8.447181601988387
      ],
      [
        "Ġgreat",
        -8.450265859066809
      ],
      [
        "Ġgroup",
        -8.452594871358368
      ],
      [
        "Ġcommon",
        -8.453024525463547
      ],
      [
        "Ġspecies",
        -8.453779247453703
      ],
      [
        "ĠThese",
        -8.455047128439968
      ],
      [
        "Ġfew",
        -8.458411556605865
      ],
      [
        "Ġex",
        -8.468817221725802
      ],
      [
        "...",
        -8.469031852640176
      ],
      [
        "Ġfact",
        -8.469518698218211
      ],
      [
        "âĢľ",
        -8.477103279272905
      ],
      [
        "Ġhistory",
        -8.477817615590928
      ],
      [
        "Ġblood",
        -8.479359880185111
      ],
      [
        "Ġorder",
        -8.485143140089603
      ],
      [
        ",âĢĿ",
        -8.492255100857859
      ],
      [
        "J",
        -8.492287471776738
      ],
      [
        "ability",
        -8.492626808252663
      ],
      [
        "line",
        -8.494857880565968
      ],
      [
        "Ġseveral",
        -8.5012592864837
      ],
      [
        "Ġbecome",
        -8.501557406391884
      ],
      [
        "Ġmillion",
        -8.50335002236826
      ],
      [
        "$",
        -8.505829562813476
      ],
      [
        "Ġal",
        -8.505862944584118
      ],
      [
        "Ġprovide",
        -8.511548393547859
      ],
      [
        "Ġtreatment",
        -8.520446453773229
      ],
      [
        "Ġwar",
        -8.521731665296594
      ],
      [
        "ĠCa",
        -8.529213411582868
      ],
      [
        "Ġlocal",
        -8.529430664151718
      ],
      [
        "Ġname",
        -8.531610905337502
      ],
      [
        "Ġsince",
        -8.531957194884745
      ],
      [
        "Ġhere",
        -8.532526846035655
      ],
      [
        "Ġsocial",
        -8.534114814844731
      ],
      [
        "Ġ17",
        -8.540847358160692
      ],
      [
        "ĠRo",
        -8.541346223159978
      ],
      [
        "mer",
        -8.545684942391278
      ],
      [
        "Ġpoint",
        -8.54922824361207
      ],
      [
        "ĠSa",
        -8.549385879802614
      ],
      [
        "Ġdon",
        -8.549530147707198
      ],
      [
        "ĠHa",
        -8.552567809737063
      ],
      [
        "Ġavailable",
        -8.554677263411948
      ],
      [
        "our",
        -8.555324869052233
      ],
      [
        "Ġperiod",
        -8.558265717409062
      ],
      [
        "Ġmen",
        -8.559079080783098
      ],
      [
        "We",
        -8.559195764417659
      ],
      [
        "ĠThere",
        -8.559591935382155
      ],
      [
        "ĠGod",
        -8.559728378638319
      ],
      [
        "ical",
        -8.560968567057584
      ],
      [
        "Ġfamily",
        -8.562968050952902
      ],
      [
        "ĠCo",
        -8.568970397204552
      ],
      [
        "Ġman",
        -8.575390219210451
      ],
      [
        "Ġcause",
        -8.578108991387497
      ],
      [
        "Ġcome",
        -8.578209020523895
      ],
      [
        "ĠBe",
        -8.581437468633737
      ],
      [
        "ĠBo",
        -8.582569681159905
      ],
      [
        "ative",
        -8.582726489459947
      ],
      [
        "ology",
        -8.582972833589716
      ],
      [
        "Ġamong",
        -8.584763720790093
      ],
      [
        "ĠAl",
        -8.591048301066628
      ],
      [
        "ĠRa",
        -8.592936821962132
      ],
      [
        "Ġcountry",
        -8.593968253229738
      ],
      [
        "ear",
        -8.59578674971332
      ],
      [
        "Ġpossible",
        -8.597377826370451
      ],
      [
        "Ġlook",
        -8.603158698081037
      ],
      [
        "Ġsecond",
        -8.60368926691979
      ],
      [
        "less",
        -8.605009803883895
      ],
      [
        "lic",
        -8.608198628781542
      ],
      [
        "Ġ12",
        -8.60825060571502
      ],
      [
        "=",
        -8.613168168212514
      ],
      [
        "ally",
        -8.614098527155662
      ],
      [
        "Ġwant",
        -8.61568124578891
      ],
      [
        "Ġcancer",
        -8.61741985694232
      ],
      [
        "Ġpresent",
        -8.618414215598609
      ],
      [
        "Ġareas",
        -8.619092789535054
      ],
      [
        "Ġprogram",
        -8.620075881088164
      ],
      [
        "ĠWar",
        -8.62190293118538
      ],
      [
        "Ġperson",
        -8.623205428032279
      ],
      [
        "ĠDo",
        -8.627500092730529
      ],
      [
        "Ġfollowing",
        -8.628147879964974
      ],
      [
        "Ġair",
        -8.628508583022276
      ],
      [
        "ĠAt",
        -8.628849434214857
      ],
      [
        "18",
        -8.631490902968544
      ],
      [
        "way",
        -8.636826686611993
      ],
      [
        "ĠYou",
        -8.63843068776303
      ],
      [
        "Ġ15",
        -8.638989686265157
      ],
      [
        "ized",
        -8.640758264838913
      ],
      [
        "Ġlevel",
        -8.641079924298685
      ],
      [
        "Ġbetter",
        -8.641424906790055
      ],
      [
        "ĠCon",
        -8.642642207112239
      ],
      [
        "Ġthink",
        -8.64393250948474
      ],
      [
        "Ġcase",
        -8.6440033552599
      ],
      [
        "led",
        -8.645109473927526
      ],
      [
        "que",
        -8.646588770679225
      ],
      [
        "con",
        -8.647133590155715
      ],
      [
        "Ġbest",
        -8.647718012450042
      ],
      [
        "ction",
        -8.65320801494053
      ],
      [
        "Ġmeans",
        -8.654823531838785
      ],
      [
        "Ġfree",
        -8.655212199154244
      ],
      [
        "ex",
        -8.655989622939773
      ],
      [
        "ĠHowever",
        -8.656176615933257
      ],
      [
        "ile",
        -8.657866799741882
      ],
      [
        "ĠDr",
        -8.657914600541847
      ],
      [
        "Ġuntil",
        -8.65975605124105
      ],
      [
        "Ġage",
        -8.662572697074102
      ],
      [
        "Ġgiven",
        -8.663964512676555
      ],
      [
        "for",
        -8.665799886751907
      ],
      [
        "Ġbook",
        -8.667165565425222
      ],
      [
        "les",
        -8.667393775867438
      ],
      [
        "red",
        -8.66901539677768
      ],
      [
        "Ġfour",
        -8.670127073964904
      ],
      [
        "end",
        -8.680007776112383
      ],
      [
        "Ġproblem",
        -8.680090360820776
      ],
      [
        "Ġresult",
        -8.680995974344366
      ],
      [
        "Ġsay",
        -8.68157157438791
      ],
      [
        "Ġcar",
        -8.681624304245059
      ],
      [
        "Ġlater",
        -8.68238219751666
      ],
      [
        "Ġnatural",
        -8.682471824842867
      ],
      [
        "ĠNe",
        -8.683849309166277
      ],
      [
        "Ġlittle",
        -8.686647704712227
      ],
      [
        "Ġlow",
        -8.686801312704139
      ],
      [
        "Ġpopulation",
        -8.69122743010897
      ],
      [
        "Ġside",
        -8.693445034585427
      ],
      [
        "lie",
        -8.69348013906905
      ],
      [
        "Ġcourse",
        -8.695526665927643
      ],
      [
        "Ġsub",
        -8.697394611115108
      ],
      [
        "ĠTa",
        -8.698991610552323
      ],
      [
        "ĠWhen",
        -8.702206191447042
      ],
      [
        "ful",
        -8.70618760599456
      ],
      [
        "ĠSe",
        -8.713531334459454
      ],
      [
        "ĠLo",
        -8.714647566895218
      ],
      [
        "Ġlaw",
        -8.720488736820002
      ],
      [
        "ster",
        -8.720862167933278
      ],
      [
        "Ġfar",
        -8.722461630972276
      ],
      [
        "Ġcentury",
        -8.723109232657462
      ],
      [
        "tion",
        -8.723942099519642
      ],
      [
        "Ġview",
        -8.724449901723345
      ],
      [
        "ĠDi",
        -8.72576792098084
      ],
      [
        "ang",
        -8.726425090563957
      ],
      [
        "Ġdeath",
        -8.727893127186773
      ],
      [
        "Ġ16",
        -8.729667464097346
      ],
      [
        "ities",
        -8.732295841811132
      ],
      [
        "Ġproject",
        -8.738399897968309
      ],
      [
        "Ġtest",
        -8.741083004421062
      ],
      [
        "ĠâĢĶ",
        -8.741781409110192
      ],
      [
        "Ġbased",
        -8.74227760870934
      ],
      [
        "Ġcells",
        -8.742400768749214
      ],
      [
        "Ġmajor",
        -8.745309534286893
      ],
      [
        "Ġdesign",
        -8.746089579704336
      ],
      [
        "Ġhowever",
        -8.746152960912761
      ],
      [
        "Ġshow",
        -8.746205825430065
      ],
      [
        "ger",
        -8.747797059358382
      ],
      [
        "Ġtype",
        -8.752158629400418
      ],
      [
        "out",
        -8.75328456642967
      ],
      [
        "For",
        -8.75912314969409
      ],
      [
        "port",
        -8.759861568047832
      ],
      [
        "Ġhand",
        -8.759909117248117
      ],
      [
        "Ġproblems",
        -8.760533111391336
      ],
      [
        "ail",
        -8.762108444219896
      ],
      [
        "har",
        -8.76324203119117
      ],
      [
        "Ġthings",
        -8.766037114567963
      ],
      [
        "Ġreport",
        -8.76734597034695
      ],
      [
        "ard",
        -8.768489296434627
      ],
      [
        "Ġplant",
        -8.7697901937552
      ],
      [
        "Ġcare",
        -8.772995309723735
      ],
      [
        "Ġheart",
        -8.780762661254215
      ],
      [
        "lin",
        -8.781516866187081
      ],
      [
        "Ġexperience",
        -8.782036686942975
      ],
      [
        "Ġspace",
        -8.782137659435167
      ],
      [
        "ward",
        -8.783848054805901
      ],
      [
        "ĠNo",
        -8.784344784676586
      ],
      [
        "ng",
        -8.784547493905336
      ],
      [
        "ĠZ",
        -8.784826517964175
      ],
      [
        "of",
        -8.785074178976865
      ],
      [
        "Ġscience",
        -8.787630516629001
      ],
      [
        "Ġsite",
        -8.789902218789202
      ],
      [
        "Ġreal",
        -8.790918874855995
      ],
      [
        "Ġpast",
        -8.791114377215292
      ],
      [
        "Ġcommunity",
        -8.793017466000629
      ],
      [
        "Ġusually",
        -8.793046535674476
      ],
      [
        "Ġlead",
        -8.793473975373693
      ],
      [
        "Ġgeneral",
        -8.793482590605969
      ],
      [
        "ĠMo",
        -8.79386723416373
      ],
      [
        "12",
        -8.795353198744314
      ],
      [
        "ĠNa",
        -8.798821460663326
      ],
      [
        "ĠLi",
        -8.799173746549835
      ],
      [
        "Ġabove",
        -8.799402974987125
      ],
      [
        "ight",
        -8.799427148405897
      ],
      [
        "Ġoff",
        -8.799521148490133
      ],
      [
        "Ġ--",
        -8.800104457713934
      ],
      [
        "ler",
        -8.803190920557835
      ],
      [
        "Ġproduce",
        -8.807679928031495
      ],
      [
        "cre",
        -8.809639563952812
      ],
      [
        "Ġbecame",
        -8.810948534581708
      ],
      [
        "Ġleast",
        -8.813646106889035
      ],
      [
        "Ġeducation",
        -8.816527230228191
      ],
      [
        "Ġsimilar",
        -8.816951123025657
      ],
      [
        "ization",
        -8.817690087279791
      ],
      [
        "Ġsea",
        -8.818337807267868
      ],
      [
        "Ġlikely",
        -8.82103979287014
      ],
      [
        "Ġlevels",
        -8.821128710110763
      ],
      [
        "Ġincrease",
        -8.82119385848201
      ],
      [
        "Ġshort",
        -8.823450999225681
      ],
      [
        "Ġleft",
        -8.824014522164086
      ],
      [
        "Ġart",
        -8.824214294739884
      ],
      [
        "ĠPo",
        -8.824762033504442
      ],
      [
        "Ġalong",
        -8.825043836609446
      ],
      [
        "ide",
        -8.825061104036916
      ],
      [
        "Ġsurface",
        -8.826354552925547
      ],
      [
        "min",
        -8.826852015868896
      ],
      [
        "ĠNorth",
        -8.832668983954125
      ],
      [
        "Ġline",
        -8.83352326953839
      ],
      [
        "Ġlanguage",
        -8.834454921946527
      ],
      [
        "ĠAmerica",
        -8.834721547993984
      ],
      [
        "Ġcountries",
        -8.837883860126496
      ],
      [
        "ick",
        -8.843989165611056
      ],
      [
        "What",
        -8.845381028058288
      ],
      [
        "che",
        -8.845528949353572
      ],
      [
        "20",
        -8.845841064537398
      ],
      [
        "Ġgive",
        -8.84769899855247
      ],
      [
        "qui",
        -8.84810425377036
      ],
      [
        "ĠSi",
        -8.84890624093878
      ],
      [
        "Ġhead",
        -8.849998848181835
      ],
      [
        "ĠWorld",
        -8.851632605357668
      ],
      [
        "Ġlearn",
        -8.852515676100445
      ],
      [
        "Ġdays",
        -8.853633256072115
      ],
      [
        "ĠâĢĺ",
        -8.855968309475662
      ],
      [
        "ize",
        -8.856935528540232
      ],
      [
        "ĠTe",
        -8.857231211288735
      ],
      [
        "Ġnational",
        -8.858218068339907
      ],
      [
        "Ġnext",
        -8.858414107864425
      ],
      [
        "ĠYork",
        -8.858615814942825
      ],
      [
        "Ġbrain",
        -8.860696566222964
      ],
      [
        "Ġaccess",
        -8.862111278598592
      ],
      [
        "Ġcreate",
        -8.864212717593537
      ],
      [
        "ĠSouth",
        -8.86427447376181
      ],
      [
        "Ġresults",
        -8.874381254188757
      ],
      [
        "Ġkeep",
        -8.875175323631025
      ],
      [
        "Ġcurrent",
        -8.876055699327113
      ],
      [
        "Ġindividual",
        -8.876571577807285
      ],
      [
        "ium",
        -8.878288156834296
      ],
      [
        "ell",
        -8.880511984347107
      ],
      [
        "Ġenvironment",
        -8.881947108230905
      ],
      [
        "Ġ11",
        -8.882702416813142
      ],
      [
        "Ġtimes",
        -8.88544427373658
      ],
      [
        "ĠHealth",
        -8.886478323579135
      ],
      [
        "ake",
        -8.88823054139981
      ],
      [
        "Ġcertain",
        -8.888455904324157
      ],
      [
        "ition",
        -8.888878891050293
      ],
      [
        "Ġnever",
        -8.888994638678508
      ],
      [
        "ĠJohn",
        -8.890457287861265
      ],
      [
        "ship",
        -8.89118602377126
      ],
      [
        "Ġrange",
        -8.891850977612046
      ],
      [
        "Ġeconomic",
        -8.892178814161149
      ],
      [
        "Ġtoday",
        -8.892578896236426
      ],
      [
        "Ġarea",
        -8.893207659194356
      ],
      [
        "cal",
        -8.894554473058156
      ],
      [
        "Ġcity",
        -8.895048067152594
      ],
      [
        "ĠState",
        -8.89686399129652
      ],
      [
        "ĠV",
        -8.898515871372444
      ],
      [
        "ze",
        -8.898674837160359
      ],
      [
        "Ġput",
        -8.899812552513069
      ],
      [
        "ĠMay",
        -8.902104220275852
      ],
      [
        "Ġmaking",
        -8.9023071415055
      ],
      [
        "There",
        -8.902388021135483
      ],
      [
        "Ġsubject",
        -8.902994557007817
      ],
      [
        "ĠAll",
        -8.903442612474322
      ],
      [
        "Ġhigher",
        -8.903735996740135
      ],
      [
        "und",
        -8.904071398273377
      ],
      [
        "Ġdue",
        -8.9044710743413
      ],
      [
        "ĠCar",
        -8.90534569346496
      ],
      [
        "Ġstudies",
        -8.906126518213762
      ],
      [
        "Ġtext",
        -8.906599561901594
      ],
      [
        "ĠHo",
        -8.90750188591643
      ],
      [
        "over",
        -8.908428654623151
      ],
      [
        "Ġfuture",
        -8.908770243015795
      ],
      [
        "Ġupon",
        -8.913046794846693
      ],
      [
        "row",
        -8.913191911552133
      ],
      [
        "Ġsystems",
        -8.9156724536128
      ],
      [
        "Ġspecific",
        -8.91585223631506
      ],
      [
        "Ġfull",
        -8.91598856623432
      ],
      [
        "Ġyoung",
        -8.91632994301301
      ],
      [
        "Ġcomputer",
        -8.916445123515816
      ],
      [
        "Ġtogether",
        -8.917212941350076
      ],
      [
        "11",
        -8.917213449504205
      ],
      [
        "Ġconditions",
        -8.919106434442778
      ],
      [
        "Ġalways",
        -8.921097732499204
      ],
      [
        "Ġmaterial",
        -8.92202080874404
      ],
      [
        "Ġwhether",
        -8.924674216994259
      ],
      [
        "*",
        -8.924979203575205
      ],
      [
        "Ġnear",
        -8.926052871730647
      ],
      [
        "Ġground",
        -8.927383166546587
      ],
      [
        "men",
        -8.928104122729662
      ],
      [
        "Ġopen",
        -8.930550659453178
      ],
      [
        "Ġthought",
        -8.932259346303557
      ],
      [
        "Ġpaper",
        -8.932355395775073
      ],
      [
        "00",
        -8.934166815434562
      ],
      [
        "ĠMi",
        -8.935226245972416
      ],
      [
        "Ġaway",
        -8.936423884364062
      ],
      [
        "Ġrole",
        -8.936837190769577
      ],
      [
        "use",
        -8.938591154527355
      ],
      [
        "Ġmain",
        -8.938881131168674
      ],
      [
        "Ġsomething",
        -8.939132799378468
      ],
      [
        "ped",
        -8.940480157376259
      ],
      [
        "Ġimpact",
        -8.941483255349722
      ],
      [
        "Ġwords",
        -8.942051416994758
      ],
      [
        "Ġvarious",
        -8.9440230109522
      ],
      [
        "Ġread",
        -8.945380612745204
      ],
      [
        "par",
        -8.946905818438863
      ],
      [
        "Ġvalue",
        -8.948512179859371
      ],
      [
        "ĠWhat",
        -8.949043969443975
      ],
      [
        "bu",
        -8.949599022849638
      ],
      [
        "Ġenough",
        -8.94979966752013
      ],
      [
        "Ġtechnology",
        -8.95179714723957
      ],
      [
        "Ġespecially",
        -8.953596985340452
      ],
      [
        "Ġ30",
        -8.953738908480261
      ],
      [
        "ĠSome",
        -8.953827582181011
      ],
      [
        "Ġsize",
        -8.95582706185826
      ],
      [
        "Ġpolitical",
        -8.95701939446542
      ],
      [
        "Ġhard",
        -8.957266843152606
      ],
      [
        "Ġold",
        -8.95808344758121
      ],
      [
        "ign",
        -8.958381064328488
      ],
      [
        "Ġresearchers",
        -8.959016560762969
      ],
      [
        "Ġcame",
        -8.959439266248609
      ],
      [
        "Ġfurther",
        -8.959854552755449
      ],
      [
        "all",
        -8.96136694062824
      ],
      [
        "qua",
        -8.962114662557822
      ],
      [
        "Ġkey",
        -8.962167831564187
      ],
      [
        "rate",
        -8.964047548438018
      ],
      [
        "Ġdeveloped",
        -8.96488926157987
      ],
      [
        "Ġpa",
        -8.96497464081692
      ],
      [
        "Ġacross",
        -8.965581425251566
      ],
      [
        "Ġfield",
        -8.965976767114338
      ],
      [
        "by",
        -8.966638489535864
      ],
      [
        "Ġeffect",
        -8.967690389249343
      ],
      [
        "Ġchanges",
        -8.967758288983422
      ],
      [
        "Ġpost",
        -8.967787963000049
      ],
      [
        "Ġcall",
        -8.967799604100566
      ],
      [
        "let",
        -8.969555910903528
      ],
      [
        "Ġlearning",
        -8.970204103021322
      ],
      [
        "Ġphysical",
        -8.970589030935677
      ],
      [
        "ĠEx",
        -8.972396339932125
      ],
      [
        "Ġlower",
        -8.973832577085096
      ],
      [
        "ĠEarth",
        -8.973924891694153
      ],
      [
        "Ġinter",
        -8.97487175206442
      ],
      [
        "ĠEnglish",
        -8.975057276261454
      ],
      [
        "Ġsource",
        -8.975391210337827
      ],
      [
        "ĠScience",
        -8.975639013712057
      ],
      [
        "Ġhaving",
        -8.975798524491058
      ],
      [
        "Ġ14",
        -8.978149368556126
      ],
      [
        "Ġeither",
        -8.97934883802726
      ],
      [
        "val",
        -8.980727302134984
      ],
      [
        "Ġteam",
        -8.98205712620727
      ],
      [
        "Ġproduction",
        -8.98228845622707
      ],
      [
        "ring",
        -8.983422176814829
      ],
      [
        "Ġothers",
        -8.983772099277672
      ],
      [
        "Ġstart",
        -8.984225821174155
      ],
      [
        "Ġfive",
        -8.984554381829165
      ],
      [
        "king",
        -8.986329715915794
      ],
      [
        "Ġwhite",
        -8.986645568487319
      ],
      [
        "day",
        -8.986853367217407
      ],
      [
        "Ġevidence",
        -8.98709876961122
      ],
      [
        "Ġeffects",
        -8.989934630352554
      ],
      [
        "Ġrather",
        -8.99068914686347
      ],
      [
        "Ġprevent",
        -8.990921635149205
      ],
      [
        "mal",
        -8.993062396690283
      ],
      [
        "Ġthough",
        -8.993126689033797
      ],
      [
        "Ġdevelop",
        -8.993784679778965
      ],
      [
        "www",
        -8.995248826013219
      ],
      [
        "Ġpatients",
        -8.99562440350573
      ],
      [
        "15",
        -8.996132126350762
      ],
      [
        "Ġworking",
        -8.999740263906968
      ],
      [
        "Ġlist",
        -8.999778060443571
      ],
      [
        "ĠShe",
        -9.000469195440044
      ],
      [
        "Ġcases",
        -9.000568317737983
      ],
      [
        "Ġsingle",
        -9.001785409221633
      ],
      [
        "Ġaccording",
        -9.002481332831735
      ],
      [
        "Ġblack",
        -9.002755380557002
      ],
      [
        "Ġgroups",
        -9.00308117423872
      ],
      [
        "mar",
        -9.003863093543117
      ],
      [
        ">",
        -9.005924727752166
      ],
      [
        "Ġmodel",
        -9.007551462452325
      ],
      [
        "Ġplay",
        -9.007685311089832
      ],
      [
        "form",
        -9.009162708657
      ],
      [
        "Ġfire",
        -9.011195543215898
      ],
      [
        "Ġrun",
        -9.012865642614685
      ],
      [
        "ual",
        -9.01568943739102
      ],
      [
        "ĠPro",
        -9.016160840729162
      ],
      [
        "sion",
        -9.017398457988111
      ],
      [
        "Ġcost",
        -9.019448241125067
      ],
      [
        "ions",
        -9.020169937419146
      ],
      [
        "Ġinterest",
        -9.021302819620791
      ],
      [
        "ja",
        -9.021984842091266
      ],
      [
        "ĠCenter",
        -9.022359836709516
      ],
      [
        "Ġword",
        -9.02280408485841
      ],
      [
        "ĠUS",
        -9.024075481837984
      ],
      [
        "Ġwhy",
        -9.026530579669076
      ],
      [
        "Ġtaken",
        -9.026870609128974
      ],
      [
        "Ġseen",
        -9.027131046886083
      ],
      [
        "Ġresources",
        -9.028556016630764
      ],
      [
        "Ġalready",
        -9.028583215908093
      ],
      [
        "hal",
        -9.029601445263806
      ],
      [
        "Ġplants",
        -9.029686475173866
      ],
      [
        "Ġarticle",
        -9.03003585120998
      ],
      [
        "Ġterm",
        -9.03203416129776
      ],
      [
        "Ġclimate",
        -9.032989167091964
      ],
      [
        "pro",
        -9.034452678247735
      ],
      [
        "Ġclass",
        -9.03488314636198
      ],
      [
        "Ġpublished",
        -9.035206559218084
      ],
      [
        "Ġmarket",
        -9.0359866360576
      ],
      [
        "Ġaccount",
        -9.037441415826384
      ],
      [
        "Ġ13",
        -9.037926155633698
      ],
      [
        "_",
        -9.039221691505569
      ],
      [
        "Ġquestion",
        -9.039415632769208
      ],
      [
        "Ġturn",
        -9.03994887428175
      ],
      [
        "ĠFa",
        -9.040684035315442
      ],
      [
        "Ġamount",
        -9.040926861431284
      ],
      [
        "Ġlive",
        -9.0411994737533
      ],
      [
        "Ġwhole",
        -9.041852731261413
      ],
      [
        "gen",
        -9.04234797803026
      ],
      [
        "Ġreduce",
        -9.043553418284668
      ],
      [
        "://",
        -9.044980837201743
      ],
      [
        "her",
        -9.045089437462783
      ],
      [
        "Ġimp",
        -9.049374833989134
      ],
      [
        "ĠOne",
        -9.051346907493958
      ],
      [
        "Ġknowledge",
        -9.0514333752427
      ],
      [
        "Ġoil",
        -9.052339760051488
      ],
      [
        "Ġmatter",
        -9.05331340854278
      ],
      [
        "Ġca",
        -9.053602551335503
      ],
      [
        "Ġfunction",
        -9.055154377296676
      ],
      [
        "ple",
        -9.055734689141444
      ],
      [
        "Ġpain",
        -9.059331647930156
      ],
      [
        "nce",
        -9.059996242402384
      ],
      [
        "rea",
        -9.060724217194084
      ],
      [
        "Ġbegan",
        -9.06106853664166
      ],
      [
        "Ġfish",
        -9.061163756720912
      ],
      [
        "Ġbio",
        -9.061165823714044
      ],
      [
        "13",
        -9.061284585949876
      ],
      [
        "Ġunderstand",
        -9.062783338542816
      ],
      [
        "Ġmove",
        -9.063999247963904
      ],
      [
        "Ġgoing",
        -9.06507683703266
      ],
      [
        "Ġcolor",
        -9.066004590889971
      ],
      [
        "Ġparticular",
        -9.066515773195254
      ],
      [
        "Ġmedical",
        -9.06657403085911
      ],
      [
        "ĠAr",
        -9.066897673922238
      ],
      [
        "Ġclear",
        -9.068329651382616
      ],
      [
        "ach",
        -9.070378213991171
      ],
      [
        "Ġhouse",
        -9.07161534713012
      ],
      [
        "Ġaddition",
        -9.072386019344732
      ],
      [
        "ĠThat",
        -9.073219730227445
      ],
      [
        "gra",
        -9.076349729346438
      ],
      [
        "Ġspecial",
        -9.076768509196553
      ],
      [
        "Ġbuilding",
        -9.07858661797216
      ],
      [
        "ĠOn",
        -9.078730433426443
      ],
      [
        "Ġonce",
        -9.079995393870472
      ],
      [
        "Ġmembers",
        -9.080861966576297
      ],
      [
        "Ġdone",
        -9.083109125947308
      ],
      [
        "Ġgas",
        -9.084234866182436
      ],
      [
        "+",
        -9.084659827247052
      ],
      [
        "Ġactivity",
        -9.085105930935066
      ],
      [
        "Ġsix",
        -9.085993894211224
      ],
      [
        "Ġbelieve",
        -9.087019665686736
      ],
      [
        "Ġposition",
        -9.08718731234013
      ],
      [
        "Ġgrowth",
        -9.08802133117545
      ],
      [
        "Ġhalf",
        -9.089216335620488
      ],
      [
        "Ġcell",
        -9.089220262563869
      ],
      [
        "ray",
        -9.089614119688544
      ],
      [
        "Ġflow",
        -9.0910122797867
      ],
      [
        "Ġact",
        -9.091290987483529
      ],
      [
        "Ġ2012",
        -9.09311805685572
      ],
      [
        "Ġthemselves",
        -9.093443539819235
      ],
      [
        "Ġagain",
        -9.093698943295792
      ],
      [
        "Ġpressure",
        -9.094279386372696
      ],
      [
        "Ġbelow",
        -9.095316956485629
      ],
      [
        "Ġrate",
        -9.095860956519282
      ],
      [
        "Ġreason",
        -9.095922854008297
      ],
      [
        "ĠX",
        -9.096039248381397
      ],
      [
        "Ġactivities",
        -9.09624270555452
      ],
      [
        "Ġregion",
        -9.096876628496192
      ],
      [
        "Ġoffice",
        -9.097513584688064
      ],
      [
        "Ġitself",
        -9.097514069104248
      ],
      [
        "Ġglobal",
        -9.100377242833902
      ],
      [
        "org",
        -9.100683045250475
      ],
      [
        "Ġcannot",
        -9.10187316899611
      ],
      [
        "17",
        -9.10283830728975
      ],
      [
        "Ġnature",
        -9.102994568483398
      ],
      [
        "Ġmovement",
        -9.10465841184647
      ],
      [
        "ible",
        -9.106743920634342
      ],
      [
        "Ġliving",
        -9.109136347320549
      ],
      [
        "Ġalmost",
        -9.109170353662218
      ],
      [
        "Ġreally",
        -9.11016552058009
      ],
      [
        "Ġtook",
        -9.110190021104971
      ],
      [
        "Ġlot",
        -9.112659449924262
      ],
      [
        "Ġheat",
        -9.114068517608375
      ],
      [
        "Ġconsidered",
        -9.115806016871376
      ],
      [
        "16",
        -9.116288395748246
      ],
      [
        "Ġcreated",
        -9.11718668185425
      ],
      [
        "Ġyet",
        -9.118815298723478
      ],
      [
        "ious",
        -9.11906192493968
      ],
      [
        "ists",
        -9.119090222772916
      ],
      [
        "ations",
        -9.120064634613746
      ],
      [
        "time",
        -9.12015922336414
      ],
      [
        "Ġpage",
        -9.120277869298354
      ],
      [
        "ric",
        -9.120704085566956
      ],
      [
        "You",
        -9.12111807471666
      ],
      [
        "Ġrights",
        -9.122831856339658
      ],
      [
        "50",
        -9.12332436215572
      ],
      [
        "Ġface",
        -9.123330021801062
      ],
      [
        "Ġpotential",
        -9.127253870976338
      ],
      [
        "cul",
        -9.127691699019095
      ],
      [
        "Ġanimals",
        -9.12876313505672
      ],
      [
        "Ġincreased",
        -9.129501702150312
      ],
      [
        "Ġsimple",
        -9.132046385390897
      ],
      [
        "ĠIndian",
        -9.132853462485624
      ],
      [
        "ĠHis",
        -9.132985533316727
      ],
      [
        "dic",
        -9.133654429782869
      ],
      [
        "Ġstory",
        -9.134538459699968
      ],
      [
        "Ġ2010",
        -9.135020117353315
      ],
      [
        "Ġscientists",
        -9.137012569832107
      ],
      [
        "Ġissue",
        -9.137887197390972
      ],
      [
        "Ġsignificant",
        -9.138963999795273
      ],
      [
        "pan",
        -9.140080012852223
      ],
      [
        "ĠKa",
        -9.140422866365292
      ],
      [
        "Ġenvironmental",
        -9.141413269447003
      ],
      [
        "When",
        -9.144528559515102
      ],
      [
        "Ġsymptoms",
        -9.145183807947529
      ],
      [
        "ĠResearch",
        -9.145261271686609
      ],
      [
        "Ġplan",
        -9.145843333109546
      ],
      [
        "Ġ25",
        -9.146417461221477
      ],
      [
        "old",
        -9.146612089881552
      ],
      [
        "Ġmodern",
        -9.147466885727626
      ],
      [
        "Ġmethod",
        -9.149110990934036
      ],
      [
        "14",
        -9.149478156460871
      ],
      [
        "Ġstates",
        -9.1505079223395
      ],
      [
        "cent",
        -9.15118207595276
      ],
      [
        "Ġassociated",
        -9.151494021004511
      ],
      [
        "Ġ2011",
        -9.152172554519666
      ],
      [
        "cor",
        -9.15253533667054
      ],
      [
        "Ġpractice",
        -9.152762256872752
      ],
      [
        "Ġanti",
        -9.15288167374452
      ],
      [
        "Ġclose",
        -9.153028682686855
      ],
      [
        "Ġself",
        -9.15359129716508
      ],
      [
        "istic",
        -9.153921921021798
      ],
      [
        "ĠBritish",
        -9.156288678994809
      ],
      [
        "ĠFe",
        -9.156289811556912
      ],
      [
        "side",
        -9.158192475779927
      ],
      [
        "):",
        -9.15942705309386
      ],
      [
        "Ġneeded",
        -9.160470426532656
      ],
      [
        "chi",
        -9.161365009766383
      ],
      [
        "Ã©",
        -9.161530489002294
      ],
      [
        "ĠEn",
        -9.16185419804394
      ],
      [
        "nic",
        -9.162873176261948
      ],
      [
        "ace",
        -9.162932818798526
      ],
      [
        "cle",
        -9.164709507295576
      ],
      [
        "Ġ100",
        -9.164846270164452
      ],
      [
        "air",
        -9.164961279983608
      ],
      [
        "Ġneeds",
        -9.165033309286024
      ],
      [
        "Ġsense",
        -9.168669678200326
      ],
      [
        "ĠHar",
        -9.168825633456398
      ],
      [
        "ley",
        -9.169101016749362
      ],
      [
        "Ġrequired",
        -9.17027066632072
      ],
      [
        "Ġcontent",
        -9.171558202631283
      ],
      [
        "Ġresponse",
        -9.17227230926126
      ],
      [
        "Ġrelated",
        -9.174852277395852
      ],
      [
        "like",
        -9.175966983533918
      ],
      [
        "ĠGo",
        -9.176401380561687
      ],
      [
        "Ġma",
        -9.17821476125829
      ],
      [
        "med",
        -9.17951583825682
      ],
      [
        "Ġidea",
        -9.182604148133851
      ],
      [
        "Q",
        -9.1828738121087
      ],
      [
        "Ġmind",
        -9.1855291099237
      ],
      [
        "Ġproducts",
        -9.186252154075722
      ],
      [
        "Ġquality",
        -9.187645902495722
      ],
      [
        "Ġprovided",
        -9.188472562177363
      ],
      [
        "Ġstudent",
        -9.188654393772213
      ],
      [
        "Ġtotal",
        -9.189706422194291
      ],
      [
        "ĠPr",
        -9.190057690779993
      ],
      [
        "Ġrecent",
        -9.191785203343944
      ],
      [
        "Ġtypes",
        -9.19365343857772
      ],
      [
        "ĠSchool",
        -9.193988371148386
      ],
      [
        "Ġmonths",
        -9.194558477054915
      ],
      [
        "Ġred",
        -9.194729170890415
      ],
      [
        "Ġservice",
        -9.19523126530672
      ],
      [
        "based",
        -9.19530020447095
      ],
      [
        "Ġculture",
        -9.19546245248034
      ],
      [
        "Ġdoctor",
        -9.19855566249154
      ],
      [
        "ĠRi",
        -9.198706846330936
      ],
      [
        "ĠMan",
        -9.199087162532251
      ],
      [
        "ĠInstitute",
        -9.1995990035497
      ],
      [
        "30",
        -9.201766539059603
      ],
      [
        "ĠBy",
        -9.202095740037196
      ],
      [
        "Ġactually",
        -9.204907339410678
      ],
      [
        "ified",
        -9.20491396531722
      ],
      [
        "Ġweek",
        -9.205004797153762
      ],
      [
        "Ġattack",
        -9.205504574251496
      ],
      [
        "ble",
        -9.205618604056994
      ],
      [
        "But",
        -9.208814337567338
      ],
      [
        "ack",
        -9.209612352372
      ],
      [
        "Ġsoil",
        -9.209858484248905
      ],
      [
        "Ġrest",
        -9.211370307645948
      ],
      [
        "Ġstructure",
        -9.21213633856964
      ],
      [
        "rac",
        -9.212853580000518
      ],
      [
        "act",
        -9.21335929442766
      ],
      [
        "X",
        -9.214361451182786
      ],
      [
        "Ġsound",
        -9.215886883361891
      ],
      [
        "Ġcharacter",
        -9.216714561297724
      ],
      [
        "Ġconsider",
        -9.220604760795036
      ],
      [
        "lan",
        -9.220723875721053
      ],
      [
        "gar",
        -9.2212861720832
      ],
      [
        "Ġbar",
        -9.221675415524436
      ],
      [
        "Ġaverage",
        -9.222324190042306
      ],
      [
        "ĠDepartment",
        -9.223678585340105
      ],
      [
        "ST",
        -9.225699518263438
      ],
      [
        "Ġaction",
        -9.225887145794369
      ],
      [
        "Ġallow",
        -9.22712548720113
      ],
      [
        "ĠAct",
        -9.22732341193727
      ],
      [
        "ham",
        -9.227785816939472
      ],
      [
        "cha",
        -9.229115896568713
      ],
      [
        "Ġaffect",
        -9.230490721407564
      ],
      [
        "Ġkind",
        -9.23091694787723
      ],
      [
        "ĠMar",
        -9.231318127377625
      ],
      [
        "Ġquestions",
        -9.232319445692376
      ],
      [
        "Ġsure",
        -9.234744607225151
      ],
      [
        "Ġsun",
        -9.234895167776887
      ],
      [
        "Ġapproach",
        -9.235835512105515
      ],
      [
        "van",
        -9.236559992622984
      ],
      [
        "Ġfall",
        -9.23866522093656
      ],
      [
        "Ġauthor",
        -9.239044125736497
      ],
      [
        "Ġways",
        -9.24228806740846
      ],
      [
        "Ġstrong",
        -9.242584594966848
      ],
      [
        "Ġmicro",
        -9.243376587873538
      ],
      [
        "Ġnetwork",
        -9.244602265584705
      ],
      [
        "Ġnecessary",
        -9.244978030643953
      ],
      [
        "ĠNi",
        -9.24768178897444
      ],
      [
        "ock",
        -9.247710841415715
      ],
      [
        "Ġ2009",
        -9.248148104836554
      ],
      [
        "ever",
        -9.251257647665328
      ],
      [
        "Ġbuilt",
        -9.251446231580015
      ],
      [
        "Ġreported",
        -9.25164058079162
      ],
      [
        "late",
        -9.252016744453211
      ],
      [
        "Ġprovides",
        -9.253077369546023
      ],
      [
        "Ġmoney",
        -9.253303783250685
      ],
      [
        "ration",
        -9.254731504186266
      ],
      [
        "RE",
        -9.25510236132116
      ],
      [
        "Ġissues",
        -9.255788855748577
      ],
      [
        "ĠSan",
        -9.256665985571091
      ],
      [
        "arch",
        -9.256745963491689
      ],
      [
        "Ġtell",
        -9.257673577110774
      ],
      [
        "ably",
        -9.25836743368322
      ],
      [
        "Ġcondition",
        -9.258412236762387
      ],
      [
        "Ġcenter",
        -9.259650513486529
      ],
      [
        "Ġcover",
        -9.259815981245575
      ],
      [
        "Ġmaterials",
        -9.259867482385848
      ],
      [
        "Ġunderstanding",
        -9.26323798747854
      ],
      [
        "Ġsection",
        -9.263441635972791
      ],
      [
        "Ġvisit",
        -9.266110071041943
      ],
      [
        "Ġdifficult",
        -9.267485121081505
      ],
      [
        "Ġimage",
        -9.269062255284569
      ],
      [
        "qu",
        -9.269854207972593
      ],
      [
        "Ġrecord",
        -9.270356329630532
      ],
      [
        "Ġprograms",
        -9.270797326995652
      ],
      [
        "tur",
        -9.27084520854479
      ],
      [
        "ĠSu",
        -9.271315674669122
      ],
      [
        "Ġanswer",
        -9.27211588809973
      ],
      [
        "Ġweight",
        -9.273476686215195
      ],
      [
        "Ġ50",
        -9.275119887069025
      ],
      [
        "Ġmean",
        -9.275335097763335
      ],
      [
        "Ġhttp",
        -9.275733482045336
      ],
      [
        "Ġparents",
        -9.275787975929967
      ],
      [
        "ĠGerman",
        -9.275980363493703
      ],
      [
        "Ġskin",
        -9.27773545700008
      ],
      [
        "Ġnorth",
        -9.278247982658762
      ],
      [
        "ĠWith",
        -9.279196442725125
      ],
      [
        "Ġservices",
        -9.281470745893584
      ],
      [
        "Ġreading",
        -9.281539580221672
      ],
      [
        "Ġeffective",
        -9.282126316761827
      ],
      [
        "Ġoriginal",
        -9.2822593878998
      ],
      [
        "Ġ2008",
        -9.282439163408904
      ],
      [
        "Ġthroughout",
        -9.28333682422651
      ],
      [
        "ĠEl",
        -9.283547387565289
      ],
      [
        "Ġtrue",
        -9.283727987981145
      ],
      [
        "gre",
        -9.283974271801071
      ],
      [
        "pha",
        -9.284474141680526
      ],
      [
        "Ġbehavior",
        -9.284527429199604
      ],
      [
        "Ġmanagement",
        -9.28622628166268
      ],
      [
        "Ġadd",
        -9.286693984069023
      ],
      [
        "Ġever",
        -9.286714025233676
      ],
      [
        "ĠSp",
        -9.286925442469402
      ],
      [
        "Ġrec",
        -9.287711447034132
      ],
      [
        "comp",
        -9.287854063751151
      ],
      [
        "Ġpoor",
        -9.28830578507142
      ],
      [
        "ification",
        -9.288621793136937
      ],
      [
        "Ġscientific",
        -9.289728709773554
      ],
      [
        "ery",
        -9.291295427142405
      ],
      [
        "ĠMon",
        -9.291437035716989
      ],
      [
        "Ġhours",
        -9.292853246069765
      ],
      [
        "Ġcontact",
        -9.295508871750217
      ],
      [
        "Ġpersonal",
        -9.295845368904974
      ],
      [
        "Ġfeel",
        -9.295860789100638
      ],
      [
        "Ġforce",
        -9.2962713243213
      ],
      [
        "Ġgreater",
        -9.297114131678798
      ],
      [
        "ĠKe",
        -9.297880693518165
      ],
      [
        "Ġago",
        -9.299140574258368
      ],
      [
        "Ġmakes",
        -9.299853106284354
      ],
      [
        "Ġloss",
        -9.300418505363064
      ],
      [
        "Ġlonger",
        -9.30063979860326
      ],
      [
        "Ġlate",
        -9.300801506511707
      ],
      [
        "Ġinternational",
        -9.302359831203502
      ],
      [
        "bra",
        -9.30335923277771
      ],
      [
        "ments",
        -9.3039999808979
      ],
      [
        "ĠAfter",
        -9.30588426441832
      ],
      [
        "Ġtemperature",
        -9.30836528822719
      ],
      [
        "Ġdamage",
        -9.308484001500474
      ],
      [
        "water",
        -9.309662992995555
      ],
      [
        "ological",
        -9.310156858299084
      ],
      [
        "Ġsometimes",
        -9.312282554227863
      ],
      [
        "low",
        -9.314687993162751
      ],
      [
        "Ġreturn",
        -9.315372980780202
      ],
      [
        "Ġrule",
        -9.3157896571695
      ],
      [
        "Ġstandard",
        -9.316929914303303
      ],
      [
        "pla",
        -9.317103376824766
      ],
      [
        "Ġgene",
        -9.318738129458527
      ],
      [
        "ĠRiver",
        -9.31995986341134
      ],
      [
        "ĠBar",
        -9.321425836981806
      ],
      [
        "Ġgenerally",
        -9.321716289869318
      ],
      [
        "Ġsituation",
        -9.322445933874238
      ],
      [
        "Ġcaused",
        -9.323183864067422
      ],
      [
        "Ġfeet",
        -9.326335924149644
      ],
      [
        "uch",
        -9.327613970537854
      ],
      [
        "Ġbase",
        -9.327982514749584
      ],
      [
        "Ġprotein",
        -9.328358795273903
      ],
      [
        "Ġshows",
        -9.328441661844266
      ],
      [
        "Ġpolicy",
        -9.329094176968397
      ],
      [
        "Ġanalysis",
        -9.329296346177143
      ],
      [
        "Ġdesigned",
        -9.332586677118837
      ],
      [
        "Ġgrow",
        -9.334649911828215
      ],
      [
        "ck",
        -9.33622884767974
      ],
      [
        "Ġterms",
        -9.336790404029248
      ],
      [
        "Ġwritten",
        -9.337687207661544
      ],
      [
        "Ġproduced",
        -9.34001360641376
      ],
      [
        "Ġbring",
        -9.341273241585087
      ],
      [
        "ĠEuropean",
        -9.342029148575078
      ],
      [
        "Ġschools",
        -9.345011823062167
      ],
      [
        "Ġbusiness",
        -9.34522676019365
      ],
      [
        "Ġindustry",
        -9.34559194457307
      ],
      [
        "Î",
        -9.347667960401544
      ],
      [
        "Ġprobably",
        -9.34770961593552
      ],
      [
        "Ġbit",
        -9.34847467973151
      ],
      [
        "ĠCalifornia",
        -9.348523622904706
      ],
      [
        "Ġbuild",
        -9.3493830724007
      ],
      [
        "Ġheld",
        -9.350591462939256
      ],
      [
        "Ġtaking",
        -9.350614875788263
      ],
      [
        "Ġinfluence",
        -9.350817729745645
      ],
      [
        "can",
        -9.350963825338471
      ],
      [
        "According",
        -9.353605173454062
      ],
      [
        "Ġfuel",
        -9.353766717790808
      ],
      [
        "Ġcarbon",
        -9.35441403066132
      ],
      [
        "ĠPress",
        -9.35510191847028
      ],
      [
        "Ġavoid",
        -9.356398779266488
      ],
      [
        "Ġwriting",
        -9.35661553832962
      ],
      [
        "ĠWa",
        -9.3567314832427
      ],
      [
        "ĠVi",
        -9.357539450827655
      ],
      [
        "Ġbasic",
        -9.357832766829327
      ],
      [
        "ĠHow",
        -9.358039639099824
      ],
      [
        "During",
        -9.35951537446573
      ],
      [
        "Ġlove",
        -9.359602961043375
      ],
      [
        "Ġmilitary",
        -9.36034443951514
      ],
      [
        "Ġthing",
        -9.360508071975586
      ],
      [
        "Ġsociety",
        -9.360806860576252
      ],
      [
        "He",
        -9.360826746233522
      ],
      [
        "Ġshown",
        -9.3612578764778
      ],
      [
        "ĠEurope",
        -9.362637165631709
      ],
      [
        "Ġfactors",
        -9.363186099713214
      ],
      [
        "ĠMarch",
        -9.363246499771885
      ],
      [
        "Ġwind",
        -9.364762826317309
      ],
      [
        "âĢ¦",
        -9.36533516812172
      ],
      [
        "Ġtheory",
        -9.365507546361274
      ],
      [
        "Ġwide",
        -9.365963449521804
      ],
      [
        "win",
        -9.36598410629076
      ],
      [
        "Ġsearch",
        -9.366003847563196
      ],
      [
        "Ġestablished",
        -9.366085176874249
      ],
      [
        "On",
        -9.366437848494275
      ],
      [
        "Ġtown",
        -9.367648354814335
      ],
      [
        "mes",
        -9.368023770173386
      ],
      [
        "Ġprotect",
        -9.368691334480694
      ],
      [
        "Ġseries",
        -9.369356385072914
      ],
      [
        "ĠMu",
        -9.36952237633506
      ],
      [
        "Ġparts",
        -9.370291304803818
      ],
      [
        "Ġbreak",
        -9.37179798441611
      ],
      [
        "pose",
        -9.37187409604019
      ],
      [
        "kin",
        -9.372348297173618
      ],
      [
        "ular",
        -9.37348237327526
      ],
      [
        "ES",
        -9.37356543117192
      ],
      [
        "ker",
        -9.374328749723256
      ],
      [
        "han",
        -9.3757307709433
      ],
      [
        "Ġrepresent",
        -9.375811482121424
      ],
      [
        "Ġsouth",
        -9.37620223322088
      ],
      [
        "Ġinvolved",
        -9.376629741893762
      ],
      [
        "car",
        -9.377169732167976
      ],
      [
        "ER",
        -9.377494443198414
      ],
      [
        "Ġanimal",
        -9.37931826471809
      ],
      [
        "ĠHu",
        -9.379637474141877
      ],
      [
        "Ġ2007",
        -9.379795982322957
      ],
      [
        "Ġparticularly",
        -9.379970289363367
      ],
      [
        "Ġdate",
        -9.380472330351148
      ],
      [
        "ĠWest",
        -9.381919267376215
      ],
      [
        "Ġcomplex",
        -9.381941257169824
      ],
      [
        "Ġoccur",
        -9.38209303778845
      ],
      [
        "Ġoutside",
        -9.382247946832056
      ],
      [
        "ĠPi",
        -9.382345464797549
      ],
      [
        "25",
        -9.382673340408612
      ],
      [
        "Ġhold",
        -9.383966401264065
      ],
      [
        "ĠDa",
        -9.384855438121033
      ],
      [
        "organ",
        -9.385275626625887
      ],
      [
        "Ġimprove",
        -9.385805249117578
      ],
      [
        "IN",
        -9.386094758889378
      ],
      [
        "ĠKi",
        -9.386371832288374
      ],
      [
        "Ġten",
        -9.387327243900232
      ],
      [
        "ĠCl",
        -9.387575898545387
      ],
      [
        "Ġonline",
        -9.388109991596783
      ],
      [
        "Ġhope",
        -9.388178984383508
      ],
      [
        "Ġdetermine",
        -9.388253360472127
      ],
      [
        "Ġshare",
        -9.389598243033207
      ],
      [
        "ĠPer",
        -9.389875847506511
      ],
      [
        "lea",
        -9.39049963849631
      ],
      [
        "ĠDu",
        -9.392107957914606
      ],
      [
        "aid",
        -9.39307309463356
      ],
      [
        "Ġcomplete",
        -9.39396118261319
      ],
      [
        "Ġnormal",
        -9.394659928073866
      ],
      [
        "ĠTh",
        -9.394936765274824
      ],
      [
        "vent",
        -9.397675188096894
      ],
      [
        "Ġincluded",
        -9.39779282863822
      ],
      [
        "Ġthus",
        -9.39850235518129
      ],
      [
        "Ġobject",
        -9.398640726584434
      ],
      [
        "als",
        -9.39929668088345
      ],
      [
        "ĠJune",
        -9.399298127903032
      ],
      [
        "Ġnight",
        -9.399866968957497
      ],
      [
        "Ġ21",
        -9.400107396817566
      ],
      [
        "Ġcut",
        -9.401207281519088
      ],
      [
        "lar",
        -9.401588861694654
      ],
      [
        "Ġgenetic",
        -9.401810818429317
      ],
      [
        "bor",
        -9.402581777733635
      ],
      [
        "Ġthousand",
        -9.403237066781609
      ],
      [
        "Ġtrade",
        -9.40363941299372
      ],
      [
        "vis",
        -9.403690368829874
      ],
      [
        "Ġdeep",
        -9.40432227957691
      ],
      [
        "ĠFrench",
        -9.40543312675027
      ],
      [
        "ĠGe",
        -9.405746350049126
      ],
      [
        "Ġmedia",
        -9.405775354449624
      ],
      [
        "light",
        -9.40623936663419
      ],
      [
        "Ġevents",
        -9.40627463168792
      ],
      [
        "Ġriver",
        -9.406685297865758
      ],
      [
        "spect",
        -9.406722007934183
      ],
      [
        "Ġworks",
        -9.408269749936432
      ],
      [
        "Ġmap",
        -9.408337107494072
      ],
      [
        "Ġtraining",
        -9.411908217944603
      ],
      [
        "Ġwhose",
        -9.412299744168198
      ],
      [
        "Ġpicture",
        -9.41258728314056
      ],
      [
        "Ġ24",
        -9.413007939161282
      ],
      [
        "Ġsimply",
        -9.413514123529565
      ],
      [
        "ĠWashington",
        -9.413834242278512
      ],
      [
        "rial",
        -9.416127089730988
      ],
      [
        "Ġmass",
        -9.416164186739772
      ],
      [
        "wer",
        -9.416394192189376
      ],
      [
        "Ġvariety",
        -9.417045269516931
      ],
      [
        "ĠOr",
        -9.41710703280786
      ],
      [
        "Ġstage",
        -9.417222646847646
      ],
      [
        "Ġfigure",
        -9.41739913541406
      ],
      [
        "Ġdeveloping",
        -9.417535689615931
      ],
      [
        "ĠChurch",
        -9.4185648318961
      ],
      [
        "ĠFl",
        -9.418829491189516
      ],
      [
        "Ġsources",
        -9.419655538111876
      ],
      [
        "graph",
        -9.419793793252694
      ],
      [
        "Ġlocation",
        -9.420468551380068
      ],
      [
        "wing",
        -9.420470804054592
      ],
      [
        "rid",
        -9.4207860920926
      ],
      [
        "Ġalthough",
        -9.421388595073408
      ],
      [
        "75",
        -9.421907271889042
      ],
      [
        "ram",
        -9.422513726346269
      ],
      [
        "Ġlack",
        -9.422570228601304
      ],
      [
        "Ġmiles",
        -9.423581166921338
      ],
      [
        "Ġreceive",
        -9.424506102313892
      ],
      [
        "ĠII",
        -9.425484883680216
      ],
      [
        "Ġserious",
        -9.425780174717932
      ],
      [
        "Ġacid",
        -9.428111239519405
      ],
      [
        "ĠPresident",
        -9.42852884649037
      ],
      [
        "Ġetc",
        -9.428780658213809
      ],
      [
        "ĠGu",
        -9.430083628389776
      ],
      [
        "Ġsuccess",
        -9.43038257294973
      ],
      [
        "Ġsolution",
        -9.431766078929478
      ],
      [
        "Ġcontinue",
        -9.431878947012132
      ],
      [
        "Ġlet",
        -9.432323234579432
      ],
      [
        "Ġtrans",
        -9.432416931431918
      ],
      [
        "Ġmulti",
        -9.433228164979706
      ],
      [
        "Ġfile",
        -9.433612309244667
      ],
      [
        "âĢ¢",
        -9.433635939183269
      ],
      [
        "ĠAb",
        -9.43496545976801
      ],
      [
        "Ġtreat",
        -9.435482547108428
      ],
      [
        "Ġexercise",
        -9.435790334026722
      ],
      [
        "year",
        -9.4360626132987
      ],
      [
        "ches",
        -9.43620040239528
      ],
      [
        "ĠCha",
        -9.436327829092926
      ],
      [
        "Ġcollection",
        -9.437166870852389
      ],
      [
        "Ġactive",
        -9.438105872026531
      ],
      [
        "Ġskills",
        -9.439565052531782
      ],
      [
        "term",
        -9.440793035592923
      ],
      [
        "ult",
        -9.441717562218058
      ],
      [
        "ĠHistory",
        -9.446111744394887
      ],
      [
        "ping",
        -9.446694527341776
      ],
      [
        "Ġmother",
        -9.448444113587309
      ],
      [
        "AN",
        -9.450245427580825
      ],
      [
        "ĠChina",
        -9.450884593978351
      ],
      [
        "ĠAugust",
        -9.451153900040469
      ],
      [
        "Ġincludes",
        -9.451174215108894
      ],
      [
        "gan",
        -9.451488635662868
      ],
      [
        "ĠCor",
        -9.45262628708547
      ],
      [
        "shed",
        -9.454605113292148
      ],
      [
        "ges",
        -9.454946542570289
      ],
      [
        "ĠAfrican",
        -9.455795267147517
      ],
      [
        "ĠPe",
        -9.456172666837588
      ],
      [
        "ĠApril",
        -9.456560373309973
      ],
      [
        "Ġfarm",
        -9.456579359730243
      ],
      [
        "ban",
        -9.456991710994
      ],
      [
        "Ġindividuals",
        -9.457080399301216
      ],
      [
        "Ġbirth",
        -9.458338204424948
      ],
      [
        "ome",
        -9.458481489548433
      ],
      [
        "Ġeye",
        -9.45865865863538
      ],
      [
        "my",
        -9.458679334005518
      ],
      [
        "izing",
        -9.45905172120323
      ],
      [
        "Ġentire",
        -9.459566755730853
      ],
      [
        "Ġpopular",
        -9.45982752350993
      ],
      [
        "ĠInternational",
        -9.460011278089093
      ],
      [
        "Ġthird",
        -9.463034415251052
      ],
      [
        "Ġled",
        -9.463661507295342
      ],
      [
        "Ġspread",
        -9.463798705701947
      ],
      [
        "eal",
        -9.463822590920923
      ],
      [
        "ries",
        -9.46450455946562
      ],
      [
        "Ġcompany",
        -9.46529187252134
      ],
      [
        "ories",
        -9.465624971987044
      ],
      [
        "How",
        -9.46581703568674
      ],
      [
        "ĠKing",
        -9.466518940780356
      ],
      [
        "ĠService",
        -9.466689418108963
      ],
      [
        "Ġfederal",
        -9.46824464554557
      ],
      [
        "Ġsuper",
        -9.468310968819148
      ],
      [
        "Ġvideo",
        -9.470340129162649
      ],
      [
        "ties",
        -9.471339243962156
      ],
      [
        "ole",
        -9.471894807507432
      ],
      [
        "Ġwrite",
        -9.47191485482886
      ],
      [
        "Ġmeaning",
        -9.472088194054145
      ],
      [
        "serv",
        -9.472422620944965
      ],
      [
        "wave",
        -9.473328796854991
      ],
      [
        "Ġadded",
        -9.473638798493552
      ],
      [
        "inal",
        -9.47452770095632
      ],
      [
        "ĠRoman",
        -9.47457302982097
      ],
      [
        "uck",
        -9.475352554178436
      ],
      [
        "No",
        -9.476619101566763
      ],
      [
        "mor",
        -9.476980048186066
      ],
      [
        "Ġnation",
        -9.47702148537716
      ],
      [
        "Ġstep",
        -9.477728113835964
      ],
      [
        "ĠCh",
        -9.48026605122932
      ],
      [
        "ĠJuly",
        -9.480327576086443
      ],
      [
        "not",
        -9.4803387443882
      ],
      [
        "Ġcentral",
        -9.48109114930213
      ],
      [
        "Ġtherefore",
        -9.481255595346582
      ],
      [
        "Ġexist",
        -9.48147059045034
      ],
      [
        "Ġfocus",
        -9.482436185809505
      ],
      [
        "Ġwent",
        -9.482737498595288
      ],
      [
        "ĠChristian",
        -9.483461829832612
      ],
      [
        "ĠEducation",
        -9.484313616218758
      ],
      [
        "Ġversion",
        -9.484615242603322
      ],
      [
        "Ġearth",
        -9.485301888786504
      ],
      [
        "Ġrequire",
        -9.486003752454817
      ],
      [
        "Ġdiet",
        -9.486854399138766
      ],
      [
        "Ġpay",
        -9.48702268307306
      ],
      [
        "Ġlarger",
        -9.487566913059752
      ],
      [
        "Ġmusic",
        -9.488287977284072
      ],
      [
        "ĠWeb",
        -9.488714630182272
      ],
      [
        "ĠPark",
        -9.48915766199923
      ],
      [
        "Ġappear",
        -9.48925416285198
      ],
      [
        "Ġprivate",
        -9.48931088838724
      ],
      [
        "mic",
        -9.489548927922376
      ],
      [
        "are",
        -9.490390632622162
      ],
      [
        "ĠPre",
        -9.491151938933978
      ],
      [
        "Ġadditional",
        -9.491285130522966
      ],
      [
        "Ġbeginning",
        -9.491898009900217
      ],
      [
        "ĠAfrica",
        -9.491976567556447
      ],
      [
        "ĠMany",
        -9.49244416467474
      ],
      [
        "east",
        -9.493072353252328
      ],
      [
        "Ġ40",
        -9.493866300266896
      ],
      [
        "Ġbig",
        -9.494379569354573
      ],
      [
        "Ġfruit",
        -9.49452829911745
      ],
      [
        "amp",
        -9.495028396167204
      ],
      [
        "Ġtop",
        -9.495360900280843
      ],
      [
        "Ġhundred",
        -9.495571501186282
      ],
      [
        "Ġship",
        -9.495610005057092
      ],
      [
        "Ġcomes",
        -9.496168768251236
      ],
      [
        "65",
        -9.496312145941324
      ],
      [
        "Ġmachine",
        -9.497045326101336
      ],
      [
        "off",
        -9.49840174822631
      ],
      [
        "Ġcourt",
        -9.49846703842496
      ],
      [
        "Ġseparate",
        -9.499187773595574
      ],
      [
        "Ġreceived",
        -9.499806136954346
      ],
      [
        "Ġdirect",
        -9.500539070633783
      ],
      [
        "Ġtravel",
        -9.501759709425674
      ],
      [
        "Ġnearly",
        -9.50304866773271
      ],
      [
        "Ġlives",
        -9.503130977626752
      ],
      [
        "col",
        -9.503828536655664
      ],
      [
        "well",
        -9.505154428977775
      ],
      [
        "ĠWhile",
        -9.505296764562212
      ],
      [
        "tim",
        -9.506653860546598
      ],
      [
        "Ġinstead",
        -9.509029517727358
      ],
      [
        "Ġgrowing",
        -9.50932342909164
      ],
      [
        "ĠJe",
        -9.509945542999867
      ],
      [
        "36",
        -9.51099471865276
      ],
      [
        "Ġattention",
        -9.51185170346381
      ],
      [
        "Ġrep",
        -9.512501624028754
      ],
      [
        "Ġdoing",
        -9.513811908186533
      ],
      [
        "Ġrock",
        -9.51383429362306
      ],
      [
        "Ġwall",
        -9.514304560816486
      ],
      [
        "pp",
        -9.514623927772108
      ],
      [
        "Ġsoon",
        -9.515086750900014
      ],
      [
        "ral",
        -9.516405030241364
      ],
      [
        "ĠWilliam",
        -9.516857451741137
      ],
      [
        "Ġforms",
        -9.517686083394665
      ],
      [
        "Ġcauses",
        -9.517737918762206
      ],
      [
        "ĠFr",
        -9.517934410124916
      ],
      [
        "Ġmethods",
        -9.51803047396274
      ],
      [
        "Ġdepend",
        -9.518242779779388
      ],
      [
        "Ġgreen",
        -9.518512131523057
      ],
      [
        "Ġrise",
        -9.519021926612396
      ],
      [
        "Ġprimary",
        -9.519110623161058
      ],
      [
        "And",
        -9.519112106662009
      ],
      [
        "ates",
        -9.52049074312563
      ],
      [
        "Ġdog",
        -9.521101298680554
      ],
      [
        "Ġreligious",
        -9.521360083773732
      ],
      [
        "Ġblock",
        -9.522150856051686
      ],
      [
        "Ġsignal",
        -9.522381514954503
      ],
      [
        "Ġfun",
        -9.52265022559566
      ],
      [
        "Ġhealthy",
        -9.523070091838727
      ],
      [
        "ĠCounty",
        -9.524720455793982
      ],
      [
        "Ġhimself",
        -9.524864741040524
      ],
      [
        "Ġwebsite",
        -9.525011444774378
      ],
      [
        "Ġstop",
        -9.52545123430923
      ],
      [
        "try",
        -9.526227272429551
      ],
      [
        "Ġteachers",
        -9.527027633916047
      ],
      [
        "ID",
        -9.527649136022765
      ],
      [
        "Ġdemand",
        -9.529305783078083
      ],
      [
        "Ġtable",
        -9.529573649206789
      ],
      [
        "ĠHer",
        -9.529893897356972
      ],
      [
        "Ġclean",
        -9.53019585065071
      ],
      [
        "Ġshall",
        -9.53033954603715
      ],
      [
        "Ġidentify",
        -9.531579264666023
      ],
      [
        "Ġcode",
        -9.531663744401726
      ],
      [
        "Ġquite",
        -9.532247511230612
      ],
      [
        "bal",
        -9.532351545080038
      ],
      [
        "ĠFi",
        -9.532419021790442
      ],
      [
        "Ġspeed",
        -9.532781382087322
      ],
      [
        "ivity",
        -9.53380253236718
      ],
      [
        "ĠIndia",
        -9.533914463730495
      ],
      [
        "Ġfamilies",
        -9.5339498405545
      ],
      [
        "Ġfat",
        -9.534220792053272
      ],
      [
        "lip",
        -9.534789309253332
      ],
      [
        "ike",
        -9.53523074992896
      ],
      [
        "Ġsafe",
        -9.535661361883658
      ],
      [
        "Ġtraditional",
        -9.535783929143015
      ],
      [
        "teen",
        -9.536454707245984
      ],
      [
        "ĠCol",
        -9.536952632199396
      ],
      [
        "Ġserve",
        -9.53729911262432
      ],
      [
        "33",
        -9.537469479575591
      ],
      [
        "gue",
        -9.537551173747875
      ],
      [
        "Ġplanet",
        -9.538058146570568
      ],
      [
        "ĠEngland",
        -9.538452645244526
      ],
      [
        "Ġfemale",
        -9.538940450567113
      ],
      [
        "Ġbillion",
        -9.541076015560204
      ],
      [
        "Ġcommunities",
        -9.54180510296502
      ],
      [
        "Ġbrought",
        -9.543358521602912
      ],
      [
        "Ġsafety",
        -9.54340330264286
      ],
      [
        "ĠPh",
        -9.54375652978551
      ],
      [
        "Ġwaste",
        -9.543820253794618
      ],
      [
        "Ġprofessional",
        -9.543891212673428
      ],
      [
        "AL",
        -9.544226950259544
      ],
      [
        "Ġeasy",
        -9.54459051333076
      ],
      [
        "40",
        -9.544967940983303
      ],
      [
        "cla",
        -9.545474973424486
      ],
      [
        "acc",
        -9.5467108207323
      ],
      [
        "ĠGeneral",
        -9.547238743106476
      ],
      [
        "Ġtree",
        -9.547337939826436
      ],
      [
        "Ġperformance",
        -9.547905192028717
      ],
      [
        "tical",
        -9.54793732133591
      ],
      [
        "Ġlimit",
        -9.548011384854458
      ],
      [
        "meter",
        -9.54834976852564
      ],
      [
        "Ġaddress",
        -9.548489906048207
      ],
      [
        "Ġfollow",
        -9.549116202066523
      ],
      [
        "Ġappropriate",
        -9.549602330292323
      ],
      [
        "Ġdeal",
        -9.550700577390074
      ],
      [
        "duc",
        -9.551440029171784
      ],
      [
        "ĠMost",
        -9.552085136205838
      ],
      [
        "Ġsolar",
        -9.55359493177928
      ],
      [
        "Ġdirectly",
        -9.5537742715769
      ],
      [
        "rat",
        -9.553993975379614
      ],
      [
        ");",
        -9.554152152891657
      ],
      [
        "Ġreview",
        -9.555425780071372
      ],
      [
        "Ġlength",
        -9.55544800335867
      ],
      [
        "Ġmission",
        -9.557052020888488
      ],
      [
        "ĠSch",
        -9.5571850389276
      ],
      [
        "Ġindicate",
        -9.557753887688138
      ],
      [
        "Ġlargest",
        -9.55784336621006
      ],
      [
        "ong",
        -9.558117517127238
      ],
      [
        "pel",
        -9.558407228284995
      ],
      [
        "Ġcapital",
        -9.558582246834126
      ],
      [
        "Ġseven",
        -9.558797163342067
      ],
      [
        "ĠJanuary",
        -9.559230919991744
      ],
      [
        "gro",
        -9.559596254799388
      ],
      [
        "Ġflu",
        -9.559855788198528
      ],
      [
        "ture",
        -9.560056673394577
      ],
      [
        "Ġteaching",
        -9.560150178803346
      ],
      [
        "ants",
        -9.561917264853584
      ],
      [
        "ĠJo",
        -9.562466189440432
      ],
      [
        "Ġ2006",
        -9.562953851497133
      ],
      [
        "Ġdescribed",
        -9.56303527660688
      ],
      [
        "ĠCom",
        -9.563334825869642
      ],
      [
        "ĠGreat",
        -9.563402843417478
      ],
      [
        "Ġvi",
        -9.564609538977884
      ],
      [
        "Ġtry",
        -9.565063700481426
      ],
      [
        "ĠOther",
        -9.566668843331508
      ],
      [
        "Ġask",
        -9.568014586839976
      ],
      [
        "Ġpositive",
        -9.568021112603352
      ],
      [
        "Ġbooks",
        -9.569163891273693
      ],
      [
        "ĠMore",
        -9.570268893498604
      ],
      [
        "ĠRu",
        -9.570586221999395
      ],
      [
        "Ġrefer",
        -9.571463823344605
      ],
      [
        "Ġseems",
        -9.571477734254485
      ],
      [
        "Ġha",
        -9.572348836238314
      ],
      [
        "Ġroad",
        -9.572752234865758
      ],
      [
        "art",
        -9.573657134403712
      ],
      [
        "Ġnumbers",
        -9.574127018703075
      ],
      [
        "Ġbegin",
        -9.574214334101942
      ],
      [
        "Ġshape",
        -9.574426969084252
      ],
      [
        "ĠCity",
        -9.574506177640837
      ],
      [
        "ĠWi",
        -9.575279663423997
      ],
      [
        "Ġmale",
        -9.57564746869224
      ],
      [
        "Ġbone",
        -9.57642660704484
      ],
      [
        "Ġstand",
        -9.57740858737202
      ],
      [
        "Ġgeneration",
        -9.577439933896532
      ],
      [
        "Ġ22",
        -9.577662495744509
      ],
      [
        "Ġlost",
        -9.57867653739768
      ],
      [
        "ulation",
        -9.57899686464672
      ],
      [
        "Ġcheck",
        -9.579086356938213
      ],
      [
        "ĠSh",
        -9.580209309410902
      ],
      [
        "48",
        -9.580622830288643
      ],
      [
        "cho",
        -9.580837162774335
      ],
      [
        "mark",
        -9.58162194140519
      ],
      [
        "ĠSeptember",
        -9.583017893723529
      ],
      [
        "mate",
        -9.585818846058926
      ],
      [
        "Ġdifference",
        -9.585876577704484
      ],
      [
        "Ġenter",
        -9.586632674517857
      ],
      [
        "Ġinfection",
        -9.586659857409922
      ],
      [
        "Ġcorrect",
        -9.587034982711804
      ],
      [
        "Ġsupply",
        -9.589005042381205
      ],
      [
        "Ġreference",
        -9.589035089768153
      ],
      [
        "mini",
        -9.5894412312659
      ],
      [
        "Ġroot",
        -9.58948349511124
      ],
      [
        "Ġdu",
        -9.589581471708076
      ],
      [
        "One",
        -9.590449342470995
      ],
      [
        "Ġmis",
        -9.590650504618615
      ],
      [
        "ook",
        -9.590651726459472
      ],
      [
        "Ġstar",
        -9.590893781583526
      ],
      [
        "pon",
        -9.592263016614924
      ],
      [
        "top",
        -9.593449533998225
      ],
      [
        "Ġlimited",
        -9.593578184196224
      ],
      [
        "Ġcur",
        -9.59420112250458
      ],
      [
        "ĠCan",
        -9.594698732776946
      ],
      [
        "ĠOctober",
        -9.59492231550066
      ],
      [
        "Ġsites",
        -9.595395129117318
      ],
      [
        "Ġlink",
        -9.59715363552835
      ],
      [
        "q",
        -9.59720861675626
      ],
      [
        "Ġ2000",
        -9.598761261316405
      ],
      [
        "Ġmeet",
        -9.599534444879398
      ],
      [
        "Ġancient",
        -9.5998924629961
      ],
      [
        "ĠEast",
        -9.599910377900526
      ],
      [
        "Ġdied",
        -9.600995089416786
      ],
      [
        "Ġproduct",
        -9.601620374395065
      ],
      [
        "roll",
        -9.601879029787582
      ],
      [
        "Ġpatient",
        -9.602111250850175
      ],
      [
        "Ġsummer",
        -9.602254148695854
      ],
      [
        "AC",
        -9.602914139647392
      ],
      [
        "Ġstress",
        -9.60299482694833
      ],
      [
        "Ġremain",
        -9.60310892790896
      ],
      [
        "Ġchoice",
        -9.603856544033524
      ],
      [
        "Ġscale",
        -9.60420617451338
      ],
      [
        "Ġfather",
        -9.605148119619448
      ],
      [
        "Ġattempt",
        -9.606148779698914
      ],
      [
        "Ġconcept",
        -9.606666914612708
      ],
      [
        "Ġsent",
        -9.606964797265642
      ],
      [
        "Ġrare",
        -9.608116280468693
      ],
      [
        "AT",
        -9.608755971342497
      ],
      [
        "Ġevent",
        -9.608789039189912
      ],
      [
        "Ġborn",
        -9.608851890012286
      ],
      [
        "Ġdes",
        -9.609144085426486
      ],
      [
        "ĠLu",
        -9.609608480897842
      ],
      [
        "Ġefforts",
        -9.610003258456878
      ],
      [
        "Ġlocated",
        -9.61009231523744
      ],
      [
        "ĠIsland",
        -9.610675826788226
      ],
      [
        "Ġcommunication",
        -9.611422059424504
      ],
      [
        "Ġchemical",
        -9.611740985775391
      ],
      [
        "38",
        -9.61201870985047
      ],
      [
        "Ġuseful",
        -9.6121821786617
      ],
      [
        "ĠIsrael",
        -9.612525147613578
      ],
      [
        "Ġtend",
        -9.61258698787037
      ],
      [
        "Ġprotection",
        -9.612906177619127
      ],
      [
        "ĠAlthough",
        -9.613340798990048
      ],
      [
        "ĠJewish",
        -9.613465948182496
      ],
      [
        "Ġbacteria",
        -9.614148166347576
      ],
      [
        "Ġphoto",
        -9.614911223723508
      ],
      [
        "Ġtalk",
        -9.615108701440152
      ],
      [
        "Ġpurpose",
        -9.615721758865348
      ],
      [
        "uff",
        -9.616253810215564
      ],
      [
        "ĠCanada",
        -9.616780787224286
      ],
      [
        "ĠCongress",
        -9.618198160899002
      ],
      [
        "ĠCu",
        -9.618785550306235
      ],
      [
        "22",
        -9.619347563309312
      ],
      [
        "Ġlegal",
        -9.619630479570906
      ],
      [
        "Ġhistorical",
        -9.620492636691829
      ],
      [
        "Ġdocument",
        -9.620795070348263
      ],
      [
        "Ġtissue",
        -9.621446662499082
      ],
      [
        "Ġdirection",
        -9.621727255678836
      ],
      [
        "Ġstarted",
        -9.621939811662894
      ],
      [
        "Ġtax",
        -9.622178175189356
      ],
      [
        "Ġtarget",
        -9.622796659940512
      ],
      [
        "ather",
        -9.6235408791951
      ],
      [
        "500",
        -9.623638864541553
      ],
      [
        "60",
        -9.624277559374704
      ],
      [
        "37",
        -9.62512491459913
      ],
      [
        "Ġdrug",
        -9.625128727918836
      ],
      [
        "Ġsleep",
        -9.625541692397556
      ],
      [
        "cus",
        -9.625869603937296
      ],
      [
        "stra",
        -9.625948413467585
      ],
      [
        "Ġensure",
        -9.62700206882151
      ],
      [
        "ĠJu",
        -9.62743000333917
      ],
      [
        "Ġhighly",
        -9.6275484853523
      ],
      [
        "IT",
        -9.627597769822517
      ],
      [
        "Ġproperty",
        -9.628493416353214
      ],
      [
        "Ġ2005",
        -9.629483913369722
      ],
      [
        "get",
        -9.629641435110504
      ],
      [
        "cur",
        -9.629769398742516
      ],
      [
        "Ġbehind",
        -9.630160310292483
      ],
      [
        "Ġbenefits",
        -9.630441745681438
      ],
      [
        "matic",
        -9.630472958015948
      ],
      [
        "Ġcap",
        -9.631667504680292
      ],
      [
        "Ġtask",
        -9.631689450683712
      ],
      [
        "Ġideas",
        -9.63192723619127
      ],
      [
        "itis",
        -9.632061197877272
      ],
      [
        "ĠJournal",
        -9.632406510929547
      ],
      [
        "Ġgeo",
        -9.63258286033648
      ],
      [
        "Ġorigin",
        -9.634047144284503
      ],
      [
        "ale",
        -9.63425165072153
      ],
      [
        "gal",
        -9.635008260157006
      ],
      [
        "Ġimages",
        -9.63553226151546
      ],
      [
        "Ġtrees",
        -9.636154595136537
      ],
      [
        "Retrieved",
        -9.636978668970675
      ],
      [
        "part",
        -9.63726916260271
      ],
      [
        "ĠSociety",
        -9.63730436922507
      ],
      [
        "Ġfoot",
        -9.63745232088008
      ],
      [
        "Ġworkers",
        -9.63795670320595
      ],
      [
        "Ġtools",
        -9.63816229650588
      ],
      [
        "ought",
        -9.638614913720131
      ],
      [
        "hel",
        -9.638980914379047
      ],
      [
        "Ġisland",
        -9.63979492477205
      ],
      [
        "Ġleading",
        -9.639896996204651
      ],
      [
        "ĠProgram",
        -9.639948821713231
      ],
      [
        "Ġeasily",
        -9.64060373214858
      ],
      [
        "Ġroom",
        -9.641305089901524
      ],
      [
        "ĠDecember",
        -9.641360758383748
      ],
      [
        "21",
        -9.64152703043352
      ],
      [
        "ĠVe",
        -9.641735192308044
      ],
      [
        "ised",
        -9.641760371855677
      ],
      [
        "Ġwrote",
        -9.6431911932859
      ],
      [
        "Ġmonth",
        -9.643603647220107
      ],
      [
        "Ġmid",
        -9.643606480864475
      ],
      [
        "Ġinside",
        -9.64404297260258
      ],
      [
        "Ġapplication",
        -9.644731260646314
      ],
      [
        "ĠHigh",
        -9.64478464581886
      ],
      [
        "work",
        -9.644844058406004
      ],
      [
        "34",
        -9.645554585051512
      ],
      [
        "tru",
        -9.646017096005435
      ],
      [
        "ĠVa",
        -9.646091967516588
      ],
      [
        "compared",
        -9.646331786620063
      ],
      [
        "By",
        -9.647539133453432
      ],
      [
        "80",
        -9.64775756872152
      ],
      [
        "Ġexposure",
        -9.648639435518875
      ],
      [
        "tive",
        -9.648992222971186
      ],
      [
        "vic",
        -9.649284770859447
      ],
      [
        "Ġtold",
        -9.649902851239876
      ],
      [
        "uk",
        -9.650481065525993
      ],
      [
        "Ġcritical",
        -9.651532344311104
      ],
      [
        "ĠSc",
        -9.651786883923435
      ],
      [
        "24",
        -9.651980456212858
      ],
      [
        "Ġmember",
        -9.652580698430844
      ],
      [
        "Ð",
        -9.652893596979244
      ],
      [
        "Ġquickly",
        -9.65319027464106
      ],
      [
        "Ġunique",
        -9.653300604300185
      ],
      [
        "39",
        -9.65374206695308
      ],
      [
        "AS",
        -9.65468036213008
      ],
      [
        "Ġtoward",
        -9.65603688926944
      ],
      [
        "Ġmeasure",
        -9.65733019008636
      ],
      [
        "Ġcontain",
        -9.657415993908684
      ],
      [
        "EN",
        -9.657661726446069
      ],
      [
        "Ġgetting",
        -9.658074988735288
      ],
      [
        "Ġtopic",
        -9.658744927974253
      ],
      [
        "Ġrespect",
        -9.658968864953875
      ],
      [
        "42",
        -9.659412588576792
      ],
      [
        "Ġfactor",
        -9.65957529216156
      ],
      [
        "ĠHouse",
        -9.662822891977529
      ],
      [
        "44",
        -9.662875914323228
      ],
      [
        "Ġcontains",
        -9.662961581328808
      ],
      [
        "Ġbasis",
        -9.663018875775894
      ],
      [
        "01",
        -9.663087866631589
      ],
      [
        "ĠDay",
        -9.664388406012364
      ],
      [
        "Ġdoesn",
        -9.664850137363834
      ],
      [
        "hol",
        -9.665089191012653
      ],
      [
        "Ġkids",
        -9.665400928217728
      ],
      [
        "pen",
        -9.665469117113856
      ],
      [
        "Ġnothing",
        -9.665533537789244
      ],
      [
        "Z",
        -9.666171302235668
      ],
      [
        "Ġmedicine",
        -9.666261689245085
      ],
      [
        "Ġlooking",
        -9.666656377633336
      ],
      [
        "Ġbank",
        -9.6667382633764
      ],
      [
        "asked",
        -9.667358964933197
      ],
      [
        "Ġrecently",
        -9.667625032279815
      ],
      [
        "cast",
        -9.667642277997764
      ],
      [
        "Ġfollowed",
        -9.667745285326752
      ],
      [
        "ged",
        -9.669086315926553
      ],
      [
        "RA",
        -9.669190073062426
      ],
      [
        "Ġpp",
        -9.670359202231124
      ],
      [
        "unt",
        -9.670506277920014
      ],
      [
        "Ġcontinued",
        -9.670728022833286
      ],
      [
        "Ġforces",
        -9.67073635815794
      ],
      [
        "Ġmultiple",
        -9.671800381562402
      ],
      [
        "Ġhost",
        -9.67223105353764
      ],
      [
        "ĠUn",
        -9.67237577091691
      ],
      [
        "Ġdry",
        -9.672613456576578
      ],
      [
        "Ġtri",
        -9.672617877141592
      ],
      [
        "vol",
        -9.672646842446987
      ],
      [
        "ĠUnion",
        -9.67289148098993
      ],
      [
        "Ġstation",
        -9.673800470444611
      ],
      [
        "Ġsaw",
        -9.673818106514274
      ],
      [
        "gram",
        -9.674644203374324
      ],
      [
        "pit",
        -9.674649768258394
      ],
      [
        "Ġfront",
        -9.675236756850593
      ],
      [
        "Ġdecision",
        -9.67548810799812
      ],
      [
        "lam",
        -9.676224542397554
      ],
      [
        "Ġcat",
        -9.676271193515785
      ],
      [
        "don",
        -9.676762681309768
      ],
      [
        "Ġlayer",
        -9.67701733182106
      ],
      [
        "Ġnor",
        -9.67717799473808
      ],
      [
        "ĠUse",
        -9.677337358399294
      ],
      [
        "Ġ2013",
        -9.677488952929505
      ],
      [
        "Ġrates",
        -9.677722809866978
      ],
      [
        "Ġocean",
        -9.677930326079808
      ],
      [
        "Ġsuggest",
        -9.6782301409123
      ],
      [
        "Ġannual",
        -9.678438837645624
      ],
      [
        "ough",
        -9.679203517828178
      ],
      [
        "<",
        -9.679493363107264
      ],
      [
        "Ġ23",
        -9.6796384958134
      ],
      [
        "rap",
        -9.68016458463068
      ],
      [
        "Ġorganization",
        -9.681419853977191
      ],
      [
        "90",
        -9.683229249688049
      ],
      [
        "ĠNovember",
        -9.683235420970274
      ],
      [
        "rant",
        -9.684401918126389
      ],
      [
        "zz",
        -9.68591441905508
      ],
      [
        "Ġfeatures",
        -9.685920947673193
      ],
      [
        "Ġpoints",
        -9.686028707304278
      ],
      [
        "ended",
        -9.686168192766225
      ],
      [
        "Ġcommand",
        -9.686374339859157
      ],
      [
        "cri",
        -9.687027800893278
      ],
      [
        "Ġdistance",
        -9.688231733812229
      ],
      [
        "Ġeffort",
        -9.688866193934338
      ],
      [
        "bar",
        -9.689831519010752
      ],
      [
        "gle",
        -9.691262112938151
      ],
      [
        "Ġinstrument",
        -9.691639348873627
      ],
      [
        "ĠDis",
        -9.69334128295997
      ],
      [
        "Ġdiscussion",
        -9.693542721570848
      ],
      [
        "ĠSea",
        -9.693572144545668
      ],
      [
        "Ġencourage",
        -9.69452610024092
      ],
      [
        "Ġsevere",
        -9.694760423924723
      ],
      [
        "Ġmessage",
        -9.695215286713642
      ],
      [
        "Ġcomment",
        -9.695787432771304
      ],
      [
        "Ġearlier",
        -9.696333849738616
      ],
      [
        "Ġbad",
        -9.696505457436349
      ],
      [
        "Ġfinal",
        -9.696977125681505
      ],
      [
        "Ġmeeting",
        -9.698730570130502
      ],
      [
        "Ġgame",
        -9.699411331116387
      ],
      [
        "ĠAssociation",
        -9.699486229431631
      ],
      [
        "Ġexpected",
        -9.699522293022763
      ],
      [
        "Ġmuscle",
        -9.700127073281532
      ],
      [
        "Ġeight",
        -9.700616345030516
      ],
      [
        "ement",
        -9.70112332147383
      ],
      [
        "Ġfilm",
        -9.701302485831272
      ],
      [
        "Ġcultural",
        -9.70154236145134
      ],
      [
        "64",
        -9.70259617845499
      ],
      [
        "ĠMy",
        -9.704268447844932
      ],
      [
        "Ġsurvey",
        -9.705022133723974
      ],
      [
        "logy",
        -9.705042025669975
      ],
      [
        "ĠLondon",
        -9.705203479301357
      ],
      [
        "Ġdaily",
        -9.705658666462917
      ],
      [
        "ung",
        -9.70644653141761
      ],
      [
        "lock",
        -9.706539577102504
      ],
      [
        "ĠFirst",
        -9.706856497176606
      ],
      [
        "ĠSystem",
        -9.70734511719694
      ],
      [
        "Ġsign",
        -9.708545441526402
      ],
      [
        "Ġwinter",
        -9.708644656390373
      ],
      [
        "ĠFo",
        -9.708803685537587
      ],
      [
        "Ġremains",
        -9.709284549334892
      ],
      [
        "Ġsecurity",
        -9.709933911474304
      ],
      [
        "ĠChe",
        -9.7112743397505
      ],
      [
        "sky",
        -9.711510695994356
      ],
      [
        "ĠAm",
        -9.713339520898144
      ],
      [
        "Ġoffer",
        -9.713501334160284
      ],
      [
        "Ġweb",
        -9.71373498728557
      ],
      [
        "Ġseem",
        -9.713797574894151
      ],
      [
        "Ġcompanies",
        -9.714318954627498
      ],
      [
        "23",
        -9.714912612544572
      ],
      [
        "Ġgain",
        -9.715201106420364
      ],
      [
        "Ġtrial",
        -9.715240305649276
      ],
      [
        "Ġofficial",
        -9.716750989967212
      ],
      [
        "Ġmiddle",
        -9.716814050342268
      ],
      [
        "Ġmetal",
        -9.716912540805632
      ],
      [
        "aries",
        -9.71708158335239
      ],
      [
        "ĠCr",
        -9.717215134983746
      ],
      [
        "Ġunit",
        -9.717641327305168
      ],
      [
        "ography",
        -9.71833875074415
      ],
      [
        "cke",
        -9.718644012189111
      ],
      [
        "Ġrelationship",
        -9.718920868953315
      ],
      [
        "ĠFrance",
        -9.719056525066426
      ],
      [
        "ĠNot",
        -9.719146785829084
      ],
      [
        "Ġelements",
        -9.719420369879892
      ],
      [
        "osis",
        -9.71967276714953
      ],
      [
        "Ġincreasing",
        -9.719831297582983
      ],
      [
        "Ġbenefit",
        -9.720451119281863
      ],
      [
        "ĠArt",
        -9.720504700704508
      ],
      [
        "Ġequal",
        -9.720579059093662
      ],
      [
        "ski",
        -9.720824355466908
      ],
      [
        "55",
        -9.720887858362492
      ],
      [
        "Ġcommercial",
        -9.721213062102136
      ],
      [
        "ĠTu",
        -9.721468721256135
      ],
      [
        "Ġmemory",
        -9.721716928796749
      ],
      [
        "Ġweather",
        -9.723421271811976
      ],
      [
        "99",
        -9.724000650383545
      ],
      [
        "avi",
        -9.724701612527962
      ],
      [
        "ĠFrom",
        -9.724779651517096
      ],
      [
        "95",
        -9.724822973828497
      ],
      [
        "etic",
        -9.72528064121006
      ],
      [
        "Ġwood",
        -9.72558280144248
      ],
      [
        "Ġgoal",
        -9.725613155773509
      ],
      [
        "Ġinstance",
        -9.726360918277525
      ],
      [
        "raw",
        -9.72655522505033
      ],
      [
        "Ġsoftware",
        -9.72719641167702
      ],
      [
        "ĠAu",
        -9.72880212165346
      ],
      [
        "Ġreach",
        -9.729368708103758
      ],
      [
        "Ġthreat",
        -9.729564659280246
      ],
      [
        "Ġsomeone",
        -9.730928152350735
      ],
      [
        "ĠBr",
        -9.73144888907536
      ],
      [
        "ĠChrist",
        -9.731707527632691
      ],
      [
        "Ġfit",
        -9.73207225978641
      ],
      [
        "Ġessential",
        -9.732426478501884
      ],
      [
        "ĠOf",
        -9.732969970770828
      ],
      [
        "cial",
        -9.733292590805044
      ],
      [
        "Ġcross",
        -9.733826597819624
      ],
      [
        "41",
        -9.734380393389966
      ],
      [
        "ĠHIV",
        -9.734617675810076
      ],
      [
        "Ġstatement",
        -9.734944868815813
      ],
      [
        "Ġcharge",
        -9.735332528678573
      ],
      [
        "Ġtests",
        -9.735764648684638
      ],
      [
        "Ġfear",
        -9.736412085167997
      ],
      [
        "Ġbirds",
        -9.736997612665991
      ],
      [
        "Ġformed",
        -9.737154163407704
      ],
      [
        "Ġchance",
        -9.737244627657404
      ],
      [
        "char",
        -9.738147394844336
      ],
      [
        "Ġtakes",
        -9.73833554325001
      ],
      [
        "ĠAmericans",
        -9.738530660225027
      ],
      [
        "Ġstandards",
        -9.738727068375416
      ],
      [
        "Ġstyle",
        -9.738985114119172
      ],
      [
        "Ġolder",
        -9.739285625286277
      ],
      [
        "Ġdiscovered",
        -9.73970301987968
      ],
      [
        "graphic",
        -9.74022335055606
      ],
      [
        "These",
        -9.741249069792618
      ],
      [
        "gel",
        -9.741409926406677
      ],
      [
        "Ġseason",
        -9.741552006573205
      ],
      [
        "Ġbeyond",
        -9.741909158363963
      ],
      [
        "mber",
        -9.741950571449554
      ],
      [
        "Ġapp",
        -9.743173171264996
      ],
      [
        "Ġgave",
        -9.743178277672916
      ],
      [
        "Ġconstruction",
        -9.743426802643445
      ],
      [
        "Ġcold",
        -9.74426226263596
      ],
      [
        "Ġmaintain",
        -9.744504155273829
      ],
      [
        "Ġchurch",
        -9.74577071723894
      ],
      [
        "ĠCO",
        -9.745795382949709
      ],
      [
        "Another",
        -9.74583392231912
      ],
      [
        "Ġminutes",
        -9.746514874393265
      ],
      [
        "Ġweeks",
        -9.747320263679072
      ],
      [
        "ĠHi",
        -9.747400531424546
      ],
      [
        "ĠEven",
        -9.74751092276618
      ],
      [
        "ender",
        -9.748131448531012
      ],
      [
        "Ġconnection",
        -9.748456343414777
      ],
      [
        "Some",
        -9.748493367019565
      ],
      [
        "Ġdegree",
        -9.748787122961932
      ],
      [
        "ĠBook",
        -9.749012938358794
      ],
      [
        "Ġsmaller",
        -9.74916505831542
      ],
      [
        "Ġfast",
        -9.749976947250923
      ],
      [
        "Ġvalues",
        -9.751226485833916
      ],
      [
        "43",
        -9.752614363180104
      ],
      [
        "Ġmu",
        -9.75316535849946
      ],
      [
        "rig",
        -9.753185634540236
      ],
      [
        "Ġeconomy",
        -9.753463296355926
      ],
      [
        "ED",
        -9.753700094336192
      ],
      [
        "Ġmental",
        -9.753843194683784
      ],
      [
        "tent",
        -9.754043985714263
      ],
      [
        "Ġnamed",
        -9.754614434076345
      ],
      [
        "ened",
        -9.75518042714026
      ],
      [
        "ĠFebruary",
        -9.755446373054223
      ],
      [
        "ĠCouncil",
        -9.7555543692503
      ],
      [
        "ered",
        -9.756330725552896
      ],
      [
        "ĠBu",
        -9.756509253668094
      ],
      [
        "Ġcurrently",
        -9.756634832554782
      ],
      [
        "mag",
        -9.757852598179396
      ],
      [
        "Â",
        -9.75790588602786
      ],
      [
        "Ġgarden",
        -9.757914775033342
      ],
      [
        "ĠMin",
        -9.757947528545264
      ],
      [
        "Ġperhaps",
        -9.758010542301593
      ],
      [
        "Ġadults",
        -9.758404541908668
      ],
      [
        "ĠBra",
        -9.758655439891893
      ],
      [
        "Ġimportance",
        -9.759915559312718
      ],
      [
        "Ġprint",
        -9.76022570163331
      ],
      [
        "Ġobjects",
        -9.7606934666958
      ],
      [
        "Ġguide",
        -9.761040542354804
      ],
      [
        "ĠDavid",
        -9.761321499188917
      ],
      [
        "Ġreaction",
        -9.762205236358737
      ],
      [
        "Ġdrive",
        -9.762303561070254
      ],
      [
        "ĠAc",
        -9.762694217188148
      ],
      [
        "Ġrelease",
        -9.76282014940756
      ],
      [
        "Ġstore",
        -9.763498643633838
      ],
      [
        "Ġformer",
        -9.763500385979569
      ],
      [
        "ĠSee",
        -9.763707567009815
      ],
      [
        "Ġresponsible",
        -9.763787584612876
      ],
      [
        "OR",
        -9.766035946649303
      ],
      [
        "ĠGreek",
        -9.76624847909193
      ],
      [
        "Ġprocesses",
        -9.766587804342068
      ],
      [
        "log",
        -9.767143749436276
      ],
      [
        "Ġhands",
        -9.76715867981209
      ],
      [
        "Ġalone",
        -9.768268172047666
      ],
      [
        "ĠInter",
        -9.768470109903593
      ],
      [
        "Ġcosts",
        -9.768775846787957
      ],
      [
        "rating",
        -9.76878895180032
      ],
      [
        "ĠChinese",
        -9.76909259492831
      ],
      [
        "47",
        -9.769189143776613
      ],
      [
        "Ġlines",
        -9.770293487363322
      ],
      [
        "Comp",
        -9.770386577859442
      ],
      [
        "Ġforest",
        -9.770710970061534
      ],
      [
        "Ġsymbol",
        -9.77087967084731
      ],
      [
        "Ġden",
        -9.771024912689183
      ],
      [
        "Ġ2004",
        -9.771224906720716
      ],
      [
        "Ġdrugs",
        -9.771466693559036
      ],
      [
        "ĠWater",
        -9.772478958625358
      ],
      [
        "Ġextra",
        -9.773643258374394
      ],
      [
        "oul",
        -9.774087868380471
      ],
      [
        "clo",
        -9.774220143923063
      ],
      [
        "Ġteacher",
        -9.77586115267743
      ],
      [
        "ĠJames",
        -9.776128250085158
      ],
      [
        "Con",
        -9.776346925247172
      ],
      [
        "ĠGra",
        -9.7767237717544
      ],
      [
        "Ġdirector",
        -9.776762366629884
      ],
      [
        "ĠDNA",
        -9.776803895480294
      ],
      [
        "Ġallows",
        -9.777069864766457
      ],
      [
        "Ġwoman",
        -9.777957781574983
      ],
      [
        "ĠJesus",
        -9.778517525312116
      ],
      [
        "Ġallowed",
        -9.77885837768201
      ],
      [
        "Ġvehicle",
        -9.779613243211656
      ],
      [
        "#",
        -9.780521852806393
      ],
      [
        "Ġindependent",
        -9.780969995773775
      ],
      [
        "oral",
        -9.78119577486442
      ],
      [
        "oke",
        -9.781287143569784
      ],
      [
        "ĠVer",
        -9.781656473453014
      ],
      [
        "gate",
        -9.781799195521153
      ],
      [
        "Ġconduct",
        -9.782220633385869
      ],
      [
        "29",
        -9.782447306176154
      ],
      [
        "Ġwon",
        -9.784191410837066
      ],
      [
        "Ġpromote",
        -9.784481494317513
      ],
      [
        "Ġsetting",
        -9.78520214659057
      ],
      [
        "Ġfoods",
        -9.785370876807931
      ],
      [
        "ĠGreen",
        -9.785660160619935
      ],
      [
        "Ġinstruction",
        -9.78607992666493
      ],
      [
        "Ġstay",
        -9.786415365259566
      ],
      [
        "MA",
        -9.78754900668339
      ],
      [
        "26",
        -9.78771499634832
      ],
      [
        "Ġpass",
        -9.787989149507634
      ],
      [
        "Ġanything",
        -9.788097289766384
      ],
      [
        "rum",
        -9.788153550597524
      ],
      [
        "Ġsugar",
        -9.788430846815295
      ],
      [
        "ĠGovernment",
        -9.78955834524027
      ],
      [
        "Ġnuclear",
        -9.789900428389275
      ],
      [
        "Ġnative",
        -9.790799313852771
      ],
      [
        "rain",
        -9.79205300365875
      ],
      [
        "ĠJews",
        -9.793282449634232
      ],
      [
        "Ġequipment",
        -9.793815235381045
      ],
      [
        "ĠCal",
        -9.7940953389956
      ],
      [
        "ĠWork",
        -9.794674282971942
      ],
      [
        "Ġdec",
        -9.794887270449689
      ],
      [
        "Ġjob",
        -9.795646236415276
      ],
      [
        "Ġprojects",
        -9.79567257355924
      ],
      [
        "ĠInternet",
        -9.796107942738184
      ],
      [
        "Ġhumans",
        -9.79622859490524
      ],
      [
        "Ġdark",
        -9.796521611684184
      ],
      [
        "ĠYour",
        -9.797002275111227
      ],
      [
        "27",
        -9.79710958319234
      ],
      [
        "Ġdevice",
        -9.798240073673222
      ],
      [
        "Ġrequires",
        -9.79953543923937
      ],
      [
        "Pol",
        -9.799748467289808
      ],
      [
        "28",
        -9.800530029724673
      ],
      [
        "Ġtesting",
        -9.800920355203752
      ],
      [
        "Ġappears",
        -9.801364218270724
      ],
      [
        "Ġuses",
        -9.802780007738278
      ],
      [
        "46",
        -9.802834401900812
      ],
      [
        "Ġleave",
        -9.803176670849911
      ],
      [
        "Ġalternative",
        -9.803264810070976
      ],
      [
        "Ġdisplay",
        -9.803801649828031
      ],
      [
        "LE",
        -9.80457546649745
      ],
      [
        "Ġhospital",
        -9.805175593787698
      ],
      [
        "Ġuser",
        -9.80539843077034
      ],
      [
        "with",
        -9.805648415950731
      ],
      [
        "ĠPlan",
        -9.806956969057827
      ],
      [
        "Ġconflict",
        -9.808024116427344
      ],
      [
        "Ġlaws",
        -9.80829166324037
      ],
      [
        "Ġforeign",
        -9.808413862477767
      ],
      [
        "Ġpeace",
        -9.808538332305757
      ],
      [
        "ĠGermany",
        -9.808717594363328
      ],
      [
        "70",
        -9.80890329198722
      ],
      [
        "Ġreligion",
        -9.809282219952944
      ],
      [
        "Ġrelation",
        -9.80938270900432
      ],
      [
        "radi",
        -9.809791043144548
      ],
      [
        "Ġcount",
        -9.809974403327724
      ],
      [
        "Ġfinancial",
        -9.81001398426045
      ],
      [
        "ease",
        -9.810231281966107
      ],
      [
        "wise",
        -9.810235261315867
      ],
      [
        "Ġprogress",
        -9.810442154721828
      ],
      [
        "board",
        -9.810801778571744
      ],
      [
        "35",
        -9.81087524430577
      ],
      [
        "lation",
        -9.811563568541557
      ],
      [
        "Ġdecrease",
        -9.811900776530022
      ],
      [
        "Ġidentified",
        -9.812757490084104
      ],
      [
        "Ġrelatively",
        -9.812776627603098
      ],
      [
        "Ġnegative",
        -9.812812666478605
      ],
      [
        "ĠAir",
        -9.813648061783336
      ],
      [
        "Ġpath",
        -9.813838881628977
      ],
      [
        "mission",
        -9.81401988708393
      ],
      [
        "Ġstatus",
        -9.814686145732804
      ],
      [
        "ĠKo",
        -9.81512139123703
      ],
      [
        "Ġgold",
        -9.815183993273129
      ],
      [
        "nner",
        -9.816070238388082
      ],
      [
        "Ġgot",
        -9.816283056456026
      ],
      [
        "Ġspring",
        -9.816913711260325
      ],
      [
        "Ġprevious",
        -9.81700861962402
      ],
      [
        "oxi",
        -9.817470155963504
      ],
      [
        "Ġexamine",
        -9.818000106862836
      ],
      [
        "rist",
        -9.81916755162805
      ],
      [
        "stan",
        -9.81924049262089
      ],
      [
        "Ġengine",
        -9.819343377877228
      ],
      [
        "Ġhabitat",
        -9.81967650698649
      ],
      [
        "49",
        -9.821706225956191
      ],
      [
        "Ġcontext",
        -9.822358647213331
      ],
      [
        "eral",
        -9.822511811118126
      ],
      [
        "ttle",
        -9.822915862230762
      ],
      [
        "pri",
        -9.823339149575498
      ],
      [
        "view",
        -9.823767957860252
      ],
      [
        "68",
        -9.824395807395652
      ],
      [
        "rent",
        -9.824978486998688
      ],
      [
        "mpl",
        -9.824986738865745
      ],
      [
        "ĠBi",
        -9.825037596362195
      ],
      [
        "Ġprice",
        -9.82505886826245
      ],
      [
        "Ġsur",
        -9.82541535075676
      ],
      [
        "Ġsuccessful",
        -9.825464012579092
      ],
      [
        "born",
        -9.826007695047071
      ],
      [
        "fil",
        -9.826187367628265
      ],
      [
        "Ġmountain",
        -9.827255812662886
      ],
      [
        "Ġtechniques",
        -9.827852182834263
      ],
      [
        "ĠSha",
        -9.827917397751762
      ],
      [
        "Ġadvantage",
        -9.828399819628666
      ],
      [
        "ĠTri",
        -9.828426308046057
      ],
      [
        "Ġ28",
        -9.828437205421563
      ],
      [
        "ĠCollege",
        -9.828724117948918
      ],
      [
        "Ġdiseases",
        -9.829187702076938
      ],
      [
        "ident",
        -9.82956302454518
      ],
      [
        "stor",
        -9.829940745701556
      ],
      [
        "Ġblue",
        -9.83024498326259
      ],
      [
        "cit",
        -9.830320333275598
      ],
      [
        "New",
        -9.830612087439553
      ],
      [
        "76",
        -9.830759931780571
      ],
      [
        "Ġlesson",
        -9.830918264221827
      ],
      [
        "Ġrich",
        -9.831150892037869
      ],
      [
        "Â°",
        -9.832423008370766
      ],
      [
        "ĠAustralia",
        -9.833836356785568
      ],
      [
        "igh",
        -9.83400947893397
      ],
      [
        "ĠHuman",
        -9.834377556088873
      ],
      [
        "Ġ26",
        -9.8349648307614
      ],
      [
        "Ġvolume",
        -9.835309460188691
      ],
      [
        "ctor",
        -9.835543483389344
      ],
      [
        "NA",
        -9.835556431992057
      ],
      [
        "onic",
        -9.835656701496177
      ],
      [
        "See",
        -9.836011397424778
      ],
      [
        "Ġprofessor",
        -9.837359286490194
      ],
      [
        "war",
        -9.838430605757436
      ],
      [
        "ON",
        -9.839159685153792
      ],
      [
        "bil",
        -9.839178677765474
      ],
      [
        "Ġ60",
        -9.83928585617606
      ],
      [
        "Ġvaccine",
        -9.839431152439818
      ],
      [
        "Ġdel",
        -9.839632011731997
      ],
      [
        "Ġmajority",
        -9.840088161730264
      ],
      [
        "Ġ2003",
        -9.840358355995296
      ],
      [
        "Ġpassed",
        -9.840890351358906
      ],
      [
        "Ġtypically",
        -9.841034265587563
      ],
      [
        "sens",
        -9.841351304131395
      ],
      [
        "Ġcycle",
        -9.841950970497178
      ],
      [
        "ĠGeorge",
        -9.84199183569192
      ],
      [
        "Ġtradition",
        -9.842024329014658
      ],
      [
        "PA",
        -9.842778464664493
      ],
      [
        "Ġwild",
        -9.843222399644697
      ],
      [
        "Ġcard",
        -9.843928384645194
      ],
      [
        "Ġpara",
        -9.844508784829438
      ],
      [
        "Ġvirus",
        -9.84567871186274
      ],
      [
        "ents",
        -9.84765275393008
      ],
      [
        "west",
        -9.848149685360264
      ],
      [
        "ĠRobert",
        -9.848872997720251
      ],
      [
        "Ġproviding",
        -9.84899580298705
      ],
      [
        "MS",
        -9.850064569325488
      ],
      [
        "Ġtitle",
        -9.850186069564844
      ],
      [
        "ency",
        -9.85024538028896
      ],
      [
        "ame",
        -9.851103381462794
      ],
      [
        "ĠLord",
        -9.851167904044203
      ],
      [
        "ĠWestern",
        -9.851781645364614
      ],
      [
        "Ġaffected",
        -9.852193478518346
      ],
      [
        "ugh",
        -9.852279912706427
      ],
      [
        "Ġradio",
        -9.85238220241785
      ],
      [
        "63",
        -9.853116168340913
      ],
      [
        "Ġdistrict",
        -9.853128903796446
      ],
      [
        "Ġconsist",
        -9.853793261851768
      ],
      [
        "Ġleg",
        -9.853852219276066
      ],
      [
        "Ġemissions",
        -9.854070054750924
      ],
      [
        "ĠNASA",
        -9.854240790637991
      ],
      [
        "las",
        -9.854465193297855
      ],
      [
        "bit",
        -9.85495531992781
      ],
      [
        "Ġtool",
        -9.855332456148956
      ],
      [
        "peak",
        -9.855798240655252
      ],
      [
        "Ġdiabetes",
        -9.85688653228596
      ],
      [
        "Ġincome",
        -9.85716727420836
      ],
      [
        "RO",
        -9.858228148957092
      ],
      [
        "Ġ27",
        -9.858874998928982
      ],
      [
        "Ġradiation",
        -9.859567776949955
      ],
      [
        "SS",
        -9.859681288075189
      ],
      [
        "72",
        -9.860072838816222
      ],
      [
        "ĠMr",
        -9.860280970174443
      ],
      [
        "Ġrace",
        -9.860524139342118
      ],
      [
        "angle",
        -9.861021146643496
      ],
      [
        "Ġfeed",
        -9.86137631870358
      ],
      [
        "Ġoccurs",
        -9.861459779531266
      ],
      [
        "Ġdead",
        -9.861645399280292
      ],
      [
        "Ġapplied",
        -9.86189550514646
      ],
      [
        "67",
        -9.86306593875814
      ],
      [
        "Ġshowed",
        -9.863361626606997
      ],
      [
        "Ġworked",
        -9.863541156961698
      ],
      [
        "Ġfine",
        -9.864094808234425
      ],
      [
        "Ġreduced",
        -9.864162604320576
      ],
      [
        "Ġfeeling",
        -9.86464116134348
      ],
      [
        "Ġsave",
        -9.86471524108359
      ],
      [
        "gua",
        -9.865785773770607
      ],
      [
        "ĠMor",
        -9.865848028743676
      ],
      [
        "Ġbattle",
        -9.865897034377111
      ],
      [
        "77",
        -9.866181836314022
      ],
      [
        "Ġapplications",
        -9.86738855453737
      ],
      [
        "Ġvisual",
        -9.8674977369473
      ],
      [
        "Ġrelative",
        -9.86788051795224
      ],
      [
        "All",
        -9.868526281254184
      ],
      [
        "struct",
        -9.86871427825846
      ],
      [
        "78",
        -9.869236041369392
      ],
      [
        "arian",
        -9.86934684867523
      ],
      [
        "With",
        -9.86993782359878
      ],
      [
        "ĠCourt",
        -9.870094326238672
      ],
      [
        "ĠJapan",
        -9.870119690423842
      ],
      [
        "Note",
        -9.870154775775513
      ],
      [
        "Ġgrade",
        -9.870322087619488
      ],
      [
        "rian",
        -9.87116022347421
      ],
      [
        "Ġmeasures",
        -9.871278338344975
      ],
      [
        "gri",
        -9.87142722531892
      ],
      [
        "Ġargument",
        -9.871458809085173
      ],
      [
        "ĠCatholic",
        -9.87189306977771
      ],
      [
        "Ġtrack",
        -9.872597522678412
      ],
      [
        "ĠMuseum",
        -9.874383353913403
      ],
      [
        "cept",
        -9.875160907931017
      ],
      [
        "62",
        -9.875420192365777
      ],
      [
        "Ġcool",
        -9.875606488443951
      ],
      [
        "Ġ2001",
        -9.87637111282002
      ],
      [
        "Ġsexual",
        -9.87698904181411
      ],
      [
        "ĠNu",
        -9.877404038801318
      ],
      [
        "While",
        -9.878035410375034
      ],
      [
        "Ġstaff",
        -9.878427905373076
      ],
      [
        "Ġlabor",
        -9.879998417260383
      ],
      [
        "Ġthinking",
        -9.880011110105585
      ],
      [
        "tting",
        -9.881125810167864
      ],
      [
        "ĠPaul",
        -9.88220670553464
      ],
      [
        "Ġbelief",
        -9.882336822609386
      ],
      [
        "Today",
        -9.882517129864524
      ],
      [
        "Ġcities",
        -9.882646691863496
      ],
      [
        "cycl",
        -9.8831549153153
      ],
      [
        "Ġtowards",
        -9.8831557939575
      ],
      [
        "Pro",
        -9.883531153502483
      ],
      [
        "Ġplaces",
        -9.883870075159004
      ],
      [
        "Ġassessment",
        -9.883993903147363
      ],
      [
        "body",
        -9.884243237739884
      ],
      [
        "erson",
        -9.884471762785624
      ],
      [
        "66",
        -9.885060534770624
      ],
      [
        "verse",
        -9.88539679709092
      ],
      [
        "gon",
        -9.88551374693475
      ],
      [
        "Ġcombination",
        -9.886390933768874
      ],
      [
        "Ġpark",
        -9.88715412079541
      ],
      [
        "cru",
        -9.887276896667869
      ],
      [
        "IP",
        -9.887725390326894
      ],
      [
        "Ġbaby",
        -9.887791400520094
      ],
      [
        "Ġfight",
        -9.888053709270142
      ],
      [
        "Ġcollege",
        -9.888460480206469
      ],
      [
        "ĠBlack",
        -9.88916454834098
      ],
      [
        "Ġdistribution",
        -9.889536765521813
      ],
      [
        "Ġopportunity",
        -9.889610085967249
      ],
      [
        "Ġvote",
        -9.889724429005994
      ],
      [
        "Ġpin",
        -9.890459298334624
      ],
      [
        "Ġinteresting",
        -9.890936701176605
      ],
      [
        "burg",
        -9.891312416768152
      ],
      [
        "right",
        -9.892183436123494
      ],
      [
        "Ġpowerful",
        -9.892319346916858
      ],
      [
        "Ġpet",
        -9.892570818439038
      ],
      [
        "tract",
        -9.892824441771168
      ],
      [
        "Ġeyes",
        -9.893236112754115
      ],
      [
        "Ġcivil",
        -9.895320137768955
      ],
      [
        "Par",
        -9.89564487930972
      ],
      [
        "ĠSince",
        -9.895737201791723
      ],
      [
        "05",
        -9.895860810287346
      ],
      [
        "Ġcompletely",
        -9.89628170961766
      ],
      [
        "Ġexplain",
        -9.896612841343456
      ],
      [
        "Ġhorse",
        -9.897098464912544
      ],
      [
        "Ġregular",
        -9.897440419577052
      ],
      [
        "Ġfindings",
        -9.897891992591358
      ],
      [
        "Ġexisting",
        -9.898228602767764
      ],
      [
        "Ġapproximately",
        -9.89845754656555
      ],
      [
        "61",
        -9.899043841464986
      ],
      [
        "Ġdesire",
        -9.899494689783252
      ],
      [
        "Ġpresence",
        -9.900172333745802
      ],
      [
        "Ġsquare",
        -9.900387080094283
      ],
      [
        "Ġeducational",
        -9.90049970546142
      ],
      [
        "position",
        -9.90054025710934
      ],
      [
        "tag",
        -9.900585390356571
      ],
      [
        "Ġgoes",
        -9.901298526707766
      ],
      [
        "Read",
        -9.901707225174736
      ],
      [
        "Ġcommonly",
        -9.90176462301359
      ],
      [
        "Ġdifferences",
        -9.901933436926178
      ],
      [
        "Ġreflect",
        -9.90201313345204
      ],
      [
        "About",
        -9.902051855252434
      ],
      [
        "Ġweak",
        -9.902085856617568
      ],
      [
        "Ġleaves",
        -9.90315587355381
      ],
      [
        "rim",
        -9.904060449588084
      ],
      [
        "Ġexplore",
        -9.904329957752347
      ],
      [
        "mol",
        -9.905729290556202
      ],
      [
        "Ġperform",
        -9.905878325800687
      ],
      [
        "pal",
        -9.906025206902488
      ],
      [
        "AP",
        -9.906328353455276
      ],
      [
        "that",
        -9.906381029826312
      ],
      [
        "ĠNor",
        -9.906705629386977
      ],
      [
        "ĠTexas",
        -9.90678845603144
      ],
      [
        "Ġgives",
        -9.90729968057583
      ],
      [
        "ĠOffice",
        -9.907453565479642
      ],
      [
        "Ġreports",
        -9.907473488190991
      ],
      [
        "fect",
        -9.907632630348363
      ],
      [
        "tional",
        -9.9080327558149
      ],
      [
        "Ġemploy",
        -9.908341199266893
      ],
      [
        "Ġ2002",
        -9.908400150474764
      ],
      [
        "Ġestablish",
        -9.908539131370064
      ],
      [
        "After",
        -9.908585205536037
      ],
      [
        "ending",
        -9.909463030822614
      ],
      [
        "Ġtherapy",
        -9.909723728511144
      ],
      [
        "rated",
        -9.909735154261382
      ],
      [
        "Ġmode",
        -9.910157095229884
      ],
      [
        "Ġfaith",
        -9.910268108958014
      ],
      [
        "Ġpresented",
        -9.91047720981506
      ],
      [
        "ĠBecause",
        -9.910682470240372
      ],
      [
        "Ġprove",
        -9.91139029423434
      ],
      [
        "Ġchallenge",
        -9.911765810632348
      ],
      [
        "read",
        -9.912067547859886
      ],
      [
        "56",
        -9.91232871881038
      ],
      [
        "eries",
        -9.912879073572077
      ],
      [
        "Ġbreast",
        -9.912925561064108
      ],
      [
        "lum",
        -9.912928636429823
      ],
      [
        "98",
        -9.913941128656502
      ],
      [
        "Ġresource",
        -9.91412315564617
      ],
      [
        "32",
        -9.914341689548456
      ],
      [
        "Ġeverything",
        -9.91498849879246
      ],
      [
        "cel",
        -9.915024784533353
      ],
      [
        "other",
        -9.915372100943005
      ],
      [
        "Ġcarried",
        -9.91569733622124
      ],
      [
        "57",
        -9.915903162322136
      ],
      [
        "Ġdefinition",
        -9.91597845126494
      ],
      [
        "02",
        -9.916418952251288
      ],
      [
        "point",
        -9.916479209780102
      ],
      [
        "ked",
        -9.916615590198996
      ],
      [
        "ential",
        -9.917010487877334
      ],
      [
        "mac",
        -9.917267045956798
      ],
      [
        "Ġpoly",
        -9.91762710303286
      ],
      [
        "Ġchanged",
        -9.917649024087371
      ],
      [
        "Ġmoral",
        -9.917772575996969
      ],
      [
        "54",
        -9.917917553677444
      ],
      [
        "73",
        -9.917942242742653
      ],
      [
        "Ġslow",
        -9.91879725365129
      ],
      [
        "08",
        -9.91955196126234
      ],
      [
        "Ġcoming",
        -9.920133111459844
      ],
      [
        "Ġphotograph",
        -9.92025301181874
      ],
      [
        "ĠJapanese",
        -9.920268138356322
      ],
      [
        "ĠLaw",
        -9.920363113999484
      ],
      [
        "81",
        -9.920417288193876
      ],
      [
        "ĠEm",
        -9.920569246488832
      ],
      [
        "cro",
        -9.92071077779532
      ],
      [
        "Ġobserved",
        -9.920851949764426
      ],
      [
        "ĠThus",
        -9.921426566340797
      ],
      [
        "iz",
        -9.921674239981996
      ],
      [
        "name",
        -9.922708109324544
      ],
      [
        "85",
        -9.923065209458231
      ],
      [
        "Ġsubstance",
        -9.923227223262986
      ],
      [
        "Ġcamp",
        -9.923564237136768
      ],
      [
        "Ġclassroom",
        -9.923616605066194
      ],
      [
        "script",
        -9.923767689414714
      ],
      [
        "lig",
        -9.924235377126292
      ],
      [
        "Ġrecords",
        -9.924552450831149
      ],
      [
        "Ġmechanism",
        -9.924837447925013
      ],
      [
        "ich",
        -9.925281169310368
      ],
      [
        "ĠMac",
        -9.92543200323304
      ],
      [
        "Every",
        -9.925436267788642
      ],
      [
        "Ġcreating",
        -9.92604111540549
      ],
      [
        "Ġcapacity",
        -9.926924190188968
      ],
      [
        "back",
        -9.92719038441965
      ],
      [
        "74",
        -9.92733643242136
      ],
      [
        "Ġsecret",
        -9.928145024307286
      ],
      [
        "temp",
        -9.92862806643137
      ],
      [
        "ISBN",
        -9.928740642691835
      ],
      [
        "ump",
        -9.92900817039842
      ],
      [
        "Ġsample",
        -9.929515535689523
      ],
      [
        "69",
        -9.929671410534972
      ],
      [
        "ĠAlso",
        -9.929820001038784
      ],
      [
        "ĠPeople",
        -9.930139006107684
      ],
      [
        "Ġplease",
        -9.930815454574873
      ],
      [
        "Ġbus",
        -9.930834143767646
      ],
      [
        "Ġvillage",
        -9.9310000702849
      ],
      [
        "ĠLake",
        -9.931059719870513
      ],
      [
        "52",
        -9.931402587111087
      ],
      [
        "bol",
        -9.931498999090454
      ],
      [
        "ĠProject",
        -9.931623476773789
      ],
      [
        "Ġboard",
        -9.93167086757168
      ],
      [
        "rine",
        -9.931938578598327
      ],
      [
        "58",
        -9.93242848791277
      ],
      [
        "Ġillness",
        -9.932467414960444
      ],
      [
        "unc",
        -9.933333539197234
      ],
      [
        "Ġrules",
        -9.93395268628418
      ],
      [
        "which",
        -9.934113847685852
      ],
      [
        "how",
        -9.93412213566792
      ],
      [
        "Ġestimated",
        -9.934250963394232
      ],
      [
        "Ġbecomes",
        -9.934501463021922
      ],
      [
        "Ġkilled",
        -9.934662047237202
      ],
      [
        "Ġfailure",
        -9.935913543368835
      ],
      [
        "Ġexpression",
        -9.936114668860334
      ],
      [
        "phy",
        -9.936274617070527
      ],
      [
        "Ġadvance",
        -9.93668349098224
      ],
      [
        "ĠSal",
        -9.93753484196089
      ],
      [
        "Ġeating",
        -9.93754575467758
      ],
      [
        "Ġsend",
        -9.93774695576344
      ],
      [
        "Ġclinical",
        -9.937824305866066
      ],
      [
        "Ġpresident",
        -9.937929216519676
      ],
      [
        "Ġdetect",
        -9.9379900022753
      ],
      [
        "Ġpattern",
        -9.938397319028086
      ],
      [
        "mination",
        -9.93878619413674
      ],
      [
        "field",
        -9.938924923472982
      ],
      [
        "pet",
        -9.939281842251464
      ],
      [
        "Ġaccept",
        -9.94012018717082
      ],
      [
        "Ġsort",
        -9.940786231920567
      ],
      [
        "Ġnames",
        -9.94088677948244
      ],
      [
        "Ġportion",
        -9.94232767442717
      ],
      [
        "rop",
        -9.942535363359932
      ],
      [
        "Ġcontract",
        -9.9426067253417
      ],
      [
        "related",
        -9.942693577514316
      ],
      [
        "but",
        -9.943563657066395
      ],
      [
        "long",
        -9.94368440806552
      ],
      [
        "loc",
        -9.943695802867316
      ],
      [
        "Ġmodels",
        -9.943889963644212
      ],
      [
        "Ġconcentration",
        -9.944227018896646
      ],
      [
        "Ġcoal",
        -9.944877423163128
      ],
      [
        "Ġsouthern",
        -9.94488387736089
      ],
      [
        "lib",
        -9.9457431219363
      ],
      [
        "Ġmoving",
        -9.946156100212594
      ],
      [
        "ĠTheir",
        -9.946552248592278
      ],
      [
        "ĠSun",
        -9.946717782997416
      ],
      [
        "Ġnoted",
        -9.94698336332337
      ],
      [
        "53",
        -9.947018377604827
      ],
      [
        "Ġjournal",
        -9.94710040547548
      ],
      [
        "ĠMexico",
        -9.947347311719978
      ],
      [
        "bur",
        -9.94802200185138
      ],
      [
        "Ġletter",
        -9.948820220559924
      ],
      [
        "Ġfamous",
        -9.948826790553085
      ],
      [
        "Ġstream",
        -9.94912657936981
      ],
      [
        "Ġeventually",
        -9.949563586677131
      ],
      [
        "Ġbroad",
        -9.950122982734744
      ],
      [
        "Ġreader",
        -9.950213827063978
      ],
      [
        "Ġbelieved",
        -9.950453173642758
      ],
      [
        "lid",
        -9.951128620335282
      ],
      [
        "Ġdevices",
        -9.95115965944886
      ],
      [
        "Ġcreation",
        -9.951577881082825
      ],
      [
        "07",
        -9.951826669735674
      ],
      [
        "71",
        -9.952284780287902
      ],
      [
        "59",
        -9.952380213051963
      ],
      [
        "disc",
        -9.952811034714689
      ],
      [
        "ĠAre",
        -9.9532139561726
      ],
      [
        "Ġhighest",
        -9.953355051964628
      ],
      [
        "ians",
        -9.953411799227904
      ],
      [
        "book",
        -9.954069595259552
      ],
      [
        "Ġstrength",
        -9.954189015656892
      ],
      [
        "rev",
        -9.95420028885554
      ],
      [
        "Ġtreated",
        -9.954604705383009
      ],
      [
        "rew",
        -9.95480801904131
      ],
      [
        "ĠAnn",
        -9.95542361255511
      ],
      [
        "Ġfresh",
        -9.955530783538402
      ],
      [
        "rising",
        -9.95569042011303
      ],
      [
        "Ġremove",
        -9.95663540888346
      ],
      [
        "Ġpen",
        -9.956832349732206
      ],
      [
        "Ġdisorder",
        -9.957545518675548
      ],
      [
        "house",
        -9.957733281367698
      ],
      [
        "Ġfriends",
        -9.95848503076164
      ],
      [
        "standing",
        -9.95886525228587
      ],
      [
        "ĠEach",
        -9.95951971186252
      ],
      [
        "hat",
        -9.959924276685184
      ],
      [
        "Ġtruth",
        -9.960458644853134
      ],
      [
        "Ġchoose",
        -9.960861551464044
      ],
      [
        "poli",
        -9.96104829906066
      ],
      [
        "Ġparty",
        -9.961240216291513
      ],
      [
        "ago",
        -9.961324259155152
      ],
      [
        "ural",
        -9.961337412457103
      ],
      [
        "Ġflo",
        -9.961517680181316
      ],
      [
        "EC",
        -9.96170376701925
      ],
      [
        "Ġnorthern",
        -9.96173653889947
      ],
      [
        "Ġusers",
        -9.962124687614162
      ],
      [
        "pre",
        -9.962224932540058
      ],
      [
        "Ġadult",
        -9.962606848771244
      ],
      [
        "ju",
        -9.962906960412568
      ],
      [
        "SE",
        -9.963205197656286
      ],
      [
        "Ġ1990",
        -9.963451611956012
      ],
      [
        "wan",
        -9.963869383913108
      ],
      [
        "rich",
        -9.96431168697078
      ],
      [
        "gui",
        -9.965132383570523
      ],
      [
        "Ġevolution",
        -9.965425673553328
      ],
      [
        "ĠTra",
        -9.96645122415635
      ],
      [
        "Ġdefined",
        -9.966496010884812
      ],
      [
        "ĠDevelopment",
        -9.966744441724028
      ],
      [
        "Ġmoment",
        -9.967320011312529
      ],
      [
        "ridge",
        -9.968917092644618
      ],
      [
        "lay",
        -9.97002786734846
      ],
      [
        "Ġregions",
        -9.970423519213814
      ],
      [
        "Ġerror",
        -9.970643491788522
      ],
      [
        "put",
        -9.97095073239316
      ],
      [
        "now",
        -9.971090529062568
      ],
      [
        "trying",
        -9.971428167533054
      ],
      [
        "31",
        -9.971579655294052
      ],
      [
        "Ġreleased",
        -9.97196362442929
      ],
      [
        "ere",
        -9.97201619922347
      ],
      [
        "ĠSpace",
        -9.972313457297249
      ],
      [
        "Ġclaim",
        -9.972535153929988
      ],
      [
        "Ġconservation",
        -9.972667887783896
      ],
      [
        "Fre",
        -9.973436722435007
      ],
      [
        "Ġheavy",
        -9.973670266993253
      ],
      [
        "American",
        -9.974176278116069
      ],
      [
        "his",
        -9.97427019598982
      ],
      [
        "03",
        -9.9744618178309
      ],
      [
        "Ġpractices",
        -9.974564716284569
      ],
      [
        "09",
        -9.974836670928696
      ],
      [
        "Ġstone",
        -9.975086837648533
      ],
      [
        "Ġspeech",
        -9.975264040262276
      ],
      [
        "CH",
        -9.975488786168736
      ],
      [
        "97",
        -9.975784567127295
      ],
      [
        "Ġhit",
        -9.97625363092745
      ],
      [
        "Ġwhom",
        -9.976272077913064
      ],
      [
        "Ġbear",
        -9.976961112918916
      ],
      [
        "Ġindustrial",
        -9.97705847428289
      ],
      [
        "ĠLatin",
        -9.977213781800852
      ],
      [
        "Ġport",
        -9.977769243673375
      ],
      [
        "under",
        -9.977853172094235
      ],
      [
        "aging",
        -9.978506889597332
      ],
      [
        "51",
        -9.978833994418132
      ],
      [
        "Ġpiece",
        -9.978853066837743
      ],
      [
        "ites",
        -9.979240735012446
      ],
      [
        "Ġcarry",
        -9.979462484109405
      ],
      [
        "erry",
        -9.979691619898768
      ],
      [
        "Ġboy",
        -9.980464760938602
      ],
      [
        "Ġconducted",
        -9.980925386945744
      ],
      [
        "ĠHere",
        -9.98101294137413
      ],
      [
        "Ġarm",
        -9.98157514759074
      ],
      [
        "logical",
        -9.982363702923038
      ],
      [
        "Ġjoint",
        -9.982431110020826
      ],
      [
        "Ġcampaign",
        -9.983731751906868
      ],
      [
        "Ġsuggests",
        -9.98438121774142
      ],
      [
        "ĠTrans",
        -9.984894591930894
      ],
      [
        "ĠBur",
        -9.98508453793065
      ],
      [
        "Ġoverall",
        -9.985307038330529
      ],
      [
        "profit",
        -9.985337187543545
      ],
      [
        "Ġelse",
        -9.98565118447145
      ],
      [
        "Ġupper",
        -9.986054828648292
      ],
      [
        "ville",
        -9.988087405517993
      ],
      [
        "Ġimmediately",
        -9.988608892633764
      ],
      [
        "itch",
        -9.988649337884285
      ],
      [
        "04",
        -9.989657846519483
      ],
      [
        "Ġphase",
        -9.990165006386992
      ],
      [
        "Ġvia",
        -9.991388250914644
      ],
      [
        "Ġactual",
        -9.991389526406529
      ],
      [
        "ĠWin",
        -9.9917073954857
      ],
      [
        "wood",
        -9.99215954192724
      ],
      [
        "Ġmark",
        -9.99230056661585
      ],
      [
        "Ġrunning",
        -9.992380621437984
      ],
      [
        "Ġreasons",
        -9.992578020652738
      ],
      [
        "mph",
        -9.992780454540494
      ],
      [
        "Ġatmosphere",
        -9.992965763146891
      ],
      [
        "Ġbalance",
        -9.993095699516504
      ],
      [
        "motion",
        -9.993227369324702
      ],
      [
        "96",
        -9.99329051591079
      ],
      [
        "×",
        -9.99350687101729
      ],
      [
        "kept",
        -9.994107632119562
      ],
      [
        "Ġfreedom",
        -9.994625945526185
      ],
      [
        "ĠNow",
        -9.995563086793728
      ],
      [
        "Ġintroduced",
        -9.995728005809966
      ],
      [
        "Figure",
        -9.996134777056264
      ],
      [
        "atory",
        -9.99637542194984
      ],
      [
        "ull",
        -9.996544743272793
      ],
      [
        "Ġturned",
        -9.997013396494612
      ],
      [
        "Ġspeak",
        -9.997368240176211
      ],
      [
        "Ġstories",
        -9.997378065309164
      ],
      [
        "Ġassume",
        -9.997814226356224
      ],
      [
        "Ġfla",
        -9.997885328582
      ],
      [
        "Ġproperties",
        -9.999723977963926
      ],
      [
        "Ġdrop",
        -10.000428240519572
      ],
      [
        "ĠMedicine",
        -10.000482960935518
      ],
      [
        "fold",
        -10.000597329308045
      ],
      [
        "Ġdidn",
        -10.000682107546004
      ],
      [
        "Ġauto",
        -10.001638879620248
      ],
      [
        "ĠEr",
        -10.001919602633803
      ],
      [
        "ĠMedical",
        -10.001929687920349
      ],
      [
        "gent",
        -10.002089452871555
      ],
      [
        "Ġcent",
        -10.002203057891812
      ],
      [
        "300",
        -10.002334388244543
      ],
      [
        "Ġexpect",
        -10.003412273478949
      ],
      [
        "Ġconsumer",
        -10.003622581644882
      ],
      [
        "Ġdecades",
        -10.003768460099003
      ],
      [
        "06",
        -10.004244296040406
      ],
      [
        "Ġremember",
        -10.005270049552555
      ],
      [
        "ĠPas",
        -10.00537929142228
      ],
      [
        "Ġdef",
        -10.00584025045772
      ],
      [
        "Ġurban",
        -10.00597413963002
      ],
      [
        "cher",
        -10.006051027189162
      ],
      [
        "ĠPublic",
        -10.00605645513124
      ],
      [
        "Ġprior",
        -10.00713925341703
      ],
      [
        "ĠYa",
        -10.007293880554316
      ],
      [
        "Ġfly",
        -10.00779154290711
      ],
      [
        "list",
        -10.008237118289788
      ],
      [
        "Ġparent",
        -10.009014277998189
      ],
      [
        "aster",
        -10.009328892534564
      ],
      [
        "Ġlived",
        -10.009666264397026
      ],
      [
        "Â·",
        -10.009763285583247
      ],
      [
        "type",
        -10.011464526052936
      ],
      [
        "Ġchapter",
        -10.012184812116576
      ],
      [
        "Ġvitamin",
        -10.012185035428873
      ],
      [
        "Ġorganizations",
        -10.012583532820404
      ],
      [
        "Ġ1999",
        -10.013340999890856
      ],
      [
        "VI",
        -10.013658129824108
      ],
      [
        "Ġdetails",
        -10.015206099283732
      ],
      [
        "Ġseek",
        -10.015532112476356
      ],
      [
        "vit",
        -10.015630968903135
      ],
      [
        "Ġwindow",
        -10.015656458553266
      ],
      [
        "Ġking",
        -10.015672163458166
      ],
      [
        "ĠArmy",
        -10.01585470954622
      ],
      [
        "emp",
        -10.016209380864504
      ],
      [
        "Ġplanning",
        -10.016436719806093
      ],
      [
        "lant",
        -10.016768761882073
      ],
      [
        "Ġproper",
        -10.016852557074785
      ],
      [
        "ĠHan",
        -10.017468640795624
      ],
      [
        "ines",
        -10.017809801028532
      ],
      [
        "lat",
        -10.018346197137449
      ],
      [
        "itive",
        -10.018757290739265
      ],
      [
        "ĠChildren",
        -10.019125964958931
      ],
      [
        "US",
        -10.019205248242612
      ],
      [
        "spir",
        -10.019393393683467
      ],
      [
        "Ġcol",
        -10.019397499800686
      ],
      [
        "flu",
        -10.019412534366769
      ],
      [
        "Ġpatterns",
        -10.01978384124758
      ],
      [
        "Ġbottom",
        -10.020638426124568
      ],
      [
        "Ġwrong",
        -10.02082222222814
      ],
      [
        "Ġstorm",
        -10.021432410213874
      ],
      [
        "press",
        -10.02174268893854
      ],
      [
        "Ġplans",
        -10.021831029864602
      ],
      [
        "Ġrespond",
        -10.021986092113302
      ],
      [
        "45",
        -10.022248612484226
      ],
      [
        "Ġcontribute",
        -10.022359587321205
      ],
      [
        "Ġreg",
        -10.022410946548566
      ],
      [
        "onal",
        -10.022874382903048
      ],
      [
        "ĠEd",
        -10.023181104679855
      ],
      [
        "ĠCommission",
        -10.023324163159428
      ],
      [
        "Ġcounter",
        -10.023862701644315
      ],
      [
        "ĠBer",
        -10.024551138092122
      ],
      [
        "gene",
        -10.024592005463646
      ],
      [
        "Ġexperiment",
        -10.02528341453199
      ],
      [
        "ella",
        -10.0255143606885
      ],
      [
        "Ġball",
        -10.02562693963884
      ],
      [
        "Ġleaders",
        -10.025704601880047
      ],
      [
        "@",
        -10.02593578071328
      ],
      [
        "ĠBen",
        -10.02596287550102
      ],
      [
        "pic",
        -10.025986094180103
      ],
      [
        "table",
        -10.026570316907767
      ],
      [
        "Ġmilk",
        -10.02694668671429
      ],
      [
        "Ġstem",
        -10.026956327805662
      ],
      [
        "some",
        -10.027075963028038
      ],
      [
        "ĠHol",
        -10.027386781757771
      ],
      [
        "ators",
        -10.02753789417904
      ],
      [
        "Ġdatabase",
        -10.027892918260363
      ],
      [
        "ĠSpanish",
        -10.028113384531816
      ],
      [
        "Ġvessel",
        -10.028227425241774
      ],
      [
        "mun",
        -10.028699495854212
      ],
      [
        "Ġopinion",
        -10.028770392145049
      ],
      [
        "Ġiron",
        -10.028830385637434
      ],
      [
        "Ġclearly",
        -10.028877453354454
      ],
      [
        "Ġgiving",
        -10.029258907167524
      ],
      [
        "Ġlearned",
        -10.02991469049302
      ],
      [
        "scribe",
        -10.030549426400928
      ],
      [
        "vel",
        -10.030741435812986
      ],
      [
        "ĠBas",
        -10.030759807242418
      ],
      [
        "Ġeveryone",
        -10.0309076849097
      ],
      [
        "Ġ29",
        -10.031237624192867
      ],
      [
        "Ġwalk",
        -10.031307003761354
      ],
      [
        "Ġsequence",
        -10.031665495866292
      ],
      [
        "IV",
        -10.032364118217036
      ],
      [
        "Ġinitial",
        -10.03264007291571
      ],
      [
        "Ġpartner",
        -10.033104156581937
      ],
      [
        "axi",
        -10.033871719625896
      ],
      [
        "From",
        -10.03393288807526
      ],
      [
        "bid",
        -10.034107942385642
      ],
      [
        "Ġshift",
        -10.03416407486776
      ],
      [
        "ĠCivil",
        -10.03435991939002
      ],
      [
        "Ġmeasurement",
        -10.034558621596949
      ],
      [
        "Ġfully",
        -10.034660177857788
      ],
      [
        "ĠAsia",
        -10.03505947320452
      ],
      [
        "Ġwarm",
        -10.03524611689698
      ],
      [
        "Ġhair",
        -10.035602363970842
      ],
      [
        "hop",
        -10.035692495617342
      ],
      [
        "Ġoperations",
        -10.03574234531874
      ],
      [
        "Ġcovered",
        -10.036034897641334
      ],
      [
        "Ġworth",
        -10.03616107436584
      ],
      [
        "Ġcredit",
        -10.036292828219391
      ],
      [
        "Ġliterature",
        -10.03648302099418
      ],
      [
        "Ġtransport",
        -10.03649955194572
      ],
      [
        "Ġaccurate",
        -10.036765590222094
      ],
      [
        "its",
        -10.036807499443984
      ],
      [
        "Ġcitizens",
        -10.037219378917325
      ],
      [
        "ĠWhite",
        -10.037585968470196
      ],
      [
        "OS",
        -10.037610890818382
      ],
      [
        "Ġapply",
        -10.0376176832101
      ],
      [
        "Just",
        -10.03869452929566
      ],
      [
        "Ġinternal",
        -10.038756165763022
      ],
      [
        "Ġslave",
        -10.039444975174812
      ],
      [
        "Ġtechnologies",
        -10.0396663157334
      ],
      [
        "Ġproposed",
        -10.039796310091283
      ],
      [
        "Ġfrequently",
        -10.03986935850142
      ],
      [
        "Ġdigital",
        -10.040400959873624
      ],
      [
        "stone",
        -10.040456711101882
      ],
      [
        "Ġconsumption",
        -10.0406587564347
      ],
      [
        "sted",
        -10.04152028223328
      ],
      [
        "Ġchief",
        -10.041824087364494
      ],
      [
        "Ġdistinct",
        -10.041858438979448
      ],
      [
        "ĠThomas",
        -10.042034142650818
      ],
      [
        "los",
        -10.042858695292148
      ],
      [
        "ĠEnergy",
        -10.042940143102578
      ],
      [
        "88",
        -10.043196914419443
      ],
      [
        "Ġforward",
        -10.043801859514968
      ],
      [
        "Ġvision",
        -10.044822243933275
      ],
      [
        "Ġvariable",
        -10.04541080888224
      ],
      [
        "Ï",
        -10.046482544582014
      ],
      [
        "tric",
        -10.046637815160535
      ],
      [
        "Ġroute",
        -10.047396471334968
      ],
      [
        "Ġmanufacture",
        -10.048506163750218
      ],
      [
        "ĠCre",
        -10.048676947211565
      ],
      [
        "Ġwidely",
        -10.048757667502231
      ],
      [
        "ĠLibrary",
        -10.048768103329287
      ],
      [
        "mail",
        -10.04941408099148
      ],
      [
        "Ġtechnical",
        -10.049530165350996
      ],
      [
        "Ġkill",
        -10.04960777732169
      ],
      [
        "Ġcontrast",
        -10.049822865948864
      ],
      [
        "That",
        -10.050157085589657
      ],
      [
        "ĠCharles",
        -10.052016953775016
      ],
      [
        "Ġphone",
        -10.0522638326882
      ],
      [
        "Ġreduction",
        -10.053141034951071
      ],
      [
        "pac",
        -10.053462276056656
      ],
      [
        "cap",
        -10.053716527344337
      ],
      [
        "Ġenjoy",
        -10.053979195339991
      ],
      [
        "dent",
        -10.054493155777193
      ],
      [
        "Ġdouble",
        -10.054873166663404
      ],
      [
        "Ġresistance",
        -10.055186022389988
      ],
      [
        "Ġhousehold",
        -10.05532686869823
      ],
      [
        "Ġremained",
        -10.05565172890877
      ],
      [
        "lim",
        -10.056706534584867
      ],
      [
        "supported",
        -10.056731847688916
      ],
      [
        "Ġreached",
        -10.05722751507168
      ],
      [
        "Ġselect",
        -10.057334235096318
      ],
      [
        "Ġelectricity",
        -10.057334967023488
      ],
      [
        "Äģ",
        -10.058324750619352
      ],
      [
        "Ġperformed",
        -10.05846443876402
      ],
      [
        "count",
        -10.058561894405903
      ],
      [
        "Pal",
        -10.05883994628077
      ],
      [
        "omb",
        -10.058995666753727
      ],
      [
        "Ġorbit",
        -10.059051714521775
      ],
      [
        "plo",
        -10.05946344206011
      ],
      [
        "Ġconnect",
        -10.05952505761469
      ],
      [
        "Ġextremely",
        -10.059796830494296
      ],
      [
        "ĠSocial",
        -10.0600512567312
      ],
      [
        "RS",
        -10.060521463422344
      ],
      [
        "Qu",
        -10.06110991039033
      ],
      [
        "ĠOur",
        -10.061485860890231
      ],
      [
        "Ġsolid",
        -10.061502396315497
      ],
      [
        "ĠPacific",
        -10.061531707828856
      ],
      [
        "referred",
        -10.061648139181212
      ],
      [
        "Ġmouth",
        -10.062662342255944
      ],
      [
        "Ġfluid",
        -10.062774180806931
      ],
      [
        "Ġpur",
        -10.063614447540976
      ],
      [
        "head",
        -10.063717338480291
      ],
      [
        "Ġoperation",
        -10.064578429684136
      ],
      [
        "Ġdrink",
        -10.064771616727574
      ],
      [
        "served",
        -10.065181558058825
      ],
      [
        "CC",
        -10.065211599293969
      ],
      [
        "Ġorganic",
        -10.065226136325514
      ],
      [
        "ride",
        -10.065552417924172
      ],
      [
        "ched",
        -10.0663407679418
      ],
      [
        "lap",
        -10.067293079668367
      ],
      [
        "Ġnumerous",
        -10.067842896072028
      ],
      [
        "Ġmaster",
        -10.067857619722828
      ],
      [
        "Ġelection",
        -10.0680028824812
      ],
      [
        "pression",
        -10.068084374658994
      ],
      [
        "run",
        -10.06868019006377
      ],
      [
        "Ġdraw",
        -10.069427180592983
      ],
      [
        "ĠInformation",
        -10.06988397556058
      ],
      [
        "ĠUN",
        -10.07006119700166
      ],
      [
        "Ġauthority",
        -10.07019876362751
      ],
      [
        "test",
        -10.070279045501758
      ],
      [
        "ĠOver",
        -10.070332340349076
      ],
      [
        "dies",
        -10.071536369981606
      ],
      [
        "Ġrecommend",
        -10.071702133104107
      ],
      [
        "Ġartist",
        -10.071826013747303
      ],
      [
        "TO",
        -10.072060937936287
      ],
      [
        "Ġrain",
        -10.07310621232189
      ],
      [
        "Ġwriter",
        -10.073245975395489
      ],
      [
        "placed",
        -10.07382771835733
      ],
      [
        "Ġcoast",
        -10.073914958619056
      ],
      [
        "Ġhuge",
        -10.074444362087949
      ],
      [
        "hill",
        -10.074553296787606
      ],
      [
        "Ġbill",
        -10.074607093388131
      ],
      [
        "ĠLand",
        -10.074823981993958
      ],
      [
        "Ġspot",
        -10.07597281729684
      ],
      [
        "Ġpopulations",
        -10.07639285187942
      ],
      [
        "ĠPu",
        -10.076909245862463
      ],
      [
        "Ġsector",
        -10.077268279525846
      ],
      [
        "Ġplate",
        -10.077268736130438
      ],
      [
        "Ġarmy",
        -10.077505465798524
      ],
      [
        "Ġhappen",
        -10.07781910152169
      ],
      [
        "Ġoffers",
        -10.078039664445155
      ],
      [
        "Ġinteraction",
        -10.07869645736446
      ],
      [
        "Ġsigns",
        -10.078933541759609
      ],
      [
        "Ġcore",
        -10.07984559697811
      ],
      [
        "Ġmanner",
        -10.079898937472358
      ],
      [
        "dynamic",
        -10.080650987381093
      ],
      [
        "Ġpair",
        -10.08065311271101
      ],
      [
        "Ġdetermined",
        -10.081265573347746
      ],
      [
        "mul",
        -10.082581995863132
      ],
      [
        "Ġalcohol",
        -10.0826240818058
      ],
      [
        "Ġoccurred",
        -10.083566095411031
      ],
      [
        "logic",
        -10.083717832850391
      ],
      [
        "Although",
        -10.084032864308329
      ],
      [
        "Ġdegrees",
        -10.084123183698988
      ],
      [
        "Ġlay",
        -10.084135618069167
      ],
      [
        "Ġrequirements",
        -10.08461810033663
      ],
      [
        "lav",
        -10.084935801607877
      ],
      [
        "Ġefficient",
        -10.085140337717167
      ],
      [
        "NS",
        -10.085149480845024
      ],
      [
        "Ġfunctions",
        -10.08530528697289
      ],
      [
        "Ġconcern",
        -10.085446842254834
      ],
      [
        "uring",
        -10.085590455957554
      ],
      [
        "Ġwest",
        -10.086401421044918
      ],
      [
        "Ġbodies",
        -10.08656760543715
      ],
      [
        "Ġdiscuss",
        -10.086835702926434
      ],
      [
        "Ġimmune",
        -10.08743744545165
      ],
      [
        "Ġfinding",
        -10.088487565924751
      ],
      [
        "Ġhour",
        -10.088541093113154
      ],
      [
        "89",
        -10.088993604284628
      ],
      [
        "shore",
        -10.090244842520486
      ],
      [
        "Ġformation",
        -10.090519206671168
      ],
      [
        "word",
        -10.09059913592272
      ],
      [
        "Ġflood",
        -10.090874006593292
      ],
      [
        "tory",
        -10.091061442562292
      ],
      [
        "Ġagent",
        -10.091130793983597
      ],
      [
        "Ġnotes",
        -10.09193443753503
      ],
      [
        "Using",
        -10.092324474882092
      ],
      [
        "Ġcolon",
        -10.092338715838354
      ],
      [
        "thic",
        -10.092597757156172
      ],
      [
        "ĠWal",
        -10.092881322322382
      ],
      [
        "Ġfields",
        -10.092885170910623
      ],
      [
        "ĠReport",
        -10.093082212074204
      ],
      [
        "Ġpack",
        -10.09387073290716
      ],
      [
        "more",
        -10.0946140432635
      ],
      [
        "86",
        -10.09494858075363
      ],
      [
        "Ġ1998",
        -10.095415653359288
      ],
      [
        "Ġsignificantly",
        -10.09592021936873
      ],
      [
        "Ġactions",
        -10.095935513668447
      ],
      [
        "ĠSte",
        -10.096572336831647
      ],
      [
        "ĠBay",
        -10.097020639650104
      ],
      [
        "Ġpolicies",
        -10.09731733435402
      ],
      [
        "Ġfirm",
        -10.097488585350025
      ],
      [
        "Ġachieve",
        -10.09749260064024
      ],
      [
        "Ù",
        -10.097530645320722
      ],
      [
        "Ġborder",
        -10.097581729339948
      ],
      [
        "Ġfeature",
        -10.098500985770867
      ],
      [
        "Ex",
        -10.098932168504565
      ],
      [
        "Ġcomponents",
        -10.099882939378409
      ],
      [
        "stri",
        -10.100198066217656
      ],
      [
        "ĠVirginia",
        -10.100312808973657
      ],
      [
        "Ġmet",
        -10.100628670406843
      ],
      [
        "Ġbrother",
        -10.10113310343999
      ],
      [
        "ĠPeter",
        -10.101272045527828
      ],
      [
        "ET",
        -10.10132709009796
      ],
      [
        "PS",
        -10.10167762086139
      ],
      [
        "ĠTre",
        -10.10194528654892
      ],
      [
        "ibility",
        -10.102250288056826
      ],
      [
        "Ġgenes",
        -10.102289895346438
      ],
      [
        "Ġenable",
        -10.102442189397715
      ],
      [
        "Ġcloud",
        -10.102463325707715
      ],
      [
        "Ġflight",
        -10.10283614697522
      ],
      [
        "vid",
        -10.10346046549963
      ],
      [
        "Last",
        -10.103623678822622
      ],
      [
        "Ġdecline",
        -10.103711307433333
      ],
      [
        "ĠFoundation",
        -10.104766625696351
      ],
      [
        "Ġsurgery",
        -10.10505662481393
      ],
      [
        "ĠFu",
        -10.105160927185992
      ],
      [
        "tran",
        -10.106551016236612
      ],
      [
        "Ġnovel",
        -10.106700140776478
      ],
      [
        "Ġ90",
        -10.10687577506175
      ],
      [
        "Ġsex",
        -10.107446027582611
      ],
      [
        "Ġdie",
        -10.107928718650763
      ],
      [
        "Ġelectronic",
        -10.108694114979407
      ],
      [
        "Ġsupplement",
        -10.109415771601052
      ],
      [
        "Ġhear",
        -10.10999820900886
      ],
      [
        "ense",
        -10.11003625567457
      ],
      [
        "Ġunits",
        -10.110430197456033
      ],
      [
        "92",
        -10.110514921445562
      ],
      [
        "Ġfriend",
        -10.110771006859128
      ],
      [
        "atch",
        -10.1109819313589
      ],
      [
        "urg",
        -10.11177669596277
      ],
      [
        "Ġlung",
        -10.11187878183144
      ],
      [
        "Ġincreases",
        -10.111951660449824
      ],
      [
        "Ġvoice",
        -10.113113497395014
      ],
      [
        "Mar",
        -10.11350322863705
      ],
      [
        "ected",
        -10.114026314762716
      ],
      [
        "Ġitems",
        -10.114127780996316
      ],
      [
        "Ġsalt",
        -10.114412009170184
      ],
      [
        "cate",
        -10.1144193722192
      ],
      [
        "bed",
        -10.114572502874491
      ],
      [
        "Ġspent",
        -10.114579177272756
      ],
      [
        "Ġperfect",
        -10.114725023923464
      ],
      [
        "lex",
        -10.114860373386342
      ],
      [
        "Ġstructures",
        -10.115310232024653
      ],
      [
        "Ġthick",
        -10.115526176036289
      ],
      [
        "Ġbuy",
        -10.11594479266158
      ],
      [
        "till",
        -10.1161503669437
      ],
      [
        "Ġexcept",
        -10.11647205849424
      ],
      [
        "Ġchronic",
        -10.116659849886837
      ],
      [
        "Ġviolence",
        -10.117194697875322
      ],
      [
        "Ġfossil",
        -10.11753009471245
      ],
      [
        "Ġresulting",
        -10.117866381673853
      ],
      [
        "More",
        -10.11795913230623
      ],
      [
        "Ġcorrespond",
        -10.117987253495484
      ],
      [
        "hou",
        -10.118323369114188
      ],
      [
        "Ġmill",
        -10.119800982993622
      ],
      [
        "lus",
        -10.1205395263099
      ],
      [
        "Ġoxygen",
        -10.12074219974149
      ],
      [
        "Ġmeat",
        -10.121227814616232
      ],
      [
        "Ġ80",
        -10.12145578692647
      ],
      [
        "rip",
        -10.121519616696055
      ],
      [
        "Ġdescription",
        -10.121538998689193
      ],
      [
        "ĠRed",
        -10.121611748658086
      ],
      [
        "ope",
        -10.12171192744702
      ],
      [
        "cop",
        -10.122123831277808
      ],
      [
        "Ġextensive",
        -10.12243440762696
      ],
      [
        "Ġscreen",
        -10.122801299592826
      ],
      [
        "Ġneuro",
        -10.1228866736986
      ],
      [
        "Ġpreviously",
        -10.123193537691886
      ],
      [
        "ried",
        -10.123889820714856
      ],
      [
        "Ġwanted",
        -10.124762127414668
      ],
      [
        "Ġdebate",
        -10.125221501628603
      ],
      [
        "inate",
        -10.126646364572911
      ],
      [
        "Ġbiological",
        -10.127047568648468
      ],
      [
        "Ġcompound",
        -10.127125747250515
      ],
      [
        "Ġopportunities",
        -10.12794298101482
      ],
      [
        "Ġpublication",
        -10.128209920544512
      ],
      [
        "returned",
        -10.12841087778496
      ],
      [
        "Many",
        -10.128495553931602
      ],
      [
        "ĠCentral",
        -10.128678478961392
      ],
      [
        "93",
        -10.129241686446347
      ],
      [
        "Ġpress",
        -10.12972237189678
      ],
      [
        "Ġextend",
        -10.13003774719596
      ],
      [
        "Ġsteps",
        -10.13020056360188
      ],
      [
        "round",
        -10.130216940378071
      ],
      [
        "Â©",
        -10.130233129464004
      ],
      [
        "ball",
        -10.130338412982333
      ],
      [
        "ĠFood",
        -10.13035551298168
      ],
      [
        "87",
        -10.130718816625254
      ],
      [
        "Ġtemperatures",
        -10.13082231374724
      ],
      [
        "met",
        -10.130961090613194
      ],
      [
        "ĠWil",
        -10.131362631074817
      ],
      [
        "bel",
        -10.131450121768305
      ],
      [
        "Ġhelped",
        -10.131498143322297
      ],
      [
        "ging",
        -10.131575011905491
      ],
      [
        "Ġaim",
        -10.13241733803923
      ],
      [
        "ĠDon",
        -10.132500118831562
      ],
      [
        "Ġimprovement",
        -10.132775764966398
      ],
      [
        "rom",
        -10.13290494806517
      ],
      [
        "Ġoutput",
        -10.132984982914936
      ],
      [
        "Ġbecoming",
        -10.13312895129757
      ],
      [
        "Ã¡",
        -10.13424122105898
      ],
      [
        "Ġdescribe",
        -10.134244621855366
      ],
      [
        "Ġoutcome",
        -10.13435272388666
      ],
      [
        "Ġexistence",
        -10.134635923818076
      ],
      [
        "ĠCap",
        -10.135283981261862
      ],
      [
        "Ġintended",
        -10.135675080773222
      ],
      [
        "ĠBritain",
        -10.135937309890686
      ],
      [
        "94",
        -10.136186642576194
      ],
      [
        "tate",
        -10.137096395119846
      ],
      [
        "Ġobjective",
        -10.137160257054973
      ],
      [
        "lect",
        -10.137256795977509
      ],
      [
        "Other",
        -10.138276952626883
      ],
      [
        "ically",
        -10.138837749806571
      ],
      [
        "Ġstrategies",
        -10.139061988937746
      ],
      [
        "Ġacademic",
        -10.139120843472028
      ],
      [
        "Ġkm",
        -10.139934462718804
      ],
      [
        "Ġarticles",
        -10.140248748862753
      ],
      [
        "Who",
        -10.141114488107185
      ],
      [
        "bul",
        -10.141214415662985
      ],
      [
        "del",
        -10.141695046593474
      ],
      [
        "ĠStar",
        -10.142027466594245
      ],
      [
        "looked",
        -10.142070757773372
      ],
      [
        "Ġsurrounding",
        -10.142413386951104
      ],
      [
        "ĠJan",
        -10.142672506375796
      ],
      [
        "Ġclasses",
        -10.142971521679211
      ],
      [
        "Ġyield",
        -10.143896376814288
      ],
      [
        "Ġliquid",
        -10.14415235842706
      ],
      [
        "Ġtechnique",
        -10.144224644708885
      ],
      [
        "Ġbright",
        -10.14530645996124
      ],
      [
        "Ġvictim",
        -10.14569773916556
      ],
      [
        "Most",
        -10.145709142039935
      ],
      [
        "Ġmotor",
        -10.145711829815822
      ],
      [
        "Ġraise",
        -10.146096978012606
      ],
      [
        "Ġcharacteristics",
        -10.14697478051121
      ],
      [
        "ĠLife",
        -10.14788984174296
      ],
      [
        "ĠFederal",
        -10.148415261035106
      ],
      [
        "ĠRussian",
        -10.14872914783926
      ],
      [
        "Ġtrend",
        -10.14888104779766
      ],
      [
        "room",
        -10.14978962393858
      ],
      [
        "Ġstreet",
        -10.14981695049413
      ],
      [
        "Ġscan",
        -10.149925775446832
      ],
      [
        "Ġexamples",
        -10.15105152969251
      ],
      [
        "Ġ35",
        -10.151055938449398
      ],
      [
        "ĠUK",
        -10.151071462718829
      ],
      [
        "Ġprinciples",
        -10.151152419210812
      ],
      [
        "ĠMuslim",
        -10.15121158730362
      ],
      [
        "ĠBal",
        -10.151433563301651
      ],
      [
        "Ġextent",
        -10.151774536332328
      ],
      [
        "ĠMal",
        -10.152670726347106
      ],
      [
        "Ġbackground",
        -10.152702231102984
      ],
      [
        "Ġexposed",
        -10.15289650109352
      ],
      [
        "Ġprepared",
        -10.153262678246568
      ],
      [
        "Ġzone",
        -10.154133835024382
      ],
      [
        "quarter",
        -10.15419913620212
      ],
      [
        "Ġinstitutions",
        -10.154324029052145
      ],
      [
        "Ġcouple",
        -10.154344761574968
      ],
      [
        "Ġfarmers",
        -10.154582380548993
      ],
      [
        "Photo",
        -10.155025007485364
      ],
      [
        "Ġpages",
        -10.155191842587069
      ],
      [
        "cell",
        -10.155316514290318
      ],
      [
        "onia",
        -10.155518672024977
      ],
      [
        "Ġband",
        -10.156111294278844
      ],
      [
        "Ġ31",
        -10.156289563023025
      ],
      [
        "Ġstock",
        -10.15642569541798
      ],
      [
        "Ġaspects",
        -10.156472379098
      ],
      [
        "die",
        -10.15680039827254
      ],
      [
        "Ġtube",
        -10.156906513940475
      ],
      [
        "100",
        -10.157154363822944
      ],
      [
        "Ġdecided",
        -10.157607023677684
      ],
      [
        "Ġofficials",
        -10.160055807800074
      ],
      [
        "iki",
        -10.160153703117889
      ],
      [
        "Ġbrief",
        -10.160581364845305
      ],
      [
        "Ġreality",
        -10.160613156537064
      ],
      [
        "Ġheight",
        -10.160881235051214
      ],
      [
        "Ġbuildings",
        -10.162324611653927
      ],
      [
        "Ġdomestic",
        -10.162628985060255
      ],
      [
        "Ġanyone",
        -10.162911973626963
      ],
      [
        "Ġchanging",
        -10.1632740765359
      ],
      [
        "Ġmoon",
        -10.164302545371015
      ],
      [
        "take",
        -10.164741341808638
      ],
      [
        "Ġadvanced",
        -10.164770322587492
      ],
      [
        "ÃŃ",
        -10.16502550508446
      ],
      [
        "Ġsaying",
        -10.16579353192598
      ],
      [
        "Ġheard",
        -10.165954167013163
      ],
      [
        "rib",
        -10.166204375983623
      ],
      [
        "Ġcompleted",
        -10.1662833559304
      ],
      [
        "Ġharm",
        -10.16630065391588
      ],
      [
        "ĠMen",
        -10.16672382289646
      ],
      [
        "Ġagree",
        -10.167011250286444
      ],
      [
        "Ġscholar",
        -10.167288778378694
      ],
      [
        "cited",
        -10.167298306372029
      ],
      [
        "ĠGuide",
        -10.167407897311271
      ],
      [
        "Ġrecommended",
        -10.167930116109163
      ],
      [
        "ĠOp",
        -10.168111689600734
      ],
      [
        "Ġlargely",
        -10.168592591080571
      ],
      [
        "signed",
        -10.168635915545448
      ],
      [
        "Ġprimarily",
        -10.168706745947338
      ],
      [
        "Ġedge",
        -10.169150352325444
      ],
      [
        "ĠPan",
        -10.170347479053277
      ],
      [
        "Ġemail",
        -10.170756901819685
      ],
      [
        "Ġsatellite",
        -10.171158334140266
      ],
      [
        "Ġobvious",
        -10.171400801309945
      ],
      [
        "ĠDisease",
        -10.171481482681932
      ],
      [
        "Ġ1997",
        -10.173032678421174
      ],
      [
        "rest",
        -10.1735845581332
      ],
      [
        "Ġenhance",
        -10.17363216447352
      ],
      [
        "They",
        -10.174228789558144
      ],
      [
        "Ġrevolution",
        -10.174293935365665
      ],
      [
        "Ġabuse",
        -10.174397655585262
      ],
      [
        "ĠPat",
        -10.174452825806847
      ],
      [
        "Ġcorn",
        -10.1745297798758
      ],
      [
        "gla",
        -10.174863552276904
      ],
      [
        "CS",
        -10.175040016107758
      ],
      [
        "Source",
        -10.176446604329431
      ],
      [
        "ject",
        -10.176484853479392
      ],
      [
        "Ġforced",
        -10.176621901547213
      ],
      [
        "Pla",
        -10.17665991317497
      ],
      [
        "cut",
        -10.176739087551605
      ],
      [
        "Ġreveal",
        -10.176782822594014
      ],
      [
        "pul",
        -10.17755945728004
      ],
      [
        "Ġdepartment",
        -10.17794297043815
      ],
      [
        "Ġ200",
        -10.17804249466873
      ],
      [
        "Ġinterested",
        -10.178080777252635
      ],
      [
        "ĠHome",
        -10.178273218874915
      ],
      [
        "appeared",
        -10.178820166794988
      ],
      [
        "Ġextreme",
        -10.179008971110386
      ],
      [
        "wal",
        -10.179219597675742
      ],
      [
        "Ġdoor",
        -10.180049013926936
      ],
      [
        "91",
        -10.180070832829417
      ],
      [
        "Ġagreement",
        -10.18017636336584
      ],
      [
        "Ġhelps",
        -10.180813946750366
      ],
      [
        "uni",
        -10.181021454012692
      ],
      [
        "ji",
        -10.181357552716866
      ],
      [
        "Ġreform",
        -10.18163567644548
      ],
      [
        "removed",
        -10.181675056438088
      ],
      [
        "Ġwestern",
        -10.181759218675976
      ],
      [
        "CP",
        -10.18218180465464
      ],
      [
        "via",
        -10.18218827462872
      ],
      [
        "Ġdepression",
        -10.182891589968651
      ],
      [
        "Ġtrain",
        -10.183754654916614
      ],
      [
        "ĠEnvironmental",
        -10.183933906892683
      ],
      [
        "exactly",
        -10.18445574708775
      ],
      [
        "Ġrecorded",
        -10.18448085560886
      ],
      [
        "Ġintervention",
        -10.18553107206952
      ],
      [
        "ounded",
        -10.185681156764488
      ],
      [
        "Ġformat",
        -10.185701865300755
      ],
      [
        "ston",
        -10.18573014207272
      ],
      [
        "moved",
        -10.185829248008485
      ],
      [
        "Ġagricultural",
        -10.186272411868746
      ],
      [
        "Ġmanage",
        -10.186633917469438
      ],
      [
        "Ġtransfer",
        -10.186674725855392
      ],
      [
        "Ġauthors",
        -10.186780842334691
      ],
      [
        "ĠBio",
        -10.186998430786993
      ],
      [
        "dependent",
        -10.187701477862529
      ],
      [
        "Ġelement",
        -10.1881882421067
      ],
      [
        "Ġbird",
        -10.188352897296886
      ],
      [
        "Ġvariation",
        -10.188523220725216
      ],
      [
        "ĠOld",
        -10.18867624667618
      ],
      [
        "Ġsentence",
        -10.18870315850983
      ],
      [
        "Ġexchange",
        -10.188709208883589
      ],
      [
        "Ġwife",
        -10.188800636701687
      ],
      [
        "berg",
        -10.189248531622589
      ],
      [
        "Where",
        -10.189703210340909
      ],
      [
        "Ġteach",
        -10.18975786727172
      ],
      [
        "pping",
        -10.189965443171298
      ],
      [
        "Ġcausing",
        -10.190144513358453
      ],
      [
        "Ġsufficient",
        -10.190798519021229
      ],
      [
        "Ġeast",
        -10.190925831317143
      ],
      [
        "Ġfundamental",
        -10.19110557512755
      ],
      [
        "ĠGroup",
        -10.19163760984028
      ],
      [
        "Ġsnow",
        -10.192147895694314
      ],
      [
        "Ġtumor",
        -10.19218643925432
      ],
      [
        "Ġspin",
        -10.192793118948549
      ],
      [
        "Ġfill",
        -10.193639865212896
      ],
      [
        "ĠMars",
        -10.193723340171776
      ],
      [
        "ĠSoviet",
        -10.193776426888457
      ],
      [
        "Ġfinally",
        -10.194746157667032
      ],
      [
        "Ġengineering",
        -10.19518186651159
      ],
      [
        "Ġoffered",
        -10.195902950753892
      ],
      [
        "Ġnews",
        -10.19593361372002
      ],
      [
        "Ġperspective",
        -10.196373529618622
      ],
      [
        "yard",
        -10.196497578775736
      ],
      [
        "Ġplayer",
        -10.196800252393675
      ],
      [
        "Ġscore",
        -10.196923297549215
      ],
      [
        "Ġleader",
        -10.19728912343351
      ],
      [
        "Ġstorage",
        -10.197430200551732
      ],
      [
        "Ġdisorders",
        -10.199170659868994
      ],
      [
        "SP",
        -10.199252961337503
      ],
      [
        "ĠMiddle",
        -10.19937875727995
      ],
      [
        "listed",
        -10.199518932989404
      ],
      [
        "Ġlake",
        -10.199640015694218
      ],
      [
        "Ġstarting",
        -10.199914646761812
      ],
      [
        "Ġengage",
        -10.199945375494249
      ],
      [
        "Ġplastic",
        -10.20004119709489
      ],
      [
        "Ġobtain",
        -10.200625747071198
      ],
      [
        "Ġfacilities",
        -10.20068152758429
      ],
      [
        "Please",
        -10.201438195798236
      ],
      [
        "ening",
        -10.20188509291406
      ],
      [
        "ĠInc",
        -10.20274735227422
      ],
      [
        "Ġcopy",
        -10.202887783291969
      ],
      [
        "eck",
        -10.203279646756762
      ],
      [
        "craft",
        -10.20396270232557
      ],
      [
        "fish",
        -10.204053858473795
      ],
      [
        "Ġideal",
        -10.20420217303663
      ],
      [
        "HO",
        -10.20524310240632
      ],
      [
        "Ġpersons",
        -10.205434564649495
      ],
      [
        "duct",
        -10.205550350651327
      ],
      [
        "Ġprocedure",
        -10.205630243063707
      ],
      [
        "Ġepi",
        -10.206621974114933
      ],
      [
        "leg",
        -10.20675468250829
      ],
      [
        "Ġengineer",
        -10.206824923532972
      ],
      [
        "CO",
        -10.20684013145059
      ],
      [
        "ĠTechnology",
        -10.20692251813298
      ],
      [
        "ĠChi",
        -10.20707683905898
      ],
      [
        "lower",
        -10.207176046080354
      ],
      [
        "Ġupdate",
        -10.207290348626575
      ],
      [
        "tens",
        -10.207353847722922
      ],
      [
        "½",
        -10.207697524631158
      ],
      [
        "Ġtoxic",
        -10.207898951453718
      ],
      [
        "Pre",
        -10.208804784819485
      ],
      [
        "Ġcombined",
        -10.208828800552462
      ],
      [
        "otic",
        -10.211203679275895
      ],
      [
        "Ġregarding",
        -10.211243932730907
      ],
      [
        "Ġtrip",
        -10.21251126124272
      ],
      [
        "Ġcook",
        -10.21286543150522
      ],
      [
        "Ġraised",
        -10.212920789842082
      ],
      [
        "79",
        -10.213221935861348
      ],
      [
        "rupt",
        -10.213309219697464
      ],
      [
        "Ġconsistent",
        -10.214230278144155
      ],
      [
        "reme",
        -10.214262591802353
      ],
      [
        "Ġgreatest",
        -10.21429377765366
      ],
      [
        "Ġcenturies",
        -10.215375569971478
      ],
      [
        "erg",
        -10.215592720775671
      ],
      [
        "ĠSk",
        -10.21598574786899
      ],
      [
        "ĠFlorida",
        -10.21737289602744
      ],
      [
        "Ġcamera",
        -10.217552598751936
      ],
      [
        "Ġparticipants",
        -10.217702557521932
      ],
      [
        "inter",
        -10.217999922615729
      ],
      [
        "ette",
        -10.21807380967941
      ],
      [
        "reli",
        -10.218502707990964
      ],
      [
        "Ġinvestment",
        -10.21911395802558
      ],
      [
        "ME",
        -10.219563632813188
      ],
      [
        "Ġpolice",
        -10.219771587349255
      ],
      [
        "Ġcu",
        -10.219778962450834
      ],
      [
        "Ġdose",
        -10.219866729528702
      ],
      [
        "Ġcareer",
        -10.220176245790944
      ],
      [
        "Ġrequest",
        -10.220234149713674
      ],
      [
        "Ġfloor",
        -10.220473512156529
      ],
      [
        "ĠCommittee",
        -10.22112473331869
      ],
      [
        "Ġelectrical",
        -10.221159050794952
      ],
      [
        "Ġmotion",
        -10.221504163149172
      ],
      [
        "rite",
        -10.221638913068649
      ],
      [
        "Ġmentioned",
        -10.221833528024112
      ],
      [
        "Now",
        -10.221941389867284
      ],
      [
        "mel",
        -10.222111984063243
      ],
      [
        "itude",
        -10.222549199403725
      ],
      [
        "edit",
        -10.222770296246903
      ],
      [
        "Ġoption",
        -10.223428164592251
      ],
      [
        "Ġpollution",
        -10.22343273481624
      ],
      [
        "Ġsuggested",
        -10.223547265389564
      ],
      [
        "Ġstars",
        -10.224794397315742
      ],
      [
        "scope",
        -10.224972857676416
      ],
      [
        "sphere",
        -10.225194232335303
      ],
      [
        "Ġdetailed",
        -10.225380028180574
      ],
      [
        "Ġspirit",
        -10.225662793061767
      ],
      [
        "physics",
        -10.226053447640613
      ],
      [
        "Ġfail",
        -10.226098804529022
      ],
      [
        "Ġpractical",
        -10.22610924993655
      ],
      [
        "each",
        -10.226219722579048
      ],
      [
        "84",
        -10.226324626803365
      ],
      [
        "Ġgrain",
        -10.226437495946907
      ],
      [
        "down",
        -10.22680681006196
      ],
      [
        "ĠCompany",
        -10.226823041089151
      ],
      [
        "Ġgrant",
        -10.227070511992949
      ],
      [
        "bert",
        -10.227179351866942
      ],
      [
        "Ġinfant",
        -10.227239545984224
      ],
      [
        "Ġgrand",
        -10.22743521373707
      ],
      [
        "mil",
        -10.227601034042548
      ],
      [
        "Ġyourself",
        -10.228288253727316
      ],
      [
        "Ġexperts",
        -10.228294763992102
      ],
      [
        "Ġcollect",
        -10.22855884177336
      ],
      [
        "ogen",
        -10.22885560354998
      ],
      [
        "atter",
        -10.228860681383146
      ],
      [
        "Ġdecisions",
        -10.229127678793542
      ],
      [
        "Ġfair",
        -10.229327227736553
      ],
      [
        "Ġinput",
        -10.229814037025344
      ],
      [
        "Ġagencies",
        -10.229885926789738
      ],
      [
        "ĠFin",
        -10.230256256670616
      ],
      [
        "hip",
        -10.2312317241826
      ],
      [
        "trop",
        -10.231418138721908
      ],
      [
        "Ġweapon",
        -10.231794275009376
      ],
      [
        "from",
        -10.2325963746072
      ],
      [
        "Ġglass",
        -10.232749970562711
      ],
      [
        "Ġphysician",
        -10.23278821975711
      ],
      [
        "Ġconnected",
        -10.233051123574729
      ],
      [
        "hum",
        -10.233522251498442
      ],
      [
        "400",
        -10.233530441023452
      ],
      [
        "ature",
        -10.234001570696394
      ],
      [
        "Ġreducing",
        -10.234024701725838
      ],
      [
        "Ġwarming",
        -10.23437077949653
      ],
      [
        "ĠMc",
        -10.23446668633136
      ],
      [
        "Ġlinks",
        -10.23533149960998
      ],
      [
        "Ġoperating",
        -10.235657908225091
      ],
      [
        "Ġexpress",
        -10.235779709842308
      ],
      [
        "Ġdoubt",
        -10.23601648729551
      ],
      [
        "Ġready",
        -10.236269946217284
      ],
      [
        "ĠVol",
        -10.236729734440834
      ],
      [
        "ĠCanadian",
        -10.237269209653611
      ],
      [
        "ĠFree",
        -10.237400347615557
      ],
      [
        "rator",
        -10.238464509432175
      ],
      [
        "Ġvast",
        -10.238571459496216
      ],
      [
        "ica",
        -10.238913110226816
      ],
      [
        "Ġprinciple",
        -10.23895757721537
      ],
      [
        "ĠConstitution",
        -10.23949323379911
      ],
      [
        "Ġnotice",
        -10.239493851146694
      ],
      [
        "Ġparticles",
        -10.239518571934584
      ],
      [
        "Ġdangerous",
        -10.239828718132417
      ],
      [
        "ĠControl",
        -10.240594411201522
      ],
      [
        "lent",
        -10.240698014611224
      ],
      [
        "Ġotherwise",
        -10.240875301678695
      ],
      [
        "ĠPart",
        -10.24111309994701
      ],
      [
        "Ġdivision",
        -10.242220191911423
      ],
      [
        "Ġlibrary",
        -10.24235275689672
      ],
      [
        "Ġcollected",
        -10.242361672010784
      ],
      [
        "mine",
        -10.242418038931632
      ],
      [
        "Ġmorning",
        -10.242463249793694
      ],
      [
        "Ġconstant",
        -10.242549308718797
      ],
      [
        "Ġ1980",
        -10.243274390476609
      ],
      [
        "ĠHenry",
[...]
