{
  "version": "1.0",
  "truncation": null,
  "padding": null,
  "added_tokens": [
    {
      "id": 0,
      "content": "<|endoftext|>",
      "single_word": false,
      "lstrip": false,
      "rstrip": false,
      "normalized": false,
      "special": true
    },
    {
      "id": 1,
      "content": "<|padding|>",
      "single_word": false,
      "lstrip": false,
      "rstrip": false,
      "normalized": false,
      "special": true
    }
  ],
  "normalizer": {
    "type": "NFC"
  },
  "pre_tokenizer": {
    "type": "ByteLevel",
    "add_prefix_space": false,
    "trim_offsets": true,
    "use_regex": true
  },
  "post_processor": {
    "type": "ByteLevel",
    "add_prefix_space": true,
    "trim_offsets": false,
    "use_regex": true
  },
  "decoder": {
    "type": "ByteLevel",
    "add_prefix_space": true,
    "trim_offsets": true,
    "use_regex": true
  },
  "model": {
    "type": "Unigram",
    "unk_id": null,
    "vocab": [
      [
        "<|endoftext|>",
        0.0
      ],
      [
        "<|padding|>",
        0.0
      ],
      [
        "Ġ",
        -2.3682363103141846
      ],
      [
        ",",
        -3.3267404212662264
      ],
      [
        "Ġthe",
        -3.3293388589329815
      ],
      [
        ".",
        -3.372856281465758
      ],
      [
        "s",
        -3.476035878993521
      ],
      [
        "a",
        -3.6939051673587855
      ],
      [
        "Ġof",
        -3.8155592421704263
      ],
      [
        "Ġand",
        -4.003672678605433
      ],
      [
        "Ċ",
        -4.047050067011188
      ],
      [
        "Ġto",
        -4.1317059961342935
      ],
      [
        "Ġin",
        -4.38773575476613
      ],
      [
        "t",
        -4.527500304240757
      ],
      [
        "-",
        -4.595499429732332
      ],
      [
        "o",
        -4.600527256539291
      ],
      [
        "n",
        -4.733145822914647
      ],
      [
        "i",
        -4.877354842373748
      ],
      [
        "Ġis",
        -4.884513706657902
      ],
      [
        "e",
        -4.912893435027257
      ],
      [
        "Ġthat",
        -5.08927415486221
      ],
      [
        "d",
        -5.113191709928142
      ],
      [
        "Ġfor",
        -5.209754654362367
      ],
      [
        "(",
        -5.312655560669228
      ],
      [
        "Ġare",
        -5.494200122178064
      ],
      [
        "\"",
        -5.521683324140408
      ],
      [
        "Ġwith",
        -5.536963262099725
      ],
      [
        "'",
        -5.635572063252392
      ],
      [
        "Ġbe",
        -5.63676023909767
      ],
      [
        ":",
        -5.682500140577755
      ],
      [
        "Ġby",
        -5.690204738199476
      ],
      [
        "Ġor",
        -5.726035046411628
      ],
      [
        "ĠThe",
        -5.777628343469011
      ],
      [
        "Ġwas",
        -5.795035831907194
      ],
      [
        ")",
        -5.823629853148882
      ],
      [
        "Ġfrom",
        -5.826626436273678
      ],
      [
        "ing",
        -5.905904511151924
      ],
      [
        "r",
        -5.979215282624477
      ],
      [
        "Ġhave",
        -6.047349374471196
      ],
      [
        "Ġan",
        -6.099122192679818
      ],
      [
        "I",
        -6.108057208332097
      ],
      [
        "Ġnot",
        -6.117158615645474
      ],
      [
        "A",
        -6.121054927980541
      ],
      [
        "âĢĻ",
        -6.145597750967008
      ],
      [
        "Ġthis",
        -6.148452932099948
      ],
      [
        "y",
        -6.18546593376926
      ],
      [
        "The",
        -6.21894156007815
      ],
      [
        "Ġcan",
        -6.230185192686923
      ],
      [
        "Ġyou",
        -6.279105395828537
      ],
      [
        "Ġwhich",
        -6.335708620814689
      ],
      [
        "Ġtheir",
        -6.3483669841961685
      ],
      [
        "f",
        -6.3512745907362405
      ],
      [
        "ly",
        -6.355129394844511
      ],
      [
        ";",
        -6.448518899829297
      ],
      [
        "Ġhas",
        -6.48837096197488
      ],
      [
        "Ġthey",
        -6.491052736519336
      ],
      [
        "Ġwere",
        -6.495221777564142
      ],
      [
        "Ġmore",
        -6.501344706621069
      ],
      [
        "Ġwill",
        -6.5299232241088685
      ],
      [
        "m",
        -6.538441731864161
      ],
      [
        "Ġone",
        -6.591688512174063
      ],
      [
        "Ġbut",
        -6.620826277072018
      ],
      [
        "Ġhis",
        -6.671036778787734
      ],
      [
        "he",
        -6.680737186829322
      ],
      [
        "1",
        -6.681497944959361
      ],
      [
        "l",
        -6.684213417247401
      ],
      [
        "S",
        -6.701867133878897
      ],
      [
        "/",
        -6.713733455870544
      ],
      [
        "Ġall",
        -6.715384684944324
      ],
      [
        "Ġother",
        -6.724409105253068
      ],
      [
        "Ġalso",
        -6.747664856006093
      ],
      [
        "Ġwe",
        -6.763420026534625
      ],
      [
        "Ġyour",
        -6.798972528907136
      ],
      [
        "Ġabout",
        -6.7991973721202115
      ],
      [
        ").",
        -6.835747037279001
      ],
      [
        "2",
        -6.84797118751221
      ],
      [
        "p",
        -6.866715142889051
      ],
      [
        "ĠIn",
        -6.867071999538828
      ],
      [
        "Ġwho",
        -6.874404279250573
      ],
      [
        "Ġthan",
        -6.890823326153669
      ],
      [
        "Ġbeen",
        -6.892274768749774
      ],
      [
        "Ġmay",
        -6.89761544562864
      ],
      [
        "c",
        -6.905365232738646
      ],
      [
        "h",
        -6.909512051721915
      ],
      [
        "Ġits",
        -6.93083793167602
      ],
      [
        "Ġhad",
        -6.931637652366009
      ],
      [
        "?",
        -6.948636327071508
      ],
      [
        "ĠâĢľ",
        -6.978112775267224
      ],
      [
        "Ġinto",
        -7.006422769378393
      ],
      [
        "Ġtime",
        -7.046156618575072
      ],
      [
        "Ġwhen",
        -7.056578932211332
      ],
      [
        "ĠIt",
        -7.057855486596742
      ],
      [
        "Ġwould",
        -7.0605555455126705
      ],
      [
        "Ġthese",
        -7.068076670274161
      ],
      [
        "in",
        -7.084274303807495
      ],
      [
        "Ġsome",
        -7.098455547452268
      ],
      [
        "Ġpeople",
        -7.103199361959668
      ],
      [
        "|",
        -7.1335048398328595
      ],
      [
        "Ġthere",
        -7.13677094405192
      ],
      [
        "3",
        -7.1466528639946745
      ],
      [
        "C",
        -7.152056936470764
      ],
      [
        "Ġmost",
        -7.1557185176869815
      ],
      [
        "Ġout",
        -7.156241963278319
      ],
      [
        "Ġsuch",
        -7.160387108042107
      ],
      [
        "Ġthem",
        -7.162840556079743
      ],
      [
        "b",
        -7.182081515550152
      ],
      [
        "ĠThis",
        -7.183894357332401
      ],
      [
        "g",
        -7.189570974652723
      ],
      [
        "u",
        -7.194504572604444
      ],
      [
        "Ġup",
        -7.201709022088309
      ],
      [
        "Ġuse",
        -7.202628695149475
      ],
      [
        "Ġonly",
        -7.206169113533569
      ],
      [
        "Ġfirst",
        -7.2335036753852116
      ],
      [
        "us",
        -7.26440916262114
      ],
      [
        "Ġtwo",
        -7.266825482249633
      ],
      [
        "Ġover",
        -7.281702553299642
      ],
      [
        "Ġnew",
        -7.287001589670984
      ],
      [
        "Ġused",
        -7.291037316260312
      ],
      [
        "Ġmany",
        -7.296165641117261
      ],
      [
        "Ġour",
        -7.312966162439686
      ],
      [
        "D",
        -7.318921623094555
      ],
      [
        "Ġwhat",
        -7.3200768322231475
      ],
      [
        "),",
        -7.320326842875991
      ],
      [
        "5",
        -7.355352161480726
      ],
      [
        "4",
        -7.381700054286982
      ],
      [
        "Ġyears",
        -7.386657157994304
      ],
      [
        "T",
        -7.42360626566815
      ],
      [
        "Ġany",
        -7.426774574060598
      ],
      [
        "Ġhow",
        -7.431682110370673
      ],
      [
        "th",
        -7.449962379873014
      ],
      [
        "In",
        -7.463144329347257
      ],
      [
        "Ġcould",
        -7.46903188818084
      ],
      [
        "Ġwater",
        -7.481840943336486
      ],
      [
        "k",
        -7.48544694681922
      ],
      [
        "Ġbetween",
        -7.489757203454033
      ],
      [
        "Ġthrough",
        -7.498037657917504
      ],
      [
        "Ġshould",
        -7.503178916555418
      ],
      [
        "or",
        -7.508091618387615
      ],
      [
        "Ġlike",
        -7.515417615425965
      ],
      [
        "Ġwell",
        -7.518955860127596
      ],
      [
        "Ġsaid",
        -7.533176243280193
      ],
      [
        "âĢĿ",
        -7.564680019005936
      ],
      [
        "Ġwork",
        -7.56641663783307
      ],
      [
        "Ġwhere",
        -7.569558983387795
      ],
      [
        "E",
        -7.572856985041145
      ],
      [
        "U",
        -7.603194563309492
      ],
      [
        "Ġmake",
        -7.6265593952057245
      ],
      [
        "Ġafter",
        -7.628206175461036
      ],
      [
        "Ġthose",
        -7.641203578061699
      ],
      [
        "Ġbecause",
        -7.643074317888427
      ],
      [
        "Ġvery",
        -7.659304781347219
      ],
      [
        "6",
        -7.675599599232578
      ],
      [
        "Ġinformation",
        -7.687582207647305
      ],
      [
        "Ġsystem",
        -7.712689816168869
      ],
      [
        "Ġeven",
        -7.722199157329769
      ],
      [
        "ĠHe",
        -7.725556984455222
      ],
      [
        "R",
        -7.734693636385961
      ],
      [
        "Ġworld",
        -7.736267146181289
      ],
      [
        "Ġbeing",
        -7.737627416769225
      ],
      [
        "Ġeach",
        -7.738721502576947
      ],
      [
        "Ġfound",
        -7.745478581166646
      ],
      [
        "Ġway",
        -7.748058032387704
      ],
      [
        "Ġher",
        -7.75388365128028
      ],
      [
        "the",
        -7.7567816115532064
      ],
      [
        "Ġchildren",
        -7.768752884837477
      ],
      [
        "Ġmade",
        -7.770696068460566
      ],
      [
        "Ġmuch",
        -7.777334232484733
      ],
      [
        "Ġduring",
        -7.781416482168733
      ],
      [
        "Ġsame",
        -7.795329535329314
      ],
      [
        "Ġlife",
        -7.800598733148824
      ],
      [
        "Ġyear",
        -7.802852127297371
      ],
      [
        "Ġunder",
        -7.804251184543226
      ],
      [
        "L",
        -7.808180009656478
      ],
      [
        "Ġhigh",
        -7.812878394598023
      ],
      [
        "Ġpart",
        -7.821456932668452
      ],
      [
        "Ġjust",
        -7.841137541078064
      ],
      [
        "H",
        -7.849307545923917
      ],
      [
        "Ġhelp",
        -7.851280208098251
      ],
      [
        "Ġsee",
        -7.851685972112449
      ],
      [
        "8",
        -7.852678255810762
      ],
      [
        "F",
        -7.855726084917315
      ],
      [
        "Ġneed",
        -7.863830106129791
      ],
      [
        "Ġdifferent",
        -7.865553216079656
      ],
      [
        "||",
        -7.869428245272466
      ],
      [
        "Ġboth",
        -7.870066427557205
      ],
      [
        "able",
        -7.874141311476651
      ],
      [
        "Ġun",
        -7.8749270082279
      ],
      [
        "7",
        -7.8819347818259455
      ],
      [
        "âĢĶ",
        -7.884616866868194
      ],
      [
        "Ġstudy",
        -7.895830819113589
      ],
      [
        "Ġbefore",
        -7.897253613282096
      ],
      [
        "%",
        -7.899643335889463
      ],
      [
        "000",
        -7.901083273510277
      ],
      [
        "Ġnumber",
        -7.90414568268338
      ],
      [
        "0",
        -7.907046376664866
      ],
      [
        "v",
        -7.919303296837796
      ],
      [
        "ĠB",
        -7.9220008983233345
      ],
      [
        "Ġimportant",
        -7.922063628371728
      ],
      [
        "ĠNew",
        -7.922895634332491
      ],
      [
        "and",
        -7.923561449017512
      ],
      [
        "Ġstudents",
        -7.927600973032863
      ],
      [
        "ĠThey",
        -7.927980658878859
      ],
      [
        "Ġlong",
        -7.932346321089232
      ],
      [
        "Ġnow",
        -7.936682138474568
      ],
      [
        "ĠIf",
        -7.941262880301757
      ],
      [
        "Ġresearch",
        -7.9464265135358225
      ],
      [
        "Ġthree",
        -7.953901274894257
      ],
      [
        "w",
        -7.965506809825065
      ],
      [
        "Ġdata",
        -7.975723028337336
      ],
      [
        "Ġhealth",
        -7.981669499071616
      ],
      [
        "Ġoften",
        -7.984671979349498
      ],
      [
        "ĠM",
        -7.985346623727359
      ],
      [
        "ĠâĢĵ",
        -7.9855224837421535
      ],
      [
        "ĠP",
        -7.989454537824756
      ],
      [
        "This",
        -7.994596451761682
      ],
      [
        "Ġget",
        -7.996387675311576
      ],
      [
        "N",
        -8.006215676946209
      ],
      [
        "Ġmust",
        -8.00916332099279
      ],
      [
        "ĠFor",
        -8.012261133193578
      ],
      [
        ".âĢĿ",
        -8.024272385882432
      ],
      [
        "Ġwhile",
        -8.030658973079161
      ],
      [
        "Ġstate",
        -8.034184922716594
      ],
      [
        "[",
        -8.03805018191773
      ],
      [
        "Ġtake",
        -8.038633148444571
      ],
      [
        "ĠAmerican",
        -8.03946516215524
      ],
      [
        "ĠUniversity",
        -8.04108953466648
      ],
      [
        "Ġusing",
        -8.041716851822812
      ],
      [
        "Ġown",
        -8.048664498187659
      ],
      [
        "Ġcalled",
        -8.049175654476562
      ],
      [
        "Ġday",
        -8.049961567993549
      ],
      [
        "9",
        -8.06234459073216
      ],
      [
        "B",
        -8.066370823753864
      ],
      [
        "Ġgood",
        -8.067881084019401
      ],
      [
        "ĠBut",
        -8.069042892277183
      ],
      [
        "O",
        -8.08047949746378
      ],
      [
        "Ġhuman",
        -8.081574657195976
      ],
      [
        "Ġknow",
        -8.086644217969768
      ],
      [
        "Ġhim",
        -8.0909320136226
      ],
      [
        "Ġexample",
        -8.100680305927805
      ],
      [
        "Ġsmall",
        -8.104494737586606
      ],
      [
        "Ġincluding",
        -8.104548398598435
      ],
      [
        "Ġaround",
        -8.123706924962146
      ],
      [
        "Ġdoes",
        -8.124530513309518
      ],
      [
        "Ġpower",
        -8.131449942536904
      ],
      [
        "]",
        -8.13583256998421
      ],
      [
        "Ġlarge",
        -8.136538174118236
      ],
      [
        "Ġknown",
        -8.142601286949912
      ],
      [
        "Ġback",
        -8.15422437482489
      ],
      [
        "ers",
        -8.155040278898287
      ],
      [
        "&",
        -8.158512883460123
      ],
      [
        "W",
        -8.162912246166234
      ],
      [
        "Ġfood",
        -8.165037173462753
      ],
      [
        "Ġstill",
        -8.16751736203123
      ],
      [
        "Ġplace",
        -8.174166796511129
      ],
      [
        "Ġmy",
        -8.175399618885589
      ],
      [
        "Ġ10",
        -8.175751112634847
      ],
      [
        "!",
        -8.17575971469111
      ],
      [
        "Ġschool",
        -8.179458565703074
      ],
      [
        "M",
        -8.180531301605054
      ],
      [
        "ĠUnited",
        -8.180943166338297
      ],
      [
        "ĠG",
        -8.187812437872484
      ],
      [
        "x",
        -8.18988069048467
      ],
      [
        "Ġbody",
        -8.190098207131848
      ],
      [
        "Ġgovernment",
        -8.193592223298804
      ],
      [
        "Ġshe",
        -8.193738203523807
      ],
      [
        "Ġpublic",
        -8.194057768521045
      ],
      [
        "Ġdid",
        -8.196532171387892
      ],
      [
        "Ġdown",
        -8.199500448075904
      ],
      [
        "ĠWe",
        -8.202945851813116
      ],
      [
        "ĠAs",
        -8.220632668742898
      ],
      [
        "Ġenergy",
        -8.22447531386075
      ],
      [
        "âĢĵ",
        -8.225621091872796
      ],
      [
        "Ġmight",
        -8.227057941796483
      ],
      [
        "ĠJ",
        -8.228700567498542
      ],
      [
        "Ġdisease",
        -8.232284401724929
      ],
      [
        "Ġright",
        -8.235028296748235
      ],
      [
        "Ġchange",
        -8.238714170355829
      ],
      [
        "Ġwithin",
        -8.245070608319649
      ],
      [
        "Ġwithout",
        -8.245460046255927
      ],
      [
        "Ġform",
        -8.249825719261745
      ],
      [
        "Ġless",
        -8.252666829502726
      ],
      [
        "Ġanother",
        -8.252916429662237
      ],
      [
        "Ġwomen",
        -8.253367022654118
      ],
      [
        "ĠStates",
        -8.264704905987918
      ],
      [
        "Ġend",
        -8.271476872461545
      ],
      [
        "Ġearly",
        -8.271936552091388
      ],
      [
        "Ġinclude",
        -8.277473613553658
      ],
      [
        "Ġdevelopment",
        -8.279057485424875
      ],
      [
        "Ġsays",
        -8.283022155113848
      ],
      [
        "Ġagainst",
        -8.29064208610618
      ],
      [
        "Ġpercent",
        -8.296790272768524
      ],
      [
        "ĠThese",
        -8.296930191885606
      ],
      [
        "Ġfind",
        -8.298257138675721
      ],
      [
        "Ġspecies",
        -8.298741989009427
      ],
      [
        "ĠNational",
        -8.302183029002551
      ],
      [
        "Ġevery",
        -8.30343866724734
      ],
      [
        "Ġprocess",
        -8.30581894766894
      ],
      [
        "Ġfew",
        -8.308665158305761
      ],
      [
        "Ġchild",
        -8.31654982278076
      ],
      [
        "Ġgreat",
        -8.317404083969723
      ],
      [
        "P",
        -8.321727372572086
      ],
      [
        "Ġcommon",
        -8.322956759993346
      ],
      [
        "Ġhistory",
        -8.327373009197851
      ],
      [
        "Ġper",
        -8.329443082007867
      ],
      [
        "Ġgroup",
        -8.334242901810764
      ],
      [
        ",âĢĿ",
        -8.34278209496098
      ],
      [
        "Ġset",
        -8.344917731843392
      ],
      [
        "Ġseveral",
        -8.348931434314796
      ],
      [
        "ve",
        -8.349277625701518
      ],
      [
        "Ġblood",
        -8.358207823909721
      ],
      [
        "Ġrisk",
        -8.362081317992605
      ],
      [
        "Ġbecome",
        -8.363077016141183
      ],
      [
        "Ġlast",
        -8.364317314720132
      ],
      [
        "âĢľ",
        -8.36936601559449
      ],
      [
        "ĠAnd",
        -8.383961870539668
      ],
      [
        "Ġprovide",
        -8.39100172058219
      ],
      [
        "$",
        -8.391528620611833
      ],
      [
        "man",
        -8.391998099840404
      ],
      [
        "z",
        -8.395166416111394
      ],
      [
        "Ġsince",
        -8.399697560714413
      ],
      [
        "Ġorder",
        -8.40066472708889
      ],
      [
        "Ġavailable",
        -8.401761499847483
      ],
      [
        "ĠTo",
        -8.404868403834612
      ],
      [
        "Ġfamily",
        -8.410085400308075
      ],
      [
        "ĠThere",
        -8.411224915094232
      ],
      [
        "Ġage",
        -8.414205916466667
      ],
      [
        "Ġhere",
        -8.416028726054414
      ],
      [
        "Ġlight",
        -8.418347100514538
      ],
      [
        "Ġcontrol",
        -8.419740747208966
      ],
      [
        "Ġpoint",
        -8.422602170739143
      ],
      [
        "Ġsupport",
        -8.429000563770481
      ],
      [
        "Ġname",
        -8.433337887746472
      ],
      [
        "Ġamong",
        -8.437895125013927
      ],
      [
        "ĠGod",
        -8.438751297925085
      ],
      [
        "Ġgo",
        -8.444680314249581
      ],
      [
        "Ġcause",
        -8.445027865746981
      ],
      [
        "Ġpossible",
        -8.445430304527747
      ],
      [
        "Ġareas",
        -8.44715744385354
      ],
      [
        "Ġlocal",
        -8.45342271723987
      ],
      [
        "Ġhome",
        -8.454504610853208
      ],
      [
        "Ġnon",
        -8.457204434963014
      ],
      [
        "Ġwant",
        -8.462319885573548
      ],
      [
        "Ġ20",
        -8.46284881481682
      ],
      [
        "Ġsocial",
        -8.465499836144737
      ],
      [
        "Ġpresent",
        -8.465570865563384
      ],
      [
        "Ġcountry",
        -8.46980064789377
      ],
      [
        "Ġfollowing",
        -8.474922494292137
      ],
      [
        "Ġbetter",
        -8.489501046066234
      ],
      [
        "Ġmeans",
        -8.49406143639367
      ],
      [
        "Ġperson",
        -8.495507547506595
      ],
      [
        "Ġbest",
        -8.497922539151258
      ],
      [
        "Ġprogram",
        -8.498185455762368
      ],
      [
        "Ġcase",
        -8.50076843055389
      ],
      [
        "Ġmillion",
        -8.502706272786398
      ],
      [
        "Ġlevel",
        -8.503629560607559
      ],
      [
        "ĠHowever",
        -8.504772034502988
      ],
      [
        "Ġgiven",
        -8.508007536138262
      ],
      [
        "Ġuntil",
        -8.508137095934014
      ],
      [
        "Ġtreatment",
        -8.508315048829528
      ],
      [
        "Ġme",
        -8.509863470402559
      ],
      [
        "Ġcome",
        -8.509911975182447
      ],
      [
        "Ġmen",
        -8.515143505683572
      ],
      [
        "Ġthink",
        -8.526272419834685
      ],
      [
        "Ġfact",
        -8.532141972308105
      ],
      [
        "Ġlater",
        -8.532430536634793
      ],
      [
        "Ġlittle",
        -8.535491484194598
      ],
      [
        "Ġlow",
        -8.53746058849519
      ],
      [
        "Ġsecond",
        -8.53893421077776
      ],
      [
        "Ġland",
        -8.54195124618908
      ],
      [
        "Ġsay",
        -8.547745297033092
      ],
      [
        "We",
        -8.549431300733476
      ],
      [
        "Ġpopulation",
        -8.554412656385153
      ],
      [
        "Ġnatural",
        -8.555229223395212
      ],
      [
        "ĠWhen",
        -8.555401337007623
      ],
      [
        "10",
        -8.557073217181012
      ],
      [
        "Ġfour",
        -8.561350301300317
      ],
      [
        "Ġresult",
        -8.563038558678281
      ],
      [
        "Ġdon",
        -8.563092564236285
      ],
      [
        "ĠYou",
        -8.563271066218643
      ],
      [
        "Ġcancer",
        -8.564245991504608
      ],
      [
        "com",
        -8.566069193690863
      ],
      [
        "Ġcentury",
        -8.571166955396723
      ],
      [
        "Ġcells",
        -8.57786342191932
      ],
      [
        "Ġbook",
        -8.581418745870993
      ],
      [
        "Ġproblem",
        -8.582483371110982
      ],
      [
        "Ġ15",
        -8.583879049490363
      ],
      [
        "...",
        -8.585577320200137
      ],
      [
        "Ġproblems",
        -8.591200940502253
      ],
      [
        "Ġbased",
        -8.591499176731697
      ],
      [
        "Ġhowever",
        -8.593772185376363
      ],
      [
        "Ġmajor",
        -8.594362480187312
      ],
      [
        "Ġman",
        -8.596504692498915
      ],
      [
        "=",
        -8.597829616119997
      ],
      [
        "ĠâĢĶ",
        -8.602604098632188
      ],
      [
        "Ġtype",
        -8.605535813688173
      ],
      [
        "Ġthings",
        -8.606386250188345
      ],
      [
        "Ġair",
        -8.618928021370374
      ],
      [
        "Ġwar",
        -8.62056845720485
      ],
      [
        "Ġfar",
        -8.6254594591422
      ],
      [
        "ĠK",
        -8.628867970258986
      ],
      [
        "ĠWar",
        -8.63044284868512
      ],
      [
        "Ġlook",
        -8.631485633231119
      ],
      [
        "Ġcare",
        -8.632134559286232
      ],
      [
        "G",
        -8.632191931891237
      ],
      [
        "Ġoff",
        -8.632769300076177
      ],
      [
        "K",
        -8.637620188868501
      ],
      [
        "Ġarea",
        -8.63791563104371
      ],
      [
        "Ġsite",
        -8.639069053333479
      ],
      [
        "Ġusually",
        -8.640372200137506
      ],
      [
        "ity",
        -8.641054336434973
      ],
      [
        "Ġcommunity",
        -8.641380628446456
      ],
      [
        "Ġperiod",
        -8.64165321209717
      ],
      [
        "Ġlaw",
        -8.645137922287045
      ],
      [
        "Ġabove",
        -8.648288916722134
      ],
      [
        "Ġlevels",
        -8.651281956175396
      ],
      [
        "Ġbecame",
        -8.658649436033805
      ],
      [
        "Ġtimes",
        -8.659391461214616
      ],
      [
        "Ġleast",
        -8.660201697268286
      ],
      [
        "Ġcourse",
        -8.664230234220263
      ],
      [
        "Ġeducation",
        -8.666128938899238
      ],
      [
        "Ġlikely",
        -8.666399971724099
      ],
      [
        "Ġgeneral",
        -8.66748624678769
      ],
      [
        "Ġdays",
        -8.670749765178378
      ],
      [
        "Ġalong",
        -8.672158220818948
      ],
      [
        "Ġleft",
        -8.675372673528368
      ],
      [
        "Ġ--",
        -8.67602353382422
      ],
      [
        "ation",
        -8.676476724848227
      ],
      [
        "For",
        -8.679046190043138
      ],
      [
        "Ġtest",
        -8.68024457338402
      ],
      [
        "ĠAn",
        -8.683376606446041
      ],
      [
        "Ġcountries",
        -8.68462959201584
      ],
      [
        "Ġincrease",
        -8.687324372401816
      ],
      [
        "ĠAmerica",
        -8.689460896523698
      ],
      [
        "Ġlanguage",
        -8.695556827110462
      ],
      [
        "Ġ12",
        -8.6980834675605
      ],
      [
        "ĠSt",
        -8.698871049040976
      ],
      [
        "ĠWorld",
        -8.699261970875224
      ],
      [
        "Ġheart",
        -8.700287280493319
      ],
      [
        "Ġfree",
        -8.701831556430138
      ],
      [
        "What",
        -8.701987437578838
      ],
      [
        "Ġside",
        -8.702019722649528
      ],
      [
        "ĠâĢĺ",
        -8.702823852674657
      ],
      [
        "Ġresults",
        -8.703889158881971
      ],
      [
        "Ġnext",
        -8.706453386156776
      ],
      [
        "ll",
        -8.707720214984974
      ],
      [
        "ĠSo",
        -8.709961371208877
      ],
      [
        "Ġproject",
        -8.710576373762304
      ],
      [
        "Ġscience",
        -8.71169799993685
      ],
      [
        "Ġspace",
        -8.714559843162107
      ],
      [
        "Ġreport",
        -8.715051542246611
      ],
      [
        "Ġgive",
        -8.715646848089273
      ],
      [
        "Ġcurrent",
        -8.718451909892607
      ],
      [
        "Ġothers",
        -8.722909226365363
      ],
      [
        "ĠYork",
        -8.723407068545386
      ],
      [
        "Ġsystems",
        -8.724186686125012
      ],
      [
        "ability",
        -8.731785371253242
      ],
      [
        "Ġnever",
        -8.735083549502308
      ],
      [
        "ness",
        -8.735656402051143
      ],
      [
        "Ġtoday",
        -8.735890967314802
      ],
      [
        "Ġshow",
        -8.736904091646922
      ],
      [
        "There",
        -8.738855987290592
      ],
      [
        "Ġhand",
        -8.742224756160963
      ],
      [
        "Ġrange",
        -8.742499226285812
      ],
      [
        "Ġdue",
        -8.746275332923085
      ],
      [
        "Ġcity",
        -8.750524841474718
      ],
      [
        "Ġmaking",
        -8.750591068586427
      ],
      [
        "Ġhigher",
        -8.75156526740956
      ],
      [
        "Ġsimilar",
        -8.75168178805535
      ],
      [
        "Ġkeep",
        -8.752166683284848
      ],
      [
        "Ġconditions",
        -8.75290801826635
      ],
      [
        "Ġstudies",
        -8.753815516564401
      ],
      [
        "Ġfuture",
        -8.756545068016388
      ],
      [
        "Ġupon",
        -8.762804497108235
      ],
      [
        "Ġtogether",
        -8.765938712121947
      ],
      [
        "Ġalways",
        -8.769123969804351
      ],
      [
        "Ġdeath",
        -8.77021784793748
      ],
      [
        "Ġal",
        -8.772270259664886
      ],
      [
        "Ġwhether",
        -8.77424110126584
      ],
      [
        "Ġwords",
        -8.776574629540816
      ],
      [
        "ĠJohn",
        -8.776898175205504
      ],
      [
        "Ġold",
        -8.7783265665105
      ],
      [
        "Ġline",
        -8.783794128573987
      ],
      [
        "Ġcertain",
        -8.784532182441408
      ],
      [
        "Ġshort",
        -8.784944241802394
      ],
      [
        "Ġrole",
        -8.785310701057943
      ],
      [
        "Ġbrain",
        -8.787069909931438
      ],
      [
        "Ġaway",
        -8.787743122248255
      ],
      [
        "Ġsurface",
        -8.788067728130356
      ],
      [
        "Ġsomething",
        -8.78858343019855
      ],
      [
        "Ġchanges",
        -8.789711042367248
      ],
      [
        "Ġtechnology",
        -8.789899273749413
      ],
      [
        "Ġvarious",
        -8.790782477971504
      ],
      [
        "ĠAt",
        -8.793577642019313
      ],
      [
        "Ġput",
        -8.795309470618285
      ],
      [
        "of",
        -8.79540263797392
      ],
      [
        "Ġpast",
        -8.795846342637116
      ],
      [
        "Ġenough",
        -8.797683179561508
      ],
      [
        "up",
        -8.799652869934468
      ],
      [
        "Ġresearchers",
        -8.803017671563733
      ],
      [
        "Ġread",
        -8.80412632461279
      ],
      [
        "Ġfull",
        -8.804709557773036
      ],
      [
        "Ġfurther",
        -8.807396361149554
      ],
      [
        "Ġespecially",
        -8.80780944731299
      ],
      [
        "Ġpolitical",
        -8.807843325107562
      ],
      [
        "ĠState",
        -8.810656933875443
      ],
      [
        "Ġdeveloped",
        -8.812043854081105
      ],
      [
        "Ġacross",
        -8.81245964356229
      ],
      [
        "Ġmaterial",
        -8.813606932936727
      ],
      [
        "Ġvalue",
        -8.816811657672455
      ],
      [
        "Ġlearning",
        -8.81837191865716
      ],
      [
        "Ġyoung",
        -8.820331851422997
      ],
      [
        "Ġindividual",
        -8.820686992884692
      ],
      [
        "Ġnational",
        -8.820918999811324
      ],
      [
        "Ġeffects",
        -8.824667190279179
      ],
      [
        "Ġgroups",
        -8.82508147611545
      ],
      [
        "ĠHealth",
        -8.825237356155071
      ],
      [
        "Ġhaving",
        -8.825812654637506
      ],
      [
        "Ġcases",
        -8.827713586290416
      ],
      [
        "Ġnear",
        -8.82831156963093
      ],
      [
        "Ġeither",
        -8.828853063247129
      ],
      [
        "Ġlearn",
        -8.829625811715797
      ],
      [
        "ĠEnglish",
        -8.83015083236325
      ],
      [
        "Ġproduction",
        -8.83207942575156
      ],
      [
        "Ġsource",
        -8.83416411390862
      ],
      [
        "ĠDr",
        -8.834232496212373
      ],
      [
        "Ġfield",
        -8.834326303295201
      ],
      [
        "Ġpatients",
        -8.834807564939139
      ],
      [
        "Ġevidence",
        -8.83511759733087
      ],
      [
        "Ġopen",
        -8.83707578963762
      ],
      [
        "ĠNorth",
        -8.837518885852104
      ],
      [
        "Ġcame",
        -8.837775864646634
      ],
      [
        "ĠWhat",
        -8.838085697713987
      ],
      [
        "Ġeffect",
        -8.838851298226826
      ],
      [
        "Ġrather",
        -8.839724723156973
      ],
      [
        "Ġfive",
        -8.83998701307369
      ],
      [
        "Ġworking",
        -8.840929056101144
      ],
      [
        "www",
        -8.842007290819176
      ],
      [
        "Ġplant",
        -8.843246239157068
      ],
      [
        "Ġ16",
        -8.843972786928143
      ],
      [
        "ĠEarth",
        -8.844034339549243
      ],
      [
        "Ġsingle",
        -8.849131818259808
      ],
      [
        "Ġdesign",
        -8.85086146833868
      ],
      [
        "Ġplants",
        -8.851248767918102
      ],
      [
        "Ġthough",
        -8.851491941593975
      ],
      [
        "Ġcreate",
        -8.853999093926125
      ],
      [
        "ism",
        -8.85436174960202
      ],
      [
        "Ġlead",
        -8.854829652606512
      ],
      [
        "ĠSome",
        -8.858357974255338
      ],
      [
        "Ġseen",
        -8.859747813916718
      ],
      [
        "Ġlower",
        -8.861495144074834
      ],
      [
        "Ġtaken",
        -8.8620219620354
      ],
      [
        "Ġword",
        -8.865688503479142
      ],
      [
        "Ġ30",
        -8.866197420015475
      ],
      [
        "ĠSouth",
        -8.866581981665956
      ],
      [
        "Ġrate",
        -8.869251179193563
      ],
      [
        "Ġresources",
        -8.869646870732248
      ],
      [
        "Ġexperience",
        -8.872548583127205
      ],
      [
        "Ġwhy",
        -8.875470009319494
      ],
      [
        "Ġspecific",
        -8.875534940559646
      ],
      [
        "Ġalready",
        -8.876181874094431
      ],
      [
        "ĠMay",
        -8.876950342053487
      ],
      [
        "Y",
        -8.877105196707733
      ],
      [
        "Ġmain",
        -8.880070075463436
      ],
      [
        "Ġarticle",
        -8.880996541394847
      ],
      [
        "Ġclimate",
        -8.882240611851088
      ],
      [
        "Ġpublished",
        -8.882723255962114
      ],
      [
        "Ġenvironment",
        -8.886144864944173
      ],
      [
        "Ġaccording",
        -8.886952823977353
      ],
      [
        "://",
        -8.89176002237315
      ],
      [
        "Ġaccess",
        -8.892427124157463
      ],
      [
        "ĠOne",
        -8.892878603748994
      ],
      [
        "Ġreduce",
        -8.896462104551697
      ],
      [
        "Ġwhite",
        -8.904024082445494
      ],
      [
        "Ġbegan",
        -8.906044486236754
      ],
      [
        "Ġamount",
        -8.90633772249261
      ],
      [
        "Ġsize",
        -8.91026097557579
      ],
      [
        "Ġdone",
        -8.91032071079053
      ],
      [
        "Ġview",
        -8.910901684050028
      ],
      [
        "Ġeconomic",
        -8.911740702529825
      ],
      [
        "Ġparticular",
        -8.913624329506108
      ],
      [
        "Ġgoing",
        -8.914050261085253
      ],
      [
        "Ġunderstand",
        -8.914770876841768
      ],
      [
        "Ġlive",
        -8.915437205777545
      ],
      [
        "Ġmedical",
        -8.915865256230271
      ],
      [
        "Ġaddition",
        -8.91977634546883
      ],
      [
        "Ġmembers",
        -8.920239933103806
      ],
      [
        "Ġreal",
        -8.921353125508256
      ],
      [
        "Ġknowledge",
        -8.92382559134246
      ],
      [
        "_",
        -8.926477909067765
      ],
      [
        "Ġwhole",
        -8.926687843471239
      ],
      [
        "Ġquestion",
        -8.927584511345758
      ],
      [
        "Ġonce",
        -8.92875186155754
      ],
      [
        "Ġcost",
        -8.931443419568046
      ],
      [
        "ĠThat",
        -8.934546687528819
      ],
      [
        "Ġphysical",
        -8.936058182675113
      ],
      [
        "Ġactivity",
        -8.937117201238765
      ],
      [
        "Ġbuilding",
        -8.938266964110971
      ],
      [
        "Ġgrowth",
        -8.939379381749543
      ],
      [
        "Ġrights",
        -8.939797359774682
      ],
      [
        "Ġdevelop",
        -8.940625286555036
      ],
      [
        "Ġagain",
        -8.94096319457511
      ],
      [
        "Ġthemselves",
        -8.941028836211622
      ],
      [
        "Ġ2012",
        -8.941528205973695
      ],
      [
        "Ġbelow",
        -8.94251050790211
      ],
      [
        "Ġactivities",
        -8.944034863715917
      ],
      [
        "Ġitself",
        -8.944280705689927
      ],
      [
        "um",
        -8.945392885727975
      ],
      [
        "Ġoil",
        -8.946478996772838
      ],
      [
        "Ġcannot",
        -8.948115195081284
      ],
      [
        "Ġblack",
        -8.950456118453523
      ],
      [
        "Ġhalf",
        -8.953043142071792
      ],
      [
        "Ġnature",
        -8.953139026769355
      ],
      [
        "age",
        -8.953539423394572
      ],
      [
        "Ġthought",
        -8.953582865532129
      ],
      [
        "Ġreally",
        -8.955789291508456
      ],
      [
        "ĠOn",
        -8.957057163148779
      ],
      [
        "Ġalmost",
        -8.958236689864314
      ],
      [
        "ĠNo",
        -8.958421802676787
      ],
      [
        "Ġlot",
        -8.95846380799476
      ],
      [
        "Ġ17",
        -8.9589484386893
      ],
      [
        "Ġtook",
        -8.959066140728746
      ],
      [
        "Ġpaper",
        -8.960119193931323
      ],
      [
        "ĠAll",
        -8.96030467923207
      ],
      [
        "Ġliving",
        -8.960310723926415
      ],
      [
        "ĠCenter",
        -8.961009174956182
      ],
      [
        "Ġcreated",
        -8.96141898943842
      ],
      [
        "Ġregion",
        -8.96201512750732
      ],
      [
        "Ġhead",
        -8.963087425742135
      ],
      [
        "Ġconsidered",
        -8.963809304577339
      ],
      [
        "Ġyet",
        -8.964759323074619
      ],
      [
        "Ġanimals",
        -8.964844088678403
      ],
      [
        "*",
        -8.965553555941693
      ],
      [
        "Ġneeds",
        -8.968455807573733
      ],
      [
        "Ġteam",
        -8.969273601248942
      ],
      [
        "Ġclass",
        -8.969484987695688
      ],
      [
        "Ġincreased",
        -8.970123456198355
      ],
      [
        "Ġmove",
        -8.970860218102635
      ],
      [
        "Ġsea",
        -8.970911023457026
      ],
      [
        "Ġhard",
        -8.970972480067944
      ],
      [
        "Ġstates",
        -8.972391125955772
      ],
      [
        "Ġkey",
        -8.97543277556506
      ],
      [
        "Ġpotential",
        -8.97615831446981
      ],
      [
        "Ġ11",
        -8.977299150997377
      ],
      [
        "J",
        -8.979963287134614
      ],
      [
        "Ġpre",
        -8.981590823993686
      ],
      [
        "When",
        -8.982743164678409
      ],
      [
        "Ġ2010",
        -8.98341568187248
      ],
      [
        "Ġsignificant",
        -8.986615568843208
      ],
      [
        "Ġprevent",
        -8.988322531528317
      ],
      [
        "Ġsimple",
        -8.98872974018219
      ],
      [
        "Ġscientists",
        -8.989434250200913
      ],
      [
        "Ġgas",
        -8.99091278217402
      ],
      [
        "Ġbelieve",
        -8.992842606232688
      ],
      [
        "Ġpage",
        -8.993145632363714
      ],
      [
        "Ġsymptoms",
        -8.994472088911827
      ],
      [
        "ĠRe",
        -8.99549731879513
      ],
      [
        "Ġassociated",
        -8.997868441093425
      ],
      [
        "Ġ2011",
        -9.00045618735685
      ],
      [
        "Ġcell",
        -9.002069544008608
      ],
      [
        "12",
        -9.00223045428584
      ],
      [
        "Ġpressure",
        -9.004496497101867
      ],
      [
        "ĠResearch",
        -9.004556343260669
      ],
      [
        "ĠBritish",
        -9.007867690833477
      ],
      [
        "Ġneeded",
        -9.009133268246176
      ],
      [
        "Ġcomputer",
        -9.011531717650843
      ],
      [
        "Ġrequired",
        -9.01374281724007
      ],
      [
        "Ġproduce",
        -9.01567370643311
      ],
      [
        "Ġpractice",
        -9.015759021443008
      ],
      [
        "Ġstory",
        -9.017499896425022
      ],
      [
        "):",
        -9.018103683567634
      ],
      [
        "be",
        -9.018772489727947
      ],
      [
        "Ġrelated",
        -9.019968733780605
      ],
      [
        "Ġtypes",
        -9.021613644302551
      ],
      [
        "Ġglobal",
        -9.021905725395811
      ],
      [
        "Ġmodel",
        -9.024099233981673
      ],
      [
        "Ġprovided",
        -9.026256067636014
      ],
      [
        "Ġstart",
        -9.026652072136429
      ],
      [
        "Ġproducts",
        -9.027282117315762
      ],
      [
        "ĠHis",
        -9.028745015344878
      ],
      [
        "Ġself",
        -9.03067980495045
      ],
      [
        "Ġmonths",
        -9.032435580764208
      ],
      [
        "based",
        -9.03310585127103
      ],
      [
        "Ġquality",
        -9.033352939227084
      ],
      [
        "Ġtotal",
        -9.033856608718084
      ],
      [
        "Ġground",
        -9.035475468250048
      ],
      [
        "Ġmodern",
        -9.038370581594387
      ],
      [
        "Ġrecent",
        -9.040198973074194
      ],
      [
        "by",
        -9.04301360041815
      ],
      [
        "Ġidea",
        -9.043519027737936
      ],
      [
        "ĠInstitute",
        -9.046405731948346
      ],
      [
        "Ġways",
        -9.04980952658472
      ],
      [
        "Ġstudent",
        -9.053203626319926
      ],
      [
        "Ġactually",
        -9.053225445716066
      ],
      [
        "ĠScience",
        -9.054948001966814
      ],
      [
        "But",
        -9.05749247071026
      ],
      [
        "Ġspecial",
        -9.058942107037243
      ],
      [
        "ice",
        -9.059353594418743
      ],
      [
        "Ġissue",
        -9.060737530646026
      ],
      [
        "Ġquestions",
        -9.061598160573974
      ],
      [
        "Ġservice",
        -9.063103422145147
      ],
      [
        "Ġ100",
        -9.063171271250232
      ],
      [
        "Ġpost",
        -9.066168495210931
      ],
      [
        "V",
        -9.06627070638393
      ],
      [
        "Ġimpact",
        -9.066628205684031
      ],
      [
        "j",
        -9.068120366558878
      ],
      [
        "Ġ14",
        -9.069426432569884
      ],
      [
        "Ġprovides",
        -9.070435070424551
      ],
      [
        "Ġdoctor",
        -9.071351867596103
      ],
      [
        "Ġsense",
        -9.071814533254337
      ],
      [
        "Ġaverage",
        -9.072952500161469
      ],
      [
        "ĠDepartment",
        -9.075370329870704
      ],
      [
        "Ġact",
        -9.07735451066432
      ],
      [
        "Ġfunction",
        -9.080095252449093
      ],
      [
        "land",
        -9.080156472927737
      ],
      [
        "Ġstructure",
        -9.08072439023894
      ],
      [
        "Ġclear",
        -9.083057419047044
      ],
      [
        "Ġ50",
        -9.08365291315063
      ],
      [
        "Ġissues",
        -9.085424592348405
      ],
      [
        "Ġenvironmental",
        -9.08609432346097
      ],
      [
        "Ġmaterials",
        -9.08638178504462
      ],
      [
        "ĠBy",
        -9.08696677722801
      ],
      [
        "Ġlist",
        -9.09009594640797
      ],
      [
        "Ġprograms",
        -9.090685704307289
      ],
      [
        "Ġmatter",
        -9.091702699472162
      ],
      [
        "Ġterm",
        -9.092097441856064
      ],
      [
        "+",
        -9.09288361926214
      ],
      [
        "Ġnecessary",
        -9.09369669680034
      ],
      [
        "Ġmakes",
        -9.093824052908753
      ],
      [
        "Ġplay",
        -9.093917077477348
      ],
      [
        "Ġbuilt",
        -9.094416446729989
      ],
      [
        "less",
        -9.0962967116028
      ],
      [
        "Ġ2009",
        -9.096790273454454
      ],
      [
        "Ġaction",
        -9.097034700553706
      ],
      [
        "for",
        -9.097985862312186
      ],
      [
        "Ġsubject",
        -9.098712523020762
      ],
      [
        "Ġtext",
        -9.100665395389983
      ],
      [
        "Ġreported",
        -9.101789501967495
      ],
      [
        "Ġmoney",
        -9.102013913170095
      ],
      [
        "ĠUS",
        -9.104545531946142
      ],
      [
        "Ġunderstanding",
        -9.107176048725869
      ],
      [
        "Ġclose",
        -9.10928654012008
      ],
      [
        "Ġparents",
        -9.111989553493473
      ],
      [
        "Ġservices",
        -9.113319318622052
      ],
      [
        "org",
        -9.113852353185298
      ],
      [
        "Ġdifficult",
        -9.117616264631671
      ],
      [
        "Ġturn",
        -9.12249331104761
      ],
      [
        "Ġeffective",
        -9.124812522661198
      ],
      [
        "Ġhttp",
        -9.125080742358008
      ],
      [
        "Ġtell",
        -9.126179621499755
      ],
      [
        "Ġplan",
        -9.126224482284863
      ],
      [
        "Ġago",
        -9.127661762867016
      ],
      [
        "Ġever",
        -9.129591803290596
      ],
      [
        "Ġthroughout",
        -9.129671168261348
      ],
      [
        "Ġreading",
        -9.129753994252578
      ],
      [
        "ch",
        -9.130078170281138
      ],
      [
        "Ġcall",
        -9.130707188447714
      ],
      [
        "Ġ2008",
        -9.131210913454035
      ],
      [
        "Ġweight",
        -9.132982587627067
      ],
      [
        "Ġhours",
        -9.133394829410369
      ],
      [
        "Ġlate",
        -9.133496359730596
      ],
      [
        "Ġskin",
        -9.134661380509076
      ],
      [
        "Ġtrue",
        -9.134724702822243
      ],
      [
        "Ġsure",
        -9.135956783662998
      ],
      [
        "Ġimage",
        -9.13659722275218
      ],
      [
        "Ġmanagement",
        -9.137226113490213
      ],
      [
        "Ġkind",
        -9.138199192079409
      ],
      [
        "Ġ13",
        -9.140327184712673
      ],
      [
        "Ġapproach",
        -9.141004337658591
      ],
      [
        "Ġoriginal",
        -9.143803960427658
      ],
      [
        "Ġshows",
        -9.14497693089367
      ],
      [
        "Ġgreater",
        -9.145325199400055
      ],
      [
        "ĠShe",
        -9.145428275869296
      ],
      [
        "Ġmethod",
        -9.14651843390447
      ],
      [
        "Ġlonger",
        -9.146975001396672
      ],
      [
        "Ġfeel",
        -9.14700128063988
      ],
      [
        "Ġfire",
        -9.148576479864593
      ],
      [
        "Ġmean",
        -9.14979689893063
      ],
      [
        "Ġparts",
        -9.150211830129512
      ],
      [
        "Ġinternational",
        -9.15095862477562
      ],
      [
        "ĠV",
        -9.15228226475094
      ],
      [
        "Ġschools",
        -9.153939815501516
      ],
      [
        "Ġterms",
        -9.156497770441955
      ],
      [
        "11",
        -9.158006900413335
      ],
      [
        "Ġloss",
        -9.159566787193787
      ],
      [
        "ĠAfter",
        -9.15958383314371
      ],
      [
        "Ġposition",
        -9.16094126763586
      ],
      [
        "Ġforce",
        -9.160998926832397
      ],
      [
        "Ġfish",
        -9.161380930267107
      ],
      [
        "Ġrun",
        -9.162415329795111
      ],
      [
        "Ġcaused",
        -9.163030984073156
      ],
      [
        "Ġreason",
        -9.163727125665062
      ],
      [
        "one",
        -9.164119477918254
      ],
      [
        "ĠSchool",
        -9.164690336018424
      ],
      [
        "Ġsometimes",
        -9.16619010035032
      ],
      [
        "Ġinterest",
        -9.167249377525687
      ],
      [
        "Ġgenerally",
        -9.169833938044942
      ],
      [
        "Ġsix",
        -9.171192425841332
      ],
      [
        "Ġtemperature",
        -9.173309626580007
      ],
      [
        "Ġfeet",
        -9.173885021712657
      ],
      [
        ">",
        -9.175870197978808
      ],
      [
        "Ġ18",
        -9.177989964778188
      ],
      [
        "Ġweek",
        -9.179031532520453
      ],
      [
        "Ġproduced",
        -9.180173442585362
      ],
      [
        "Ġanalysis",
        -9.181746919975154
      ],
      [
        "Ġdesigned",
        -9.182958423299608
      ],
      [
        "ĠDe",
        -9.184203161049371
      ],
      [
        "Ġwritten",
        -9.185083704070824
      ],
      [
        "Ġled",
        -9.18573396839314
      ],
      [
        "Ġstrong",
        -9.185888357425394
      ],
      [
        "ĠRiver",
        -9.187599562648732
      ],
      [
        "Ġallow",
        -9.189771322492566
      ],
      [
        "Ġindustry",
        -9.1938088656904
      ],
      [
        "Ġreturn",
        -9.194000996547652
      ],
      [
        "Ġfactors",
        -9.19485164152004
      ],
      [
        "Ġscientific",
        -9.19508920876982
      ],
      [
        "ĠCalifornia",
        -9.195783747340366
      ],
      [
        "Ġworks",
        -9.196269170576512
      ],
      [
        "Ġshown",
        -9.19719640021236
      ],
      [
        "Ġprobably",
        -9.1976539833768
      ],
      [
        "Ġaffect",
        -9.198406485210231
      ],
      [
        "Ġsoil",
        -9.199249070292275
      ],
      [
        "Ġpain",
        -9.19928128669406
      ],
      [
        "ter",
        -9.1998375091304
      ],
      [
        "According",
        -9.200705513706938
      ],
      [
        "Ġstandard",
        -9.20266809180372
      ],
      [
        "time",
        -9.203481834819527
      ],
      [
        "Ġtaking",
        -9.205214079120877
      ],
      [
        "During",
        -9.205880391066597
      ],
      [
        "Ġtop",
        -9.208749105985554
      ],
      [
        "Ġsociety",
        -9.209045170127728
      ],
      [
        "Ġheld",
        -9.209539553859976
      ],
      [
        "Ġmilitary",
        -9.20963932694923
      ],
      [
        "Ġred",
        -9.2112852501722
      ],
      [
        "Ġtheory",
        -9.211807553830962
      ],
      [
        "ĠEurope",
        -9.212086061315553
      ],
      [
        "Ġmovement",
        -9.212822669869857
      ],
      [
        "Ġbring",
        -9.21365708674595
      ],
      [
        "Ġseries",
        -9.21425708221439
      ],
      [
        "Ġcontent",
        -9.214849716688777
      ],
      [
        "Ġ25",
        -9.215190687557016
      ],
      [
        "ĠDo",
        -9.215972865887592
      ],
      [
        "Ġthing",
        -9.21631699952463
      ],
      [
        "Ġbusiness",
        -9.21638122040432
      ],
      [
        "You",
        -9.216775565400477
      ],
      [
        "Ġestablished",
        -9.218412256126648
      ],
      [
        "men",
        -9.218520784999942
      ],
      [
        "Ġface",
        -9.220066497332647
      ],
      [
        "Ġinvolved",
        -9.222131970289391
      ],
      [
        "Ġheat",
        -9.222516341676664
      ],
      [
        "ĠMarch",
        -9.223039319016316
      ],
      [
        "ĠAct",
        -9.225515149416836
      ],
      [
        "Ġpolicy",
        -9.225912147622624
      ],
      [
        "Ġ2007",
        -9.228654182355712
      ],
      [
        "ous",
        -9.229836049001408
      ],
      [
        "Ġoutside",
        -9.23048155980365
      ],
      [
        "Ġparticularly",
        -9.23111091125429
      ],
      [
        "Ġincluded",
        -9.232945045665607
      ],
      [
        "Ġresponse",
        -9.234065132144842
      ],
      [
        "Ġmind",
        -9.23482865072476
      ],
      [
        "Ġimprove",
        -9.238265884953806
      ],
      [
        "Ġevents",
        -9.238781146868766
      ],
      [
        "Ġcolor",
        -9.239226475389646
      ],
      [
        "Ġhouse",
        -9.24014736530714
      ],
      [
        "Ġnormal",
        -9.240322204584269
      ],
      [
        "Ġdetermine",
        -9.240336877484848
      ],
      [
        "Ġpoor",
        -9.241070818296238
      ],
      [
        "Ġonline",
        -9.241745331996754
      ],
      [
        "Ġcontact",
        -9.242333096094164
      ],
      [
        "Ġco",
        -9.244123760457509
      ],
      [
        "Ġanimal",
        -9.244388475967192
      ],
      [
        "Ġsources",
        -9.24497757544732
      ],
      [
        "Ġoccur",
        -9.24543624989504
      ],
      [
        "18",
        -9.247440302748398
      ],
      [
        "ĠJune",
        -9.248278051102789
      ],
      [
        "Ġthus",
        -9.2484829457333
      ],
      [
        "Ġ19",
        -9.250608489463213
      ],
      [
        "ĠPress",
        -9.251040095279356
      ],
      [
        "Ġwhose",
        -9.25521828897616
      ],
      [
        "Ġcomplete",
        -9.25543965267304
      ],
      [
        "20",
        -9.255446765861484
      ],
      [
        "ĠEuropean",
        -9.255854749248584
      ],
      [
        "Ġbasic",
        -9.255967156248586
      ],
      [
        "ment",
        -9.256810436641729
      ],
      [
        "Ġdamage",
        -9.2581011471395
      ],
      [
        "Ġcarbon",
        -9.25888120689899
      ],
      [
        "ĠFrench",
        -9.258974410625472
      ],
      [
        "Ġincludes",
        -9.259414525960986
      ],
      [
        "Ġculture",
        -9.259700970038224
      ],
      [
        "Ġsimply",
        -9.259936539334811
      ],
      [
        "Ġdeveloping",
        -9.260586400901811
      ],
      [
        "ĠWashington",
        -9.26145433858676
      ],
      [
        "Ġtraining",
        -9.261575765576168
      ],
      [
        "Ġvariety",
        -9.263815644954263
      ],
      [
        "Ġgrow",
        -9.264483028165383
      ],
      [
        "Ġbuild",
        -9.26591061341896
      ],
      [
        "ĠHow",
        -9.266311072172313
      ],
      [
        "Ġaccount",
        -9.270278038803552
      ],
      [
        "Ġcondition",
        -9.27229291525074
      ],
      [
        "ĠWith",
        -9.274459848958584
      ],
      [
        "Ġindividuals",
        -9.27538840094534
      ],
      [
        "Ġalthough",
        -9.27672781110961
      ],
      [
        "Ġshare",
        -9.277556496038784
      ],
      [
        "ĠII",
        -9.278133044711272
      ],
      [
        "Ġart",
        -9.278385262031613
      ],
      [
        "âĢ¢",
        -9.280403669882029
      ],
      [
        "Ġpersonal",
        -9.281837939126657
      ],
      [
        "Ġskills",
        -9.28208068532683
      ],
      [
        "Ġcomplex",
        -9.283417890157336
      ],
      [
        "Ġhold",
        -9.283796761237983
      ],
      [
        "ĠWest",
        -9.28421369979524
      ],
      [
        "Ġprotect",
        -9.284898413269872
      ],
      [
        "Ġadd",
        -9.285097039461112
      ],
      [
        "ĠCo",
        -9.289497365406186
      ],
      [
        "ized",
        -9.2908408168459
      ],
      [
        "ary",
        -9.290906235674749
      ],
      [
        "Ġmarket",
        -9.291226908944331
      ],
      [
        "Ġcontinue",
        -9.293745678514703
      ],
      [
        "ĠHistory",
        -9.294151848555964
      ],
      [
        "On",
        -9.301205627876218
      ],
      [
        "Ġcomes",
        -9.303644291831397
      ],
      [
        "ĠAfrican",
        -9.30376846598093
      ],
      [
        "How",
        -9.30444439213227
      ],
      [
        "ĠApril",
        -9.304796248289977
      ],
      [
        "ĠChina",
        -9.305963610016406
      ],
      [
        "Ġentire",
        -9.306726376515616
      ],
      [
        "ĠInternational",
        -9.307660922148678
      ],
      [
        "Ġetc",
        -9.307794945745885
      ],
      [
        "Ġrest",
        -9.309198428724152
      ],
      [
        "Ġthird",
        -9.31220251246011
      ],
      [
        "ĠGerman",
        -9.313259569915608
      ],
      [
        "Ġcompany",
        -9.313907526352676
      ],
      [
        "Ġpopular",
        -9.314248003909988
      ],
      [
        "Ġauthor",
        -9.315316691469738
      ],
      [
        "Ġforms",
        -9.316855927023564
      ],
      [
        "Ġfederal",
        -9.316873858352134
      ],
      [
        "Ġlarger",
        -9.317555479994535
      ],
      [
        "Ġmiles",
        -9.318411246709667
      ],
      [
        "Ġadded",
        -9.320377002098542
      ],
      [
        "Ġdeep",
        -9.32672650924964
      ],
      [
        "ĠJuly",
        -9.327057558876186
      ],
      [
        "Ġlives",
        -9.327868303245282
      ],
      [
        "Ġtherefore",
        -9.328025276398
      ],
      [
        "Ġlove",
        -9.329101389384968
      ],
      [
        "Ġcauses",
        -9.3296131336888
      ],
      [
        "way",
        -9.32978798684968
      ],
      [
        "âĢ¦",
        -9.33015185678491
      ],
      [
        "year",
        -9.331591174501458
      ],
      [
        "Ġwent",
        -9.335747632935526
      ],
      [
        "Ġeye",
        -9.336922296668243
      ],
      [
        "Ġwriting",
        -9.337574719838369
      ],
      [
        "Ġadditional",
        -9.337886788784116
      ],
      [
        "Ġmethods",
        -9.339653879493042
      ],
      [
        "Ġprivate",
        -9.339815869518365
      ],
      [
        "ĠMany",
        -9.339924422874155
      ],
      [
        "Ġbeginning",
        -9.34015102472542
      ],
      [
        "Ġreceived",
        -9.341081496162465
      ],
      [
        "ĠPresident",
        -9.34145330199258
      ],
      [
        "Ġhundred",
        -9.345003077103698
      ],
      [
        "Ġnation",
        -9.345616499353236
      ],
      [
        "ĠAfrica",
        -9.346174320427624
      ],
      [
        "15",
        -9.34697602641582
      ],
      [
        "Ġsub",
        -9.347897848863113
      ],
      [
        "Ġnight",
        -9.347944143846528
      ],
      [
        "Ġbig",
        -9.348215223279787
      ],
      [
        "Ġnearly",
        -9.348989326805803
      ],
      [
        "ĠX",
        -9.349293484882091
      ],
      [
        "Ġinstead",
        -9.354955100616587
      ],
      [
        "Ġrequire",
        -9.35562425042234
      ],
      [
        "Ġmeaning",
        -9.355656342860462
      ],
      [
        "Ġnumbers",
        -9.356267528463926
      ],
      [
        "like",
        -9.357063295784272
      ],
      [
        "Ġbehavior",
        -9.357496987175171
      ],
      [
        "ĠWhile",
        -9.3585668526247
      ],
      [
        "Ġearth",
        -9.359238693952852
      ],
      [
        "Ġattention",
        -9.36065260301776
      ],
      [
        "Ġgrowing",
        -9.361027297587963
      ],
      [
        "Ġdiet",
        -9.362344368865672
      ],
      [
        "Ġteachers",
        -9.362937415266469
      ],
      [
        "Ġdoing",
        -9.36344104247202
      ],
      [
        "Ġhealthy",
        -9.366736954352334
      ],
      [
        "Ġprimary",
        -9.368232827230347
      ],
      [
        "Ġshall",
        -9.36919531028849
      ],
      [
        "Ġhimself",
        -9.371641235411111
      ],
      [
        "ĠCounty",
        -9.37165693814057
      ],
      [
        "Ġreligious",
        -9.37251563773032
      ],
      [
        "Ġsection",
        -9.373339973119736
      ],
      [
        "Ġrise",
        -9.374257420715422
      ],
      [
        "Ġfall",
        -9.37644371348822
      ],
      [
        "Ġappear",
        -9.377164633846348
      ],
      [
        "ĠIndia",
        -9.378912688877602
      ],
      [
        "Ġcentral",
        -9.379111659852017
      ],
      [
        "Ġ21",
        -9.379540287933434
      ],
      [
        "Ġfocus",
        -9.38033066918788
      ],
      [
        "ling",
        -9.380552547935162
      ],
      [
        "Ġobject",
        -9.38119093145333
      ],
      [
        "Ġanti",
        -9.381441415204137
      ],
      [
        "Ġfamilies",
        -9.382927190283503
      ],
      [
        "Ġquite",
        -9.382960774179663
      ],
      [
        "Ġ40",
        -9.383515174871778
      ],
      [
        "ĠChurch",
        -9.383848951023548
      ],
      [
        "Ġspread",
        -9.384501070665094
      ],
      [
        "Ġtry",
        -9.385067020769016
      ],
      [
        "Ġmusic",
        -9.38514612146181
      ],
      [
        "Ġappropriate",
        -9.38682488420499
      ],
      [
        "ĠEngland",
        -9.38764088388767
      ],
      [
        "Ġcommunities",
        -9.388572264472463
      ],
      [
        "Ġgreen",
        -9.38949190712465
      ],
      [
        "Ġbrought",
        -9.390127525975544
      ],
      [
        "Ġtraditional",
        -9.393373298907363
      ],
      [
        "Ġsafety",
        -9.393751471110958
      ],
      [
        "Ġmass",
        -9.394030004685002
      ],
      [
        "term",
        -9.39476631729161
      ],
      [
        "Ġreceive",
        -9.395125081420083
      ],
      [
        "Ġeasy",
        -9.39527529522113
      ],
      [
        "Ġwide",
        -9.39552439149754
      ],
      [
        "Ġtrade",
        -9.395693547719029
      ],
      [
        "Ġanswer",
        -9.39855553286123
      ],
      [
        "Ġcut",
        -9.398606954220249
      ],
      [
        "Ġperformance",
        -9.399056629790577
      ],
      [
        "Ġdirectly",
        -9.399911497989212
      ],
      [
        "Ġbillion",
        -9.400077814139028
      ],
      [
        "Q",
        -9.40119342050257
      ],
      [
        "Ġ24",
        -9.403117640953427
      ],
      [
        "ĠMost",
        -9.403714085842406
      ],
      [
        "Ġsolar",
        -9.404567309004642
      ],
      [
        "Ġrecord",
        -9.4052582514178
      ],
      [
        "Ġconsider",
        -9.405494192803731
      ],
      [
        "Ġseems",
        -9.40601836463236
      ],
      [
        "Ġlargest",
        -9.406816102529085
      ],
      [
        "And",
        -9.407044659334552
      ],
      [
        "ĠJanuary",
        -9.407380262161173
      ],
      [
        "Ġteaching",
        -9.40799892985295
      ],
      [
        "Ġinfluence",
        -9.408793694436062
      ],
      [
        "Ġsites",
        -9.409298007750134
      ],
      [
        "Ġfile",
        -9.409876344573446
      ],
      [
        "Ġdescribed",
        -9.409943425801346
      ],
      [
        ");",
        -9.410927452533365
      ],
      [
        "One",
        -9.411253377584291
      ],
      [
        "Ġlet",
        -9.411967033307947
      ],
      [
        "Ġbooks",
        -9.412133580194832
      ],
      [
        "Ġ2006",
        -9.412176597138757
      ],
      [
        "Ġsound",
        -9.412732126789276
      ],
      [
        "Ġflow",
        -9.413028345242518
      ],
      [
        "Ġtree",
        -9.417987598341334
      ],
      [
        "Ġpay",
        -9.420072412551477
      ],
      [
        "Ġhope",
        -9.420967990926233
      ],
      [
        "ĠAugust",
        -9.421917846543982
      ],
      [
        "Ġdis",
        -9.422874853543052
      ],
      [
        "der",
        -9.423961631351885
      ],
      [
        "line",
        -9.424465823158023
      ],
      [
        "Ġlost",
        -9.424699619176248
      ],
      [
        "ĠCity",
        -9.425057837027357
      ],
      [
        "Ġcenter",
        -9.426000382330889
      ],
      [
        "Ġlength",
        -9.426385925999638
      ],
      [
        "Ġactive",
        -9.426395676064155
      ],
      [
        "Ġaddress",
        -9.426582531415704
      ],
      [
        "ĠIndian",
        -9.427392132600833
      ],
      [
        "Ġlack",
        -9.42913941340665
      ],
      [
        "ĠKing",
        -9.430720333378028
      ],
      [
        "ĠSeptember",
        -9.431167047376896
      ],
      [
        "Ġdirect",
        -9.431346957888076
      ],
      [
        "ally",
        -9.432173460635868
      ],
      [
        "Ġlimited",
        -9.432391569751385
      ],
      [
        "Ġcar",
        -9.433824120529955
      ],
      [
        "Ġnorth",
        -9.43419559444292
      ],
      [
        "ĠBe",
        -9.43456487517322
      ],
      [
        "30",
        -9.437725790909736
      ],
      [
        "Ġsoon",
        -9.438135937119618
      ],
      [
        "Ġask",
        -9.438191937611288
      ],
      [
        "Ġserve",
        -9.438495115238196
      ],
      [
        "Ġfollow",
        -9.440921652391223
      ],
      [
        "Ġfuel",
        -9.441863205947527
      ],
      [
        "ĠLa",
        -9.442106202368704
      ],
      [
        "ĠOctober",
        -9.443124550897934
      ],
      [
        "Ġefforts",
        -9.444100746809962
      ],
      [
        "Ġproduct",
        -9.447583956693826
      ],
      [
        "Ġmeet",
        -9.447588056654276
      ],
      [
        "By",
        -9.447892950039314
      ],
      [
        "Ġancient",
        -9.44841948206607
      ],
      [
        "Ġdied",
        -9.44983354212015
      ],
      [
        "Ġinfection",
        -9.450855257999187
      ],
      [
        "Ġdifference",
        -9.4514855075484
      ],
      [
        "Ġsun",
        -9.452614357566464
      ],
      [
        "Ġrare",
        -9.453215049886404
      ],
      [
        "Ġsummer",
        -9.453217559712783
      ],
      [
        "Ġfather",
        -9.456929369445266
      ],
      [
        "Ġideas",
        -9.457094678487037
      ],
      [
        "Ġwind",
        -9.458958630356085
      ],
      [
        "Ġlocated",
        -9.459688297140396
      ],
      [
        "ĠJewish",
        -9.461134057552616
      ],
      [
        "Ġreview",
        -9.461868474269483
      ],
      [
        "Ġprotection",
        -9.462313611157686
      ],
      [
        "Ġpatient",
        -9.46241961468217
      ],
      [
        "Ġimages",
        -9.46261821215528
      ],
      [
        "Ġbenefits",
        -9.464667380205166
      ],
      [
        "ĠSan",
        -9.46510428964098
      ],
      [
        "ĠAlthough",
        -9.466009444494109
      ],
      [
        "compared",
        -9.467530140985584
      ],
      [
        "16",
        -9.46804401285264
      ],
      [
        "Ġtrees",
        -9.468051526731006
      ],
      [
        "Ġstarted",
        -9.46841365205606
      ],
      [
        "Ġborn",
        -9.468901972333716
      ],
      [
        "ĠCanada",
        -9.469448403133038
      ],
      [
        "Ġsupply",
        -9.470855219393451
      ],
      [
        "Ġ2000",
        -9.471264905271664
      ],
      [
        "Ġhighly",
        -9.471718524460265
      ],
      [
        "Ġtools",
        -9.472712203536537
      ],
      [
        "Ġensure",
        -9.473791132744005
      ],
      [
        "Ġuseful",
        -9.47540585544358
      ],
      [
        "Ġdeal",
        -9.475437088535427
      ],
      [
        "Ġstop",
        -9.475742091904124
      ],
      [
        "Ġproperty",
        -9.477058942227284
      ],
      [
        "Ġexercise",
        -9.47758615721257
      ],
      [
        "Ġbehind",
        -9.478350903894455
      ],
      [
        "ĠGeneral",
        -9.478484581010935
      ],
      [
        "17",
        -9.478635955990176
      ],
      [
        "Ġ2005",
        -9.478808205985176
      ],
      [
        "Ġinside",
        -9.480163087202932
      ],
      [
        "Ġmedia",
        -9.4823886038663
      ],
      [
        "Ġattempt",
        -9.482585134570906
      ],
      [
        "Ġnetwork",
        -9.482785841860562
      ],
      [
        "Ġserious",
        -9.483436559342634
      ],
      [
        "Retrieved",
        -9.4837498462898
      ],
      [
        "Ġleading",
        -9.48432171780991
      ],
      [
        "ĠSociety",
        -9.486364628845164
      ],
      [
        "Ġstep",
        -9.486648231916703
      ],
      [
        "Ġtold",
        -9.486771740676325
      ],
      [
        "Ġeasily",
        -9.48737335229348
      ],
      [
        "Ġpoints",
        -9.48790892810868
      ],
      [
        "ities",
        -9.48795318082334
      ],
      [
        "ĠDecember",
        -9.489577839329067
      ],
      [
        "Ġbegin",
        -9.489986850066304
      ],
      [
        "Ġdrug",
        -9.491201847435784
      ],
      [
        "Ġwrote",
        -9.491804570533716
      ],
      [
        "Ġdoesn",
        -9.492367726127366
      ],
      [
        "Ġtoward",
        -9.49278799117475
      ],
      [
        "Ġavoid",
        -9.493087816426334
      ],
      [
        "day",
        -9.494251542098691
      ],
      [
        "Ġcontains",
        -9.494459312265224
      ],
      [
        "Ġforces",
        -9.495772021916684
      ],
      [
        "Ġpositive",
        -9.496312311435291
      ],
      [
        "Ġworkers",
        -9.49677994457493
      ],
      [
        "ĠEducation",
        -9.496845418212803
      ],
      [
        "Ġcollection",
        -9.497131559715262
      ],
      [
        "Ġrates",
        -9.497267784607343
      ],
      [
        "Ġvisit",
        -9.499220736571226
      ],
      [
        "Ġquickly",
        -9.499682172078032
      ],
      [
        "Ġunique",
        -9.500122606520495
      ],
      [
        "ill",
        -9.501122614410727
      ],
      [
        "ĠJournal",
        -9.501573830560794
      ],
      [
        "Ġuses",
        -9.502224853755637
      ],
      [
        "Ġchemical",
        -9.502365204659547
      ],
      [
        "per",
        -9.502451690152682
      ],
      [
        "ur",
        -9.50309973766411
      ],
      [
        "Ġpurpose",
        -9.504463908197646
      ],
      [
        "asked",
        -9.507837631448092
      ],
      [
        "Ġapplication",
        -9.508313369736609
      ],
      [
        "Ġsent",
        -9.508755989193473
      ],
      [
        "Ġtown",
        -9.50875900766256
      ],
      [
        "Ġgetting",
        -9.509457759393696
      ],
      [
        "Ġcritical",
        -9.509885849742698
      ],
      [
        "Ġbasis",
        -9.509999409674112
      ],
      [
        "Ġcontinued",
        -9.511728323758131
      ],
      [
        "Ġevent",
        -9.512414016942095
      ],
      [
        "ĠGreat",
        -9.513144186815612
      ],
      [
        "Ġrecently",
        -9.51371276164708
      ],
      [
        "Ġcode",
        -9.514243169089177
      ],
      [
        "Ġfollowed",
        -9.514348984175868
      ],
      [
        "Ġlooking",
        -9.514466923771028
      ],
      [
        "Ġnothing",
        -9.514832353396953
      ],
      [
        "ĠHouse",
        -9.515304732594812
      ],
      [
        "Ġsituation",
        -9.518022959692445
      ],
      [
        "Ġvideo",
        -9.51878031696522
      ],
      [
        "Ġbirth",
        -9.518961104120104
      ],
      [
        "Ġkids",
        -9.519134054543684
      ],
      [
        "14",
        -9.51959365642717
      ],
      [
        "Ġdate",
        -9.520170004095275
      ],
      [
        "Ġtakes",
        -9.520848545307668
      ],
      [
        "Ġattack",
        -9.522261586484277
      ],
      [
        "Ġfeatures",
        -9.522552770105683
      ],
      [
        "ĠUnion",
        -9.522698638957625
      ],
      [
        "He",
        -9.522840465491486
      ],
      [
        "Ġmultiple",
        -9.52374656897183
      ],
      [
        "Ġmember",
        -9.524160362511733
      ],
      [
        "Ġmonth",
        -9.525110535103066
      ],
      [
        "Ġpp",
        -9.525419955207791
      ],
      [
        "Ġsafe",
        -9.52632942502309
      ],
      [
        "ĠMore",
        -9.527004409647478
      ],
      [
        "Ġwebsite",
        -9.527563004818836
      ],
      [
        "Ġmeasure",
        -9.530010322692918
      ],
      [
        "Ġspeed",
        -9.530287738991802
      ],
      [
        "ĠEast",
        -9.530451284078564
      ],
      [
        "out",
        -9.531225408887169
      ],
      [
        "ĠAmericans",
        -9.531384814005191
      ],
      [
        "ĠNovember",
        -9.531425620883102
      ],
      [
        "Ġsouth",
        -9.531834252228784
      ],
      [
        "Ġremains",
        -9.536753490553302
      ],
      [
        "Ġtests",
        -9.537905975002632
      ],
      [
        "Ġdecision",
        -9.538055490673564
      ],
      [
        "Ġsearch",
        -9.538393784361732
      ],
      [
        "Ġmeeting",
        -9.543078793230796
      ],
      [
        "Ġearlier",
        -9.543104823690362
      ],
      [
        "Ġ2013",
        -9.543604540332552
      ],
      [
        "Ġfinal",
        -9.547504097997487
      ],
      [
        "Ġsevere",
        -9.547925508542011
      ],
      [
        "ĠAssociation",
        -9.54843113515331
      ],
      [
        "Ġsaw",
        -9.54866027444378
      ],
      [
        "Ġexpected",
        -9.548721593020275
      ],
      [
        "Ġmother",
        -9.54945860289333
      ],
      [
        "Ġeffort",
        -9.551007556927209
      ],
      [
        "ĠCongress",
        -9.55135776070545
      ],
      [
        "ĠLondon",
        -9.553236641618264
      ],
      [
        "Ġfront",
        -9.553448027927294
      ],
      [
        "Ġlayer",
        -9.553879006092831
      ],
      [
        "ization",
        -9.553933809294245
      ],
      [
        "13",
        -9.555048968468308
      ],
      [
        "Ġdaily",
        -9.555452907603268
      ],
      [
        "Ġelements",
        -9.556645091222348
      ],
      [
        "ĠFirst",
        -9.557157982599056
      ],
      [
        "Ġwinter",
        -9.559206571898253
      ],
      [
        "Ġrule",
        -9.560252232947173
      ],
      [
        "Ġcompanies",
        -9.56108934204016
      ],
      [
        "Ġbase",
        -9.56168030752304
      ],
      [
        "These",
        -9.561891687635931
      ],
      [
        "Ġstandards",
        -9.563859474620592
      ],
      [
        "Ġhumans",
        -9.564538135967377
      ],
      [
        "Ġgenetic",
        -9.565071672575542
      ],
      [
        "Ġweeks",
        -9.565607124684112
      ],
      [
        "Ġsecurity",
        -9.56695934891623
      ],
      [
        "Ġseem",
        -9.567244346254409
      ],
      [
        "Ġmiddle",
        -9.567351725408953
      ],
      [
        "Ġvalues",
        -9.567864387899585
      ],
      [
        "ive",
        -9.56833371770932
      ],
      [
        "Ġinstance",
        -9.568643863696458
      ],
      [
        "Ġincreasing",
        -9.570752867807052
      ],
      [
        "Ġmemory",
        -9.571280267090518
      ],
      [
        "Ġcontain",
        -9.572886707089536
      ],
      [
        "Ġweather",
        -9.573015409809726
      ],
      [
        "Ġwaste",
        -9.574456853840871
      ],
      [
        "Ġsomeone",
        -9.57563323367788
      ],
      [
        "Ġsoftware",
        -9.575844174790412
      ],
      [
        "Ġoffer",
        -9.576171585707636
      ],
      [
        "Ġlegal",
        -9.576436959634838
      ],
      [
        "ĠFrom",
        -9.578932050656848
      ],
      [
        "Ġprotein",
        -9.580191065078957
      ],
      [
        "Ġequal",
        -9.580904481152846
      ],
      [
        "Ġrelationship",
        -9.581664837311656
      ],
      [
        "Ġobjects",
        -9.583755414176586
      ],
      [
        "ver",
        -9.583845530273978
      ],
      [
        "Ġcosts",
        -9.58423275448268
      ],
      [
        "Ġconstruction",
        -9.584513761740109
      ],
      [
        "Ġversion",
        -9.58490020091456
      ],
      [
        "Ġexposure",
        -9.585432424482557
      ],
      [
        "Ġgoal",
        -9.585832412403493
      ],
      [
        "Ġbenefit",
        -9.585881376765794
      ],
      [
        "00",
        -9.585903781472815
      ],
      [
        "Ġlines",
        -9.58651193934966
      ],
      [
        "Ġbirds",
        -9.588146912033606
      ],
      [
        "ĠHIV",
        -9.588178250912714
      ],
      [
        "Ġformed",
        -9.588528851374289
      ],
      [
        "Ġtravel",
        -9.589551000463604
      ],
      [
        "ĠFrance",
        -9.589722243435869
      ],
      [
        "Ġessential",
        -9.5901364227653
      ],
      [
        "Ġbeyond",
        -9.590514830455351
      ],
      [
        "Ġdiscovered",
        -9.590927469350843
      ],
      [
        "Ġolder",
        -9.591968611198665
      ],
      [
        "Ġgame",
        -9.592007788677977
      ],
      [
        "Ġadults",
        -9.592686079767727
      ],
      [
        "Ġgave",
        -9.592864804462144
      ],
      [
        "Ġnamed",
        -9.593688556049152
      ],
      [
        "Ġriver",
        -9.59466776447662
      ],
      [
        "Ġprojects",
        -9.595040820135726
      ],
      [
        "Ġsmaller",
        -9.595395105469832
      ],
      [
        "Ġcold",
        -9.59588504432448
      ],
      [
        "Ġallows",
        -9.595921629609338
      ],
      [
        "ĠAl",
        -9.596969497784665
      ],
      [
        "old",
        -9.597137863205525
      ],
      [
        "Ġchurch",
        -9.597262492970172
      ],
      [
        "Ġfoods",
        -9.597942403423817
      ],
      [
        "Ġremain",
        -9.598236521822589
      ],
      [
        "ĠOther",
        -9.598769132597749
      ],
      [
        "Ġcultural",
        -9.600683188629008
      ],
      [
        "ĠWilliam",
        -9.601457375405571
      ],
      [
        "Ġeconomy",
        -9.601909344796152
      ],
      [
        "Ġminutes",
        -9.602126603200668
      ],
      [
        "Ġdrugs",
        -9.602152521520791
      ],
      [
        "Ġcurrently",
        -9.602433322973532
      ],
      [
        "ĠFebruary",
        -9.60376564789543
      ],
      [
        "ĠCouncil",
        -9.604729206518751
      ],
      [
        "Ġformer",
        -9.606500821976434
      ],
      [
        "Ġimportance",
        -9.606556149940936
      ],
      [
        "Ġsuccess",
        -9.606724355559685
      ],
      [
        "ley",
        -9.607469623168551
      ],
      [
        "Ġhands",
        -9.607896525088744
      ],
      [
        "Ġlaws",
        -9.608535479928646
      ],
      [
        "Ġwrite",
        -9.608723411606942
      ],
      [
        "Ġhistorical",
        -9.60882728961968
      ],
      [
        "Ġchance",
        -9.609104153700214
      ],
      [
        "Ġreach",
        -9.6095801876793
      ],
      [
        "Ġperhaps",
        -9.610715881289282
      ],
      [
        "Ġprocesses",
        -9.610974497129147
      ],
      [
        "Ġresponsible",
        -9.612090753279029
      ],
      [
        "aid",
        -9.613255064803282
      ],
      [
        "Ġtend",
        -9.613283325627828
      ],
      [
        "Ã©",
        -9.61411949158427
      ],
      [
        "Ġcharacter",
        -9.618238020215555
      ],
      [
        "Ġdegree",
        -9.61863401987156
      ],
      [
        "Ġdiseases",
        -9.618727143460523
      ],
      [
        "Ġalone",
        -9.620037899340469
      ],
      [
        "Ġ2004",
        -9.62072978960548
      ],
      [
        "Ġrelease",
        -9.620821249513355
      ],
      [
        "Ġstore",
        -9.621322584320549
      ],
      [
        "Ġmaintain",
        -9.62174896096568
      ],
      [
        "Ġseason",
        -9.622213450020388
      ],
      [
        "X",
        -9.622576580069872
      ],
      [
        "ĠChinese",
        -9.623172982234289
      ],
      [
        "Ġcourt",
        -9.625199287475958
      ],
      [
        "Ġallowed",
        -9.62528718465605
      ],
      [
        "Ġstage",
        -9.62551619223563
      ],
      [
        "ĠWeb",
        -9.625884979466392
      ],
      [
        "ists",
        -9.62676320719577
      ],
      [
        "Ġrequires",
        -9.627448436224412
      ],
      [
        "Ġweb",
        -9.628140343659592
      ],
      [
        "Ġappears",
        -9.62859799899736
      ],
      [
        "Ġbreak",
        -9.630370217792724
      ],
      [
        "ĠDay",
        -9.63115714526448
      ],
      [
        "ĠPark",
        -9.631231973640723
      ],
      [
        "Ġ22",
        -9.631636522564367
      ],
      [
        "ĠJesus",
        -9.631861635299948
      ],
      [
        "Ġwoman",
        -9.632534050143738
      ],
      [
        "Ġlink",
        -9.63307859370233
      ],
      [
        "Ġidentify",
        -9.633242627827572
      ],
      [
        "Ġbad",
        -9.634189081121283
      ],
      [
        "Some",
        -9.63464838102203
      ],
      [
        "ĠDNA",
        -9.635178428308006
      ],
      [
        "Ġlocation",
        -9.635649055350498
      ],
      [
        "Ġwon",
        -9.636042145115985
      ],
      [
        "Ġanything",
        -9.636323006370564
      ],
      [
        "Ġdry",
        -9.63660644671669
      ],
      [
        "ĠChristian",
        -9.6366126595688
      ],
      [
        "Ġscale",
        -9.638081608474174
      ],
      [
        "Ġcover",
        -9.638363434127996
      ],
      [
        "Ġcapital",
        -9.638625456023014
      ],
      [
        "Ġtesting",
        -9.64039595232017
      ],
      [
        "Ġgot",
        -9.640791418744543
      ],
      [
        "Ġ60",
        -9.641155854571238
      ],
      [
        "Ġequipment",
        -9.641747301813671
      ],
      [
        "Ġnuclear",
        -9.64311021116494
      ],
      [
        "Ġteacher",
        -9.643321082626644
      ],
      [
        "Ġnative",
        -9.644111092831352
      ],
      [
        "ĠGovernment",
        -9.644943144012316
      ],
      [
        "Ġcheck",
        -9.645294368709928
      ],
      [
        "Ġplaces",
        -9.647065835629666
      ],
      [
        "Ġseparate",
        -9.64842418799418
      ],
      [
        "ĠInternet",
        -9.648615832852268
      ],
      [
        "ĠOr",
        -9.648863714878026
      ],
      [
        "ĠJews",
        -9.64892349441361
      ],
      [
        "Ġuser",
        -9.650386742479728
      ],
      [
        "ĠRoman",
        -9.651170422352374
      ],
      [
        "Ġcommand",
        -9.651641682992992
      ],
      [
        "Ġsleep",
        -9.651682325160074
      ],
      [
        "ĠGermany",
        -9.656004708746448
      ],
      [
        "Ġroom",
        -9.656526164845816
      ],
      [
        "Ġoffice",
        -9.657351963664253
      ],
      [
        "Ġorganization",
        -9.657952902105858
      ],
      [
        "Ġfinancial",
        -9.658524335359925
      ],
      [
        "Ġrelatively",
        -9.658821623219255
      ],
      [
        "Ġjob",
        -9.659992941844855
      ],
      [
        "Ġunit",
        -9.660637622425249
      ],
      [
        "Ġprogress",
        -9.660894183334005
      ],
      [
        "Ġten",
        -9.660987807550056
      ],
      [
        "Ġdevice",
        -9.66172960691478
      ],
      [
        "Ġdrive",
        -9.661976737416014
      ],
      [
        "Ġstatus",
        -9.663799313810388
      ],
      [
        "Ġtechniques",
        -9.664618586021083
      ],
      [
        "Ġidentified",
        -9.666097042112714
      ],
      [
        "Ġprevious",
        -9.666948481442391
      ],
      [
        "ĠJames",
        -9.66744458738183
      ],
      [
        "Ġstress",
        -9.668057958721327
      ],
      [
        "Ġnegative",
        -9.66830015563278
      ],
      [
        "Ġleave",
        -9.670128089263551
      ],
      [
        "Ġ23",
        -9.671552393382004
      ],
      [
        "over",
        -9.672166702472998
      ],
      [
        "ĠDavid",
        -9.673467118369295
      ],
      [
        "Ġvirus",
        -9.67409348288312
      ],
      [
        "Ġsuccessful",
        -9.67422431844044
      ],
      [
        "Ġconcept",
        -9.67438986824692
      ],
      [
        "Ġrace",
        -9.674742209786457
      ],
      [
        "Ġforest",
        -9.677787746229
      ],
      [
        "Â°",
        -9.679179715222306
      ],
      [
        "ĠCollege",
        -9.679956172744133
      ],
      [
        "#",
        -9.68051646831494
      ],
      [
        "ĠAustralia",
        -9.680698433482066
      ],
      [
        "25",
        -9.683471676921636
      ],
      [
        "ĠEven",
        -9.683578322837636
      ],
      [
        "Ġsolution",
        -9.684918751691267
      ],
      [
        "See",
        -9.68589977109922
      ],
      [
        "ĠYour",
        -9.6860152681789
      ],
      [
        "Ġmajority",
        -9.686053962766382
      ],
      [
        "Ġoccurs",
        -9.686233830347016
      ],
      [
        "Ġshape",
        -9.687494117993854
      ],
      [
        "ring",
        -9.688209216728463
      ],
      [
        "Ġ2003",
        -9.689621791129278
      ],
      [
        "Ġvolume",
        -9.690517023141192
      ],
      [
        "Ġpassed",
        -9.690818041541032
      ],
      [
        "tic",
        -9.69088502762868
      ],
      [
        "Ġprice",
        -9.691577926935128
      ],
      [
        "Ġtypically",
        -9.692251629465636
      ],
      [
        "Ġfigure",
        -9.693838344792132
      ],
      [
        "Ġblock",
        -9.694008897686976
      ],
      [
        "Ġpicture",
        -9.69491434833718
      ],
      [
        "are",
        -9.695220734960786
      ],
      [
        "ĠService",
        -9.69558796009962
      ],
      [
        "ĠChrist",
        -9.696610398134975
      ],
      [
        "Ġapplications",
        -9.697075666518447
      ],
      [
        "Ġproviding",
        -9.697278765602189
      ],
      [
        "Ġplanet",
        -9.70014677513968
      ],
      [
        "Ġmid",
        -9.700325735822684
      ],
      [
        "Ġreduced",
        -9.700891466066064
      ],
      [
        "Ġmeasures",
        -9.700917913281112
      ],
      [
        "q",
        -9.70227309006527
      ],
      [
        "Ġcommercial",
        -9.702560761170318
      ],
      [
        "ĠNASA",
        -9.703127092384232
      ],
      [
        "ĠLord",
        -9.70336715352084
      ],
      [
        "ĠMr",
        -9.70418559106769
      ],
      [
        "Ġreports",
        -9.705087552016227
      ],
      [
        "ĠWestern",
        -9.706514009646815
      ],
      [
        "Ġaffected",
        -9.706735941209942
      ],
      [
        "Ġdiabetes",
        -9.707794562364398
      ],
      [
        "Ġemissions",
        -9.70807998702067
      ],
      [
        "Ġreference",
        -9.70873783586016
      ],
      [
        "Ġradiation",
        -9.708869396247906
      ],
      [
        "Ġworked",
        -9.708911035953482
      ],
      [
        "Ġshowed",
        -9.709665175649576
      ],
      [
        "Ġmental",
        -9.709684977922135
      ],
      [
        "Ġtax",
        -9.70977801587895
      ],
      [
        "Ġapplied",
        -9.71096011385897
      ],
      [
        "Ġtreat",
        -9.712513606010818
      ],
      [
        "ĠWater",
        -9.713825720451489
      ],
      [
        "Ġtowards",
        -9.714084861634406
      ],
      [
        "Ġgives",
        -9.71477249139571
      ],
      [
        "While",
        -9.715818497092132
      ],
      [
        "Ġseven",
        -9.717312521917174
      ],
      [
        "Ġprofessional",
        -9.717777392437924
      ],
      [
        "ĠSee",
        -9.718074547746246
      ],
      [
        "Ġbacteria",
        -9.718455657771251
      ],
      [
        "Ġdistance",
        -9.722372863693856
      ],
      [
        "Ġthinking",
        -9.723341711755095
      ],
      [
        "ĠJapan",
        -9.723591477921795
      ],
      [
        "ĠMuseum",
        -9.72430160608586
      ],
      [
        "that",
        -9.724647222544986
      ],
      [
        "Ġincome",
        -9.725352796160015
      ],
      [
        "Ġbecomes",
        -9.72542764651567
      ],
      [
        "Ġ2001",
        -9.72587420216312
      ],
      [
        "Ġnames",
        -9.727782125418528
      ],
      [
        "Ġcities",
        -9.728793800660586
      ],
      [
        "Ġsugar",
        -9.728953154578749
      ],
      [
        "Ġcross",
        -9.729611608220091
      ],
      [
        "Ġdifferences",
        -9.72996535375586
      ],
      [
        "Ġfemale",
        -9.73000647989147
      ],
      [
        "Ġstaff",
        -9.730665716362244
      ],
      [
        "Ġinteresting",
        -9.73091865922092
      ],
      [
        "Ġfindings",
        -9.732991009906732
      ],
      [
        "Ġrecords",
        -9.733823113158882
      ],
      [
        "Ġcombination",
        -9.73470768752014
      ],
      [
        "Ġleaves",
        -9.734794670360372
      ],
      [
        "Ġsuggest",
        -9.735358400820283
      ],
      [
        "Ġeyes",
        -9.736968151971888
      ],
      [
        "Ġmission",
        -9.737099109988629
      ],
      [
        "Ġbaby",
        -9.737135478048954
      ],
      [
        "Ġopportunity",
        -9.73744497919216
      ],
      [
        "Ġcollege",
        -9.73791277124661
      ],
      [
        "Ġdistribution",
        -9.738328939023852
      ],
      [
        "Ġrules",
        -9.73944412037639
      ],
      [
        "Ġpowerful",
        -9.739959953515648
      ],
      [
        "ĠPaul",
        -9.740301847062778
      ],
      [
        "ĠGeorge",
        -9.740776412391776
      ],
      [
        "Ġtherapy",
        -9.741247910435648
      ],
      [
        "Ġcoming",
        -9.741564202069236
      ],
      [
        "Ġblue",
        -9.74184264035979
      ],
      [
        "Ġcompletely",
        -9.742323657764931
      ],
      [
        "off",
        -9.743225963633442
      ],
      [
        "Ġchanged",
        -9.74344209041553
      ],
      [
        "Ġgoes",
        -9.745172920548548
      ],
      [
        "Ġmodels",
        -9.745422222236485
      ],
      [
        "Ġacid",
        -9.74650024541104
      ],
      [
        "Ġcommonly",
        -9.746692789276638
      ],
      [
        "Ġforeign",
        -9.747073708252705
      ],
      [
        "After",
        -9.747689567967308
      ],
      [
        "Ġexisting",
        -9.748261293018
      ],
      [
        "ĠSince",
        -9.748349732994914
      ],
      [
        "Ġpresence",
        -9.748806912482504
      ],
      [
        "Ġeducational",
        -9.749020070997158
      ],
      [
        "Ġtable",
        -9.749424618881385
      ],
      [
        "Ġapproximately",
        -9.750547966558134
      ],
      [
        "Ġdemand",
        -9.75518248101455
      ],
      [
        "ating",
        -9.756476486448552
      ],
      [
        "Ġpresented",
        -9.756712820994666
      ],
      [
        "ler",
        -9.757443438114231
      ],
      [
        "Ġbit",
        -9.757480820180296
      ],
      [
        "ĠCourt",
        -9.757751122865674
      ],
      [
        "Ġ2002",
        -9.758016657994082
      ],
      [
        "Ġgene",
        -9.758016760525654
      ],
      [
        "Ġcarried",
        -9.758090354653076
      ],
      [
        "ĠTexas",
        -9.758626590966
      ],
      [
        "led",
        -9.758839123841804
      ],
      [
        "Ġtool",
        -9.760772650895596
      ],
      [
        "Ġdirection",
        -9.76079252590556
      ],
      [
        "19",
        -9.76101342561692
      ],
      [
        "ĠBecause",
        -9.761950607204533
      ],
      [
        "Ġobserved",
        -9.762730431106418
      ],
      [
        "Ġcommunication",
        -9.76352058433276
      ],
      [
        "Ġexist",
        -9.763995162292511
      ],
      [
        "Ġnor",
        -9.764037752459966
      ],
      [
        "Ġeverything",
        -9.764118272806517
      ],
      [
        "Ġtalk",
        -9.764137062499552
      ],
      [
        "<",
        -9.76685622597944
      ],
      [
        "ĠGreek",
        -9.767289095574537
      ],
      [
        "Ġfactor",
        -9.76737745789823
      ],
      [
        "Ġmap",
        -9.767693390522329
      ],
      [
        "Ġspring",
        -9.76770628894436
      ],
      [
        "Ġprofessor",
        -9.768182515008712
      ],
      [
        "Ġsave",
        -9.768713579300304
      ],
      [
        "Ġclassroom",
        -9.770344085088974
      ],
      [
        "which",
        -9.771517427477152
      ],
      [
        "trying",
        -9.771745163922478
      ],
      [
        "All",
        -9.773157394741997
      ],
      [
        "Ġregular",
        -9.77352350754141
      ],
      [
        "ĠHuman",
        -9.77372700442923
      ],
      [
        "ĠOf",
        -9.774549757302193
      ],
      [
        "ĠLe",
        -9.774851829702298
      ],
      [
        "ĠJapanese",
        -9.77503434395563
      ],
      [
        "Ġlabor",
        -9.775353356050886
      ],
      [
        "ISBN",
        -9.77550829418382
      ],
      [
        "Ġcreating",
        -9.776285898737976
      ],
      [
        "Ġcapacity",
        -9.777252848166771
      ],
      [
        "ated",
        -9.777507642223377
      ],
      [
        "ĠAlso",
        -9.777565300937198
      ],
      [
        "Ġstay",
        -9.777808056476175
      ],
      [
        "Ġrespect",
        -9.777952024773231
      ],
      [
        "ear",
        -9.778047131843428
      ],
      [
        "Z",
        -9.77859777969576
      ],
      [
        "mer",
        -9.77887131663608
      ],
      [
        "Ġstar",
        -9.779503366656758
      ],
      [
        "ĠBlack",
        -9.779860977096163
      ],
      [
        "ĠPeople",
        -9.78062727325142
      ],
      [
        "Ġdevices",
        -9.782004161463634
      ],
      [
        "Ġresource",
        -9.78227690809737
      ],
      [
        "Ġestimated",
        -9.783658489525726
      ],
      [
        "Ġkilled",
        -9.783865668861951
      ],
      [
        "Ġwhom",
        -9.784118905127702
      ],
      [
        "Ġregions",
        -9.7846416710776
      ],
      [
        "Ġtissue",
        -9.784931776515624
      ],
      [
        "Ġdark",
        -9.785310186951246
      ],
      [
        "ĠThus",
        -9.785527150736392
      ],
      [
        "Ġbelieved",
        -9.78602519812573
      ],
      [
        "Ġbreast",
        -9.787946750601549
      ],
      [
        "Ġpresident",
        -9.78876913187964
      ],
      [
        "Ġusers",
        -9.789304646926968
      ],
      [
        "Ġclinical",
        -9.78953604453312
      ],
      [
        "ĠIsrael",
        -9.789604138128851
      ],
      [
        "Ġeating",
        -9.789888938735496
      ],
      [
        "50",
        -9.790091584593474
      ],
      [
        "Ġportion",
        -9.79024399157368
      ],
      [
        "Ġexplain",
        -9.790442815086278
      ],
      [
        "Ġpractices",
        -9.7905139402145
      ],
      [
        "Ġfat",
        -9.790760460444206
      ],
      [
        "Ġnoted",
        -9.792455660474536
      ],
      [
        "Ġreasons",
        -9.79302971161236
      ],
      [
        "Ġsign",
        -9.79315167916465
      ],
      [
        "Ġsouthern",
        -9.793418064036803
      ],
      [
        "Ġsample",
        -9.794448758671525
      ],
      [
        "ĠProject",
        -9.794982176344584
      ],
      [
        "Ġeventually",
        -9.796511067020258
      ],
      [
        "Ġdiscussion",
        -9.797730557197582
      ],
      [
        "ĠMexico",
        -9.798198135751472
      ],
      [
        "Ġfruit",
        -9.798883176449726
      ],
      [
        "Ġmoving",
        -9.800410842387702
      ],
      [
        "Ġmedicine",
        -9.801206329236258
      ],
      [
        "Ġparty",
        -9.801362950023709
      ],
      [
        "Ġfast",
        -9.801370268322104
      ],
      [
        "Ġmale",
        -9.802089236060784
      ],
      [
        "Ġhighest",
        -9.802152757107732
      ],
      [
        "Ġvia",
        -9.802299320226467
      ],
      [
        "Ġgeneration",
        -9.803450202168674
      ],
      [
        "ĠTheir",
        -9.803747848620212
      ],
      [
        "Ġeight",
        -9.80389589959443
      ],
      [
        "Ġsuggests",
        -9.80566136649628
      ],
      [
        "Ġfamous",
        -9.806349262746403
      ],
      [
        "Ġdefined",
        -9.807333423553104
      ],
      [
        "Ġchoose",
        -9.8076303751256
      ],
      [
        "ĠHere",
        -9.808992104770088
      ],
      [
        "Ġdead",
        -9.809270875951537
      ],
      [
        "Ġtreated",
        -9.809905387694393
      ],
      [
        "Ġrich",
        -9.809935963153183
      ],
      [
        "Ġnorthern",
        -9.810257507588531
      ],
      [
        "ĠSea",
        -9.810738006392334
      ],
      [
        "ĠUse",
        -9.81237692001469
      ],
      [
        "Ġreleased",
        -9.813268001238152
      ],
      [
        "Ġinter",
        -9.8138972489326
      ],
      [
        "Ġfilm",
        -9.815283122958586
      ],
      [
        "Ġmoment",
        -9.816514900687205
      ],
      [
        "Ġletter",
        -9.817535409666926
      ],
      [
        "Ġenter",
        -9.81852925414905
      ],
      [
        "ance",
        -9.819010354162408
      ],
      [
        "Ġtitle",
        -9.820762988323148
      ],
      [
        "Ġpath",
        -9.820986767909684
      ],
      [
        "Ġdisorder",
        -9.821199723093688
      ],
      [
        "Ġdocument",
        -9.821451293903412
      ],
      [
        "Ġroad",
        -9.821471122396424
      ],
      [
        "Ġdidn",
        -9.822176945477874
      ],
      [
        "With",
        -9.822222532803584
      ],
      [
        "Ġstyle",
        -9.82339344550388
      ],
      [
        "Ġheavy",
        -9.824047177828248
      ],
      [
        "Ġclean",
        -9.824254584800316
      ],
      [
        "Ġpro",
        -9.824540300862605
      ],
      [
        "Ġsurvey",
        -9.8250657277409
      ],
      [
        "lin",
        -9.826811530854927
      ],
      [
        "Ġpromote",
        -9.827112974028823
      ],
      [
        "Ġconducted",
        -9.827496139634007
      ],
      [
        "Ġannual",
        -9.827497018859402
      ],
      [
        "Ġplans",
        -9.828498368626756
      ],
      [
        "Ġreligion",
        -9.82862102962858
      ],
      [
        "Ġ1990",
        -9.82971820325344
      ],
      [
        "Ġcampaign",
        -9.830498982246802
      ],
      [
        "Ġoverall",
        -9.831015995198507
      ],
      [
        "Ġmulti",
        -9.832662292910411
      ],
      [
        "Ġfriends",
        -9.83325211072151
      ],
      [
        "Ġnews",
        -9.833389218490698
      ],
      [
        "Ġpiece",
        -9.834043113616064
      ],
      [
        "Ġ28",
        -9.834357434848023
      ],
      [
        "ĠIsland",
        -9.834631252179362
      ],
      [
        "red",
        -9.83490623687128
      ],
      [
        "Ġimmediately",
        -9.8351456265886
      ],
      [
        "all",
        -9.835307894347922
      ],
      [
        "Ġorganizations",
        -9.835959274726664
      ],
      [
        "Ġpattern",
        -9.83655743794089
      ],
      [
        "Ġelse",
        -9.836617620058105
      ],
      [
        "Ġwild",
        -9.838177016273628
      ],
      [
        "Ġthousand",
        -9.838471741114764
      ],
      [
        "ĠEach",
        -9.838707506834576
      ],
      [
        "Ġupper",
        -9.839785128539578
      ],
      [
        "Ġdecades",
        -9.84041512479838
      ],
      [
        "Ġintroduced",
        -9.84046651036116
      ],
      [
        "Ġactual",
        -9.84067895097462
      ],
      [
        "Ġcontext",
        -9.84077410116703
      ],
      [
        "ĠNot",
        -9.841177862206012
      ],
      [
        "Ġfully",
        -9.841204573161509
      ],
      [
        "placed",
        -9.841355965273276
      ],
      [
        "Ġatmosphere",
        -9.84147129808037
      ],
      [
        "Ġstories",
        -9.844044272285172
      ],
      [
        "Ġrunning",
        -9.844284841339206
      ],
      [
        "Ġfreedom",
        -9.844357849710963
      ],
      [
        "end",
        -9.844809156646551
      ],
      [
        "Ġproperties",
        -9.846453432374558
      ],
      [
        "Ġindependent",
        -9.84685153448904
      ],
      [
        "Ġphase",
        -9.84765758821194
      ],
      [
        "ĠProgram",
        -9.84822574928297
      ],
      [
        "ĠRobert",
        -9.848871092858849
      ],
      [
        "Ġspeak",
        -9.849156837669533
      ],
      [
        "Ġofficial",
        -9.849884443871671
      ],
      [
        "Ġsquare",
        -9.849941054267743
      ],
      [
        "ĠSpace",
        -9.850299760432598
      ],
      [
        "Ġrock",
        -9.850393015324148
      ],
      [
        "Ġpatterns",
        -9.85061400390064
      ],
      [
        "Ġfear",
        -9.850769077702212
      ],
      [
        "Ġturned",
        -9.850927530725372
      ],
      [
        "Ġdetails",
        -9.852115476839922
      ],
      [
        "Ġcarry",
        -9.853053878201596
      ],
      [
        "ĠMedicine",
        -9.853257680896464
      ],
      [
        "Ġclaim",
        -9.85425500925791
      ],
      [
        "Ġ26",
        -9.854992885863098
      ],
      [
        "Ġguide",
        -9.8552221315643
      ],
      [
        "Ġchoice",
        -9.855618019006153
      ],
      [
        "ful",
        -9.857377187763053
      ],
      [
        "Ġking",
        -9.85786644302413
      ],
      [
        "Ġcivil",
        -9.858608224365478
      ],
      [
        "Ġlived",
        -9.85869605754672
      ],
      [
        "Ġleaders",
        -9.859725519762724
      ],
      [
        "Ġdirector",
        -9.86101829617958
      ],
      [
        "Ġchapter",
        -9.862474244196251
      ],
      [
        "Ġmachine",
        -9.862541413781717
      ],
      [
        "ĠArmy",
        -9.862814288896676
      ],
      [
        "ĠMedical",
        -9.863194887261743
      ],
      [
        "Ġgiving",
        -9.863550594609032
      ],
      [
        "ĠMar",
        -9.863597656977614
      ],
      [
        "Ġconservation",
        -9.863886793628373
      ],
      [
        "ĠHa",
        -9.864077447628016
      ],
      [
        "Ġplanning",
        -9.865296323102925
      ],
      [
        "Ġremove",
        -9.865451382865778
      ],
      [
        "Ġtarget",
        -9.86547753773037
      ],
      [
        "Ġfoot",
        -9.86729658931456
      ],
      [
        "Ġproper",
        -9.867725275075976
      ],
      [
        "Ġperform",
        -9.868091811108968
      ],
      [
        "ĠChildren",
        -9.868310228315028
      ],
      [
        "Ġoperations",
        -9.8691767512612
      ],
      [
        "Ġplease",
        -9.869508239613094
      ],
      [
        "can",
        -9.869678904488902
      ],
      [
        "Ġpopulations",
        -9.869832253184429
      ],
      [
        "Ġwrong",
        -9.870348795819936
      ],
      [
        "From",
        -9.870651426722253
      ],
      [
        "Ġocean",
        -9.87121763783154
      ],
      [
        "Ġalternative",
        -9.871995470037056
      ],
      [
        "Ġpass",
        -9.87241506458787
      ],
      [
        "@",
        -9.872706169130886
      ],
      [
        "moved",
        -9.873116743182974
      ],
      [
        "Ġbottom",
        -9.873893203381998
      ],
      [
        "Ġclearly",
        -9.87390918199774
      ],
      [
        "Ġpeace",
        -9.87406518335145
      ],
      [
        "Ġcorrect",
        -9.874891754599124
      ],
      [
        "Ġsignal",
        -9.874907885131444
      ],
      [
        "Ġradio",
        -9.875225423209551
      ],
      [
        "Ġopinion",
        -9.875573444861072
      ],
      [
        "her",
        -9.87577720871206
      ],
      [
        "Ġslow",
        -9.875894195879994
      ],
      [
        "Ġlearned",
        -9.876110260506518
      ],
      [
        "Ġeveryone",
        -9.876836711039768
      ],
      [
        "Ġsort",
        -9.877686284418315
      ],
      [
        "ĠNow",
        -9.87872619659158
      ],
      [
        "Ġmilk",
        -9.879072534523504
      ],
      [
        "Ġseek",
        -9.88001154560387
      ],
      [
        "Ġfunctions",
        -9.881172121449604
      ],
      [
        "24",
        -9.882329390866031
      ],
      [
        "Ġliterature",
        -9.88325443191484
      ],
      [
        "Ġadult",
        -9.883422805488832
      ],
      [
        "ĠSpanish",
        -9.883654030279155
      ],
      [
        "ĠDevelopment",
        -9.884264860882393
      ],
      [
        "Ġbone",
        -9.884272455570516
      ],
      [
        "Ġcreation",
        -9.884760975094013
      ],
      [
        "Ġforward",
        -9.88545396280436
      ],
      [
        "Ġbalance",
        -9.885923482685586
      ],
      [
        "Ġ1999",
        -9.886220947351
      ],
      [
        "Ġwood",
        -9.887066582336848
      ],
      [
        "ĠPublic",
        -9.887104891246077
      ],
      [
        "Ġorigin",
        -9.887327516331377
      ],
      [
        "Ġ27",
        -9.887437768757458
      ],
      [
        "Ġproposed",
        -9.88809637507716
      ],
      [
        "Ġinternal",
        -9.888244775415464
      ],
      [
        "Ġcredit",
        -9.888427660736124
      ],
      [
        "Ġtechnologies",
        -9.888789675627685
      ],
      [
        "side",
        -9.888831346310129
      ],
      [
        "That",
        -9.8891095640198
      ],
      [
        "Ġcovered",
        -9.889860015607123
      ],
      [
        "ĠSun",
        -9.890011962357164
      ],
      [
        "Ġconsumption",
        -9.890056330653518
      ],
      [
        "Ġevolution",
        -9.891374547029296
      ],
      [
        "Ġdigital",
        -9.891780919199253
      ],
      [
        "Ġfine",
        -9.892888406817312
      ],
      [
        "Ġfrequently",
        -9.892912644266694
      ],
      [
        "served",
        -9.89293949017554
      ],
      [
        "Ġcontrast",
        -9.893952668646849
      ],
      [
        "Ġwidely",
        -9.89413600599464
      ],
      [
        "Ġvision",
        -9.894263269496088
      ],
      [
        "ĠMa",
        -9.894282429026251
      ],
      [
        "supported",
        -9.895048811272323
      ],
      [
        "Ġfields",
        -9.895654824636445
      ],
      [
        "Ġgold",
        -9.89616868949112
      ],
      [
        "Ġcharge",
        -9.8963056704115
      ],
      [
        "Ġmouth",
        -9.89635318669372
      ],
      [
        "Ġsigns",
        -9.897242333093985
      ],
      [
        "related",
        -9.89777126076928
      ],
      [
        "Ġdisplay",
        -9.897852855970095
      ],
      [
        "with",
        -9.89893172283099
      ],
      [
        "New",
        -9.899880871216746
      ],
      [
        "Ġreduction",
        -9.899926332359716
      ],
      [
        "ĠEnergy",
        -9.899956234145227
      ],
      [
        "ĠThomas",
        -9.900858764141422
      ],
      [
        "ĠLibrary",
        -9.902154525759563
      ],
      [
        "Ġremained",
        -9.902191202112704
      ],
      [
        "Ġoffers",
        -9.90333536403448
      ],
      [
        "Ġgain",
        -9.903406536140158
      ],
      [
        "ĠMan",
        -9.903475108070426
      ],
      [
        "Ġreached",
        -9.903782691134545
      ],
      [
        "Ġelectricity",
        -9.903886512604227
      ],
      [
        "Ġisland",
        -9.90456979395398
      ],
      [
        "Ġperformed",
        -9.90510069290988
      ],
      [
        "ĠHigh",
        -9.905389356090158
      ],
      [
        "Ġresistance",
        -9.90548934357369
      ],
      [
        "Ġhousehold",
        -9.905796397255058
      ],
      [
        "referred",
        -9.906036714548396
      ],
      [
        "Ġextremely",
        -9.906211934859208
      ],
      [
        "Ġhelps",
        -9.908479861009658
      ],
      [
        "Ġexamples",
        -9.908663404488822
      ],
      [
        "Ġtruth",
        -9.908918513204648
      ],
      [
        "Ġbattle",
        -9.909422093133982
      ],
      [
        "Ġincreases",
        -9.909544074295797
      ],
      [
        "Ġactions",
        -9.910126496113255
      ],
      [
        "Ġapply",
        -9.910187695800554
      ],
      [
        "Ġindustrial",
        -9.911050448408789
      ],
      [
        "Ġdegrees",
        -9.911796830902077
      ],
      [
        "Ġfailure",
        -9.911966649329871
      ],
      [
        "ĠWhite",
        -9.912227597672793
      ],
      [
        "Ġinitial",
        -9.913291890490846
      ],
      [
        "Ġsend",
        -9.913820865558751
      ],
      [
        "Ġurban",
        -9.914433580931805
      ],
      [
        "Ġnumerous",
        -9.91461327798424
      ],
      [
        "Ġmessage",
        -9.914776553940204
      ],
      [
        "Ġremember",
        -9.915124473834029
      ],
      [
        "Ġtask",
        -9.915325461616897
      ],
      [
        "ĠOur",
        -9.91590749699461
      ],
      [
        "ĠCon",
        -9.915975159488331
      ],
      [
        "Ġauthority",
        -9.916261702441949
      ],
      [
        "Ġchallenge",
        -9.916293655444118
      ],
      [
        "Ġwarm",
        -9.916716260621516
      ],
      [
        "Ġgenes",
        -9.917241831155518
      ],
      [
        "ĠPacific",
        -9.917922862877328
      ],
      [
        "ĠAir",
        -9.91837042195634
      ],
      [
        "ĠInformation",
        -9.918459909225453
      ],
      [
        "Ġstem",
        -9.92012974349596
      ],
      [
        "Ġorganic",
        -9.92036974080868
      ],
      [
        "ĠRa",
        -9.920606028245322
      ],
      [
        "Ġarmy",
        -9.920849252633586
      ],
      [
        "ĠCan",
        -9.920946528040515
      ],
      [
        "Ġhuge",
        -9.921382631566155
      ],
      [
        "Although",
        -9.921443667258425
      ],
      [
        "Ġcoast",
        -9.923168814534556
      ],
      [
        "22",
        -9.923433482976732
      ],
      [
        "izing",
        -9.923434895409727
      ],
      [
        "Ġdetermined",
        -9.924295854836744
      ],
      [
        "Ġchief",
        -9.9255417253356
      ],
      [
        "Ġrequirements",
        -9.92615254361367
      ],
      [
        "Ġmanner",
        -9.926392259268765
      ],
      [
        "They",
        -9.926854377558014
      ],
      [
        "Ġstrength",
        -9.92693078758672
      ],
      [
        "Ġhair",
        -9.927941496056617
      ],
      [
        "Ġstructures",
        -9.928702683086106
      ],
      [
        "Ġcontribute",
        -9.929337649173714
      ],
      [
        "Ġoccurred",
        -9.930094704678073
      ],
      [
        "Ġbroad",
        -9.930344423149185
      ],
      [
        "Ġrefer",
        -9.931090366024304
      ],
      [
        "ĠAsia",
        -9.932462084883609
      ],
      [
        "ĠLaw",
        -9.93285727755828
      ],
      [
        "Ġunits",
        -9.932973009190857
      ],
      [
        "Ġstatement",
        -9.933112537934056
      ],
      [
        "Ġspeech",
        -9.933168785124588
      ],
      [
        "kept",
        -9.93376258011807
      ],
      [
        "21",
        -9.93395249101012
      ],
      [
        "Ġimmune",
        -9.934208383092448
      ],
      [
        "Ġcomponents",
        -9.935506041987468
      ],
      [
        "No",
        -9.936530504730104
      ],
      [
        "more",
        -9.93780830774199
      ],
      [
        "Ġbodies",
        -9.938728831999672
      ],
      [
        "ĠSystem",
        -9.938750135594573
      ],
      [
        "Ġoperation",
        -9.93888725220777
      ],
      [
        "Ġwest",
        -9.93923078822612
      ],
      [
        "Ġprior",
        -9.93966681760904
      ],
      [
        "Ġadvance",
        -9.94045238465764
      ],
      [
        "Using",
        -9.940912697788942
      ],
      [
        "Ġfinding",
        -9.94096270285573
      ],
      [
        "Ġsignificantly",
        -9.941644765843842
      ],
      [
        "ex",
        -9.94178196525034
      ],
      [
        "01",
        -9.94228591220344
      ],
      [
        "ĠOffice",
        -9.942600111354173
      ],
      [
        "Ġdiscuss",
        -9.9430503303185
      ],
      [
        "Ġpolicies",
        -9.944085333113652
      ],
      [
        "not",
        -9.944192125397036
      ],
      [
        "Ġsteps",
        -9.94421394517506
      ],
      [
        "ĠCatholic",
        -9.944466606301704
      ],
      [
        "Ġfight",
        -9.944722552397517
      ],
      [
        "ĠRed",
        -9.944940488483187
      ],
      [
        "Ġtemperatures",
        -9.946761587055558
      ],
      [
        "Ġnotes",
        -9.94678517893809
      ],
      [
        "Ġvote",
        -9.94713062170216
      ],
      [
        "Ġencourage",
        -9.947293934615844
      ],
      [
        "Ġdraw",
        -9.947434557521618
      ],
      [
        "Ġcent",
        -9.948214910969716
      ],
      [
        "Ġcitizens",
        -9.948682642745313
      ],
      [
        "ĠUn",
        -9.949669161676274
      ],
      [
        "Ġmetal",
        -9.950908511046194
      ],
      [
        "ĠFoundation",
        -9.95151831198129
      ],
      [
        "ĠVirginia",
        -9.951740817483527
      ],
      [
        "Ġdie",
        -9.952286668019914
      ],
      [
        "Ġconcern",
        -9.95251891887432
      ],
      [
        "Ġachieve",
        -9.952639098180851
      ],
      [
        "Ġreflect",
        -9.95274691838451
      ],
      [
        "Ġarticles",
        -9.952810951506526
      ],
      [
        "Ġsexual",
        -9.953331181530368
      ],
      [
        "Ġindicate",
        -9.953821867352216
      ],
      [
        "Ġbill",
        -9.953839717034487
      ],
      [
        "Ġitems",
        -9.954334289724097
      ],
      [
        "Ġresulting",
        -9.955137610528164
      ],
      [
        "Ġcycle",
        -9.955645694583197
      ],
      [
        "removed",
        -9.955700450822908
      ],
      [
        "Ġfirm",
        -9.956385337522928
      ],
      [
        "Ġrelative",
        -9.956987220561324
      ],
      [
        "Ġsurgery",
        -9.95764001297233
      ],
      [
        "water",
        -9.957784825678628
      ],
      [
        "Ġ80",
        -9.957808279869782
      ],
      [
        "ĠMy",
        -9.959066186984469
      ],
      [
        "Ġassessment",
        -9.959086799752054
      ],
      [
        "Ġwall",
        -9.960381355080404
      ],
      [
        "our",
        -9.960876212561256
      ],
      [
        "Ġspent",
        -9.961270760068649
      ],
      [
        "40",
        -9.96224236053954
      ],
      [
        "Ġextra",
        -9.96244872147612
      ],
      [
        "Ġfeed",
        -9.962889457733208
      ],
      [
        "Ġpages",
        -9.96407216526502
      ],
      [
        "Ġconflict",
        -9.964840395040746
      ],
      [
        "Ġenjoy",
        -9.96487032606171
      ],
      [
        "Ġvoice",
        -9.966115906303214
      ],
      [
        "Many",
        -9.966603608663725
      ],
      [
        "Ġ1998",
        -9.968726385720885
      ],
      [
        "Ġbuildings",
        -9.968867011165155
      ],
      [
        "Ġextensive",
        -9.969227815934794
      ],
      [
        "Ġpreviously",
        -9.969420396853138
      ],
      [
        "Ġviolence",
        -9.970039413548644
      ],
      [
        "American",
        -9.970337955905586
      ],
      [
        "Ġhappen",
        -9.970709914348353
      ],
      [
        "returned",
        -9.971218832078366
      ],
      [
        "Ġmeat",
        -9.972498592042022
      ],
      [
        "Ġdebate",
        -9.972771067816256
      ],
      [
        "Ġoxygen",
        -9.97290207941751
      ],
      [
        "Ġsex",
        -9.973541113405773
      ],
      [
        "Ġhear",
        -9.973713224482816
      ],
      [
        "Ġexpect",
        -9.974009917241188
      ],
      [
        "Ġeast",
        -9.974273856833731
      ],
      [
        "Ġofficials",
        -9.974495174476171
      ],
      [
        "Ġopportunities",
        -9.975525065492471
      ],
      [
        "Other",
        -9.97554706188745
      ],
      [
        "Ġhelped",
        -9.976972481730911
      ],
      [
        "Â©",
        -9.976989696910422
      ],
      [
        "Ġexplore",
        -9.977290468190654
      ],
      [
        "Ġmotion",
        -9.977905085936303
      ],
      [
        "ĠLake",
        -9.978630682815906
      ],
      [
        "Ġbecoming",
        -9.97865562858106
      ],
      [
        "looked",
        -9.98248699813059
      ],
      [
        "Ġhost",
        -9.98268867649892
      ],
      [
        "Ġrepresent",
        -9.98279203802729
      ],
      [
        "Most",
        -9.982856015510254
      ],
      [
        "Ġhour",
        -9.983074719034072
      ],
      [
        "Ġfaith",
        -9.9835482295255
      ],
      [
        "Ġoutput",
        -9.984216327180174
      ],
      [
        "ham",
        -9.98474939160335
      ],
      [
        "ĠLatin",
        -9.98482763405956
      ],
      [
        "Ġprinciples",
        -9.985374992470389
      ],
      [
        "Ġstrategies",
        -9.985832377643105
      ],
      [
        "ĠBritain",
        -9.986170938795778
      ],
      [
        "Ġboard",
        -9.986373086212366
      ],
      [
        "Ġcharacteristics",
        -9.986450139310373
      ],
      [
        "ĠCentral",
        -9.986575893122186
      ],
      [
        "Ġpersons",
        -9.98685549219333
      ],
      [
        "ger",
        -9.987002138447734
      ],
      [
        "Ġexistence",
        -9.987436455902508
      ],
      [
        "ĠCivil",
        -9.98782436835567
      ],
      [
        "Ġfit",
        -9.987845844487616
      ],
      [
        "Ġclasses",
        -9.987881004049102
      ],
      [
        "Ġwanted",
        -9.988377853675066
      ],
      [
        "ium",
        -9.98869821296955
      ],
      [
        "Ġacademic",
        -9.988907133061367
      ],
      [
        "Ġauthors",
        -9.98943807900756
      ],
      [
        "Ġsurrounding",
        -9.989667513902791
      ],
      [
        "ĠEl",
        -9.989702052136192
      ],
      [
        "Ġalcohol",
        -9.9898650688381
      ],
      [
        "ray",
        -9.99010788947811
      ],
      [
        "Ġdog",
        -9.991001231769358
      ],
      [
        "Ġstand",
        -9.991824041610275
      ],
      [
        "Ġwestern",
        -9.993388213734669
      ],
      [
        "Ġiron",
        -9.993628622880044
      ],
      [
        "Ġmoral",
        -9.994096204711614
      ],
      [
        "Ġexpression",
        -9.9941841233913
      ],
      [
        "Ġinstitutions",
        -9.994572884485985
      ],
      [
        "Ġaspects",
        -9.994904418814546
      ],
      [
        "Ġintended",
        -9.994910162865295
      ],
      [
        "Ġliquid",
        -9.995276066413377
      ],
      [
        "Ġconnection",
        -9.996481014826417
      ],
      [
        "ĠNa",
        -9.996848128269344
      ],
      [
        "500",
        -9.997183302062917
      ],
      [
        "Ġextent",
        -9.998095242892251
      ],
      [
        "Ġenable",
        -9.998457101907489
      ],
      [
        "ĠCa",
        -9.998488798958626
      ],
      [
        "Ġbackground",
        -9.999461424164098
      ],
      [
        "Ġdescribe",
        -9.999607063308805
      ],
      [
        "Ġsolid",
        -9.99982731844329
      ],
      [
        "Ġkm",
        -10.00038731665891
      ],
      [
        "con",
        -10.000704413063788
      ],
      [
        "ĠSe",
        -10.001210803175002
      ],
      [
        "Ġvaccine",
        -10.001311677111566
      ],
      [
        "ĠZ",
        -10.002379904994775
      ],
      [
        "Ġraise",
        -10.002646074310968
      ],
      [
        "Ġsaying",
        -10.002773001970995
      ],
      [
        "Ġcompleted",
        -10.00314077834646
      ],
      [
        "Ġdecided",
        -10.0032364547188
      ],
      [
        "More",
        -10.004630619636028
      ],
      [
        "Ġadvanced",
        -10.00493106066224
      ],
      [
        "Ġvisual",
        -10.00506703795131
      ],
      [
        "Ġexposed",
        -10.005268790966452
      ],
      [
        "Ġreality",
        -10.00614835594
      ],
      [
        "Ġhit",
        -10.00634481496732
      ],
      [
        "Ġpair",
        -10.006994652451493
      ],
      [
        "Ġanyone",
        -10.007478341479205
      ],
      [
        "Ġ70",
        -10.007713724957208
      ],
      [
        "Ġhabitat",
        -10.007755198283316
      ],
      [
        "Ġtechnique",
        -10.007791376682809
      ],
      [
        "ĠCharles",
        -10.007956430769662
      ],
      [
        "Ġfarmers",
        -10.00852533199842
      ],
      [
        "Ġcoal",
        -10.009110698351488
      ],
      [
        "ĠBook",
        -10.009437079664549
      ],
      [
        "ĠUK",
        -10.010021428733584
      ],
      [
        "Ġdecline",
        -10.010242934343337
      ],
      [
        "Ġmet",
        -10.010786718977148
      ],
      [
        "Ġforced",
        -10.011843913683784
      ],
      [
        "Ġlargely",
        -10.012642515573017
      ],
      [
        "Ġheard",
        -10.013354612989556
      ],
      [
        "Ġ90",
        -10.01367377243391
      ],
      [
        "Ġrecommended",
        -10.014530544386425
      ],
      [
        "Ġexperiment",
        -10.016182482702916
      ],
      [
        "ĠUN",
        -10.016327143368658
      ],
      [
        "ĠBay",
        -10.017396070193485
      ],
      [
        "Ġexcept",
        -10.01743636651974
      ],
      [
        "Ġ29",
        -10.017497741132663
      ],
      [
        "Ġsetting",
        -10.01766656978105
      ],
      [
        "ĠGreen",
        -10.018872512310288
      ],
      [
        "ĠHer",
        -10.01896760074864
      ],
      [
        "Ġprimarily",
        -10.01903071925351
      ],
      [
        "Ġlimit",
        -10.019581732215007
      ],
      [
        "Ġtechnical",
        -10.019649372816373
      ],
      [
        "Ġbird",
        -10.019770138354344
      ],
      [
        "Ġobvious",
        -10.020338785887589
      ],
      [
        "Ġchanging",
        -10.021096745600692
      ],
      [
        "Ġabuse",
        -10.022360421304157
      ],
      [
        "Ġmis",
        -10.022396297023583
      ],
      [
        "Ġemail",
        -10.023105030624516
      ],
      [
        "Ġfeature",
        -10.023192416048728
      ],
      [
        "Ġinterested",
        -10.02434664145531
      ],
      [
        "Ġfresh",
        -10.025790336296568
      ],
      [
        "appeared",
        -10.026408551105128
      ],
      [
        "Ġstation",
        -10.027016590772355
      ],
      [
        "ĠLife",
        -10.027058299403675
      ],
      [
        "exactly",
        -10.02713381917955
      ],
      [
        "Ġdisorders",
        -10.028550219242652
      ],
      [
        "Ġ200",
        -10.02914138165194
      ],
      [
        "Ġdepression",
        -10.029652459389776
      ],
      [
        "Ġextreme",
        -10.030538723819031
      ],
      [
        "ĠEnvironmental",
        -10.031687480484608
      ],
      [
        "Ġstars",
        -10.03208164121291
      ],
      [
        "field",
        -10.034192246297252
      ],
      [
        "Ġrecorded",
        -10.034254732434231
      ],
      [
        "ĠCommission",
        -10.034443551998644
      ],
      [
        "Ġdefinition",
        -10.034926619543471
      ],
      [
        "Ġagricultural",
        -10.03557008719755
      ],
      [
        "Ġstarting",
        -10.037651562711485
      ],
      [
        "ize",
        -10.037868189424692
      ],
      [
        "ide",
        -10.038971188722194
      ],
      [
        "wood",
        -10.03989198504986
      ],
      [
        "Ġwife",
        -10.04019374845417
      ],
      [
        "Ġbiological",
        -10.04035523558524
      ],
      [
        "Ġexchange",
        -10.040393742917129
      ],
      [
        "23",
        -10.040646876967552
      ],
      [
        "Ġfinally",
        -10.04086859927608
      ],
      [
        "Ġmuscle",
        -10.041340531144886
      ],
      [
        "Ġcore",
        -10.041617028261806
      ],
      [
        "100",
        -10.04180178697782
      ],
      [
        "Ġoffered",
        -10.042165494493403
      ],
      [
        "Ġcouple",
        -10.043369730698444
      ],
      [
        "Ġtransfer",
        -10.043452141947192
      ],
      [
        "Ġaim",
        -10.043735187421628
      ],
      [
        "Ġengineering",
        -10.044020108329525
      ],
      [
        "ĠMo",
        -10.044036246324866
      ],
      [
        "Ġstorage",
        -10.0441511174935
      ],
      [
        "Ġheight",
        -10.044257558217952
      ],
      [
        "Ġdomestic",
        -10.044748991512774
      ],
      [
        "Ġyield",
        -10.04475548562432
      ],
      [
        "Ġteach",
        -10.045034286998431
      ],
      [
        "Ġformation",
        -10.045112680234116
      ],
      [
        "Ġdecrease",
        -10.045947447522028
      ],
      [
        "ĠSoviet",
        -10.0463281523203
      ],
      [
        "Ġ1997",
        -10.04658047450973
      ],
      [
        "ĠGroup",
        -10.046765091245362
      ],
      [
        "Ġcausing",
        -10.047226872389157
      ],
      [
        "Ġfacilities",
        -10.0474530804865
      ],
      [
        "Ġbrief",
        -10.04779952972873
      ],
      [
        "thousands",
        -10.04805957531009
      ],
      [
        "Ġlinks",
        -10.048201436079802
      ],
      [
        "Ġnote",
        -10.049052645969295
      ],
      [
        "Ġobtain",
        -10.04976750119928
      ],
      [
        "Ġdepartment",
        -10.050598138916442
      ],
      [
        "Ġadvantage",
        -10.051645785791486
      ],
      [
        "Ġdecisions",
        -10.05222602820769
      ],
      [
        "ĠGo",
        -10.053938457360683
      ],
      [
        "Ġraised",
        -10.054926038619008
      ],
      [
        "Ġcombined",
        -10.055018860259668
      ],
      [
        "Ġmicro",
        -10.05569136356018
      ],
      [
        "Ġdouble",
        -10.055876902481383
      ],
      [
        "Ġregarding",
        -10.056104157104594
      ],
      [
        "Ġreaction",
        -10.056878513244696
      ],
      [
        "Ġroot",
        -10.057441682419888
      ],
      [
        "Ġround",
        -10.05861276784658
      ],
      [
        "Ġideal",
        -10.060401957745476
      ],
      [
        "Ġgreatest",
        -10.06099902807412
      ],
      [
        "ĠTechnology",
        -10.061111747922922
      ],
      [
        "ĠCO",
        -10.061185140668666
      ],
      [
        "Ġcenturies",
        -10.06214577742968
      ],
      [
        "Ġcareer",
        -10.062917793670136
      ],
      [
        "Ġcamera",
        -10.063684641772369
      ],
      [
        "divided",
        -10.06368844091335
      ],
      [
        "Ġleader",
        -10.064091040179928
      ],
      [
        "Ġtrack",
        -10.065720820421932
      ],
      [
        "Ġship",
        -10.065899608189538
      ],
      [
        "Ġnations",
        -10.065934056080154
      ],
      [
        "Ġexperts",
        -10.066578841491312
      ],
      [
        "Ġpurposes",
        -10.066585756954431
      ],
      [
        "Ġpolice",
        -10.066823474451835
      ],
      [
        "but",
        -10.066830171607466
      ],
      [
        "ĠCommittee",
        -10.067917627504304
      ],
      [
        "Ġprocedure",
        -10.068403397091592
      ],
      [
        "Ġrequest",
        -10.06874057370275
      ],
      [
        "from",
        -10.0693821182504
      ],
      [
        "ĠFlorida",
        -10.069426643680112
      ],
      [
        "Ġparticipants",
        -10.069429089375465
      ],
      [
        "ĠFederal",
        -10.069738503266418
      ],
      [
        "Ġsuggested",
        -10.070051408684964
      ],
      [
        "Ġdetailed",
        -10.072020332665677
      ],
      [
        "Ġpollution",
        -10.072083542012654
      ],
      [
        "han",
        -10.073014485895808
      ],
      [
        "les",
        -10.074609384936585
      ],
      [
        "ĠMiddle",
        -10.075017300412629
      ],
      [
        "Ġyourself",
        -10.075103141589944
      ],
      [
        "ĠCompany",
        -10.076042897615256
      ],
      [
        "Ġagencies",
        -10.076651802753505
      ],
      [
        "Ġgoals",
        -10.077863221858989
      ],
      [
        "Ġdose",
        -10.078250294308477
      ],
      [
        "Ġtrial",
        -10.078493573238372
      ],
      [
        "ĠArt",
        -10.078588109930736
      ],
      [
        "Dr",
        -10.078859679801877
      ],
      [
        "ship",
        -10.078871177627615
      ],
      [
        "Ġjoint",
        -10.079371354002204
      ],
      [
        "Ġparticles",
        -10.079641957439993
      ],
      [
        "Ġmentioned",
        -10.080675955810692
      ],
      [
        "Ġready",
        -10.080813007781789
      ],
      [
        "Ġpractical",
        -10.081186975389963
      ],
      [
        "Ġgrade",
        -10.081989468656216
      ],
      [
        "Ġwarming",
        -10.08207248325872
      ],
      [
        "Ġimproved",
        -10.0821790407676
      ],
      [
        "Ġoperating",
        -10.082426799020208
      ],
      [
        "Now",
        -10.08256932067722
      ],
      [
        "Ġflu",
        -10.082727741012516
      ],
      [
        "Ġfundamental",
        -10.083942747941746
      ],
      [
        "Ġconcerns",
        -10.084068067212373
      ],
      [
        "Ġtradition",
        -10.084265717526796
      ],
      [
        "Ġvast",
        -10.084348187475465
      ],
      [
        "Ġreducing",
        -10.084380546533197
      ],
      [
        "ĠDon",
        -10.08460830231336
      ],
      [
        "Ġbio",
        -10.085346195336417
      ],
      [
        "Ġchallenges",
        -10.08568283929546
      ],
      [
        "Ġoptions",
        -10.086091415380745
      ],
      [
        "Ġotherwise",
        -10.087165793056142
      ],
      [
        "Ġconnected",
        -10.087953563380834
      ],
      [
        "Ġillness",
        -10.088056349041327
      ],
      [
        "Ġdangerous",
        -10.088068756884493
      ],
      [
        "Ġcollected",
        -10.08897005065966
      ],
      [
        "Ġkill",
        -10.089040000424603
      ],
      [
        "ĠOld",
        -10.089834669768576
      ],
      [
        "Ġhospital",
        -10.091456535068856
      ],
      [
        "Ġmorning",
        -10.092059110120996
      ],
      [
        "ĠFood",
        -10.09247450140606
      ],
      [
        "Ġ31",
        -10.092578612252604
      ],
      [
        "Ġglass",
        -10.093231222755293
      ],
      [
        "ĠCanadian",
        -10.093394813121211
      ],
      [
        "Ġprices",
        -10.09377403577604
      ],
      [
        "played",
        -10.09453522843398
      ],
      [
        "Ġjournal",
        -10.095346910703498
      ],
      [
        "Ġcrime",
        -10.096272297268785
      ],
      [
        "Ġplastic",
        -10.096380743145051
      ],
      [
        "Ġtopic",
        -10.097311022381676
      ],
      [
        "Ġlibrary",
        -10.097420869533174
      ],
      [
        "ĠSocial",
        -10.09785640372085
      ],
      [
        "Ġconstant",
        -10.09862004146925
      ],
      [
        "Ġprepared",
        -10.09925160384302
      ],
      [
        "Ġrecognize",
        -10.10042616942084
      ],
      [
        "Ġfrequency",
        -10.100563459072196
      ],
      [
        "Ġdiagnosis",
        -10.100865164905583
      ],
      [
        "easier",
        -10.10104089500008
      ],
      [
        "Ġchronic",
        -10.10108307667156
      ],
      [
        "Ġlose",
        -10.10185472217671
      ],
      [
        "ĠHenry",
        -10.101856263557696
      ],
      [
        "Ġinfections",
        -10.102474845893404
      ],
      [
        "Ġstudied",
        -10.102537558028798
      ],
      [
        "Ġuniverse",
        -10.10264302642537
      ],
      [
        "Ġspirit",
        -10.103209078259924
      ],
      [
        "Ġprinciple",
        -10.103581260417457
      ],
      [
        "Therefore",
        -10.105158430735084
      ],
      [
        "Ġmarriage",
        -10.105299030493429
      ],
      [
        "Ġsnow",
        -10.105356099513116
      ],
      [
        "ĠWhy",
        -10.105475039145231
      ],
      [
        "Ġ1980",
        -10.106060323635376
      ],
      [
        "ĠNews",
        -10.106699310762831
      ],
      [
        "Ġelement",
        -10.107036597188875
      ],
      [
        "Ġlinked",
        -10.107151937706728
      ],
      [
        "ĠBible",
        -10.108561706273557
      ],
      [
        "Ġrecognized",
        -10.109156617476843
      ],
      [
        "Ġsamples",
        -10.109213285817788
      ],
      [
        "05",
        -10.109420997989885
      ],
      [
        "ĠCar",
        -10.10975160517927
      ],
      [
        "Ġdatabase",
        -10.110479909435233
      ],
      [
        "Ġwalk",
        -10.111143013583236
      ],
      [
        "ard",
        -10.111200478162653
      ],
      [
        "Ġagree",
        -10.111520609789666
      ],
      [
        "Ġemergency",
        -10.112559501293529
      ],
      [
        "27",
        -10.11297763799585
      ],
      [
        "Ġrecommend",
        -10.113825617069566
      ],
      [
        "26",
        -10.114760676625384
      ],
      [
        "ĠMary",
        -10.115390047205228
      ],
      [
        "ĠRussian",
        -10.115829253211574
      ],
      [
        "ĠRights",
        -10.116062891621786
      ],
      [
        "However",
        -10.116149795559137
      ],
      [
        "Ġstruggle",
        -10.116546977834505
      ],
      [
        "Ġgarden",
        -10.116736049257703
      ],
      [
        "ĠDi",
        -10.11828460648516
      ],
      [
        "Ġconclusion",
        -10.118321115148015
      ],
      [
        "uk",
        -10.118682962883067
      ],
      [
        "Ġexternal",
        -10.119733512971989
      ],
      [
        "Ġelectrical",
        -10.11979031174994
      ],
      [
        "Ġyouth",
        -10.120337344558784
      ],
      [
        "use",
        -10.120835281769
      ],
      [
        "Ġobtained",
        -10.120940546771696
      ],
      [
        "Ġ1996",
        -10.12125220129911
      ],
      [
        "mon",
        -10.121474262075388
      ],
      [
        "ster",
        -10.121808658474931
      ],
      [
        "Ġpainting",
        -10.122003472158283
      ],
      [
        "ĠTwo",
        -10.12223825515396
      ],
      [
        "Ġmoon",
        -10.122365744307931
      ],
      [
        "ĠControl",
        -10.122502119601192
      ],
      [
        "Ġdiscovery",
        -10.12261763543483
      ],
      [
        "Ġregional",
        -10.123282739050335
      ],
      [
        "Ġfarm",
        -10.124566982907403
      ],
      [
        "Ġformat",
        -10.124571211898894
      ],
      [
        "Ġspend",
        -10.124815196486862
      ],
      [
        "29",
        -10.124909942481787
      ],
      [
        "Ġvitamin",
        -10.125226376575528
      ],
      [
        "Ġcontaining",
        -10.12564349050869
      ],
      [
        "Ġyellow",
        -10.125831175230244
      ],
      [
        "Ġchemicals",
        -10.126015192404896
      ],
      [
        "Ġperfect",
        -10.126039371125731
      ],
      [
        "Ġlatter",
        -10.126043625553002
      ],
      [
        "Ġflight",
        -10.12649639367504
      ],
      [
        "Ġcontinues",
        -10.126501910141709
      ],
      [
        "Ġmeasured",
        -10.126581859516588
      ],
      [
        "Ġamounts",
        -10.127533130995786
      ],
      [
        "capable",
        -10.127921565478928
      ],
      [
        "Ġsalt",
        -10.12850617629206
      ],
      [
        "Ġfelt",
        -10.129237563589337
      ],
      [
        "Ġworth",
        -10.1293340826182
      ],
      [
        "Ġsyndrome",
        -10.129913429462084
      ],
      [
        "Ġeggs",
        -10.13006684136773
      ],
      [
        "Ġrapidly",
        -10.131097492869406
      ],
      [
        "ĠNe",
        -10.132607299080636
      ],
      [
        "ĠPeter",
        -10.133427699311095
      ],
      [
        "28",
        -10.134104379683214
      ],
      [
        "Ġdocuments",
        -10.134220993203828
      ],
      [
        "Ġstock",
        -10.134221000523986
      ],
      [
        "ĠMars",
        -10.135186357722445
      ],
      [
        "tried",
        -10.135726426031884
      ],
      [
        "Ġengine",
        -10.135961687234534
      ],
      [
        "Ġpoverty",
        -10.1372948553008
      ],
      [
        "Ġargument",
        -10.13773208380696
      ],
      [
        "Ġbox",
        -10.137818350845029
      ],
      [
        "Ġefficiency",
        -10.13831424346163
      ],
      [
        "Ġbegins",
        -10.138448205238204
      ],
      [
        "Ġdrinking",
        -10.138786366176468
      ],
      [
        "ĠSmith",
        -10.138870210443502
      ],
      [
        "Ġaware",
        -10.138893586586246
      ],
      [
        "Ġinjury",
        -10.139290835634691
      ],
      [
        "Ġdistrict",
        -10.140052044640704
      ],
      [
        "Ġbuy",
        -10.140520017923254
      ],
      [
        "Ġ1995",
        -10.140774088209826
      ],
      [
        "listed",
        -10.14233950205026
      ],
      [
        "Note",
        -10.142566452685733
      ],
      [
        "Our",
        -10.143221840922497
      ],
      [
        "Ġsoldiers",
        -10.143363495618232
      ],
      [
        "Ġhearing",
        -10.143394066322934
      ],
      [
        "Ġconcerned",
        -10.143514610575052
      ],
      [
        "Ġtroops",
        -10.143605655769829
      ],
      [
        "Ġthreat",
        -10.14515636073301
      ],
      [
        "Ġfunding",
        -10.14516937124545
      ],
      [
        "Ġlanguages",
        -10.14526712931165
      ],
      [
        "Ġstone",
        -10.1461661731958
      ],
      [
        "Ġselected",
        -10.146338271019474
      ],
      [
        "Ġexplanation",
        -10.146684260744347
      ],
      [
        "knew",
        -10.148375913107309
      ],
      [
        "Ġslightly",
        -10.150051757518948
      ],
      [
        "wise",
        -10.15013479316745
      ],
      [
        "ĠSuch",
        -10.150354063183638
      ],
      [
        "Ġphoto",
        -10.150388976328117
      ],
      [
        "Ġpress",
        -10.150506339758124
      ],
      [
        "Ġrespond",
        -10.151367761574097
      ],
      [
        "Ġmarine",
        -10.15173156483377
      ],
      [
        "such",
        -10.151950451463458
      ],
      [
        "Ġgenerate",
        -10.15209507170912
      ],
      [
        "Ġmountain",
        -10.152107275374004
      ],
      [
        "ĠJoseph",
        -10.152418590464928
      ],
      [
        "Â·",
        -10.152563119449525
      ],
      [
        "Ġletters",
        -10.153412582574544
      ],
      [
        "gen",
        -10.153460692751194
      ],
      [
        "unless",
        -10.154061425451532
      ],
      [
        "Here",
        -10.154348815538397
      ],
      [
        "Ġtaught",
        -10.154765816274788
      ],
      [
        "focused",
        -10.155047288185765
      ],
      [
        "Ġselection",
        -10.156356108607046
      ],
      [
        "ĠWomen",
        -10.156885177156203
      ],
      [
        "Ġcamp",
        -10.156921440185693
      ],
      [
        "opened",
        -10.157805342151088
      ],
      [
        "ĠNature",
        -10.158632655826302
      ],
      [
        "Ġclosely",
        -10.158706691016183
      ],
      [
        "Ġresponsibility",
        -10.15878371376235
      ],
      [
        "derived",
        -10.1588211316557
      ],
      [
        "Ġdefine",
        -10.159119437897234
      ],
      [
        "Ġrural",
        -10.15925934367883
      ],
      [
        "Ġclick",
        -10.159386817497294
      ],
      [
        "Ġfun",
        -10.160245476082489
      ],
      [
        "Ġpassage",
        -10.16108679169312
      ],
      [
        "Ġsequence",
        -10.162034733845491
      ],
      [
        "ĠInc",
        -10.16271978569008
      ],
      [
        "Ġtypical",
        -10.162768392354868
      ],
      [
        "ĠCarolina",
        -10.165218156394412
      ],
      [
        "inches",
        -10.165602290195284
      ],
      [
        "adopted",
        -10.166877244884166
      ],
      [
        "Ġargue",
        -10.167314951878735
      ],
      [
        "founded",
        -10.167342213807224
      ],
      [
        "Ġcopy",
        -10.167467261460562
      ],
      [
        "Ġex",
        -10.167540913689596
      ],
      [
        "Ġclaims",
        -10.1675581991928
      ],
      [
        "Ġtested",
        -10.167666899598116
      ],
      [
        "Ġinvolves",
        -10.168949142657262
      ],
      [
        "Ġoperate",
        -10.16922244693049
      ],
      [
        "Ġexamine",
        -10.169355934392978
      ],
      [
        "Ġpanel",
        -10.169575455320937
      ],
      [
        "ze",
        -10.170488404931142
      ],
      [
        "Ġstrategy",
        -10.170577964253066
      ],
      [
        "Ġexplained",
        -10.17083098638446
      ],
      [
        "ĠSouthern",
        -10.170870519402513
      ],
      [
        "example",
        -10.172238493570015
      ],
      [
        "Ġcomponent",
        -10.172782403783726
      ],
      [
        "Ġpieces",
        -10.173336069349538
      ],
      [
        "Ġcorn",
        -10.173648246572723
      ],
      [
        "Ġdecade",
        -10.174096878710714
      ],
      [
        "mainly",
        -10.17429128355958
      ],
      [
        "Ġnovel",
        -10.174312882045944
      ],
      [
        "Ġappearance",
        -10.175703909697535
      ],
      [
        "Ġfriend",
        -10.176210389695935
      ],
      [
        "certainly",
        -10.17630805310584
      ],
      [
        "02",
        -10.177678089229683
      ],
      [
        "specifically",
        -10.177749665518649
      ],
      [
        "Ġrapid",
        -10.178494484865908
      ],
      [
        "Ġfluid",
        -10.178619388683316
      ],
      [
        "Ġestablish",
        -10.178973652262057
      ],
      [
        "Ġprocessing",
        -10.17907199850059
      ],
      [
        "Ġwave",
        -10.180240962040264
      ],
      [
        "Ġcrops",
        -10.18029388895369
      ],
      [
        "Ġadministration",
        -10.180612016425076
      ],
      [
        "Ġbeautiful",
        -10.18066468477971
      ],
      [
        "ong",
        -10.180846481428942
      ],
      [
        "Ġelectric",
        -10.180933101359685
      ],
      [
        "ended",
        -10.181387214512172
      ],
      [
        "Ġaccept",
        -10.181629389150826
      ],
      [
        "ĠBoth",
        -10.181679977886114
      ],
      [
        "filled",
        -10.1827925041846
      ],
      [
        "Ġrelevant",
        -10.183182429121608
      ],
      [
        "Ġconduct",
        -10.183372901546694
      ],
      [
        "Ġsecret",
        -10.184435371751528
      ],
      [
        "ĠHo",
        -10.18478915047658
      ],
      [
        "Ġexperienced",
        -10.184939079625613
      ],
      [
        "Among",
        -10.185036449856332
      ],
      [
        "Ġaircraft",
        -10.1856548382842
      ],
      [
        "Ġdemonstrate",
        -10.186043542009768
      ],
      [
        "Ġdepend",
        -10.18616572071912
      ],
      [
        "Ġpark",
        -10.18651934864954
      ],
      [
        "Ġfloor",
        -10.187020702596328
      ],
      [
        "ĠStreet",
        -10.18755905884605
      ],
      [
        "Ġedition",
        -10.187569701397218
      ],
      [
        "ĠOver",
        -10.188272691358184
      ],
      [
        "ĠPh",
        -10.188713934287245
      ],
      [
        "Instead",
        -10.18878921594901
      ],
      [
        "ĠFree",
        -10.189574296963952
      ],
      [
        "Ġtransport",
        -10.189598444207167
      ],
      [
        "Ġeffectively",
        -10.189833610254516
      ],
      [
        "Ġkinds",
        -10.19065305522049
      ],
      [
        "long",
        -10.191595426706238
      ],
      [
        "Ġprincipal",
        -10.192218643179812
      ],
      [
        "Ġoriginally",
        -10.192244412100292
      ],
      [
        "Ġfiles",
        -10.192250191559936
      ],
      [
        "Ġhomes",
        -10.192291501701142
      ],
      [
        "09",
        -10.19237691573418
      ],
      [
        "Ġmanage",
        -10.192492318676337
      ],
      [
        "Ġsubjects",
        -10.192958603152029
      ],
      [
        "Ġaccepted",
        -10.193643623636618
      ],
      [
        "ĠEgypt",
        -10.193919227728474
      ],
      [
        "Ġefficient",
        -10.195065465413084
      ],
      [
        "Ġcontrolled",
        -10.195366965793164
      ],
      [
        "Ġvisible",
        -10.195419934985892
      ],
      [
        "Ġlatest",
        -10.195919222303315
      ],
      [
        "Ġdrawing",
        -10.195964572508066
      ],
      [
        "ĠRichard",
        -10.196003799920865
      ],
      [
        "Ġexperiences",
        -10.196714050350792
      ],
      [
        "07",
        -10.196874112918255
      ],
      [
        "keeping",
        -10.19688188501769
      ],
      [
        "Ġmonitoring",
        -10.197327263059126
      ],
      [
        "Ġgames",
        -10.197711882833769
      ],
      [
        "Ġonto",
        -10.197825336423811
      ],
      [
        "chi",
        -10.197847286515607
      ],
      [
        "Ġ1970",
        -10.198108635290057
      ],
      [
        "Ġhappens",
        -10.198189649312344
      ],
      [
        "Ġdespite",
        -10.19833129803854
      ],
      [
        "Ġresidents",
        -10.198341145246395
      ],
      [
        "Ġproperly",
        -10.198636699352006
      ],
      [
        "gov",
        -10.1986910453534
      ],
      [
        "ĠStudies",
        -10.198932373966615
      ],
      [
        "ja",
        -10.200928031273898
      ],
      [
        "ĠPo",
        -10.201907370404555
      ],
      [
        "Ġsurvive",
        -10.202272652548794
      ],
      [
        "Ġscreen",
        -10.20244595321386
      ],
      [
        "depending",
        -10.203096994782852
      ],
      [
        "free",
        -10.203305530737982
      ],
      [
        "Ġsold",
        -10.203851787341582
      ],
      [
        "08",
        -10.204218691613052
      ],
      [
        "ĠOnce",
        -10.20474054132847
      ],
      [
        "ised",
        -10.204758418305095
      ],
      [
        "Despite",
        -10.204990264981316
      ],
      [
        "Ġmotor",
        -10.205129469725126
      ],
      [
        "Ġteeth",
        -10.205226333588222
      ],
      [
        "Ġcount",
        -10.205265152531544
      ],
      [
        "ĠLi",
        -10.20547637032718
      ],
      [
        "ĠStudents",
        -10.205731505321976
      ],
      [
        "Ġshift",
        -10.205951288130183
      ],
      [
        "Ġmassive",
        -10.20604844432165
      ],
      [
        "Ġparent",
        -10.206309666217134
      ],
      [
        "ĠAustralian",
        -10.20678317885021
      ],
      [
        "ĠRussia",
        -10.20696091651279
      ],
      [
        "ure",
        -10.207021012323814
      ],
      [
        "Ġdoubt",
        -10.207248139354872
      ],
      [
        "ĠRome",
        -10.207541740437138
      ],
      [
        "Ġpaid",
        -10.207679362429523
      ],
      [
        "Ġregard",
        -10.208180430423488
      ],
      [
        "ĠAr",
        -10.208459605285826
      ],
      [
        "married",
        -10.20882590088706
      ],
      [
        "Ġcon",
        -10.208969813227451
      ],
      [
        "level",
        -10.20904520736901
      ],
      [
        "ĠHome",
        -10.20979281511096
      ],
      [
        "Ġdesire",
        -10.210276674258036
      ],
      [
        "Ġforests",
        -10.21032407456362
      ],
      [
        "Ġdepth",
        -10.210384322087528
      ],
      [
        "Ġmaximum",
        -10.210802875777118
      ],
      [
        "Ġlaboratory",
        -10.210874223088526
      ],
      [
        "don",
        -10.211831570312242
      ],
      [
        "Ġhappened",
        -10.212139165942324
      ],
      [
        "Ġdetail",
        -10.21269706155286
      ],
      [
        "Ġincreasingly",
        -10.21325453693386
      ],
      [
        "ĠAm",
        -10.21334860150776
      ],
      [
        "Ġha",
        -10.214323335226489
      ],
      [
        "Ġjobs",
        -10.214957544364127
      ],
      [
        "ĠRepublic",
        -10.215108135211011
      ],
      [
        "ĠNatural",
        -10.216169556764289
      ],
      [
        "called",
        -10.216802273091554
      ],
      [
        "Ġopening",
        -10.2173550539315
      ],
      [
        "Ġgirls",
        -10.217479860054794
      ],
      [
        "Ġelectronic",
        -10.217761468220054
      ],
      [
        "ang",
        -10.218498143990397
      ],
      [
        "showing",
        -10.219626651079494
      ],
      [
        "Ġmeant",
        -10.21975816984592
      ],
      [
        "ĠForce",
        -10.219828425385996
      ],
      [
        "Ġvehicle",
        -10.2202932911919
      ],
      [
        "Ġrelationships",
        -10.220701569063294
      ],
      [
        "Ġfollows",
        -10.220996056550456
      ],
      [
        "discussed",
        -10.222562336621335
      ],
      [
        "Ġsector",
        -10.22292581871357
      ],
      [
        "scale",
        -10.223315747299482
      ],
      [
        "Ġentirely",
        -10.223318970555022
      ],
      [
        "ĠLo",
        -10.223844235559524
      ],
      [
        "Ġconcepts",
        -10.22553007735915
      ],
      [
        "Ġindeed",
        -10.22554120787738
      ],
      [
        "ĠReview",
        -10.227064058523412
      ],
      [
        "Ġconsequences",
        -10.227655093898267
      ],
      [
        "Ġcounty",
        -10.228060628122332
      ],
      [
        "ĠProfessor",
        -10.229686697515632
      ],
      [
        "Ġcolleagues",
        -10.229843811607417
      ],
      [
        "ence",
        -10.230987419324164
      ],
      [
        "ĠGuide",
        -10.23112884349131
      ],
      [
        "Ġadvice",
        -10.231215501591944
      ],
      [
        "Ġlay",
        -10.232386642149413
      ],
      [
        "Ġjustice",
        -10.232969508485954
      ],
      [
        "ever",
        -10.233156950070253
      ],
      [
        "Ġstated",
        -10.23347577286937
      ],
      [
        "Ġoption",
        -10.233600350729088
      ],
      [
        "Ġagency",
        -10.233794403001824
      ],
      [
        "ĠReport",
        -10.233824584918908
      ],
      [
        "ĠSecond",
        -10.233940482811589
      ],
      [
        "Ġsustainable",
        -10.234091319857264
      ],
      [
        "Ġvillage",
        -10.234219691062734
      ],
      [
        "Ġagriculture",
        -10.235111390914357
      ],
      [
        "Ġemotional",
        -10.23538811667903
      ],
      [
        "Ġliver",
        -10.23615436982811
      ],
      [
        "Ġnerve",
        -10.236241766312707
      ],
      [
        "Ġprotected",
        -10.236390346404972
      ],
      [
        "Ġleaving",
        -10.236880502966262
      ],
      [
        "Ġrain",
        -10.238353859581654
      ],
      [
        "Ġfailed",
        -10.238782387186792
      ],
      [
        "ĠConstitution",
        -10.238811138281374
      ],
      [
        "ĠTHE",
        -10.239064279351382
      ],
      [
        "Ġpregnancy",
        -10.239191139371572
      ],
      [
        "contained",
        -10.23926918853504
      ],
      [
        "ions",
        -10.239327855825511
      ],
      [
        "Ġcomparison",
        -10.239766275744406
      ],
      [
        "Ġexplains",
        -10.240057133156784
      ],
      [
        "Ġdistinct",
        -10.24008968387059
      ],
      [
        "employed",
        -10.240219565704969
      ],
      [
        "Ġfeeling",
        -10.240302895609467
      ],
      [
        "Ġtrip",
        -10.240402108517651
      ],
      [
        "ened",
        -10.240642267167402
      ],
      [
        "Ġratio",
        -10.240760020115498
      ],
      [
        "Ġ35",
        -10.240821452867804
      ],
      [
        "Ġlesson",
        -10.24112922166439
      ],
      [
        "ĠNations",
        -10.241268496853444
      ],
      [
        "Ġprevention",
        -10.24253555634692
      ],
      [
        "Ġaccurate",
        -10.242739098979678
      ],
      [
        "Ġsurprise",
        -10.243252736243877
      ],
      [
        "Ġeastern",
        -10.243957799245669
      ],
      [
        "Ġfossil",
        -10.244089032566889
      ],
      [
        "Another",
        -10.24418099230551
      ],
      [
        "Ġbelief",
        -10.244207710665483
      ],
      [
        "Ġdrop",
        -10.246832374568472
      ],
      [
        "ĠToday",
        -10.247135090573938
      ],
      [
        "ĠLand",
        -10.24760086578824
      ],
      [
        "Ġexperiments",
        -10.247619333207666
      ],
      [
        "res",
        -10.247962473425648
      ],
      [
        "Ġimpossible",
        -10.24809291958407
      ],
      [
        "Ġseeds",
        -10.2482133286362
      ],
      [
        "allowing",
        -10.248538306090284
      ],
      [
        "war",
        -10.24862762692269
      ],
      [
        "03",
        -10.24994983942366
      ],
      [
        "Ġpure",
        -10.250048556803916
      ],
      [
        "mostly",
        -10.250139681323194
      ],
      [
        "let",
        -10.250301900520617
      ],
      [
        "04",
        -10.250460090625497
      ],
      [
        "ĠMe",
        -10.250472316241009
      ],
      [
        "Ġstring",
        -10.251232369412485
      ],
      [
        "Ġsuper",
        -10.2515431044473
      ],
      [
        "Ġassistance",
        -10.25230142183737
      ],
      [
        "Ġmonitor",
        -10.252546368414222
      ],
      [
        "Ġinterests",
        -10.252685960943708
      ],
      [
        "Ġcomprehensive",
        -10.253312372383665
      ],
      [
        "Ġunknown",
        -10.253391171577832
      ],
      [
        "Ġfaster",
        -10.253868970192007
      ],
      [
        "Ġcrisis",
        -10.255283235764308
      ],
      [
        "Ġattacks",
        -10.255535715832933
      ],
      [
        "60",
        -10.256609400612763
      ],
      [
        "06",
        -10.256848818271449
      ],
      [
        "ĠLu",
        -10.258069600884394
      ],
      [
        "ĠColumbia",
        -10.258256945237443
      ],
      [
        "Why",
        -10.25828440639152
      ],
      [
        "ĠChicago",
        -10.259324591345925
      ],
      [
        "ng",
        -10.260043953215227
      ],
      [
        "elected",
        -10.2600509614241
      ],
      [
        "Ġorbit",
        -10.2601756050333
      ],
      [
        "ĠCancer",
        -10.260208751223097
      ],
      [
        "Ġshared",
        -10.260320240678478
      ],
      [
        "ĠBank",
        -10.261294008883308
      ],
      [
        "ties",
        -10.261465984187565
      ],
      [
        "ĠMD",
        -10.261513717270812
      ],
      [
        "Ġtwenty",
        -10.261578772263864
      ],
      [
        "?\"",
        -10.261679718010074
      ],
      [
        "Ġexcellent",
        -10.26168280485457
      ],
      [
        "Ġremaining",
        -10.261711022986985
      ],
      [
        "Ġvegetables",
        -10.26216823976956
      ],
      [
        "Ġcool",
        -10.2621912093628
      ],
      [
        "Ġdrink",
        -10.262853234509382
      ],
      [
        "Ġcrop",
        -10.263824500587956
      ],
      [
        "Ġcentre",
        -10.263952135382985
      ],
      [
        "Ġpeak",
        -10.264146504402255
      ],
      [
        "Ġpossibly",
        -10.2642270970405
      ],
      [
        "Ġhelping",
        -10.265175155804688
      ],
      [
        "ĠStudy",
        -10.265427120237511
      ],
      [
        "Ġpurchase",
        -10.266180624934387
      ],
      [
        "Ġsufficient",
        -10.266229623125357
      ],
      [
        "ĠBoard",
        -10.266425221209138
      ],
      [
        "Ġprove",
        -10.266506916470654
      ],
      [
        "Ġwildlife",
        -10.26658633799476
      ],
      [
        "35",
        -10.266632546156703
      ],
      [
        "Ġpresentation",
        -10.266687358994814
      ],
      [
        "Ġdescription",
        -10.267322840518927
      ],
      [
        "Ġidentity",
        -10.267400457083506
      ],
      [
        "ĠBrown",
        -10.267614204186115
      ],
      [
        "Ġtraffic",
        -10.26810626176618
      ],
      [
        "Ġarms",
        -10.268112125552362
      ],
      [
        "Ġresolution",
        -10.268187750445968
      ],
      [
        "my",
        -10.268863113908688
      ],
      [
        "Ġgrown",
        -10.26942884381324
      ],
      [
        "Ġnormally",
        -10.270366112791828
      ],
      [
        "Ġperspective",
        -10.270419422181092
      ],
      [
        "Ġextend",
        -10.270763133750844
      ],
      [
        "Ġvital",
        -10.2711440554469
      ],
      [
        "que",
        -10.27141725686282
      ],
      [
        "Ġparties",
        -10.271495882327956
      ],
      [
        "Ġinput",
        -10.27181809793852
      ],
      [
        "Ġawareness",
        -10.272504581960009
      ],
      [
        "ĠAcademy",
        -10.272658896737104
      ],
      [
        "Ġsmoke",
        -10.274371393559855
      ],
      [
        "45",
        -10.27456613389359
      ],
      [
        "Ġ1994",
        -10.274688485309277
      ],
      [
        "Ġhole",
        -10.274710165675152
      ],
      [
        "Ġintroduction",
        -10.274886048139082
      ],
      [
        "Ġseed",
        -10.27492869691203
      ],
      [
        "Ġorganized",
        -10.275217128425066
      ],
      [
        "destroyed",
        -10.275515344140768
      ],
      [
        "ĠManagement",
        -10.275747970349409
      ],
      [
        "ĠTimes",
        -10.275805006045443
      ],
      [
        "Ġnotice",
        -10.2764459296142
      ],
      [
        "Ġagreement",
        -10.27713945828212
      ],
      [
        "ĠSa",
        -10.277152863036642
      ],
      [
        "back",
        -10.27758826638779
      ],
      [
        "well",
        -10.27793873953595
      ],
      [
        "work",
        -10.2785996636432
      ],
      [
        "ung",
        -10.278798152479382
      ],
      [
        "joined",
        -10.279231190513164
      ],
      [
        "US",
        -10.27970424992948
      ],
      [
        "Ġprint",
        -10.279904986464569
      ],
      [
        "Ġphilosophy",
        -10.279905601736685
      ],
      [
        "Ġthin",
        -10.280057645057123
      ],
      [
        "ĠMichael",
        -10.280467791299664
      ],
      [
        "Ġbridge",
        -10.281026731680498
      ],
      [
        "val",
        -10.281202835645058
      ],
      [
        "Ġphone",
        -10.281281275164185
      ],
      [
        "Ġworse",
        -10.281422790326156
      ],
      [
        "ĠBo",
        -10.281702834117487
      ],
      [
        "Ġdescribes",
        -10.281858611556956
      ],
      [
        "Ġcomposition",
        -10.282050930031229
      ],
      [
        "Ġrisks",
        -10.282555683986338
      ],
      [
        "Ġmath",
        -10.282613363916184
      ],
      [
        "Ġcharacters",
        -10.282898804116158
      ],
      [
        "Ġconcentration",
        -10.28301886852735
      ],
      [
        "Ġstream",
        -10.283423255600791
      ],
      [
        "Ġlooks",
        -10.283480551406637
      ],
      [
        "ĠEn",
        -10.283720411408304
      ],
      [
        "Ġunderstood",
        -10.284390116908574
      ],
      [
        "Ġprocedures",
        -10.284979637986485
      ],
      [
        "Ġauthorities",
        -10.285134973133657
      ],
      [
        "Ġbank",
        -10.28554081421372
      ],
      [
        "Ġpossibility",
        -10.28590835752962
      ],
      [
        "Ġcommittee",
        -10.286225541504146
      ],
      [
        "Ġfair",
        -10.286492536559702
      ],
      [
        "Ġrepresents",
        -10.287038544179902
      ],
      [
        "Ġfigures",
        -10.287518367945124
      ],
      [
        "Ġexpressed",
        -10.287675792172806
      ],
      [
        "Ġdogs",
        -10.288102551857357
      ],
      [
        "ĠValley",
        -10.288329740008916
      ],
      [
        "Ġgender",
        -10.289235959326254
      ],
      [
        "Last",
        -10.28986378647977
      ],
      [
        "Ġproteins",
        -10.29087733916523
      ],
      [
        "Ġviews",
        -10.291119023179451
      ],
      [
        "Ġrepeated",
        -10.291280778570847
      ],
      [
        "Ġvary",
        -10.292776710089967
      ],
      [
        "Ġmarked",
        -10.292897754141634
      ],
      [
        "Ġwalls",
        -10.292917136005004
      ],
      [
        "Ġcalls",
        -10.293072053299383
      ],
      [
        "Ġrepresented",
        -10.29334468853769
      ],
      [
        "ĠDisease",
        -10.293356205943466
      ],
      [
        "Ġextended",
        -10.29477753352428
      ],
      [
        "Ġinfected",
        -10.294917566656968
      ],
      [
        "Ġequivalent",
        -10.294930377770664
      ],
      [
        "Ġpotentially",
        -10.295757775288129
      ],
      [
        "Ġflat",
        -10.295992520161564
      ],
      [
        "Ġapproaches",
        -10.296435800332937
      ],
      [
        "Ġnarrow",
        -10.297349938989798
      ],
      [
        "Ġfail",
        -10.297385338255156
      ],
      [
        "Ġstorm",
        -10.297720464338193
      ],
      [
        "Ġborder",
        -10.298283342130889
      ],
      [
        "Ġsubstance",
        -10.298650501664858
      ],
      [
        "Ġstroke",
        -10.299055879052066
      ],
      [
        "Ġclosed",
        -10.299299211312013
      ],
      [
        "Ġminimum",
        -10.300549727814516
      ],
      [
        "Ġproducing",
        -10.300630158942468
      ],
      [
        "Ġsurvival",
        -10.30128714576155
      ],
      [
        "Ġ1960",
        -10.302119826559023
      ],
      [
        "Ġseat",
        -10.302282756992737
      ],
      [
        "Ġgap",
        -10.302433812995805
      ],
      [
        "Ġimplementation",
        -10.303117083486075
      ],
      [
        "Ġconventional",
        -10.303177670094248
      ],
      [
        "Ġmedications",
        -10.303191022069363
      ],
      [
        "ĠData",
        -10.303878429575528
      ],
      [
        "Ġflowers",
        -10.304527994935269
      ],
      [
        "Ġwealth",
        -10.30546574082692
      ],
      [
        "Ġexpensive",
        -10.306156605784306
      ],
      [
        "Ġconference",
        -10.3062413734455
      ],
      [
        "ĠOF",
        -10.306586632905226
      ],
      [
        "Ġnine",
        -10.306750319396926
      ],
      [
        "Ġwindow",
        -10.307514103454585
      ],
      [
        "Ġtransmission",
        -10.309461522514908
      ],
      [
        "tion",
        -10.309619310069316
      ],
      [
        "Ġtrouble",
        -10.310098839524686
      ],
      [
        "Ġspiritual",
        -10.310724714062507
      ],
      [
        "Ġleads",
        -10.310810092592517
      ],
      [
        "Ġtiny",
        -10.310942295951666
      ],
      [
        "Ġfamiliar",
        -10.311177319316265
      ],
      [
        "Ġdeaths",
        -10.31209544577161
      ],
      [
        "Ġinterview",
        -10.31239265190666
      ],
      [
        "Ġmagnetic",
        -10.312491859265156
      ],
      [
        "ĠTa",
        -10.313151823125043
      ],
      [
        "Ġexhibit",
        -10.313382340097544
      ],
      [
        "Ġfell",
        -10.313383710203183
      ],
      [
        "Ġformal",
        -10.313465849002924
      ],
      [
        "Ġworldwide",
        -10.313521297047457
      ],
      [
        "ĠNorthern",
        -10.314004741412502
      ],
      [
        "Ġevaluation",
        -10.314395572279912
      ],
      [
        "low",
        -10.31448600161164
      ],
      [
        "Ġflood",
        -10.314648495146168
      ],
      [
        "Ġkidney",
        -10.314697836327888
      ],
      [
        "Ġperiods",
        -10.314949681438325
      ],
      [
        "ĠKo",
        -10.316058425497076
      ],
      [
        "Ġbear",
        -10.31650468335559
      ],
      [
        "Ġsoft",
        -10.317204513679073
      ],
      [
        "Ġjoin",
        -10.317607131931394
      ],
      [
        "twice",
        -10.317760008501226
      ],
      [
        "Ġrevealed",
        -10.317967567159036
      ],
      [
        "board",
        -10.318294950882096
      ],
      [
        "Since",
        -10.318502282207069
      ],
      [
        "Ġwish",
        -10.319029807443531
      ],
      [
        "Ġvaluable",
        -10.319057953807242
      ],
      [
        "shaped",
        -10.319254753546202
      ],
      [
        "Ġedge",
        -10.3198401465474
      ],
      [
        "Ġdaughter",
        -10.319953980976468
      ],
      [
        "Ġbudget",
        -10.3211538677315
      ],
      [
        "Ġlandscape",
        -10.321192300782556
      ],
      [
        "Ġstrain",
        -10.321527657509815
      ],
      [
        "ĠPost",
        -10.321690026090875
      ],
      [
        "Ġcomments",
        -10.32198375116154
      ],
      [
        "Ġfill",
        -10.322201678486882
      ],
      [
        "ĠItaly",
        -10.322711726904243
      ],
      [
        "arrived",
        -10.32296406337042
      ],
      [
        "Ġerror",
        -10.323190545367083
      ],
      [
        "Ġinterpretation",
        -10.32376924170194
      ],
      [
        "Ġdiversity",
        -10.32382089345759
      ],
      [
        "Ġdust",
        -10.32419692157469
      ],
      [
        "Ġroutine",
        -10.324613955624985
      ],
      [
        "bar",
        -10.32515502980361
      ],
      [
        "Ġsolutions",
        -10.326321137969645
      ],
      [
        "necessarily",
        -10.32635987178346
      ],
      [
        "ĠAnother",
        -10.326450921356845
      ],
      [
        "Ġestimates",
        -10.32649386602928
      ],
      [
        "html",
        -10.32679082822948
      ],
      [
        "ĠOcean",
        -10.327000410289935
      ],
      [
        "ĠGlobal",
        -10.327365195075467
      ],
      [
        "ĠDa",
        -10.327689893118292
      ],
      [
        "ĠIII",
        -10.328079696329503
      ],
      [
        "Ġdecide",
        -10.328335006456491
      ],
      [
        "Ġmuseum",
        -10.328908961714015
      ],
      [
        "Ġprepare",
        -10.330018994771136
      ],
      [
        "ped",
        -10.33210780777604
      ],
      [
        "house",
        -10.332344758470818
      ],
      [
        "ries",
        -10.332847923171087
      ],
      [
        "Ġfly",
        -10.332954927897436
      ],
      [
        "ward",
        -10.333194151567644
      ],
      [
        "ĠAbout",
        -10.333362381649446
      ],
      [
        "Ġinvestment",
        -10.333913168245378
      ],
      [
        "ĠSpain",
        -10.334041715792951
      ],
      [
        "Finally",
        -10.334449262479485
      ],
      [
        "Ġdebt",
        -10.334524043695527
      ],
      [
        "ical",
        -10.335028338234414
      ],
      [
        "ĠVol",
        -10.33630071237012
      ],
      [
        "Ġmaster",
        -10.3379811180228
      ],
      [
        "ĠResources",
        -10.338923819743286
      ],
      [
        "Ġmention",
        -10.338972606711666
      ],
      [
        "holding",
        -10.33928637618114
      ],
      [
        "ĠYet",
        -10.339378195097796
      ],
      [
        "Ġpermanent",
        -10.339593275875147
      ],
      [
        "Ġreplace",
        -10.339747401762668
      ],
      [
        "Ġsecondary",
        -10.339913922970108
      ],
      [
        "ĠPre",
        -10.34006948565654
      ],
      [
        "Ġbrother",
        -10.340740085730468
      ],
      [
        "Ġbrown",
        -10.340935041463304
      ],
      [
        "Ġsuffer",
        -10.343216167703869
      ],
      [
        "Ġ45",
        -10.343289556742803
      ],
      [
        "Ġindex",
        -10.34333302527841
      ],
      [
        "Figure",
        -10.343409451943243
      ],
      [
        "Ġlegislation",
        -10.343430769865329
      ],
      [
        "Ġwatch",
        -10.343704468225484
      ],
      [
        "pp",
        -10.343841031615296
      ],
      [
        "mail",
        -10.34424660827424
      ],
      [
        "ĠOnly",
        -10.344398109038169
      ],
      [
        "ĠItalian",
        -10.344464884892403
      ],
      [
        "Ġhandle",
        -10.344851501928902
      ],
      [
        "Ġobservations",
        -10.344986204676175
      ],
      [
        "ĠPower",
        -10.346704805038636
      ],
      [
        "Ġremote",
        -10.34705529246463
      ],
      [
        "Ġopposite",
        -10.347192844979354
      ],
      [
        "%)",
        -10.347539425544694
      ],
      [
        "31",
        -10.347552271980923
      ],
      [
        "Ġlab",
        -10.34843108934744
      ],
      [
        "ĠUSA",
        -10.348591182529232
      ],
      [
        "Ġhonor",
        -10.348816883340495
      ],
      [
        "ĠMark",
        -10.349847651316882
      ],
      [
        "ĠParty",
        -10.349848341242016
      ],
      [
        "Ġgreenhouse",
        -10.351074173790494
      ],
      [
        "ĠAgency",
        -10.351650169874716
      ],
      [
        "grew",
        -10.353014892136178
      ],
      [
        "ji",
        -10.353271472122488
      ],
      [
        "approved",
        -10.353548622824375
      ],
      [
        "ĠLike",
        -10.353870147912264
      ],
      [
        "Ġtopics",
        -10.354196573415797
      ],
      [
        "Ġpriest",
        -10.354713674583332
      ],
      [
        "Ġmolecules",
        -10.355295349172248
      ],
      [
        "Ġdiffer",
        -10.355375896545118
      ],
      [
        "Ġdioxide",
        -10.355632763711064
      ],
      [
        "Ġmillions",
        -10.355706884518412
      ],
      [
        "Ġsky",
        -10.35576586721315
      ],
      [
        "Ġuniversal",
        -10.357286217191431
      ],
      [
        "claimed",
        -10.3574220519906
      ],
      [
        "ĠAre",
        -10.357713246544009
      ],
      [
        "Ġtoxic",
        -10.358065159857125
      ],
      [
        "32",
        -10.358089097930254
      ],
      [
        "Ġguidelines",
        -10.358194179700654
      ],
      [
        "Ġ300",
        -10.35830636298802
      ],
      [
        "Ġstrike",
        -10.358734342579194
      ],
      [
        "Ġwear",
        -10.358993040325172
      ],
      [
        "ĠDivision",
        -10.359556116826756
      ],
      [
        "Ġrelations",
        -10.359878825346506
      ],
      [
        "Ġpercentage",
        -10.360596533328698
      ],
      [
        "Ġleadership",
        -10.361208203185951
      ],
      [
        "Ġmedium",
        -10.361730270689074
      ],
      [
        "neither",
        -10.36179134882838
      ],
      [
        "Ġselect",
        -10.361802613925656
      ],
      [
        "80",
        -10.36249828630164
      ],
      [
        "ĠRoyal",
        -10.362573557089272
      ],
      [
        "Ġterritory",
        -10.36287943697562
      ],
      [
        "trained",
        -10.363023446455411
      ],
      [
        "Ġdetect",
        -10.363849318116394
      ],
      [
        "Ġsecure",
        -10.364166483824794
      ],
      [
        "Ġsuffering",
        -10.364331854259332
      ],
      [
        "Ġhouses",
        -10.364730164554429
      ],
      [
        "Ġcat",
        -10.365039407640657
      ],
      [
        "Ġsupplies",
        -10.36514971088562
      ],
      [
        "Ġmechanism",
        -10.365596256809113
      ],
      [
        "appointed",
        -10.365678088678738
      ],
      [
        "Ġelection",
        -10.366086539835855
      ],
      [
        "My",
        -10.366141787267129
      ],
      [
        "Ġphysics",
        -10.366861664458504
      ],
      [
        "Ġcapture",
        -10.367275496607627
      ],
      [
        "Ġparticipate",
        -10.367309642816636
      ],
      [
        "Ġsides",
        -10.368137622688058
      ],
      [
        "ĠEastern",
        -10.368501526718406
      ],
      [
        "Ġorganisms",
        -10.36852995238646
      ],
      [
        "Ġbar",
        -10.36873864027113
      ],
      [
        "Ġpublication",
        -10.368894427643008
      ],
      [
        "Ġhorse",
        -10.369637437732138
      ],
      [
        "Ġcomputers",
        -10.369654011235076
      ],
      [
        "Ġassist",
        -10.369992555083796
      ],
      [
        "Ġgets",
        -10.37145412321158
      ],
      [
        "entered",
        -10.372340935614204
      ],
      [
        "Ġcurriculum",
        -10.3725242450133
      ],
      [
        "Ġinstrument",
        -10.373072695043987
      ],
      [
        "Ġsatellite",
        -10.373706867792995
      ],
      [
        "ĠEmpire",
        -10.374963410000992
      ],
      [
        "ĠAtlantic",
        -10.374998612850186
      ],
      [
        "Ġimpacts",
        -10.375269712347546
      ],
      [
        "ĠMartin",
        -10.375580560982614
      ],
      [
        "Ġinstruction",
        -10.37576212393093
      ],
      [
        "ville",
        -10.37583180695064
      ],
      [
        "Ġcircumstances",
        -10.37612241273777
      ],
      [
        "Ġtrace",
        -10.376435698833127
      ],
      [
        "adding",
        -10.376701854872138
      ],
      [
        "ED",
        -10.376950241508844
      ],
      [
        "Ġwaves",
        -10.377021382943031
      ],
      [
        "Ġimmediate",
        -10.378177767818432
      ],
      [
        "ĠIndians",
        -10.378187654141554
      ],
      [
        "Ġvessels",
        -10.378442874047156
      ],
      [
        "Ġnone",
        -10.37851831793389
      ],
      [
        "Ġpictures",
        -10.378675716583247
      ],
      [
        "Ġassume",
        -10.37920718558166
      ],
      [
        "Ġentry",
        -10.379262597730964
      ],
      [
        "Ġ1992",
        -10.380081357475236
      ],
      [
        "fewer",
        -10.38046680808786
      ],
      [
        "ĠPart",
        -10.380646665408012
      ],
      [
        "Ġachieved",
        -10.381026886350226
      ],
      [
        "ĠNi",
        -10.38113446823327
      ],
      [
        "Ġ32",
        -10.381495948179278
      ],
      [
        "Ġgenerated",
        -10.381592955765312
      ],
      [
        "Ġunusual",
        -10.381769124431578
      ],
      [
        "ĠNative",
        -10.38184670143063
      ],
      [
        "Ġmanager",
        -10.382436472681974
      ],
      [
        "Ġsentence",
        -10.382601885180335
      ],
      [
        "ĠOhio",
        -10.383151592126405
      ],
      [
        "ĠThose",
        -10.383292471632789
      ],
      [
        "ĠParis",
        -10.38351979110314
      ],
      [
        "Ġenemy",
        -10.38385205790472
      ],
      [
        "air",
        -10.384778514624946
      ],
      [
        "Ġaudience",
        -10.38482597211576
      ],
      [
        "Ġgovernments",
        -10.385098669764313
      ],
      [
        "Ġtrain",
        -10.385141836890146
      ],
      [
        "Ġsounds",
        -10.38583113477537
      ],
      [
        "Ġplaying",
        -10.38593392077886
      ],
      [
        "Ġcoastal",
        -10.386408864964384
      ],
      [
        "Ġstored",
        -10.386487734147826
      ],
      [
        "Ġ1993",
        -10.387442730560254
      ],
      [
        "ĠHall",
        -10.388073624891064
      ],
      [
        "Ġfacts",
        -10.388257629765254
      ],
      [
        "Ġdefense",
        -10.389143043776375
      ],
      [
        "Ġbright",
        -10.38921279161092
      ],
      [
        "Ġdoor",
        -10.389995860251902
      ],
      [
        "deed",
        -10.390145088554926
      ],
      [
        "Ġwonder",
        -10.390451125016584
      ],
      [
        "Ġmaps",
        -10.390509211529784
      ],
      [
        "Ġpromise",
        -10.390581080484973
      ],
      [
        "Ġsituations",
        -10.391832779334631
      ],
      [
        "state",
        -10.392856993496943
      ],
      [
        "Ġbroken",
        -10.39361475063168
      ],
      [
        "somewhat",
        -10.393889138314394
      ],
      [
        "ĠIreland",
        -10.394766626687831
      ],
      [
        "Ġdivision",
        -10.394835472404283
      ],
      [
        "Ġroute",
        -10.395082337023572
      ],
      [
        "Ġfilter",
        -10.39525696339835
      ],
      [
        "Ġcompetition",
        -10.395318707291684
      ],
      [
        "ĠAdministration",
        -10.395750038595637
      ],
      [
        "Ġlimits",
        -10.395783902210685
      ],
      [
        "Ġpretty",
        -10.395864961718154
      ],
      [
        "ĠMen",
        -10.396508419802329
      ],
      [
        "ĠHoly",
        -10.397546257587852
      ],
      [
        "ĠMac",
        -10.397579650536269
      ],
      [
        "Ġrecovery",
        -10.39763292700221
      ],
      [
        "Ġzone",
        -10.397791967219684
      ],
      [
        "Ġchildhood",
        -10.39878471626746
      ],
      [
        "ĠStar",
        -10.398805346439456
      ],
      [
        "Ġball",
        -10.398997896871611
      ],
      [
        "Ġnaturally",
        -10.399014862393091
      ],
      [
        "Ġsymbol",
        -10.399475848755657
      ],
      [
        "consists",
        -10.39966248688548
      ],
      [
        "ĠSciences",
        -10.400248693970791
      ],
      [
        "Ġsit",
        -10.400367754927869
      ],
      [
        "Ġenhance",
        -10.401886695271775
      ],
      [
        "Ġcompare",
        -10.401917806568182
      ],
      [
        "ordered",
        -10.402326975215717
      ],
      [
        "ric",
        -10.40234109516656
      ],
      [
        "replaced",
        -10.402674688778289
      ],
      [
        "ĠUnder",
        -10.40364840636422
      ],
      [
        "Ġphrase",
        -10.403812397976466
      ],
      [
        "car",
        -10.403838291587098
      ],
      [
        "Ġframework",
        -10.4048439542952
      ],
      [
        "Ġslowly",
        -10.405148441587643
      ],
      [
        "Ġgone",
        -10.405171125017628
      ],
      [
        "rely",
        -10.405768489917172
      ],
      [
        "signed",
        -10.405938717344103
      ],
      [
        "resulted",
        -10.408319607001363
      ],
      [
        ":||",
        -10.408562432638178
      ],
      [
        "Ġconsistent",
        -10.40862508473672
      ],
      [
        "ology",
        -10.408888859524993
      ],
      [
        "Ġcounter",
        -10.408923009134051
      ],
      [
        "http",
        -10.409354437725709
      ],
      [
        "Ġuniversity",
        -10.40998946618255
      ],
      [
        "Äģ",
        -10.41037891639716
      ],
      [
        "ĠLouis",
        -10.411834773233233
      ],
      [
        "Ġpick",
        -10.41234227077223
      ],
      [
        "ĠLong",
        -10.412342801535212
      ],
      [
        "Ġtaste",
        -10.41242648058092
      ],
      [
        "Ġroots",
        -10.4128287485679
      ],
      [
        "Ġdensity",
        -10.414390388211668
      ],
      [
        "36",
        -10.414641704781369
      ],
      [
        "ĠTe",
        -10.41488670607175
      ],
      [
        "Ġattached",
        -10.41530778413554
      ],
      [
        "Ġsensitive",
        -10.41565313669579
      ],
      [
        "ker",
        -10.41587813206771
      ],
      [
        "Ġtreatments",
        -10.416740296928536
      ],
      [
        "Ġinfrastructure",
        -10.416862190588594
      ],
      [
        "Ġarm",
        -10.41720489824266
      ],
      [
        "some",
        -10.417624706123892
      ],
      [
        "Ġfever",
        -10.417643798061942
      ],
      [
        "Ġpeer",
        -10.41778839333868
      ],
      [
        "Ġcup",
        -10.41838611051389
      ],
      [
        "Ġtransportation",
        -10.41871317777148
      ],
      [
        "ĠKingdom",
        -10.418871583181064
      ],
      [
        "Ġwarning",
        -10.41904499283719
      ],
      [
        "ĠDistrict",
        -10.419733853255364
      ],
      [
        "Ġtalking",
        -10.41981204953372
      ],
      [
        "diagnosed",
        -10.420414208824914
      ],
      [
        "Ġinstruments",
        -10.42241210553071
      ],
      [
        "Ġmovements",
        -10.422857787028958
      ],
      [
        "Ġfalse",
        -10.42312736812693
      ],
      [
        "Ġshot",
        -10.423164938180731
      ],
      [
        "head",
        -10.423696820597696
      ],
      [
        "managed",
        -10.423866784178747
      ],
      [
        "Ġestimate",
        -10.424182753946674
      ],
      [
        "Ġsupposed",
        -10.424633420923552
      ],
      [
        "Ġships",
        -10.425527684333684
      ],
      [
        "Ġannounced",
        -10.425839421584492
      ],
      [
        "Ġachievement",
        -10.42724293150304
      ],
      [
        "Ġwage",
        -10.42806065211491
      ],
      [
        "ĠGood",
        -10.42810116421474
      ],
      [
        "Ġparallel",
        -10.428190911288931
      ],
      [
        "Ġintellectual",
        -10.428846502154176
      ],
      [
        "Ġdifficulty",
        -10.428870687214951
      ],
      [
        "Ġfixed",
        -10.428946309596853
      ],
      [
        "ĠPlan",
        -10.429143229360786
      ],
      [
        "Ġpilot",
        -10.430223639240891
      ],
      [
        "launched",
        -10.430313771772948
      ],
      [
        "Ġhelpful",
        -10.43043912992698
      ],
      [
        "Ġindicates",
        -10.43166669119793
      ],
      [
        "Sometimes",
        -10.431668697361047
      ],
      [
        "Ġsolve",
        -10.432327400189726
      ],
      [
        "Ġexists",
        -10.43252649642156
      ],
      [
        "Ġexpansion",
        -10.432878194058608
      ],
      [
        "Ġ500",
        -10.43323541985739
      ],
      [
        "Ġsuccessfully",
        -10.433366631154222
      ],
      [
        "Ġarchitecture",
        -10.433651832806795
      ],
      [
        "Ġvehicles",
        -10.434382465093698
      ],
      [
        "Ġcollect",
        -10.435093199715784
      ],
      [
        "90",
        -10.435153733130193
      ],
      [
        "Ġdiverse",
        -10.435280345240226
      ],
      [
        "Ġpreparation",
        -10.435533816377411
      ],
      [
        "ĠBill",
        -10.43577312740472
      ],
      [
        "Ġdeliver",
        -10.436471719082604
      ],
      [
        "Ġrelation",
        -10.436898512498813
      ],
      [
        "Ġcognitive",
        -10.436988696217592
      ],
      [
        "Ġhistoric",
        -10.437141048591473
      ],
      [
        "known",
        -10.437272302231356
      ],
      [
        "Ġexamination",
        -10.437431908163848
      ],
      [
        "seemed",
        -10.437479041325586
      ],
      [
        "Ġyounger",
        -10.437712350140409
      ],
      [
        "itis",
        -10.43849937815116
      ],
      [
        "Ġvariable",
        -10.438624128657162
      ],
      [
        "ĠForest",
        -10.438644344980212
      ],
      [
        "Ġfruits",
        -10.43971383963308
      ],
      [
        "Ġconnect",
        -10.439760356581337
      ],
      [
        "Ġpredict",
        -10.43992365807757
      ],
      [
        "Ġchain",
        -10.440382738701777
      ],
      [
        "min",
        -10.4404264223862
      ],
      [
        "Ġbones",
        -10.441291295240337
      ],
      [
        "Ġoral",
        -10.44145050418676
      ],
      [
        "Ġdriving",
        -10.441772019665809
      ],
      [
        "ĠLanguage",
        -10.441890021061107
      ],
      [
        "declared",
        -10.441911421381418
      ],
      [
        "bit",
        -10.442298082042631
      ],
      [
        "lan",
        -10.442670865909346
      ],
      [
        "Ġcarefully",
        -10.442870738643911
      ],
      [
        "ĠPer",
        -10.443546822870823
      ],
      [
        "Ġfoundation",
        -10.444367366995332
      ],
      [
        "Ġregulations",
        -10.44439243071156
      ],
      [
        "including",
        -10.444884369922471
      ],
      [
        "Ġspot",
        -10.44515533018694
      ],
      [
        "Ġintake",
        -10.445293456088352
      ],
      [
        "Ġchosen",
        -10.44578060039578
      ],
      [
        "Ġnearby",
        -10.445822536061485
      ],
      [
        "Ġescape",
        -10.446359776649732
      ],
      [
        "ĠJan",
        -10.446562478686234
      ],
      [
        "Ġmark",
        -10.446984149048612
      ],
      [
        "Ġcloud",
        -10.448273269484687
      ],
      [
        "Ġmixed",
        -10.4486435836644
      ],
      [
        "Ġnoise",
        -10.449066659630628
      ],
      [
        "Ġsignals",
        -10.449288841881408
      ],
      [
        "ĠLearning",
        -10.449400475139054
      ],
      [
        "ĠLincoln",
        -10.449742552866391
      ],
      [
        "Ġrising",
        -10.450140082393796
      ],
      [
        "port",
        -10.450925241452412
      ],
      [
        "art",
        -10.451273545512684
      ],
      [
        "Ġfighting",
        -10.45139919569041
      ],
      [
        "Ġserver",
        -10.451827346777332
      ],
      [
        "Ġdestruction",
        -10.45197861616884
      ],
      [
        "Ġinner",
        -10.452993029626672
      ],
      [
        "Ġ1991",
        -10.453029489378016
      ],
      [
        "Ġhydrogen",
        -10.453276771568854
      ],
      [
        "merely",
        -10.453466538212387
      ],
      [
        "ĠSurvey",
        -10.453575150626865
      ],
      [
        "Ġreaders",
        -10.454048119517134
      ],
      [
        "cle",
        -10.454610781204444
      ],
      [
        "Ã¡",
        -10.45474446276758
      ],
      [
        "dedicated",
        -10.454812140767151
      ],
      [
        "Ġdrought",
        -10.455384312203345
      ],
      [
        "Ġmode",
        -10.455770620354537
      ],
      [
        "ĠSi",
        -10.456151181288648
      ],
      [
        "ĠEncyclopedia",
        -10.456335308857469
      ],
      [
        "Ġapart",
        -10.456470506133712
      ],
      [
        "Ġtouch",
        -10.456653116185644
      ],
      [
        "Ġtube",
        -10.457060036541558
      ],
      [
        "ĠJust",
        -10.4571950885773
      ],
      [
        "iz",
        -10.457484703266624
      ],
      [
        "right",
        -10.457704671760196
      ],
      [
        "ative",
        -10.458235425169043
      ],
      [
        "Ġstraight",
        -10.458682972871165
      ],
      [
        "Ġformula",
        -10.458747735995717
      ],
      [
        "ĠDu",
        -10.45881011015083
      ],
      [
        "Ġtransition",
        -10.458859112154991
      ],
      [
        "ĠLet",
        -10.459315590899015
      ],
      [
        "directed",
        -10.460283193399569
      ],
      [
        "ĠLaboratory",
        -10.460550906068304
      ],
      [
        "owned",
        -10.461162326561768
      ],
      [
        "Ġemployment",
        -10.461508135015793
      ],
      [
        "Ġlocations",
        -10.461529915522096
      ],
      [
        "greatly",
        -10.461708630055394
      ],
      [
        "how",
        -10.46353966639157
      ],
      [
        "unable",
        -10.463747379896027
      ],
      [
        "Ġtelevision",
        -10.463933718776843
      ],
      [
        "breeding",
        -10.464579374807888
      ],
      [
        "ĠNetwork",
        -10.465345665285094
      ],
      [
        "Ġwhatever",
        -10.46542522821792
      ],
      [
        "Ġharm",
        -10.465687876234716
      ],
      [
        "Ġrandom",
        -10.4657143209302
      ],
      [
        "Ġfunds",
        -10.465979160139518
      ],
      [
        "ultimately",
        -10.46667452658794
      ],
      [
        "Ġintelligence",
        -10.466688212179598
      ],
      [
        "Ġsharp",
        -10.467154411256876
      ],
      [
        "Ġband",
        -10.467261296407251
      ],
      [
        "Ġhousing",
        -10.4678220616032
      ],
      [
        "Ġjourney",
        -10.468199933008531
      ],
      [
        "ĠMc",
        -10.46851182253172
      ],
      [
        "Ġofficers",
        -10.469307507706691
      ],
      [
        "composed",
        -10.469448552038862
      ],
      [
        "Ġflag",
        -10.469695678056596
      ],
      [
        "Ġdrawn",
        -10.46994943427149
      ],
      [
        "Ġethnic",
        -10.470054986223532
      ],
      [
        "ĠSu",
        -10.470835076180842
      ],
      [
        "Ġintervention",
        -10.471075848918964
      ],
      [
        "ĠServices",
        -10.471212625341233
      ],
      [
        "agreed",
        -10.471969702507815
      ],
      [
        "Ġmobile",
        -10.47214634556919
      ],
      [
        "ĠTime",
        -10.473118812950007
      ],
      [
        "ĠDirector",
        -10.473668669644915
      ],
      [
        "ell",
        -10.473714586252733
      ],
      [
        "ĠAsian",
        -10.473731403108598
      ],
      [
        "ĠWell",
        -10.473978942655789
      ],
      [
        "Ġquick",
        -10.47509457034177
      ],
      [
        "Ġpolitics",
        -10.47575592197568
      ],
      [
        "Ġframe",
        -10.476390433390844
      ],
      [
        "Ġevil",
        -10.476597034926856
      ],
      [
        "Ã¢",
        -10.476601503831471
      ],
      [
        "Ġinsects",
        -10.47694851509202
      ],
      [
        "Ġbiology",
        -10.477012403994731
      ],
      [
        "ĠHill",
        -10.477973119594605
      ],
      [
        "Ġwidespread",
        -10.478341888831562
      ],
      [
        "Of",
        -10.478886005982243
      ],
      [
        "Ġsenior",
        -10.478921356298027
      ],
      [
        "Ġsilver",
        -10.479468649006826
      ],
      [
        "Ġfacility",
        -10.479758729712149
      ],
      [
        "Ġstudying",
        -10.480569831089651
      ],
      [
        "Ġlung",
        -10.48058070828606
      ],
      [
        "May",
        -10.480656552623842
      ],
      [
        "Ġweak",
        -10.48094554857109
      ],
      [
        "Ġfeeding",
        -10.481467939522956
      ],
      [
        "ile",
        -10.481858450544651
      ],
      [
        "maintained",
        -10.481896967631853
      ],
      [
        "Ġspeaking",
        -10.482027446434977
      ],
      [
        "Ġtrials",
        -10.482232392679936
      ],
      [
        "Ġdesert",
        -10.48357514299945
      ],
      [
        "Ġassociation",
        -10.483645884550372
      ],
      [
        "Ġmedication",
        -10.483918315521326
      ],
      [
        "Ġ150",
        -10.483922075227277
      ],
      [
        "Ġreform",
        -10.483984180418195
      ],
      [
        "cal",
        -10.484576829167544
      ],
      [
        "Ġtranslation",
        -10.484613043264035
      ],
      [
        "34",
        -10.48470720716946
      ],
      [
        "lic",
        -10.484745159601736
      ],
      [
        "Ġweapons",
        -10.485807774980868
      ],
      [
        "ick",
        -10.48608853350676
      ],
      [
        "Ġsharing",
        -10.486407146045991
      ],
      [
        "ĠIrish",
        -10.486677983004968
      ],
      [
        "ĠArab",
        -10.487027220304336
      ],
      [
        "Ġminor",
        -10.487138093709406
      ],
      [
        "Ġzero",
        -10.487150951931472
      ],
      [
        "Ġconsiderable",
        -10.48796107611676
      ],
      [
        "Ġmuscles",
        -10.488260724517428
      ],
      [
        "nce",
        -10.488287899213342
      ],
      [
        "Ġdollars",
        -10.488530927514429
      ],
      [
        "Because",
        -10.489220603754148
      ],
      [
        "Even",
        -10.489377009088708
      ],
      [
        "ĠAge",
        -10.49009169573605
      ],
      [
        "ĠPe",
        -10.490227323297878
      ],
      [
        "ĠFamily",
        -10.490460111018066
      ],
      [
        "Ġinvolving",
        -10.490589039917138
      ],
      [
        "Ġlaunch",
        -10.491518920731044
      ],
      [
        "Ġpermit",
        -10.491581872038417
      ],
      [
        "Ġaccounts",
        -10.492012616457096
      ],
      [
        "ĠPro",
        -10.49223234034806
      ],
      [
        "cited",
        -10.492352071821523
      ],
      [
        "Ġplatform",
        -10.4928376384486
      ],
      [
        "Ġwriter",
        -10.493486510547736
      ],
      [
        "Ġnutrients",
        -10.493908704017906
      ],
      [
        "Ġpounds",
        -10.494681857806851
      ],
      [
        "ĠOxford",
        -10.494835650032028
      ],
      [
        "Ġreader",
        -10.494870545438529
      ],
      [
        "Ġstages",
        -10.49491493138295
      ],
      [
        "Ġexact",
        -10.495350393449012
      ],
      [
        "ification",
        -10.495708519954242
      ],
      [
        "most",
        -10.496801694733724
      ],
      [
        "Ġdemonstrated",
        -10.49713365367874
      ],
      [
[...]
