{
  "version": "1.0",
  "truncation": null,
  "padding": null,
  "added_tokens": [
    {
      "id": 0,
      "content": "<|endoftext|>",
      "single_word": false,
      "lstrip": false,
      "rstrip": false,
      "normalized": false,
      "special": true
    },
    {
      "id": 1,
      "content": "<|padding|>",
      "single_word": false,
      "lstrip": false,
      "rstrip": false,
      "normalized": false,
      "special": true
    }
  ],
  "normalizer": {
    "type": "NFC"
  },
  "pre_tokenizer": {
    "type": "ByteLevel",
    "add_prefix_space": false,
    "trim_offsets": true,
    "use_regex": true
  },
  "post_processor": {
    "type": "ByteLevel",
    "add_prefix_space": true,
    "trim_offsets": false,
    "use_regex": true
  },
  "decoder": {
    "type": "ByteLevel",
    "add_prefix_space": true,
    "trim_offsets": true,
    "use_regex": true
  },
  "model": {
    "type": "Unigram",
    "unk_id": null,
    "vocab": [
      [
        "<|endoftext|>",
        0.0
      ],
      [
        "<|padding|>",
        0.0
      ],
      [
        ",",
        -3.1802334705027917
      ],
      [
        "Ġthe",
        -3.1813009519634043
      ],
      [
        ".",
        -3.236564516762204
      ],
      [
        "s",
        -3.553253384027407
      ],
      [
        "Ġof",
        -3.6610614198407383
      ],
      [
        "Ġand",
        -3.84570829822292
      ],
      [
        "Ċ",
        -3.891376082878221
      ],
      [
        "Ġto",
        -3.9922685203927593
      ],
      [
        "Ġa",
        -4.194496676490967
      ],
      [
        "Ġin",
        -4.246029563317361
      ],
      [
        "-",
        -4.50972927311393
      ],
      [
        "ed",
        -4.537931776036103
      ],
      [
        "Ġis",
        -4.73401912406063
      ],
      [
        "Ġthat",
        -4.932922734423109
      ],
      [
        "ing",
        -5.041334451228902
      ],
      [
        "Ġfor",
        -5.062277893244204
      ],
      [
        "Ġ(",
        -5.236560378047518
      ],
      [
        "ly",
        -5.364188132590627
      ],
      [
        "Ġare",
        -5.369671821545483
      ],
      [
        "Ġwith",
        -5.381522928982244
      ],
      [
        "Ġon",
        -5.406714568815062
      ],
      [
        "Ġas",
        -5.45356863240476
      ],
      [
        "Ġbe",
        -5.499462640627156
      ],
      [
        "Ġby",
        -5.533000070758213
      ],
      [
        ":",
        -5.545136358341006
      ],
      [
        "'",
        -5.552057383534915
      ],
      [
        "Ġor",
        -5.5580127750194865
      ],
      [
        "ĠThe",
        -5.573805713689701
      ],
      [
        "y",
        -5.598649782246982
      ],
      [
        "Ġit",
        -5.618882294914929
      ],
      [
        "Ġwas",
        -5.651925012100325
      ],
      [
        "Ġfrom",
        -5.669644181326083
      ],
      [
        ")",
        -5.686659101953175
      ],
      [
        "Ġ",
        -5.830065398797402
      ],
      [
        "Ġat",
        -5.881637380063669
      ],
      [
        "Ġhave",
        -5.897647612509388
      ],
      [
        "Ġnot",
        -5.942987155726705
      ],
      [
        "Ġan",
        -5.962595845755999
      ],
      [
        "Ġthis",
        -5.991784513595713
      ],
      [
        "âĢĻ",
        -5.991900263422842
      ],
      [
        "Ġcan",
        -6.072481476163043
      ],
      [
        "Ġyou",
        -6.129414695477898
      ],
      [
        "The",
        -6.164913871951141
      ],
      [
        "Ġwhich",
        -6.17710829393244
      ],
      [
        "Ġtheir",
        -6.19194920067922
      ],
      [
        "Ġ\"",
        -6.213252974894397
      ],
      [
        ";",
        -6.315454999495131
      ],
      [
        "Ġhas",
        -6.341424087300846
      ],
      [
        "Ġmore",
        -6.342742458703169
      ],
      [
        "Ġwere",
        -6.34512605212635
      ],
      [
        "Ġwill",
        -6.369984955382252
      ],
      [
        "Ġthey",
        -6.373115043914876
      ],
      [
        "Ġone",
        -6.436080038909342
      ],
      [
        "Ġbut",
        -6.463303944873967
      ],
      [
        "\"",
        -6.477320760895388
      ],
      [
        "Ġhis",
        -6.517812575143553
      ],
      [
        "d",
        -6.545483734013278
      ],
      [
        "Ġall",
        -6.5639747669400705
      ],
      [
        "Ġother",
        -6.570050909830906
      ],
      [
        "ĠI",
        -6.588736154048904
      ],
      [
        "Ġalso",
        -6.590215276173199
      ],
      [
        "t",
        -6.605214716065037
      ],
      [
        "e",
        -6.61397374123456
      ],
      [
        "Ġwe",
        -6.626859834646659
      ],
      [
        "Ġyour",
        -6.638609901271744
      ],
      [
        "Ġabout",
        -6.641523924197363
      ],
      [
        "/",
        -6.6428507850759
      ],
      [
        "Ġhe",
        -6.663013348847226
      ],
      [
        ").",
        -6.702568221515069
      ],
      [
        "Ġwho",
        -6.725167583883621
      ],
      [
        "Ġthan",
        -6.735223906975598
      ],
      [
        "Ġbeen",
        -6.736463791571071
      ],
      [
        "ĠA",
        -6.737959103325103
      ],
      [
        "Ġmay",
        -6.742015018886924
      ],
      [
        "ĠIn",
        -6.756335868624097
      ],
      [
        "Ġhad",
        -6.779192029486458
      ],
      [
        "ĠâĢľ",
        -6.804421163023683
      ],
      [
        "?",
        -6.826872031196485
      ],
      [
        "Ġinto",
        -6.852882689227288
      ],
      [
        "Ġits",
        -6.868304316106418
      ],
      [
        "er",
        -6.8740345194891095
      ],
      [
        "Ġwhen",
        -6.886805044050032
      ],
      [
        "Ġtime",
        -6.8941590306252625
      ],
      [
        "Ġsome",
        -6.900667402534047
      ],
      [
        "Ġthese",
        -6.903600227196723
      ],
      [
        "ĠIt",
        -6.907183124127036
      ],
      [
        "Ġwould",
        -6.9235287772904055
      ],
      [
        "Ġpeople",
        -6.946261544295798
      ],
      [
        "Ġmost",
        -6.956493545701045
      ],
      [
        "Ġthem",
        -6.97810602316232
      ],
      [
        "ĠThis",
        -6.988771170173468
      ],
      [
        "Ġthere",
        -6.9983417377996595
      ],
      [
        "Ġsuch",
        -7.000092275949518
      ],
      [
        "Ġso",
        -7.029031920540218
      ],
      [
        "Ġout",
        -7.0529783211346295
      ],
      [
        "Ġuse",
        -7.054503669349133
      ],
      [
        "Ġfirst",
        -7.059765733540569
      ],
      [
        "Ġup",
        -7.06068012596373
      ],
      [
        "Ġonly",
        -7.073172086204355
      ],
      [
        "Ġif",
        -7.083087649402081
      ],
      [
        "Ġtwo",
        -7.109047507431976
      ],
      [
        "Ġnew",
        -7.115594958819953
      ],
      [
        "Ġwhat",
        -7.120215805264074
      ],
      [
        "a",
        -7.125283802515698
      ],
      [
        "Ġused",
        -7.133078557230901
      ],
      [
        "Ġmany",
        -7.1398811022119215
      ],
      [
        "Ġdo",
        -7.150620841724212
      ],
      [
        "Ġour",
        -7.150648609643463
      ],
      [
        "Ġno",
        -7.165941734964656
      ],
      [
        "Ġ-",
        -7.170000846271737
      ],
      [
        "),",
        -7.196289164762954
      ],
      [
        "Ġover",
        -7.210147547164338
      ],
      [
        "Ġyears",
        -7.228452018309552
      ],
      [
        "|",
        -7.271427818121698
      ],
      [
        "Ġhow",
        -7.275044752897838
      ],
      [
        "Ġ1",
        -7.286820477316032
      ],
      [
        "Ġany",
        -7.292380273486286
      ],
      [
        "A",
        -7.293184704375937
      ],
      [
        "Ġwater",
        -7.330523364570222
      ],
      [
        "Ġbetween",
        -7.332830310959189
      ],
      [
        "Ġlike",
        -7.3344997027996115
      ],
      [
        "Ġcould",
        -7.341430532817748
      ],
      [
        "Ġthrough",
        -7.3437902154304275
      ],
      [
        "Ġwell",
        -7.350329053681271
      ],
      [
        "Ġshould",
        -7.364735779735376
      ],
      [
        "1",
        -7.376340419233667
      ],
      [
        "Ġsaid",
        -7.377148978488041
      ],
      [
        "âĢĿ",
        -7.379473225690839
      ],
      [
        "S",
        -7.3822580122247
      ],
      [
        "2",
        -7.395925764507396
      ],
      [
        "Ġwork",
        -7.415753231869644
      ],
      [
        "In",
        -7.433525625114669
      ],
      [
        "Ġwhere",
        -7.433921185700806
      ],
      [
        "es",
        -7.442092838844983
      ],
      [
        "Ġafter",
        -7.478250455654571
      ],
      [
        "Ġthose",
        -7.484248997805642
      ],
      [
        "Ġbecause",
        -7.485587700726381
      ],
      [
        "Ġmake",
        -7.490875014746678
      ],
      [
        "Ġvery",
        -7.50127214766335
      ],
      [
        "Ġthen",
        -7.5172762236043695
      ],
      [
        "Ġinformation",
        -7.530128349054973
      ],
      [
        "Ġfound",
        -7.532315491839396
      ],
      [
        "Ġsystem",
        -7.559875796299941
      ],
      [
        "Ġ2",
        -7.56885220400806
      ],
      [
        "Ġeven",
        -7.568973166984339
      ],
      [
        ".\"",
        -7.574364305470432
      ],
      [
        "Ġworld",
        -7.577256133486477
      ],
      [
        "Ġway",
        -7.577709861826278
      ],
      [
        "Ġhelp",
        -7.579040822290507
      ],
      [
        "Ġeach",
        -7.580257115322791
      ],
      [
        "Ġbeing",
        -7.607599378293203
      ],
      [
        "Ġmade",
        -7.60953957808921
      ],
      [
        "Ġchildren",
        -7.611714434484577
      ],
      [
        "Ġher",
        -7.620455644609205
      ],
      [
        "Ġmuch",
        -7.620752566143
      ],
      [
        "Ġduring",
        -7.624847593615803
      ],
      [
        "Ġyear",
        -7.634786761120898
      ],
      [
        "Ġpart",
        -7.63485062574779
      ],
      [
        "Ġsame",
        -7.639601742972355
      ],
      [
        "ĠHe",
        -7.653241168921749
      ],
      [
        "Ġhigh",
        -7.653265477716257
      ],
      [
        "Ġunder",
        -7.664458955910673
      ],
      [
        "Ġlife",
        -7.666061379291381
      ],
      [
        "th",
        -7.672429493836816
      ],
      [
        "Ġsee",
        -7.67713281431938
      ],
      [
        "ies",
        -7.684822666608143
      ],
      [
        "Ġjust",
        -7.6863539286833955
      ],
      [
        "Ġneed",
        -7.702948925969096
      ],
      [
        "Ġdifferent",
        -7.705578886886384
      ],
      [
        "Ġboth",
        -7.715007614149993
      ],
      [
        "Ġnumber",
        -7.732193626044259
      ],
      [
        "Ġbefore",
        -7.734070451022559
      ],
      [
        "Ġstudy",
        -7.73489888607547
      ],
      [
        "ĠâĢĵ",
        -7.76070106272417
      ],
      [
        "Ġimportant",
        -7.765066883445243
      ],
      [
        "Ġnow",
        -7.765650879930686
      ],
      [
        "ity",
        -7.76875252748269
      ],
      [
        "ĠNew",
        -7.768862067224148
      ],
      [
        "Ġlong",
        -7.769499156179608
      ],
      [
        "Ġstudents",
        -7.771165630109268
      ],
      [
        "ĠThey",
        -7.774642973499901
      ],
      [
        "Ġresearch",
        -7.776730653806329
      ],
      [
        "ĠIf",
        -7.78663978216629
      ],
      [
        "the",
        -7.78677618401667
      ],
      [
        "Ġ3",
        -7.788021519445721
      ],
      [
        "Ġstate",
        -7.788534578110939
      ],
      [
        "%",
        -7.789096307193686
      ],
      [
        "Ġthree",
        -7.798713846737558
      ],
      [
        "000",
        -7.8026833607639325
      ],
      [
        "||",
        -7.806086744780442
      ],
      [
        "ĠU",
        -7.806361689633606
      ],
      [
        "3",
        -7.807501234287111
      ],
      [
        "Ġhealth",
        -7.8106597030520515
      ],
      [
        "Ġown",
        -7.825144125465226
      ],
      [
        "Ġdata",
        -7.825602994762503
      ],
      [
        "Ġoften",
        -7.827719475485235
      ],
      [
        "Ġget",
        -7.839475856909113
      ],
      [
        "Ġlarge",
        -7.840167059126531
      ],
      [
        "âĢĶ",
        -7.851650908182602
      ],
      [
        ",\"",
        -7.854418409121976
      ],
      [
        "(",
        -7.857590055650469
      ],
      [
        "Ġmust",
        -7.861216876122031
      ],
      [
        "ĠFor",
        -7.86312333816417
      ],
      [
        "Ġday",
        -7.869655293518212
      ],
      [
        "ĠAmerican",
        -7.870171463007514
      ],
      [
        "Ġwhile",
        -7.871999351536335
      ],
      [
        "Ġus",
        -7.880974527964184
      ],
      [
        "ĠUniversity",
        -7.881633791143521
      ],
      [
        ".âĢĿ",
        -7.8836504889788035
      ],
      [
        "Ġcalled",
        -7.886555890957696
      ],
      [
        "ĠBut",
        -7.88870600333683
      ],
      [
        "Ġusing",
        -7.889161820583391
      ],
      [
        "Ġtake",
        -7.904592274691643
      ],
      [
        "Ġgood",
        -7.911960031463327
      ],
      [
        "Ġsmall",
        -7.923503487069226
      ],
      [
        "Ġhim",
        -7.931645988232644
      ],
      [
        "This",
        -7.934338180968805
      ],
      [
        "Ġplace",
        -7.934935129638342
      ],
      [
        "Ġhuman",
        -7.935463977900936
      ],
      [
        "Ġexample",
        -7.935857127275828
      ],
      [
        "Ġincluding",
        -7.940014398664317
      ],
      [
        "Ġcommon",
        -7.949326832539445
      ],
      [
        "Ġpower",
        -7.951233536161599
      ],
      [
        "Ġaround",
        -7.966400654900994
      ],
      [
        "Ġknown",
        -7.968895750394733
      ],
      [
        "Ġdoes",
        -7.976985510828939
      ],
      [
        "re",
        -7.978532586131886
      ],
      [
        "Ġform",
        -7.984597138021293
      ],
      [
        "Ġ10",
        -7.9906013516480385
      ],
      [
        "I",
        -7.995117980841728
      ],
      [
        "in",
        -7.997677100284257
      ],
      [
        "Ġknow",
        -8.003982886421085
      ],
      [
        "Ġgreat",
        -8.01004860475937
      ],
      [
        "Ġstill",
        -8.011615813416444
      ],
      [
        "Ġfood",
        -8.011787424257761
      ],
      [
        "ĠC",
        -8.020246865726012
      ],
      [
        "5",
        -8.022208491236265
      ],
      [
        "ĠUnited",
        -8.022468828848664
      ],
      [
        "Ġback",
        -8.026030664827381
      ],
      [
        "Ġless",
        -8.029720547866882
      ],
      [
        "Ġbody",
        -8.031509040566757
      ],
      [
        "Ġmy",
        -8.033540230185743
      ],
      [
        "Ġschool",
        -8.0343698062899
      ],
      [
        "Ġfew",
        -8.034380954031136
      ],
      [
        "Ġpublic",
        -8.035986481973525
      ],
      [
        "Ġgovernment",
        -8.03754708203863
      ],
      [
        "Ġarea",
        -8.043957377757911
      ],
      [
        "Ġshe",
        -8.044415904108053
      ],
      [
        "Ġend",
        -8.046924832093037
      ],
      [
        "Ġdid",
        -8.047278566909512
      ],
      [
        "!",
        -8.05510402401024
      ],
      [
        "m",
        -8.061817005398517
      ],
      [
        "Ġenergy",
        -8.064472524599724
      ],
      [
        "4",
        -8.070439357581844
      ],
      [
        "Ġright",
        -8.075819807524281
      ],
      [
        "Ġdisease",
        -8.077494386094365
      ],
      [
        "us",
        -8.079609974481558
      ],
      [
        "Ġwithin",
        -8.07971011964129
      ],
      [
        "Ġdown",
        -8.080671317750776
      ],
      [
        "Ġdevelopment",
        -8.086813082116068
      ],
      [
        "Ġwithout",
        -8.087035649842571
      ],
      [
        "Ġmight",
        -8.088851097867149
      ],
      [
        "Ġchange",
        -8.092527025780782
      ],
      [
        "Ġsupport",
        -8.093126982821902
      ],
      [
        "Ġanother",
        -8.095943239438856
      ],
      [
        "Ġwomen",
        -8.096364288477353
      ],
      [
        "Ġ4",
        -8.096522689317219
      ],
      [
        "Ġ5",
        -8.099938058156772
      ],
      [
        "ĠStates",
        -8.109660085138769
      ],
      [
        "ĠWe",
        -8.112447006881254
      ],
      [
        "ĠThese",
        -8.113529630815076
      ],
      [
        "Ġevery",
        -8.11383551524039
      ],
      [
        "Ġearly",
        -8.114625389939954
      ],
      [
        "ĠS",
        -8.119566338090651
      ],
      [
        "on",
        -8.119917122099569
      ],
      [
        "Ġsays",
        -8.125668387071352
      ],
      [
        "Ġinclude",
        -8.126732652980872
      ],
      [
        "Ġpresent",
        -8.128273708773067
      ],
      [
        "ĠM",
        -8.131932818891078
      ],
      [
        "Ġagainst",
        -8.133939028949689
      ],
      [
        "Ġprocess",
        -8.135141556444403
      ],
      [
        "Ġfind",
        -8.138921355729032
      ],
      [
        "Ġpercent",
        -8.140097972328194
      ],
      [
        "Ġspecies",
        -8.141225860887545
      ],
      [
        "ĠNational",
        -8.141780280734105
      ],
      [
        "Ġorder",
        -8.142010334975925
      ],
      [
        "i",
        -8.14459009757761
      ],
      [
        "Ġ&",
        -8.165867528214386
      ],
      [
        "Ġchild",
        -8.166018081808364
      ],
      [
        "Ġhistory",
        -8.168768500919656
      ],
      [
        "Ġ[",
        -8.169442958478296
      ],
      [
        "ĠD",
        -8.171041987853283
      ],
      [
        "âĢĵ",
        -8.171125596013932
      ],
      [
        "Ġlast",
        -8.173684818514017
      ],
      [
        "Ġgroup",
        -8.18257586855596
      ],
      [
        "and",
        -8.185993213926134
      ],
      [
        "Ġseveral",
        -8.192385051877727
      ],
      [
        "ĠB",
        -8.194076276304328
      ],
      [
        "Ġ'",
        -8.19895331160618
      ],
      [
        "D",
        -8.199918051731753
      ],
      [
        ",âĢĿ",
        -8.202502277874729
      ],
      [
        "Ġrisk",
        -8.202971812604
      ],
      [
        "Ġset",
        -8.20503440549856
      ],
      [
        "ĠThere",
        -8.20838078911773
      ],
      [
        "Ġbecome",
        -8.208701525501153
      ],
      [
        "Ġparticular",
        -8.208995829698027
      ],
      [
        "n",
        -8.20905947951259
      ],
      [
        "Ġcurrent",
        -8.213596197250808
      ],
      [
        "Ġblood",
        -8.21363818811955
      ],
      [
        "]",
        -8.218106146080624
      ],
      [
        "Ġname",
        -8.237045517955227
      ],
      [
        "ĠAnd",
        -8.239318989153666
      ],
      [
        "Ġsince",
        -8.241611212039443
      ],
      [
        "It",
        -8.242361148207156
      ],
      [
        "Ġavailable",
        -8.24306204468857
      ],
      [
        "Ġprovide",
        -8.244982164094996
      ],
      [
        "Ġfamily",
        -8.251014627298575
      ],
      [
        "Ġresult",
        -8.25391784526316
      ],
      [
        "Ġhere",
        -8.254402507076563
      ],
      [
        "Ġcontrol",
        -8.257426345760104
      ],
      [
        "Ġper",
        -8.274060982493644
      ],
      [
        "Ġlight",
        -8.274739311836555
      ],
      [
        "Ġamong",
        -8.276513007281897
      ],
      [
        "ĠâĢĶ",
        -8.276734072340464
      ],
      [
        "ĠAs",
        -8.281093530741913
      ],
      [
        "Ġpossible",
        -8.28849671263632
      ],
      [
        "Ġareas",
        -8.290014729966709
      ],
      [
        "Ġsocial",
        -8.291690960795858
      ],
      [
        "Ġp",
        -8.292216452840265
      ],
      [
        "ĠGod",
        -8.294082311043535
      ],
      [
        "Ġoff",
        -8.295330611988643
      ],
      [
        "Ġcause",
        -8.298049391178203
      ],
      [
        "o",
        -8.298131630486493
      ],
      [
        "Ġwant",
        -8.298999180633855
      ],
      [
        "Ġpoint",
        -8.300697326014978
      ],
      [
        "to",
        -8.304255316722681
      ],
      [
        "ĠJ",
        -8.305533498903399
      ],
      [
        "C",
        -8.307600418251655
      ],
      [
        "able",
        -8.309478792934089
      ],
      [
        "Ġlocal",
        -8.313481209443946
      ],
      [
        "Ġtoo",
        -8.318435895145255
      ],
      [
        "Ġ20",
        -8.318685679256657
      ],
      [
        "Ġcountry",
        -8.319499630193707
      ],
      [
        "Ġland",
        -8.321048669091963
      ],
      [
        "Ġfollowing",
        -8.322146852346629
      ],
      [
        "Ġtest",
        -8.322211455847091
      ],
      [
        "Ġhome",
        -8.32407428003706
      ],
      [
        "âĢľ",
        -8.324811708423121
      ],
      [
        "Ġallow",
        -8.326063081961149
      ],
      [
        "Ġbetter",
        -8.332415694571411
      ],
      [
        "Ġgo",
        -8.332597742949764
      ],
      [
        "Ġmen",
        -8.333660419379909
      ],
      [
        "or",
        -8.333781710916965
      ],
      [
        "Ġlevel",
        -8.333826703076342
      ],
      [
        "Ġmeans",
        -8.336944119236588
      ],
      [
        "Ġfull",
        -8.339257616771636
      ],
      [
        "ĠWhen",
        -8.341687009182653
      ],
      [
        "Ġgiven",
        -8.344058349760386
      ],
      [
        "Ġprogram",
        -8.349305309301721
      ],
      [
        "Ġcase",
        -8.349460700786361
      ],
      [
        "Ġmillion",
        -8.349945959350181
      ],
      [
        "Ġage",
        -8.350602807688155
      ],
      [
        "Ġuntil",
        -8.35088456367571
      ],
      [
        "Ġtreatment",
        -8.351443508815555
      ],
      [
        "Ġperson",
        -8.354134905533916
      ],
      [
        "Ġbest",
        -8.3550644159124
      ],
      [
        "Ġ$",
        -8.357798128623896
      ],
      [
        "ĠYou",
        -8.360670006540468
      ],
      [
        "Ġcome",
        -8.364730292355004
      ],
      [
        "Ġlow",
        -8.367922280047928
      ],
      [
        "Ġsecond",
        -8.37314582080765
      ],
      [
        "Ġlater",
        -8.373156467659404
      ],
      [
        "Ġbased",
        -8.377409438940363
      ],
      [
        "Ġlittle",
        -8.377785858024115
      ],
      [
        "al",
        -8.381389710589351
      ],
      [
        "Ġnon",
        -8.38245855321833
      ],
      [
        "Ġsay",
        -8.384723256954569
      ],
      [
        "Ġcancer",
        -8.386821950154093
      ],
      [
        "ĠE",
        -8.388746740842388
      ],
      [
        "Ġman",
        -8.38945276389646
      ],
      [
        "Ġ6",
        -8.391444995149172
      ],
      [
        "Ġfact",
        -8.392230480314668
      ],
      [
        "Ġpopulation",
        -8.398453880536296
      ],
      [
        "Ġnatural",
        -8.399742254090526
      ],
      [
        "Ġfour",
        -8.399849468363426
      ],
      [
        "Ġthink",
        -8.401579127164355
      ],
      [
        "ĠTo",
        -8.401961064018394
      ],
      [
        "Ġcentury",
        -8.402998577277215
      ],
      [
        "Ġcertain",
        -8.408598941351324
      ],
      [
        "ĠHowev",
        -8.4147688394784
      ],
      [
        "Ġable",
        -8.418232395655284
      ],
      [
        "Ġcells",
        -8.420301913458061
      ],
      [
        "Ġme",
        -8.421497555526251
      ],
      [
        "Ġcontain",
        -8.424742106558055
      ],
      [
        "Ġdon",
        -8.426262577685705
      ],
      [
        "Ġproblem",
        -8.427856800027634
      ],
      [
        "Ġbook",
        -8.430586001866633
      ],
      [
        "Ġproblems",
        -8.43320353334237
      ],
      [
        "Ġmajor",
        -8.436470183584978
      ],
      [
        "Ġhowever",
        -8.437425136640078
      ],
      [
        "Ġthings",
        -8.448249066719384
      ],
      [
        "Ġfar",
        -8.449534996402898
      ],
      [
        "Ġreport",
        -8.452158670726277
      ],
      [
        "6",
        -8.454280455845437
      ],
      [
        "ĠR",
        -8.454678195269656
      ],
      [
        "Ġ|",
        -8.457373641008502
      ],
      [
        "Ġalong",
        -8.457784162782582
      ],
      [
        "Ġopen",
        -8.462009683857342
      ],
      [
        "Ġspecific",
        -8.462081293755753
      ],
      [
        "Ġtype",
        -8.46218986728709
      ],
      [
        "ness",
        -8.475018002418594
      ],
      [
        "Ġsite",
        -8.477628144722987
      ],
      [
        "Ġlook",
        -8.478379419305053
      ],
      [
        "Ġusually",
        -8.479039154263205
      ],
      [
        "Ġproject",
        -8.481684080155219
      ],
      [
        "Ġcommunity",
        -8.484150180532746
      ],
      [
        "Ġabove",
        -8.49055937929756
      ],
      [
        "Ġfree",
        -8.491483785549052
      ],
      [
        "Ġlevels",
        -8.492908767588755
      ],
      [
        "Ġcare",
        -8.493609478430052
      ],
      [
        "Ġtimes",
        -8.49397000907796
      ],
      [
        "Ġperiod",
        -8.497640715948172
      ],
      [
        "Ġreal",
        -8.500732408115129
      ],
      [
        "Ġbecame",
        -8.502133986542798
      ],
      [
        "Ġleast",
        -8.50456096328662
      ],
      [
        "Ġ--",
        -8.50712713751707
      ],
      [
        "Ġeducation",
        -8.50795268306146
      ],
      [
        "Ġde",
        -8.509050199429495
      ],
      [
        "Ġdays",
        -8.511155838781974
      ],
      [
        "Ġair",
        -8.51137524211495
      ],
      [
        "Ġcourse",
        -8.51798985802874
      ],
      [
        "Ġlaw",
        -8.519664144633357
      ],
      [
        "Ġlikely",
        -8.520388018040373
      ],
      [
        "We",
        -8.528436187086651
      ],
      [
        "Ġcountries",
        -8.52897032066929
      ],
      [
        "ĠP",
        -8.528973332583877
      ],
      [
        "ĠWar",
        -8.531877857773393
      ],
      [
        "Ġincrease",
        -8.536603746336379
      ],
      [
        "Ġlanguage",
        -8.537291356470122
      ],
      [
        "Ġgeneral",
        -8.538187805403007
      ],
      [
        "ĠAmerica",
        -8.539286820317393
      ],
      [
        "Ġleft",
        -8.54207096452885
      ],
      [
        "ĠâĢĺ",
        -8.542765685818555
      ],
      [
        "Ġsimilar",
        -8.544570914051723
      ],
      [
        "Ġnext",
        -8.549527453811532
      ],
      [
        "Ġscience",
        -8.550036535770182
      ],
      [
        "Ġothers",
        -8.55072956978162
      ],
      [
        "est",
        -8.550839649693627
      ],
      [
        "Ġresults",
        -8.551123065815576
      ],
      [
        "Ġmain",
        -8.551129632616993
      ],
      [
        "ĠWhat",
        -8.5525664486406
      ],
      [
        "ĠWorld",
        -8.553154391258913
      ],
      [
        "Ġwar",
        -8.555312358994973
      ],
      [
        "Ġcreate",
        -8.558968815946082
      ],
      [
        "Ġsystems",
        -8.559246147586835
      ],
      [
        "If",
        -8.559491768228288
      ],
      [
        "Ġside",
        -8.56430149441852
      ],
      [
        "Ġheart",
        -8.57435095829276
      ],
      [
        "Ġtoday",
        -8.576904510059068
      ],
      [
        "Ġgive",
        -8.57827061454064
      ],
      [
        "Ġmaking",
        -8.579167787070478
      ],
      [
        "Ġnever",
        -8.579314499446975
      ],
      [
        "Ġpotential",
        -8.5823163913828
      ],
      [
        "ĠYork",
        -8.582827704719357
      ],
      [
        "Ġold",
        -8.584587545522522
      ],
      [
        "Ġ12",
        -8.585143867941435
      ],
      [
        "Ġ0",
        -8.585238062240915
      ],
      [
        "Ġcity",
        -8.588132689899084
      ],
      [
        "Ġconditions",
        -8.596360609857317
      ],
      [
        "Ġhigher",
        -8.597148831106896
      ],
      [
        "Ġstudies",
        -8.597254595132577
      ],
      [
        "Ġdue",
        -8.598347323061809
      ],
      [
        "Ġfuture",
        -8.59990041294642
      ],
      [
        "Ġstrong",
        -8.600797737469621
      ],
      [
        "Ġspace",
        -8.60087313094913
      ],
      [
        "Ġupon",
        -8.604517827649817
      ],
      [
        "Ġtogether",
        -8.608559580892475
      ],
      [
        "ĠJohn",
        -8.608910529040676
      ],
      [
        "Ġ8",
        -8.610246494427226
      ],
      [
        "Ġview",
        -8.611702557371736
      ],
      [
        "Ġfollow",
        -8.61191645824137
      ],
      [
        "Ġalways",
        -8.612221664892568
      ],
      [
        "Ġshow",
        -8.61231260796054
      ],
      [
        "Ġwhether",
        -8.615851699215435
      ],
      [
        "Ġwords",
        -8.618473484550753
      ],
      [
        "Ġdeath",
        -8.618517464931521
      ],
      [
        "Ġnational",
        -8.620501025067139
      ],
      [
        "Ġline",
        -8.62225723945426
      ],
      [
        "What",
        -8.622357671274617
      ],
      [
        "Ġaway",
        -8.62633625036561
      ],
      [
        "Ġexperience",
        -8.627911057534309
      ],
      [
        "Ġchanges",
        -8.629828323622311
      ],
      [
        "Ġsomething",
        -8.630289255003696
      ],
      [
        "8",
        -8.630332328433168
      ],
      [
        "ic",
        -8.630521294052125
      ],
      [
        "Ġsurface",
        -8.631564160074301
      ],
      [
        "Ġshort",
        -8.632103978844118
      ],
      [
        "Ġtechnology",
        -8.632419424834152
      ],
      [
        "Ġ7",
        -8.634274214975623
      ],
      [
        "Ġrequire",
        -8.634596838346166
      ],
      [
        "Ġvarious",
        -8.635131715060165
      ],
      [
        "com",
        -8.637876205520117
      ],
      [
        "Ġthought",
        -8.638104790903629
      ],
      [
        "Ġal",
        -8.638227411485126
      ],
      [
        "Ġnear",
        -8.638347697939347
      ],
      [
        "Ġenough",
        -8.640919955175532
      ],
      [
        "Ġappear",
        -8.64214949271909
      ],
      [
        "Ġ15",
        -8.643353416021045
      ],
      [
        "0",
        -8.643439219121543
      ],
      [
        "Ġespecially",
        -8.644695861381658
      ],
      [
        "Ġresearchers",
        -8.646548252007019
      ],
      [
        "Ġsubject",
        -8.646764569207827
      ],
      [
        "Ġpolitical",
        -8.648208992163422
      ],
      [
        "Ġbrain",
        -8.648792619932442
      ],
      [
        "Ġput",
        -8.649312429499671
      ],
      [
        "7",
        -8.650456246781928
      ],
      [
        "Ġlive",
        -8.650739046794516
      ],
      [
        "Ġmaterial",
        -8.651527207328742
      ],
      [
        "is",
        -8.653022715347166
      ],
      [
        "ĠSome",
        -8.653157275557804
      ],
      [
        "g",
        -8.653347037728652
      ],
      [
        "Ġfurther",
        -8.653710436958875
      ],
      [
        "Ġfield",
        -8.654850339752006
      ],
      [
        "Ġacross",
        -8.657003731455502
      ],
      [
        "ĠHealth",
        -8.65916685264219
      ],
      [
        "Ġaccess",
        -8.659518335488247
      ],
      [
        "ĠState",
        -8.659892848207777
      ],
      [
        "Ġdeveloped",
        -8.66155181841875
      ],
      [
        "Ġplay",
        -8.661572560756817
      ],
      [
        "Ġlearning",
        -8.66220506222757
      ],
      [
        "For",
        -8.663430383092297
      ],
      [
        "Ġeffects",
        -8.664419855905178
      ],
      [
        "Ġgroups",
        -8.665305954966989
      ],
      [
        "Ġhaving",
        -8.666991131680446
      ],
      [
        "Ġeffective",
        -8.667218122150269
      ],
      [
        "Ġcases",
        -8.668560120817077
      ],
      [
        "ĠEnglish",
        -8.669494944312161
      ],
      [
        "Ġyoung",
        -8.669909341605324
      ],
      [
        "Ġeither",
        -8.670544299582932
      ],
      [
        "Ġproduction",
        -8.673375676543605
      ],
      [
        "Ġindividual",
        -8.674136559317185
      ],
      [
        "Ġfive",
        -8.674937402827695
      ],
      [
        "Ġlower",
        -8.675323515900105
      ],
      [
        "Ġpatients",
        -8.67775075222538
      ],
      [
        "ĠT",
        -8.67790609846641
      ],
      [
        "Ġplant",
        -8.67806905960688
      ],
      [
        "Ġlearn",
        -8.678388485575733
      ],
      [
        "Ġoriginal",
        -8.679408991591774
      ],
      [
        "Ġpast",
        -8.679464036555471
      ],
      [
        "Ġseen",
        -8.679550372915003
      ],
      [
        "Ġdevelop",
        -8.679990529501167
      ],
      [
        "Ġrate",
        -8.680511767196608
      ],
      [
        "Ġrather",
        -8.68151834955858
      ],
      [
        "There",
        -8.683188013365282
      ],
      [
        "ĠNorth",
        -8.68372743701798
      ],
      [
        "Ġ30",
        -8.684855661238412
      ],
      [
        "Ġcame",
        -8.685335566936562
      ],
      [
        "ĠOne",
        -8.686066715904182
      ],
      [
        "Ġrange",
        -8.686861262737947
      ],
      [
        "ĠEarth",
        -8.687176299666676
      ],
      [
        "Ġtaken",
        -8.687186930719335
      ],
      [
        "Ġsource",
        -8.687505477549424
      ],
      [
        "Ġeffect",
        -8.688450205702964
      ],
      [
        "Ġkeep",
        -8.69028186520322
      ],
      [
        "10",
        -8.690797750909757
      ],
      [
        "ĠH",
        -8.692253230189444
      ],
      [
        "Ġread",
        -8.692589592784003
      ],
      [
        "Ġplants",
        -8.693169304541627
      ],
      [
        "Ġlead",
        -8.693868455771414
      ],
      [
        "Ġaccording",
        -8.693955534402006
      ],
      [
        "Ġworking",
        -8.694769844973008
      ],
      [
        "ĠSouth",
        -8.69601497631658
      ],
      [
        "Ġevidence",
        -8.698850394796208
      ],
      [
        "ally",
        -8.699040525461909
      ],
      [
        "Ġthough",
        -8.6997330062476
      ],
      [
        "ĠG",
        -8.70259081146555
      ],
      [
        "Ġhand",
        -8.702692612489535
      ],
      [
        "Ġsingle",
        -8.703123079886195
      ],
      [
        "Ġmodel",
        -8.703147837917527
      ],
      [
        "Ġvalue",
        -8.709761825229364
      ],
      [
        "Ġresources",
        -8.712886178484693
      ],
      [
        "ve",
        -8.714002430192489
      ],
      [
        "Ġword",
        -8.71518057270236
      ],
      [
        "Ġwhy",
        -8.717698595314667
      ],
      [
        "Ġalready",
        -8.719705574482552
      ],
      [
        "Ġpublished",
        -8.7213158424553
      ],
      [
        "Ġdesign",
        -8.721434736541784
      ],
      [
        "Ġdifficult",
        -8.721832894708493
      ],
      [
        "ĠN",
        -8.72281565904603
      ],
      [
        "Ġarticle",
        -8.723932172759532
      ],
      [
        "Ġclimate",
        -8.724183636063612
      ],
      [
        "of",
        -8.727999580162939
      ],
      [
        "Ġeconomic",
        -8.728477715384086
      ],
      [
        "Ġenvironment",
        -8.730151794898125
      ],
      [
        "ĠL",
        -8.735122887611324
      ],
      [
        "Ġamount",
        -8.73555979497965
      ],
      [
        "ĠOn",
        -8.736070065167707
      ],
      [
        "://",
        -8.736090853014504
      ],
      [
        "Ġrole",
        -8.740426685091183
      ],
      [
        "Ġknowledge",
        -8.742525805135758
      ],
      [
        "Ġdone",
        -8.7428770150692
      ],
      [
        "ĠThat",
        -8.744209966408635
      ],
      [
        "Ġmatter",
        -8.744413105229924
      ],
      [
        "Ġreduce",
        -8.746090480807911
      ],
      [
        "Ġbegan",
        -8.750098625663192
      ],
      [
        "Ġunderstand",
        -8.752358679257695
      ],
      [
        "Ġgoing",
        -8.756349270229068
      ],
      [
        "Ġfocus",
        -8.756736854660959
      ],
      [
        "Ġprevent",
        -8.757625689579841
      ],
      [
        "Ġmedical",
        -8.757688386424459
      ],
      [
        "ĠAt",
        -8.760030246787457
      ],
      [
        "Ġsize",
        -8.760591392222015
      ],
      [
        "Ġmembers",
        -8.763372245435676
      ],
      [
        "Ġ.",
        -8.76380964909907
      ],
      [
        "Ġaddition",
        -8.764135891747333
      ],
      [
        "Ġquestion",
        -8.766500800618665
      ],
      [
        "Ġwhite",
        -8.766781696607676
      ],
      [
        "Ġ2012",
        -8.768851734326672
      ],
      [
        "Ġtotal",
        -8.771683354100421
      ],
      [
        "Ġonce",
        -8.771973471499413
      ],
      [
        "Ġphysical",
        -8.773610881315948
      ],
      [
        "Ġactivity",
        -8.776251056257275
      ],
      [
        "Ġwhole",
        -8.776888089793541
      ],
      [
        "Ġgrowth",
        -8.778579080633664
      ],
      [
        "Ġbuilding",
        -8.779134803411624
      ],
      [
        "Ġrights",
        -8.779285535667933
      ],
      [
        "ism",
        -8.781325613056211
      ],
      [
        "ĠF",
        -8.78138352209487
      ],
      [
        "Ġwide",
        -8.783548308438153
      ],
      [
        "Ġcost",
        -8.783911329946045
      ],
      [
        "Ġbelow",
        -8.784182643248823
      ],
      [
        "Ġthemselves",
        -8.7847032866995
      ],
      [
        "Ġagain",
        -8.78563664517423
      ],
      [
        "Ġpressure",
        -8.785746496550175
      ],
      [
        "ĠDr",
        -8.785806007771026
      ],
      [
        "Ġoil",
        -8.787364884511701
      ],
      [
        "Ġactivities",
        -8.787367561537138
      ],
      [
        "ĠW",
        -8.787705769875773
      ],
      [
        "Ġitself",
        -8.789209541973939
      ],
      [
        "Ġnormal",
        -8.79012371176118
      ],
      [
        "ĠSo",
        -8.790646323037162
      ],
      [
        "Ġcannot",
        -8.792369190070009
      ],
      [
        "Ġnature",
        -8.794917229535226
      ],
      [
        "Ġclass",
        -8.796695459933533
      ],
      [
        "Ġcreated",
        -8.79680072679532
      ],
      [
        "an",
        -8.797408857480864
      ],
      [
        "Ġtook",
        -8.79854315977265
      ],
      [
        "Ġalmost",
        -8.80163788534994
      ],
      [
        "Ġliving",
        -8.80193334525866
      ],
      [
        "ĠAll",
        -8.802299000362803
      ],
      [
        "ĠCenter",
        -8.803670173492007
      ],
      [
        "Ġpaper",
        -8.804098431766207
      ],
      [
        "Ġreally",
        -8.804782400214158
      ],
      [
        "Ġhalf",
        -8.805016574119184
      ],
      [
        "Ġregion",
        -8.80566515892834
      ],
      [
        "Ġneeds",
        -8.806493009469872
      ],
      [
        "Ġanimals",
        -8.807466392887566
      ],
      [
        "Ġincreased",
        -8.808409852483035
      ],
      [
        "Ġyet",
        -8.809136947068735
      ],
      [
        "ĠMay",
        -8.809815633663574
      ],
      [
        "Ġteam",
        -8.810076970464639
      ],
      [
        "Ġ2010",
        -8.810436076911854
      ],
      [
        "ĠAn",
        -8.812136651726778
      ],
      [
        "Ġ9",
        -8.8138190099123
      ],
      [
        "Ġentire",
        -8.814686193919108
      ],
      [
        "Ġconsidered",
        -8.81488427394883
      ],
      [
        "Ġaccount",
        -8.815987414545635
      ],
      [
        "Ġglobal",
        -8.819496466416833
      ],
      [
        "Ġstates",
        -8.820039024542524
      ],
      [
        "ever",
        -8.820596016282282
      ],
      [
        "Ġhard",
        -8.821046253347282
      ],
      [
        "Ġsignificant",
        -8.823233195002476
      ],
      [
        "ll",
        -8.825428130071957
      ],
      [
        "Ġrelated",
        -8.826353106416523
      ],
      [
        "Ġ2011",
        -8.828979336130915
      ],
      [
        "Ġblack",
        -8.829509540057021
      ],
      [
        "Ġloss",
        -8.830695443907963
      ],
      [
        "Ġcomputer",
        -8.83258424629247
      ],
      [
        "Ġscientists",
        -8.83329865557164
      ],
      [
        "Ġunit",
        -8.8350074400081
      ],
      [
        "ĠResearch",
        -8.836800805505014
      ],
      [
        "Ġassociated",
        -8.836965441447349
      ],
      [
        "Ġsimple",
        -8.837101328770904
      ],
      [
        "um",
        -8.837751310604688
      ],
      [
        "Ġpage",
        -8.838079631951102
      ],
      [
        "Ġsymptoms",
        -8.838582565487693
      ],
      [
        "Ġclaim",
        -8.840729960019027
      ],
      [
        "Ġkey",
        -8.845949367224462
      ],
      [
        "ĠBritish",
        -8.847522121286724
      ],
      [
        "_",
        -8.848588331611664
      ],
      [
        "Ġ11",
        -8.850631312238924
      ],
      [
        "Ġcell",
        -8.852645494299615
      ],
      [
        "Ġissue",
        -8.854319695106433
      ],
      [
        "ory",
        -8.85478022871185
      ],
      [
        "Ġrequired",
        -8.857152767718636
      ],
      [
        "\".",
        -8.857158186500769
      ],
      [
        "Ġground",
        -8.861508405622615
      ],
      [
        "Ġprovided",
        -8.861993026480386
      ],
      [
        "Ġimpact",
        -8.86471798498811
      ],
      [
        "Ġtypes",
        -8.86473403038257
      ],
      [
        "Ġoffer",
        -8.866347027060462
      ],
      [
        "Ġproducts",
        -8.866706114206446
      ],
      [
        "Ġproduce",
        -8.867298314502525
      ],
      [
        "Ġquality",
        -8.867543780098858
      ],
      [
        "Ġself",
        -8.867762381200004
      ],
      [
        "Ġet",
        -8.869650366207468
      ],
      [
        "Ġstory",
        -8.87268462047027
      ],
      [
        "Ġways",
        -8.873213485292883
      ],
      [
        "Ġbring",
        -8.874698630849403
      ],
      [
        "Ġterm",
        -8.874727115570035
      ],
      [
        "Ġclear",
        -8.875158599080118
      ],
      [
        "Ġsense",
        -8.87607373337423
      ],
      [
        "9",
        -8.877321739452693
      ],
      [
        "):",
        -8.87736722361211
      ],
      [
        "Ġdoctor",
        -8.877453951833528
      ],
      [
        "Ġmonths",
        -8.878150164622033
      ],
      [
        "Ġ100",
        -8.880020949282292
      ],
      [
        "Ġrecent",
        -8.880404226042035
      ],
      [
        "Ġgas",
        -8.883188500565858
      ],
      [
        "Ġneeded",
        -8.885314952312596
      ],
      [
        "Ġhead",
        -8.88675567836876
      ],
      [
        "How",
        -8.886811933099802
      ],
      [
        "ĠHis",
        -8.888149346383189
      ],
      [
        "bility",
        -8.888475800750667
      ],
      [
        "ĠScience",
        -8.888611486672
      ],
      [
        "ĠInstitute",
        -8.890829212130381
      ],
      [
        "Ġcontent",
        -8.891289444184356
      ],
      [
        "Ġmodern",
        -8.89164645791294
      ],
      [
        "To",
        -8.892614720035793
      ],
      [
        "Ġmove",
        -8.893490418471584
      ],
      [
        "Ġstart",
        -8.893798577830967
      ],
      [
        "ĠBy",
        -8.894548351807762
      ],
      [
        "Ġstudent",
        -8.895920173782747
      ],
      [
        "Ġactually",
        -8.897197224066247
      ],
      [
        "Ġ18",
        -8.89790692569588
      ],
      [
        "Ġidea",
        -8.898612182346472
      ],
      [
        "Ġsoil",
        -8.899762623657795
      ],
      [
        "Ġfunction",
        -8.902017778322296
      ],
      [
        "Ġpurpose",
        -8.902218561362409
      ],
      [
        "Ġpractice",
        -8.902765619352376
      ],
      [
        "Ġenvironmental",
        -8.902958716948252
      ],
      [
        "Ġquestions",
        -8.903503137969732
      ],
      [
        "c",
        -8.908464036671138
      ],
      [
        "Ġcover",
        -8.908755577113135
      ],
      [
        "Ġservice",
        -8.90939597594884
      ],
      [
        "Ġtop",
        -8.90950179136039
      ],
      [
        "ĠHow",
        -8.909577932123009
      ],
      [
        "Ġprovides",
        -8.909735761008962
      ],
      [
        "Ġsure",
        -8.910854020890723
      ],
      [
        "Ġspecial",
        -8.910899817406776
      ],
      [
        "Ġrepresent",
        -8.911703512182724
      ],
      [
        "ĠNo",
        -8.914166945135984
      ],
      [
        "Ġdecision",
        -8.914197062039475
      ],
      [
        "ĠDepartment",
        -8.914915037042476
      ],
      [
        "Ġpost",
        -8.916090300657102
      ],
      [
        "Ġun",
        -8.917791914490683
      ],
      [
        "Ġreturn",
        -8.918349218150066
      ],
      [
        "ĠK",
        -8.91870987826728
      ],
      [
        "Ġaverage",
        -8.92047166603123
      ],
      [
        "When",
        -8.92148920695225
      ],
      [
        "Ġapproach",
        -8.921947358619603
      ],
      [
        "Ġ2009",
        -8.922522683216474
      ],
      [
        "Ġweek",
        -8.924846136011746
      ],
      [
        "Ġmakes",
        -8.926116136383103
      ],
      [
        "Ġmaterials",
        -8.927907835844943
      ],
      [
        "Ġaction",
        -8.928833197650874
      ],
      [
        "Ġissues",
        -8.929069272749825
      ],
      [
        "Ġprograms",
        -8.930525912096392
      ],
      [
        "Ġcomplex",
        -8.932492539555657
      ],
      [
        "Ġmaintain",
        -8.932744095968157
      ],
      [
        "Ġdamage",
        -8.933158139382853
      ],
      [
        "Ġbuilt",
        -8.93426634406582
      ],
      [
        "Ġnecessary",
        -8.936113207510385
      ],
      [
        "Ġpass",
        -8.936987484578827
      ],
      [
        "As",
        -8.938236212948214
      ],
      [
        "Ġclose",
        -8.939321651857222
      ],
      [
        "Ġtext",
        -8.942072817017007
      ],
      [
        "Ġfish",
        -8.94348299068777
      ],
      [
        "Ġfinal",
        -8.943638216757867
      ],
      [
        "Ġever",
        -8.944366168481814
      ],
      [
        "Ġhttp",
        -8.944522808391497
      ],
      [
        "Ġposition",
        -8.94543434687441
      ],
      [
        "Ġmoney",
        -8.945988722613718
      ],
      [
        "Ġlist",
        -8.947687025657736
      ],
      [
        "Ġ50",
        -8.953938998398959
      ],
      [
        "Ġservices",
        -8.955049442787285
      ],
      [
        "Ġ2008",
        -8.955718173594743
      ],
      [
        "Ġunderstanding",
        -8.95613881399589
      ],
      [
        "Ġparents",
        -8.956393218255192
      ],
      [
        "Ġprevious",
        -8.956420237019628
      ],
      [
        "en",
        -8.957481145909144
      ],
      [
        "Ġsometime",
        -8.958195055586513
      ],
      [
        "Ġreported",
        -8.9601435142703
      ],
      [
        "Ġimage",
        -8.961714395896072
      ],
      [
        "ĠSt",
        -8.963828936162928
      ],
      [
        "Ġdeep",
        -8.966182084843526
      ],
      [
        "Ġweight",
        -8.96685450709476
      ],
      [
        "Ġ=",
        -8.966996828142458
      ],
      [
        "Ġlate",
        -8.969590151645495
      ],
      [
        "Ġskin",
        -8.971773765777469
      ],
      [
        "based",
        -8.97273508056626
      ],
      [
        "Ġthroughout",
        -8.973870371911019
      ],
      [
        "Ġreading",
        -8.974157447957252
      ],
      [
        "Ġreason",
        -8.975277990301437
      ],
      [
        "Ġhours",
        -8.976641956233673
      ],
      [
        "ĠAfter",
        -8.976863968785134
      ],
      [
        "Ġmanagement",
        -8.977288861333783
      ],
      [
        "Ġtrue",
        -8.977947572204805
      ],
      [
        "Ġpoor",
        -8.97937629117946
      ],
      [
        "Ġscientific",
        -8.980924851287845
      ],
      [
        "Ġbehavior",
        -8.983567654603561
      ],
      [
        "Ġshows",
        -8.98482820988379
      ],
      [
        "Ġago",
        -8.98617967958496
      ],
      [
        "Ġcontact",
        -8.98635468738639
      ],
      [
        "ĠUS",
        -8.986906672558298
      ],
      [
        "Ġquick",
        -8.988135868792913
      ],
      [
        "Ġact",
        -8.988669936574208
      ],
      [
        "Ġled",
        -8.988677414302662
      ],
      [
        "Ġparts",
        -8.988823000949335
      ],
      [
        "Ġlink",
        -8.989489410676375
      ],
      [
        "Ġfinding",
        -8.989528703558552
      ],
      [
        "Ġincreasing",
        -8.990066975286235
      ],
      [
        "Ġgreater",
        -8.99069089219929
      ],
      [
        "Ġschools",
        -8.991127477782875
      ],
      [
        "Ġinterest",
        -8.992233007372437
      ],
      [
        "Ġinternational",
        -8.993515115806797
      ],
      [
        "Ġlonger",
        -8.994776690975607
      ],
      [
        "Ġtell",
        -8.99490812846952
      ],
      [
        "Ġstructure",
        -8.995445204230235
      ],
      [
        "Ġcaused",
        -8.995492501901897
      ],
      [
        "Ġmethod",
        -8.995888232444605
      ],
      [
        "Ġterms",
        -8.998170114145008
      ],
      [
        "But",
        -9.001120923809175
      ],
      [
        "Ġsea",
        -9.00292848780811
      ],
      [
        "Ġkind",
        -9.005198777209829
      ],
      [
        "Ġplan",
        -9.005889687207166
      ],
      [
        "ĠSchool",
        -9.006056838549823
      ],
      [
        "Ġpersonal",
        -9.00744908191357
      ],
      [
        "Ġ16",
        -9.008665656978897
      ],
      [
        "Ġmean",
        -9.00994384913141
      ],
      [
        "Ġlot",
        -9.010998950855098
      ],
      [
        "ĠGerman",
        -9.01135153561182
      ],
      [
        "Ġtreat",
        -9.012996954673278
      ],
      [
        "org",
        -9.013620153144588
      ],
      [
        "Ġattempt",
        -9.014123115671676
      ],
      [
        "Ġfeet",
        -9.014213355270536
      ],
      [
        "Ġtemperature",
        -9.015714541318136
      ],
      [
        "Ġgenerally",
        -9.016774447556756
      ],
      [
        "Ġforce",
        -9.018149575890074
      ],
      [
        "Ġsix",
        -9.01857589152884
      ],
      [
        "Ġproduced",
        -9.018928688800584
      ],
      [
        "Ġwritten",
        -9.020289268110345
      ],
      [
        "Ġanalysis",
        -9.020553477542007
      ],
      [
        "Ġ14",
        -9.020961278210695
      ],
      [
        "Ġcall",
        -9.022037667892397
      ],
      [
        "Ġsituation",
        -9.024247517692425
      ],
      [
        "Ġworks",
        -9.024428123320412
      ],
      [
        "ĠEuropean",
        -9.024963629734694
      ],
      [
        "Ġbelieve",
        -9.02501591867659
      ],
      [
        "Ġshown",
        -9.02807548643741
      ],
      [
        "12",
        -9.028187553328882
      ],
      [
        "Ġ25",
        -9.030652128722524
      ],
      [
        "Ġfall",
        -9.03367810420328
      ],
      [
        "Ġbusiness",
        -9.036576621289898
      ],
      [
        "Ġindustry",
        -9.036729466863642
      ],
      [
        "Ġadd",
        -9.037360897164811
      ],
      [
        "Ġdesigned",
        -9.03801996395386
      ],
      [
        "Ġprobably",
        -9.038895516647273
      ],
      [
        "man",
        -9.039174140275312
      ],
      [
        "Ġsuggest",
        -9.039282961526714
      ],
      [
        "Ġturn",
        -9.040460536927544
      ],
      [
        "Ġheld",
        -9.04124331525725
      ],
      [
        "Ġtaking",
        -9.041820539097062
      ],
      [
        "Ġfactors",
        -9.044380610719976
      ],
      [
        "Ġdepend",
        -9.04572821498281
      ],
      [
        "www",
        -9.04592807582895
      ],
      [
        "Ġdiscover",
        -9.048734712191012
      ],
      [
        "Ġpopular",
        -9.050420596450843
      ],
      [
        "Ġmilitary",
        -9.051512256311923
      ],
      [
        "Ġsociety",
        -9.051947676461134
      ],
      [
        "Ġ2007",
        -9.05223427509064
      ],
      [
        "Ġinfluence",
        -9.052520467768517
      ],
      [
        "Ġ19",
        -9.053733117576016
      ],
      [
        "ĠEurope",
        -9.054031179914826
      ],
      [
        "ĠCalifornia",
        -9.054788301940269
      ],
      [
        "b",
        -9.056871455109851
      ],
      [
        "Ġmovement",
        -9.05771527976712
      ],
      [
        "Ġseries",
        -9.058322354131487
      ],
      [
        "ĠMarch",
        -9.058865263251416
      ],
      [
        "Ġthing",
        -9.061326477891509
      ],
      [
        "Ġstandard",
        -9.063014314127994
      ],
      [
        "...",
        -9.063380082830912
      ],
      [
        "Ġestablished",
        -9.063637314286256
      ],
      [
        "Ġ13",
        -9.064085005461587
      ],
      [
        "Ġincluded",
        -9.065023700678916
      ],
      [
        "ĠWith",
        -9.06506481282496
      ],
      [
        "Ġmind",
        -9.067817665183323
      ],
      [
        "Ġinvolved",
        -9.068284652600942
      ],
      [
        "Ġpolicy",
        -9.069955017042624
      ],
      [
        "ĠRiver",
        -9.07412204479369
      ],
      [
        "Ġtalk",
        -9.074144155858
      ],
      [
        "Ġresponse",
        -9.077097597322371
      ],
      [
        "ĠJune",
        -9.077268153467168
      ],
      [
        "Ġcomplete",
        -9.07983960752706
      ],
      [
        "Ġonline",
        -9.080953443612982
      ],
      [
        "Ġevents",
        -9.081065882472863
      ],
      [
        "Ġaddress",
        -9.084113157763168
      ],
      [
        "Ġre",
        -9.084723286773391
      ],
      [
        "Ġcondition",
        -9.08509859315312
      ],
      [
        "Ġsources",
        -9.085236244325204
      ],
      [
        "Ġconsider",
        -9.0860575500056
      ],
      [
        "Ġanimal",
        -9.086653322328027
      ],
      [
        "Ġthus",
        -9.088314935890194
      ],
      [
        "Ġimprove",
        -9.088927574959564
      ],
      [
        "Ġpain",
        -9.089132697322924
      ],
      [
        "Ġfeel",
        -9.091610955022674
      ],
      [
        "Ġoccur",
        -9.091686624334512
      ],
      [
        "ĠPress",
        -9.092085157193477
      ],
      [
        "Ġdetermine",
        -9.092164063450287
      ],
      [
        "E",
        -9.092782300765176
      ],
      [
        "Ġheat",
        -9.094208058311366
      ],
      [
        "Ġmarket",
        -9.094763373701204
      ],
      [
        "Ġwhose",
        -9.095031113037946
      ],
      [
        "Ġfire",
        -9.095896263665184
      ],
      [
        "Ġincludes",
        -9.097343347147302
      ],
      [
        "Ġhouse",
        -9.09823560485923
      ],
      [
        "ĠWashington",
        -9.099221119210464
      ],
      [
        "Ġbasic",
        -9.101181770837044
      ],
      [
        "B",
        -9.101416615596378
      ],
      [
        "Ġculture",
        -9.101639456015237
      ],
      [
        "Ġrun",
        -9.102024473141546
      ],
      [
        "Ġtraining",
        -9.102777606411438
      ],
      [
        "Ġsolution",
        -9.103770881956745
      ],
      [
        "Ġsimply",
        -9.103977487489834
      ],
      [
        "M",
        -9.105017959966675
      ],
      [
        "Ġoutside",
        -9.106484219462402
      ],
      [
        "Ġvariety",
        -9.108169740708531
      ],
      [
        "ĠFrench",
        -9.108236438240912
      ],
      [
        "Ġcarbon",
        -9.10856104146607
      ],
      [
        "Ġtraditional",
        -9.110087566493114
      ],
      [
        "Ġdeveloping",
        -9.111096300166524
      ],
      [
        "Ġlocation",
        -9.111663679472962
      ],
      [
        "Ġalthough",
        -9.112743264546438
      ],
      [
        "Ġred",
        -9.112813360824768
      ],
      [
        "ĠO",
        -9.113867425081228
      ],
      [
        "Ġlack",
        -9.115384233527347
      ],
      [
        "Ġindividuals",
        -9.115734987629198
      ],
      [
        "Ġserious",
        -9.11691939306581
      ],
      [
        "Ġgrow",
        -9.122078408921666
      ],
      [
        "ĠHistory",
        -9.125737615968214
      ],
      [
        "Ġart",
        -9.12735481373276
      ],
      [
        "Ġskills",
        -9.128659306108627
      ],
      [
        "ĠShe",
        -9.1314781321238
      ],
      [
        "ĠII",
        -9.132141611836586
      ],
      [
        "Ġthird",
        -9.133354250385748
      ],
      [
        "ĠAfrican",
        -9.134448604180427
      ],
      [
        "ĠApril",
        -9.134922852349348
      ],
      [
        "ĠMany",
        -9.136803949061736
      ],
      [
        "Ġauthor",
        -9.138740181212611
      ],
      [
        "Ġessential",
        -9.140282557365364
      ],
      [
        "ĠWhile",
        -9.141137306525604
      ],
      [
        "Ġsample",
        -9.141451237649663
      ],
      [
        "Ġcontinue",
        -9.14164957283207
      ],
      [
        "Ġcomes",
        -9.14234087259636
      ],
      [
        "Ġspread",
        -9.14246555700122
      ],
      [
        "Ġprotect",
        -9.142474327270284
      ],
      [
        "ĠInternational",
        -9.14754970100804
      ],
      [
        "ĠChina",
        -9.150785732091164
      ],
      [
        "Ġetc",
        -9.152139014858816
      ],
      [
        "Ġlarger",
        -9.154058685195508
      ],
      [
        "Ġ17",
        -9.154272721264071
      ],
      [
        "Ġforms",
        -9.155267519695863
      ],
      [
        "Ġcompany",
        -9.156420465459806
      ],
      [
        "ĠJuly",
        -9.15767837215944
      ],
      [
        "Ġ/",
        -9.158635375089943
      ],
      [
        "ĠWest",
        -9.161087690124504
      ],
      [
        "Ġmiles",
        -9.161816276503906
      ],
      [
        "h",
        -9.16270707230062
      ],
      [
        "Ġfederal",
        -9.162920649974463
      ],
      [
        "Ġcut",
        -9.163019854388976
      ],
      [
        "Ġface",
        -9.166415189204873
      ],
      [
        "Ġrest",
        -9.167824260608608
      ],
      [
        "Ġcauses",
        -9.167890023230466
      ],
      [
        "Ġproper",
        -9.168790817647896
      ],
      [
        "Ġnation",
        -9.170252292188255
      ],
      [
        "Ġwent",
        -9.171036801509992
      ],
      [
        "Ġvisit",
        -9.171199830758168
      ],
      [
        "Ġlives",
        -9.173888004942429
      ],
      [
        "ĠPresident",
        -9.17664485196392
      ],
      [
        "Ġadded",
        -9.176810834421598
      ],
      [
        "You",
        -9.177815203483572
      ],
      [
        "Ġwriting",
        -9.179230460738202
      ],
      [
        "On",
        -9.180785363378329
      ],
      [
        "Ġmethods",
        -9.181029537841598
      ],
      [
        "Ġadditional",
        -9.181273639393972
      ],
      [
        "Ġbeginning",
        -9.182988652817532
      ],
      [
        "Ġreceived",
        -9.184365188139813
      ],
      [
        "by",
        -9.1863606372563
      ],
      [
        "ĠAct",
        -9.186711554125232
      ],
      [
        "Ġcolor",
        -9.18697915335218
      ],
      [
        "Ġprivate",
        -9.191224729769614
      ],
      [
        "Ġtherefore",
        -9.19251824055661
      ],
      [
        "Ġnumbers",
        -9.192946523574056
      ],
      [
        "Ġdiet",
        -9.193861206109435
      ],
      [
        "Ġnight",
        -9.19475938732966
      ],
      [
        "ĠAfrica",
        -9.196394807325415
      ],
      [
        "ĠMost",
        -9.196628000035538
      ],
      [
        "Ġinstead",
        -9.197193211927924
      ],
      [
        "Ġnearly",
        -9.19855438651888
      ],
      [
        "Ġtarget",
        -9.19997818061476
      ],
      [
        "Ġgrowing",
        -9.201779733792796
      ],
      [
        "Ġteachers",
        -9.20545397173062
      ],
      [
        "r",
        -9.207353853455905
      ],
      [
        "Ġattention",
        -9.208895230082469
      ],
      [
        "Ġprimary",
        -9.210275201096522
      ],
      [
        "Ġmonth",
        -9.210673664925746
      ],
      [
        "Ġsection",
        -9.210741743338692
      ],
      [
        "N",
        -9.21146642201739
      ],
      [
        "Ġdemand",
        -9.211947079582608
      ],
      [
        "Because",
        -9.212430636385422
      ],
      [
        "11",
        -9.212484081818374
      ],
      [
        "Ġreligious",
        -9.21257497764584
      ],
      [
        "Ġhealthy",
        -9.212946800554228
      ],
      [
        "Ġavoid",
        -9.21508295918336
      ],
      [
        "Ġhimself",
        -9.215996539463358
      ],
      [
        "ĠCounty",
        -9.216129306586444
      ],
      [
        "Ġbig",
        -9.216498206695036
      ],
      [
        "Ġobject",
        -9.217455048133456
      ],
      [
        "Ġe",
        -9.21926084554091
      ],
      [
        "ĠGeneral",
        -9.22243531286092
      ],
      [
        "Ġquite",
        -9.223565437432738
      ],
      [
        "ĠMore",
        -9.224117696160956
      ],
      [
        "Ġdiscuss",
        -9.224120403060152
      ],
      [
        "Ġ40",
        -9.224803881068343
      ],
      [
        "Ġfamilies",
        -9.225095214640934
      ],
      [
        "Ġshall",
        -9.225964618315064
      ],
      [
        "ĠIndia",
        -9.226643789973853
      ],
      [
        "ĠChurch",
        -9.22713480711131
      ],
      [
        "Ġ24",
        -9.227554592098402
      ],
      [
        "Ġappropriate",
        -9.22791191493005
      ],
      [
        "Ġcentral",
        -9.228721901922182
      ],
      [
        "Ġbuild",
        -9.23076464639591
      ],
      [
        "Ġmusic",
        -9.230914781232292
      ],
      [
        "Ġearth",
        -9.231204582830014
      ],
      [
        "Ġshare",
        -9.231880133831952
      ],
      [
        "Ġanswer",
        -9.23201233669939
      ],
      [
        "Ġ2006",
        -9.232231055857506
      ],
      [
        "ĠEngland",
        -9.23245007912377
      ],
      [
        "Ġcommunities",
        -9.232923830115045
      ],
      [
        "Ġgreen",
        -9.23330349509285
      ],
      [
        "Ġbrought",
        -9.234484176680462
      ],
      [
        "Ġsafety",
        -9.234562035701591
      ],
      [
        "Ġeasy",
        -9.23571633096325
      ],
      [
        "Ġflow",
        -9.236628495962638
      ],
      [
        "P",
        -9.23668370693147
      ],
      [
        "Ġfuel",
        -9.237271426035296
      ],
      [
        "ĠJanuary",
        -9.238316833973805
      ],
      [
        "Ġsound",
        -9.240101720716355
      ],
      [
        "Ġ21",
        -9.242730312993755
      ],
      [
        "Ġtry",
        -9.243314123133388
      ],
      [
        "Ġbooks",
        -9.243936080532018
      ],
      [
        "Ġsolar",
        -9.244800001273187
      ],
      [
        "Ġreceive",
        -9.24552284558177
      ],
      [
        "Ġlargest",
        -9.24694320926402
      ],
      [
        "Ġenter",
        -9.247053998015158
      ],
      [
        "Ġdirectly",
        -9.247331293213906
      ],
      [
        "Ġrecord",
        -9.24761193777206
      ],
      [
        "R",
        -9.247953529359744
      ],
      [
        "Ġsites",
        -9.24798344691989
      ],
      [
        "Ġseems",
        -9.248172080150352
      ],
      [
        "Ġdescribed",
        -9.249761553106952
      ],
      [
        "Ġteaching",
        -9.25215624441365
      ],
      [
        "Ġmass",
        -9.252802283648183
      ],
      [
        "x",
        -9.253972919212098
      ],
      [
        "ĠAlthough",
        -9.254212688884524
      ],
      [
        "Ġindicate",
        -9.25507776828075
      ],
      [
        "ĠIndian",
        -9.25513264506966
      ],
      [
        "Ġdoing",
        -9.25583714736131
      ],
      [
        "Ġdirect",
        -9.257875769559476
      ],
      [
        "ĠSeptember",
        -9.2621170086533
      ],
      [
        "F",
        -9.262712261784904
      ],
      [
        "Ġtree",
        -9.264159974365649
      ],
      [
        "Ġcritical",
        -9.26429140813804
      ],
      [
        "Ġlet",
        -9.264934831014536
      ],
      [
        "ĠCity",
        -9.266520984372676
      ],
      [
        "Ġfactor",
        -9.268786763394695
      ],
      [
        "Ġlost",
        -9.268954352284045
      ],
      [
        "Ġmale",
        -9.270239218043832
      ],
      [
        "Ġactive",
        -9.270952089397946
      ],
      [
        "ĠOctober",
        -9.27355522599778
      ],
      [
        "ĠKing",
        -9.27522473701488
      ],
      [
        "year",
        -9.275308377822071
      ],
      [
        "Ġdetail",
        -9.275865747292562
      ],
      [
        "st",
        -9.27674186149914
      ],
      [
        "Ġlove",
        -9.278945837688688
      ],
      [
        "Ġsearch",
        -9.27920329767698
      ],
      [
        "Ġsupply",
        -9.280191046718793
      ],
      [
        "Ġtrade",
        -9.280296784817772
      ],
      [
        "Ġcenter",
        -9.280372837886633
      ],
      [
        "Ġlimited",
        -9.280925060287526
      ],
      [
        "as",
        -9.281004282708398
      ],
      [
        "Ġlength",
        -9.282033994372428
      ],
      [
        "Ġperformance",
        -9.283033345291065
      ],
      [
        "Ġdescribe",
        -9.2840331040814
      ],
      [
        "Ġefforts",
        -9.28593584536702
      ],
      [
        "Ġmeaning",
        -9.286450435172174
      ],
      [
        "Ġproduct",
        -9.287631266488969
      ],
      [
        "Ġconsist",
        -9.287663747134632
      ],
      [
        "Ġdied",
        -9.288162936760218
      ],
      [
        "Ġsoon",
        -9.289881375971316
      ],
      [
        "Ġancient",
        -9.29104694510178
      ],
      [
        "Ġeat",
        -9.29210924707969
      ],
      [
        "*",
        -9.292383604381849
      ],
      [
        "Ġ2000",
        -9.292453933206028
      ],
      [
        "Ġeye",
        -9.292869033783118
      ],
      [
        "Ġdifference",
        -9.293076123771764
      ],
      [
        "Ġinfection",
        -9.294020052912767
      ],
      [
        "ĠJewish",
        -9.296740217657344
      ],
      [
        "Ġchemical",
        -9.29726433560055
      ],
      [
        "Ġideas",
        -9.297580005699814
      ],
      [
        "Ġ2005",
        -9.297649139724095
      ],
      [
        "Ġnetwork",
        -9.300194745870048
      ],
      [
        "Ġlocated",
        -9.30033392622979
      ],
      [
        "Ġformer",
        -9.30054304496837
      ],
      [
        ");",
        -9.301359578018674
      ],
      [
        "ĠAugust",
        -9.301687142472309
      ],
      [
        "Ġimages",
        -9.304556803739558
      ],
      [
        "Ġborn",
        -9.304889398738544
      ],
      [
        "Ġrapid",
        -9.30573034787072
      ],
      [
        "Ġfile",
        -9.305983064148108
      ],
      [
        "Ġdoesn",
        -9.30630595416394
      ],
      [
        "Ġevent",
        -9.306505281255715
      ],
      [
        "Ġsummer",
        -9.30674950960178
      ],
      [
        "Ġbenefits",
        -9.306991296450107
      ],
      [
        "Ġpatient",
        -9.3083272800394
      ],
      [
        "Ġattack",
        -9.308521533491984
      ],
      [
        "ĠCanada",
        -9.31008476616532
      ],
      [
        "Ġprotection",
        -9.310285235701006
      ],
      [
        "Ġcompared",
        -9.310351407207738
      ],
      [
        "Ġice",
        -9.310808169779198
      ],
      [
        "Ġtrees",
        -9.311071472303844
      ],
      [
        "p",
        -9.31192346841279
      ],
      [
        "Ġhistorical",
        -9.313169201682893
      ],
      [
        "l",
        -9.31342057672948
      ],
      [
        "Ġcorrect",
        -9.314669913391027
      ],
      [
        "Ġelse",
        -9.31562060182866
      ],
      [
        "Ġrare",
        -9.315689340880503
      ],
      [
        "Ġtools",
        -9.316789405398174
      ],
      [
        "Ġuses",
        -9.317451758173068
      ],
      [
        "Ġproperty",
        -9.319638327325444
      ],
      [
        "Ġplann",
        -9.319804725139546
      ],
      [
        "ĠDecember",
        -9.319876605111231
      ],
      [
        "Ġprocedure",
        -9.320875748447897
      ],
      [
        "Ġbehind",
        -9.32131106774138
      ],
      [
        "Ġpoints",
        -9.322307677644927
      ],
      [
        "Ġisland",
        -9.326961912548072
      ],
      [
        "Ġlegal",
        -9.327343413430306
      ],
      [
        "ĠGreat",
        -9.32774870270538
      ],
      [
        "Ġstep",
        -9.32834257756395
      ],
      [
        "ĠSociety",
        -9.328476315728167
      ],
      [
        "Ġstarted",
        -9.329105700084266
      ],
      [
        "Ġtold",
        -9.329245139559443
      ],
      [
        "Ġcarry",
        -9.330618795827178
      ],
      [
        "Ġtend",
        -9.331063933632464
      ],
      [
        "Ġworkers",
        -9.331405774185065
      ],
      [
        "Ġhighly",
        -9.33172380300647
      ],
      [
        "Ġleading",
        -9.331842860691626
      ],
      [
        "Ġtoward",
        -9.3319543295429
      ],
      [
        "Ġeasily",
        -9.332094648843022
      ],
      [
        "like",
        -9.333028717828755
      ],
      [
        "Ġm",
        -9.333839501536795
      ],
      [
        "Ġwrote",
        -9.334346549076187
      ],
      [
        "ĠEducation",
        -9.334472901250605
      ],
      [
        "ĠRetrieved",
        -9.334792326651126
      ],
      [
        "Ġbegin",
        -9.335401468289737
      ],
      [
        "Ġhope",
        -9.33583723232025
      ],
      [
        "Ġforces",
        -9.3362492491995
      ],
      [
        "Ġdirection",
        -9.336534393246415
      ],
      [
        "Ġmedia",
        -9.337984010907128
      ],
      [
        "Ġrates",
        -9.338240960717751
      ],
      [
        "Ġexposure",
        -9.339822890825012
      ],
      [
        "Ġinside",
        -9.340283218818495
      ],
      [
        "Ġcollection",
        -9.340919370876682
      ],
      [
        "Ġdrug",
        -9.340935332238695
      ],
      [
        "Ġsent",
        -9.34135316213432
      ],
      [
        "ĠJournal",
        -9.341482763391346
      ],
      [
        "up",
        -9.34366624446466
      ],
      [
        "Ġensure",
        -9.343700044049044
      ],
      [
        "Ġpositive",
        -9.34387821888012
      ],
      [
        "Ġconcern",
        -9.343941373571518
      ],
      [
        "One",
        -9.34449930004704
      ],
      [
        "Ġtown",
        -9.344949636123458
      ],
      [
        "ĠX",
        -9.34547548363381
      ],
      [
        "Ġnorth",
        -9.345507076367424
      ],
      [
        "Ġtravel",
        -9.345850956189418
      ],
      [
        "Ġuseful",
        -9.346163310098198
      ],
      [
        "Ġdocument",
        -9.346369419270582
      ],
      [
        "Ġgetting",
        -9.348868345830509
      ],
      [
        "Ġcontinued",
        -9.3505931144182
      ],
      [
        "Ġapplication",
        -9.352070054914916
      ],
      [
        "Ġtakes",
        -9.352262041530349
      ],
      [
        "Ġpp",
        -9.353841837448078
      ],
      [
        "Ġbasis",
        -9.35443318724663
      ],
      [
        "ĠAmericans",
        -9.35539843020195
      ],
      [
        "Ġnothing",
        -9.356407056851577
      ],
      [
        "ĠFrom",
        -9.356693236527091
      ],
      [
        "Ġbillion",
        -9.357235410178996
      ],
      [
        "Ġdeal",
        -9.359147389089893
      ],
      [
        "Ġanti",
        -9.359280323267438
      ],
      [
        "Ġlooking",
        -9.359341120046002
      ],
      [
        "Ġsleep",
        -9.359627551678676
      ],
      [
        "Ġkids",
        -9.35977006863149
      ],
      [
        "ĠNovemb",
        -9.361317518329676
      ],
      [
        "Ġmember",
        -9.36142021302082
      ],
      [
        "Ġrecently",
        -9.36282341812194
      ],
      [
        "Ġgain",
        -9.363225216657776
      ],
      [
        "Ġwind",
        -9.364304172320152
      ],
      [
        "Ġfeatures",
        -9.365983025902617
      ],
      [
        "Ġexercise",
        -9.366098897755627
      ],
      [
        "Ġlayer",
        -9.36629243176766
      ],
      [
        "ĠFirst",
        -9.367691900429737
      ],
      [
        "Ġ2013",
        -9.368929936055649
      ],
      [
        "ry",
        -9.36954824222184
      ],
      [
        "Ġsun",
        -9.36960100100219
      ],
      [
        "Ġcultural",
        -9.37040183719493
      ],
      [
        "Ġunique",
        -9.370555347359218
      ],
      [
        "term",
        -9.371112493679112
      ],
      [
        "Ġspeed",
        -9.372229924431045
      ],
      [
        "ĠV",
        -9.372246293942492
      ],
      [
        "Ġson",
        -9.372745592575969
      ],
      [
        "Ġvideo",
        -9.373420633891309
      ],
      [
        "Ġwebsite",
        -9.3741788441671
      ],
      [
        "Ġaspect",
        -9.37601711770372
      ],
      [
        "Ġmeasure",
        -9.376855083215426
      ],
      [
        "âĢ¢",
        -9.377324828827822
      ],
      [
        "ĠUnion",
        -9.378081498551474
      ],
      [
        "Ġremains",
        -9.379332013692872
      ],
      [
        "And",
        -9.381456558605151
      ],
      [
        "ers",
        -9.381849503914452
      ],
      [
        "T",
        -9.38264584103369
      ],
      [
        "Ġam",
        -9.383313839856449
      ],
      [
        "Ġdiscussion",
        -9.38430264303716
      ],
      [
        "Ġdate",
        -9.385195574508977
      ],
      [
        "Ġmultiple",
        -9.385316649168194
      ],
      [
        "Ġmessage",
        -9.386766499841038
      ],
      [
        "Ġpre",
        -9.387135648016224
      ],
      [
        "Ġearlier",
        -9.387455483680675
      ],
      [
        "ĠLondon",
        -9.388342863202343
      ],
      [
        "Ġstress",
        -9.389433234424931
      ],
      [
        "ĠAssociation",
        -9.390649376342834
      ],
      [
        "for",
        -9.391039036178777
      ],
      [
        "ĠCongress",
        -9.391201084719691
      ],
      [
        "Ġtests",
        -9.391528814120642
      ],
      [
        "Ġrise",
        -9.391904715456883
      ],
      [
        "Ġmeeting",
        -9.394196427414698
      ],
      [
        "Ġcode",
        -9.394457114196396
      ],
      [
        "Ġbirth",
        -9.39524546642931
      ],
      [
        "Ġmother",
        -9.396549877397412
      ],
      [
        "ĠHouse",
        -9.396572848764515
      ],
      [
        "Ġdaily",
        -9.396866717533491
      ],
      [
        "Ġexpected",
        -9.397447056800022
      ],
      [
        "Ġhumans",
        -9.397447071870303
      ],
      [
        "By",
        -9.398048258436347
      ],
      [
        "Ġexact",
        -9.3990279417407
      ],
      [
        "Ġestimate",
        -9.399525029616363
      ],
      [
        "Ġelements",
        -9.399949115507798
      ],
      [
        "Ġcommand",
        -9.400621671655353
      ],
      [
        "ĠEast",
        -9.400973785753832
      ],
      [
        "Ġsecurity",
        -9.401403397752656
      ],
      [
        "Ġfront",
        -9.402403032746044
      ],
      [
        "Ġfather",
        -9.40273381666821
      ],
      [
        "Ġlines",
        -9.403130837215244
      ],
      [
        "Ġstandards",
        -9.404101127931096
      ],
      [
        "Ġtrial",
        -9.404174217768832
      ],
      [
        "Ġvalues",
        -9.404220359955506
      ],
      [
        "Ġmeet",
        -9.40468524628019
      ],
      [
        "see",
        -9.405028467170418
      ],
      [
        "Ġcompanies",
        -9.405435360104091
      ],
      [
        "Ġsouth",
        -9.405698391720009
      ],
      [
        "Ġsaw",
        -9.406134671517693
      ],
      [
        "20",
        -9.406791283687344
      ],
      [
        "Ġcheck",
        -9.407776423008112
      ],
      [
        "Ġreview",
        -9.40820745635543
      ],
      [
        "Ġgenetic",
        -9.410405686703209
      ],
      [
        "Ġweeks",
        -9.41065065457804
      ],
      [
        "Ġversion",
        -9.411535861110252
      ],
      [
        "Ġinstance",
        -9.411582890570664
      ],
      [
        "Ġcold",
        -9.411633497965155
      ],
      [
        "Ġbase",
        -9.411717578060731
      ],
      [
        "Ġsevere",
        -9.412200637426272
      ],
      [
        "Ġmemory",
        -9.41289501098027
      ],
      [
        "Ġmiddle",
        -9.413193939245485
      ],
      [
        "Ġeffort",
        -9.413252895534477
      ],
      [
        "Ġaffect",
        -9.41348881483765
      ],
      [
        "Ġseem",
        -9.413902296811692
      ],
      [
        "Ġstation",
        -9.414756886570842
      ],
      [
        "Ġinitial",
        -9.414972366012169
      ],
      [
        "Ġnamed",
        -9.415049392679595
      ],
      [
        "Ġshape",
        -9.416173204157282
      ],
      [
        "time",
        -9.418296534990647
      ],
      [
        "Ġsoftware",
        -9.418331070099203
      ],
      [
        "Ġsomeone",
        -9.419526592270596
      ],
      [
        "Ġbirds",
        -9.420006655929887
      ],
      [
        "Ġprotein",
        -9.420978614778749
      ],
      [
        "Ġstatement",
        -9.421025476876029
      ],
      [
        "Ġweather",
        -9.421675890673516
      ],
      [
        "Ġcosts",
        -9.423296091279015
      ],
      [
        "Ġasked",
        -9.424603735505132
      ],
      [
        "Ġobjects",
        -9.425438058566948
      ],
      [
        "ĠHIV",
        -9.425914986751076
      ],
      [
        "Ġrelationship",
        -9.426091929330337
      ],
      [
        "Ġdisplay",
        -9.426843809253002
      ],
      [
        "Ġconstruction",
        -9.426851555213288
      ],
      [
        "Ġremain",
        -9.426969668143377
      ],
      [
        "ĠSan",
        -9.427590843663983
      ],
      [
        "Ġbenefit",
        -9.427834195171606
      ],
      [
        "Ġsafe",
        -9.429220253302416
      ],
      [
        "ation",
        -9.431741173520916
      ],
      [
        "ĠWilliam",
        -9.431846044586065
      ],
      [
        "Ġolder",
        -9.432499587770534
      ],
      [
        "An",
        -9.432862237719494
      ],
      [
        "Ġfoods",
        -9.432953932318137
      ],
      [
        "Ġbeyond",
        -9.433057484076503
      ],
      [
        "ĠFebruary",
        -9.433071808637909
      ],
      [
        "Ġgave",
        -9.43428526237266
      ],
      [
        "ĠFrance",
        -9.434443678506774
      ],
      [
        "Ġadults",
        -9.435125764667411
      ],
      [
        "Ġi",
        -9.435726611316518
      ],
      [
        "Ġask",
        -9.436689862027862
      ],
      [
        "H",
        -9.436893505031923
      ],
      [
        "Ġ2004",
        -9.437840788319168
      ],
      [
        "Ġmental",
        -9.43796789696997
      ],
      [
        "Ġconnection",
        -9.438896180503306
      ],
      [
        "Ġprojects",
        -9.439103074063906
      ],
      [
        "Ġexpert",
        -9.439178264510783
      ],
      [
        "L",
        -9.441168596905698
      ],
      [
        "Ġdry",
        -9.44253523464135
      ],
      [
        "Ġstay",
        -9.442690513989032
      ],
      [
        "Ġgoal",
        -9.443210337058554
      ],
      [
        "Ġgot",
        -9.44344613233332
      ],
      [
        "Ġpay",
        -9.443495203075171
      ],
      [
        "Ġwinter",
        -9.444039526679132
      ],
      [
        "Ġlaws",
        -9.444212297165468
      ],
      [
        "Ġsmaller",
        -9.44440287095698
      ],
      [
        "Ġeconomy",
        -9.44460260271787
      ],
      [
        "Ġminutes",
        -9.445732040007975
      ],
      [
        "Ġdrugs",
        -9.447558920507523
      ],
      [
        "Ġperform",
        -9.448385722712896
      ],
      [
        "Ġhold",
        -9.448417329111289
      ],
      [
        "Ġ...",
        -9.448539116417772
      ],
      [
        "Ġgame",
        -9.448990412624646
      ],
      [
        "Ġperhaps",
        -9.449275692146909
      ],
      [
        "Ġchurch",
        -9.45000466592601
      ],
      [
        "Ġx",
        -9.450791745608674
      ],
      [
        "Ġimportance",
        -9.45090651017515
      ],
      [
        "Ġhands",
        -9.451120237025911
      ],
      [
        "Ġwrite",
        -9.451452009271572
      ],
      [
        "Ġscale",
        -9.45205930108213
      ],
      [
        "ĠCouncil",
        -9.45320557415226
      ],
      [
        "Ġdiseases",
        -9.454059935564745
      ],
      [
        "Ġ22",
        -9.454554440550783
      ],
      [
        "Ġresponsible",
        -9.454927035468131
      ],
      [
        "Ġinstitution",
        -9.454955903413282
      ],
      [
        "Ġexplain",
        -9.455784857007624
      ],
      [
        "Ġdegree",
        -9.45628935753296
      ],
      [
        "Ġequal",
        -9.456636757990864
      ],
      [
        "Ġprocesses",
        -9.456829376168834
      ],
      [
        "Ġreach",
        -9.45731523423985
      ],
      [
        "ĠGreek",
        -9.457517794051496
      ],
      [
        "Ġdestroy",
        -9.45818387652271
      ],
      [
        "Ġsuccess",
        -9.458868360594511
      ],
      [
        "Ġalone",
        -9.458871825110457
      ],
      [
        "ĠChinese",
        -9.46039632695456
      ],
      [
        "Ġuser",
        -9.461616958437077
      ],
      [
        "Ġchance",
        -9.462604571383965
      ],
      [
        "Ġrelease",
        -9.46386377466453
      ],
      [
        "O",
        -9.464274930610983
      ],
      [
        "Ġcharge",
        -9.46431781016894
      ],
      [
        "Ġformed",
        -9.465386790933067
      ],
      [
        "Ġindependent",
        -9.466119132319545
      ],
      [
        "ĠOther",
        -9.466640260364327
      ],
      [
        "ĠDNA",
        -9.468213755322983
      ],
      [
        "Ġstage",
        -9.46860293360726
      ],
      [
        "Ġwoman",
        -9.469269031354871
      ],
      [
        "ĠJesus",
        -9.46988446393524
      ],
      [
        "ĠChristian",
        -9.47022280551525
      ],
      [
        "Ġvehicle",
        -9.470769175474212
      ],
      [
        "Ġspend",
        -9.471124926060538
      ],
      [
        "Ġriver",
        -9.471253502551775
      ],
      [
        "Ġidentify",
        -9.471950980296224
      ],
      [
        "Ġrule",
        -9.472210121183886
      ],
      [
        "Ġstop",
        -9.473633292514682
      ],
      [
        "Ġbad",
        -9.473960932648188
      ],
      [
        "Ġsetting",
        -9.4761129128673
      ],
      [
        "ĠYour",
        -9.477484158960127
      ],
      [
        "ĠDay",
        -9.478059386536447
      ],
      [
        "Ġnative",
        -9.478225566795036
      ],
      [
        "Ġanything",
        -9.479207256157746
      ],
      [
        "Ġdead",
        -9.479449219167106
      ],
      [
        "Ġroom",
        -9.48063436526088
      ],
      [
        "Ġnuclear",
        -9.481163241802305
      ],
      [
        "Ġallows",
        -9.481561586263824
      ],
      [
        "Ġcharacter",
        -9.483328956273938
      ],
      [
        "Ġteacher",
        -9.483897291225237
      ],
      [
        "Ġequipment",
        -9.48494528927285
      ],
      [
        "ĠInternet",
        -9.487388385808686
      ],
      [
        "ĠJews",
        -9.487996604546032
      ],
      [
        "ĠGovernment",
        -9.492242137729049
      ],
      [
        "Ġplaces",
        -9.492748452753656
      ],
      [
        "W",
        -9.49299426462748
      ],
      [
        "Ġalternative",
        -9.49429399387718
      ],
      [
        "These",
        -9.496381176952516
      ],
      [
        "Ġforest",
        -9.497204262179144
      ],
      [
        "Ġtesting",
        -9.498386796034245
      ],
      [
        "Ġwalk",
        -9.498571718261228
      ],
      [
        "Ġco",
        -9.49878551257793
      ],
      [
        "ĠGermany",
        -9.499088749933287
      ],
      [
        "Ġjoin",
        -9.500109109501972
      ],
      [
        "Ġorganization",
        -9.500201658502778
      ],
      [
        "So",
        -9.501029988637551
      ],
      [
        "Ġfinancial",
        -9.50115995520398
      ],
      [
        "Ġprogress",
        -9.502126298684605
      ],
      [
        "Ġcar",
        -9.503080645668389
      ],
      [
        "Ġwaste",
        -9.503985440917935
      ],
      [
        "Ġidentified",
        -9.504157353363702
      ],
      [
        "Ġnegative",
        -9.504161728382009
      ],
      [
        "Ġweb",
        -9.505132030905813
      ],
      [
        "Ġdevice",
        -9.505548828868935
      ],
      [
        "Ġoffice",
        -9.505918330411614
      ],
      [
        "Ġstatus",
        -9.50608108644528
      ],
      [
        "Ġ2003",
        -9.506278936164971
      ],
      [
        "Ġrelatively",
        -9.506332642223246
      ],
      [
        "Ġvirus",
        -9.5065712998351
      ],
      [
        "Ġsugar",
        -9.506712924829545
      ],
      [
        "Ġtechniques",
        -9.507328191031895
      ],
      [
        "ĠJames",
        -9.507730222436978
      ],
      [
        "Ġseparate",
        -9.507976921460228
      ],
      [
        "Ġcapital",
        -9.50814373144055
      ],
      [
        "ĠWeb",
        -9.508664954202247
      ],
      [
        "Ġapply",
        -9.508802894947602
      ],
      [
        "ĠDo",
        -9.509349929284625
      ],
      [
        "=",
        -9.51011522243385
      ],
      [
        "ĠDavid",
        -9.510434637637314
      ],
      [
        "Ġjob",
        -9.511948225373173
      ],
      [
        "Ġsuccessful",
        -9.513852585898324
      ],
      [
        "15",
        -9.514078254613034
      ],
      [
        "Ġmachine",
        -9.514426718583907
      ],
      [
        "ĠPark",
        -9.514997049713864
      ],
      [
        "Ġ60",
        -9.515037496963592
      ],
      [
        "Ġconcept",
        -9.516956693534894
      ],
      [
        "Ġwon",
        -9.518567992053097
      ],
      [
        "ĠCollege",
        -9.519946031855092
      ],
      [
        "Ġserve",
        -9.521135268587171
      ],
      [
        "At",
        -9.52235014409086
      ],
      [
        "Ġcount",
        -9.522611860019069
      ],
      [
        "Ġoccurs",
        -9.526887135924955
      ],
      [
        "Ġleave",
        -9.527573399499037
      ],
      [
        "ĠAustralia",
        -9.528025476923446
      ],
      [
        "ĠNASA",
        -9.528442834674488
      ],
      [
        "Ġvaccine",
        -9.53059331504176
      ],
      [
        "Ġmajority",
        -9.531156152011928
      ],
      [
        "Ġtypically",
        -9.53385964464768
      ],
      [
        "ĠGeorge",
        -9.53401069760734
      ],
      [
        "Ġreduced",
        -9.535083406232474
      ],
      [
        "Ġacid",
        -9.535405810772914
      ],
      [
        "Ġaim",
        -9.537107164891866
      ],
      [
        "Ġseek",
        -9.537237368216395
      ],
      [
        "ĠService",
        -9.537362909594366
      ],
      [
        "Ġapplications",
        -9.53864881112069
      ],
      [
        "Ġvolume",
        -9.538876620575245
      ],
      [
        "Ġpicture",
        -9.5397181233582
      ],
      [
        "Ġproviding",
        -9.54013421768378
      ],
      [
        "Ġplanet",
        -9.54149498240743
      ],
      [
        "ĠSince",
        -9.541625910157483
      ],
      [
        "During",
        -9.541796706122913
      ],
      [
        "Ġ2001",
        -9.542043669125338
      ],
      [
        "ĠRoman",
        -9.542544050665692
      ],
      [
        "Ġmeasures",
        -9.542558305337495
      ],
      [
        "Ġ23",
        -9.543255869792256
      ],
      [
        "Ġclean",
        -9.54421159758629
      ],
      [
        "Ġdistrict",
        -9.544453890433648
      ],
      [
        "Ġdark",
        -9.54482624992709
      ],
      [
        "Ġrace",
        -9.544856106426607
      ],
      [
        "Ġtitle",
        -9.545934983993172
      ],
      [
        "Ġmission",
        -9.54800637068418
      ],
      [
        "Ġdiabetes",
        -9.548082687212068
      ],
      [
        "ĠLord",
        -9.5486972707816
      ],
      [
        "Ġincome",
        -9.548910981369444
      ],
      [
        "Ġconstant",
        -9.549711866093755
      ],
      [
        "Ġradiation",
        -9.550645434008793
      ],
      [
        "Ġgives",
        -9.551560987076558
      ],
      [
        "Ġemissions",
        -9.551890164305677
      ],
      [
        "Ġreports",
        -9.552019357011426
      ],
      [
        "Ġcommercial",
        -9.55271251971573
      ],
      [
        "Ġapplied",
        -9.553408387142786
      ],
      [
        "Ġtowards",
        -9.55369639465687
      ],
      [
        "Ġaffected",
        -9.55526780430838
      ],
      [
        "ĠChrist",
        -9.555546621571787
      ],
      [
        "Ġeventual",
        -9.556408582405435
      ],
      [
        "Ġrelative",
        -9.556527045516606
      ],
      [
        "Ġfeeling",
        -9.557330829704368
      ],
      [
        "Ġbacteria",
        -9.557419613440816
      ],
      [
        "Ġrespect",
        -9.55852905199839
      ],
      [
        "ous",
        -9.558673154187693
      ],
      [
        "ĠSee",
        -9.559512441448552
      ],
      [
        "Ġprofessional",
        -9.55955392831446
      ],
      [
        "ĠWestern",
        -9.559864403547836
      ],
      [
        "Ġbecomes",
        -9.560970410625666
      ],
      [
        "Ġvia",
        -9.561052022588775
      ],
      [
        "ĠJapan",
        -9.561389319872758
      ],
      [
        "Ġcoming",
        -9.561816159906238
      ],
      [
        "Ġdistance",
        -9.56308483233398
      ],
      [
        "ĠEven",
        -9.563406137961472
      ],
      [
        "Some",
        -9.563703895573637
      ],
      [
        "Ġcontext",
        -9.564141844300664
      ],
      [
        "ĠMuseum",
        -9.565586463788764
      ],
      [
        "Ġseven",
        -9.566261787124512
      ],
      [
        "Ġfail",
        -9.567337726917016
      ],
      [
        "ĠAccording",
        -9.56856550564778
      ],
      [
        "Ġreferr",
        -9.569518489402528
      ],
      [
        "less",
        -9.570228759583117
      ],
      [
        "Ġten",
        -9.57033514850991
      ],
      [
        "Ġdifferences",
        -9.571267269737422
      ],
      [
        "Ġconflict",
        -9.571474358360383
      ],
      [
        "Ġfemale",
        -9.571832591609695
      ],
      [
        "ĠThen",
        -9.572297383947545
      ],
      [
        "Ġestablish",
        -9.572548015643443
      ],
      [
        "Ġcities",
        -9.57337734953744
      ],
      [
        "Ġbelief",
        -9.57349147365832
      ],
      [
        "Ġadopt",
        -9.573707434173372
      ],
      [
        "Ġfigure",
        -9.573851799763233
      ],
      [
        "Ġ2002",
        -9.57397549815237
      ],
      [
        "Ġchanged",
        -9.574982397482197
      ],
      [
        "Ġthinking",
        -9.575078121223545
      ],
      [
        "Ġrecords",
        -9.575440939763771
      ],
      [
        "Ġtherapy",
        -9.575697318266364
      ],
      [
        "Ġleaves",
        -9.576179604984937
      ],
      [
        "Ġcombination",
        -9.577525485933965
      ],
      [
        "ĠOf",
        -9.578667270856382
      ],
      [
        "Ġrules",
        -9.578895946679102
      ],
      [
        "Ġbroad",
        -9.57890419782568
      ],
      [
        "Ġprint",
        -9.579838406849218
      ],
      [
        "Ġopportunity",
        -9.580737889180783
      ],
      [
        "Ġpowerful",
        -9.580766369549073
      ],
      [
        "Ġshowed",
        -9.581700947891212
      ],
      [
        "Ġinteresting",
        -9.582060636538632
      ],
      [
        "Ġprice",
        -9.583882130221497
      ],
      [
        "Ġremember",
        -9.584118269036688
      ],
      [
        "Ġargument",
        -9.584635339279773
      ],
      [
        "He",
        -9.585308969332717
      ],
      [
        "Ġregular",
        -9.58598279148364
      ],
      [
        "Ġbit",
        -9.586664426849222
      ],
      [
        "Ġthousands",
        -9.586943431028873
      ],
      [
        "Ġnames",
        -9.58695380861324
      ],
      [
        "Ġdistribution",
        -9.58720802931517
      ],
      [
        "Ġexisting",
        -9.588390232658035
      ],
      [
        "Ġbaby",
        -9.588495527149618
      ],
      [
        "ĠPeople",
        -9.58919297550866
      ],
      [
        "Ġgene",
        -9.58968061965705
      ],
      [
        "Ġeyes",
        -9.589759814444216
      ],
      [
        "Ġapproximately",
        -9.58997350030079
      ],
      [
        "ce",
        -9.59033158886593
      ],
      [
        "ĠWater",
        -9.590791468646591
      ],
      [
        "Ġeducational",
        -9.590914639164872
      ],
      [
        "Ġforeign",
        -9.590944555654191
      ],
      [
        "Ġpresence",
        -9.591248486367396
      ],
      [
        "Ġgoes",
        -9.591342646034244
      ],
      [
        "Ġtrying",
        -9.591459699853807
      ],
      [
        "Ġexist",
        -9.591619852740868
      ],
      [
        "Ġcompletely",
        -9.591631117075876
      ],
      [
        "ĠAlso",
        -9.592420712278674
      ],
      [
        "Ġmoved",
        -9.592596308557978
      ],
      [
        "Ġstaff",
        -9.595340066496243
      ],
      [
        "Ġmodels",
        -9.595581286827326
      ],
      [
        "Ġcarri",
        -9.597664872145891
      ],
      [
        "ĠTexas",
        -9.598141521679096
      ],
      [
        "Ġcourt",
        -9.60236237267416
      ],
      [
        "Ġrespond",
        -9.605416398830725
      ],
      [
        "Ġcommunication",
        -9.605490633211131
      ],
      [
        "K",
        -9.605562023739951
      ],
      [
        "Ġeverything",
        -9.606138831665726
      ],
      [
        "Ġseason",
        -9.607372136632955
      ],
      [
        "Ġtable",
        -9.607758277694302
      ],
      [
        "Ġwhom",
        -9.60814251047683
      ],
      [
        "Ġmap",
        -9.608416723497632
      ],
      [
        "ities",
        -9.610834664123775
      ],
      [
        "Ġdefinition",
        -9.611058418448772
      ],
      [
        "ĠJapanese",
        -9.611597157263065
      ],
      [
        "13",
        -9.611686546360655
      ],
      [
        "ĠThus",
        -9.612030094064144
      ],
      [
        "30",
        -9.612876138118551
      ],
      [
        "Ġsubstance",
        -9.614258967214456
      ],
      [
        "Ġ+",
        -9.614870875775988
      ],
      [
        "Ġsave",
        -9.615051612223825
      ],
      [
        "Ġsexual",
        -9.615449742338186
      ],
      [
        "Ġnor",
        -9.615779142969629
      ],
      [
        "Ġcreating",
        -9.617163131416596
      ],
      [
        "Ġreference",
        -9.617390772453598
      ],
      [
        "Ġcapacity",
        -9.618128597383455
      ],
      [
        "it",
        -9.61840492732763
      ],
      [
        "Ġfarmer",
        -9.620847129483447
      ],
      [
        "Ġhot",
        -9.621043616074042
      ],
      [
        "Ġbelieved",
        -9.621189304958625
      ],
      [
        "Ġlaunch",
        -9.62296977030706
      ],
      [
        "Ġspring",
        -9.62299932196052
      ],
      [
        "Ġregions",
        -9.623752450001987
      ],
      [
        "Ġdevices",
        -9.623761266849176
      ],
      [
        "Ġprofessor",
        -9.62397713747156
      ],
      [
        "ar",
        -9.62425999039612
      ],
      [
        "ĠHere",
        -9.626225671098366
      ],
      [
        "Ġsignal",
        -9.626507532587558
      ],
      [
        "Ġfailure",
        -9.626892239480297
      ],
      [
        "Ġguide",
        -9.627097046598772
      ],
      [
        "Ġpractices",
        -9.627458748972282
      ],
      [
        "Ġdidn",
        -9.627681683169428
      ],
      [
        "Ġclinical",
        -9.628239954247295
      ],
      [
        "Ġeating",
        -9.62978085468006
      ],
      [
        "Ġtool",
        -9.630365507200706
      ],
      [
        "Ġrich",
        -9.630398070012262
      ],
      [
        "ĠNow",
        -9.630731162592316
      ],
      [
        "Ġusers",
        -9.631191322065025
      ],
      [
        "Ġtissue",
        -9.63153062776566
      ],
      [
        "ĠIsrael",
        -9.632008405592428
      ],
      [
        "Ġsend",
        -9.632038704827815
      ],
      [
        "k",
        -9.632470146295752
      ],
      [
        "Ġportion",
        -9.632533396764098
      ],
      [
        "ĠTheir",
        -9.632918232504032
      ],
      [
        "Ġtrack",
        -9.63322838399246
      ],
      [
        "Ġkilled",
        -9.633615002367517
      ],
      [
        "G",
        -9.634045072251451
      ],
      [
        "14",
        -9.63473154401487
      ],
      [
        "Ġreasons",
        -9.634813649844672
      ],
      [
        "Ġexpression",
        -9.635345070715983
      ],
      [
        "Ġgeneration",
        -9.636353066185675
      ],
      [
        "Ġdefined",
        -9.63705935255749
      ],
      [
        "Ġmoving",
        -9.637334048516584
      ],
      [
        "ĠMexico",
        -9.638559811182953
      ],
      [
        "Ġresource",
        -9.638981460738364
      ],
      [
        "Ġfamous",
        -9.640018127725044
      ],
      [
        "Ġn",
        -9.641239895974302
      ],
      [
        "Ġmedicine",
        -9.642351289668852
      ],
      [
        "Ġeight",
        -9.64442819494639
      ],
      [
        "ĠHuman",
        -9.644653184141252
      ],
      [
        "Ġtax",
        -9.645064079292418
      ],
      [
        "Ġhighest",
        -9.645833360369087
      ],
      [
        "Ġnote",
        -9.646207007998395
      ],
      [
        "Ġstrength",
        -9.646780964813722
      ],
      [
        "Ġsouthern",
        -9.646978397536223
      ],
      [
        "Ġworked",
        -9.647911444298147
      ],
      [
        "Ġparty",
        -9.64824204082971
      ],
      [
        "Ġ28",
        -9.648607708879323
      ],
      [
        "Ġstyle",
        -9.649249837290894
      ],
      [
        "Ġobservation",
        -9.649801243064678
      ],
      [
        "ary",
        -9.65001299748781
      ],
      [
        "Ġgarden",
        -9.650799915251977
      ],
      [
        "ĠEach",
        -9.651335085182652
      ],
      [
        "Ġdisorder",
        -9.651669039486206
      ],
      [
        "Ġobserv",
        -9.652881051190144
      ],
      [
        "Ġnorthern",
        -9.652882723081932
      ],
      [
        "Ġreleased",
        -9.65334204192901
      ],
      [
        ">",
        -9.65376151031434
      ],
      [
        "Ġchoose",
        -9.65405845133336
      ],
      [
        "Ġ1990",
        -9.65424257900582
      ],
      [
        "Ġfilm",
        -9.654513732174877
      ],
      [
        "While",
        -9.655196704639
      ],
      [
        "Ġcross",
        -9.65809010116194
      ],
      [
        "Ġpattern",
        -9.65841461859248
      ],
      [
        "Ġslow",
        -9.6609528829599
      ],
      [
        "[",
        -9.661529891938606
      ],
      [
        "Ġpiece",
        -9.662011690925816
      ],
      [
        "Ġpath",
        -9.663061116547604
      ],
      [
        "Ġfruit",
        -9.664125299999585
      ],
      [
        "Ġannual",
        -9.6643967257051
      ],
      [
        "Ġjoint",
        -9.664700336226414
      ],
      [
        "Ġreflect",
        -9.664743966223188
      ],
      [
        "ĠISBN",
        -9.66476891408318
      ],
      [
        "that",
        -9.6651463879704
      ],
      [
        "Ġletter",
        -9.665492041110868
      ],
      [
        "Ġtreated",
        -9.665876421475843
      ],
      [
        "Ġplans",
        -9.666021700674923
      ],
      [
        "ĠCourt",
        -9.666216347421214
      ],
      [
        "Ġsuggests",
        -9.66974720326478
      ],
      [
        "Ġc",
        -9.6702119730967
      ],
      [
        "âĢ¦",
        -9.670523787446989
      ],
      [
        "Ġ26",
        -9.67311356877872
      ],
      [
        "Ġspeech",
        -9.673312716023547
      ],
      [
        "Ġfat",
        -9.673500269602393
      ],
      [
        "Ġreligion",
        -9.674293433742912
      ],
      [
        "Ġoverall",
        -9.675059144458874
      ],
      [
        "Ġsort",
        -9.67532036820874
      ],
      [
        "Ġsurvey",
        -9.675610228179004
      ],
      [
        "Ġheavy",
        -9.67630858497706
      ],
      [
        "Ġorganizations",
        -9.677556165804262
      ],
      [
        "See",
        -9.677935368534984
      ],
      [
        "Ġimmediately",
        -9.681234427996532
      ],
      [
        "Ġlimit",
        -9.681826329958916
      ],
      [
        "Ġconducted",
        -9.682120923729148
      ],
      [
        "Ġdecades",
        -9.682788823824096
      ],
      [
        "Ġintroduced",
        -9.682798180425522
      ],
      [
        "Ġfriends",
        -9.68303864808876
      ],
      [
        "Ġrunning",
        -9.683675250299332
      ],
      [
        "Ġatmosphere",
        -9.684111614611494
      ],
      [
        "Ġvision",
        -9.684811179371556
      ],
      [
        "Ġupper",
        -9.685051191641284
      ],
      [
        "one",
        -9.686038918749713
      ],
      [
        "Ġlabor",
        -9.686664008623367
      ],
      [
        "Ġroad",
        -9.686944825030611
      ],
      [
        "Ġactual",
        -9.687269784866212
      ],
      [
        "ĠPaul",
        -9.68736358500903
      ],
      [
        "Ġwarm",
        -9.68739022271317
      ],
      [
        "Ġnews",
        -9.68809528416068
      ],
      [
        "Ġstories",
        -9.688436584586253
      ],
      [
        "Ġpresident",
        -9.68850661980646
      ],
      [
        "ĠChildren",
        -9.6893000709811
      ],
      [
        "men",
        -9.689628413092464
      ],
      [
        "Ġsquare",
        -9.689703244374208
      ],
      [
        "16",
        -9.689976089423398
      ],
      [
        "Ġofficial",
        -9.690000344661852
      ],
      [
        "Ġspeak",
        -9.69052691136316
      ],
      [
        "Ġproperties",
        -9.690846311686528
      ],
      [
        "ĠMedicine",
        -9.691656735895853
      ],
      [
        "Ġpromote",
        -9.692277240847217
      ],
      [
        "ĠOur",
        -9.692657475453649
      ],
      [
        "Ġpatterns",
        -9.693255584364582
      ],
      [
        "After",
        -9.693269000362706
      ],
      [
        "ĠMedical",
        -9.69342954371355
      ],
      [
        "ĠNot",
        -9.694163493627322
      ],
      [
        "Ġcampaign",
        -9.695104975871423
      ],
      [
        "Ġhost",
        -9.696130703295468
      ],
      [
        "Ġchoice",
        -9.696618835003298
      ],
      [
        "Ġking",
        -9.69714423371794
      ],
      [
        "ĠProgram",
        -9.697183699012143
      ],
      [
        "Ġblock",
        -9.69753899856869
      ],
      [
        "ĠIsland",
        -9.697813053185978
      ],
      [
        "Ġgiving",
        -9.69821222887578
      ],
      [
        "Ġmid",
        -9.699171436299284
      ],
      [
        "Ġ27",
        -9.700498797852104
      ],
      [
        "Ġleaders",
        -9.701644249582678
      ],
      [
        "Ġbreast",
        -9.702439088487363
      ],
      [
        "Ġcreation",
        -9.70275730852924
      ],
      [
        "Ġpredict",
        -9.703044351772958
      ],
      [
        "Ġchapter",
        -9.70337764185267
      ],
      [
        "ĠRobert",
        -9.703499213353574
      ],
      [
        "Ġforward",
        -9.704022996266596
      ],
      [
        "Ġ1999",
        -9.704317766026902
      ],
      [
        "Ġmoment",
        -9.705662212018929
      ],
      [
        "Ġpopulations",
        -9.705719270901568
      ],
      [
        "day",
        -9.70599663253855
      ],
      [
        "ĠArmy",
        -9.706919089279989
      ],
      [
        "Ġturned",
        -9.708341331624624
      ],
      [
        "Ġprior",
        -9.70920397990185
      ],
      [
        "Â°",
        -9.709671116614048
      ],
      [
        "ĠCatholic",
        -9.709735683113474
      ],
      [
        "ĠUse",
        -9.710054174145638
      ],
      [
        "Ġocean",
        -9.710353544803864
      ],
      [
        "ĠMr",
        -9.7111480201749
      ],
      [
        "which",
        -9.711255323678635
      ],
      [
        "Ġoperations",
        -9.711354470633951
      ],
      [
        "Ġfriend",
        -9.71223785563988
      ],
      [
        "Ġcivil",
        -9.713390095433098
      ],
      [
        "Ġwild",
        -9.71341455515364
      ],
      [
        "Ġevolution",
        -9.713476886253725
      ],
      [
        "Ġconduct",
        -9.713728351681294
      ],
      [
        "Ġraise",
        -9.714866985848076
      ],
      [
        "Ġdirector",
        -9.716518566321174
      ],
      [
        "Ġbone",
        -9.717039347681522
      ],
      [
        "ĠPublic",
        -9.717612280234023
      ],
      [
        "Ġestimat",
        -9.718236619425443
      ],
      [
        "Ġachieve",
        -9.718476131433077
      ],
      [
        "Ġdetails",
        -9.71870854563052
      ],
      [
        "Ġsoldier",
        -9.718853351040073
      ],
      [
        "Ġconservation",
        -9.71917242323315
      ],
      [
        "Ġdatabase",
        -9.719340836600963
      ],
      [
        "ĠSpanish",
        -9.719459404570456
      ],
      [
        "Ġaid",
        -9.720251253056585
      ],
      [
        "Ġeveryone",
        -9.721014859790936
      ],
      [
        "Ġfunctions",
        -9.72167794920226
      ],
      [
        "Ġbottom",
        -9.722089290963968
      ],
      [
        "Ġrock",
        -9.722268768324474
      ],
      [
        "Ġfast",
        -9.722374517055725
      ],
      [
        "Ġmeasurement",
        -9.723547054844753
      ],
      [
        "Ġopinion",
        -9.724051297755423
      ],
      [
        "ĠDevelopment",
        -9.724866812035092
      ],
      [
        "ĠSpace",
        -9.72493799589872
      ],
      [
        "Ġclearly",
        -9.725326219992796
      ],
      [
        "ĠProject",
        -9.72586314113879
      ],
      [
        "ability",
        -9.726213739937522
      ],
      [
        "Ġbuy",
        -9.72633525905376
      ],
      [
        "Ġshift",
        -9.726342629103293
      ],
      [
        "Ġliterature",
        -9.727620558542654
      ],
      [
        "Ġaccurate",
        -9.727909278084216
      ],
      [
        "Ġbalance",
        -9.728259931226962
      ],
      [
        "Ġtask",
        -9.729608466600242
      ],
      [
        "Ġfreedom",
        -9.730555953188112
      ],
      [
        "Ġtechnologies",
        -9.730794715764386
      ],
      [
        "Ġconsumption",
        -9.731830162799053
      ],
      [
        "Ġurban",
        -9.731879291816222
      ],
      [
        "Ġproposed",
        -9.732018512996866
      ],
      [
        "Ġsequence",
        -9.7327186299717
      ],
      [
        "Ġadult",
        -9.732792833808196
      ],
      [
        "Ġfields",
        -9.733478854589862
      ],
      [
        "Ġfrequently",
        -9.73347919568706
      ],
      [
        "ĠThomas",
        -9.733618685514978
      ],
      [
        "ĠEnergy",
        -9.734340916325555
      ],
      [
        "Ġsigns",
        -9.73548381482335
      ],
      [
        "Ġdigital",
        -9.735639409103593
      ],
      [
        "ĠBlack",
        -9.737937968716931
      ],
      [
        "Ġexamples",
        -9.73916851086602
      ],
      [
        "at",
        -9.7408958766321
      ],
      [
        "ĠLibrary",
        -9.741912463579512
      ],
      [
        "Ġsign",
        -9.742272207270648
      ],
      [
        "Ġefficient",
        -9.743288237627278
      ],
      [
        "Ġincreases",
        -9.74572096207768
      ],
      [
        "ĠHigh",
        -9.746119886820264
      ],
      [
        "Ġresistance",
        -9.74626199314744
      ],
      [
        "Ġv",
        -9.747518173984536
      ],
      [
        "Ġelectricity",
        -9.748448195994229
      ],
      [
        "Ġblue",
        -9.748461330109212
      ],
      [
        "Ġremoved",
        -9.748950230498322
      ],
      [
        "Ġgenes",
        -9.748991633979175
      ],
      [
        "Ġactions",
        -9.749000448907315
      ],
      [
        "Ġconstruct",
        -9.749185121664238
      ],
      [
        "Ġlearned",
        -9.751102767952164
      ],
      [
        "ĠInformation",
        -9.75168880685032
      ],
      [
        "Ġreduction",
        -9.751980509918608
      ],
      [
        "Ġextremely",
        -9.752824177002733
      ],
      [
        "ĠPacific",
        -9.752911584450189
      ],
      [
        "Ġdegrees",
        -9.753074274667917
      ],
      [
        "Ġwrong",
        -9.755235735175276
      ],
      [
        "Ġorganic",
        -9.755685376751105
      ],
      [
        "Ġwest",
        -9.75654020370016
      ],
      [
        "Ġmilk",
        -9.7572645400917
      ],
      [
        "Ġpractical",
        -9.757593562467656
      ],
      [
        "ĠWhite",
        -9.75820032528679
      ],
      [
        "Ġnumerous",
        -9.75896735052442
      ],
      [
        "Ġdetermined",
        -9.759075999746624
      ],
      [
        "Ġelection",
        -9.760607698980584
      ],
      [
        "Ġauthority",
        -9.761085512001909
      ],
      [
        "Ġremained",
        -9.761300271399476
      ],
      [
        "Ġreached",
        -9.762485524074323
      ],
      [
        "With",
        -9.76253026668608
      ],
      [
        "Ġstructures",
        -9.76295293561316
      ],
      [
        "Ġhelps",
        -9.762988692737622
      ],
      [
        "Ġplease",
        -9.763839002160626
      ],
      [
        "Ġperformed",
        -9.763943773951365
      ],
      [
        "Ġfine",
        -9.764629099658904
      ],
      [
        "Ġinternal",
        -9.76542999318837
      ],
      [
        "Ġhuge",
        -9.765579934166585
      ],
      [
        "Ġarm",
        -9.766385122616104
      ],
      [
        "Ġcontribute",
        -9.76668723660363
      ],
      [
        "Ġhousehold",
        -9.767058277612842
      ],
      [
        "Ġresident",
        -9.76815290699889
      ],
      [
        "Ġoccurr",
        -9.769235103641936
      ],
      [
        "Ġtruth",
        -9.769436676713555
      ],
      [
        "Ġrequirements",
        -9.76963032206034
      ],
      [
        "Ġpeace",
        -9.77058143821241
      ],
      [
        "Ġwood",
        -9.771214080638
      ],
      [
        "Ġsub",
        -9.771819271911308
      ],
      [
        "All",
        -9.771862045147827
      ],
      [
        "z",
        -9.771913494256896
      ],
      [
        "J",
        -9.7720835134233
      ],
      [
        "Ġgold",
        -9.772867252955102
      ],
      [
        "Ġoperation",
        -9.773222376807206
      ],
      [
        "Ġarmy",
        -9.77348184484151
      ],
      [
        "Ġboard",
        -9.773699528222728
      ],
      [
        "Ġcoast",
        -9.774283183446885
      ],
      [
        "Ġformation",
        -9.774569347892117
      ],
      [
        "+",
        -9.775212869295428
      ],
      [
        "25",
        -9.776410880819236
      ],
      [
        "Ġstar",
        -9.777593463476816
      ],
      [
        "Ġbodies",
        -9.77780812952294
      ],
      [
        "ĠSystem",
        -9.777912156223744
      ],
      [
        "Ġcomponents",
        -9.778036173369893
      ],
      [
        "ĠAsia",
        -9.778077342150963
      ],
      [
        "where",
        -9.77834029520898
      ],
      [
        "Ġimmune",
        -9.778601308569105
      ],
      [
        "Ġstorm",
        -9.779234497196589
      ],
      [
        "Ġmanner",
        -9.779654157554932
      ],
      [
        "kept",
        -9.779920815850955
      ],
      [
        "Ġcollege",
        -9.7800369428646
      ],
      [
        "Ġtri",
        -9.780772376209027
      ],
      [
        "Ġstem",
        -9.780905381759762
      ],
      [
        "Ġf",
        -9.78120258004294
      ],
      [
        "Ġ:",
        -9.78148277161042
      ],
      [
        "Ġcredit",
        -9.782046147548034
      ],
      [
        "ĠOffice",
        -9.782234977309722
      ],
      [
        "Ġisn",
        -9.782631565705035
      ],
      [
        "Ġarticles",
        -9.783157187864273
      ],
      [
        "f",
        -9.783571338670743
      ],
      [
        "Ġremove",
        -9.78418324626093
      ],
      [
        "ĠSea",
        -9.785415649650192
      ],
      [
        "Ġsteps",
        -9.785791405118603
      ],
      [
        "Ġtemperatures",
        -9.786135830651167
      ],
      [
        "Ġ1998",
        -9.786472724816065
      ],
      [
        "Ġfight",
        -9.786831100606568
      ],
      [
        "Ġpolicies",
        -9.788450208599862
      ],
      [
        "Ġcycle",
        -9.789707399390132
      ],
      [
        "Ġsex",
        -9.79109876015986
      ],
      [
        "Ġwall",
        -9.79115447006594
      ],
      [
        "Ġvisual",
        -9.79187953793387
      ],
      [
        "Ġcontrast",
        -9.792267076662988
      ],
      [
        "Ġcitizens",
        -9.79231453924379
      ],
      [
        "Ġmouth",
        -9.792592586233258
      ],
      [
        "Ġbreak",
        -9.793530250645023
      ],
      [
        "Ġsignificantly",
        -9.79375553331172
      ],
      [
        "Ġencourage",
        -9.79564516476791
      ],
      [
        "ĠFoundation",
        -9.795929832721402
      ],
      [
        "Ġhundred",
        -9.796295813065978
      ],
      [
        "Ġsurgery",
        -9.79646025256801
      ],
      [
        "ized",
        -9.79720066501021
      ],
      [
        "Ġitems",
        -9.797412899076674
      ],
      [
        "Ġrecogniz",
        -9.799492976191592
      ],
      [
        "Ġclassroom",
        -9.799590092927826
      ],
      [
        "ia",
        -9.800884460782822
      ],
      [
        "Ġassessment",
        -9.801010535581185
      ],
      [
        "Ġpages",
        -9.801563494300682
      ],
      [
        "Ġpair",
        -9.802122198368862
      ],
      [
        "Ġ80",
        -9.803161274328628
      ],
      [
        "Ġhour",
        -9.804394530378236
      ],
      [
        "Ġindustrial",
        -9.805136640206458
      ],
      [
        "Ġworth",
        -9.80546271486753
      ],
      [
        "Ġspent",
        -9.80561137893923
      ],
      [
        "Ġeast",
        -9.806420950084672
      ],
      [
        "Ġbuildings",
        -9.806780763674412
      ],
      [
        "Ġnotes",
        -9.80703513122591
      ],
      [
        "Ġdie",
        -9.80708398785116
      ],
      [
        "Ġdouble",
        -9.808206185502648
      ],
      [
        "Ġviolence",
        -9.80845489696132
      ],
      [
        "Ġfear",
        -9.809727795623362
      ],
      [
        "Ġbattle",
        -9.810172090907958
      ],
      [
        "Ġextend",
        -9.810268823611954
      ],
      [
        "From",
        -9.810346008735316
      ],
      [
        "Ġpublication",
        -9.810778929784126
      ],
      [
        "Ġextensive",
        -9.813577083489369
      ],
      [
        "Ġradio",
        -9.814348098348988
      ],
      [
        "Ġconfirm",
        -9.81574171709345
      ],
      [
        "Ġofficials",
        -9.816195670179862
      ],
      [
        "Ġbiological",
        -9.818226355223716
      ],
      [
        "ĠVirginia",
        -9.818303982231775
      ],
      [
        "Ġresulting",
        -9.81904903455329
      ],
      [
        "Ġopportunities",
        -9.819062732867186
      ],
      [
        "Ġkm",
        -9.819066198170637
      ],
      [
        "Ġpersons",
        -9.81907378489364
      ],
      [
        "Ġdebate",
        -9.820681743156952
      ],
      [
        "Ġ200",
        -9.821103700961162
      ],
      [
        "Ġalcohol",
        -9.821918857130338
      ],
      [
        "Ġdrive",
        -9.822430122297426
      ],
      [
        "Ġbecoming",
        -9.823300710324611
      ],
      [
        "Ġiron",
        -9.823514705967469
      ],
      [
        "ĠCentral",
        -9.823923677505586
      ],
      [
        "ĠLaw",
        -9.823967940178225
      ],
      [
        "18",
        -9.824452483088152
      ],
      [
        "u",
        -9.824492539336644
      ],
      [
        "Ġfeed",
        -9.82473541346302
      ],
      [
        "Ġmetal",
        -9.824951675123238
      ],
      [
        "Ġexistence",
        -9.825428935701272
      ],
      [
        "Ġoutcome",
        -9.825657047535197
      ],
      [
        "ĠLake",
        -9.826021440835088
      ],
      [
        "Ġorigin",
        -9.82696021008359
      ],
      [
        "ĠBritain",
        -9.827131637479802
      ],
      [
        "Ġexpect",
        -9.827381381777895
      ],
      [
        "Ġprinciples",
        -9.827689608665562
      ],
      [
        "Ġapparent",
        -9.827993189253958
      ],
      [
        "Ġhappen",
        -9.828119550603924
      ],
      [
        "That",
        -9.828532081628577
      ],
      [
        "Ġpress",
        -9.82879111626851
      ],
      [
        "Ġintended",
        -9.829029240119748
      ],
      [
        "ton",
        -9.829559101609412
      ],
      [
        "Ġcharacteristics",
        -9.829611532493171
      ],
      [
        "Ġauthors",
        -9.82992946550833
      ],
      [
        "Ġstrategies",
        -9.830186684322484
      ],
      [
        "Ġfundamental",
        -9.832495230245708
      ],
      [
        "Ġprimari",
        -9.83273035350708
      ],
      [
        "ĠCivil",
        -9.83273906381265
      ],
      [
        "Ġengineer",
        -9.833237085866118
      ],
      [
        "Ġclasses",
        -9.83338570731757
      ],
      [
        "Ġchallenge",
        -9.833882274132437
      ],
      [
        "Ġmoral",
        -9.833978169481188
      ],
      [
        "Ġmonitor",
        -9.83518916442386
      ],
      [
        "over",
        -9.83528373074207
      ],
      [
        "Ġoxygen",
        -9.835511115607993
      ],
      [
        "Ġwestern",
        -9.836543112051944
      ],
      [
        "Ġsurrounding",
        -9.836902740121973
      ],
      [
        "Ġfaith",
        -9.837077714057443
      ],
      [
        "Ġchief",
        -9.837114615725778
      ],
      [
        "Ġ29",
        -9.837474373906112
      ],
      [
        "Ġultimate",
        -9.838342264333017
      ],
      [
        "Ġcompleted",
        -9.839898058095592
      ],
      [
        "ĠCharles",
        -9.840955639683273
      ],
      [
        "Ġextent",
        -9.841734594340537
      ],
      [
        "Ġbackground",
        -9.84371569865731
      ],
      [
        "Ġdecided",
        -9.84383221252948
      ],
      [
        "Ġ90",
        -9.844485778285458
      ],
      [
        "Ġclick",
        -9.844620170626012
      ],
      [
        "ĠUK",
        -9.844711974564335
      ],
      [
        "Ġenable",
        -9.845282183017163
      ],
      [
        "Ġadvanced",
        -9.845539098419255
      ],
      [
        "Ġforced",
        -9.845603900943283
      ],
      [
        "Ġheard",
        -9.847295361542212
      ],
      [
        "Ġfit",
        -9.84764454349784
      ],
      [
        "Ġexcept",
        -9.847726717617116
      ],
      [
        "Ġfeature",
        -9.849208980032577
      ],
      [
        "what",
        -9.85055919997545
      ],
      [
        "Ġfossil",
        -9.85057075272514
      ],
      [
        "Ġrecognize",
        -9.850835047115018
      ],
      [
        "Ġreturned",
        -9.851513966325046
      ],
      [
        "Ġtechnique",
        -9.85157174951401
      ],
      [
        "Ġhabitat",
        -9.851748570152076
      ],
      [
        "ĠLatin",
        -9.852758876073858
      ],
      [
        "Ġsufficient",
        -9.852796739702876
      ],
      [
        "Ġanyone",
        -9.853212309465748
      ],
      [
        "U",
        -9.853603832783737
      ],
      [
        "17",
        -9.855233306824823
      ],
      [
        "ion",
        -9.855803195611678
      ],
      [
        "Ġserv",
        -9.855891267561406
      ],
      [
        "Ġexpos",
        -9.857182696785282
      ],
      [
        "Ġemail",
        -9.859979758626478
      ],
      [
        "ĠAir",
        -9.860420465013622
      ],
      [
        "Although",
        -9.86120459821126
      ],
      [
        "Ġobvious",
        -9.862558931509836
      ],
      [
        "Ġsaying",
        -9.863447355192474
      ],
      [
        "Ġ1997",
        -9.86408127967396
      ],
      [
        "ĠSun",
        -9.864605061400187
      ],
      [
        "Ġenjoy",
        -9.864611986216673
      ],
      [
        "Ġwanted",
        -9.864969318484064
      ],
      [
        "ĠEnvironmental",
        -9.865103076037425
      ],
      [
        "Ġliquid",
        -9.865371637533412
      ],
      [
        "Ġvirtual",
        -9.865435836853177
      ],
      [
        "Ġstand",
        -9.866810938396018
      ],
      [
        "New",
        -9.868280623493508
      ],
      [
        "Ġcore",
        -9.86850254824262
      ],
      [
        "Ġstars",
        -9.868506512166968
      ],
      [
        "Ġrecommended",
        -9.868745163565842
      ],
      [
        "Ġdog",
        -9.86940779432048
      ],
      [
        "Ġagreement",
        -9.870423909463534
      ],
      [
        "Ġemergenc",
        -9.8704698552797
      ],
      [
        "Ġdisorders",
        -9.87056633372286
      ],
      [
        "Ġattend",
        -9.870596079378569
      ],
      [
        "Ġtechnical",
        -9.87062072846618
      ],
      [
        "Ġexperiment",
        -9.87162213769034
      ],
      [
        "Ġprepared",
        -9.871631192127552
      ],
      [
        "Ġhair",
        -9.871898345586098
      ],
      [
        "Ġcoal",
        -9.872705782662004
      ],
      [
        "Ġextra",
        -9.873636650868413
      ],
      [
        "Ġdepression",
        -9.874035288620766
      ],
      [
        "ĠWhy",
        -9.87462010996398
      ],
      [
        "Ġpush",
        -9.87518093803468
      ],
      [
        "Ġmet",
        -9.87537952565363
      ],
      [
        "Ġteach",
        -9.875413535724228
      ],
      [
        "related",
        -9.876517997255746
      ],
      [
        "Y",
        -9.876841570492578
      ],
      [
        "ĠCommission",
        -9.877042645731605
      ],
      [
        "Ġexplore",
        -9.878832645068854
      ],
      [
        "Ġwife",
        -9.879970409513094
      ],
      [
        "ĠDur",
        -9.881003337630414
      ],
      [
        "Ġstore",
        -9.88105446495432
      ],
      [
        "ĠBe",
        -9.88134119717086
      ],
      [
        "Ġcausing",
        -9.88151704259004
      ],
      [
        "with",
        -9.88233787092628
      ],
      [
        "Ġwww",
        -9.883551695929505
      ],
      [
        "head",
        -9.883593251878688
      ],
      [
        "ĠLife",
        -9.883694431944855
      ],
      [
        "Ġagricultural",
        -9.884450644352812
      ],
      [
        "ĠBook",
        -9.887449726017538
      ],
      [
        "Ġperspective",
        -9.887501563767191
      ],
      [
        "Ġmuscle",
        -9.888035986606878
      ],
      [
        "Ġengineering",
        -9.888327214192532
      ],
      [
        "Ġoutput",
        -9.88852450585462
      ],
      [
        "Ġstorage",
        -9.888559649718434
      ],
      [
        "Ġship",
        -9.890798665060831
      ],
      [
        "Ġfacilities",
        -9.891801328422536
      ],
      [
        "Ġstarting",
        -9.891920927389242
      ],
      [
        "More",
        -9.894005317627109
      ],
      [
        "Ġinterested",
        -9.894650774100336
      ],
      [
        "Ġdecrease",
        -9.89488550117968
      ],
      [
        "Ġcombined",
        -9.895357957652635
      ],
      [
        "Ġrecorded",
        -9.895431990552035
      ],
      [
        "Ġbird",
        -9.89616026125242
      ],
      [
        "Ġ70",
        -9.8981374528295
      ],
      [
        "ĠTechnology",
        -9.8982290475787
      ],
      [
        "Ġplastic",
        -9.899660963956867
      ],
      [
        "Ġreaction",
        -9.900064230057152
      ],
      [
        "Ġconsistent",
        -9.900301740426537
      ],
      [
        "ĠRed",
        -9.900585392594024
      ],
      [
        "v",
        -9.900613605555804
      ],
      [
        "Ġchang",
        -9.901913539508328
      ],
      [
        "Ġadvantage",
        -9.902007316308618
      ],
      [
        "Ġrequest",
        -9.902820120841598
      ],
      [
        "ĠFederal",
        -9.903131679521168
      ],
      [
        "Ġjournal",
        -9.903153464261491
      ],
      [
        "Ġregarding",
        -9.903779161636896
      ],
      [
        "19",
        -9.905583736050389
      ],
      [
        "Ġnations",
        -9.905685524735649
      ],
      [
        "refore",
        -9.906032539979668
      ],
      [
        "Many",
        -9.90621675346936
      ],
      [
        "Ġcenturie",
        -9.906430156189677
      ],
      [
        "Ġleader",
        -9.907646635642337
      ],
      [
        "ĠFlorida",
        -9.908621582546544
      ],
      [
        "more",
        -9.910552363222925
      ],
      [
        "Ġacademic",
        -9.910694334475282
      ],
      [
        "Ġsalt",
        -9.910733748525823
      ],
      [
        "Ġbrief",
        -9.91175795593036
      ],
      [
        "Ġhear",
        -9.912223239426778
      ],
      [
        "ĠCommittee",
        -9.91229263737318
      ],
      [
        "Ġcopy",
        -9.91255682496604
      ],
      [
        "No",
        -9.912754671510369
      ],
      [
        "Ġparticipants",
        -9.91341581861057
      ],
      [
        "Ġpollution",
        -9.914590004223871
      ],
      [
        "ĠMiddle",
        -9.915869888691333
      ],
      [
        "Ġlinks",
        -9.91600965338694
      ],
      [
        "American",
        -9.916222741152096
      ],
      [
        "Ġmeat",
        -9.916282639056462
      ],
      [
        "Ġoffered",
        -9.91655628230005
      ],
      [
        "Ġexpand",
        -9.917371517910372
      ],
      [
        "Ġgoals",
        -9.91784555497874
      ],
      [
        "ĠCompany",
        -9.91799983504546
      ],
      [
        "Ġdecline",
        -9.919445321299063
      ],
      [
        "ĠTwo",
        -9.919473841641157
      ],
      [
        "Ġmentioned",
        -9.91959292569287
      ],
      [
        "Ġyourself",
        -9.92005636738908
      ],
      [
        "00",
        -9.920962363116198
      ],
      [
        "Ġagencies",
        -9.92099908826302
      ],
      [
        "&",
        -9.921188169702038
      ],
      [
        "ĠBay",
        -9.921857747898494
      ],
      [
        "Most",
        -9.92255546420446
      ],
      [
        "Ġparticles",
        -9.922837787326737
      ],
      [
        "Ġimproved",
        -9.92299016215877
      ],
      [
        "Ġroot",
        -9.9248484477518
      ],
      [
        "ĠFood",
        -9.92490983976518
      ],
      [
        "Ġchallenges",
        -9.924968873183628
      ],
      [
        "Ġready",
        -9.924978706632528
      ],
      [
        "Ġreducing",
        -9.925229286268891
      ],
      [
        "Ġchronic",
        -9.925760055447869
      ],
      [
        "Ġphase",
        -9.926468554085265
      ],
      [
        "ĠSocial",
        -9.927379355998475
      ],
      [
        "Ġvast",
        -9.92746923104364
      ],
      [
        "Ġtradition",
        -9.927474790276278
      ],
      [
        "Ġtopic",
        -9.927521064981695
      ],
      [
        "Ġwarming",
        -9.927672664937344
      ],
      [
        "Ġkill",
        -9.927774848255828
      ],
      [
        "Ġoptions",
        -9.928429524492037
      ],
      [
        "ĠCanadian",
        -9.928630078733717
      ],
      [
        "Ġoperating",
        -9.928882437892774
      ],
      [
        "ĠDe",
        -9.92899374526118
      ],
      [
        "Ġmotion",
        -9.92956505345021
      ],
      [
        "Ġelement",
        -9.929832171606265
      ],
      [
        "Ġdangerous",
        -9.930248173685609
      ],
      [
        "Ġotherwise",
        -9.931595162580988
      ],
      [
        "ĠOld",
        -9.931746492209996
      ],
      [
        "Other",
        -9.931796980307595
      ],
      [
        "Ġfrequency",
        -9.931977523819633
      ],
      [
        "Ġillness",
        -9.9321238161595
      ],
      [
        "Ġprices",
        -9.932507035694709
      ],
      [
        "Ġspirit",
        -9.932667010004172
      ],
      [
        "Ġfarm",
        -9.932688979312283
      ],
      [
        "Ġ1980",
        -9.933640833762894
      ],
      [
        "V",
        -9.933660723352952
      ],
      [
        "Ġmorning",
        -9.933673631924778
      ],
      [
        "Ġlibrary",
        -9.933684700907644
      ],
      [
        "Ġoperate",
        -9.933984979990376
      ],
      [
        "Ġappeared",
        -9.934257268690736
      ],
      [
        "Ġconnected",
        -9.934356181830582
      ],
      [
        "ĠHenry",
        -9.934752535668316
      ],
      [
        "Ġsubsequent",
        -9.934900440147622
      ],
      [
        "They",
        -9.935162428491918
      ],
      [
        "Ġpolice",
        -9.93550065366168
      ],
      [
        "old",
        -9.936652527631695
      ],
      [
        "Ġcrime",
        -9.936922515518294
      ],
      [
        "Ġorganiz",
        -9.937814549870144
      ],
      [
        "Ġ1996",
        -9.937977803138608
      ],
      [
        "Ġdaughter",
        -9.938241800284509
      ],
      [
        "Ġgenerat",
        -9.93930834771886
      ],
      [
        "Ġdiagnosis",
        -9.94050985480706
      ],
      [
        "@",
        -9.941379821024942
      ],
      [
        "According",
        -9.942072100149664
      ],
      [
        "Ġinfections",
        -9.94241573209695
      ],
      [
        "Ġachiev",
        -9.942668880197342
      ],
      [
        "Ġcollected",
        -9.943447157246863
      ],
      [
        "Ġstudied",
        -9.943556860147863
      ],
      [
        "Ġrecommend",
        -9.94372605464111
      ],
      [
        "Ġpermanent",
        -9.94453460328914
      ],
      [
        "Ġconcerns",
        -9.944554672460123
      ],
      [
        "Ġgrade",
        -9.94464477501132
      ],
      [
        "Ġwatch",
        -9.944916424151154
      ],
      [
        "ĠRussian",
        -9.945092317757757
      ],
      [
        "Ġmarriage",
        -9.945435144371457
      ],
      [
        "Ġprinciple",
        -9.946310385072064
      ],
      [
        "Ġuniverse",
        -9.94703450704244
      ],
      [
        "Ġfoot",
        -9.947614051198787
      ],
      [
        "ĠMy",
        -9.948694723927783
      ],
      [
        "Ġmanag",
        -9.949661106361402
      ],
      [
        "Ġscreen",
        -9.949683140909745
      ],
      [
        "ĠMary",
        -9.949923272053486
      ],
      [
        "Ġtube",
        -9.951274334894856
      ],
      [
        "Ġparent",
        -9.95199683517149
      ],
      [
        "Ġmanage",
        -9.9527334094843
      ],
      [
        "ĠBible",
        -9.952812457687816
      ],
      [
        "Ġeasier",
        -9.952830831773165
      ],
      [
        "Ġcontribution",
        -9.954617781787686
      ],
      [
        "Ġglass",
        -9.955231292084834
      ],
      [
        "22",
        -9.958198117549983
      ],
      [
        "Ġaccept",
        -9.958322211103294
      ],
      [
        "Ġexchange",
        -9.958503976220848
      ],
      [
        "ĠRights",
        -9.958929817784716
      ],
      [
        "ĠSoviet",
        -9.959465307480054
      ],
      [
        "Ġ1995",
        -9.959473544036127
      ],
      [
        "Ġexternal",
        -9.960219531390685
      ],
      [
        "Ġbox",
        -9.96210612198761
      ],
      [
        "Ġconclusion",
        -9.962673751991195
      ],
      [
        "Ġbank",
        -9.9632003437285
      ],
      [
        "Ġfresh",
        -9.963533638093088
      ],
      [
        "Ġpainting",
        -9.964911605606924
      ],
      [
        "Ġcontinues",
        -9.965349874807696
      ],
      [
        "Ġcouple",
        -9.965605563500551
      ],
      [
        "Ġamounts",
        -9.965875149416174
      ],
      [
        "Ġextreme",
        -9.965893253617947
      ],
      [
        "Ġdetect",
        -9.96595102942658
      ],
      [
        "Ġvitamin",
        -9.96600122036089
      ],
      [
        "Ġlandscape",
        -9.966049783914142
      ],
      [
        "Ġexhibit",
        -9.966157278932032
      ],
      [
        "ĠMars",
        -9.966272158555784
      ],
      [
        "ĠCo",
        -9.966273765397643
      ],
      [
        "Ġregional",
        -9.966438803176132
      ],
      [
        "Ġaware",
        -9.966755134996797
      ],
      [
        "le",
        -9.967255621580149
      ],
      [
        "Ġchemicals",
        -9.968372701763773
      ],
      [
        "Ġmeasured",
        -9.968455109230003
      ],
      [
        "Ġheight",
        -9.968455392719678
      ],
      [
        "Ġ#",
        -9.97031585330636
      ],
      [
        "Ġlatter",
        -9.97037931903367
      ],
      [
        "Ġconnect",
        -9.970799060547538
      ],
      [
        "Ġdiscovery",
        -9.971168538624818
      ],
      [
        "ĠLa",
        -9.971626906350954
      ],
      [
        "Ġengine",
        -9.9717763244891
      ],
      [
        "Ġstone",
        -9.971837397554731
      ],
      [
        "Ġeggs",
        -9.973467092464846
      ],
      [
        "Ġfelt",
        -9.973531397352993
      ],
      [
        "ĠSuch",
        -9.97362916424654
      ],
      [
        "Ġdivided",
        -9.97388913047355
      ],
      [
        "Ġhospital",
        -9.974039939765078
      ],
      [
        "Ġobtained",
        -9.974573942458186
      ],
      [
        "Ġefficiency",
        -9.974840593776548
      ],
      [
        "Ġdomestic",
        -9.975739016220643
      ],
      [
        "Ġpull",
        -9.976902175335235
      ],
      [
        "Ġperfect",
        -9.97708482405264
      ],
      [
        "Ġelectrical",
        -9.977509756105992
      ],
      [
        "no",
        -9.977728953162629
      ],
      [
        "Ġpoverty",
        -9.977957410299757
      ],
      [
        "Ġbegins",
        -9.978400595612475
      ],
      [
        "Ġargue",
        -9.978526450278936
      ],
      [
        "ĠWomen",
        -9.978678724469372
      ],
      [
        "ĠGroup",
        -9.97909844760106
      ],
      [
        "Ġorbit",
        -9.979262899154044
      ],
      [
        "Ġlanguages",
        -9.979915247199528
      ],
      [
        "Ġnotice",
        -9.981664584785529
      ],
      [
        "Ġinjury",
        -9.981847379488023
      ],
      [
        "Ġcook",
        -9.982358407293344
      ],
      [
        "Ġflight",
        -9.983475116312787
      ],
      [
        "Ġideal",
        -9.98351900044186
      ],
      [
        "Ġrain",
        -9.984941883310412
      ],
      [
        "ĠSmith",
        -9.985810879894
      ],
      [
        "Ġb",
        -9.986041942537051
      ],
      [
        "Ġdrinking",
        -9.986258266720576
      ],
      [
        "Ġtroops",
        -9.987383346671203
      ],
      [
        "Ġlose",
        -9.987675180083734
      ],
      [
        "Ġassociation",
        -9.987946699468532
      ],
      [
        "Ġshowing",
        -9.987997071072686
      ],
      [
        "ĠY",
        -9.988109166246158
      ],
      [
        "Ġthreat",
        -9.988245595003866
      ],
      [
        "Ġ*",
        -9.988388906745046
      ],
      [
        "Ġdocuments",
        -9.99018000494302
      ],
      [
        "ĠNews",
        -9.990197913967124
      ],
      [
        "sis",
        -9.991314830587571
      ],
      [
        "Ġhearing",
        -9.991539324341858
      ],
      [
        "Ġrough",
        -9.992101370651836
      ],
      [
        "Ġcollect",
        -9.992718591061356
      ],
      [
        "ĠGreen",
        -9.992918390216404
      ],
      [
        "Ġprovider",
        -9.99297862318446
      ],
      [
        "Ġtypical",
        -9.993171692341075
      ],
      [
        "Ġhundreds",
        -9.993992713315969
      ],
      [
        "Ġletters",
        -9.994165387160267
      ],
      [
        "Ġfunding",
        -9.994529926105091
      ],
      [
        "Ġ31",
        -9.995481245580834
      ],
      [
        "Ġslightly",
        -9.995657189564149
      ],
      [
        "Ġassist",
        -9.996701765026629
      ],
      [
        "Ġwish",
        -9.997740263350158
      ],
      [
        "Ġsolid",
        -9.997848633177757
      ],
      [
        "ĠNature",
        -9.997897263673629
      ],
      [
        "Ġselected",
        -9.998554976185964
      ],
      [
        "Ġtaught",
        -9.998953499410616
      ],
      [
        "Ġmineral",
        -9.99916927363018
      ],
      [
        "Ġselection",
        -10.000288574228051
      ],
      [
        "stood",
        -10.00054557543164
      ],
      [
        "Ġfoundation",
        -10.001846473511366
      ],
      [
        "Ġresponsibility",
        -10.00205826787017
      ],
      [
        "Ġmoon",
        -10.003003566796322
      ],
      [
        "Ġknew",
        -10.003370667263132
      ],
      [
        "Ġmulti",
        -10.00350426295612
      ],
      [
        "Ġrural",
        -10.003584971508507
      ],
      [
        "Now",
        -10.00527319483558
      ],
      [
        "Ġsyndrome",
        -10.005597216847532
      ],
      [
        "Ġreveal",
        -10.0062483333151
      ],
      [
        "Ġd",
        -10.006411552212857
      ],
      [
        "ĠReport",
        -10.007306996755531
      ],
      [
        "Ġelectric",
        -10.008252863721248
      ],
      [
        "Ġconcerned",
        -10.008388986438211
      ],
      [
        "Ġhonor",
        -10.008625745617032
      ],
      [
        "from",
        -10.008787770806205
      ],
      [
        "ĠBoth",
        -10.008919409366031
      ],
      [
        "ĠCarolina",
        -10.00958203263006
      ],
      [
        "ĠOr",
        -10.010168889697438
      ],
      [
        "Ġsubstantial",
        -10.010646001620378
      ],
      [
        "Ġyouth",
        -10.010697919381142
      ],
      [
        "Ġdistinguish",
        -10.01093536056567
      ],
      [
        "ĠJoseph",
        -10.011139956567558
      ],
      [
        "Ġclosely",
        -10.011649557953962
      ],
      [
        "Ġcool",
        -10.01166943116396
      ],
      [
        "ĠStudents",
        -10.0117414441168
      ],
      [
        "Ġinvolves",
        -10.012003071415812
      ],
      [
        "50",
        -10.012728715519817
      ],
      [
        "Ġtransfer",
        -10.013042532681451
      ],
      [
        "24",
        -10.01435634318916
      ],
      [
        "Ġpieces",
        -10.014404332779533
      ],
      [
        "Ġcent",
        -10.01456158310213
      ],
      [
        "Ġcomponent",
        -10.014616943646631
      ],
      [
        "Ġstrategy",
        -10.014951994692805
      ],
      [
        "ĠPeter",
        -10.015235014922284
      ],
      [
        "Ġexpress",
        -10.015461339228514
      ],
      [
        "Ġformal",
        -10.01571881866865
      ],
      [
        "Ġexperienc",
        -10.019299272635438
      ],
      [
        "Ġvoice",
        -10.01963264887483
      ],
      [
        "Ġfluid",
        -10.02044459539957
      ],
      [
        "Ġmarine",
        -10.020446195180218
      ],
      [
        "Ġstock",
        -10.0209384971171
      ],
      [
        "Ġselect",
        -10.02108687506548
      ],
      [
        "Ġcrops",
        -10.02172546666758
      ],
      [
        "Ġfund",
        -10.021957447276824
      ],
      [
        "Ġspiritual",
        -10.02228032260772
      ],
      [
        "Ġbeautiful",
        -10.022639082515877
      ],
      [
        "Ġcontrolled",
        -10.022864178509558
      ],
      [
        "Ġadministration",
        -10.02297241286465
      ],
      [
        "Ġseat",
        -10.023129082185946
      ],
      [
        "Ġfilter",
        -10.02317350991014
      ],
      [
        "Ġagree",
        -10.023355203134107
      ],
      [
        "Ġbright",
        -10.023589662381069
      ],
      [
        "ĠControl",
        -10.023634993337597
      ],
      [
        "Ġaircraft",
        -10.024869946867083
      ],
      [
        "Ġrelevant",
        -10.024908343731576
      ],
      [
        "500",
        -10.025662059123492
      ],
      [
        "Ġabuse",
        -10.025750115878065
      ],
      [
        "Ġkinds",
        -10.026411459992444
      ],
      [
        "ĠAustralian",
        -10.02709646581791
      ],
      [
        "Ġlisten",
        -10.027555476472994
      ],
      [
        "ĠCO",
        -10.028545764301905
      ],
      [
        "Ġ1970",
        -10.028630183397953
      ],
      [
        "Ġfiles",
        -10.02897922672174
      ],
      [
        "ĠStudies",
        -10.030126434730953
      ],
      [
        "21",
        -10.030265677750458
      ],
      [
        "ĠToday",
        -10.030723235196596
      ],
      [
        "ĠSecond",
        -10.030742691508744
      ],
      [
        "ĠArt",
        -10.031897879347683
      ],
      [
        "Ġmaster",
        -10.031962804279036
      ],
      [
        "Ġdecade",
        -10.032708588557872
      ],
      [
        "Ġlooked",
        -10.033152288472106
      ],
      [
        "Ġmountain",
        -10.033319666501844
      ],
      [
        "Ġpanel",
        -10.033674538924355
      ],
      [
        "Ġload",
        -10.033797280114454
      ],
      [
        "Ġexplained",
        -10.034047303395578
      ],
      [
        "Ġregard",
        -10.034317491242174
      ],
      [
        "Ġhomes",
        -10.03445983015433
      ],
      [
        "Ġdepth",
        -10.034513287622785
      ],
      [
        "Ġdemonstrate",
        -10.034547379576557
      ],
      [
        "Ġpassage",
        -10.036309151473764
      ],
      [
        "Ġgames",
        -10.036936507282638
      ],
      [
        "Ġnovel",
        -10.03820528678521
      ],
      [
        "Ġhappens",
        -10.039140281329272
      ],
      [
        "Ġpark",
        -10.039233720714392
      ],
      [
        "Ġexamine",
        -10.039415596178992
      ],
      [
        "Ġlatest",
        -10.039686099673322
      ],
      [
        "Ġvisible",
        -10.039825782166396
      ],
      [
        "Ġprocessing",
        -10.039950631463489
      ],
      [
        "Ġmeant",
        -10.040771398038316
      ],
      [
        "Ġpaid",
        -10.040772165506366
      ],
      [
        "Ġinches",
        -10.041213824639568
      ],
      [
        "Ġmonitoring",
        -10.042438126297077
      ],
      [
        "Ġdespite",
        -10.04278981642042
      ],
      [
        "Ġdrawing",
        -10.04287383998721
      ],
      [
        "Ġexperiences",
        -10.042960132728693
      ],
      [
        "Ġburn",
        -10.044154302246303
      ],
      [
        "espite",
        -10.04529991252634
      ],
      [
        "Ġrais",
        -10.04534963999578
      ],
      [
        "Ġyellow",
        -10.0455810350817
      ],
      [
        "Ġcorn",
        -10.04640682299185
      ],
      [
        "ĠSouthern",
        -10.047174560377536
      ],
      [
        "Ġnine",
        -10.04718126201102
      ],
      [
        "Ġregister",
        -10.047213231324791
      ],
      [
        "Ġflu",
        -10.04875799280196
      ],
      [
        "Ġteeth",
        -10.049605318406822
      ],
      [
        "Ġaccepted",
        -10.04964593235148
      ],
      [
        "Ġstruggle",
        -10.050300298590177
      ],
      [
        "Ġmassive",
        -10.050418386991872
      ],
      [
        "Ġelectronic",
        -10.050587055805083
      ],
      [
        "ĠEgypt",
        -10.050615321288738
      ],
      [
        "?\"",
        -10.05093524591002
      ],
      [
        "Ġtransport",
        -10.052459271599975
      ],
      [
        "Ġmaximum",
        -10.052588910567437
      ],
      [
        "Ġforests",
        -10.052724738449712
      ],
      [
        "ĠRussia",
        -10.054306267090327
      ],
      [
        "Ġfirm",
        -10.05450455596609
      ],
      [
        "Ġsold",
        -10.054613025556868
      ],
      [
        "Ġinterview",
        -10.054727434873948
      ],
      [
        "out",
        -10.054939879277214
      ],
      [
        "Ġlaboratory",
        -10.055240517118817
      ],
      [
        "Ġjobs",
        -10.056377198247436
      ],
      [
        "ĠRepublic",
        -10.056840258643147
      ],
      [
        "ization",
        -10.057084296535052
      ],
      [
        "Ġcircuit",
        -10.05749230491881
      ],
      [
        "Ġthousand",
        -10.05821020811728
      ],
      [
        "Ġfair",
        -10.059493716409923
      ],
      [
        "Ġindeed",
        -10.059525284045248
      ],
      [
        "ĠProfessor",
        -10.059568800407488
      ],
      [
        "Ġgirls",
        -10.059685239692772
      ],
      [
        "Ġ<",
        -10.059775235628864
      ],
      [
        "Ġunless",
        -10.06039100660288
      ],
      [
        "Ġrelationships",
        -10.060716761352374
      ],
      [
        "ĠRichard",
        -10.061000714907443
      ],
      [
        "Ġseed",
        -10.061131576587895
      ],
      [
        "ĠForce",
        -10.06135690474048
      ],
      [
        "Ġsector",
        -10.061468645912363
      ],
      [
        "Instead",
        -10.06168703438651
      ],
      [
        "ĠStreet",
        -10.06416625118473
      ],
      [
        "Ġsell",
        -10.06538559354986
      ],
      [
        "Ġconcepts",
        -10.06587529400999
      ],
      [
        "Ġimplement",
        -10.066055589979593
      ],
      [
        "Ġsustainable",
        -10.06720228909314
      ],
      [
        "gov",
        -10.06729606968843
      ],
      [
        "age",
        -10.06730053433583
      ],
      [
        "Ġhappened",
        -10.069958703040466
      ],
      [
        "Ġfun",
        -10.070099582429084
      ],
      [
        "Ġconsequences",
        -10.07087881788684
      ],
      [
        "Ġhit",
        -10.071430125694748
      ],
      [
        "Ġinvestigation",
        -10.071820284701111
      ],
      [
        "Ġfloor",
        -10.07202355559019
      ],
      [
        "Ġharvest",
        -10.073000342442104
      ],
      [
        "Ġnewspaper",
        -10.073474111583366
      ],
      [
        "Ġonto",
        -10.073736889414938
      ],
      [
        "Ġcolleagues",
        -10.07378945370464
      ],
      [
        "not",
        -10.074937336026794
      ],
      [
        "Ġcamp",
        -10.074990702683513
      ],
      [
        "Ġadvice",
        -10.075570487084397
      ],
      [
        "Ġoption",
        -10.076109706092703
      ],
      [
        "ĠAnother",
        -10.076481055123018
      ],
      [
        "Ġcounty",
        -10.076764649301058
      ],
      [
        "Ġemotional",
        -10.077235378161635
      ],
      [
        "Ġagency",
        -10.078463294323686
      ],
      [
        "Ġleaving",
        -10.07878402288038
      ],
      [
        "Ġagriculture",
        -10.079486825674724
      ],
      [
        "Ġliver",
        -10.079807722554996
      ],
      [
        "Ġdistinct",
        -10.08014053773556
      ],
      [
        "ĠConstitution",
        -10.08020933420493
      ],
      [
        "Ġderiv",
        -10.080441433242258
      ],
      [
        "Ġeastern",
        -10.080728018698151
      ],
      [
        "Ġstring",
        -10.081061434778531
      ],
      [
        "Ġ35",
        -10.081170571866323
      ],
      [
        "Ġpregnancy",
        -10.081849468005188
      ],
      [
        "Ġgrown",
        -10.082564027291056
      ],
      [
        "Our",
        -10.082677530569567
      ],
      [
        "Ġprincipal",
        -10.082958270408506
      ],
      [
        "Ġopening",
        -10.083148397022148
      ],
      [
        "Ġprevention",
        -10.083341016471085
      ],
      [
        "Ġcomparison",
        -10.08413036346513
      ],
      [
        "Ġgather",
        -10.084731715078016
      ],
      [
        "ĠNations",
        -10.085393790395155
      ],
      [
        "Ġappearance",
        -10.086039551952936
      ],
      [
        "Ġfamiliar",
        -10.086877499769397
      ],
      [
        "Ġlisted",
        -10.08706464074686
      ],
      [
        "Ġexperiments",
        -10.088600885002702
      ],
      [
        "ĠCan",
        -10.088809563782789
      ],
      [
        "Ġlesson",
        -10.0893678500454
      ],
      [
        "Ġexplains",
        -10.089560684396051
      ],
      [
        "Ġseeds",
        -10.090003885158245
      ],
      [
        "Ġvillage",
        -10.090842012901334
      ],
      [
        "ĠStudy",
        -10.091272581474591
      ],
      [
        "Ġinterests",
        -10.09143840586837
      ],
      [
        "Ġshared",
        -10.092200841534106
      ],
      [
        "Ġ1994",
        -10.092347400689045
      ],
      [
        "Ġimpossible",
        -10.092382085497858
      ],
      [
        "such",
        -10.093150544027496
      ],
      [
        "ĠCancer",
        -10.09341245585179
      ],
      [
        "Ġvote",
        -10.093586479940369
      ],
      [
        "Ġround",
        -10.094046969346
      ],
      [
        "Ġlabel",
        -10.09409566602902
      ],
      [
        "Ġindex",
        -10.095077017738404
      ],
      [
        "Ġdiffer",
        -10.09522605326204
      ],
      [
        "Ġprotected",
        -10.095277894156196
      ],
      [
        "Here",
        -10.095440766297164
      ],
      [
        "Ġaward",
        -10.095748744753228
      ],
      [
        "Ġcomprehensive",
        -10.096249135424449
      ],
      [
        "Ġassistance",
        -10.09666861140777
      ],
      [
        "Â·",
        -10.096691867056972
      ],
      [
        "Ġunknown",
        -10.097181396462195
      ],
      [
        "Ġresolution",
        -10.09722784270251
      ],
      [
        "Ġcareer",
        -10.09747614200246
      ],
      [
        "Ġattacks",
        -10.09867765410511
      ],
      [
        "Ġfaster",
        -10.099033919933415
      ],
      [
        "Ġcrisis",
        -10.09967721158215
      ],
      [
        "ĠChicago",
        -10.100920076368729
      ],
      [
        "Ġabsolute",
        -10.102221390320816
      ],
      [
        "Ġpossibly",
        -10.102641720264277
      ],
      [
        "Ġcapture",
        -10.1034040241897
      ],
      [
        "Ġassess",
        -10.103517680400769
      ],
      [
        "Ġjustice",
        -10.103672401799084
      ],
      [
        "Ġdoubt",
        -10.103934768909962
      ],
      [
        "Ġassign",
        -10.10415539205116
      ],
      [
        "Ġexcellent",
        -10.104193636826244
      ],
      [
        "Ġnarrow",
        -10.104370493973189
      ],
      [
        "Ġproduc",
        -10.104467201286232
      ],
      [
        "Ġratio",
        -10.104741825020604
      ],
      [
        "Ġvegetables",
        -10.105542925218126
      ],
      [
        "Ġtwenty",
        -10.105971749193
      ],
      [
        "Ġdust",
        -10.106070560524865
      ],
      [
        "Ġthreaten",
        -10.106785501479225
      ],
      [
        "Ġobtain",
        -10.107069473610045
      ],
      [
        "ĠAbout",
        -10.107610696427276
      ],
      [
        "Ġethnic",
        -10.10816541108218
      ],
      [
        "Ġarms",
        -10.108791180448506
      ],
      [
        "Ġpresentation",
        -10.109510213094412
      ],
      [
        "capable",
        -10.109675995742792
      ],
      [
        "ĠBoard",
        -10.11010754526456
      ],
      [
        "100",
        -10.110427889239403
      ],
      [
        "Ġsurvive",
        -10.110622239683636
      ],
      [
        "wise",
        -10.110734930598994
      ],
      [
        "Ġdescription",
        -10.110910123791063
      ],
      [
        "Ġwildlife",
        -10.110973990712008
      ],
      [
        "ĠMichael",
        -10.111071165276778
      ],
      [
        "Ġawareness",
        -10.111081728258227
      ],
      [
        "Ġprecise",
        -10.111241350017355
      ],
      [
        "Ġborder",
        -10.111364126300789
      ],
      [
        "Ġrecommendation",
        -10.11143328546891
      ],
      [
        "Ġrisks",
        -10.111548875714472
      ],
      [
        "Ġalter",
        -10.111660698904616
      ],
      [
        "Ġidentity",
        -10.111796192056088
      ],
      [
        "Ġintroduction",
        -10.112383653529395
      ],
      [
        "ĠInc",
        -10.112724017837774
      ],
      [
        "Ġcit",
        -10.113521220656564
      ],
      [
        "Ġremaining",
        -10.113538654119113
      ],
      [
        "Ġinput",
        -10.113630205886595
      ],
      [
        "Ġrespective",
        -10.113693682939886
      ],
      [
        "Ġtouch",
        -10.113940660578926
      ],
      [
        "ĠManagement",
        -10.114759995940304
      ],
      [
        "Ġvital",
        -10.115268276760895
      ],
      [
        "Ġlooks",
        -10.115636930677816
      ],
      [
        "Ġacre",
        -10.116358818104478
      ],
      [
        "Ġdeliver",
        -10.116455090899402
      ],
      [
        "ĠAcademy",
        -10.117116779459094
      ],
      [
        "line",
        -10.117387308684608
      ],
      [
        "Ġera",
        -10.118179852757956
      ],
      [
        "el",
        -10.118364747068222
      ],
      [
        "ĠTHE",
        -10.118495736946077
      ],
      [
        "Ġdraw",
        -10.118716868727798
      ],
      [
        "Ġgenerate",
        -10.11882366353071
      ],
      [
        "ĠTimes",
        -10.11909286349746
      ],
      [
        "Ġreplace",
        -10.11940888835202
      ],
      [
        "nd",
        -10.11964697633369
      ],
      [
        "example",
        -10.119882551106654
      ],
      [
        "Ġprove",
        -10.121297460875306
      ],
      [
        "Ġparties",
        -10.121343192837584
      ],
      [
        "Ġpure",
        -10.12142751167481
      ],
      [
        "Ġcharacters",
        -10.121716939430108
      ],
      [
        "Ġfollows",
        -10.121827712865995
      ],
      [
        "Ġoppos",
        -10.122227121358597
      ],
      [
        "Ġbelong",
        -10.12229747572427
      ],
      [
        "Ġinfected",
        -10.124159971094938
      ],
      [
        "Ġphilosophy",
        -10.124279434181604
      ],
      [
        "ĠNatural",
        -10.124937150636612
      ],
      [
        "Ġgender",
        -10.12512483824725
      ],
      [
        "Ġcrop",
        -10.12533951277489
      ],
      [
        "Ġfigures",
        -10.125807478304989
      ],
      [
        "Ġswitch",
        -10.126405003777156
      ],
      [
        "Ġconcentration",
        -10.126774325753958
      ],
      [
        "Ġcalls",
        -10.126934270265826
      ],
      [
        "Ġrefers",
        -10.127387397423114
      ],
      [
        "Ġdogs",
        -10.127808484886677
      ],
      [
        "ĠColumbia",
        -10.127881333522003
      ],
      [
        "Ġpossibilit",
        -10.12883500401836
      ],
      [
        "Ġclosed",
        -10.128856218040694
      ],
      [
        "23",
        -10.12927139132026
      ],
      [
        "Ġauthorities",
        -10.129463818788324
      ],
      [
        "Ġproteins",
        -10.13036783489484
      ],
      [
        "Ġcommittee",
        -10.130608514493789
      ],
      [
        "ĠRome",
        -10.131504030521432
      ],
      [
        "Ġstroke",
        -10.132227357780408
      ],
      [
        "Ġcontract",
        -10.132417716873858
      ],
      [
        "Ġmarked",
        -10.132552506080586
      ],
      [
        "Ġsustain",
        -10.13278260842366
      ],
      [
        "ĠValley",
        -10.132790567992666
      ],
      [
        "ĠDisease",
        -10.132883669772674
      ],
      [
        "Ġcontribut",
        -10.133443723958893
      ],
      [
        "Ġwalls",
        -10.133995475253936
      ],
      [
        "Ġ1960",
        -10.13426376529906
      ],
      [
        "son",
        -10.134309084149876
      ],
      [
        "Ġequivalent",
        -10.134540919241733
      ],
      [
        "side",
        -10.135599072791049
      ],
      [
        "Ġadequate",
        -10.13703361298686
      ],
      [
        "free",
        -10.137519135457074
      ],
      [
        "Ġ>",
        -10.137573073134572
      ],
      [
        "Ġcandidate",
        -10.13793956100149
      ],
      [
        "Ġgap",
        -10.140148419604786
      ],
      [
        "Ġphone",
        -10.140280793095018
      ],
      [
        "Ġapproaches",
        -10.14218074171916
      ],
      [
        "Ġrepeated",
        -10.142481041169477
      ],
      [
        "Ġminimum",
        -10.14251609562592
      ],
      [
        "Ġconventional",
        -10.142919861759568
      ],
      [
        "Ġprovince",
        -10.142948918724194
      ],
      [
        "Ġviews",
        -10.143321638662185
      ],
      [
        "Ġsurvival",
        -10.143449947818883
      ],
      [
        "ĠReview",
        -10.143758830714138
      ],
      [
        "Ġexpressed",
        -10.144118015465612
      ],
      [
        "Ġcontinuous",
        -10.145163355589643
      ],
      [
        "Ġdeaths",
        -10.145372996023733
      ],
      [
        "Ġ500",
        -10.14541210357041
      ],
      [
        "Ġperiods",
        -10.145585478236391
      ],
      [
        "Ġmedications",
        -10.145608325344217
      ],
      [
        "Ġbill",
        -10.145815446294655
      ],
      [
        "Ġsaving",
        -10.145925702959063
      ],
      [
        "Ġmagnetic",
        -10.146013746665338
      ],
      [
        "Ġ300",
        -10.146024570205944
      ],
      [
        "Ġleads",
        -10.14629998368937
      ],
      [
        "Ġflowers",
        -10.146404120602524
      ],
      [
        "Ġsnow",
        -10.146813642958568
      ],
      [
        "Ġimplementation",
        -10.147388057629096
      ],
      [
        "Ġvaluable",
        -10.148018133637084
      ],
      [
        "Ġdrink",
        -10.148285875182472
      ],
      [
        "Ġconference",
        -10.148367639517287
      ],
      [
        "Ġliv",
        -10.149479857564256
      ],
      [
        "Ġexpensive",
        -10.150538971410104
      ],
      [
        "Ġrecover",
        -10.150547797022243
      ],
      [
        "Ġwindow",
        -10.15083840146759
      ],
      [
        "ĠIII",
        -10.151362507484388
      ],
      [
        "Ġevaluation",
        -10.151476200406538
      ],
      [
        "Ġrefer",
        -10.152563043945696
      ],
      [
        "ĠData",
        -10.153664267715202
      ],
      [
        "Ġstrain",
        -10.153675975158462
      ],
      [
        "Ġtransmission",
        -10.153836694280605
      ],
      [
        "Ġextended",
        -10.154083352590204
      ],
      [
        "called",
        -10.154786880664185
      ],
      [
        "ĠMan",
        -10.155827234954934
      ],
      [
        "Ġtiny",
        -10.156001913136592
      ],
      [
        "Ġworldwide",
        -10.157911059996437
      ],
      [
        "Ġsoul",
        -10.158243756478754
      ],
      [
        "ĠYet",
        -10.159360620028211
      ],
      [
        "Ġvary",
        -10.15947605084063
      ],
      [
        "Dr",
        -10.159812331766572
      ],
      [
        "Ġedge",
        -10.160011941903448
      ],
      [
        "ĠLike",
        -10.160107592785309
      ],
      [
        "Ġcomposition",
        -10.16012458640183
      ],
      [
        "ĠOver",
        -10.160590409112933
      ],
      [
        "Ġdiversity",
        -10.161533085861608
      ],
      [
        "Ġhelping",
        -10.161572085344275
      ],
      [
        "ĠItaly",
        -10.161658042406929
      ],
      [
        "Ġpromise",
        -10.16202247933409
      ],
      [
        "Ġdrop",
        -10.162236839101134
      ],
      [
        "Ġerror",
        -10.162369554432098
      ],
      [
        "ĠNorthern",
        -10.163723469360956
      ],
      [
        "ĠDon",
        -10.164099683933228
      ],
      [
        "Ġsoft",
        -10.164305974468403
      ],
      [
        "Ġmath",
        -10.164790236076405
      ],
      [
        "but",
        -10.164932348169067
      ],
      [
        "Ġbudget",
        -10.165571130693165
      ],
      [
        "Ġwealth",
        -10.16749513826266
      ],
      [
        "Ġinterpretation",
        -10.168049305877227
      ],
      [
        "Ġmuseum",
        -10.16826514239198
      ],
      [
        "Ġfell",
        -10.168832225428469
      ],
      [
        "Ġroutine",
        -10.169004871941166
      ],
      [
        "Ġcomments",
        -10.169263158153449
      ],
      [
        "ĠOF",
        -10.1695012224601
      ],
      [
        "Ġedit",
        -10.169716667125096
      ],
      [
        "Ġweak",
        -10.1698358280775
      ],
      [
        "Ġsecondary",
        -10.171897938547414
      ],
      [
        "ĠGlobal",
        -10.172268506690967
      ],
      [
        "Ġformat",
        -10.172272414358146
      ],
      [
        "ĠOnly",
        -10.172503892576142
      ],
      [
        "body",
        -10.172909293942638
      ],
      [
        "Ġsuffer",
        -10.173098013380088
      ],
      [
        "Ġtraffic",
        -10.173311714056531
      ],
      [
        "Ġrevealed",
        -10.17488099296282
      ],
      [
        "Ġinvestment",
        -10.175222532713128
      ],
      [
        "Ġconsideration",
        -10.175323127893147
      ],
      [
        "ĠMD",
        -10.17601514237256
      ],
      [
        "Ġmotor",
        -10.17632709333782
      ],
      [
        "Ġgovern",
        -10.17756123817771
      ],
      [
        "Ġdecide",
        -10.177717552327216
      ],
      [
        "Ġmarried",
        -10.17831305693432
      ],
      [
        "ĠSpain",
        -10.178358543338492
      ],
      [
        "Ġdeclar",
        -10.178950641412465
      ],
      [
        "Ġrank",
        -10.17964152637281
      ],
      [
        "ĠOnc",
        -10.179680450333615
      ],
      [
        "Ġtwice",
        -10.181066219581792
      ],
      [
        "Note",
        -10.181501742186567
      ],
      [
        "ĠResources",
        -10.182310122767626
      ],
      [
        "Ġkeeping",
        -10.182645817773574
      ],
      [
        "Ġprovision",
        -10.18298030595894
      ],
      [
        "Ġedition",
        -10.183926091150752
      ],
      [
        "Another",
        -10.183972014130056
      ],
      [
        "Ġhouses",
        -10.18402438523216
      ],
      [
        "ĠFree",
        -10.18414475431985
      ],
      [
        "Ġnone",
        -10.18441144817516
      ],
      [
        "Ġmillions",
        -10.185020575530489
      ],
      [
        "Ġwave",
        -10.18564867937515
      ],
      [
        "Ġfavor",
        -10.187086745680016
      ],
      [
        "Ġlegislation",
        -10.18778340204852
      ],
      [
        "level",
        -10.188976787575807
      ],
      [
        "Ġopposite",
        -10.191592544184656
      ],
      [
        "Ġremote",
        -10.191626465688524
      ],
      [
        "Ġgets",
        -10.191997369813413
      ],
      [
        "ĠItalian",
        -10.192099952446842
      ],
      [
        "ĠThose",
        -10.192486946503054
      ],
      [
        "Ġappoint",
        -10.19265784318798
      ],
      [
        "Ġbrown",
        -10.19269069269042
      ],
      [
        "Ġsmoke",
        -10.193027422830282
      ],
      [
        "Ġadvance",
        -10.193323350836057
      ],
      [
        "ĠGuide",
        -10.195286462682654
      ],
      [
        "Ġgreenhouse",
        -10.19541790341194
      ],
      [
        "ĠParty",
        -10.195456642394053
      ],
      [
        "Ġheavi",
        -10.195569283653793
      ],
      [
        "Ġtopics",
        -10.195603500859509
      ],
      [
        "ĠAgency",
        -10.196053559145131
      ],
      [
        "ĠUsing",
        -10.196207668184073
      ],
      [
        "Ġlab",
        -10.196493121127755
      ],
      [
        "Ġretain",
        -10.19714609789868
      ],
      [
        "grew",
        -10.1973337996835
      ],
      [
        "ĠDivision",
        -10.19747207348141
      ],
      [
        "Ġ1992",
        -10.197867512918334
      ],
      [
        "html",
        -10.19798799311965
      ],
      [
        "Ġmatch",
        -10.198022459825108
      ],
      [
        "Why",
        -10.198093749486969
      ],
      [
        "Ġsides",
        -10.198413517115656
      ],
      [
        "Ġmolecules",
        -10.198516242172817
      ],
      [
        "ian",
        -10.198656454839185
      ],
      [
        "Ġinterpret",
        -10.19993609785763
      ],
      [
        "Ġdioxide",
        -10.200017992972455
      ],
      [
        "X",
        -10.201354546661236
      ],
      [
        "ĠEastern",
        -10.2018972774605
      ],
      [
        "Ġrelations",
        -10.202142322328108
      ],
      [
        "Ġguidelines",
        -10.202344621003029
      ],
      [
        "Ġskill",
        -10.202386687478564
      ],
      [
        "ĠBrown",
        -10.203015853885518
      ],
      [
        "Ġuniversal",
        -10.203040663622184
      ],
      [
        "Ġpercentage",
        -10.203709755298975
      ],
      [
        "Ġphysics",
        -10.204098047631406
      ],
      [
        "Ġ1993",
        -10.20497015959003
      ],
      [
        "Ġorganisms",
        -10.20513082029691
      ],
      [
        "Ġleadership",
        -10.205534558537437
      ],
      [
        "Ġmedium",
        -10.206181050204314
      ],
      [
        "Ġdefeat",
        -10.206589751303984
      ],
      [
        "ie",
        -10.206621712568513
      ],
      [
        "Ġcontained",
        -10.207055980102163
      ],
      [
        "Ġterritory",
        -10.207244769161818
      ],
      [
        "ĠAtlantic",
        -10.207369901206064
      ],
      [
        "Ġsupplie",
        -10.207418827370947
      ],
      [
        "Ġcomputers",
        -10.207628113689204
      ],
      [
        "Ġstream",
        -10.20828542620244
      ],
      [
        "01",
        -10.208795978000907
      ],
      [
        "ment",
        -10.209464812225791
      ],
      [
        "Ġgovernments",
        -10.20964505393792
      ],
      [
        "40",
        -10.20965049375755
      ],
      [
        "Ġgreatly",
        -10.210277173007324
      ],
      [
        "Ġthin",
        -10.210649031222667
      ],
      [
        "ĠDirector",
        -10.211771002182047
      ],
      [
        "Ġflood",
        -10.212110595420413
      ],
      [
        "Ġbear",
        -10.212141696505142
      ],
      [
        "Ġmechanism",
        -10.21225221505299
      ],
      [
        "ĠPost",
        -10.212384857417897
      ],
      [
        "Ġwaves",
        -10.21244142600664
      ],
      [
        "Ġsuffering",
        -10.21264599611672
      ],
      [
        "Ġunusual",
        -10.21272650098772
      ],
      [
        "ĠNative",
        -10.213162662726637
      ],
      [
        "Ġcomment",
        -10.21316522685641
      ],
      [
        "Ġsatellite",
        -10.214005315229713
      ],
      [
        "Ġfacts",
        -10.215453081719978
      ],
      [
        "Ġnecessari",
        -10.215483134409803
      ],
      [
        "Ġimmediate",
        -10.215597805924762
      ],
      [
        "Ġimpacts",
        -10.216154555373397
      ],
      [
        "ĠIndians",
        -10.21669513688575
      ],
      [
        "Ġcurriculum",
        -10.21689276246732
      ],
      [
        "Ġfilled",
        -10.217852534525836
      ],
      [
        "Ġentry",
        -10.218108959358975
      ],
      [
        "Ġinstruction",
        -10.218167820375244
      ],
      [
        "Ġtoxic",
        -10.218462707604052
      ],
      [
        "Ġpictures",
        -10.218678461208636
      ],
      [
        "Ġinstrument",
        -10.219309977649724
      ],
      [
        "ĠEmpire",
        -10.219334716146497
      ],
      [
        "Ġstored",
        -10.22003234128895
      ],
      [
        "Ġcircumstances",
        -10.220193520094591
      ],
      [
        "Ġparticipate",
        -10.220667504021929
      ],
      [
        "Ġworse",
        -10.221126080715583
      ],
      [
        "Ġvessels",
        -10.221300280209734
      ],
      [
        "ĠParis",
        -10.22218352830092
      ],
      [
        "Ġbroken",
        -10.223777963733138
      ],
      [
        "Ġdepartment",
        -10.22489111926812
      ],
      [
        "Ġsounds",
        -10.22548210511676
      ],
      [
        "all",
        -10.225580082147086
      ],
      [
        "de",
        -10.225828262692028
      ],
      [
        "Ġhorse",
        -10.22623301832463
      ],
      [
        "Ġbrother",
        -10.226691926579695
      ],
      [
        "Ġmanager",
        -10.227391080270968
      ],
      [
        "Ġenemy",
        -10.228225673988629
      ],
      [
        "Ġla",
        -10.22832191557447
      ],
      [
        "Ġlay",
        -10.228730701001869
      ],
      [
        "Ġsit",
        -10.229350521620596
      ],
      [
        "Ġgone",
        -10.22943154933542
      ],
      [
        "Last",
        -10.22957329066638
      ],
      [
        "Ġassume",
        -10.229714712886476
      ],
      [
        "Ġmaps",
        -10.230368481710078
      ],
      [
        "Ġcoastal",
        -10.231091293138558
      ],
      [
        "Ġharm",
        -10.232239752628564
      ],
      [
        "26",
        -10.232386077977246
      ],
      [
        "Ġdebt",
        -10.23242075994314
      ],
      [
        "Ġzone",
        -10.23319639417402
      ],
      [
        "Ġsky",
        -10.233411153299368
      ],
      [
        "Ġ45",
        -10.2334978585002
      ],
      [
        "ĠOhio",
        -10.234257069498998
      ],
      [
        "Ġages",
        -10.234346039773529
      ],
      [
        "Ġcamera",
        -10.2343585497639
      ],
      [
        "ĠMartin",
        -10.234761847213406
      ],
      [
        "Ġprogramme",
        -10.235384352028865
      ],
      [
        "ĠIreland",
        -10.235544701005503
      ],
      [
        "ĠSciences",
        -10.235754395028463
      ],
      [
        "Ġships",
        -10.23722421520761
      ],
      [
        "ĠAdministration",
        -10.238126769042614
      ],
      [
        "scale",
        -10.239492891746243
      ],
      [
        "Ġvisitor",
        -10.239506814796826
      ],
      [
        "Ġcompetition",
        -10.239684435181909
      ],
      [
        "Ġstrike",
        -10.239832308619649
      ],
      [
        "Ġpretty",
        -10.240252352566074
      ],
      [
        "Ġsensitive",
        -10.240537354247705
      ],
      [
        "Ġflat",
        -10.241417147481204
      ],
      [
        "Ġneith",
        -10.241908275694191
      ],
      [
        "Ġsecret",
        -10.242239429538191
      ],
      [
        "water",
        -10.242448702050265
      ],
      [
        "Ġrecovery",
        -10.242621444792796
      ],
      [
        "Ġchildhood",
        -10.24305024485351
      ],
      [
        "ĠRoyal",
        -10.243347415651874
      ],
      [
        "Ġphrase",
        -10.243375129403269
      ],
      [
        "Ġplaying",
        -10.243741592191943
      ],
      [
        "Ġsucceed",
        -10.244417740095768
      ],
      [
        "Ġpump",
        -10.244491932074396
      ],
      [
        "Ġdefense",
        -10.244495616871614
      ],
      [
        "Ġagreed",
        -10.244901295661345
      ],
      [
        "Ġlimits",
        -10.245044776196345
      ],
      [
        "Ġtreatments",
        -10.245859680854586
      ],
      [
        "ĠUN",
        -10.246311504559657
      ],
      [
        "Ġrepair",
        -10.247665986477775
      ],
      [
        "Ġcreature",
        -10.247917442664072
      ],
      [
        "ĠHoly",
        -10.249010212678982
      ],
      [
        "Ġframework",
        -10.24918519906514
      ],
      [
        "Ġshot",
        -10.250881286759425
      ],
      [
        "Ġdivision",
        -10.2509319059993
      ],
      [
        "Ġchain",
        -10.250944954435996
      ],
      [
        "27",
        -10.251358177288232
      ],
      [
        "Ġroute",
        -10.253195879414026
      ],
      [
        "Ġroots",
        -10.253241474190723
      ],
      [
        "Ġyield",
        -10.253416545255073
      ],
      [
        "land",
        -10.254154771804286
      ],
      [
        "Ġslowly",
        -10.254990763603884
      ],
      [
        "Ġuniversity",
        -10.256845967881487
      ],
      [
        "Ġball",
        -10.257453917643916
      ],
      [
        "Since",
        -10.257756588253535
      ],
      [
        "ĠUSA",
        -10.257882522558816
      ],
      [
        "are",
        -10.2585688822959
      ],
      [
        "ance",
        -10.258777622215703
      ],
      [
        "Ġattached",
        -10.258984219280062
      ],
      [
        "ĠAre",
        -10.259146212342332
      ],
      [
        "Ġinfrastructure",
        -10.259470971299812
      ],
      [
        "Ġmovements",
        -10.259495861301415
      ],
      [
        "ĠDistrict",
        -10.260353959709596
      ],
      [
        "Ġphoto",
        -10.260922799079228
      ],
      [
        "rd",
        -10.261598467160171
      ],
      [
        "Ġparallel",
        -10.261916813835375
      ],
      [
        "Ġengage",
        -10.262012187434882
      ],
      [
        "Ġnaturally",
        -10.262105122169077
      ],
      [
        "ĠPower",
        -10.262202507655903
      ],
      [
        "ĠBank",
        -10.2622445055001
      ],
      [
        "Ġwear",
        -10.26277682672426
      ],
      [
        "Ġtransportation",
        -10.262965276331714
      ],
      [
        "ĠKingdom",
        -10.26327451986506
      ],
      [
        "Ġwonder",
        -10.263844525192598
      ],
      [
        "Ġinstruments",
        -10.264253349457158
      ],
      [
        "Ġwarning",
        -10.264755344252482
      ],
      [
        "Ġclient",
        -10.266072128435644
      ],
      [
        "if",
        -10.266475760677498
      ],
      [
        "Ġprofit",
        -10.266693989182183
      ],
      [
        "Ġprepare",
        -10.26692111035014
      ],
      [
        "Ġsecure",
        -10.26722888949306
      ],
      [
        "Ġsupposed",
        -10.267888506070864
      ],
      [
        "Ġpartial",
        -10.267944174387395
      ],
      [
        "ĠLand",
        -10.268206519660252
      ],
      [
        "Ġpilot",
        -10.2693285866919
      ],
      [
        "Ġintellectual",
        -10.26962621965652
      ],
      [
        "Ġexplanation",
        -10.270339793826023
      ],
      [
        "Ġprogramm",
        -10.27076250656082
      ],
      [
        "Ġ1991",
        -10.271237851892744
      ],
      [
        "Ġachievement",
        -10.271258293090789
      ],
      [
        "ĠLearning",
        -10.271589188468573
      ],
      [
        "Ġfixed",
        -10.271725369950376
      ],
      [
        "Ġinterface",
        -10.271917927476109
      ],
      [
        "Ġhelpful",
        -10.27278168513599
      ],
      [
        "Ġexists",
        -10.273137184835251
      ],
      [
        "Ġdesire",
        -10.273785570260088
      ],
      [
        "Ġacts",
        -10.27380378268819
      ],
      [
        "Ġcognitive",
        -10.273859503968524
      ],
      [
        "Ġtransform",
        -10.274294679836837
      ],
      [
        ":||",
        -10.274384785413194
      ],
      [
        "Ġequation",
        -10.274881222595187
      ],
      [
        "Ġrelation",
        -10.275232819901222
      ],
      [
        "Ġescape",
        -10.277037364187692
      ],
      [
        "Ġdelay",
        -10.277038350307311
      ],
      [
        "ĠJust",
        -10.277462502290811
      ],
      [
        "Ġaffects",
        -10.277481688461403
      ],
      [
        "ive",
        -10.277607686312606
      ],
      [
        "Ġvariable",
        -10.277777714739178
      ],
      [
        "Ġthick",
        -10.277808008195928
      ],
      [
        "Ġ32",
        -10.27799683705962
      ],
      [
        "Ġarchitecture",
        -10.278032320236395
      ],
      [
        "Ġelected",
        -10.278182735307665
      ],
      [
        "Ġoral",
        -10.278464320518374
      ],
      [
        "Ġfruits",
        -10.278476263504478
      ],
      [
        "Ġhistoric",
        -10.278566301707386
      ],
      [
        "Ġdiverse",
        -10.278936182872274
      ],
      [
        "28",
        -10.279259663634235
      ],
      [
        "Ġextract",
        -10.27982471631826
      ],
      [
        "Ġpreparation",
        -10.279938901814011
      ],
      [
        "Ġconvert",
        -10.280523684649824
      ],
      [
        "ĠMark",
        -10.280942025459272
      ],
      [
        "Ġscene",
        -10.28105971496328
      ],
      [
        "Ġserver",
        -10.281213556385142
      ],
      [
        "Ġgraduate",
        -10.281806225031826
      ],
      [
        "Ġbones",
        -10.282407732843016
      ],
      [
        "Ġemployed",
        -10.283162801249414
      ],
      [
        "Figure",
        -10.283227912002303
      ],
      [
        "Ġrising",
        -10.283865086064218
      ],
      [
        "Ġsuccessfully",
        -10.284029156339558
      ],
      [
        "Ġsand",
        -10.284659459214495
      ],
      [
        "Ġchosen",
        -10.284982808010112
      ],
      [
        "Ġautomatic",
        -10.285923722283629
      ],
      [
        "Ġdriving",
        -10.28622961484771
      ],
      [
        "Ġholding",
        -10.286381613288428
      ],
      [
        "Ġfever",
        -10.286568760686103
      ],
      [
        "Ġintake",
        -10.286931917414469
      ],
      [
        "Ġregulations",
        -10.28710042110403
      ],
      [
        "Ġyounger",
        -10.287154640404962
      ],
      [
        "29",
        -10.287222254476273
      ],
      [
        "Ġpurchase",
        -10.287474256735589
      ],
      [
        "Ġfighting",
        -10.287868967376404
      ],
      [
        "Ġneighbor",
        -10.288263924104236
      ],
      [
        "Ġcarefully",
        -10.28950102070097
      ],
      [
        "Ġdrawn",
        -10.290784992370533
      ],
      [
        "Ġevolv",
        -10.291693933547169
      ],
      [
        "Ġapproved",
        -10.29219793132575
      ],
      [
        "Ġexpansion",
        -10.292825434633404
      ],
      [
        "ĠTime",
        -10.293892432634964
      ],
      [
        "Ġsignals",
        -10.29445441157246
      ],
      [
        "Ġmixed",
        -10.29456003303211
      ],
      [
        "Ġemployment",
        -10.295036647641137
      ],
      [
        "am",
        -10.295424581063306
      ],
      [
        "Ġencounter",
        -10.295834340834944
      ],
      [
        "ĠAl",
        -10.296119977276074
      ],
      [
        "Ġdestruction",
        -10.296380772449078
      ],
      [
        "ĠEncyclopedia",
        -10.296979526426783
      ],
      [
        "ĠOcean",
        -10.297103656119322
      ],
      [
        "Ġtranslation",
        -10.297959195024587
      ],
      [
        "Ġreaders",
        -10.29802218773121
      ],
      [
        "ish",
        -10.29932650359528
      ],
      [
        "Ġproposal",
        -10.299564684243322
      ],
      [
        "Ġmerely",
        -10.300245018730934
      ],
      [
        "Ġtrain",
        -10.300945312173871
      ],
      [
        "ĠLaboratory",
        -10.300953251553317
      ],
      [
        "Ġformula",
        -10.302270046132929
      ],
      [
        "be",
        -10.30241519554256
      ],
      [
        "Ġcluster",
        -10.302879182783355
      ],
      [
        "Ġtransition",
        -10.303035153650152
      ],
      [
        "ĠAsian",
        -10.30324371531656
      ],
      [
        "Ġspeaking",
        -10.303382738491996
      ],
      [
        "Ġdownload",
        -10.303658522687217
      ],
      [
        "Ġcaptur",
        -10.303697410528176
      ],
      [
        "Q",
        -10.3037091751182
      ],
      [
        "Ġlies",
        -10.30418094454284
      ],
      [
        "Ġchart",
        -10.304202395657477
      ],
      [
        "Ġstopp",
        -10.305020062190444
      ],
      [
        "Ġapart",
        -10.30513176134346
      ],
      [
        "Ġinner",
        -10.305284187590392
      ],
      [
        "Ġtaste",
        -10.305785183413388
      ],
      [
        "Ġhusband",
        -10.306062178025702
      ],
      [
        "ĠPart",
        -10.306562609013469
      ],
      [
        "Ġintelligence",
        -10.30666517259711
      ],
      [
        "ist",
        -10.306922373676116
      ],
      [
        "Ġsuit",
        -10.307024892044083
      ],
      [
        "ĠLincoln",
        -10.307413986095607
      ],
      [
        "Ġaccomplish",
        -10.307793977966206
      ],
      [
        "Ġwage",
        -10.30793715626624
      ],
      [
        "ĠHome",
        -10.308095089829711
      ],
      [
        "Ġtelevision",
        -10.308309612960596
      ],
      [
        "Ġgrant",
        -10.30847831979995
      ],
      [
        "Ġobserve",
        -10.31000802533066
      ],
      [
        "Ġrestrict",
        -10.310028903464625
      ],
      [
        "ĠServices",
        -10.31062602313866
      ],
      [
        "ought",
        -10.310843583073348
      ],
      [
        "Ġfalse",
        -10.311216002361853
      ],
      [
        "Ġlung",
        -10.311619779459289
      ],
      [
        "Ġofficers",
        -10.311844335140686
      ],
      [
        "Ġbiology",
        -10.31185612761136
      ],
      [
        "Ġhousing",
        -10.312216017296718
      ],
      [
        "Ġsentence",
        -10.312284908217832
      ],
      [
        "ĠLet",
        -10.31268269444115
      ],
      [
        "Ġaren",
        -10.312888683744198
      ],
      [
        "Ġseemed",
        -10.313731278480828
      ],
      [
        "ville",
        -10.31425974943104
      ],
      [
        "Ġevil",
        -10.314290012670972
      ],
      [
        "Ġpolitics",
        -10.31491158041031
      ],
      [
        "Ġsolve",
        -10.316047346169736
      ],
      [
        "Ġzero",
        -10.316328272834118
      ],
      [
        "Ġmobile",
        -10.316504989651458
      ],
      [
        "Ġspot",
        -10.316591641499745
      ],
      [
        "Ġfeeding",
        -10.316793589702389
      ],
      [
        "widespread",
        -10.317963801549206
      ],
      [
        "Ġrandom",
        -10.318265583836055
      ],
      [
        "Ġdedicat",
        -10.31909459054494
      ],
      [
        "Ġinsects",
        -10.319484311606605
      ],
      [
        "Ġjourney",
        -10.31955865862338
      ],
      [
        "Ġenhance",
        -10.319636319212336
      ],
      [
        "ĠHall",
        -10.319684960751104
      ],
      [
        "Ġmode",
        -10.320009690491045
      ],
      [
        "Ġinvolv",
        -10.320351772721407
      ],
      [
        "Ġsharing",
        -10.320388420901615
      ],
      [
        "Ġwriter",
        -10.320518474207216
      ],
      [
        "Ġcommunicate",
        -10.320766687706923
      ],
      [
        "Ġstanding",
        -10.323524894811008
      ],
      [
        "Ġexport",
        -10.323886123353748
      ],
      [
        "Ġcars",
        -10.323980972120983
      ],
      [
        "Ġfacility",
        -10.324107430405345
      ],
      [
        "Ġintervention",
        -10.3268097602856
      ],
      [
        "Ġstraight",
        -10.327789989147972
      ],
      [
        "Ġfunds",
        -10.328652783898848
      ],
      [
        "Ġhole",
        -10.328674612705052
      ],
      [
        "Ġgoods",
        -10.32895549787099
      ],
      [
        "Ġmuscles",
        -10.329010024025386
      ],
      [
        "Ġweapons",
        -10.32903829375388
      ],
      [
        "ĠClimate",
        -10.329340918536056
      ],
      [
        "Ġmark",
        -10.330225410803958
      ],
      [
        "Ġmedication",
        -10.330602166385134
      ],
      [
        "ĠEl",
        -10.331101383630566
      ],
      [
        "Ġminor",
        -10.331130308512543
      ],
      [
        "Ġdollars",
        -10.331797084195328
      ],
      [
        "Ġdensit",
        -10.331988588328198
      ],
      [
        "Ġcomposed",
        -10.3320279676422
      ],
      [
        "Ġconsiderable",
        -10.33209713094578
      ],
      [
        "obesity",
        -10.332627063476837
      ],
      [
        "Ġreplac",
        -10.332936442880191
      ],
      [
        "Ġstages",
        -10.333219306658536
      ],
      [
        "Ġsets",
        -10.33333101418284
      ],
      [
        "Ġplatform",
        -10.333547075711474
      ],
      [
        "Ġcard",
        -10.333903758894465
      ],
      [
        "Ġfill",
        -10.334049552635806
      ],
      [
        "Ġwait",
        -10.334312654199683
      ],
      [
        "Ġfourth",
        -10.334552819151504
      ],
      [
        "Ġcloser",
        -10.334746431351205
      ],
      [
        "id",
        -10.335040307615394
      ],
      [
        "Ġadjust",
        -10.335122032146083
      ],
      [
        "Ġnutrients",
        -10.33700076247616
      ],
      [
        "Ġhydrogen",
        -10.337575022224856
      ],
      [
        "ĠIrish",
        -10.33759063037996
      ],
      [
        "Ġpounds",
        -10.33768641836582
      ],
      [
        "Ġdemonstrated",
        -10.337999598408054
      ],
      [
        "ine",
        -10.338608672180571
      ],
      [
        "Ġear",
        -10.339127812817663
      ],
      [
        "Ġlands",
        -10.340050399061262
      ],
      [
        "Ġimprov",
        -10.34074100867194
      ],
      [
        "Ġindependence",
        -10.342326648554629
      ],
      [
        "Ġsilver",
        -10.343811867027886
      ],
      [
        "ĠOxford",
        -10.344374337141211
      ],
      [
        "Ġ1950",
        -10.344854344772957
      ],
      [
        "Ġforth",
        -10.345577255851294
      ],
      [
        "Ġparticipation",
        -10.346032470508206
      ],
      [
        "ĠEarly",
        -10.346068355918549
      ],
      [
        "Ġproduces",
        -10.346637952554234
      ],
      [
        "Ġconsumers",
        -10.347592059621489
      ],
      [
        "Ġmice",
        -10.348104892045168
      ],
      [
        "Ġcolors",
        -10.348510997942633
      ],
      [
        "Ġcentre",
        -10.348656315723716
      ],
      [
        "http",
        -10.348798414601893
      ],
      [
        "sought",
        -10.350050059445149
      ],
      [
        "Ġrivers",
        -10.3515618408331
      ],
      [
        "ĠBoston",
        -10.351598037035112
      ],
      [
        "Ġcloud",
        -10.351838744526288
      ],
      [
        "Ġmaintenance",
        -10.351872022931644
      ],
      [
        "Ġband",
        -10.352127827505768
      ],
      [
        "ĠHer",
        -10.353140425119545
      ],
      [
        "ĠSurvey",
        -10.353411768551489
      ],
      [
        "ĠGeorgia",
        -10.353500098847734
      ],
      [
        "Ġsteel",
        -10.35506081957146
      ],
      [
        "Ġdoor",
        -10.355401417156024
      ],
      [
        "Ġtruly",
        -10.35590592731286
      ],
      [
        "ĠFamily",
        -10.356070533206536
      ],
      [
        "ĠUnder",
        -10.356263738152771
      ],
      [
        "ĠConservation",
        -10.356770583774408
      ],
      [
        "Ġsigned",
        -10.356949124172523
      ],
      [
        "Ġpackage",
        -10.35764504589804
      ],
      [
        "Ġcrew",
        -10.357818045943716
      ],
      [
        "Ġreform",
        -10.358107016601776
      ],
      [
        "Ġfrequent",
        -10.358278797211277
      ],
      [
        "ĠLong",
        -10.35829754956518
      ],
      [
        "Ġpeak",
        -10.358824945329626
      ],
      [
        "Ġregularly",
        -10.360074103552998
      ],
      [
        "Ġcholesterol",
        -10.360110905211464
      ],
      [
        "Ġlessons",
        -10.360213352234773
      ],
      [
        "Ġmanufactur",
        -10.360932368723216
      ],
      [
        "Ġcheap",
        -10.360963227800331
      ],
      [
        "Ġimprovement",
        -10.361084662611788
      ],
      [
        "Ġsensor",
        -10.361211234754473
      ],
      [
        "Ġsharp",
        -10.36153697716125
      ],
      [
        "he",
        -10.362157694158574
      ],
      [
        "ĠJohnson",
        -10.363263647040856
      ],
      [
        "Ġinteraction",
        -10.363986110686074
      ],
      [
        "ĠMuslim",
        -10.3640633970711
      ],
      [
        "Ġstrict",
        -10.364721416632738
      ],
      [
        "most",
        -10.364968022987306
      ],
      [
        "Ġmagazine",
        -10.36521707522999
      ],
      [
        "ĠHill",
        -10.365479194371764
      ],
      [
        "Ġfly",
        -10.365538399987935
      ],
      [
        "ĠAge",
        -10.365804279989552
      ],
      [
        "Ġtasks",
        -10.365970794100845
      ],
      [
        "ĠEPA",
        -10.36617147881996
      ],
      [
        "itis",
        -10.366190433485682
      ],
      [
        "Ġinter",
        -10.36635799750752
      ],
      [
        "Ġserving",
        -10.366501909615572
      ],
      [
        "Ġmodified",
        -10.366587305834813
      ],
      [
        "Ġmathematics",
        -10.366651392685874
      ],
      [
        "name",
        -10.366773939706318
      ],
      [
        "Ġimmigrant",
        -10.367539387484952
      ],
      [
        "off",
        -10.367607239453024
      ],
      [
        "Ġpermission",
        -10.367871471743427
      ],
      [
        "ĠFort",
        -10.367877148140288
      ],
      [
        "Ġinvolve",
        -10.36827965433051
      ],
      [
        "Ġ150",
        -10.368282787164532
      ],
      [
        "Ġdefine",
        -10.368318119044805
      ],
      [
        "Ġattribute",
        -10.368495238505009
      ],
      [
        "Ġsmoking",
        -10.368555444444272
      ],
      [
        "Ġsuitable",
        -10.368602376746855
      ],
      [
        "Ġoccasional",
        -10.368619922613991
      ],
      [
        "Ġreceiv",
        -10.368820874929874
      ],
      [
        "Ġnoise",
        -10.369160585516298
      ],
      [
        "ty",
        -10.36943353042322
      ],
      [
        "ĠUn",
        -10.369726198583066
      ],
      [
        "Ġreader",
        -10.370029709723571
      ],
      [
        "Ġproved",
        -10.370285381867602
      ],
      [
        "Ġenzyme",
        -10.370343588361925
      ],
      [
        "Ġscientist",
        -10.370887216654436
      ],
      [
        "Ġreserved",
        -10.371009346291622
      ],
      [
        "Ġstands",
        -10.371165100528144
      ],
      [
        "Ġrecognition",
        -10.372284726439505
      ],
      [
        "ĠRevolution",
        -10.372385950026862
      ],
      [
        "Ġstable",
        -10.372406596676909
      ],
      [
        "Ġearn",
        -10.37316919519468
      ],
      [
        "Ġt",
        -10.373496063923492
      ],
      [
        "Ġscreening",
        -10.373745685920431
      ],
      [
        "Ġpick",
        -10.374903279092605
      ],
      [
        "Ġpartner",
        -10.374969236856664
      ],
      [
        "long",
        -10.37577359043482
      ],
      [
        "ĠLouis",
        -10.37579637502029
      ],
      [
        "Ġstudying",
        -10.376216561009642
      ],
      [
        "Ġdanger",
        -10.37673664136824
      ],
      [
        "Ġboys",
        -10.37684655649164
      ],
      [
        "ĠRead",
        -10.3770676308486
      ],
      [
        "Ġcommitment",
        -10.377215232743064
      ],
      [
        "Ġcalcium",
        -10.377320861352604
      ],
      [
        "ĠPlan",
        -10.377341685177312
      ],
      [
        "ĠÂ©",
        -10.377471622135614
      ],
      [
        "Ġabandon",
[...]
