{
  "version": "1.0",
  "truncation": null,
  "padding": null,
  "added_tokens": [
    {
      "id": 0,
      "content": "<|endoftext|>",
      "single_word": false,
      "lstrip": false,
      "rstrip": false,
      "normalized": false,
      "special": true
    },
    {
      "id": 1,
      "content": "<|padding|>",
      "single_word": false,
      "lstrip": false,
      "rstrip": false,
      "normalized": false,
      "special": true
    }
  ],
  "normalizer": {
    "type": "NFC"
  },
  "pre_tokenizer": {
    "type": "ByteLevel",
    "add_prefix_space": false,
    "trim_offsets": true,
    "use_regex": true
  },
  "post_processor": {
    "type": "ByteLevel",
    "add_prefix_space": true,
    "trim_offsets": false,
    "use_regex": true
  },
  "decoder": {
    "type": "ByteLevel",
    "add_prefix_space": true,
    "trim_offsets": true,
    "use_regex": true
  },
  "model": {
    "type": "Unigram",
    "unk_id": null,
    "vocab": [
      [
        "<|endoftext|>",
        0.0
      ],
      [
        "<|padding|>",
        0.0
      ],
      [
        ",",
        -3.1802327429791823
      ],
      [
        "Ġthe",
        -3.1813002281499223
      ],
      [
        ".",
        -3.236563861913311
      ],
      [
        "s",
        -3.5532611252258732
      ],
      [
        "Ġof",
        -3.6610606964270143
      ],
      [
        "Ġand",
        -3.845707574489726
      ],
      [
        "Ċ",
        -3.8913753600314287
      ],
      [
        "Ġto",
        -3.992267976710003
      ],
      [
        "Ġa",
        -4.194495948155772
      ],
      [
        "Ġin",
        -4.246028888533303
      ],
      [
        "-",
        -4.509728681629941
      ],
      [
        "ed",
        -4.537931960772845
      ],
      [
        "Ġis",
        -4.734018396227295
      ],
      [
        "Ġthat",
        -4.93292201083792
      ],
      [
        "ing",
        -5.04133360679301
      ],
      [
        "Ġfor",
        -5.062277082362421
      ],
      [
        "Ġ(",
        -5.236559643608448
      ],
      [
        "ly",
        -5.3641873340767035
      ],
      [
        "Ġare",
        -5.369671106192699
      ],
      [
        "Ġwith",
        -5.381522195387813
      ],
      [
        "Ġon",
        -5.406715187338314
      ],
      [
        "Ġas",
        -5.453567363655761
      ],
      [
        "Ġbe",
        -5.499462684421909
      ],
      [
        "Ġby",
        -5.532999273797932
      ],
      [
        ":",
        -5.5451357467187385
      ],
      [
        "'",
        -5.552056791576497
      ],
      [
        "Ġor",
        -5.558012044385292
      ],
      [
        "ĠThe",
        -5.573804962597782
      ],
      [
        "y",
        -5.598649095749446
      ],
      [
        "Ġit",
        -5.618881807401152
      ],
      [
        "Ġwas",
        -5.651924122101374
      ],
      [
        "Ġfrom",
        -5.669643456694747
      ],
      [
        ")",
        -5.686658389022595
      ],
      [
        "Ġ",
        -5.830121992025408
      ],
      [
        "Ġat",
        -5.88163664785678
      ],
      [
        "Ġhave",
        -5.897646890258688
      ],
      [
        "Ġnot",
        -5.942987558057705
      ],
      [
        "Ġan",
        -5.962595131415572
      ],
      [
        "Ġthis",
        -5.991783789890476
      ],
      [
        "âĢĻ",
        -5.991899540108173
      ],
      [
        "Ġcan",
        -6.072480716631343
      ],
      [
        "Ġyou",
        -6.129413968473223
      ],
      [
        "The",
        -6.164913279513371
      ],
      [
        "Ġwhich",
        -6.177107567095657
      ],
      [
        "Ġtheir",
        -6.19194847495816
      ],
      [
        "Ġ\"",
        -6.213252145869864
      ],
      [
        ";",
        -6.315454383835657
      ],
      [
        "Ġhas",
        -6.341423297623786
      ],
      [
        "Ġmore",
        -6.342741732013824
      ],
      [
        "Ġwere",
        -6.345125330476515
      ],
      [
        "Ġwill",
        -6.369984227592006
      ],
      [
        "Ġthey",
        -6.3731143988223415
      ],
      [
        "Ġone",
        -6.436075478933251
      ],
      [
        "Ġbut",
        -6.463303158891584
      ],
      [
        "\"",
        -6.477320068263571
      ],
      [
        "Ġhis",
        -6.51781184951037
      ],
      [
        "d",
        -6.5454770953438945
      ],
      [
        "Ġall",
        -6.563973204248445
      ],
      [
        "Ġother",
        -6.5700503524061435
      ],
      [
        "ĠI",
        -6.588735393767887
      ],
      [
        "Ġalso",
        -6.590214550921102
      ],
      [
        "t",
        -6.605217343363417
      ],
      [
        "e",
        -6.613977656972095
      ],
      [
        "Ġwe",
        -6.626859114720393
      ],
      [
        "Ġyour",
        -6.638609178983787
      ],
      [
        "Ġabout",
        -6.641523198895557
      ],
      [
        "/",
        -6.642850193109567
      ],
      [
        "Ġhe",
        -6.663012586187355
      ],
      [
        ").",
        -6.70256759633674
      ],
      [
        "Ġwho",
        -6.72516686134157
      ],
      [
        "Ġthan",
        -6.735223180244393
      ],
      [
        "Ġbeen",
        -6.7364630646340995
      ],
      [
        "ĠA",
        -6.737960002774663
      ],
      [
        "Ġmay",
        -6.742014292028404
      ],
      [
        "ĠIn",
        -6.756335059274148
      ],
      [
        "Ġhad",
        -6.779191306483524
      ],
      [
        "ĠâĢľ",
        -6.804420408317075
      ],
      [
        "?",
        -6.826871411570387
      ],
      [
        "Ġinto",
        -6.852882002139975
      ],
      [
        "Ġits",
        -6.86830293099278
      ],
      [
        "er",
        -6.874033966602401
      ],
      [
        "Ġwhen",
        -6.8868043181630565
      ],
      [
        "Ġtime",
        -6.894158478373036
      ],
      [
        "Ġsome",
        -6.900666676156796
      ],
      [
        "Ġthese",
        -6.90359942231618
      ],
      [
        "ĠIt",
        -6.907182350015001
      ],
      [
        "Ġwould",
        -6.923528054435346
      ],
      [
        "Ġpeople",
        -6.9462608195053726
      ],
      [
        "Ġmost",
        -6.956492818500033
      ],
      [
        "Ġthem",
        -6.978106203880095
      ],
      [
        "ĠThis",
        -6.988770393458321
      ],
      [
        "Ġthere",
        -6.998341052802486
      ],
      [
        "Ġsuch",
        -7.000091546353483
      ],
      [
        "Ġso",
        -7.029031178269182
      ],
      [
        "Ġout",
        -7.05297756822125
      ],
      [
        "Ġuse",
        -7.054503068160525
      ],
      [
        "Ġfirst",
        -7.059765007804401
      ],
      [
        "Ġup",
        -7.060679384018552
      ],
      [
        "Ġonly",
        -7.073171345914295
      ],
      [
        "Ġif",
        -7.08308692024154
      ],
      [
        "Ġtwo",
        -7.109046781725464
      ],
      [
        "Ġnew",
        -7.1155943654910825
      ],
      [
        "Ġwhat",
        -7.1202150735030205
      ],
      [
        "a",
        -7.12528599738336
      ],
      [
        "Ġused",
        -7.133077835360359
      ],
      [
        "Ġmany",
        -7.139880378555231
      ],
      [
        "Ġdo",
        -7.150621102151742
      ],
      [
        "Ġour",
        -7.150647884765851
      ],
      [
        "Ġno",
        -7.165941079982844
      ],
      [
        "Ġ-",
        -7.169998255534553
      ],
      [
        "),",
        -7.196288599851815
      ],
      [
        "Ġover",
        -7.21014675755325
      ],
      [
        "Ġyears",
        -7.228451152916833
      ],
      [
        "|",
        -7.271427217442124
      ],
      [
        "Ġhow",
        -7.275044023194994
      ],
      [
        "Ġ1",
        -7.286819489555803
      ],
      [
        "Ġany",
        -7.292379546441797
      ],
      [
        "A",
        -7.293184425054644
      ],
      [
        "Ġwater",
        -7.330522736521257
      ],
      [
        "Ġbetween",
        -7.332829586408103
      ],
      [
        "Ġlike",
        -7.334498957921909
      ],
      [
        "Ġcould",
        -7.341429809819926
      ],
      [
        "Ġthrough",
        -7.343789490174709
      ],
      [
        "Ġwell",
        -7.3503283258825505
      ],
      [
        "Ġshould",
        -7.364735040893288
      ],
      [
        "1",
        -7.376339802187355
      ],
      [
        "Ġsaid",
        -7.377148255071798
      ],
      [
        "âĢĿ",
        -7.379472544822182
      ],
      [
        "S",
        -7.382257811943051
      ],
      [
        "2",
        -7.395925075244888
      ],
      [
        "Ġwork",
        -7.41575268045476
      ],
      [
        "In",
        -7.433525121932082
      ],
      [
        "Ġwhere",
        -7.433920440411013
      ],
      [
        "es",
        -7.443798177844119
      ],
      [
        "Ġafter",
        -7.478249728610438
      ],
      [
        "Ġthose",
        -7.484248273277315
      ],
      [
        "Ġbecause",
        -7.485586975418011
      ],
      [
        "Ġmake",
        -7.490874474864006
      ],
      [
        "Ġvery",
        -7.501271423690161
      ],
      [
        "Ġthen",
        -7.517275376708413
      ],
      [
        "Ġinformation",
        -7.530127624380654
      ],
      [
        "Ġfound",
        -7.53231474783523
      ],
      [
        "Ġsystem",
        -7.559875265394236
      ],
      [
        "Ġ2",
        -7.568851314583336
      ],
      [
        "Ġeven",
        -7.568972441859181
      ],
      [
        ".\"",
        -7.5743636816479505
      ],
      [
        "Ġworld",
        -7.577255405877015
      ],
      [
        "Ġway",
        -7.577709324323436
      ],
      [
        "Ġhelp",
        -7.579040239728252
      ],
      [
        "Ġeach",
        -7.580256390887351
      ],
      [
        "Ġbeing",
        -7.607598640859992
      ],
      [
        "Ġmade",
        -7.609538851931804
      ],
      [
        "Ġchildren",
        -7.611713708654424
      ],
      [
        "Ġher",
        -7.620454980984356
      ],
      [
        "Ġmuch",
        -7.620751840537498
      ],
      [
        "Ġduring",
        -7.624846869616153
      ],
      [
        "Ġyear",
        -7.634786224482255
      ],
      [
        "Ġpart",
        -7.634849216375544
      ],
      [
        "Ġsame",
        -7.639601019051016
      ],
      [
        "ĠHe",
        -7.6532405378069726
      ],
      [
        "Ġhigh",
        -7.653264746027391
      ],
      [
        "Ġunder",
        -7.6644568445393695
      ],
      [
        "Ġlife",
        -7.666060648784482
      ],
      [
        "th",
        -7.672430276210685
      ],
      [
        "Ġsee",
        -7.6771320210010625
      ],
      [
        "ies",
        -7.682964572075473
      ],
      [
        "Ġjust",
        -7.6863531963312255
      ],
      [
        "Ġneed",
        -7.702948399354117
      ],
      [
        "Ġdifferent",
        -7.705578159455678
      ],
      [
        "Ġboth",
        -7.715006885364119
      ],
      [
        "Ġnumber",
        -7.73219308528531
      ],
      [
        "Ġbefore",
        -7.734069726380582
      ],
      [
        "Ġstudy",
        -7.734898157777803
      ],
      [
        "ĠâĢĵ",
        -7.760700248683147
      ],
      [
        "Ġimportant",
        -7.765066159260664
      ],
      [
        "Ġnow",
        -7.7656501637482
      ],
      [
        "ity",
        -7.7687529477078225
      ],
      [
        "ĠNew",
        -7.768861485428745
      ],
      [
        "Ġlong",
        -7.769498421278536
      ],
      [
        "Ġstudents",
        -7.771164836610438
      ],
      [
        "ĠThey",
        -7.774642242528552
      ],
      [
        "Ġresearch",
        -7.776729928355564
      ],
      [
        "ĠIf",
        -7.786638995039292
      ],
      [
        "the",
        -7.786775761741563
      ],
      [
        "Ġ3",
        -7.788020657957086
      ],
      [
        "Ġstate",
        -7.788533800458451
      ],
      [
        "%",
        -7.789095703556455
      ],
      [
        "Ġthree",
        -7.798713120323509
      ],
      [
        "000",
        -7.802682750958146
      ],
      [
        "||",
        -7.806086128807289
      ],
      [
        "ĠU",
        -7.806360468567226
      ],
      [
        "3",
        -7.807500615142585
      ],
      [
        "Ġhealth",
        -7.810658617950923
      ],
      [
        "Ġown",
        -7.825143386563354
      ],
      [
        "Ġdata",
        -7.82560226870322
      ],
      [
        "Ġoften",
        -7.827718754590835
      ],
      [
        "Ġget",
        -7.839475281796075
      ],
      [
        "Ġlarge",
        -7.840166334453105
      ],
      [
        "âĢĶ",
        -7.851650314949037
      ],
      [
        ",\"",
        -7.854417802363498
      ],
      [
        "(",
        -7.857589450408199
      ],
      [
        "Ġmust",
        -7.86121615026989
      ],
      [
        "ĠFor",
        -7.863122594811992
      ],
      [
        "Ġday",
        -7.86965520923926
      ],
      [
        "ĠAmerican",
        -7.870170909138512
      ],
      [
        "Ġwhile",
        -7.87199862404969
      ],
      [
        "Ġus",
        -7.880974665039382
      ],
      [
        "ĠUniversity",
        -7.881633063141212
      ],
      [
        ".âĢĿ",
        -7.8836498210407555
      ],
      [
        "Ġcalled",
        -7.886555153816044
      ],
      [
        "ĠBut",
        -7.888705240912724
      ],
      [
        "Ġusing",
        -7.889161092482068
      ],
      [
        "Ġtake",
        -7.904591733368676
      ],
      [
        "Ġgood",
        -7.911959450649292
      ],
      [
        "Ġsmall",
        -7.923502760670921
      ],
      [
        "Ġhim",
        -7.931645264787589
      ],
      [
        "This",
        -7.93433759445246
      ],
      [
        "Ġplace",
        -7.934933887685316
      ],
      [
        "Ġhuman",
        -7.935463444961536
      ],
      [
        "Ġexample",
        -7.935856562602785
      ],
      [
        "Ġincluding",
        -7.940013663956538
      ],
      [
        "Ġcommon",
        -7.949326106836194
      ],
      [
        "Ġpower",
        -7.951232938696446
      ],
      [
        "Ġaround",
        -7.9663999303259825
      ],
      [
        "Ġknown",
        -7.968895013414537
      ],
      [
        "Ġdoes",
        -7.9769825639024
      ],
      [
        "re",
        -7.978529512131264
      ],
      [
        "Ġform",
        -7.98459654292923
      ],
      [
        "Ġ10",
        -7.990600504769004
      ],
      [
        "I",
        -7.995117333441591
      ],
      [
        "in",
        -7.997649664595157
      ],
      [
        "Ġknow",
        -8.003982295541324
      ],
      [
        "Ġgreat",
        -8.010047875615347
      ],
      [
        "Ġstill",
        -8.011615089125181
      ],
      [
        "Ġfood",
        -8.011786769130982
      ],
      [
        "ĠC",
        -8.020247864995245
      ],
      [
        "5",
        -8.022207856923677
      ],
      [
        "ĠUnited",
        -8.022468098277125
      ],
      [
        "Ġback",
        -8.026029897613999
      ],
      [
        "Ġless",
        -8.029719810919394
      ],
      [
        "Ġbody",
        -8.031508301084223
      ],
      [
        "Ġmy",
        -8.033539417485855
      ],
      [
        "Ġschool",
        -8.034369271455484
      ],
      [
        "Ġfew",
        -8.034380199317743
      ],
      [
        "Ġpublic",
        -8.035985757868756
      ],
      [
        "Ġgovernment",
        -8.037546514382772
      ],
      [
        "Ġarea",
        -8.043956847463187
      ],
      [
        "Ġshe",
        -8.04441521617577
      ],
      [
        "Ġend",
        -8.046924230217437
      ],
      [
        "Ġdid",
        -8.047277843371068
      ],
      [
        "!",
        -8.055103403161528
      ],
      [
        "m",
        -8.061822185498409
      ],
      [
        "Ġenergy",
        -8.064471810956883
      ],
      [
        "4",
        -8.070438703756636
      ],
      [
        "Ġright",
        -8.075819279004104
      ],
      [
        "Ġdisease",
        -8.077493848373999
      ],
      [
        "us",
        -8.079607574104505
      ],
      [
        "Ġwithin",
        -8.079709531049021
      ],
      [
        "Ġdown",
        -8.080670536393924
      ],
      [
        "Ġdevelopment",
        -8.086812357495576
      ],
      [
        "Ġwithout",
        -8.087034924280333
      ],
      [
        "Ġmight",
        -8.088850367985998
      ],
      [
        "Ġchange",
        -8.092526491164133
      ],
      [
        "Ġsupport",
        -8.093126326687521
      ],
      [
        "Ġanother",
        -8.095942515163784
      ],
      [
        "Ġwomen",
        -8.096363562952224
      ],
      [
        "Ġ4",
        -8.096521818910439
      ],
      [
        "Ġ5",
        -8.099937182994971
      ],
      [
        "ĠStates",
        -8.109659232645445
      ],
      [
        "ĠWe",
        -8.112447845761315
      ],
      [
        "ĠThese",
        -8.113528835464573
      ],
      [
        "Ġevery",
        -8.113834790298718
      ],
      [
        "Ġearly",
        -8.114624665648641
      ],
      [
        "ĠS",
        -8.11956189346898
      ],
      [
        "on",
        -8.119922578686044
      ],
      [
        "Ġsays",
        -8.125667501181143
      ],
      [
        "Ġinclude",
        -8.126732116821723
      ],
      [
        "Ġpresent",
        -8.128273099275082
      ],
      [
        "ĠM",
        -8.131934419383592
      ],
      [
        "Ġagainst",
        -8.133938304620948
      ],
      [
        "Ġprocess",
        -8.135141821792308
      ],
      [
        "Ġfind",
        -8.138920752322086
      ],
      [
        "Ġpercent",
        -8.140097241488867
      ],
      [
        "Ġspecies",
        -8.141225148091905
      ],
      [
        "ĠNational",
        -8.14177954509729
      ],
      [
        "Ġorder",
        -8.142009725383765
      ],
      [
        "i",
        -8.144566296384413
      ],
      [
        "Ġ&",
        -8.16586678171283
      ],
      [
        "Ġchild",
        -8.166017356234061
      ],
      [
        "Ġhistory",
        -8.168767774671236
      ],
      [
        "Ġ[",
        -8.16944220038119
      ],
      [
        "ĠD",
        -8.170810916061768
      ],
      [
        "âĢĵ",
        -8.171125008217707
      ],
      [
        "Ġlast",
        -8.173684088746482
      ],
      [
        "Ġgroup",
        -8.182575341316754
      ],
      [
        "and",
        -8.18599232347934
      ],
      [
        "Ġseveral",
        -8.192384327805502
      ],
      [
        "ĠB",
        -8.194077923418764
      ],
      [
        "Ġ'",
        -8.198950738484719
      ],
      [
        "D",
        -8.19990989989629
      ],
      [
        ",âĢĿ",
        -8.202501621599966
      ],
      [
        "Ġrisk",
        -8.202971252052022
      ],
      [
        "Ġset",
        -8.205033831752152
      ],
      [
        "ĠThere",
        -8.208379998673735
      ],
      [
        "Ġbecome",
        -8.208700989030056
      ],
      [
        "Ġparticular",
        -8.208995103594392
      ],
      [
        "n",
        -8.209064885236653
      ],
      [
        "Ġcurrent",
        -8.21359547119944
      ],
      [
        "Ġblood",
        -8.213637459310297
      ],
      [
        "]",
        -8.218105460421533
      ],
      [
        "Ġname",
        -8.237044958460578
      ],
      [
        "ĠAnd",
        -8.239319087810003
      ],
      [
        "Ġsince",
        -8.241610484825898
      ],
      [
        "It",
        -8.242360557724778
      ],
      [
        "Ġavailable",
        -8.243061318203628
      ],
      [
        "Ġprovide",
        -8.244981631619801
      ],
      [
        "Ġfamily",
        -8.251013900605223
      ],
      [
        "Ġresult",
        -8.25391732248117
      ],
      [
        "Ġhere",
        -8.254401537189809
      ],
      [
        "Ġcontrol",
        -8.257425753641686
      ],
      [
        "Ġper",
        -8.274061508158448
      ],
      [
        "Ġlight",
        -8.274738705517843
      ],
      [
        "Ġamong",
        -8.27651230355597
      ],
      [
        "ĠâĢĶ",
        -8.276733139321921
      ],
      [
        "ĠAs",
        -8.281089738286614
      ],
      [
        "Ġpossible",
        -8.288495988768982
      ],
      [
        "Ġareas",
        -8.29001373679191
      ],
      [
        "Ġsocial",
        -8.291690232944271
      ],
      [
        "Ġp",
        -8.292216082647132
      ],
      [
        "ĠGod",
        -8.294081579479068
      ],
      [
        "Ġoff",
        -8.2953298143233
      ],
      [
        "Ġcause",
        -8.298048856300783
      ],
      [
        "o",
        -8.298139252861326
      ],
      [
        "Ġwant",
        -8.298998458362563
      ],
      [
        "Ġpoint",
        -8.300696770723569
      ],
      [
        "to",
        -8.30426419266456
      ],
      [
        "ĠJ",
        -8.305533255024255
      ],
      [
        "C",
        -8.307602390561891
      ],
      [
        "able",
        -8.309474864641112
      ],
      [
        "Ġlocal",
        -8.313483077263076
      ],
      [
        "Ġtoo",
        -8.318435220671452
      ],
      [
        "Ġ20",
        -8.318684882754592
      ],
      [
        "Ġcountry",
        -8.319498903590246
      ],
      [
        "Ġland",
        -8.3210477528578
      ],
      [
        "Ġfollowing",
        -8.322146131466013
      ],
      [
        "Ġtest",
        -8.322210882688358
      ],
      [
        "Ġhome",
        -8.324073882228427
      ],
      [
        "âĢľ",
        -8.324811117703591
      ],
      [
        "Ġallow",
        -8.326062537716725
      ],
      [
        "Ġbetter",
        -8.33241496933764
      ],
      [
        "Ġgo",
        -8.332597322963723
      ],
      [
        "Ġmen",
        -8.333660654948797
      ],
      [
        "or",
        -8.333783323417045
      ],
      [
        "Ġlevel",
        -8.333826166462634
      ],
      [
        "Ġmeans",
        -8.33694328620075
      ],
      [
        "Ġfull",
        -8.339256730887216
      ],
      [
        "ĠWhen",
        -8.341686209754918
      ],
      [
        "Ġgiven",
        -8.34405762571951
      ],
      [
        "Ġprogram",
        -8.349304780167984
      ],
      [
        "Ġcase",
        -8.349460168276094
      ],
      [
        "Ġmillion",
        -8.349945404468816
      ],
      [
        "Ġage",
        -8.350602298626823
      ],
      [
        "Ġuntil",
        -8.350883838625126
      ],
      [
        "Ġtreatment",
        -8.351442952385566
      ],
      [
        "Ġperson",
        -8.35413430883088
      ],
      [
        "Ġbest",
        -8.355063674343732
      ],
      [
        "Ġ$",
        -8.35779738618458
      ],
      [
        "ĠYou",
        -8.360669218546493
      ],
      [
        "Ġcome",
        -8.364729719910947
      ],
      [
        "Ġlow",
        -8.367921546753447
      ],
      [
        "Ġsecond",
        -8.373144928141045
      ],
      [
        "Ġlater",
        -8.373155735822218
      ],
      [
        "Ġbased",
        -8.37740864311481
      ],
      [
        "Ġlittle",
        -8.377785133175015
      ],
      [
        "al",
        -8.381389251849681
      ],
      [
        "Ġnon",
        -8.382457815225749
      ],
      [
        "Ġsay",
        -8.384722736253783
      ],
      [
        "Ġcancer",
        -8.386821365388851
      ],
      [
        "ĠE",
        -8.388745527817496
      ],
      [
        "Ġman",
        -8.389451549334732
      ],
      [
        "Ġ6",
        -8.391444136649485
      ],
      [
        "Ġfact",
        -8.392229937097758
      ],
      [
        "Ġpopulation",
        -8.398453343298442
      ],
      [
        "Ġnatural",
        -8.39974151937037
      ],
      [
        "Ġfour",
        -8.399848739232638
      ],
      [
        "Ġthink",
        -8.401578494125966
      ],
      [
        "ĠTo",
        -8.40196239551341
      ],
      [
        "Ġcentury",
        -8.402997837480088
      ],
      [
        "Ġcertain",
        -8.40859821694458
      ],
      [
        "ĠHowev",
        -8.414767999166985
      ],
      [
        "Ġable",
        -8.418231525608759
      ],
      [
        "Ġcells",
        -8.420301050918614
      ],
      [
        "Ġme",
        -8.421496056256823
      ],
      [
        "Ġcontain",
        -8.42474137916425
      ],
      [
        "Ġdon",
        -8.426261916653226
      ],
      [
        "Ġproblem",
        -8.427856284053009
      ],
      [
        "Ġbook",
        -8.430585469513902
      ],
      [
        "Ġproblems",
        -8.433202599906968
      ],
      [
        "Ġmajor",
        -8.436469459193919
      ],
      [
        "Ġhowever",
        -8.437424412552245
      ],
      [
        "Ġthings",
        -8.44824822736355
      ],
      [
        "Ġfar",
        -8.44953620786233
      ],
      [
        "Ġreport",
        -8.452158117382929
      ],
      [
        "6",
        -8.454279780330122
      ],
      [
        "ĠR",
        -8.45468288542549
      ],
      [
        "Ġ|",
        -8.45737246759217
      ],
      [
        "Ġalong",
        -8.45778344065063
      ],
      [
        "Ġopen",
        -8.46200904189273
      ],
      [
        "Ġspecific",
        -8.462080509304991
      ],
      [
        "Ġtype",
        -8.462189327562587
      ],
      [
        "ness",
        -8.475011390505172
      ],
      [
        "Ġsite",
        -8.477627601983782
      ],
      [
        "Ġlook",
        -8.478378869398917
      ],
      [
        "Ġusually",
        -8.479038424230508
      ],
      [
        "Ġproject",
        -8.481683549698204
      ],
      [
        "Ġcommunity",
        -8.484149455553634
      ],
      [
        "Ġabove",
        -8.490558653646861
      ],
      [
        "Ġfree",
        -8.491483028010048
      ],
      [
        "Ġlevels",
        -8.492907801177934
      ],
      [
        "Ġcare",
        -8.49360839963381
      ],
      [
        "Ġtimes",
        -8.493968373703174
      ],
      [
        "Ġperiod",
        -8.497640168990932
      ],
      [
        "Ġreal",
        -8.50073159986442
      ],
      [
        "Ġbecame",
        -8.502133262538537
      ],
      [
        "Ġleast",
        -8.504560239233289
      ],
      [
        "Ġ--",
        -8.507126358117677
      ],
      [
        "Ġeducation",
        -8.507951957023595
      ],
      [
        "Ġde",
        -8.509049157942215
      ],
      [
        "Ġdays",
        -8.511154710319367
      ],
      [
        "Ġair",
        -8.51137450997398
      ],
      [
        "Ġcourse",
        -8.5179893010026
      ],
      [
        "Ġlaw",
        -8.519663614324791
      ],
      [
        "Ġlikely",
        -8.520387304410372
      ],
      [
        "We",
        -8.52843557393977
      ],
      [
        "ĠP",
        -8.528860265134057
      ],
      [
        "Ġcountries",
        -8.528969596094246
      ],
      [
        "ĠWar",
        -8.531877294172803
      ],
      [
        "Ġincrease",
        -8.536603205265038
      ],
      [
        "Ġlanguage",
        -8.537290811648138
      ],
      [
        "Ġgeneral",
        -8.53818704299501
      ],
      [
        "ĠAmerica",
        -8.53928609441514
      ],
      [
        "Ġleft",
        -8.542070233599
      ],
      [
        "ĠâĢĺ",
        -8.542764948967594
      ],
      [
        "Ġsimilar",
        -8.544570189187953
      ],
      [
        "Ġnext",
        -8.549526729214328
      ],
      [
        "Ġscience",
        -8.550035953827688
      ],
      [
        "Ġothers",
        -8.550727638836971
      ],
      [
        "est",
        -8.55082822701045
      ],
      [
        "Ġresults",
        -8.551122064852427
      ],
      [
        "Ġmain",
        -8.551128905599427
      ],
      [
        "ĠWhat",
        -8.552565598421658
      ],
      [
        "ĠWorld",
        -8.55315362622934
      ],
      [
        "Ġwar",
        -8.55531503211297
      ],
      [
        "Ġcreate",
        -8.558968077804241
      ],
      [
        "Ġsystems",
        -8.559244893111602
      ],
      [
        "If",
        -8.559491181183155
      ],
      [
        "Ġside",
        -8.564300911080363
      ],
      [
        "Ġheart",
        -8.574350341068659
      ],
      [
        "Ġtoday",
        -8.576903787850071
      ],
      [
        "Ġgive",
        -8.57827008465852
      ],
      [
        "Ġmaking",
        -8.57916704371366
      ],
      [
        "Ġnever",
        -8.579313774972755
      ],
      [
        "Ġpotential",
        -8.582315666557792
      ],
      [
        "ĠYork",
        -8.582826959264056
      ],
      [
        "Ġold",
        -8.584586786299463
      ],
      [
        "Ġ12",
        -8.585143026795363
      ],
      [
        "Ġ0",
        -8.585236939572535
      ],
      [
        "Ġcity",
        -8.588131961783265
      ],
      [
        "Ġconditions",
        -8.596359756240057
      ],
      [
        "Ġhigher",
        -8.597148107163772
      ],
      [
        "Ġstudies",
        -8.597253879278624
      ],
      [
        "Ġdue",
        -8.598346573530929
      ],
      [
        "Ġfuture",
        -8.599899687931254
      ],
      [
        "Ġstrong",
        -8.600797004835686
      ],
      [
        "Ġspace",
        -8.600872533284054
      ],
      [
        "Ġupon",
        -8.60451709871938
      ],
      [
        "Ġtogether",
        -8.6085588463636
      ],
      [
        "ĠJohn",
        -8.608909787130655
      ],
      [
        "Ġ8",
        -8.61024561343415
      ],
      [
        "Ġview",
        -8.61170199968832
      ],
      [
        "Ġfollow",
        -8.61191591009702
      ],
      [
        "Ġalways",
        -8.612220940370992
      ],
      [
        "Ġshow",
        -8.612312070068013
      ],
      [
        "Ġwhether",
        -8.615850972668216
      ],
      [
        "Ġwords",
        -8.618472568695475
      ],
      [
        "Ġdeath",
        -8.618516921760559
      ],
      [
        "Ġnational",
        -8.62050029059264
      ],
      [
        "Ġline",
        -8.622256659182593
      ],
      [
        "What",
        -8.622357084657986
      ],
      [
        "Ġaway",
        -8.626335507517688
      ],
      [
        "Ġexperience",
        -8.627910002217432
      ],
      [
        "Ġchanges",
        -8.629826981928666
      ],
      [
        "Ġsomething",
        -8.63028852856029
      ],
      [
        "8",
        -8.630331694343127
      ],
      [
        "ic",
        -8.630519049771994
      ],
      [
        "Ġsurface",
        -8.63156358851939
      ],
      [
        "Ġshort",
        -8.63210324630174
      ],
      [
        "Ġtechnology",
        -8.632418699625855
      ],
      [
        "Ġ7",
        -8.634273351150075
      ],
      [
        "Ġrequire",
        -8.634594339416985
      ],
      [
        "Ġvarious",
        -8.635130991090913
      ],
      [
        "com",
        -8.637876416212986
      ],
      [
        "Ġthought",
        -8.638104063094836
      ],
      [
        "Ġal",
        -8.63822750032831
      ],
      [
        "Ġnear",
        -8.638345636140311
      ],
      [
        "Ġenough",
        -8.640919230855067
      ],
      [
        "Ġappear",
        -8.642148766580489
      ],
      [
        "Ġ15",
        -8.643352588750897
      ],
      [
        "0",
        -8.643438587891893
      ],
      [
        "Ġespecially",
        -8.644695128400357
      ],
      [
        "Ġresearchers",
        -8.646547498827097
      ],
      [
        "Ġsubject",
        -8.6467638544908
      ],
      [
        "Ġpolitical",
        -8.648208265425305
      ],
      [
        "Ġbrain",
        -8.648792024228303
      ],
      [
        "Ġput",
        -8.649311849898066
      ],
      [
        "7",
        -8.650455535926573
      ],
      [
        "Ġlive",
        -8.650737421944333
      ],
      [
        "Ġmaterial",
        -8.651526687708014
      ],
      [
        "is",
        -8.653026037842256
      ],
      [
        "ĠSome",
        -8.653156491202669
      ],
      [
        "g",
        -8.653348218818861
      ],
      [
        "Ġfurther",
        -8.653709713085856
      ],
      [
        "Ġfield",
        -8.6548497894739
      ],
      [
        "Ġacross",
        -8.657003005329909
      ],
      [
        "ĠHealth",
        -8.659166083779015
      ],
      [
        "Ġaccess",
        -8.659517593117164
      ],
      [
        "ĠState",
        -8.65989233103672
      ],
      [
        "Ġdeveloped",
        -8.661551089558685
      ],
      [
        "Ġplay",
        -8.661571994935066
      ],
      [
        "Ġlearning",
        -8.662204337398613
      ],
      [
        "For",
        -8.663429762997527
      ],
      [
        "Ġeffects",
        -8.664418926508606
      ],
      [
        "Ġgroups",
        -8.665304899953293
      ],
      [
        "Ġhaving",
        -8.66699040475099
      ],
      [
        "Ġeffective",
        -8.66721734492432
      ],
      [
        "Ġcases",
        -8.668559113175338
      ],
      [
        "ĠEnglish",
        -8.669494214843029
      ],
      [
        "Ġyoung",
        -8.669908614549012
      ],
      [
        "Ġeither",
        -8.670543572078858
      ],
      [
        "Ġproduction",
        -8.673374950100218
      ],
      [
        "Ġindividual",
        -8.674136031512282
      ],
      [
        "Ġfive",
        -8.674936667277606
      ],
      [
        "Ġlower",
        -8.67532278868402
      ],
      [
        "Ġpatients",
        -8.67774991481931
      ],
      [
        "ĠT",
        -8.677900818632315
      ],
      [
        "Ġplant",
        -8.678068502184633
      ],
      [
        "Ġlearn",
        -8.678387761727398
      ],
      [
        "Ġoriginal",
        -8.679408264642207
      ],
      [
        "Ġpast",
        -8.679464161603798
      ],
      [
        "Ġseen",
        -8.679549633742358
      ],
      [
        "Ġdevelop",
        -8.679989802438556
      ],
      [
        "Ġrate",
        -8.680510966562885
      ],
      [
        "Ġrather",
        -8.681517623278623
      ],
      [
        "There",
        -8.683187441796385
      ],
      [
        "ĠNorth",
        -8.683726631763001
      ],
      [
        "Ġ30",
        -8.684854857172
      ],
      [
        "Ġcame",
        -8.685334839573166
      ],
      [
        "ĠOne",
        -8.686065754266657
      ],
      [
        "Ġrange",
        -8.6868605885343
      ],
      [
        "ĠEarth",
        -8.687175567739027
      ],
      [
        "Ġtaken",
        -8.68718619672485
      ],
      [
        "Ġsource",
        -8.687504942805601
      ],
      [
        "Ġeffect",
        -8.688449687235842
      ],
      [
        "Ġkeep",
        -8.690281277013291
      ],
      [
        "10",
        -8.690797142185968
      ],
      [
        "ĠH",
        -8.692253063066792
      ],
      [
        "Ġread",
        -8.6925883541309
      ],
      [
        "Ġplants",
        -8.693168370611001
      ],
      [
        "Ġlead",
        -8.693867909562194
      ],
      [
        "Ġaccording",
        -8.693954808751506
      ],
      [
        "Ġworking",
        -8.694769133493322
      ],
      [
        "ĠSouth",
        -8.69601425864275
      ],
      [
        "Ġevidence",
        -8.698849662489458
      ],
      [
        "ally",
        -8.699039937606301
      ],
      [
        "Ġthough",
        -8.699732279201472
      ],
      [
        "ĠG",
        -8.702583216407316
      ],
      [
        "Ġhand",
        -8.702692082248195
      ],
      [
        "Ġsingle",
        -8.703122346874352
      ],
      [
        "Ġmodel",
        -8.703147386605263
      ],
      [
        "Ġvalue",
        -8.709761287604513
      ],
      [
        "Ġresources",
        -8.71288536820949
      ],
      [
        "ve",
        -8.714001095365488
      ],
      [
        "Ġword",
        -8.715180049007818
      ],
      [
        "Ġwhy",
        -8.717697869631587
      ],
      [
        "Ġalready",
        -8.719704850539497
      ],
      [
        "Ġpublished",
        -8.721315095435294
      ],
      [
        "Ġdesign",
        -8.721434173654059
      ],
      [
        "Ġdifficult",
        -8.72183133260615
      ],
      [
        "ĠN",
        -8.72266271211448
      ],
      [
        "Ġarticle",
        -8.723931639120067
      ],
      [
        "Ġclimate",
        -8.724182907780644
      ],
      [
        "of",
        -8.727998964197669
      ],
      [
        "Ġeconomic",
        -8.728477136916627
      ],
      [
        "Ġenvironment",
        -8.730151241913259
      ],
      [
        "ĠL",
        -8.735124337558767
      ],
      [
        "Ġamount",
        -8.735559261695903
      ],
      [
        "ĠOn",
        -8.736068466531043
      ],
      [
        "://",
        -8.736090130226103
      ],
      [
        "Ġrole",
        -8.740426120996084
      ],
      [
        "Ġknowledge",
        -8.742525079025704
      ],
      [
        "Ġdone",
        -8.742876215160408
      ],
      [
        "ĠThat",
        -8.744209200006855
      ],
      [
        "Ġmatter",
        -8.744412377993802
      ],
      [
        "Ġreduce",
        -8.746089747937733
      ],
      [
        "Ġbegan",
        -8.750097901964406
      ],
      [
        "Ġunderstand",
        -8.752357951005715
      ],
      [
        "Ġgoing",
        -8.756348543267691
      ],
      [
        "Ġfocus",
        -8.756737098857936
      ],
      [
        "Ġprevent",
        -8.75762496194766
      ],
      [
        "Ġmedical",
        -8.75768766048348
      ],
      [
        "ĠAt",
        -8.760029187908758
      ],
      [
        "Ġsize",
        -8.760590803074331
      ],
      [
        "Ġmembers",
        -8.76337140403294
      ],
      [
        "Ġ.",
        -8.763788894130833
      ],
      [
        "Ġaddition",
        -8.764135168174796
      ],
      [
        "Ġquestion",
        -8.766500279799377
      ],
      [
        "Ġwhite",
        -8.76678109880049
      ],
      [
        "Ġ2012",
        -8.76885098862007
      ],
      [
        "Ġtotal",
        -8.771682620663258
      ],
      [
        "Ġonce",
        -8.771972771291948
      ],
      [
        "Ġphysical",
        -8.773610151794548
      ],
      [
        "Ġactivity",
        -8.77625032802042
      ],
      [
        "Ġwhole",
        -8.776887365512966
      ],
      [
        "Ġgrowth",
        -8.778578352541047
      ],
      [
        "Ġbuilding",
        -8.779134269741132
      ],
      [
        "Ġrights",
        -8.779284405345216
      ],
      [
        "ism",
        -8.78132555832924
      ],
      [
        "ĠF",
        -8.781381793054342
      ],
      [
        "Ġwide",
        -8.783547510624308
      ],
      [
        "Ġcost",
        -8.783910795758901
      ],
      [
        "Ġbelow",
        -8.784181917310475
      ],
      [
        "Ġthemselves",
        -8.784702562881964
      ],
      [
        "Ġagain",
        -8.78563591995604
      ],
      [
        "Ġpressure",
        -8.785745753638
      ],
      [
        "ĠDr",
        -8.785806107171103
      ],
      [
        "Ġoil",
        -8.787364286532036
      ],
      [
        "Ġactivities",
        -8.787366838413393
      ],
      [
        "ĠW",
        -8.787701475021294
      ],
      [
        "Ġitself",
        -8.789208818485609
      ],
      [
        "Ġnormal",
        -8.790122988658648
      ],
      [
        "ĠSo",
        -8.790645711732825
      ],
      [
        "Ġcannot",
        -8.79236847980625
      ],
      [
        "Ġnature",
        -8.79491650282842
      ],
      [
        "Ġclass",
        -8.796695688253333
      ],
      [
        "Ġcreated",
        -8.79680000792402
      ],
      [
        "an",
        -8.797430091675572
      ],
      [
        "Ġtook",
        -8.798542425834654
      ],
      [
        "Ġalmost",
        -8.801637154856905
      ],
      [
        "Ġliving",
        -8.80193261056033
      ],
      [
        "ĠAll",
        -8.802297649227354
      ],
      [
        "ĠCenter",
        -8.80366959700621
      ],
      [
        "Ġpaper",
        -8.804097882754288
      ],
      [
        "Ġreally",
        -8.804781680221351
      ],
      [
        "Ġhalf",
        -8.805015840933237
      ],
      [
        "Ġregion",
        -8.80566463140442
      ],
      [
        "Ġneeds",
        -8.806491703479026
      ],
      [
        "Ġanimals",
        -8.807465509205063
      ],
      [
        "Ġincreased",
        -8.808409138211813
      ],
      [
        "Ġyet",
        -8.809136220538559
      ],
      [
        "ĠMay",
        -8.809814977670298
      ],
      [
        "Ġteam",
        -8.810076411765174
      ],
      [
        "Ġ2010",
        -8.810435330926309
      ],
      [
        "ĠAn",
        -8.812135269127658
      ],
      [
        "Ġ9",
        -8.813818142534299
      ],
      [
        "Ġentire",
        -8.814685470053893
      ],
      [
        "Ġconsidered",
        -8.814883548704335
      ],
      [
        "Ġaccount",
        -8.815986691877647
      ],
      [
        "Ġglobal",
        -8.819495739947541
      ],
      [
        "Ġstates",
        -8.820037608890178
      ],
      [
        "ever",
        -8.820595573494366
      ],
      [
        "Ġhard",
        -8.821045517601414
      ],
      [
        "Ġsignificant",
        -8.823232466739384
      ],
      [
        "ll",
        -8.825430291092994
      ],
      [
        "Ġrelated",
        -8.826352336643671
      ],
      [
        "Ġ2011",
        -8.828978592033016
      ],
      [
        "Ġblack",
        -8.829512092047043
      ],
      [
        "Ġloss",
        -8.830694758376572
      ],
      [
        "Ġcomputer",
        -8.832583706701644
      ],
      [
        "Ġscientists",
        -8.83329788467041
      ],
      [
        "Ġunit",
        -8.835010353174129
      ],
      [
        "ĠResearch",
        -8.83680094891484
      ],
      [
        "Ġassociated",
        -8.83696471352391
      ],
      [
        "Ġsimple",
        -8.837100717285576
      ],
      [
        "um",
        -8.837747953214738
      ],
      [
        "Ġpage",
        -8.838079099428436
      ],
      [
        "Ġsymptoms",
        -8.838581824416925
      ],
      [
        "Ġclaim",
        -8.840729221428342
      ],
      [
        "Ġkey",
        -8.845948768311297
      ],
      [
        "ĠBritish",
        -8.847521392075173
      ],
      [
        "_",
        -8.84858774087879
      ],
      [
        "Ġ11",
        -8.850630425294113
      ],
      [
        "Ġcell",
        -8.85264496529816
      ],
      [
        "Ġissue",
        -8.854318510026761
      ],
      [
        "ory",
        -8.854779581136398
      ],
      [
        "Ġrequired",
        -8.85715203368946
      ],
      [
        "\".",
        -8.857157735329595
      ],
      [
        "Ġground",
        -8.861507837712637
      ],
      [
        "Ġprovided",
        -8.86199231559985
      ],
      [
        "Ġimpact",
        -8.86471744607956
      ],
      [
        "Ġtypes",
        -8.864732947966251
      ],
      [
        "Ġoffer",
        -8.866346326606944
      ],
      [
        "Ġproducts",
        -8.86670524724144
      ],
      [
        "Ġproduce",
        -8.86729775576768
      ],
      [
        "Ġquality",
        -8.867543043875552
      ],
      [
        "Ġself",
        -8.867761634840658
      ],
      [
        "Ġet",
        -8.869650462096436
      ],
      [
        "Ġstory",
        -8.87268388754038
      ],
      [
        "Ġways",
        -8.873212064492558
      ],
      [
        "Ġbring",
        -8.874697889275636
      ],
      [
        "Ġterm",
        -8.874726511062425
      ],
      [
        "Ġclear",
        -8.875157866836707
      ],
      [
        "Ġsense",
        -8.876072812111932
      ],
      [
        "9",
        -8.87732105088265
      ],
      [
        "):",
        -8.877366581747614
      ],
      [
        "Ġdoctor",
        -8.877453221923389
      ],
      [
        "Ġmonths",
        -8.878149289517095
      ],
      [
        "Ġ100",
        -8.880020168666213
      ],
      [
        "Ġrecent",
        -8.880403499293815
      ],
      [
        "Ġgas",
        -8.883189423841857
      ],
      [
        "Ġneeded",
        -8.885314224697085
      ],
      [
        "Ġhead",
        -8.886754906132467
      ],
      [
        "How",
        -8.886811344921473
      ],
      [
        "ĠHis",
        -8.88814861650558
      ],
      [
        "bility",
        -8.888471764268665
      ],
      [
        "ĠScience",
        -8.88861093432188
      ],
      [
        "ĠInstitute",
        -8.890828436942948
      ],
      [
        "Ġcontent",
        -8.89128871536163
      ],
      [
        "Ġmodern",
        -8.891645732953172
      ],
      [
        "To",
        -8.892613890662133
      ],
      [
        "Ġmove",
        -8.893489662938505
      ],
      [
        "Ġstart",
        -8.893798016600842
      ],
      [
        "ĠBy",
        -8.894547536360788
      ],
      [
        "Ġstudent",
        -8.895919662778837
      ],
      [
        "Ġactually",
        -8.89719650048517
      ],
      [
        "Ġ18",
        -8.89790484290923
      ],
      [
        "Ġidea",
        -8.898611656921014
      ],
      [
        "Ġsoil",
        -8.899761900116735
      ],
      [
        "Ġfunction",
        -8.902017257681702
      ],
      [
        "Ġpurpose",
        -8.902217833793793
      ],
      [
        "Ġpractice",
        -8.902764911715229
      ],
      [
        "Ġenvironmental",
        -8.902957906114088
      ],
      [
        "Ġquestions",
        -8.903502176224661
      ],
      [
        "c",
        -8.90846311794485
      ],
      [
        "Ġcover",
        -8.90875484007492
      ],
      [
        "Ġservice",
        -8.909395448824512
      ],
      [
        "Ġtop",
        -8.909499882639128
      ],
      [
        "ĠHow",
        -8.909578207657793
      ],
      [
        "Ġprovides",
        -8.909734646570751
      ],
      [
        "Ġsure",
        -8.910853296978027
      ],
      [
        "Ġspecial",
        -8.910898531500454
      ],
      [
        "Ġrepresent",
        -8.911702782286582
      ],
      [
        "ĠNo",
        -8.914177140337392
      ],
      [
        "Ġdecision",
        -8.914196332340788
      ],
      [
        "ĠDepartment",
        -8.914914307681693
      ],
      [
        "Ġpost",
        -8.916089671253568
      ],
      [
        "Ġun",
        -8.917788054103209
      ],
      [
        "Ġreturn",
        -8.918348533265732
      ],
      [
        "ĠK",
        -8.918688915697043
      ],
      [
        "Ġaverage",
        -8.920470856275383
      ],
      [
        "When",
        -8.921488620433063
      ],
      [
        "Ġapproach",
        -8.9219476167709
      ],
      [
        "Ġ2009",
        -8.922521935416752
      ],
      [
        "Ġweek",
        -8.924845570887875
      ],
      [
        "Ġmakes",
        -8.926114632435349
      ],
      [
        "Ġmaterials",
        -8.927906839795897
      ],
      [
        "Ġaction",
        -8.928832690419966
      ],
      [
        "Ġissues",
        -8.929068142475062
      ],
      [
        "Ġprograms",
        -8.930524827409796
      ],
      [
        "Ġcomplex",
        -8.932491814180024
      ],
      [
        "Ġmaintain",
        -8.93274337102518
      ],
      [
        "Ġdamage",
        -8.933157517146448
      ],
      [
        "Ġbuilt",
        -8.934265614473535
      ],
      [
        "Ġnecessary",
        -8.936112482836197
      ],
      [
        "Ġpass",
        -8.936987703040813
      ],
      [
        "As",
        -8.938234658480345
      ],
      [
        "Ġclose",
        -8.939320854614452
      ],
      [
        "Ġtext",
        -8.942072261813841
      ],
      [
        "Ġfish",
        -8.943482363206705
      ],
      [
        "Ġfinal",
        -8.943637505851
      ],
      [
        "Ġever",
        -8.944365292534243
      ],
      [
        "Ġhttp",
        -8.944522051997131
      ],
      [
        "Ġposition",
        -8.945433800595497
      ],
      [
        "Ġmoney",
        -8.94598799708588
      ],
      [
        "Ġlist",
        -8.947686550038211
      ],
      [
        "Ġ50",
        -8.95393822570585
      ],
      [
        "Ġservices",
        -8.955048487398416
      ],
      [
        "Ġ2008",
        -8.955717424200149
      ],
      [
        "Ġunderstanding",
        -8.956138093620426
      ],
      [
        "Ġparents",
        -8.956392414750697
      ],
      [
        "Ġprevious",
        -8.95641951206012
      ],
      [
        "en",
        -8.957484082452225
      ],
      [
        "Ġsometime",
        -8.958194333515085
      ],
      [
        "Ġreported",
        -8.960142786255533
      ],
      [
        "Ġimage",
        -8.961714074155722
      ],
      [
        "ĠSt",
        -8.963828892370858
      ],
      [
        "Ġdeep",
        -8.966181358872575
      ],
      [
        "Ġweight",
        -8.966853774801576
      ],
      [
        "Ġ=",
        -8.966996012018216
      ],
      [
        "Ġlate",
        -8.969589430634546
      ],
      [
        "Ġskin",
        -8.971773006288762
      ],
      [
        "based",
        -8.972734492431373
      ],
      [
        "Ġthroughout",
        -8.973869648106122
      ],
      [
        "Ġreading",
        -8.974156728235506
      ],
      [
        "Ġreason",
        -8.975277476498851
      ],
      [
        "Ġhours",
        -8.976641138034658
      ],
      [
        "ĠAfter",
        -8.976863178943086
      ],
      [
        "Ġmanagement",
        -8.977288132813023
      ],
      [
        "Ġtrue",
        -8.977946844420373
      ],
      [
        "Ġpoor",
        -8.979375562942543
      ],
      [
        "Ġscientific",
        -8.980924123800879
      ],
      [
        "Ġbehavior",
        -8.983566927999858
      ],
      [
        "Ġshows",
        -8.984827188442162
      ],
      [
        "Ġago",
        -8.986179043122393
      ],
      [
        "Ġcontact",
        -8.986353961214586
      ],
      [
        "ĠUS",
        -8.986905864485689
      ],
      [
        "Ġquick",
        -8.988135144757393
      ],
      [
        "Ġact",
        -8.988669291902136
      ],
      [
        "Ġled",
        -8.988676666711495
      ],
      [
        "Ġparts",
        -8.988821646565416
      ],
      [
        "Ġlink",
        -8.989488714455259
      ],
      [
        "Ġfinding",
        -8.989527987717793
      ],
      [
        "Ġincreasing",
        -8.990066249189592
      ],
      [
        "Ġgreater",
        -8.990690167869944
      ],
      [
        "Ġschools",
        -8.991126243058991
      ],
      [
        "Ġinterest",
        -8.99223246850448
      ],
      [
        "Ġinternational",
        -8.993514390664105
      ],
      [
        "Ġlonger",
        -8.994775968138951
      ],
      [
        "Ġtell",
        -8.994907383930608
      ],
      [
        "Ġstructure",
        -8.995444670502506
      ],
      [
        "Ġcaused",
        -8.995491790873672
      ],
      [
        "Ġmethod",
        -8.995887801649635
      ],
      [
        "Ġterms",
        -8.998169153841664
      ],
      [
        "But",
        -9.001120338637831
      ],
      [
        "Ġsea",
        -9.002927874342578
      ],
      [
        "Ġkind",
        -9.005198248820019
      ],
      [
        "Ġplan",
        -9.005890207280387
      ],
      [
        "ĠSchool",
        -9.006056271790193
      ],
      [
        "Ġpersonal",
        -9.007448294644552
      ],
      [
        "Ġ16",
        -9.008664635243823
      ],
      [
        "Ġmean",
        -9.009943371931591
      ],
      [
        "Ġlot",
        -9.010998108411531
      ],
      [
        "ĠGerman",
        -9.0113507693948
      ],
      [
        "Ġtreat",
        -9.012996231925673
      ],
      [
        "org",
        -9.013619760864197
      ],
      [
        "Ġattempt",
        -9.01412239171732
      ],
      [
        "Ġfeet",
        -9.014212628047778
      ],
      [
        "Ġtemperature",
        -9.015714012537837
      ],
      [
        "Ġgenerally",
        -9.016773727014984
      ],
      [
        "Ġforce",
        -9.01814908979996
      ],
      [
        "Ġsix",
        -9.01857511638804
      ],
      [
        "Ġproduced",
        -9.01892796648541
      ],
      [
        "Ġwritten",
        -9.020288532405653
      ],
      [
        "Ġanalysis",
        -9.020552747982451
      ],
      [
        "Ġ14",
        -9.020960380740773
      ],
      [
        "Ġcall",
        -9.02203711079883
      ],
      [
        "Ġsituation",
        -9.024246793723693
      ],
      [
        "Ġworks",
        -9.02442649651203
      ],
      [
        "ĠEuropean",
        -9.024962891603632
      ],
      [
        "Ġbelieve",
        -9.02501535579094
      ],
      [
        "Ġshown",
        -9.028074757675943
      ],
      [
        "12",
        -9.028186318860392
      ],
      [
        "Ġ25",
        -9.030651339125612
      ],
      [
        "Ġfall",
        -9.033675628274407
      ],
      [
        "Ġbusiness",
        -9.03657686634539
      ],
      [
        "Ġindustry",
        -9.036728742098742
      ],
      [
        "Ġadd",
        -9.037360237635427
      ],
      [
        "Ġdesigned",
        -9.038019234978863
      ],
      [
        "Ġprobably",
        -9.038894789606244
      ],
      [
        "man",
        -9.039184776030144
      ],
      [
        "Ġsuggest",
        -9.03928241194362
      ],
      [
        "Ġturn",
        -9.040459994060784
      ],
      [
        "Ġheld",
        -9.041242579587726
      ],
      [
        "Ġtaking",
        -9.041819809336712
      ],
      [
        "Ġfactors",
        -9.044379726363305
      ],
      [
        "Ġdepend",
        -9.045728190923176
      ],
      [
        "www",
        -9.045927489757716
      ],
      [
        "Ġdiscover",
        -9.048704204964078
      ],
      [
        "Ġpopular",
        -9.050419849864484
      ],
      [
        "Ġmilitary",
        -9.051511530142804
      ],
      [
        "Ġsociety",
        -9.051946951670892
      ],
      [
        "Ġ2007",
        -9.05223352447673
      ],
      [
        "Ġinfluence",
        -9.052517916288078
      ],
      [
        "Ġ19",
        -9.053730762415803
      ],
      [
        "ĠEurope",
        -9.054030456839014
      ],
      [
        "ĠCalifornia",
        -9.054787574310652
      ],
      [
        "b",
        -9.056875873679456
      ],
      [
        "Ġmovement",
        -9.057714745920272
      ],
      [
        "Ġseries",
        -9.058321643662133
      ],
      [
        "ĠMarch",
        -9.058865434865192
      ],
      [
        "Ġthing",
        -9.061325960983336
      ],
      [
        "Ġstandard",
        -9.063013758056142
      ],
      [
        "...",
        -9.063380025783728
      ],
      [
        "Ġestablished",
        -9.06363658308714
      ],
      [
        "Ġ13",
        -9.064084167216922
      ],
      [
        "Ġincluded",
        -9.065022996067984
      ],
      [
        "ĠWith",
        -9.065063503587654
      ],
      [
        "Ġmind",
        -9.067817098235746
      ],
      [
        "Ġinvolved",
        -9.068283927193464
      ],
      [
        "Ġpolicy",
        -9.069954289436575
      ],
      [
        "ĠRiver",
        -9.074121412991056
      ],
      [
        "Ġtalk",
        -9.074143482928797
      ],
      [
        "Ġresponse",
        -9.07709705462315
      ],
      [
        "ĠJune",
        -9.077267378290532
      ],
      [
        "Ġcomplete",
        -9.079838799360504
      ],
      [
        "Ġonline",
        -9.08095270271416
      ],
      [
        "Ġevents",
        -9.08106498989367
      ],
      [
        "Ġaddress",
        -9.084175624590696
      ],
      [
        "Ġre",
        -9.084721500835984
      ],
      [
        "Ġcondition",
        -9.085098057476726
      ],
      [
        "Ġsources",
        -9.085235207060752
      ],
      [
        "Ġconsider",
        -9.086056990402655
      ],
      [
        "Ġanimal",
        -9.086652807614902
      ],
      [
        "Ġthus",
        -9.088314208178945
      ],
      [
        "Ġimprove",
        -9.088925910863876
      ],
      [
        "Ġpain",
        -9.089131977414338
      ],
      [
        "Ġfeel",
        -9.091610383784644
      ],
      [
        "Ġoccur",
        -9.09168610475479
      ],
      [
        "ĠPress",
        -9.092084422388607
      ],
      [
        "Ġdetermine",
        -9.09216251521534
      ],
      [
        "E",
        -9.092781903780724
      ],
      [
        "Ġheat",
        -9.094207316707678
      ],
      [
        "Ġmarket",
        -9.094762790686753
      ],
      [
        "Ġwhose",
        -9.09503038038436
      ],
      [
        "Ġfire",
        -9.095895691083689
      ],
      [
        "Ġincludes",
        -9.097342104714368
      ],
      [
        "Ġhouse",
        -9.098235046755496
      ],
      [
        "ĠWashington",
        -9.099220382717604
      ],
      [
        "Ġbasic",
        -9.10118116643441
      ],
      [
        "B",
        -9.101416496544498
      ],
      [
        "Ġculture",
        -9.101638901795592
      ],
      [
        "Ġrun",
        -9.102024955223245
      ],
      [
        "Ġtraining",
        -9.102776880417222
      ],
      [
        "Ġsolution",
        -9.103770148452066
      ],
      [
        "Ġsimply",
        -9.103976764190152
      ],
      [
        "M",
        -9.105024122650727
      ],
      [
        "Ġoutside",
        -9.106483494139953
      ],
      [
        "Ġvariety",
        -9.108169016846404
      ],
      [
        "ĠFrench",
        -9.10823570929414
      ],
      [
        "Ġcarbon",
        -9.108560304317397
      ],
      [
        "Ġtraditional",
        -9.110086832521317
      ],
      [
        "Ġdeveloping",
        -9.111095581454537
      ],
      [
        "Ġlocation",
        -9.111662948962715
      ],
      [
        "Ġalthough",
        -9.112742530397693
      ],
      [
        "Ġred",
        -9.112812612334931
      ],
      [
        "ĠO",
        -9.11386058821615
      ],
      [
        "Ġlack",
        -9.115383502537023
      ],
      [
        "Ġindividuals",
        -9.115733946565744
      ],
      [
        "Ġserious",
        -9.11691866821164
      ],
      [
        "Ġgrow",
        -9.122077642264708
      ],
      [
        "ĠHistory",
        -9.12573687585708
      ],
      [
        "Ġart",
        -9.127354272054257
      ],
      [
        "Ġskills",
        -9.128658509335336
      ],
      [
        "ĠShe",
        -9.131478036350408
      ],
      [
        "ĠII",
        -9.132140882153564
      ],
      [
        "Ġthird",
        -9.13335349630123
      ],
      [
        "ĠAfrican",
        -9.134447874570634
      ],
      [
        "ĠApril",
        -9.134922110115363
      ],
      [
        "ĠMany",
        -9.136803156999052
      ],
      [
        "Ġauthor",
        -9.138739600143726
      ],
      [
        "Ġessential",
        -9.140281829349064
      ],
      [
        "ĠWhile",
        -9.141136501996808
      ],
      [
        "Ġsample",
        -9.14145050342129
      ],
      [
        "Ġcontinue",
        -9.141649038608248
      ],
      [
        "Ġcomes",
        -9.142339674949172
      ],
      [
        "Ġspread",
        -9.142464925008406
      ],
      [
        "Ġprotect",
        -9.14247359520861
      ],
      [
        "ĠInternational",
        -9.147549062973308
      ],
      [
        "ĠChina",
        -9.150784999462552
      ],
      [
        "Ġetc",
        -9.152138029935193
      ],
      [
        "Ġlarger",
        -9.154057960683886
      ],
      [
        "Ġ17",
        -9.154271414830058
      ],
      [
        "Ġforms",
        -9.155266170903513
      ],
      [
        "Ġcompany",
        -9.156419741108776
      ],
      [
        "ĠJuly",
        -9.15767763071807
      ],
      [
        "Ġ/",
        -9.158633014859484
      ],
      [
        "ĠWest",
        -9.161086929937534
      ],
      [
        "Ġmiles",
        -9.161815498417438
      ],
      [
        "h",
        -9.16270987027922
      ],
      [
        "Ġfederal",
        -9.162919922453469
      ],
      [
        "Ġcut",
        -9.163019149178185
      ],
      [
        "Ġface",
        -9.166414624399156
      ],
      [
        "Ġrest",
        -9.16782354331749
      ],
      [
        "Ġcauses",
        -9.167888828060557
      ],
      [
        "Ġproper",
        -9.16879009287413
      ],
      [
        "Ġnation",
        -9.170251363605312
      ],
      [
        "Ġwent",
        -9.171036070823089
      ],
      [
        "Ġvisit",
        -9.171199103419088
      ],
      [
        "Ġlives",
        -9.17388660676365
      ],
      [
        "ĠPresident",
        -9.17664411753907
      ],
      [
        "Ġadded",
        -9.176810107057408
      ],
      [
        "You",
        -9.177814617290876
      ],
      [
        "Ġwriting",
        -9.17922990174484
      ],
      [
        "On",
        -9.1807836149181
      ],
      [
        "Ġmethods",
        -9.181028559727007
      ],
      [
        "Ġadditional",
        -9.18127291505732
      ],
      [
        "Ġbeginning",
        -9.182987927949512
      ],
      [
        "Ġreceived",
        -9.184364454616986
      ],
      [
        "by",
        -9.186358463733455
      ],
      [
        "ĠAct",
        -9.186710906200902
      ],
      [
        "Ġcolor",
        -9.186978562317927
      ],
      [
        "Ġprivate",
        -9.191224000861986
      ],
      [
        "Ġtherefore",
        -9.192517530401236
      ],
      [
        "Ġnumbers",
        -9.192945004926097
      ],
      [
        "Ġdiet",
        -9.19385963179011
      ],
      [
        "Ġnight",
        -9.194758762658298
      ],
      [
        "ĠAfrica",
        -9.196394080010377
      ],
      [
        "ĠMost",
        -9.19662720602338
      ],
      [
        "Ġinstead",
        -9.197192487350328
      ],
      [
        "Ġnearly",
        -9.19855366694469
      ],
      [
        "Ġtarget",
        -9.199977449765116
      ],
      [
        "Ġgrowing",
        -9.201779004986475
      ],
      [
        "Ġteachers",
        -9.205453086448776
      ],
      [
        "r",
        -9.20735701725082
      ],
      [
        "Ġattention",
        -9.208894505820869
      ],
      [
        "Ġprimary",
        -9.210274475136243
      ],
      [
        "Ġmonth",
        -9.210673095154466
      ],
      [
        "Ġsection",
        -9.210741201615436
      ],
      [
        "N",
        -9.211450606935202
      ],
      [
        "Ġdemand",
        -9.211946354423954
      ],
      [
        "Because",
        -9.212429932635205
      ],
      [
        "11",
        -9.212483330940811
      ],
      [
        "Ġreligious",
        -9.212574249320095
      ],
      [
        "Ġhealthy",
        -9.212946075100614
      ],
      [
        "Ġavoid",
        -9.215082235990192
      ],
      [
        "Ġhimself",
        -9.215995815578584
      ],
      [
        "ĠCounty",
        -9.216128589296678
      ],
      [
        "Ġbig",
        -9.216497452633693
      ],
      [
        "Ġobject",
        -9.217454526395256
      ],
      [
        "Ġe",
        -9.21924391787825
      ],
      [
        "ĠGeneral",
        -9.222434557179776
      ],
      [
        "Ġquite",
        -9.223564710524464
      ],
      [
        "ĠMore",
        -9.22411689953166
      ],
      [
        "Ġdiscuss",
        -9.224153340194617
      ],
      [
        "Ġ40",
        -9.22480308237936
      ],
      [
        "Ġfamilies",
        -9.225094488560783
      ],
      [
        "Ġshall",
        -9.225963892255995
      ],
      [
        "ĠIndia",
        -9.22664305634933
      ],
      [
        "ĠChurch",
        -9.227135056415042
      ],
      [
        "Ġ24",
        -9.2275538050537
      ],
      [
        "Ġappropriate",
        -9.227911176351808
      ],
      [
        "Ġcentral",
        -9.228721152096943
      ],
      [
        "Ġbuild",
        -9.230764030203993
      ],
      [
        "Ġmusic",
        -9.230914047150575
      ],
      [
        "Ġearth",
        -9.2312038523996
      ],
      [
        "Ġshare",
        -9.23187955845425
      ],
      [
        "Ġanswer",
        -9.232011804206667
      ],
      [
        "Ġ2006",
        -9.232230300624376
      ],
      [
        "ĠEngland",
        -9.232449331697952
      ],
      [
        "Ġcommunities",
        -9.232923105982469
      ],
      [
        "Ġgreen",
        -9.233302747726125
      ],
      [
        "Ġbrought",
        -9.234483452419628
      ],
      [
        "Ġsafety",
        -9.234561308345455
      ],
      [
        "Ġeasy",
        -9.23571560570894
      ],
      [
        "Ġflow",
        -9.236627945180029
      ],
      [
        "P",
        -9.23668204457283
      ],
      [
        "Ġfuel",
        -9.23727087383452
      ],
      [
        "ĠJanuary",
        -9.23831609297132
      ],
      [
        "Ġsound",
        -9.240101177456545
      ],
      [
        "Ġ21",
        -9.242729526523396
      ],
      [
        "Ġtry",
        -9.24331338894766
      ],
      [
        "Ġbooks",
        -9.243934900292672
      ],
      [
        "Ġsolar",
        -9.244799270109104
      ],
      [
        "Ġreceive",
        -9.245520190624363
      ],
      [
        "Ġlargest",
        -9.246942479827815
      ],
      [
        "Ġenter",
        -9.247053055713383
      ],
      [
        "Ġdirectly",
        -9.24733056563886
      ],
      [
        "Ġrecord",
        -9.247611416166764
      ],
      [
        "R",
        -9.24795493535246
      ],
      [
        "Ġsites",
        -9.247981929925956
      ],
      [
        "Ġseems",
        -9.248171177885135
      ],
      [
        "Ġdescribed",
        -9.249760833703387
      ],
      [
        "Ġteaching",
        -9.25215541302993
      ],
      [
        "Ġmass",
        -9.252802540634637
      ],
      [
        "x",
        -9.253976387278897
      ],
      [
        "ĠAlthough",
        -9.254211891654204
      ],
      [
        "Ġindicate",
        -9.255076597295409
      ],
      [
        "ĠIndian",
        -9.255132053561644
      ],
      [
        "Ġdoing",
        -9.255836401902652
      ],
      [
        "Ġdirect",
        -9.257875046551908
      ],
      [
        "ĠSeptember",
        -9.262116267668349
      ],
      [
        "F",
        -9.262711864288168
      ],
      [
        "Ġtree",
        -9.264159445933013
      ],
      [
        "Ġcritical",
        -9.264290679342093
      ],
      [
        "Ġlet",
        -9.264934233882837
      ],
      [
        "ĠCity",
        -9.266520249402747
      ],
      [
        "Ġfactor",
        -9.268785980781177
      ],
      [
        "Ġlost",
        -9.268953625304135
      ],
      [
        "Ġmale",
        -9.2702380550352
      ],
      [
        "Ġactive",
        -9.270951353575322
      ],
      [
        "ĠOctober",
        -9.273554484310765
      ],
      [
        "ĠKing",
        -9.275224331127424
      ],
      [
        "year",
        -9.27530792856412
      ],
      [
        "Ġdetail",
        -9.27586517740718
      ],
      [
        "st",
        -9.276738751349876
      ],
      [
        "Ġlove",
        -9.278945205249254
      ],
      [
        "Ġsearch",
        -9.279203519926057
      ],
      [
        "Ġsupply",
        -9.280190321076844
      ],
      [
        "Ġtrade",
        -9.280295982610571
      ],
      [
        "Ġcenter",
        -9.28037229986414
      ],
      [
        "Ġlimited",
        -9.28092433354446
      ],
      [
        "as",
        -9.281007660312238
      ],
      [
        "Ġlength",
        -9.28203326398657
      ],
      [
        "Ġperformance",
        -9.283032726696115
      ],
      [
        "Ġdescribe",
        -9.284032346407358
      ],
      [
        "Ġefforts",
        -9.285934937377991
      ],
      [
        "Ġmeaning",
        -9.28644985740666
      ],
      [
        "Ġproduct",
        -9.287630744446016
      ],
      [
        "Ġconsist",
        -9.287663027120477
      ],
      [
        "Ġdied",
        -9.288162249144616
      ],
      [
        "Ġsoon",
        -9.289880649769591
      ],
      [
        "Ġancient",
        -9.29104621984935
      ],
      [
        "Ġeat",
        -9.292107446169014
      ],
      [
        "*",
        -9.292383002958552
      ],
      [
        "Ġ2000",
        -9.2924531774855
      ],
      [
        "Ġeye",
        -9.292866289069233
      ],
      [
        "Ġdifference",
        -9.293075604886004
      ],
      [
        "Ġinfection",
        -9.294019528625531
      ],
      [
        "ĠJewish",
        -9.296739482818952
      ],
      [
        "Ġchemical",
        -9.297263806500808
      ],
      [
        "Ġideas",
        -9.297578976653629
      ],
      [
        "Ġ2005",
        -9.297648383016652
      ],
      [
        "Ġnetwork",
        -9.300194208335176
      ],
      [
        "Ġlocated",
        -9.300333200598136
      ],
      [
        "Ġformer",
        -9.300542818052955
      ],
      [
        ");",
        -9.30135900682708
      ],
      [
        "ĠAugust",
        -9.301686272985496
      ],
      [
        "Ġimages",
        -9.304555770635142
      ],
      [
        "Ġborn",
        -9.304888660393091
      ],
      [
        "Ġrapid",
        -9.30572962451959
      ],
      [
        "Ġfile",
        -9.305982517319231
      ],
      [
        "Ġdoesn",
        -9.306305242119818
      ],
      [
        "Ġevent",
        -9.306504738856216
      ],
      [
        "Ġsummer",
        -9.306748784391711
      ],
      [
        "Ġbenefits",
        -9.306990386623854
      ],
      [
        "Ġpatient",
        -9.30832676220752
      ],
      [
        "Ġattack",
        -9.308520987335664
      ],
      [
        "ĠCanada",
        -9.310084035235825
      ],
      [
        "Ġprotection",
        -9.310284507584145
      ],
      [
        "Ġcompared",
        -9.310350681846014
      ],
      [
        "Ġice",
        -9.310807428380263
      ],
      [
        "Ġtrees",
        -9.311070521422948
      ],
      [
        "p",
        -9.311912788748922
      ],
      [
        "Ġhistorical",
        -9.313168473638
      ],
      [
        "l",
        -9.313417442765806
      ],
      [
        "Ġcorrect",
        -9.314669195217412
      ],
      [
        "Ġelse",
        -9.315619877997946
      ],
      [
        "Ġrare",
        -9.315688617547584
      ],
      [
        "Ġtools",
        -9.316788521971963
      ],
      [
        "Ġuses",
        -9.317445619670051
      ],
      [
        "Ġproperty",
        -9.319637602277018
      ],
      [
        "Ġplann",
        -9.31980353114671
      ],
      [
        "ĠDecember",
        -9.31987586325107
      ],
      [
        "Ġprocedure",
        -9.32087502404595
      ],
      [
        "Ġbehind",
        -9.321310342731325
      ],
      [
        "Ġpoints",
        -9.32230641196024
      ],
      [
        "Ġisland",
        -9.326961188878755
      ],
      [
        "Ġlegal",
        -9.32734266947698
      ],
      [
        "ĠGreat",
        -9.327747965662809
      ],
      [
        "Ġstep",
        -9.328341996762267
      ],
      [
        "ĠSociety",
        -9.328475589864484
      ],
      [
        "Ġstarted",
        -9.329104974707764
      ],
      [
        "Ġtold",
        -9.32924441358731
      ],
      [
        "Ġcarry",
        -9.330618068684077
      ],
      [
        "Ġtend",
        -9.331063693925332
      ],
      [
        "Ġworkers",
        -9.331405003424289
      ],
      [
        "Ġhighly",
        -9.331723094790236
      ],
      [
        "Ġleading",
        -9.331842142479868
      ],
      [
        "Ġtoward",
        -9.331953815654431
      ],
      [
        "Ġeasily",
        -9.332093924727024
      ],
      [
        "like",
        -9.333028096234576
      ],
      [
        "Ġm",
        -9.333838556022837
      ],
      [
        "Ġwrote",
        -9.334345823493036
      ],
      [
        "ĠEducation",
        -9.334472169513656
      ],
      [
        "ĠRetrieved",
        -9.334791602895306
      ],
      [
        "Ġbegin",
        -9.335400943275951
      ],
      [
        "Ġhope",
        -9.335836126247848
      ],
      [
        "Ġforces",
        -9.33624823292127
      ],
      [
        "Ġdirection",
        -9.33653366730169
      ],
      [
        "Ġmedia",
        -9.337983202792346
      ],
      [
        "Ġrates",
        -9.338239684445838
      ],
      [
        "Ġexposure",
        -9.339822164370288
      ],
      [
        "Ġinside",
        -9.340282489591589
      ],
      [
        "Ġcollection",
        -9.340918830128214
      ],
      [
        "Ġdrug",
        -9.340934809710053
      ],
      [
        "Ġsent",
        -9.341352446825884
      ],
      [
        "ĠJournal",
        -9.341482023214636
      ],
      [
        "up",
        -9.343660922194545
      ],
      [
        "Ġensure",
        -9.343698627066471
      ],
      [
        "Ġpositive",
        -9.343877475544671
      ],
      [
        "Ġconcern",
        -9.343940851760744
      ],
      [
        "One",
        -9.344498676379112
      ],
      [
        "Ġtown",
        -9.344949031869335
      ],
      [
        "ĠX",
        -9.345474540483156
      ],
      [
        "Ġnorth",
        -9.345506353328622
      ],
      [
        "Ġtravel",
        -9.34585022322123
      ],
      [
        "Ġuseful",
        -9.346162530643513
      ],
      [
        "Ġdocument",
        -9.346368092461937
      ],
      [
        "Ġgetting",
        -9.34886761979758
      ],
      [
        "Ġcontinued",
        -9.350592396512123
      ],
      [
        "Ġapplication",
        -9.352069536336373
      ],
      [
        "Ġtakes",
        -9.352260527421311
      ],
      [
        "Ġpp",
        -9.353841086744868
      ],
      [
        "Ġbasis",
        -9.354432474187798
      ],
      [
        "ĠAmericans",
        -9.355396882149522
      ],
      [
        "Ġnothing",
        -9.356406329981256
      ],
      [
        "ĠFrom",
        -9.356692424350287
      ],
      [
        "Ġbillion",
        -9.357234839952376
      ],
      [
        "Ġdeal",
        -9.359146658161942
      ],
      [
        "Ġanti",
        -9.359279535234228
      ],
      [
        "Ġlooking",
        -9.35934039699042
      ],
      [
        "Ġsleep",
        -9.359626786415172
      ],
      [
        "Ġkids",
        -9.35976931753314
      ],
      [
        "ĠNovemb",
        -9.361316776584813
      ],
      [
        "Ġmember",
        -9.361419695326152
      ],
      [
        "Ġrecently",
        -9.362822699259253
      ],
      [
        "Ġgain",
        -9.363224659580846
      ],
      [
        "Ġwind",
        -9.364303631036297
      ],
      [
        "Ġfeatures",
        -9.365981953462716
      ],
      [
        "Ġexercise",
        -9.366098190381155
      ],
      [
        "Ġlayer",
        -9.366291696875502
      ],
      [
        "ĠFirst",
        -9.367691132266645
      ],
      [
        "Ġ2013",
        -9.368929187683747
      ],
      [
        "ry",
        -9.36954843623458
      ],
      [
        "Ġsun",
        -9.36959823192738
      ],
      [
        "Ġcultural",
        -9.37040110340754
      ],
      [
        "Ġunique",
        -9.370554622498926
      ],
      [
        "term",
        -9.371112006513323
      ],
      [
        "Ġspeed",
        -9.372229358458778
      ],
      [
        "ĠV",
        -9.372244524235374
      ],
      [
        "Ġson",
        -9.372745146374708
      ],
      [
        "Ġvideo",
        -9.373420061670457
      ],
      [
        "Ġwebsite",
        -9.37417829434458
      ],
      [
        "Ġaspect",
        -9.37601639252341
      ],
      [
        "Ġmeasure",
        -9.376854553167558
      ],
      [
        "âĢ¢",
        -9.377324240123718
      ],
      [
        "ĠUnion",
        -9.37808076676406
      ],
      [
        "Ġremains",
        -9.379331090480491
      ],
      [
        "And",
        -9.38145592552494
      ],
      [
        "ers",
        -9.381840648087907
      ],
      [
        "T",
        -9.38264552316068
      ],
      [
        "Ġam",
        -9.38331331033111
      ],
      [
        "Ġdiscussion",
        -9.384301916312802
      ],
      [
        "Ġdate",
        -9.38519501406788
      ],
      [
        "Ġmultiple",
        -9.385315924489634
      ],
      [
        "Ġmessage",
        -9.386765340223532
      ],
      [
        "Ġpre",
        -9.387129345859991
      ],
      [
        "Ġearlier",
        -9.38745475972903
      ],
      [
        "ĠLondon",
        -9.388342092853163
      ],
      [
        "Ġstress",
        -9.38943298575449
      ],
      [
        "ĠAssociation",
        -9.39064865052394
      ],
      [
        "for",
        -9.39103906206764
      ],
      [
        "ĠCongress",
        -9.39120035668344
      ],
      [
        "Ġtests",
        -9.391527527975049
      ],
      [
        "Ġrise",
        -9.391903209927728
      ],
      [
        "Ġmeeting",
        -9.39419570663866
      ],
      [
        "Ġcode",
        -9.394456426143767
      ],
      [
        "Ġbirth",
        -9.39524488215403
      ],
      [
        "Ġmother",
        -9.396549338256724
      ],
      [
        "ĠHouse",
        -9.396572112335743
      ],
      [
        "Ġdaily",
        -9.396865988756195
      ],
      [
        "Ġhumans",
        -9.397445550103171
      ],
      [
        "Ġexpected",
        -9.397446330951926
      ],
      [
        "By",
        -9.398047677349265
      ],
      [
        "Ġexact",
        -9.399026997780544
      ],
      [
        "Ġestimate",
        -9.399508812500208
      ],
      [
        "Ġelements",
        -9.39994826240546
      ],
      [
        "Ġcommand",
        -9.400620937672691
      ],
      [
        "ĠEast",
        -9.40097304036895
      ],
      [
        "Ġsecurity",
        -9.401402670882389
      ],
      [
        "Ġfront",
        -9.402402287350368
      ],
      [
        "Ġfather",
        -9.402733244900643
      ],
      [
        "Ġlines",
        -9.403129668963192
      ],
      [
        "Ġstandards",
        -9.404100114818972
      ],
      [
        "Ġtrial",
        -9.404173475635805
      ],
      [
        "Ġvalues",
        -9.404219220973513
      ],
      [
        "Ġmeet",
        -9.404684680155702
      ],
      [
        "see",
        -9.405027787199312
      ],
      [
        "Ġcompanies",
        -9.405434636339288
      ],
      [
        "Ġsouth",
        -9.4056976608229
      ],
      [
        "Ġsaw",
        -9.40613394763389
      ],
      [
        "20",
        -9.406790685783074
      ],
      [
        "Ġcheck",
        -9.407775832011966
      ],
      [
        "Ġreview",
        -9.408206869511304
      ],
      [
        "Ġgenetic",
        -9.410405122491676
      ],
      [
        "Ġweeks",
        -9.410649599954445
      ],
      [
        "Ġversion",
        -9.411535319774323
      ],
      [
        "Ġinstance",
        -9.41158216641618
      ],
      [
        "Ġcold",
        -9.4116327692079
      ],
      [
        "Ġbase",
        -9.411717001112216
      ],
      [
        "Ġsevere",
        -9.412199863735916
      ],
      [
        "Ġmemory",
        -9.41289428442948
      ],
      [
        "Ġmiddle",
        -9.413193211390352
      ],
      [
        "Ġeffort",
        -9.413252380892793
      ],
      [
        "Ġaffect",
        -9.41348828564542
      ],
      [
        "Ġseem",
        -9.413901770397118
      ],
      [
        "Ġstation",
        -9.41475626158367
      ],
      [
        "Ġinitial",
        -9.414971650933156
      ],
      [
        "Ġnamed",
        -9.41504868726244
      ],
      [
        "Ġshape",
        -9.416169509558044
      ],
      [
        "time",
        -9.418296086565672
      ],
      [
        "Ġsoftware",
        -9.418330344745948
      ],
      [
        "Ġsomeone",
        -9.419525873795305
      ],
      [
        "Ġbirds",
        -9.420005800239805
      ],
      [
        "Ġprotein",
        -9.420978086507832
      ],
      [
        "Ġstatement",
        -9.421024751209394
      ],
      [
        "Ġweather",
        -9.42167516272568
      ],
      [
        "Ġcosts",
        -9.423294986276463
      ],
      [
        "Ġasked",
        -9.42460301086657
      ],
      [
        "Ġobjects",
        -9.425437079999323
      ],
      [
        "ĠHIV",
        -9.425914255146049
      ],
      [
        "Ġrelationship",
        -9.426091406160063
      ],
      [
        "Ġdisplay",
        -9.426843264591753
      ],
      [
        "Ġconstruction",
        -9.426850827487678
      ],
      [
        "Ġremain",
        -9.426969149320476
      ],
      [
        "ĠSan",
        -9.427591138051762
      ],
      [
        "Ġbenefit",
        -9.427833676988786
      ],
      [
        "Ġsafe",
        -9.429219518020997
      ],
      [
        "ation",
        -9.431741100641151
      ],
      [
        "ĠWilliam",
        -9.4318455052661
      ],
      [
        "Ġolder",
        -9.432498863239152
      ],
      [
        "An",
        -9.432862380158689
      ],
      [
        "Ġfoods",
        -9.432952445355108
      ],
      [
        "Ġbeyond",
        -9.433056758796493
      ],
      [
        "ĠFebruary",
        -9.43307106543562
      ],
      [
        "Ġgave",
        -9.434284536960917
      ],
      [
        "ĠFrance",
        -9.43444294019178
      ],
      [
        "Ġadults",
        -9.43512488416969
      ],
      [
        "Ġi",
        -9.43572628845972
      ],
      [
        "Ġask",
        -9.436689323481849
      ],
      [
        "H",
        -9.436894051732205
      ],
      [
        "Ġ2004",
        -9.4378400293517
      ],
      [
        "Ġmental",
        -9.4379671688717
      ],
      [
        "Ġconnection",
        -9.43889545555618
      ],
      [
        "Ġprojects",
        -9.439101838209837
      ],
      [
        "Ġexpert",
        -9.439177505310267
      ],
      [
        "L",
        -9.44117032816926
      ],
      [
        "Ġdry",
        -9.4425344887557
      ],
      [
        "Ġstay",
        -9.442689924720693
      ],
      [
        "Ġgoal",
        -9.443209622335512
      ],
      [
        "Ġgot",
        -9.443443625246005
      ],
      [
        "Ġpay",
        -9.443494581566766
      ],
      [
        "Ġwinter",
        -9.44403890942443
      ],
      [
        "Ġlaws",
        -9.444211074879348
      ],
      [
        "Ġsmaller",
        -9.444402148124892
      ],
      [
        "Ġeconomy",
        -9.4446018778732
      ],
      [
        "Ġminutes",
        -9.445731239362413
      ],
      [
        "Ġdrugs",
        -9.447557965290226
      ],
      [
        "Ġperform",
        -9.448384996826196
      ],
      [
        "Ġhold",
        -9.448416764406565
      ],
      [
        "Ġ...",
        -9.448538045572072
      ],
      [
        "Ġgame",
        -9.448989875393371
      ],
      [
        "Ġperhaps",
        -9.449274961446282
      ],
      [
        "Ġchurch",
        -9.450004911923084
      ],
      [
        "Ġx",
        -9.450790557246355
      ],
      [
        "Ġimportance",
        -9.450905786003185
      ],
      [
        "Ġhands",
        -9.451119050456784
      ],
      [
        "Ġwrite",
        -9.451451471299166
      ],
      [
        "Ġscale",
        -9.452058627438936
      ],
      [
        "ĠCouncil",
        -9.45320484809371
      ],
      [
        "Ġdiseases",
        -9.454058472003007
      ],
      [
        "Ġ22",
        -9.454553622894572
      ],
      [
        "Ġresponsible",
        -9.454926310669062
      ],
      [
        "Ġinstitution",
        -9.454955179082074
      ],
      [
        "Ġexplain",
        -9.455784334673156
      ],
      [
        "Ġdegree",
        -9.45628883038947
      ],
      [
        "Ġequal",
        -9.456633798147756
      ],
      [
        "Ġprocesses",
        -9.456825008642156
      ],
      [
        "Ġreach",
        -9.457315492966258
      ],
      [
        "ĠGreek",
        -9.457517062637764
      ],
      [
        "Ġdestroy",
        -9.45818312680215
      ],
      [
        "Ġsuccess",
        -9.45886860751808
      ],
      [
        "Ġalone",
        -9.45887109017531
      ],
      [
        "ĠChinese",
        -9.460395594442431
      ],
      [
        "Ġuser",
        -9.461616434158984
      ],
      [
        "Ġchance",
        -9.462603830660695
      ],
      [
        "Ġrelease",
        -9.463862412103014
      ],
      [
        "O",
        -9.464276571015995
      ],
      [
        "Ġcharge",
        -9.464313162606407
      ],
      [
        "Ġformed",
        -9.465386058615367
      ],
      [
        "Ġindependent",
        -9.466118404446943
      ],
      [
        "ĠOther",
        -9.466639635025704
      ],
      [
        "ĠDNA",
        -9.46821305067524
      ],
      [
        "Ġstage",
        -9.46860234933049
      ],
      [
        "Ġwoman",
        -9.469268298154416
      ],
      [
        "ĠJesus",
        -9.46988373355056
      ],
      [
        "ĠChristian",
        -9.470222264380924
      ],
      [
        "Ġvehicle",
        -9.47076844986563
      ],
      [
        "Ġspend",
        -9.471124202138451
      ],
      [
        "Ġriver",
        -9.471252969318805
      ],
      [
        "Ġidentify",
        -9.471950252085286
      ],
      [
        "Ġrule",
        -9.47220959611857
      ],
      [
        "Ġstop",
        -9.473632707344883
      ],
      [
        "Ġbad",
        -9.473960205903198
      ],
      [
        "Ġsetting",
        -9.476112181196266
      ],
      [
        "ĠYour",
        -9.477483388724949
      ],
      [
        "ĠDay",
        -9.4780592058952
      ],
      [
        "Ġnative",
        -9.47822482329624
      ],
      [
        "Ġanything",
        -9.479206531303438
      ],
      [
        "Ġdead",
        -9.479448485271623
      ],
      [
        "Ġroom",
        -9.48063381058714
      ],
      [
        "Ġnuclear",
        -9.481162510984014
      ],
      [
        "Ġallows",
        -9.481560252851576
      ],
      [
        "Ġcharacter",
        -9.48332782756111
      ],
      [
        "Ġteacher",
        -9.483896754862638
      ],
      [
        "Ġequipment",
        -9.484944564891828
      ],
      [
        "ĠInternet",
        -9.48738765541338
      ],
      [
        "ĠJews",
        -9.487995849261752
      ],
      [
        "ĠGovernment",
        -9.49224140388611
      ],
      [
        "Ġplaces",
        -9.492746547704504
      ],
      [
        "W",
        -9.492991264186417
      ],
      [
        "Ġalternative",
        -9.49429326812966
      ],
      [
        "These",
        -9.496380545091146
      ],
      [
        "Ġforest",
        -9.497203737242048
      ],
      [
        "Ġtesting",
        -9.498386083300003
      ],
      [
        "Ġwalk",
        -9.498570758394644
      ],
      [
        "Ġco",
        -9.498784583373876
      ],
      [
        "ĠGermany",
        -9.499088022960908
      ],
      [
        "Ġjoin",
        -9.500108377589866
      ],
      [
        "Ġorganization",
        -9.50020113906568
      ],
      [
        "So",
        -9.501028584242793
      ],
      [
        "Ġfinancial",
        -9.501159230050536
      ],
      [
        "Ġprogress",
        -9.502125573450408
      ],
      [
        "Ġcar",
        -9.503078907628332
      ],
      [
        "Ġwaste",
        -9.503984851515622
      ],
      [
        "Ġidentified",
        -9.504156627924798
      ],
      [
        "Ġnegative",
        -9.50416099212131
      ],
      [
        "Ġweb",
        -9.505131256110715
      ],
      [
        "Ġdevice",
        -9.505548311425205
      ],
      [
        "Ġoffice",
        -9.50591778896175
      ],
      [
        "Ġstatus",
        -9.506080369608522
      ],
      [
        "Ġ2003",
        -9.506278176501604
      ],
      [
        "Ġrelatively",
        -9.506331920568238
      ],
      [
        "Ġvirus",
        -9.506571542517111
      ],
      [
        "Ġsugar",
        -9.50671219496076
      ],
      [
        "Ġtechniques",
        -9.507327317551278
      ],
      [
        "ĠJames",
        -9.507729461420483
      ],
      [
        "Ġseparate",
        -9.50797598797738
      ],
      [
        "Ġcapital",
        -9.508143023482145
      ],
      [
        "ĠWeb",
        -9.50866398562042
      ],
      [
        "Ġapply",
        -9.50880217092641
      ],
      [
        "ĠDo",
        -9.509354521270232
      ],
      [
        "=",
        -9.51011459467029
      ],
      [
        "ĠDavid",
        -9.510433896824388
      ],
      [
        "Ġjob",
        -9.511947704063576
      ],
      [
        "Ġsuccessful",
        -9.513851858208987
      ],
      [
        "15",
        -9.51407763185523
      ],
      [
        "Ġmachine",
        -9.514426181594564
      ],
      [
        "ĠPark",
        -9.5149974867246
      ],
      [
        "Ġ60",
        -9.515036722741632
      ],
      [
        "Ġconcept",
        -9.516956169990712
      ],
      [
        "Ġwon",
        -9.518567275852435
      ],
      [
        "ĠCollege",
        -9.519945303099886
      ],
      [
        "Ġserve",
        -9.52113366111814
      ],
      [
        "At",
        -9.52234951246179
      ],
      [
        "Ġcount",
        -9.522611310626596
      ],
      [
        "Ġoccurs",
        -9.52688609647142
      ],
      [
        "Ġleave",
        -9.52757288535162
      ],
      [
        "ĠAustralia",
        -9.528024748298996
      ],
      [
        "ĠNASA",
        -9.528442086538243
      ],
      [
        "Ġvaccine",
        -9.5305925668754
      ],
      [
        "Ġmajority",
        -9.531155426204217
      ],
      [
        "Ġtypically",
        -9.53385891759229
      ],
      [
        "ĠGeorge",
        -9.534009928211724
      ],
      [
        "Ġreduced",
        -9.535082697359057
      ],
      [
        "Ġacid",
        -9.535405083374538
      ],
      [
        "Ġaim",
        -9.537106052456434
      ],
      [
        "Ġseek",
        -9.537236489469052
      ],
      [
        "ĠService",
        -9.537362381022303
      ],
      [
        "Ġapplications",
        -9.53864783761954
      ],
      [
        "Ġvolume",
        -9.538875886192823
      ],
      [
        "Ġpicture",
        -9.539717567237645
      ],
      [
        "Ġproviding",
        -9.540133492830076
      ],
      [
        "Ġplanet",
        -9.541493812389158
      ],
      [
        "ĠSince",
        -9.541625120937818
      ],
      [
        "During",
        -9.541808078186593
      ],
      [
        "Ġ2001",
        -9.54204290913608
      ],
      [
        "ĠRoman",
        -9.54254336805857
      ],
      [
        "Ġmeasures",
        -9.542556994218298
      ],
      [
        "Ġ23",
        -9.543255061988363
      ],
      [
        "Ġclean",
        -9.544211015155245
      ],
      [
        "Ġdistrict",
        -9.544453158049144
      ],
      [
        "Ġdark",
        -9.544825509903909
      ],
      [
        "Ġrace",
        -9.54485526627056
      ],
      [
        "Ġtitle",
        -9.545934010197453
      ],
      [
        "Ġmission",
        -9.548005955541289
      ],
      [
        "Ġdiabetes",
        -9.548081974046504
      ],
      [
        "ĠLord",
        -9.548696541098186
      ],
      [
        "Ġincome",
        -9.548910213299653
      ],
      [
        "Ġconstant",
        -9.549711095565732
      ],
      [
        "Ġradiation",
        -9.550644708420617
      ],
      [
        "Ġgives",
        -9.551559745030136
      ],
      [
        "Ġemissions",
        -9.551889388895564
      ],
      [
        "Ġreports",
        -9.552018053366474
      ],
      [
        "Ġcommercial",
        -9.55271179667766
      ],
      [
        "Ġapplied",
        -9.553407663539971
      ],
      [
        "Ġtowards",
        -9.553695412555896
      ],
      [
        "Ġaffected",
        -9.555267076847112
      ],
      [
        "ĠChrist",
        -9.555544233222133
      ],
      [
        "Ġeventual",
        -9.556407232572129
      ],
      [
        "Ġrelative",
        -9.556526288366914
      ],
      [
        "Ġfeeling",
        -9.557330110643631
      ],
      [
        "Ġbacteria",
        -9.557418886952448
      ],
      [
        "Ġrespect",
        -9.558528326612036
      ],
      [
        "ous",
        -9.558671287968115
      ],
      [
        "ĠSee",
        -9.559511630946544
      ],
      [
        "Ġprofessional",
        -9.559553397177364
      ],
      [
        "ĠWestern",
        -9.559863630241356
      ],
      [
        "Ġbecomes",
        -9.56096896106907
      ],
      [
        "Ġvia",
        -9.561051188355847
      ],
      [
        "ĠJapan",
        -9.56138858876843
      ],
      [
        "Ġcoming",
        -9.561815398645592
      ],
      [
        "Ġdistance",
        -9.563084278417952
      ],
      [
        "ĠEven",
        -9.563405367640886
      ],
      [
        "Some",
        -9.56370334508169
      ],
      [
        "Ġcontext",
        -9.564141119484912
      ],
      [
        "ĠMuseum",
        -9.565585736818829
      ],
      [
        "Ġseven",
        -9.566261009373612
      ],
      [
        "Ġfail",
        -9.567337166903204
      ],
      [
        "ĠAccording",
        -9.568564689012051
      ],
      [
        "Ġreferr",
        -9.56951752574267
      ],
      [
        "less",
        -9.570227315280526
      ],
      [
        "Ġten",
        -9.570334682181755
      ],
      [
        "Ġdifferences",
        -9.57126627249448
      ],
      [
        "Ġconflict",
        -9.571473629056776
      ],
      [
        "Ġfemale",
        -9.571832059481576
      ],
      [
        "ĠThen",
        -9.572296545351872
      ],
      [
        "Ġestablish",
        -9.57254728939922
      ],
      [
        "Ġcities",
        -9.57337711256146
      ],
      [
        "Ġbelief",
        -9.573490747158754
      ],
      [
        "Ġadopt",
        -9.573706711386658
      ],
      [
        "Ġfigure",
        -9.573851103849591
      ],
      [
        "Ġ2002",
        -9.573974738028411
      ],
      [
        "Ġchanged",
        -9.57498169877355
      ],
      [
        "Ġthinking",
        -9.575077406122531
      ],
      [
        "Ġrecords",
        -9.575439928651068
      ],
      [
        "Ġtherapy",
        -9.57569654967426
      ],
      [
        "Ġleaves",
        -9.576178661459936
      ],
      [
        "Ġcombination",
        -9.577524761313644
      ],
      [
        "ĠOf",
        -9.578666505130789
      ],
      [
        "Ġrules",
        -9.578894988382793
      ],
      [
        "Ġbroad",
        -9.57890347091635
      ],
      [
        "Ġprint",
        -9.579837792890542
      ],
      [
        "Ġopportunity",
        -9.58073716492292
      ],
      [
        "Ġpowerful",
        -9.580765642331633
      ],
      [
        "Ġshowed",
        -9.5817002228591
      ],
      [
        "Ġinteresting",
        -9.582059919703823
      ],
      [
        "Ġprice",
        -9.58388159977034
      ],
      [
        "Ġremember",
        -9.584117537995173
      ],
      [
        "Ġargument",
        -9.5846346135711
      ],
      [
        "He",
        -9.585307812216314
      ],
      [
        "Ġregular",
        -9.58598206228778
      ],
      [
        "Ġbit",
        -9.58666951995102
      ],
      [
        "Ġthousands",
        -9.586942574510518
      ],
      [
        "Ġnames",
        -9.586952354790776
      ],
      [
        "Ġdistribution",
        -9.587207303626998
      ],
      [
        "Ġexisting",
        -9.588389505381654
      ],
      [
        "Ġbaby",
        -9.588494801035129
      ],
      [
        "ĠPeople",
        -9.58919220196812
      ],
      [
        "Ġgene",
        -9.589679987457655
      ],
      [
        "Ġeyes",
        -9.589758958507176
      ],
      [
        "Ġapproximately",
        -9.58997277106339
      ],
      [
        "ce",
        -9.590318137973574
      ],
      [
        "ĠWater",
        -9.590790688386832
      ],
      [
        "Ġeducational",
        -9.590913912748098
      ],
      [
        "Ġforeign",
        -9.59094382833185
      ],
      [
        "Ġpresence",
        -9.59124776177091
      ],
      [
        "Ġgoes",
        -9.59133851883183
      ],
      [
        "Ġtrying",
        -9.591458981033211
      ],
      [
        "Ġexist",
        -9.591619328803356
      ],
      [
        "Ġcompletely",
        -9.591630397963703
      ],
      [
        "ĠAlso",
        -9.592419950818009
      ],
      [
        "Ġmoved",
        -9.592595599007458
      ],
      [
        "Ġstaff",
        -9.595339308534204
      ],
      [
        "Ġmodels",
        -9.595580076273562
      ],
      [
        "Ġcarri",
        -9.597698640544156
      ],
      [
        "ĠTexas",
        -9.598140789734046
      ],
      [
        "Ġcourt",
        -9.602362832864417
      ],
      [
        "Ġrespond",
        -9.60541563587019
      ],
      [
        "Ġcommunication",
        -9.605490101706671
      ],
      [
        "K",
        -9.60555913072368
      ],
      [
        "Ġeverything",
        -9.606138105654486
      ],
      [
        "Ġseason",
        -9.607371577212556
      ],
      [
        "Ġtable",
        -9.607757721454371
      ],
      [
        "Ġwhom",
        -9.60814174724597
      ],
      [
        "Ġmap",
        -9.60841616818526
      ],
      [
        "ities",
        -9.610800650253887
      ],
      [
        "Ġdefinition",
        -9.611057690495938
      ],
      [
        "ĠJapanese",
        -9.61159642364498
      ],
      [
        "13",
        -9.611685940076196
      ],
      [
        "ĠThus",
        -9.612029336396487
      ],
      [
        "30",
        -9.612875528770909
      ],
      [
        "Ġsubstance",
        -9.614258242302665
      ],
      [
        "Ġ+",
        -9.61487002087362
      ],
      [
        "Ġsave",
        -9.61505012864044
      ],
      [
        "Ġsexual",
        -9.615449014718113
      ],
      [
        "Ġnor",
        -9.61577838349673
      ],
      [
        "Ġcreating",
        -9.617162405283102
      ],
      [
        "Ġreference",
        -9.617390229218117
      ],
      [
        "Ġcapacity",
        -9.618127870075185
      ],
      [
        "it",
        -9.618404193516678
      ],
      [
        "Ġfarmer",
        -9.620846390122963
      ],
      [
        "Ġhot",
        -9.621042553309236
      ],
      [
        "Ġbelieved",
        -9.621188593112889
      ],
      [
        "Ġspring",
        -9.622998748050971
      ],
      [
        "Ġlaunch",
        -9.623000021892254
      ],
      [
        "Ġregions",
        -9.623751275407283
      ],
      [
        "Ġdevices",
        -9.623760309032292
      ],
      [
        "Ġprofessor",
        -9.62397656005742
      ],
      [
        "ar",
        -9.624267671687576
      ],
      [
        "ĠHere",
        -9.62622478519327
      ],
      [
        "Ġsignal",
        -9.626507006565404
      ],
      [
        "Ġfailure",
        -9.626891514976483
      ],
      [
        "Ġguide",
        -9.627095630338587
      ],
      [
        "Ġpractices",
        -9.627457380124683
      ],
      [
        "Ġdidn",
        -9.627680973756988
      ],
      [
        "Ġclinical",
        -9.628239225312663
      ],
      [
        "Ġeating",
        -9.629780121869366
      ],
      [
        "Ġtool",
        -9.630364882949925
      ],
      [
        "Ġrich",
        -9.630398049568798
      ],
      [
        "ĠNow",
        -9.63073027254312
      ],
      [
        "Ġusers",
        -9.63119035263596
      ],
      [
        "Ġtissue",
        -9.631530097612393
      ],
      [
        "ĠIsrael",
        -9.63200754556461
      ],
      [
        "Ġsend",
        -9.632038131693845
      ],
      [
        "k",
        -9.632469295724094
      ],
      [
        "Ġportion",
        -9.632532672333156
      ],
      [
        "ĠTheir",
        -9.632917483554555
      ],
      [
        "Ġtrack",
        -9.633227815860876
      ],
      [
        "Ġkilled",
        -9.633614274058656
      ],
      [
        "G",
        -9.634053634689868
      ],
      [
        "14",
        -9.634730903498564
      ],
      [
        "Ġreasons",
        -9.634812535724436
      ],
      [
        "Ġexpression",
        -9.635344340660218
      ],
      [
        "Ġgeneration",
        -9.636352525773882
      ],
      [
        "Ġdefined",
        -9.637058614146271
      ],
      [
        "Ġmoving",
        -9.637333316351668
      ],
      [
        "ĠMexico",
        -9.638559082934854
      ],
      [
        "Ġresource",
        -9.638980946751465
      ],
      [
        "Ġfamous",
        -9.64001740058598
      ],
      [
        "Ġn",
        -9.641235845516324
      ],
      [
        "Ġmedicine",
        -9.6423507460786
      ],
      [
        "Ġeight",
        -9.644427456335466
      ],
      [
        "ĠHuman",
        -9.644652578965156
      ],
      [
        "Ġtax",
        -9.645063585502005
      ],
      [
        "Ġhighest",
        -9.645832639480258
      ],
      [
        "Ġnote",
        -9.646205810652278
      ],
      [
        "Ġstrength",
        -9.646780238692152
      ],
      [
        "Ġsouthern",
        -9.646977632978832
      ],
      [
        "Ġworked",
        -9.64791071459601
      ],
      [
        "Ġparty",
        -9.648241345262596
      ],
      [
        "Ġ28",
        -9.64860691078635
      ],
      [
        "Ġstyle",
        -9.649249271590003
      ],
      [
        "Ġobservation",
        -9.64980051781055
      ],
      [
        "ary",
        -9.650014255596558
      ],
      [
        "Ġgarden",
        -9.650799153819182
      ],
      [
        "ĠEach",
        -9.651334319650092
      ],
      [
        "Ġdisorder",
        -9.651668520947958
      ],
      [
        "Ġnorthern",
        -9.652881997868183
      ],
      [
        "Ġobserv",
        -9.652885976667744
      ],
      [
        "Ġreleased",
        -9.653341318741674
      ],
      [
        ">",
        -9.653760861875938
      ],
      [
        "Ġchoose",
        -9.65405711418376
      ],
      [
        "Ġ1990",
        -9.6542418294369
      ],
      [
        "Ġfilm",
        -9.654513188407837
      ],
      [
        "While",
        -9.65519611828944
      ],
      [
        "Ġcross",
        -9.65812252806214
      ],
      [
        "Ġpattern",
        -9.658414097094814
      ],
      [
        "Ġslow",
        -9.660952248700063
      ],
      [
        "[",
        -9.661529243071
      ],
      [
        "Ġpiece",
        -9.662011159899183
      ],
      [
        "Ġpath",
        -9.66306093460788
      ],
      [
        "Ġfruit",
        -9.66412477335972
      ],
      [
        "Ġannual",
        -9.664395995408034
      ],
      [
        "Ġjoint",
        -9.664699607118765
      ],
      [
        "Ġreflect",
        -9.66474322869268
      ],
      [
        "ĠISBN",
        -9.6647681849532
      ],
      [
        "that",
        -9.665145903780385
      ],
      [
        "Ġletter",
        -9.66549151639592
      ],
      [
        "Ġtreated",
        -9.665875688321876
      ],
      [
        "Ġplans",
        -9.666020533417145
      ],
      [
        "ĠCourt",
        -9.66621572556002
      ],
      [
        "Ġsuggests",
        -9.669746100952592
      ],
      [
        "Ġc",
        -9.670212746411892
      ],
      [
        "âĢ¦",
        -9.670523161863567
      ],
      [
        "Ġ26",
        -9.67311276491302
      ],
      [
        "Ġspeech",
        -9.673311989442675
      ],
      [
        "Ġfat",
        -9.673501518949474
      ],
      [
        "Ġreligion",
        -9.674292877300283
      ],
      [
        "Ġoverall",
        -9.675058420331062
      ],
      [
        "Ġsort",
        -9.675313905036202
      ],
      [
        "Ġsurvey",
        -9.675609691820004
      ],
      [
        "Ġheavy",
        -9.676307857288856
      ],
      [
        "Ġorganizations",
        -9.677555194520044
      ],
      [
        "See",
        -9.677934781344494
      ],
      [
        "Ġimmediately",
        -9.681233705238126
      ],
      [
        "Ġlimit",
        -9.681825793538565
      ],
      [
        "Ġconducted",
        -9.682120203041856
      ],
      [
        "Ġdecades",
        -9.682787951706995
      ],
      [
        "Ġintroduced",
        -9.682797458107826
      ],
      [
        "Ġfriends",
        -9.683037721564128
      ],
      [
        "Ġrunning",
        -9.683674521434734
      ],
      [
        "Ġatmosphere",
        -9.684110889463538
      ],
      [
        "Ġvision",
        -9.684810451221749
      ],
      [
        "Ġupper",
        -9.685050465929004
      ],
      [
        "one",
        -9.68602788928169
      ],
      [
        "Ġlabor",
        -9.686663244265764
      ],
      [
        "Ġroad",
        -9.686944294460746
      ],
      [
        "Ġactual",
        -9.687269054967942
      ],
      [
        "ĠPaul",
        -9.687362774204358
      ],
      [
        "Ġwarm",
        -9.687389481274668
      ],
      [
        "Ġnews",
        -9.688092715625409
      ],
      [
        "Ġstories",
        -9.68843585068896
      ],
      [
        "Ġpresident",
        -9.688506018969262
      ],
      [
        "ĠChildren",
        -9.689299316635198
      ],
      [
        "men",
        -9.689631185002318
      ],
      [
        "Ġsquare",
        -9.689702606311524
      ],
      [
        "16",
        -9.689974363093858
      ],
      [
        "Ġofficial",
        -9.689999820113613
      ],
      [
        "Ġspeak",
        -9.690526180993237
      ],
      [
        "Ġproperties",
        -9.69084558910785
      ],
      [
        "ĠMedicine",
        -9.691656008472064
      ],
      [
        "Ġpromote",
        -9.692272881082568
      ],
      [
        "ĠOur",
        -9.692656661823085
      ],
      [
        "Ġpatterns",
        -9.693254644419005
      ],
      [
        "After",
        -9.693268413736776
      ],
      [
        "ĠMedical",
        -9.693428801756516
      ],
      [
        "ĠNot",
        -9.694486714161538
      ],
      [
        "Ġcampaign",
        -9.695104226062776
      ],
      [
        "Ġhost",
        -9.69613015183648
      ],
      [
        "Ġchoice",
        -9.6966183041019
      ],
      [
        "Ġking",
        -9.697143647361203
      ],
      [
        "ĠProgram",
        -9.697183139568262
      ],
      [
        "Ġblock",
        -9.69753840904264
      ],
      [
        "ĠIsland",
        -9.697812506475328
      ],
      [
        "Ġgiving",
        -9.6982114979455
      ],
      [
        "Ġmid",
        -9.699170695120504
      ],
      [
        "Ġ27",
        -9.700497994292634
      ],
      [
        "Ġleaders",
        -9.70164335547846
      ],
      [
        "Ġbreast",
        -9.702438495302136
      ],
      [
        "Ġcreation",
        -9.70275657436559
      ],
      [
        "Ġpredict",
        -9.70304324947282
      ],
      [
        "Ġchapter",
        -9.70337691455322
      ],
      [
        "ĠRobert",
        -9.703498623871852
      ],
      [
        "Ġforward",
        -9.704022267653391
      ],
      [
        "Ġ1999",
        -9.70431700789041
      ],
      [
        "Ġmoment",
        -9.70566148618399
      ],
      [
        "Ġpopulations",
        -9.705717850888869
      ],
      [
        "day",
        -9.705996145693158
      ],
      [
        "ĠArmy",
        -9.706918370585797
      ],
      [
        "Ġturned",
        -9.708340603451065
      ],
      [
        "Ġprior",
        -9.709203659727413
      ],
      [
        "Â°",
        -9.70967052553671
      ],
      [
        "ĠCatholic",
        -9.70973509748184
      ],
      [
        "ĠUse",
        -9.710053466297811
      ],
      [
        "Ġocean",
        -9.710354235650652
      ],
      [
        "ĠMr",
        -9.711147511319265
      ],
      [
        "which",
        -9.71125473752985
      ],
      [
        "Ġoperations",
        -9.71135354985522
      ],
      [
        "Ġfriend",
        -9.712235802687646
      ],
      [
        "Ġcivil",
        -9.713389323007585
      ],
      [
        "Ġwild",
        -9.71341382528529
      ],
      [
        "Ġevolution",
        -9.71347624815174
      ],
      [
        "Ġconduct",
        -9.71372715729303
      ],
      [
        "Ġraise",
        -9.714859086793677
      ],
      [
        "Ġdirector",
        -9.716517963926703
      ],
      [
        "Ġbone",
        -9.717038813626308
      ],
      [
        "ĠPublic",
        -9.717611536382991
      ],
      [
        "Ġestimat",
        -9.718256986108582
      ],
      [
        "Ġachieve",
        -9.718473636921962
      ],
      [
        "Ġdetails",
        -9.71870750323118
      ],
      [
        "Ġsoldier",
        -9.718852585424454
      ],
      [
        "Ġconservation",
        -9.719171688432272
      ],
      [
        "Ġdatabase",
        -9.719340110210764
      ],
      [
        "ĠSpanish",
        -9.719458670140575
      ],
      [
        "Ġaid",
        -9.720257223930444
      ],
      [
        "Ġeveryone",
        -9.721014137349597
      ],
      [
        "Ġfunctions",
        -9.721676773863518
      ],
      [
        "Ġbottom",
        -9.722088558987387
      ],
      [
        "Ġrock",
        -9.722268238047985
      ],
      [
        "Ġfast",
        -9.72237377624523
      ],
      [
        "Ġmeasurement",
        -9.723546330128258
      ],
      [
        "Ġopinion",
        -9.724050573024709
      ],
      [
        "ĠDevelopment",
        -9.724866082619696
      ],
      [
        "ĠSpace",
        -9.724937290704387
      ],
      [
        "Ġclearly",
        -9.725325502948143
      ],
      [
        "ĠProject",
        -9.725862548497872
      ],
      [
        "ability",
        -9.726221138625707
      ],
      [
        "Ġbuy",
        -9.726334504797013
      ],
      [
        "Ġshift",
        -9.726341855536823
      ],
      [
        "Ġliterature",
        -9.727619833404184
      ],
      [
        "Ġaccurate",
        -9.727908553036537
      ],
      [
        "Ġbalance",
        -9.72825864328792
      ],
      [
        "Ġtask",
        -9.729607941682966
      ],
      [
        "Ġfreedom",
        -9.730555337734252
      ],
      [
        "Ġtechnologies",
        -9.730793993542903
      ],
      [
        "Ġconsumption",
        -9.731829436470749
      ],
      [
        "Ġurban",
        -9.731878517757282
      ],
      [
        "Ġproposed",
        -9.732017782538763
      ],
      [
        "Ġsequence",
        -9.7327179023681
      ],
      [
        "Ġadult",
        -9.73279232323154
      ],
      [
        "Ġfields",
        -9.733477554116035
      ],
      [
        "Ġfrequently",
        -9.73347846871944
      ],
      [
        "ĠThomas",
        -9.73361794559919
      ],
      [
        "ĠEnergy",
        -9.734340180085123
      ],
      [
        "Ġsigns",
        -9.73548288508496
      ],
      [
        "Ġdigital",
        -9.73563867914824
      ],
      [
        "ĠBlack",
        -9.737938463424992
      ],
      [
        "Ġexamples",
        -9.739166734049489
      ],
      [
        "at",
        -9.740875177545403
      ],
      [
        "ĠLibrary",
        -9.741911731982514
      ],
      [
        "Ġsign",
        -9.742271597748136
      ],
      [
        "Ġefficient",
        -9.743287499582925
      ],
      [
        "Ġincreases",
        -9.745719600005367
      ],
      [
        "ĠHigh",
        -9.746119137074684
      ],
      [
        "Ġresistance",
        -9.74626126564443
      ],
      [
        "Ġv",
        -9.747515731853328
      ],
      [
        "Ġelectricity",
        -9.74844747072164
      ],
      [
        "Ġblue",
        -9.748464958275504
      ],
      [
        "Ġremoved",
        -9.74894950086732
      ],
      [
        "Ġgenes",
        -9.748990498038015
      ],
      [
        "Ġactions",
        -9.74899927215172
      ],
      [
        "Ġconstruct",
        -9.749184254290745
      ],
      [
        "Ġlearned",
        -9.7511020385759
      ],
      [
        "ĠInformation",
        -9.751688060862456
      ],
      [
        "Ġreduction",
        -9.751979782288936
      ],
      [
        "Ġextremely",
        -9.75282345453334
      ],
      [
        "ĠPacific",
        -9.752910848608712
      ],
      [
        "Ġdegrees",
        -9.753073272075373
      ],
      [
        "Ġwrong",
        -9.755235009620396
      ],
      [
        "Ġorganic",
        -9.755684645256451
      ],
      [
        "Ġwest",
        -9.75653943619631
      ],
      [
        "Ġmilk",
        -9.757263807013334
      ],
      [
        "Ġpractical",
        -9.757592831342826
      ],
      [
        "ĠWhite",
        -9.75819955076258
      ],
      [
        "Ġnumerous",
        -9.75896662642674
      ],
      [
        "Ġdetermined",
        -9.759075272488856
      ],
      [
        "Ġelection",
        -9.760606967149515
      ],
      [
        "Ġauthority",
        -9.76108478684474
      ],
      [
        "Ġremained",
        -9.76129954671316
      ],
      [
        "Ġreached",
        -9.762484784778565
      ],
      [
        "With",
        -9.762529669473242
      ],
      [
        "Ġstructures",
        -9.762951760798527
      ],
      [
        "Ġhelps",
        -9.762986568414146
      ],
      [
        "Ġplease",
        -9.763838250028666
      ],
      [
        "Ġperformed",
        -9.763943047488969
      ],
      [
        "Ġfine",
        -9.76462845993095
      ],
      [
        "Ġinternal",
        -9.765429254049552
      ],
      [
        "Ġhuge",
        -9.765579209431252
      ],
      [
        "Ġarm",
        -9.76635357148676
      ],
      [
        "Ġcontribute",
        -9.766680746605212
      ],
      [
        "Ġhousehold",
        -9.767057538065217
      ],
      [
        "Ġresident",
        -9.76815215160702
      ],
      [
        "Ġoccurr",
        -9.76923437550541
      ],
      [
        "Ġtruth",
        -9.769436096164496
      ],
      [
        "Ġrequirements",
        -9.769629520614444
      ],
      [
        "Ġpeace",
        -9.77058070713526
      ],
      [
        "Ġwood",
        -9.771213460402572
      ],
      [
        "Ġsub",
        -9.771804697271032
      ],
      [
        "All",
        -9.771861538904457
      ],
      [
        "z",
        -9.771914845716012
      ],
      [
        "J",
        -9.77208632972481
      ],
      [
        "Ġgold",
        -9.77286652125175
      ],
      [
        "Ġoperation",
        -9.773221850712645
      ],
      [
        "Ġarmy",
        -9.773481230249272
      ],
      [
        "Ġboard",
        -9.773698889341464
      ],
      [
        "Ġcoast",
        -9.77428244607148
      ],
      [
        "Ġformation",
        -9.774568621841784
      ],
      [
        "+",
        -9.775212267972329
      ],
      [
        "25",
        -9.776410273407386
      ],
      [
        "Ġstar",
        -9.777595257307857
      ],
      [
        "Ġbodies",
        -9.777807278699523
      ],
      [
        "ĠSystem",
        -9.77791162206426
      ],
      [
        "Ġcomponents",
        -9.778035283051782
      ],
      [
        "ĠAsia",
        -9.778076708535036
      ],
      [
        "where",
        -9.778339786192472
      ],
      [
        "Ġimmune",
        -9.778600582584453
      ],
      [
        "Ġstorm",
        -9.779233769646517
      ],
      [
        "Ġmanner",
        -9.779653434088784
      ],
      [
        "kept",
        -9.77992017902566
      ],
      [
        "Ġcollege",
        -9.780036398637124
      ],
      [
        "Ġtri",
        -9.780772484095191
      ],
      [
        "Ġstem",
        -9.78090462217647
      ],
      [
        "Ġf",
        -9.78120129324204
      ],
      [
        "Ġ:",
        -9.781474208024852
      ],
      [
        "Ġcredit",
        -9.782045586289025
      ],
      [
        "ĠOffice",
        -9.782234244850542
      ],
      [
        "Ġisn",
        -9.782630615354089
      ],
      [
        "Ġarticles",
        -9.783155896786566
      ],
      [
        "f",
        -9.783574412974671
      ],
      [
        "Ġremove",
        -9.784181081267011
      ],
      [
        "ĠSea",
        -9.785414700494387
      ],
      [
        "Ġsteps",
        -9.785790362325455
      ],
      [
        "Ġtemperatures",
        -9.786134676027228
      ],
      [
        "Ġ1998",
        -9.786471966219729
      ],
      [
        "Ġfight",
        -9.786830369789977
      ],
      [
        "Ġpolicies",
        -9.78844951346906
      ],
      [
        "Ġcycle",
        -9.789706834695131
      ],
      [
        "Ġsex",
        -9.79109802062938
      ],
      [
        "Ġwall",
        -9.791153932775709
      ],
      [
        "Ġvisual",
        -9.7918787994419
      ],
      [
        "Ġcontrast",
        -9.79226634723
      ],
      [
        "Ġcitizens",
        -9.792313741995176
      ],
      [
        "Ġmouth",
        -9.792591850281918
      ],
      [
        "Ġbreak",
        -9.793529678306363
      ],
      [
        "Ġsignificantly",
        -9.793754816916312
      ],
      [
        "Ġencourage",
        -9.795644428270966
      ],
      [
        "ĠFoundation",
        -9.795929106399438
      ],
      [
        "Ġhundred",
        -9.796295293309884
      ],
      [
        "Ġsurgery",
        -9.796459543742657
      ],
      [
        "ized",
        -9.797198897565268
      ],
      [
        "Ġitems",
        -9.7974120726099
      ],
      [
        "Ġrecogniz",
        -9.799499255588204
      ],
      [
        "Ġclassroom",
        -9.7995895479956
      ],
      [
        "ia",
        -9.80042849995637
      ],
      [
        "Ġassessment",
        -9.801009993595716
      ],
      [
        "Ġpages",
        -9.80156224584825
      ],
      [
        "Ġpair",
        -9.80212145917886
      ],
      [
        "Ġ80",
        -9.803160463776084
      ],
      [
        "Ġhour",
        -9.804393869629198
      ],
      [
        "Ġindustrial",
        -9.805135864676622
      ],
      [
        "Ġworth",
        -9.80546165330268
      ],
      [
        "Ġspent",
        -9.80561065455788
      ],
      [
        "Ġeast",
        -9.806420195167972
      ],
      [
        "Ġbuildings",
        -9.806779493403909
      ],
      [
        "Ġnotes",
        -9.80698817178694
      ],
      [
        "Ġdie",
        -9.807083564182545
      ],
      [
        "Ġdouble",
        -9.808204920591384
      ],
      [
        "Ġviolence",
        -9.808454166067968
      ],
      [
        "Ġfear",
        -9.80972724846242
      ],
      [
        "Ġbattle",
        -9.810171523289467
      ],
      [
        "Ġextend",
        -9.81026810017967
      ],
      [
        "From",
        -9.81034542224207
      ],
      [
        "Ġpublication",
        -9.810778149447474
      ],
      [
        "Ġextensive",
        -9.813576358617
      ],
      [
        "Ġradio",
        -9.81434746549526
      ],
      [
        "Ġconfirm",
        -9.815740989245848
      ],
      [
        "Ġofficials",
        -9.816194711772146
      ],
      [
        "Ġbiological",
        -9.818225626664926
      ],
      [
        "ĠVirginia",
        -9.818303261347014
      ],
      [
        "Ġresulting",
        -9.819048329971023
      ],
      [
        "Ġopportunities",
        -9.819062008947752
      ],
      [
        "Ġkm",
        -9.819065435828694
      ],
      [
        "Ġpersons",
        -9.819072265277471
      ],
      [
        "Ġdebate",
        -9.820681016361526
      ],
      [
        "Ġ200",
        -9.821102909868646
      ],
      [
        "Ġalcohol",
        -9.821918147195532
      ],
      [
        "Ġdrive",
        -9.822429578338468
      ],
      [
        "Ġbecoming",
        -9.82329998592642
      ],
      [
        "Ġiron",
        -9.823513973609622
      ],
      [
        "ĠCentral",
        -9.823922916130192
      ],
      [
        "ĠLaw",
        -9.82396724877389
      ],
      [
        "18",
        -9.824451805229794
      ],
      [
        "u",
        -9.824472987177463
      ],
      [
        "Ġfeed",
        -9.824734837066137
      ],
      [
        "Ġmetal",
        -9.8249511612761
      ],
      [
        "Ġexistence",
        -9.825428203883456
      ],
      [
        "Ġoutcome",
        -9.82565631549709
      ],
      [
        "ĠLake",
        -9.826020893537343
      ],
      [
        "Ġorigin",
        -9.826959665575778
      ],
      [
        "ĠBritain",
        -9.827130910045977
      ],
      [
        "Ġexpect",
        -9.827380707559715
      ],
      [
        "Ġprinciples",
        -9.827688698079644
      ],
      [
        "Ġapparent",
        -9.827992463044692
      ],
      [
        "Ġhappen",
        -9.828119028183943
      ],
      [
        "That",
        -9.82853149588753
      ],
      [
        "Ġpress",
        -9.828819661309014
      ],
      [
        "Ġintended",
        -9.82902850516075
      ],
      [
        "ton",
        -9.829557445132048
      ],
      [
        "Ġcharacteristics",
        -9.82961069825261
      ],
      [
        "Ġauthors",
        -9.829928334664231
      ],
      [
        "Ġstrategies",
        -9.830185962650743
      ],
      [
        "Ġfundamental",
        -9.832494500587242
      ],
      [
        "Ġprimari",
        -9.832729643669555
      ],
      [
        "ĠCivil",
        -9.83273832661915
      ],
      [
        "Ġengineer",
        -9.833236375374687
      ],
      [
        "Ġclasses",
        -9.833382242096649
      ],
      [
        "Ġchallenge",
        -9.833881747913631
      ],
      [
        "Ġmoral",
        -9.833977678190614
      ],
      [
        "Ġmonitor",
        -9.835188434842822
      ],
      [
        "over",
        -9.83528309204617
      ],
      [
        "Ġoxygen",
        -9.835510499978843
      ],
      [
        "Ġwestern",
        -9.836542345479373
      ],
      [
        "Ġsurrounding",
        -9.836902018149338
      ],
      [
        "Ġfaith",
        -9.837076989112118
      ],
      [
        "Ġchief",
        -9.837114017841502
      ],
      [
        "Ġ29",
        -9.83747356202109
      ],
      [
        "Ġultimate",
        -9.83834153910819
      ],
      [
        "Ġcompleted",
        -9.839897346844966
      ],
      [
        "ĠCharles",
        -9.84095488509961
      ],
      [
        "Ġextent",
        -9.84173387068937
      ],
      [
        "Ġbackground",
        -9.843714972942724
      ],
      [
        "Ġdecided",
        -9.843831486377798
      ],
      [
        "Ġ90",
        -9.84448497141095
      ],
      [
        "Ġclick",
        -9.844619411849049
      ],
      [
        "ĠUK",
        -9.844711227266188
      ],
      [
        "Ġenable",
        -9.845274993105855
      ],
      [
        "Ġadvanced",
        -9.845538376146624
      ],
      [
        "Ġforced",
        -9.84560319191107
      ],
      [
        "Ġheard",
        -9.84729464134352
      ],
      [
        "Ġfit",
        -9.84764385903988
      ],
      [
        "Ġexcept",
        -9.84772597799813
      ],
      [
        "Ġfeature",
        -9.8492079730392
      ],
      [
        "what",
        -9.850558612125292
      ],
      [
        "Ġfossil",
        -9.85056998528296
      ],
      [
        "Ġrecognize",
        -9.850826947705515
      ],
      [
        "Ġreturned",
        -9.851513237118066
      ],
      [
        "Ġtechnique",
        -9.85157123533718
      ],
      [
        "Ġhabitat",
        -9.851748041987612
      ],
      [
        "ĠLatin",
        -9.852758133599837
      ],
      [
        "Ġsufficient",
        -9.852796009296844
      ],
      [
        "Ġanyone",
        -9.85321156592568
      ],
      [
        "U",
        -9.85360370588175
      ],
      [
        "17",
        -9.855231401776043
      ],
      [
        "ion",
        -9.855800044708207
      ],
      [
        "Ġserv",
        -9.855892135913264
      ],
      [
        "Ġexpos",
        -9.857189847276953
      ],
      [
        "Ġemail",
        -9.859979027787402
      ],
      [
        "ĠAir",
        -9.860447056862276
      ],
      [
        "Although",
        -9.861204011870432
      ],
      [
        "Ġobvious",
        -9.862558205790087
      ],
      [
        "Ġsaying",
        -9.863446648992376
      ],
      [
        "Ġ1997",
        -9.864080520763553
      ],
      [
        "ĠSun",
        -9.864602576120005
      ],
      [
        "Ġenjoy",
        -9.864611263429852
      ],
      [
        "Ġwanted",
        -9.864968586868688
      ],
      [
        "ĠEnvironmental",
        -9.865102292362216
      ],
      [
        "Ġliquid",
        -9.865370922926044
      ],
      [
        "Ġvirtual",
        -9.865435107897005
      ],
      [
        "Ġstand",
        -9.866810408590034
      ],
      [
        "New",
        -9.86828023327335
      ],
      [
        "Ġcore",
        -9.868501959661147
      ],
      [
        "Ġstars",
        -9.86850555910577
      ],
      [
        "Ġrecommended",
        -9.868744436716876
      ],
      [
        "Ġdog",
        -9.86940721661375
      ],
      [
        "Ġagreement",
        -9.870423184110544
      ],
      [
        "Ġemergenc",
        -9.87046583367422
      ],
      [
        "Ġdisorders",
        -9.870565351777632
      ],
      [
        "Ġattend",
        -9.870595396110804
      ],
      [
        "Ġtechnical",
        -9.870619994777352
      ],
      [
        "Ġexperiment",
        -9.871621598532473
      ],
      [
        "Ġprepared",
        -9.87162945980348
      ],
      [
        "Ġhair",
        -9.871897744242998
      ],
      [
        "Ġcoal",
        -9.872705054768192
      ],
      [
        "Ġextra",
        -9.873635911064484
      ],
      [
        "Ġdepression",
        -9.874034563285113
      ],
      [
        "ĠWhy",
        -9.874619288898142
      ],
      [
        "Ġpush",
        -9.87518117478124
      ],
      [
        "Ġmet",
        -9.875378634567165
      ],
      [
        "Ġteach",
        -9.875446954666232
      ],
      [
        "related",
        -9.876517399321376
      ],
      [
        "Y",
        -9.876841813965344
      ],
      [
        "ĠCommission",
        -9.877041919283052
      ],
      [
        "Ġexplore",
        -9.87883191116837
      ],
      [
        "Ġwife",
        -9.879969683175526
      ],
      [
        "ĠDur",
        -9.880986228055328
      ],
      [
        "Ġstore",
        -9.8810539181224
      ],
      [
        "ĠBe",
        -9.88133643240884
      ],
      [
        "Ġcausing",
        -9.881516306091848
      ],
      [
        "with",
        -9.882337280201936
      ],
      [
        "Ġwww",
        -9.883550657271496
      ],
      [
        "head",
        -9.883592544125584
      ],
      [
        "ĠLife",
        -9.883693678801006
      ],
      [
        "Ġagricultural",
        -9.88444990967397
      ],
      [
        "ĠBook",
        -9.887449180336358
      ],
      [
        "Ġperspective",
        -9.887500839430931
      ],
      [
        "Ġmuscle",
        -9.888035464286986
      ],
      [
        "Ġengineering",
        -9.88832648972826
      ],
      [
        "Ġoutput",
        -9.888523915170408
      ],
      [
        "Ġstorage",
        -9.888558922982511
      ],
      [
        "Ġship",
        -9.890798072062225
      ],
      [
        "Ġfacilities",
        -9.89180060449185
      ],
      [
        "Ġstarting",
        -9.891920212115233
      ],
      [
        "More",
        -9.894004719765867
      ],
      [
        "Ġinterested",
        -9.894650047326357
      ],
      [
        "Ġdecrease",
        -9.894884769500544
      ],
      [
        "Ġcombined",
        -9.895357236337905
      ],
      [
        "Ġrecorded",
        -9.895431262440702
      ],
      [
        "Ġbird",
        -9.896159697171422
      ],
      [
        "Ġ70",
        -9.898136673376758
      ],
      [
        "ĠTechnology",
        -9.898228314955652
      ],
      [
        "Ġplastic",
        -9.89966023250012
      ],
      [
        "Ġreaction",
        -9.900063709062508
      ],
      [
        "Ġconsistent",
        -9.90030101428878
      ],
      [
        "ĠRed",
        -9.900584451677746
      ],
      [
        "v",
        -9.90061107106229
      ],
      [
        "Ġchang",
        -9.901910892003997
      ],
      [
        "Ġadvantage",
        -9.90200678818477
      ],
      [
        "Ġrequest",
        -9.90281939694498
      ],
      [
        "ĠFederal",
        -9.903130938874172
      ],
      [
        "Ġjournal",
        -9.903151890360348
      ],
      [
        "Ġregarding",
        -9.903778440208264
      ],
      [
        "19",
        -9.905583111853524
      ],
      [
        "Ġnations",
        -9.905684384150716
      ],
      [
        "refore",
        -9.906031840573013
      ],
      [
        "Many",
        -9.906216165279703
      ],
      [
        "Ġcenturie",
        -9.906429432522678
      ],
      [
        "Ġleader",
        -9.907646120581118
      ],
      [
        "ĠFlorida",
        -9.908620853432025
      ],
      [
        "more",
        -9.910551496933367
      ],
      [
        "Ġacademic",
        -9.910693743860817
      ],
      [
        "Ġsalt",
        -9.910733131618858
      ],
      [
        "Ġbrief",
        -9.911757226697942
      ],
      [
        "Ġhear",
        -9.912222592747842
      ],
      [
        "ĠCommittee",
        -9.912291911196071
      ],
      [
        "Ġcopy",
        -9.912556093312594
      ],
      [
        "No",
        -9.912754145550467
      ],
      [
        "Ġparticipants",
        -9.913415060183508
      ],
      [
        "Ġpollution",
        -9.914589278791716
      ],
      [
        "ĠMiddle",
        -9.915869132303763
      ],
      [
        "Ġlinks",
        -9.916008429686077
      ],
      [
        "American",
        -9.916222334893831
      ],
      [
        "Ġmeat",
        -9.916282072231644
      ],
      [
        "Ġoffered",
        -9.916555552729928
      ],
      [
        "Ġexpand",
        -9.917370793008324
      ],
      [
        "Ġgoals",
        -9.917844512125978
      ],
      [
        "ĠCompany",
        -9.917999112283262
      ],
      [
        "Ġdecline",
        -9.91944344271224
      ],
      [
        "ĠTwo",
        -9.919473061970946
      ],
      [
        "Ġmentioned",
        -9.919592194752724
      ],
      [
        "Ġyourself",
        -9.92005564215998
      ],
      [
        "00",
        -9.92096174482026
      ],
      [
        "Ġagencies",
        -9.920998364430291
      ],
      [
        "&",
        -9.921187581931584
      ],
      [
        "ĠBay",
        -9.921858326000129
      ],
      [
        "Most",
        -9.922554877527984
      ],
      [
        "Ġparticles",
        -9.92283696101852
      ],
      [
        "Ġimproved",
        -9.922989434113449
      ],
      [
        "Ġroot",
        -9.924847916801486
      ],
      [
        "ĠFood",
        -9.924909151794918
      ],
      [
        "Ġchallenges",
        -9.924967922174275
      ],
      [
        "Ġready",
        -9.924977983949736
      ],
      [
        "Ġreducing",
        -9.92522855868705
      ],
      [
        "Ġchronic",
        -9.925759328275436
      ],
      [
        "Ġphase",
        -9.926467990208192
      ],
      [
        "ĠSocial",
        -9.927378609956987
      ],
      [
        "Ġvast",
        -9.927468500448883
      ],
      [
        "Ġtradition",
        -9.927474266282497
      ],
      [
        "Ġtopic",
        -9.927520556649984
      ],
      [
        "Ġwarming",
        -9.92767194286806
      ],
      [
        "Ġkill",
        -9.927774103273638
      ],
      [
        "Ġoptions",
        -9.928428618671774
      ],
      [
        "ĠCanadian",
        -9.92862934354794
      ],
      [
        "Ġoperating",
        -9.928881687951874
      ],
      [
        "ĠDe",
        -9.92900048652656
      ],
      [
        "Ġmotion",
        -9.92956447796536
      ],
      [
        "Ġelement",
        -9.929831765299213
      ],
      [
        "Ġdangerous",
        -9.930247448245613
      ],
      [
        "Ġotherwise",
        -9.931594437786956
      ],
      [
        "ĠOld",
        -9.931745750705108
      ],
      [
        "Other",
        -9.931796395290014
      ],
      [
        "Ġfrequency",
        -9.931976785157213
      ],
      [
        "Ġillness",
        -9.932124063784936
      ],
      [
        "Ġprices",
        -9.932506022315463
      ],
      [
        "Ġspirit",
        -9.932666281643131
      ],
      [
        "Ġfarm",
        -9.93268838799267
      ],
      [
        "Ġ1980",
        -9.933640088317022
      ],
      [
        "V",
        -9.933662951678244
      ],
      [
        "Ġmorning",
        -9.933672905383077
      ],
      [
        "Ġlibrary",
        -9.933683967164791
      ],
      [
        "Ġoperate",
        -9.933979630775436
      ],
      [
        "Ġappeared",
        -9.934256538739822
      ],
      [
        "Ġconnected",
        -9.934355448360934
      ],
      [
        "ĠHenry",
        -9.934751797328529
      ],
      [
        "Ġsubsequent",
        -9.934899715950054
      ],
      [
        "They",
        -9.935162064950406
      ],
      [
        "Ġpolice",
        -9.935499918826116
      ],
      [
        "old",
        -9.936652040774351
      ],
      [
        "Ġcrime",
        -9.93692177706474
      ],
      [
        "Ġorganiz",
        -9.937816848637354
      ],
      [
        "Ġ1996",
        -9.937977043186544
      ],
      [
        "Ġdaughter",
        -9.93824107298213
      ],
      [
        "Ġgenerat",
        -9.93930894210731
      ],
      [
        "Ġdiagnosis",
        -9.94050912923608
      ],
      [
        "@",
        -9.941379233353246
      ],
      [
        "According",
        -9.942071513771769
      ],
      [
        "Ġinfections",
        -9.942414622893384
      ],
      [
        "Ġachiev",
        -9.9426702163077
      ],
      [
        "Ġcollected",
        -9.943446431186608
      ],
      [
        "Ġstudied",
        -9.943556130251734
      ],
      [
        "Ġrecommend",
        -9.943725332262392
      ],
      [
        "Ġpermanent",
        -9.944533875648478
      ],
      [
        "Ġconcerns",
        -9.944553580653094
      ],
      [
        "Ġgrade",
        -9.944644102778136
      ],
      [
        "Ġwatch",
        -9.944948059086022
      ],
      [
        "ĠRussian",
        -9.94509174240338
      ],
      [
        "Ġmarriage",
        -9.945434417162494
      ],
      [
        "Ġprinciple",
        -9.946309868345551
      ],
      [
        "Ġuniverse",
        -9.947033781012331
      ],
      [
        "Ġfoot",
        -9.94761325071595
      ],
      [
        "ĠMy",
        -9.948693593224457
      ],
      [
        "Ġmanag",
        -9.94966580508718
      ],
      [
        "Ġscreen",
        -9.949682559279942
      ],
      [
        "ĠMary",
        -9.949922490931046
      ],
      [
        "Ġtube",
        -9.95127261992128
      ],
      [
        "Ġparent",
        -9.951996307334165
      ],
      [
        "Ġmanage",
        -9.952726895503982
      ],
      [
        "ĠBible",
        -9.952811725177632
      ],
      [
        "Ġeasier",
        -9.952830107865196
      ],
      [
        "Ġcontribution",
        -9.954617057542803
      ],
      [
        "Ġglass",
        -9.955231532257324
      ],
      [
        "22",
        -9.958196486795398
      ],
      [
        "Ġaccept",
        -9.958321625006027
      ],
      [
        "Ġexchange",
        -9.9585026414148
      ],
      [
        "ĠRights",
        -9.95892900908026
      ],
      [
        "ĠSoviet",
        -9.959464716498674
      ],
      [
        "Ġ1995",
        -9.959472786737424
      ],
      [
        "Ġexternal",
        -9.96021880325378
      ],
      [
        "Ġbox",
        -9.96213958346542
      ],
      [
        "Ġconclusion",
        -9.962673027907387
      ],
      [
        "Ġbank",
        -9.96319991091819
      ],
      [
        "Ġfresh",
        -9.963532906402689
      ],
      [
        "Ġpainting",
        -9.964910881383606
      ],
      [
        "Ġcontinues",
        -9.96534866460115
      ],
      [
        "Ġcouple",
        -9.965604834173336
      ],
      [
        "Ġamounts",
        -9.965873774794996
      ],
      [
        "Ġextreme",
        -9.96589267221077
      ],
      [
        "Ġdetect",
        -9.965949661448914
      ],
      [
        "Ġvitamin",
        -9.96600068368348
      ],
      [
        "Ġlandscape",
        -9.96604856561565
      ],
      [
        "Ġexhibit",
        -9.966156553969936
      ],
      [
        "ĠCo",
        -9.966267467145643
      ],
      [
        "ĠMars",
        -9.966271169050458
      ],
      [
        "Ġregional",
        -9.96643807894
      ],
      [
        "Ġaware",
        -9.966754410609196
      ],
      [
        "le",
        -9.967259426486867
      ],
      [
        "Ġchemicals",
        -9.968371583388372
      ],
      [
        "Ġmeasured",
        -9.968454390075165
      ],
      [
        "Ġheight",
        -9.968454666129151
      ],
      [
        "Ġ#",
        -9.970315065934823
      ],
      [
        "Ġlatter",
        -9.97037859485537
      ],
      [
        "Ġconnect",
        -9.97079829144657
      ],
      [
        "Ġdiscovery",
        -9.97116807651117
      ],
      [
        "ĠLa",
        -9.97163321560696
      ],
      [
        "Ġengine",
        -9.971775769600084
      ],
      [
        "Ġstone",
        -9.971836830769597
      ],
      [
        "Ġeggs",
        -9.973466235435463
      ],
      [
        "Ġfelt",
        -9.973530668154302
      ],
      [
        "ĠSuch",
        -9.973628341371326
      ],
      [
        "Ġdivided",
        -9.973888396367055
      ],
      [
        "Ġhospital",
        -9.97403938761931
      ],
      [
        "Ġobtained",
        -9.974573216860122
      ],
      [
        "Ġefficiency",
        -9.97483986023889
      ],
      [
        "Ġdomestic",
        -9.975738283004777
      ],
      [
        "Ġpull",
        -9.976901390705018
      ],
      [
        "Ġperfect",
        -9.97708409056034
      ],
      [
        "Ġelectrical",
        -9.977509027350155
      ],
      [
        "no",
        -9.977757021276997
      ],
      [
        "Ġpoverty",
        -9.977956682459306
      ],
      [
        "Ġbegins",
        -9.978399488753974
      ],
      [
        "Ġargue",
        -9.978525056202672
      ],
      [
        "ĠWomen",
        -9.978677971213406
      ],
      [
        "ĠGroup",
        -9.979097867703384
      ],
      [
        "Ġorbit",
        -9.9792621820333
      ],
      [
        "Ġlanguages",
        -9.979913742756269
      ],
      [
        "Ġnotice",
        -9.981661475165945
      ],
      [
        "Ġinjury",
        -9.981846647590563
      ],
      [
        "Ġcook",
        -9.982356644875969
      ],
      [
        "Ġflight",
        -9.983474562870953
      ],
      [
        "Ġideal",
        -9.983518189262744
      ],
      [
        "Ġrain",
        -9.984941327457204
      ],
      [
        "ĠSmith",
        -9.985810141258264
      ],
      [
        "Ġb",
        -9.986041418744133
      ],
      [
        "Ġdrinking",
        -9.986257544729895
      ],
      [
        "Ġtroops",
        -9.987382604698006
      ],
      [
        "Ġlose",
        -9.98767398970448
      ],
      [
        "Ġassociation",
        -9.98794597409364
      ],
      [
        "Ġshowing",
        -9.987996362896387
      ],
      [
        "ĠY",
        -9.988112566530054
      ],
      [
        "Ġthreat",
        -9.98824506954114
      ],
      [
        "Ġ*",
        -9.988387854979834
      ],
      [
        "Ġdocuments",
        -9.990178894121092
      ],
      [
        "ĠNews",
        -9.990195725539502
      ],
      [
        "sis",
        -9.99131086172938
      ],
      [
        "Ġhearing",
        -9.9915386020458
      ],
      [
        "Ġrough",
        -9.992099550660138
      ],
      [
        "Ġcollect",
        -9.99271799912728
      ],
      [
        "ĠGreen",
        -9.99291728305887
      ],
      [
        "Ġprovider",
        -9.992977908405674
      ],
      [
        "Ġtypical",
        -9.993170960759654
      ],
      [
        "Ġhundreds",
        -9.99399173666374
      ],
      [
        "Ġletters",
        -9.994164375958238
      ],
      [
        "Ġfunding",
        -9.994529205791066
      ],
      [
        "Ġ31",
        -9.995480437792404
      ],
      [
        "Ġslightly",
        -9.995656465549375
      ],
      [
        "Ġassist",
        -9.996701027836217
      ],
      [
        "Ġwish",
        -9.997740508529246
      ],
      [
        "Ġsolid",
        -9.997848043967265
      ],
      [
        "ĠNature",
        -9.9978965279381
      ],
      [
        "Ġselected",
        -9.998554246740497
      ],
      [
        "Ġtaught",
        -9.998952772001925
      ],
      [
        "Ġmineral",
        -9.999168540176278
      ],
      [
        "Ġselection",
        -10.000287848027078
      ],
      [
        "stood",
        -10.000545016108578
      ],
      [
        "Ġfoundation",
        -10.001845748307538
      ],
      [
        "Ġresponsibility",
        -10.002057550451738
      ],
      [
        "Ġmoon",
        -10.00300299670068
      ],
      [
        "Ġknew",
        -10.003369942956333
      ],
      [
        "Ġmulti",
        -10.003503311544357
      ],
      [
        "Ġrural",
        -10.003584245666898
      ],
      [
        "Now",
        -10.00527262848957
      ],
      [
        "Ġsyndrome",
        -10.005596582434542
      ],
      [
        "Ġreveal",
        -10.006247606708726
      ],
      [
        "Ġd",
        -10.006405625835788
      ],
      [
        "ĠReport",
        -10.007306418105935
      ],
      [
        "Ġelectric",
        -10.008252128119905
      ],
      [
        "Ġconcerned",
        -10.00838826108601
      ],
      [
        "Ġhonor",
        -10.008625044488662
      ],
      [
        "from",
        -10.008787184982523
      ],
      [
        "ĠBoth",
        -10.00891865425436
      ],
      [
        "ĠCarolina",
        -10.009581307979484
      ],
      [
        "ĠOr",
        -10.010166702593128
      ],
      [
        "Ġsubstantial",
        -10.010645274884403
      ],
      [
        "Ġyouth",
        -10.010697166618602
      ],
      [
        "Ġdistinguish",
        -10.010967001603966
      ],
      [
        "ĠJoseph",
        -10.011139189559284
      ],
      [
        "Ġclosely",
        -10.011648846112736
      ],
      [
        "Ġcool",
        -10.011668689623995
      ],
      [
        "ĠStudents",
        -10.01174059727905
      ],
      [
        "Ġinvolves",
        -10.012001487599727
      ],
      [
        "50",
        -10.01272809875948
      ],
      [
        "Ġtransfer",
        -10.013041807654655
      ],
      [
        "24",
        -10.01435573398069
      ],
      [
        "Ġpieces",
        -10.014403303712738
      ],
      [
        "Ġcent",
        -10.01456133398316
      ],
      [
        "Ġcomponent",
        -10.01461642691904
      ],
      [
        "Ġstrategy",
        -10.014951270233908
      ],
      [
        "ĠPeter",
        -10.015234212304325
      ],
      [
        "Ġexpress",
        -10.015460613719048
      ],
      [
        "Ġformal",
        -10.015717990043433
      ],
      [
        "Ġexperienc",
        -10.019301531551692
      ],
      [
        "Ġvoice",
        -10.01963200671587
      ],
      [
        "Ġfluid",
        -10.020444041894208
      ],
      [
        "Ġmarine",
        -10.020445452306808
      ],
      [
        "Ġstock",
        -10.020937747362591
      ],
      [
        "Ġselect",
        -10.021086155497123
      ],
      [
        "Ġcrops",
        -10.02172455397346
      ],
      [
        "Ġfund",
        -10.021956864271232
      ],
      [
        "Ġspiritual",
        -10.022279587831264
      ],
      [
        "Ġbeautiful",
        -10.022638356461604
      ],
      [
        "Ġcontrolled",
        -10.022863428303634
      ],
      [
        "Ġadministration",
        -10.022971687333015
      ],
      [
        "Ġseat",
        -10.023128333472878
      ],
      [
        "Ġfilter",
        -10.02317276028442
      ],
      [
        "Ġagree",
        -10.023354469129991
      ],
      [
        "Ġbright",
        -10.023588931277123
      ],
      [
        "ĠControl",
        -10.023634256427398
      ],
      [
        "Ġaircraft",
        -10.024869217073624
      ],
      [
        "Ġrelevant",
        -10.024907617590396
      ],
      [
        "500",
        -10.025661461825422
      ],
      [
        "Ġabuse",
        -10.025749272449945
      ],
      [
        "Ġkinds",
        -10.026410194916268
      ],
      [
        "ĠAustralian",
        -10.02709572717905
      ],
      [
        "Ġlisten",
        -10.027554746144157
      ],
      [
        "ĠCO",
        -10.028544883823876
      ],
      [
        "Ġ1970",
        -10.028629441875443
      ],
      [
        "Ġfiles",
        -10.028978061904636
      ],
      [
        "ĠStudies",
        -10.030125690972556
      ],
      [
        "21",
        -10.030265044110038
      ],
      [
        "ĠToday",
        -10.030722431006048
      ],
      [
        "ĠSecond",
        -10.030742124579495
      ],
      [
        "ĠArt",
        -10.031897805243377
      ],
      [
        "Ġmaster",
        -10.031962238757574
      ],
      [
        "Ġdecade",
        -10.032708047234308
      ],
      [
        "Ġlooked",
        -10.03315156082521
      ],
      [
        "Ġmountain",
        -10.03331913758928
      ],
      [
        "Ġpanel",
        -10.0336738076205
      ],
      [
        "Ġload",
        -10.033796612629132
      ],
      [
        "Ġexplained",
        -10.034046576455893
      ],
      [
        "Ġregard",
        -10.034316765099378
      ],
      [
        "Ġhomes",
        -10.034457261605088
      ],
      [
        "Ġdepth",
        -10.034512537463662
      ],
      [
        "Ġdemonstrate",
        -10.034544576039144
      ],
      [
        "Ġpassage",
        -10.036308445465888
      ],
      [
        "Ġgames",
        -10.036935309680434
      ],
      [
        "Ġnovel",
        -10.03820473975961
      ],
      [
        "Ġhappens",
        -10.039139304634755
      ],
      [
        "Ġpark",
        -10.039233179512207
      ],
      [
        "Ġexamine",
        -10.039412075246853
      ],
      [
        "Ġlatest",
        -10.039685374423222
      ],
      [
        "Ġvisible",
        -10.039825055640444
      ],
      [
        "Ġprocessing",
        -10.039949883601674
      ],
      [
        "Ġmeant",
        -10.04077055427326
      ],
      [
        "Ġpaid",
        -10.040771433843329
      ],
      [
        "Ġinches",
        -10.04119914731048
      ],
      [
        "Ġmonitoring",
        -10.042437402747016
      ],
      [
        "Ġdespite",
        -10.042789089591391
      ],
      [
        "Ġdrawing",
        -10.042873116804744
      ],
      [
        "Ġexperiences",
        -10.042957715308166
      ],
      [
        "Ġburn",
        -10.044153726273567
      ],
      [
        "espite",
        -10.045299004817345
      ],
      [
        "Ġrais",
        -10.045358888389949
      ],
      [
        "Ġyellow",
        -10.045580299632324
      ],
      [
        "Ġcorn",
        -10.046406093192545
      ],
      [
        "ĠSouthern",
        -10.047173788074206
      ],
      [
        "Ġnine",
        -10.0471804935899
      ],
      [
        "Ġregister",
        -10.047212502923292
      ],
      [
        "Ġflu",
        -10.048759498908632
      ],
      [
        "Ġteeth",
        -10.049604593956884
      ],
      [
        "Ġaccepted",
        -10.049645205478516
      ],
      [
        "Ġstruggle",
        -10.05029699924058
      ],
      [
        "Ġmassive",
        -10.050417656715736
      ],
      [
        "Ġelectronic",
        -10.050586518741929
      ],
      [
        "ĠEgypt",
        -10.05061458998694
      ],
      [
        "?\"",
        -10.050934596549128
      ],
      [
        "Ġtransport",
        -10.052458525168436
      ],
      [
        "Ġmaximum",
        -10.052588184243726
      ],
      [
        "Ġforests",
        -10.052723658459106
      ],
      [
        "ĠRussia",
        -10.054305539376749
      ],
      [
        "Ġfirm",
        -10.054504027500162
      ],
      [
        "Ġsold",
        -10.054612295553332
      ],
      [
        "Ġinterview",
        -10.054726718546505
      ],
      [
        "out",
        -10.054937878475448
      ],
      [
        "Ġlaboratory",
        -10.055239791872168
      ],
      [
        "Ġjobs",
        -10.056376121237198
      ],
      [
        "ĠRepublic",
        -10.056839535095218
      ],
      [
        "ization",
        -10.057080899537372
      ],
      [
        "Ġcircuit",
        -10.057491575120151
      ],
      [
        "Ġthousand",
        -10.058209693059348
      ],
      [
        "Ġfair",
        -10.05949308997308
      ],
      [
        "Ġindeed",
        -10.059524561849974
      ],
      [
        "ĠProfessor",
        -10.059568051224094
      ],
      [
        "Ġgirls",
        -10.059684407154698
      ],
      [
        "Ġ<",
        -10.059774452260378
      ],
      [
        "Ġunless",
        -10.060390274283977
      ],
      [
        "Ġrelationships",
        -10.060715656646805
      ],
      [
        "ĠRichard",
        -10.06100007303805
      ],
      [
        "Ġseed",
        -10.061131162397302
      ],
      [
        "ĠForce",
        -10.061356157193286
      ],
      [
        "Ġsector",
        -10.061468103497244
      ],
      [
        "Instead",
        -10.06168772455633
      ],
      [
        "ĠStreet",
        -10.064165612097415
      ],
      [
        "Ġsell",
        -10.065384366082192
      ],
      [
        "Ġconcepts",
        -10.065874218111626
      ],
      [
        "Ġimplement",
        -10.066054973868432
      ],
      [
        "age",
        -10.06715982228677
      ],
      [
        "Ġsustainable",
        -10.067201561329634
      ],
      [
        "gov",
        -10.067295191602035
      ],
      [
        "Ġhappened",
        -10.069957978545144
      ],
      [
        "Ġfun",
        -10.070098844741654
      ],
      [
        "Ġconsequences",
        -10.070877990592969
      ],
      [
        "Ġhit",
        -10.07143247524862
      ],
      [
        "Ġinvestigation",
        -10.071819558781115
      ],
      [
        "Ġfloor",
        -10.07202298528786
      ],
      [
        "Ġharvest",
        -10.07299958972986
      ],
      [
        "Ġnewspaper",
        -10.073473386775396
      ],
      [
        "Ġonto",
        -10.073735866150654
      ],
      [
        "Ġcolleagues",
        -10.073788695671512
      ],
      [
        "not",
        -10.074916780796514
      ],
      [
        "Ġcamp",
        -10.07498917081606
      ],
      [
        "Ġadvice",
        -10.075569762920312
      ],
      [
        "Ġoption",
        -10.076109189700247
      ],
      [
        "ĠAnother",
        -10.07648020998626
      ],
      [
        "Ġcounty",
        -10.076763923816069
      ],
      [
        "Ġemotional",
        -10.0772346488461
      ],
      [
        "Ġagency",
        -10.07846256045311
      ],
      [
        "Ġleaving",
        -10.078783297159196
      ],
      [
        "Ġagriculture",
        -10.079486100532812
      ],
      [
        "Ġliver",
        -10.079806807645202
      ],
      [
        "Ġdistinct",
        -10.080139812916274
      ],
      [
        "ĠConstitution",
        -10.080208608046137
      ],
      [
        "Ġderiv",
        -10.08045542177595
      ],
      [
        "Ġeastern",
        -10.080727279245528
      ],
      [
        "Ġstring",
        -10.081060695324012
      ],
      [
        "Ġ35",
        -10.081169759735172
      ],
      [
        "Ġpregnancy",
        -10.081848742382451
      ],
      [
        "Ġgrown",
        -10.082563273384292
      ],
      [
        "Our",
        -10.082676944819417
      ],
      [
        "Ġprincipal",
        -10.082957660773316
      ],
      [
        "Ġopening",
        -10.083147688949143
      ],
      [
        "Ġprevention",
        -10.083340288060944
      ],
      [
        "Ġcomparison",
        -10.084129638892612
      ],
      [
        "Ġgather",
        -10.084730951530377
      ],
      [
        "ĠNations",
        -10.085392977351162
      ],
      [
        "Ġappearance",
        -10.086038960673376
      ],
      [
        "Ġfamiliar",
        -10.08687677705518
      ],
      [
        "Ġlisted",
        -10.08706390787997
      ],
      [
        "Ġexperiments",
        -10.088599904850282
      ],
      [
        "ĠCan",
        -10.088799649657329
      ],
      [
        "Ġlesson",
        -10.089367327417571
      ],
      [
        "Ġexplains",
        -10.089559581016289
      ],
      [
        "Ġseeds",
        -10.090002942070642
      ],
      [
        "Ġvillage",
        -10.090841485619528
      ],
      [
        "ĠStudy",
        -10.091271834458466
      ],
      [
        "Ġinterests",
        -10.091437101969577
      ],
      [
        "Ġshared",
        -10.092200136239075
      ],
      [
        "Ġ1994",
        -10.092346641964705
      ],
      [
        "Ġimpossible",
        -10.092381360518877
      ],
      [
        "such",
        -10.093142295422185
      ],
      [
        "ĠCancer",
        -10.09341171792649
      ],
      [
        "Ġvote",
        -10.093585635480158
      ],
      [
        "Ġround",
        -10.094046347180893
      ],
      [
        "Ġlabel",
        -10.09409509084312
      ],
      [
        "Ġindex",
        -10.095077232912203
      ],
      [
        "Ġdiffer",
        -10.095225380329722
      ],
      [
        "Ġprotected",
        -10.095277160392484
      ],
      [
        "Here",
        -10.095440161743792
      ],
      [
        "Ġaward",
        -10.095748068527296
      ],
      [
        "Ġcomprehensive",
        -10.096248410681264
      ],
      [
        "Ġassistance",
        -10.096667887163816
      ],
      [
        "Â·",
        -10.096691280132124
      ],
      [
        "Ġunknown",
        -10.097180669729068
      ],
      [
        "Ġresolution",
        -10.097227099170134
      ],
      [
        "Ġcareer",
        -10.097475599387431
      ],
      [
        "Ġattacks",
        -10.098676492304566
      ],
      [
        "Ġfaster",
        -10.099033195827738
      ],
      [
        "Ġcrisis",
        -10.099676485675808
      ],
      [
        "ĠChicago",
        -10.10091934571734
      ],
      [
        "Ġabsolute",
        -10.10222066138862
      ],
      [
        "Ġpossibly",
        -10.102640989351924
      ],
      [
        "Ġcapture",
        -10.103398559110236
      ],
      [
        "Ġassess",
        -10.103516916831772
      ],
      [
        "Ġjustice",
        -10.103671768722885
      ],
      [
        "Ġdoubt",
        -10.103934045255553
      ],
      [
        "Ġassign",
        -10.10415467794937
      ],
      [
        "Ġexcellent",
        -10.104192911502128
      ],
      [
        "Ġnarrow",
        -10.104369764473535
      ],
      [
        "Ġproduc",
        -10.10446742540759
      ],
      [
        "Ġratio",
        -10.104741325460306
      ],
      [
        "Ġvegetables",
        -10.105542111050466
      ],
      [
        "Ġtwenty",
        -10.10597102320973
      ],
      [
        "Ġdust",
        -10.106069832490016
      ],
      [
        "Ġthreaten",
        -10.106784770189424
      ],
      [
        "Ġobtain",
        -10.107068747233855
      ],
      [
        "ĠAbout",
        -10.107609881367388
      ],
      [
        "Ġethnic",
        -10.10816467547813
      ],
      [
        "Ġarms",
        -10.108791333350323
      ],
      [
        "Ġpresentation",
        -10.109509488011067
      ],
      [
        "capable",
        -10.109685067731236
      ],
      [
        "ĠBoard",
        -10.110106816401297
      ],
      [
        "100",
        -10.110427273741742
      ],
      [
        "Ġsurvive",
        -10.11062144579572
      ],
      [
        "wise",
        -10.110734346042593
      ],
      [
        "Ġdescription",
        -10.110909590909236
      ],
      [
        "Ġwildlife",
        -10.110973264917062
      ],
      [
        "ĠMichael",
        -10.111070423838108
      ],
      [
        "Ġawareness",
        -10.111080998531904
      ],
      [
        "Ġprecise",
        -10.111240624995656
      ],
      [
        "Ġborder",
        -10.111363589462222
      ],
      [
        "Ġrecommendation",
        -10.111432561204522
      ],
      [
        "Ġrisks",
        -10.111547009619592
      ],
      [
        "Ġalter",
        -10.111659918324394
      ],
      [
        "Ġidentity",
        -10.111795465993302
      ],
      [
        "Ġintroduction",
        -10.11238292760458
      ],
      [
        "ĠInc",
        -10.112723314065615
      ],
      [
        "Ġcit",
        -10.113519404666116
      ],
      [
        "Ġremaining",
        -10.113537938593828
      ],
      [
        "Ġinput",
        -10.113629752542431
      ],
      [
        "Ġrespective",
        -10.113692957064268
      ],
      [
        "Ġtouch",
        -10.113969670446073
      ],
      [
        "ĠManagement",
        -10.114759265865349
      ],
      [
        "Ġvital",
        -10.115267550668008
      ],
      [
        "Ġlooks",
        -10.115635286927128
      ],
      [
        "Ġacre",
        -10.116358033538466
      ],
      [
        "Ġdeliver",
        -10.116454365920983
      ],
      [
        "ĠAcademy",
        -10.117116054053891
      ],
      [
        "line",
        -10.117393222278572
      ],
      [
        "Ġera",
        -10.11817926044004
      ],
      [
        "el",
        -10.118361486828451
      ],
      [
        "ĠTHE",
        -10.118494785656578
      ],
      [
        "Ġdraw",
        -10.1187163045506
      ],
      [
        "Ġgenerate",
        -10.118822444480164
      ],
      [
        "ĠTimes",
        -10.119091714837031
      ],
      [
        "Ġreplace",
        -10.11940430046901
      ],
      [
        "nd",
        -10.119646667293647
      ],
      [
        "example",
        -10.119881965676678
      ],
      [
        "Ġprove",
        -10.12129665179372
      ],
      [
        "Ġparties",
        -10.121352538659812
      ],
      [
        "Ġpure",
        -10.121427446596089
      ],
      [
        "Ġcharacters",
        -10.12171583442482
      ],
      [
        "Ġfollows",
        -10.121826164758422
      ],
      [
        "Ġoppos",
        -10.122232402794468
      ],
      [
        "Ġbelong",
        -10.122296748560135
      ],
      [
        "Ġinfected",
        -10.12415922870894
      ],
      [
        "Ġphilosophy",
        -10.124278708455256
      ],
      [
        "ĠNatural",
        -10.124936399196358
      ],
      [
        "Ġgender",
        -10.12512410922166
      ],
      [
        "Ġcrop",
        -10.125338959244765
      ],
      [
        "Ġfigures",
        -10.125806274699633
      ],
      [
        "Ġswitch",
        -10.126438129319483
      ],
      [
        "Ġconcentration",
        -10.126773803209735
      ],
      [
        "Ġcalls",
        -10.12693295381902
      ],
      [
        "Ġrefers",
        -10.127386467919743
      ],
      [
        "Ġdogs",
        -10.127807492799802
      ],
      [
        "ĠColumbia",
        -10.12788060550346
      ],
      [
        "Ġpossibilit",
        -10.1288334409278
      ],
      [
        "Ġclosed",
        -10.12885551333654
      ],
      [
        "23",
        -10.12927070046759
      ],
      [
        "Ġauthorities",
        -10.129463097811453
      ],
      [
        "Ġproteins",
        -10.130366701736536
      ],
      [
        "Ġcommittee",
        -10.13060778817201
      ],
      [
        "ĠRome",
        -10.131503305135412
      ],
      [
        "Ġstroke",
        -10.13222655656229
      ],
      [
        "Ġcontract",
        -10.132417176302216
      ],
      [
        "Ġmarked",
        -10.132551776848828
      ],
      [
        "Ġsustain",
        -10.132781756997623
      ],
      [
        "ĠValley",
        -10.132789842464788
      ],
      [
        "ĠDisease",
        -10.132883133969507
      ],
      [
        "Ġcontribut",
        -10.133451330187672
      ],
      [
        "Ġwalls",
        -10.133994459904857
      ],
      [
        "Ġ1960",
        -10.134263025981992
      ],
      [
        "son",
        -10.13428434621109
      ],
      [
        "Ġequivalent",
        -10.13454018997085
      ],
      [
        "side",
        -10.13559827740387
      ],
      [
        "Ġadequate",
        -10.13703288820434
      ],
      [
        "free",
        -10.137518562307031
      ],
      [
        "Ġ>",
        -10.137572121828445
      ],
      [
        "Ġcandidate",
        -10.137938836439412
      ],
      [
        "Ġgap",
        -10.140147690234988
      ],
      [
        "Ġphone",
        -10.140280240180878
      ],
      [
        "Ġapproaches",
        -10.142176725116109
      ],
      [
        "Ġrepeated",
        -10.14248031464311
      ],
      [
        "Ġminimum",
        -10.142515369573866
      ],
      [
        "Ġconventional",
        -10.142919133706515
      ],
      [
        "Ġprovince",
        -10.142948193561748
      ],
      [
        "Ġviews",
        -10.143320085059395
      ],
      [
        "Ġsurvival",
        -10.143449221993778
      ],
      [
        "ĠReview",
        -10.14375822320262
      ],
      [
        "Ġexpressed",
        -10.14411728733305
      ],
      [
        "Ġcontinuous",
        -10.145162629171
      ],
      [
        "Ġdeaths",
        -10.145371433712333
      ],
      [
        "Ġ500",
        -10.145411227826893
      ],
      [
        "Ġperiods",
        -10.145583826844652
      ],
      [
        "Ġmedications",
        -10.145607426920604
      ],
      [
        "Ġbill",
        -10.145814902814587
      ],
      [
        "Ġsaving",
        -10.145924947581538
      ],
      [
        "Ġmagnetic",
        -10.146013014875296
      ],
      [
        "Ġ300",
        -10.146023778167187
      ],
      [
        "Ġleads",
        -10.14629847243076
      ],
      [
        "Ġflowers",
        -10.146403266449829
      ],
      [
        "Ġsnow",
        -10.14681291482968
      ],
      [
        "Ġimplementation",
        -10.147387332746492
      ],
      [
        "Ġvaluable",
        -10.1480173899748
      ],
      [
        "Ġdrink",
        -10.14828530166407
      ],
      [
        "Ġconference",
        -10.148366769434238
      ],
      [
        "Ġliv",
        -10.149481713369344
      ],
      [
        "Ġexpensive",
        -10.15053824456862
      ],
      [
        "Ġrecover",
        -10.150547072211722
      ],
      [
        "Ġwindow",
        -10.150837875493732
      ],
      [
        "ĠIII",
        -10.151361764973128
      ],
      [
        "Ġevaluation",
        -10.151475471697983
      ],
      [
        "Ġrefer",
        -10.152562559797971
      ],
      [
        "ĠData",
        -10.153663540146072
      ],
      [
        "Ġstrain",
        -10.153675237391052
      ],
      [
        "Ġtransmission",
        -10.153835968809922
      ],
      [
        "Ġextended",
        -10.154082624322944
      ],
      [
        "called",
        -10.154786284478847
      ],
      [
        "ĠMan",
        -10.155830810745982
      ],
      [
        "Ġtiny",
        -10.15600118424377
      ],
      [
        "Ġworldwide",
        -10.15791033611573
      ],
      [
        "Ġsoul",
        -10.15824306798567
      ],
      [
        "ĠYet",
        -10.15935988583242
      ],
      [
        "Ġvary",
        -10.159475339570657
      ],
      [
        "Dr",
        -10.159809786157975
      ],
      [
        "Ġedge",
        -10.160011384678182
      ],
      [
        "ĠLike",
        -10.160106802155788
      ],
      [
        "Ġcomposition",
        -10.16012386115332
      ],
      [
        "ĠOver",
        -10.160589420193542
      ],
      [
        "Ġdiversity",
        -10.161532359235585
      ],
      [
        "Ġhelping",
        -10.161571414386504
      ],
      [
        "ĠItaly",
        -10.161657310721823
      ],
      [
        "Ġpromise",
        -10.162017600383034
      ],
      [
        "Ġdrop",
        -10.162236287546698
      ],
      [
        "Ġerror",
        -10.16236902966721
      ],
      [
        "ĠNorthern",
        -10.163722696016531
      ],
      [
        "ĠDon",
        -10.164099974307316
      ],
      [
        "Ġsoft",
        -10.164305212315949
      ],
      [
        "Ġmath",
        -10.164789635222627
      ],
      [
        "but",
        -10.164931640605994
      ],
      [
        "Ġbudget",
        -10.165570404467896
      ],
      [
        "Ġwealth",
        -10.167494412212015
      ],
      [
        "Ġinterpretation",
        -10.168048579731767
      ],
      [
        "Ġmuseum",
        -10.168264412793413
      ],
      [
        "Ġfell",
        -10.16883149301774
      ],
      [
        "Ġroutine",
        -10.169004147180912
      ],
      [
        "Ġcomments",
        -10.169262702624524
      ],
      [
        "ĠOF",
        -10.169500486224775
      ],
      [
        "Ġedit",
        -10.16971592228662
      ],
      [
        "Ġweak",
        -10.169835126642491
      ],
      [
        "Ġsecondary",
        -10.17189719757732
      ],
      [
        "ĠGlobal",
        -10.172267465562577
      ],
      [
        "Ġformat",
        -10.17227198726798
      ],
      [
        "ĠOnly",
        -10.172503164747775
      ],
      [
        "body",
        -10.1729104332298
      ],
      [
        "Ġsuffer",
        -10.173097249591176
      ],
      [
        "Ġtraffic",
        -10.173310984754451
      ],
      [
        "Ġrevealed",
        -10.174880266609874
      ],
      [
        "Ġinvestment",
        -10.175221996850537
      ],
      [
        "Ġconsideration",
        -10.175322403798504
      ],
      [
        "ĠMD",
        -10.176013322926812
      ],
      [
        "Ġmotor",
        -10.17632650479004
      ],
      [
        "Ġgovern",
        -10.177560539808814
      ],
      [
        "Ġdecide",
        -10.177715653517724
      ],
      [
        "Ġmarried",
        -10.178312329327152
      ],
      [
        "ĠSpain",
        -10.178357815025851
      ],
      [
        "Ġdeclar",
        -10.178961639574132
      ],
      [
        "Ġrank",
        -10.179640789473687
      ],
      [
        "ĠOnc",
        -10.17968478037811
      ],
      [
        "Ġtwice",
        -10.181065494115035
      ],
      [
        "Note",
        -10.18150118170241
      ],
      [
        "ĠResources",
        -10.182309300591898
      ],
      [
        "Ġkeeping",
        -10.182645099720018
      ],
      [
        "Ġprovision",
        -10.182979574229208
      ],
      [
        "Ġedition",
        -10.18392553877606
      ],
      [
        "Another",
        -10.183971427695838
      ],
      [
        "Ġhouses",
        -10.184023081559936
      ],
      [
        "ĠFree",
        -10.184144021302435
      ],
      [
        "Ġnone",
        -10.184410295338916
      ],
      [
        "Ġmillions",
        -10.185018772516663
      ],
      [
        "Ġwave",
        -10.185648139701806
      ],
      [
        "Ġfavor",
        -10.18708602681209
      ],
      [
        "Ġlegislation",
        -10.187782678007755
      ],
      [
        "level",
        -10.18897620479358
      ],
      [
        "Ġopposite",
        -10.191591819098411
      ],
      [
        "Ġremote",
        -10.191625739661552
      ],
      [
        "Ġgets",
        -10.191995064960436
      ],
      [
        "ĠItalian",
        -10.192099225553124
      ],
      [
        "ĠThose",
        -10.19248617662008
      ],
      [
        "Ġappoint",
        -10.192657115768933
      ],
      [
        "Ġbrown",
        -10.192687275667678
      ],
      [
        "Ġsmoke",
        -10.193026443344904
      ],
      [
        "Ġadvance",
        -10.193322815080268
      ],
      [
        "ĠGuide",
        -10.195285849544431
      ],
      [
        "Ġgreenhouse",
        -10.19541717735538
      ],
      [
        "ĠParty",
        -10.19545601181571
      ],
      [
        "Ġheavi",
        -10.195568581208349
      ],
      [
        "Ġtopics",
        -10.195602501974124
      ],
      [
        "ĠAgency",
        -10.1960528326167
      ],
      [
        "ĠUsing",
        -10.196206861711463
      ],
      [
        "Ġlab",
        -10.196492418452998
      ],
      [
        "Ġretain",
        -10.197145372089246
      ],
      [
        "grew",
        -10.197333084824296
      ],
      [
        "ĠDivision",
        -10.1974713412622
      ],
      [
        "Ġ1992",
        -10.197866754400776
      ],
      [
        "html",
        -10.197987394753277
      ],
      [
        "Ġmatch",
        -10.198056101036949
      ],
      [
        "Why",
        -10.198093163267082
      ],
      [
        "Ġsides",
        -10.198411857906336
      ],
      [
        "Ġmolecules",
        -10.198515411526463
      ],
      [
        "ian",
        -10.198575816124478
      ],
      [
        "Ġinterpret",
        -10.19993535431172
      ],
      [
        "Ġdioxide",
        -10.20001726738837
      ],
      [
        "X",
        -10.20135386202356
      ],
      [
        "ĠEastern",
        -10.201896542305573
      ],
      [
        "Ġrelations",
        -10.202141401140478
      ],
      [
        "Ġguidelines",
        -10.202343876503098
      ],
      [
        "Ġskill",
        -10.2023861642948
      ],
      [
        "ĠBrown",
        -10.203013728921825
      ],
      [
        "Ġuniversal",
        -10.203039935041804
      ],
      [
        "Ġpercentage",
        -10.203709078650098
      ],
      [
        "Ġphysics",
        -10.204097317018062
      ],
      [
        "Ġ1993",
        -10.204969400686515
      ],
      [
        "Ġorganisms",
        -10.20512998539412
      ],
      [
        "Ġleadership",
        -10.205533833894451
      ],
      [
        "Ġmedium",
        -10.206180323777929
      ],
      [
        "ie",
        -10.2065120915687
      ],
      [
        "Ġdefeat",
        -10.20658902577234
      ],
      [
        "Ġcontained",
        -10.207055239858754
      ],
      [
        "Ġterritory",
        -10.20724404448524
      ],
      [
        "ĠAtlantic",
        -10.207369162150972
      ],
      [
        "Ġsupplie",
        -10.2074183017366
      ],
      [
        "Ġcomputers",
        -10.207626650845132
      ],
      [
        "Ġstream",
        -10.208284847652047
      ],
      [
        "01",
        -10.208795359968631
      ],
      [
        "ment",
        -10.20946457901057
      ],
      [
        "Ġgovernments",
        -10.209642938777463
      ],
      [
        "40",
        -10.209649873798297
      ],
      [
        "Ġgreatly",
        -10.210276476798542
      ],
      [
        "Ġthin",
        -10.210648258437336
      ],
      [
        "ĠDirector",
        -10.211769415961015
      ],
      [
        "Ġflood",
        -10.212109865115387
      ],
      [
        "Ġbear",
        -10.21214114371984
      ],
      [
        "Ġmechanism",
        -10.212251697416123
      ],
      [
        "ĠPost",
        -10.21238394312538
      ],
      [
        "Ġwaves",
        -10.21244043814692
      ],
      [
        "Ġsuffering",
        -10.21264527443042
      ],
      [
        "Ġunusual",
        -10.21272577682105
      ],
      [
        "Ġcomment",
        -10.2131446547298
      ],
      [
        "ĠNative",
        -10.213161925890864
      ],
      [
        "Ġsatellite",
        -10.21400478473238
      ],
      [
        "Ġfacts",
        -10.21545127328565
      ],
      [
        "Ġnecessari",
        -10.215482410854705
      ],
      [
        "Ġimmediate",
        -10.215597077641268
      ],
      [
        "Ġimpacts",
        -10.21615310914204
      ],
      [
        "ĠIndians",
        -10.216693899964705
      ],
      [
        "Ġcurriculum",
        -10.21689203764278
      ],
      [
        "Ġfilled",
        -10.217851787362848
      ],
      [
        "Ġentry",
        -10.218108220194216
      ],
      [
        "Ġinstruction",
        -10.218167301138704
      ],
      [
        "Ġtoxic",
        -10.218461997465145
      ],
      [
        "Ġpictures",
        -10.21867732415942
      ],
      [
        "Ġinstrument",
        -10.219309466835275
      ],
      [
        "ĠEmpire",
        -10.219333991079246
      ],
      [
        "Ġstored",
        -10.220031627997992
      ],
      [
        "Ġcircumstances",
        -10.220192769783155
      ],
      [
        "Ġparticipate",
        -10.22066467060064
      ],
      [
        "Ġworse",
        -10.221125357466988
      ],
      [
        "Ġvessels",
        -10.221299417572826
      ],
      [
        "ĠParis",
        -10.22218240613594
      ],
      [
        "Ġbroken",
        -10.22377723302752
      ],
      [
        "Ġdepartment",
        -10.224890589988586
      ],
      [
        "Ġsounds",
        -10.225480856952986
      ],
      [
        "all",
        -10.225580863640156
      ],
      [
        "de",
        -10.22579755229093
      ],
      [
        "Ġhorse",
        -10.226232494043495
      ],
      [
        "Ġbrother",
        -10.226691397189423
      ],
      [
        "Ġmanager",
        -10.22739039276435
      ],
      [
        "Ġenemy",
        -10.228224948118667
      ],
      [
        "Ġla",
        -10.22832157291469
      ],
      [
        "Ġlay",
        -10.228730104264669
      ],
      [
        "Ġsit",
        -10.2293507097006
      ],
      [
        "Ġgone",
        -10.22943076242182
      ],
      [
        "Last",
        -10.229572702589412
      ],
      [
        "Ġassume",
        -10.229712023558582
      ],
      [
        "Ġmaps",
        -10.230367378656211
      ],
      [
        "Ġcoastal",
        -10.231090567579606
      ],
      [
        "Ġharm",
        -10.232238306127842
      ],
      [
        "26",
        -10.232385308694596
      ],
      [
        "Ġdebt",
        -10.23242003425612
      ],
      [
        "Ġzone",
        -10.23319583585488
      ],
      [
        "Ġsky",
        -10.233410397918217
      ],
      [
        "Ġ45",
        -10.233497039324172
      ],
      [
        "ĠOhio",
        -10.23425634352518
      ],
      [
        "Ġages",
        -10.234344240100508
      ],
      [
        "Ġcamera",
        -10.234358045835016
      ],
      [
        "ĠMartin",
        -10.23476121058431
      ],
      [
        "Ġprogramme",
        -10.235371005728084
      ],
      [
        "ĠIreland",
        -10.235543973324802
      ],
      [
        "ĠSciences",
        -10.235752949933309
      ],
      [
        "Ġships",
        -10.23722319605772
      ],
      [
        "ĠAdministration",
        -10.238126043536106
      ],
      [
        "scale",
        -10.239492194708392
      ],
      [
        "Ġvisitor",
        -10.239506068132696
      ],
      [
        "Ġcompetition",
        -10.23968371051065
      ],
      [
        "Ġstrike",
        -10.239831577522873
      ],
      [
        "Ġpretty",
        -10.240251626975455
      ],
      [
        "Ġsensitive",
        -10.240536608235088
      ],
      [
        "Ġflat",
        -10.24141656056246
      ],
      [
        "Ġneith",
        -10.241907572983182
      ],
      [
        "Ġsecret",
        -10.242239941170936
      ],
      [
        "water",
        -10.242447920048123
      ],
      [
        "Ġrecovery",
        -10.242620719581952
      ],
      [
        "Ġchildhood",
        -10.243049519989292
      ],
      [
        "ĠRoyal",
        -10.24334674745448
      ],
      [
        "Ġphrase",
        -10.243374239431676
      ],
      [
        "Ġplaying",
        -10.243740880448032
      ],
      [
        "Ġsucceed",
        -10.244417012298843
      ],
      [
        "Ġpump",
        -10.244491200628255
      ],
      [
        "Ġdefense",
        -10.244494849524267
      ],
      [
        "Ġagreed",
        -10.24490058006263
      ],
      [
        "Ġlimits",
        -10.24504369481627
      ],
      [
        "Ġtreatments",
        -10.245857828116549
      ],
      [
        "ĠUN",
        -10.24631068073669
      ],
      [
        "Ġrepair",
        -10.247665259275076
      ],
      [
        "Ġcreature",
        -10.247916716921983
      ],
      [
        "ĠHoly",
        -10.249009480400824
      ],
      [
        "Ġframework",
        -10.249184474782798
      ],
      [
        "Ġshot",
        -10.250880738492953
      ],
      [
        "Ġdivision",
        -10.250931372342924
      ],
      [
        "Ġchain",
        -10.25094440882759
      ],
      [
        "27",
        -10.251357539439237
      ],
      [
        "Ġroute",
        -10.253195230927036
      ],
      [
        "Ġroots",
        -10.253240457289223
      ],
      [
        "Ġyield",
        -10.253416011525903
      ],
      [
        "land",
        -10.254153798549028
      ],
      [
        "Ġslowly",
        -10.25499004559532
      ],
      [
        "Ġuniversity",
        -10.256845242168364
      ],
      [
        "Ġball",
        -10.257453404711262
      ],
      [
        "Since",
        -10.257756001996208
      ],
      [
        "ĠUSA",
        -10.25788181151949
      ],
      [
        "are",
        -10.258563115527776
      ],
      [
        "ance",
        -10.258777088272714
      ],
      [
        "Ġattached",
        -10.258983400391912
      ],
      [
        "ĠAre",
        -10.25914519245766
      ],
      [
        "Ġinfrastructure",
        -10.259470225140884
      ],
      [
        "Ġmovements",
        -10.259494502434428
      ],
      [
        "ĠDistrict",
        -10.260353231815238
      ],
      [
        "Ġphoto",
        -10.260922265898992
      ],
      [
        "rd",
        -10.261587865810254
      ],
      [
        "Ġparallel",
        -10.261916084874258
      ],
      [
        "Ġengage",
        -10.262008040513662
      ],
      [
        "Ġnaturally",
        -10.262104416649136
      ],
      [
        "ĠPower",
        -10.262201880712206
      ],
      [
        "ĠBank",
        -10.262244881127586
      ],
      [
        "Ġwear",
        -10.26277575582305
      ],
      [
        "Ġtransportation",
        -10.262964551454898
      ],
      [
        "ĠKingdom",
        -10.263273794196948
      ],
      [
        "Ġwonder",
        -10.263843798063103
      ],
      [
        "Ġinstruments",
        -10.264252407394077
      ],
      [
        "Ġwarning",
        -10.264754618947782
      ],
      [
        "Ġclient",
        -10.266071399916056
      ],
      [
        "if",
        -10.26647418915597
      ],
      [
        "Ġprofit",
        -10.266691199172342
      ],
      [
        "Ġprepare",
        -10.2669204947235
      ],
      [
        "Ġsecure",
        -10.26723406429884
      ],
      [
        "Ġsupposed",
        -10.267887782518551
      ],
      [
        "Ġpartial",
        -10.26794344788773
      ],
      [
        "ĠLand",
        -10.26820685251875
      ],
      [
        "Ġpilot",
        -10.269327858930897
      ],
      [
        "Ġintellectual",
        -10.269625491978893
      ],
      [
        "Ġexplanation",
        -10.270339260935684
      ],
      [
        "Ġprogramm",
        -10.270774374305043
      ],
      [
        "Ġ1991",
        -10.271237093866468
      ],
      [
        "Ġachievement",
        -10.2712575674664
      ],
      [
        "ĠLearning",
        -10.271588437366706
      ],
      [
        "Ġfixed",
        -10.271724530150404
      ],
      [
        "Ġinterface",
        -10.27191719992268
      ],
      [
        "Ġhelpful",
        -10.272780959233344
      ],
      [
        "Ġexists",
        -10.273136062873812
      ],
      [
        "Ġdesire",
        -10.273785020750909
      ],
      [
        "Ġacts",
        -10.2738023740923
      ],
      [
        "Ġcognitive",
        -10.27385877322565
      ],
      [
        "Ġtransform",
        -10.274293935176791
      ],
      [
        ":||",
        -10.274384141525552
      ],
      [
        "Ġequation",
        -10.274880497573522
      ],
      [
        "Ġrelation",
        -10.275232305741694
      ],
      [
        "Ġescape",
        -10.277035066602132
      ],
      [
        "Ġdelay",
        -10.277037801506092
      ],
      [
        "ĠJust",
        -10.27746082419096
      ],
      [
        "Ġaffects",
        -10.277480495347712
      ],
      [
        "ive",
        -10.277605315380365
      ],
      [
        "Ġvariable",
        -10.277777188428258
      ],
      [
        "Ġthick",
        -10.27780727804502
      ],
      [
        "Ġ32",
        -10.277995995593084
      ],
      [
        "Ġarchitecture",
        -10.278031593938088
      ],
      [
        "Ġelected",
        -10.278182005469713
      ],
      [
        "Ġoral",
        -10.278463635147045
      ],
      [
        "Ġfruits",
        -10.278475165393894
      ],
      [
        "Ġhistoric",
        -10.278565574948097
      ],
      [
        "Ġdiverse",
        -10.27893545324562
      ],
      [
        "28",
        -10.279259010677327
      ],
      [
        "Ġextract",
        -10.279823988649037
      ],
      [
        "Ġpreparation",
        -10.27993817691133
      ],
      [
        "Ġconvert",
        -10.2805229457085
      ],
      [
        "ĠMark",
        -10.280941440181318
      ],
      [
        "Ġscene",
        -10.281059184254072
      ],
      [
        "Ġserver",
        -10.281213007994102
      ],
      [
        "Ġgraduate",
        -10.281802940594066
      ],
      [
        "Ġbones",
        -10.282406621940392
      ],
      [
        "Ġemployed",
        -10.283162071219
      ],
      [
        "Figure",
        -10.283227317300318
      ],
      [
        "Ġrising",
        -10.283864358028731
      ],
      [
        "Ġsuccessfully",
        -10.284028439025471
      ],
      [
        "Ġsand",
        -10.2846588576355
      ],
      [
        "Ġchosen",
        -10.284982091372392
      ],
      [
        "Ġautomatic",
        -10.28592299332214
      ],
      [
        "Ġdriving",
        -10.286228886822512
      ],
      [
        "Ġholding",
        -10.286380890385969
      ],
      [
        "Ġfever",
        -10.286568034570466
      ],
      [
        "Ġintake",
        -10.286931202804068
      ],
      [
        "Ġregulations",
        -10.287099550887165
      ],
      [
        "Ġyounger",
        -10.287153917452311
      ],
      [
        "29",
        -10.287220776252052
      ],
      [
        "Ġpurchase",
        -10.287473083674506
      ],
      [
        "Ġfighting",
        -10.28786823677414
      ],
      [
        "Ġneighbor",
        -10.288263199097273
      ],
      [
        "Ġcarefully",
        -10.28950029885834
      ],
      [
        "Ġdrawn",
        -10.290784252955586
      ],
      [
        "Ġevolv",
        -10.291698910937445
      ],
      [
        "Ġapproved",
        -10.292197197551245
      ],
      [
        "Ġexpansion",
        -10.292824708167036
      ],
      [
        "ĠTime",
        -10.29389187962273
      ],
      [
        "Ġsignals",
        -10.294453295333955
      ],
      [
        "Ġmixed",
        -10.294559302647029
      ],
      [
        "Ġemployment",
        -10.29503591835855
      ],
      [
        "am",
        -10.29552200691874
      ],
      [
        "Ġencounter",
        -10.295833787577186
      ],
      [
        "ĠAl",
        -10.296120478799418
      ],
      [
        "Ġdestruction",
        -10.296380046205778
      ],
      [
        "ĠEncyclopedia",
        -10.296978798543758
      ],
      [
        "ĠOcean",
        -10.297106239865792
      ],
      [
        "Ġtranslation",
        -10.29795820986597
      ],
      [
        "Ġreaders",
        -10.298021269651064
      ],
      [
        "ish",
        -10.299325651900904
      ],
      [
        "Ġproposal",
        -10.299563959635456
      ],
      [
        "Ġmerely",
        -10.30024429595784
      ],
      [
        "Ġtrain",
        -10.30094474394831
      ],
      [
        "ĠLaboratory",
        -10.300952523362294
      ],
      [
        "Ġformula",
        -10.302269381995568
      ],
      [
        "be",
        -10.3024173600893
      ],
      [
        "Ġcluster",
        -10.302878451106569
      ],
      [
        "Ġtransition",
        -10.30303442778524
      ],
      [
        "ĠAsian",
        -10.303243013708231
      ],
      [
        "Ġspeaking",
        -10.303381982247416
      ],
      [
        "Ġdownload",
        -10.303657315447364
      ],
      [
        "Ġcaptur",
        -10.303702474480785
      ],
      [
        "Q",
        -10.303710262920225
      ],
      [
        "Ġlies",
        -10.304180652634562
      ],
      [
        "Ġchart",
        -10.304201654978051
      ],
      [
        "Ġstopp",
        -10.305019286994575
      ],
      [
        "Ġapart",
        -10.305131043435248
      ],
      [
        "Ġinner",
        -10.305283513654407
      ],
      [
        "Ġtaste",
        -10.30578364234272
      ],
      [
        "Ġhusband",
        -10.306061452396678
      ],
      [
        "ĠPart",
        -10.306531659372716
      ],
      [
        "Ġintelligence",
        -10.306664443824229
      ],
      [
        "ist",
        -10.306921981253248
      ],
      [
        "Ġsuit",
        -10.307028957212436
      ],
      [
        "ĠLincoln",
        -10.307413250646514
      ],
      [
        "Ġaccomplish",
        -10.307793255376264
      ],
      [
        "Ġwage",
        -10.307934803978815
      ],
      [
        "ĠHome",
        -10.30809427611937
      ],
      [
        "Ġtelevision",
        -10.308308887716448
      ],
      [
        "Ġgrant",
        -10.308477814164917
      ],
      [
        "Ġobserve",
        -10.309996473270642
      ],
      [
        "Ġrestrict",
        -10.310027925932324
      ],
      [
        "ĠServices",
        -10.310624858671064
      ],
      [
        "ought",
        -10.310843129983729
      ],
      [
        "Ġfalse",
        -10.31121527401976
      ],
      [
        "Ġlung",
        -10.311619249841518
      ],
      [
        "Ġofficers",
        -10.311843439297265
      ],
      [
        "Ġbiology",
        -10.311855307466892
      ],
      [
        "Ġhousing",
        -10.312215291243817
      ],
      [
        "Ġsentence",
        -10.312283957540483
      ],
      [
        "ĠLet",
        -10.31268188350755
      ],
      [
        "Ġaren",
        -10.312887540390214
      ],
      [
        "Ġseemed",
        -10.313730552393675
      ],
      [
        "ville",
        -10.314247087364317
      ],
      [
        "Ġevil",
        -10.314289283735135
      ],
      [
        "Ġpolitics",
        -10.314910847505208
      ],
      [
        "Ġsolve",
        -10.316044836054092
      ],
      [
        "Ġzero",
        -10.316327529749518
      ],
      [
        "Ġmobile",
        -10.31650426053171
      ],
      [
        "Ġspot",
        -10.316591112985387
      ],
      [
        "Ġfeeding",
        -10.316792854324133
      ],
      [
        "widespread",
        -10.317963324651982
      ],
      [
        "Ġrandom",
        -10.318264810207037
      ],
      [
        "Ġdedicat",
        -10.319097135823071
      ],
      [
        "Ġinsects",
        -10.319483457276643
      ],
      [
        "Ġjourney",
        -10.319557937048351
      ],
      [
        "Ġenhance",
        -10.31963515567143
      ],
      [
        "ĠHall",
        -10.319684924739263
      ],
      [
        "Ġmode",
        -10.320008682369894
      ],
      [
        "Ġinvolv",
        -10.320352042095664
      ],
      [
        "Ġsharing",
        -10.320387686669358
      ],
      [
        "Ġwriter",
        -10.32051795550418
      ],
      [
        "Ġcommunicate",
        -10.320765962876902
      ],
      [
        "Ġstanding",
        -10.323524137256886
      ],
      [
        "Ġexport",
        -10.32388537494691
      ],
      [
        "Ġcars",
        -10.323979916486898
      ],
      [
        "Ġfacility",
        -10.324106706322036
      ],
      [
        "Ġintervention",
        -10.326809232224132
      ],
      [
        "Ġstraight",
        -10.327789263029086
      ],
      [
        "Ġfunds",
        -10.328651781698566
      ],
      [
        "Ġhole",
        -10.328674055908175
      ],
      [
        "Ġgoods",
        -10.328953123627
      ],
      [
        "Ġmuscles",
        -10.329008983985588
      ],
      [
        "Ġweapons",
        -10.329037461277917
      ],
      [
        "ĠClimate",
        -10.32934016552426
      ],
      [
        "Ġmark",
        -10.33022482294986
      ],
      [
        "Ġmedication",
        -10.330601650613804
      ],
      [
        "ĠEl",
        -10.33110070283504
      ],
      [
        "Ġminor",
        -10.331129576294408
      ],
      [
        "Ġdollars",
        -10.33179625233922
      ],
      [
        "Ġdensit",
        -10.331968612897647
      ],
      [
        "Ġcomposed",
        -10.332027239857476
      ],
      [
        "Ġconsiderable",
        -10.332096406365125
      ],
      [
        "obesity",
        -10.332626333623583
      ],
      [
        "Ġreplac",
        -10.33294051949236
      ],
      [
        "Ġstages",
        -10.333218065725804
      ],
      [
        "Ġsets",
        -10.333328932542967
      ],
      [
        "Ġplatform",
        -10.333546347939116
      ],
      [
        "Ġcard",
        -10.333903079591485
      ],
      [
        "Ġfill",
        -10.334048964107026
      ],
      [
        "Ġwait",
        -10.33431190249282
      ],
      [
        "Ġfourth",
        -10.33455207738903
      ],
      [
        "Ġcloser",
        -10.334745706788857
      ],
      [
        "id",
        -10.33504201761076
      ],
      [
        "Ġadjust",
        -10.335121011904295
      ],
      [
        "Ġnutrients",
        -10.336999916780412
      ],
      [
        "Ġhydrogen",
        -10.337574322383285
      ],
      [
        "ĠIrish",
        -10.337589897386067
      ],
      [
        "Ġpounds",
        -10.337685617599304
      ],
      [
        "ine",
        -10.337688729902435
      ],
      [
        "Ġdemonstrated",
        -10.337998859648186
      ],
      [
        "Ġear",
        -10.339127220825272
      ],
      [
        "Ġlands",
        -10.340048468071805
      ],
      [
        "Ġimprov",
        -10.340743562243622
      ],
      [
        "Ġindependence",
        -10.342325921108236
      ],
      [
        "Ġsilver",
        -10.343811136059932
      ],
      [
        "ĠOxford",
        -10.344373597868664
      ],
      [
        "Ġ1950",
        -10.344853604664548
      ],
      [
        "Ġforth",
        -10.345576391158067
      ],
      [
        "Ġparticipation",
        -10.34603174465977
      ],
      [
        "ĠEarly",
        -10.346067582459142
      ],
      [
        "Ġproduces",
        -10.346635203641023
      ],
      [
        "Ġconsumers",
        -10.347591140736991
      ],
      [
        "Ġmice",
        -10.348104170809997
      ],
      [
        "Ġcolors",
        -10.348509664537714
      ],
      [
        "Ġcentre",
        -10.3486555605915
      ],
      [
        "http",
        -10.348797826642592
      ],
      [
        "sought",
        -10.350049121744584
      ],
      [
        "Ġrivers",
        -10.35156064392008
      ],
      [
        "ĠBoston",
        -10.351597299713262
      ],
      [
        "Ġcloud",
        -10.351838204988926
      ],
      [
        "Ġmaintenance",
        -10.351871296022106
      ],
      [
        "Ġband",
        -10.352127189512307
      ],
      [
        "ĠHer",
        -10.353141078193987
      ],
      [
        "ĠSurvey",
        -10.353411162531952
      ],
      [
        "ĠGeorgia",
        -10.353499361013434
      ],
      [
        "Ġsteel",
        -10.35506009072346
      ],
      [
        "Ġdoor",
        -10.355400883588258
      ],
      [
        "Ġtruly",
        -10.355905203536947
      ],
      [
        "ĠFamily",
        -10.356069787278742
      ],
      [
        "ĠUnder",
        -10.356262439368088
      ],
      [
        "ĠConservation",
        -10.356769843811383
      ],
      [
        "Ġsigned",
        -10.356948393089583
      ],
      [
        "Ġpackage",
        -10.35764431849192
      ],
      [
        "Ġcrew",
        -10.357817319920605
      ],
      [
        "Ġreform",
        -10.35810643831441
      ],
      [
        "Ġfrequent",
        -10.358278068501502
      ],
      [
        "ĠLong",
        -10.35829685216904
      ],
      [
        "Ġpeak",
        -10.35882439708652
      ],
      [
        "Ġregularly",
        -10.360073386372584
      ],
      [
        "Ġcholesterol",
        -10.360110177303106
      ],
      [
        "Ġlessons",
        -10.36021235502622
      ],
      [
        "Ġmanufactur",
        -10.36093677572562
      ],
      [
        "Ġcheap",
        -10.360962503323304
      ],
      [
        "Ġimprovement",
        -10.361084140174787
      ],
      [
        "Ġsensor",
        -10.361210609060546
      ],
      [
        "Ġsharp",
        -10.361536245536657
      ],
      [
        "he",
        -10.362171311887844
      ],
      [
        "ĠJohnson",
        -10.363262910013292
      ],
      [
        "Ġinteraction",
        -10.363985590072495
      ],
      [
        "ĠMuslim",
        -10.364062866084348
      ],
      [
        "Ġstrict",
        -10.36472068788934
      ],
      [
        "most",
        -10.364967131965908
      ],
      [
        "Ġmagazine",
        -10.365216346872549
      ],
      [
        "ĠHill",
        -10.36547854563764
      ],
      [
        "Ġfly",
        -10.365537647412864
      ],
      [
        "ĠAge",
        -10.365803737015312
      ],
      [
        "Ġtasks",
        -10.36596968958414
      ],
      [
        "ĠEPA",
        -10.36617072037449
      ],
      [
        "itis",
        -10.366189758152675
      ],
      [
        "Ġinter",
        -10.366357531674405
      ],
      [
        "Ġserving",
        -10.366501161818976
      ],
      [
        "Ġmodified",
        -10.366586575967236
      ],
      [
        "Ġmathematics",
        -10.36665066497279
      ],
      [
        "name",
        -10.366773395407336
      ],
      [
        "Ġimmigrant",
        -10.367538660066076
      ],
      [
        "off",
        -10.367605813589432
      ],
      [
        "Ġpermission",
        -10.367870746905618
      ],
      [
        "ĠFort",
        -10.36787636957459
      ],
      [
        "Ġinvolve",
        -10.368279119467225
      ],
      [
        "Ġ150",
        -10.3682820065064
      ],
      [
        "Ġdefine",
        -10.36831757236622
      ],
      [
        "Ġattribute",
        -10.36849145018641
      ],
      [
        "Ġsmoking",
        -10.368554712559373
      ],
      [
        "Ġsuitable",
        -10.36860165098286
      ],
      [
        "Ġoccasional",
        -10.368619188714865
      ],
      [
        "Ġreceiv",
        -10.368826122344975
      ],
      [
        "Ġnoise",
        -10.369159987570477
      ],
      [
        "ty",
        -10.36942608331016
      ],
      [
        "ĠUn",
        -10.369725204266269
      ],
      [
        "Ġreader",
        -10.37002919467761
      ],
      [
        "Ġproved",
        -10.370284665880565
      ],
      [
        "Ġenzyme",
        -10.370342807702942
      ],
      [
        "Ġscientist",
        -10.370886699555356
      ],
      [
        "Ġreserved",
        -10.371008625744496
      ],
      [
        "Ġstands",
        -10.371164038725963
      ],
      [
        "Ġrecognition",
        -10.372283998388957
      ],
      [
        "ĠRevolution",
        -10.372386454042742
      ],
      [
        "Ġstable",
        -10.37240585861598
      ],
      [
        "Ġearn",
        -10.373168211961351
      ],
      [
        "Ġt",
        -10.373498216315095
      ],
      [
        "Ġscreening",
        -10.373744966325331
      ],
      [
        "Ġpick",
        -10.37490252815958
      ],
      [
        "Ġpartner",
        -10.374968721019638
      ],
      [
        "long",
        -10.375772822641007
      ],
      [
        "ĠLouis",
        -10.375795691368369
      ],
      [
        "Ġstudying",
        -10.376215887467188
      ],
      [
        "Ġdanger",
        -10.376736111676616
      ],
      [
        "Ġboys",
        -10.376845653530683
      ],
      [
        "ĠRead",
        -10.37706680676095
      ],
      [
        "Ġcommitment",
        -10.377214508203217
      ],
      [
        "Ġcalcium",
        -10.377320134571296
      ],
      [
        "ĠPlan",
        -10.37734220516356
      ],
      [
        "ĠÂ©",
        -10.377470797784872
      ],
      [
        "Ġabandon",
[...]
