{
  "version": "1.0",
  "truncation": null,
  "padding": null,
  "added_tokens": [
    {
      "id": 0,
      "content": "<|endoftext|>",
      "single_word": false,
      "lstrip": false,
      "rstrip": false,
      "normalized": false,
      "special": true
    },
    {
      "id": 1,
      "content": "<|padding|>",
      "single_word": false,
      "lstrip": false,
      "rstrip": false,
      "normalized": false,
      "special": true
    }
  ],
  "normalizer": {
    "type": "NFC"
  },
  "pre_tokenizer": {
    "type": "ByteLevel",
    "add_prefix_space": false,
    "trim_offsets": true,
    "use_regex": true
  },
  "post_processor": {
    "type": "ByteLevel",
    "add_prefix_space": true,
    "trim_offsets": false,
    "use_regex": true
  },
  "decoder": {
    "type": "ByteLevel",
    "add_prefix_space": true,
    "trim_offsets": true,
    "use_regex": true
  },
  "model": {
    "type": "BPE",
    "dropout": null,
    "unk_token": null,
    "continuing_subword_prefix": null,
    "end_of_word_suffix": null,
    "fuse_unk": false,
    "byte_fallback": false,
    "ignore_merges": false,
    "vocab": {
      "<|endoftext|>": 0,
      "<|padding|>": 1,
      "!": 2,
      "\"": 3,
      "#": 4,
      "$": 5,
      "%": 6,
      "&": 7,
      "'": 8,
      "(": 9,
      ")": 10,
      "*": 11,
      "+": 12,
      ",": 13,
      "-": 14,
      ".": 15,
      "/": 16,
      "0": 17,
      "1": 18,
      "2": 19,
      "3": 20,
      "4": 21,
      "5": 22,
      "6": 23,
      "7": 24,
      "8": 25,
      "9": 26,
      ":": 27,
      ";": 28,
      "<": 29,
      "=": 30,
      ">": 31,
      "?": 32,
      "@": 33,
      "A": 34,
      "B": 35,
      "C": 36,
      "D": 37,
      "E": 38,
      "F": 39,
      "G": 40,
      "H": 41,
      "I": 42,
      "J": 43,
      "K": 44,
      "L": 45,
      "M": 46,
      "N": 47,
      "O": 48,
      "P": 49,
      "Q": 50,
      "R": 51,
      "S": 52,
      "T": 53,
      "U": 54,
      "V": 55,
      "W": 56,
      "X": 57,
      "Y": 58,
      "Z": 59,
      "[": 60,
      "\\": 61,
      "]": 62,
      "^": 63,
      "_": 64,
      "`": 65,
      "a": 66,
      "b": 67,
      "c": 68,
      "d": 69,
      "e": 70,
      "f": 71,
      "g": 72,
      "h": 73,
      "i": 74,
      "j": 75,
      "k": 76,
      "l": 77,
      "m": 78,
      "n": 79,
      "o": 80,
      "p": 81,
      "q": 82,
      "r": 83,
      "s": 84,
      "t": 85,
      "u": 86,
      "v": 87,
      "w": 88,
      "x": 89,
      "y": 90,
      "z": 91,
      "{": 92,
      "|": 93,
      "}": 94,
      "~": 95,
      "¡": 96,
      "¢": 97,
      "£": 98,
      "¤": 99,
      "¥": 100,
      "¦": 101,
      "§": 102,
      "¨": 103,
      "©": 104,
      "ª": 105,
      "«": 106,
      "¬": 107,
      "®": 108,
      "¯": 109,
      "°": 110,
      "±": 111,
      "²": 112,
      "³": 113,
      "´": 114,
      "µ": 115,
      "¶": 116,
      "·": 117,
      "¸": 118,
      "¹": 119,
      "º": 120,
      "»": 121,
      "¼": 122,
      "½": 123,
      "¾": 124,
      "¿": 125,
      "Â": 126,
      "Ã": 127,
      "Ä": 128,
      "Å": 129,
      "Æ": 130,
      "Ç": 131,
      "È": 132,
      "É": 133,
      "Ê": 134,
      "Ë": 135,
      "Ì": 136,
      "Í": 137,
      "Î": 138,
      "Ï": 139,
      "Ð": 140,
      "Ñ": 141,
      "Ò": 142,
      "Ó": 143,
      "Ô": 144,
      "Õ": 145,
      "Ö": 146,
      "×": 147,
      "Ø": 148,
      "Ù": 149,
      "Ú": 150,
      "Û": 151,
      "Ü": 152,
      "Ý": 153,
      "Þ": 154,
      "ß": 155,
      "à": 156,
      "á": 157,
      "â": 158,
      "ã": 159,
      "ä": 160,
      "å": 161,
      "æ": 162,
      "ç": 163,
      "è": 164,
      "é": 165,
      "ê": 166,
      "ë": 167,
      "ì": 168,
      "í": 169,
      "î": 170,
      "ï": 171,
      "ð": 172,
      "ó": 173,
      "ĉ": 174,
      "Ċ": 175,
      "Ġ": 176,
      "Ģ": 177,
      "ģ": 178,
      "Ĥ": 179,
      "ĥ": 180,
      "Ħ": 181,
      "ħ": 182,
      "Ĩ": 183,
      "ĩ": 184,
      "Ī": 185,
      "ī": 186,
      "Ĭ": 187,
      "ĭ": 188,
      "Į": 189,
      "į": 190,
      "İ": 191,
      "ı": 192,
      "Ĳ": 193,
      "ĳ": 194,
      "Ĵ": 195,
      "ĵ": 196,
      "Ķ": 197,
      "ķ": 198,
      "ĸ": 199,
      "Ĺ": 200,
      "ĺ": 201,
      "Ļ": 202,
      "ļ": 203,
      "Ľ": 204,
      "ľ": 205,
      "Ŀ": 206,
      "ŀ": 207,
      "Ł": 208,
      "ł": 209,
      "Ń": 210,
      "Ġt": 211,
      "Ġa": 212,
      "er": 213,
      "in": 214,
      "en": 215,
      "he": 216,
      "on": 217,
      "es": 218,
      "Ġs": 219,
      "or": 220,
      "Ġthe": 221,
      "Ġd": 222,
      "at": 223,
      "an": 224,
      "ar": 225,
      "Ġc": 226,
      "Ġo": 227,
      "is": 228,
      "Ġp": 229,
      "re": 230,
      "al": 231,
      "it": 232,
      "Ġw": 233,
      "Ġb": 234,
      "ed": 235,
      "nd": 236,
      "Ġm": 237,
      "ic": 238,
      "Ġf": 239,
      "as": 240,
      "Ġof": 241,
      "Ġin": 242,
      "el": 243,
      "Ġl": 244,
      "ing": 245,
      "ro": 246,
      "ion": 247,
      "Ġand": 248,
      "Ġto": 249,
      "Ġh": 250,
      "ent": 251,
      "il": 252,
      "ou": 253,
      "Ä±": 254,
      "os": 255,
      "ch": 256,
      "Ġe": 257,
      "Ġn": 258,
      "Ġth": 259,
      "le": 260,
      "Ġde": 261,
      "om": 262,
      "Ġg": 263,
      "us": 264,
      "un": 265,
      "ct": 266,
      "ad": 267,
      "ir": 268,
      "et": 269,
      "ĠS": 270,
      "ur": 271,
      "im": 272,
      "ol": 273,
      "id": 274,
      "ĠA": 275,
      "am": 276,
      "Ġy": 277,
      "ĠT": 278,
      "Ġv": 279,
      "âĢ": 280,
      "Ġre": 281,
      "ut": 282,
      "Ġis": 283,
      "ig": 284,
      "iv": 285,
      "Ã¼": 286,
      "Ġbe": 287,
      "ation": 288,
      "ers": 289,
      "ce": 290,
      "ĠC": 291,
      "ot": 292,
      "ul": 293,
      "ay": 294,
      "est": 295,
      "ĠM": 296,
      "em": 297,
      "qu": 298,
      "ly": 299,
      "st": 300,
      "ra": 301,
      "Ġfor": 302,
      "ĠI": 303,
      "ĠB": 304,
      "Ġcon": 305,
      "Ġk": 306,
      "ci": 307,
      "ow": 308,
      "ĠP": 309,
      "Ġon": 310,
      "th": 311,
      "Ġal": 312,
      "Ġr": 313,
      "Ġst": 314,
      "ie": 315,
      "ab": 316,
      "Ġthat": 317,
      "ter": 318,
      "um": 319,
      "Ġ1": 320,
      "Ġwh": 321,
      "Ġpro": 322,
      "Ġan": 323,
      "ĠD": 324,
      "ĠE": 325,
      "ich": 326,
      "Ġ(": 327,
      "ak": 328,
      "ere": 329,
      "Ġas": 330,
      "Ġen": 331,
      "ist": 332,
      "and": 333,
      "ith": 334,
      "und": 335,
      "Ġse": 336,
      "ess": 337,
      "ÅŁ": 338,
      "ĠH": 339,
      "od": 340,
      "ä¸": 341,
      "av": 342,
      "if": 343,
      "Ġor": 344,
      "ge": 345,
      "ĠF": 346,
      "ï¼": 347,
      "ac": 348,
      "ĠG": 349,
      "Ġwith": 350,
      "ver": 351,
      "Ġare": 352,
      "ĠW": 353,
      "Ġcom": 354,
      "ĠR": 355,
      "te": 356,
      "op": 357,
      "Ġit": 358,
      "Ġun": 359,
      "Ġqu": 360,
      "ill": 361,
      "ĠL": 362,
      "Ġsu": 363,
      "iz": 364,
      "ĠThe": 365,
      "Ġex": 366,
      "Ġla": 367,
      "Ġ2": 368,
      "ect": 369,
      "ap": 370,
      "ĠN": 371,
      "ies": 372,
      "ant": 373,
      "ld": 374,
      "ï¼Į": 375,
      "se": 376,
      "Ã¶": 377,
      "ud": 378,
      "Ġhe": 379,
      "Ġel": 380,
      "ate": 381,
      "end": 382,
      "ÄŁ": 383,
      "ine": 384,
      "rom": 385,
      "ib": 386,
      "Ã§": 387,
      "Ġby": 388,
      "Ġat": 389,
      "ity": 390,
      "00": 391,
      "Ã³": 392,
      "ort": 393,
      "ear": 394,
      "our": 395,
      "Ġwas": 396,
      "ment": 397,
      "art": 398,
      "igh": 399,
      "ĠK": 400,
      "ik": 401,
      "ain": 402,
      "Ġund": 403,
      "ag": 404,
      "âĢĻ": 405,
      "Ġfrom": 406,
      "Ġque": 407,
      "og": 408,
      "ive": 409,
      "çļ": 410,
      "Ġne": 411,
      "ind": 412,
      "ãĢ": 413,
      "ell": 414,
      "Ä±n": 415,
      "çļĦ": 416,
      "pl": 417,
      "Ġch": 418,
      "ore": 419,
      "ave": 420,
      "oc": 421,
      "Ġus": 422,
      "Ġim": 423,
      "lar": 424,
      "ĠO": 425,
      "ĠU": 426,
      "ĠâĢ": 427,
      "ĠJ": 428,
      "all": 429,
      "Ġnot": 430,
      "up": 431,
      "Ġab": 432,
      "ip": 433,
      "ical": 434,
      "ure": 435,
      "äº": 436,
      "Ġcan": 437,
      "Ġsp": 438,
      "ia": 439,
      "Ġres": 440,
      "Ġpr": 441,
      "ach": 442,
      "ung": 443,
      "ard": 444,
      "Ġhave": 445,
      "ast": 446,
      "ost": 447,
      "ust": 448,
      "ĠIn": 449,
      "Ġz": 450,
      "ÃŃ": 451,
      "Ã¤": 452,
      "Ġsh": 453,
      "Ã¡": 454,
      "ek": 455,
      "ff": 456,
      "ug": 457,
      "ans": 458,
      "Ġwe": 459,
      "ten": 460,
      "per": 461,
      "ber": 462,
      "Ġes": 463,
      "Ġthis": 464,
      "Ã³n": 465,
      "ok": 466,
      "ĠV": 467,
      "Ġtr": 468,
      "ight": 469,
      "Ġso": 470,
      "Ġyou": 471,
      "du": 472,
      "Ġle": 473,
      "Ġpl": 474,
      "'s": 475,
      "orm": 476,
      "ould": 477,
      "ions": 478,
      "ated": 479,
      "Ġ\"": 480,
      "ah": 481,
      "Ġad": 482,
      "Ġder": 483,
      "ther": 484,
      "Ġve": 485,
      "ome": 486,
      "ler": 487,
      "pp": 488,
      "ult": 489,
      "Ġwor": 490,
      "Ġme": 491,
      "nt": 492,
      "âĢĿ": 493,
      "ial": 494,
      "æľ": 495,
      "ass": 496,
      "The": 497,
      "Ġar": 498,
      "act": 499,
      "Ġcont": 500,
      "ide": 501,
      "Ġper": 502,
      "ier": 503,
      "Ġdie": 504,
      "so": 505,
      "Ġj": 506,
      "ue": 507,
      "Ġ19": 508,
      "ual": 509,
      "Ġdis": 510,
      "cc": 511,
      "Ġcomp": 512,
      "ild": 513,
      "out": 514,
      "ep": 515,
      "åı": 516,
      "ents": 517,
      "Ġdes": 518,
      "Ġinc": 519,
      "ov": 520,
      "Ġwhich": 521,
      "ence": 522,
      "Ġpar": 523,
      "ub": 524,
      "Ġtheir": 525,
      "Ġman": 526,
      "Ã¼r": 527,
      "ĠTh": 528,
      "ens": 529,
      "ous": 530,
      "ĠSt": 531,
      "ire": 532,
      "ãĢĤ": 533,
      "Ġall": 534,
      "ong": 535,
      "to": 536,
      "uch": 537,
      "Ġest": 538,
      "ä»": 539,
      "age": 540,
      "ile": 541,
      "Ġlos": 542,
      "ary": 543,
      "her": 544,
      "åħ": 545,
      "ater": 546,
      "fer": 547,
      "å¤": 548,
      "ations": 549,
      "able": 550,
      "Ġthey": 551,
      "iy": 552,
      "Ġno": 553,
      "ew": 554,
      "Ġdo": 555,
      "ang": 556,
      "mer": 557,
      "Ġhas": 558,
      "Ġbir": 559,
      "ood": 560,
      "Ġwill": 561,
      "Ġwere": 562,
      "Ġmore": 563,
      "Ġcl": 564,
      "Ġver": 565,
      "pr": 566,
      "aus": 567,
      "pt": 568,
      "ord": 569,
      "hr": 570,
      "gr": 571,
      "Ġte": 572,
      "erv": 573,
      "Ġi": 574,
      "Ġein": 575,
      "ciÃ³n": 576,
      "ey": 577,
      "ces": 578,
      "vel": 579,
      "uf": 580,
      "Ġpre": 581,
      "de": 582,
      "Ã©": 583,
      "ign": 584,
      "Ġbut": 585,
      "az": 586,
      "form": 587,
      "port": 588,
      ").": 589,
      "ian": 590,
      "Ġdel": 591,
      "ĠâĢľ": 592,
      "ack": 593,
      "Ġpart": 594,
      "Ġev": 595,
      "ction": 596,
      "ely": 597,
      "ase": 598,
      "Ġone": 599,
      "ace": 600,
      "å®": 601,
      "Ġhis": 602,
      "ite": 603,
      "pe": 604,
      "ice": 605,
      "ĠY": 606,
      "åľ": 607,
      "Ġ3": 608,
      "io": 609,
      "ose": 610,
      "ame": 611,
      "ied": 612,
      "Ä±r": 613,
      "we": 614,
      "åĪ": 615,
      "ish": 616,
      "ru": 617,
      "ck": 618,
      "ors": 619,
      "01": 620,
      "ition": 621,
      "ry": 622,
      "reat": 623,
      "la": 624,
      "ance": 625,
      "che": 626,
      "ne": 627,
      "Ġalso": 628,
      "Ġother": 629,
      "ren": 630,
      "ory": 631,
      "æĺ": 632,
      "olog": 633,
      "Ġam": 634,
      "è¿": 635,
      "..": 636,
      "Ġinter": 637,
      "con": 638,
      "ount": 639,
      "ts": 640,
      "Ġ-": 641,
      "ä½": 642,
      "cial": 643,
      "Ġyour": 644,
      "Ġwho": 645,
      "ien": 646,
      "ime": 647,
      "Ġmay": 648,
      "Ġro": 649,
      "Ġout": 650,
      "ient": 651,
      "åĲ": 652,
      "ĠUn": 653,
      "oll": 654,
      "ado": 655,
      "ake": 656,
      "are": 657,
      "lic": 658,
      "Ġabout": 659,
      "rit": 660,
      "Ġpe": 661,
      "Ġits": 662,
      "iel": 663,
      "Ġgen": 664,
      "Ġrec": 665,
      "Ġsa": 666,
      "lÄ±": 667,
      "ob": 668,
      "ugh": 669,
      "Ġstud": 670,
      "over": 671,
      "ph": 672,
      "ark": 673,
      "ern": 674,
      "æĪ": 675,
      "Ġup": 676,
      "ail": 677,
      "ook": 678,
      "ates": 679,
      "one": 680,
      "ert": 681,
      "ound": 682,
      "Ġthan": 683,
      "Ġgro": 684,
      "Ġsy": 685,
      "ĠÃ§": 686,
      "Ġyear": 687,
      "çĶ": 688,
      "lan": 689,
      "eb": 690,
      "Ġlas": 691,
      "Ġbeen": 692,
      "Ġden": 693,
      "Ġag": 694,
      "Ã¼n": 695,
      "ays": 696,
      "ric": 697,
      "aÅŁ": 698,
      "å°": 699,
      "Ġbu": 700,
      "Ġbec": 701,
      "les": 702,
      "Ġed": 703,
      "Ġem": 704,
      "Ġcomm": 705,
      "ĠAl": 706,
      "Ġcons": 707,
      "own": 708,
      "ple": 709,
      "Ġ200": 710,
      "Ġpara": 711,
      "Ġhad": 712,
      "Ġpor": 713,
      "Ġspe": 714,
      "ons": 715,
      "Ġwork": 716,
      "ings": 717,
      "Ġthem": 718,
      "der": 719,
      "ĠCh": 720,
      "ä¸Ģ": 721,
      "ade": 722,
      "Ġact": 723,
      "Ġind": 724,
      "ä¹": 725,
      "ft": 726,
      "Ġob": 727,
      "gh": 728,
      "Ġsome": 729,
      "Ġer": 730,
      "icht": 731,
      "),": 732,
      "ational": 733,
      "ree": 734,
      "ĠAn": 735,
      "Ġapp": 736,
      "ular": 737,
      "gen": 738,
      "Ġthere": 739,
      "Ġinto": 740,
      "åĬ": 741,
      "erm": 742,
      "aciÃ³n": 743,
      "Ġent": 744,
      "ann": 745,
      "ari": 746,
      "ĠIt": 747,
      "ople": 748,
      "Ġdif": 749,
      "Ä±nd": 750,
      "æĸ": 751,
      "Ġacc": 752,
      "lud": 753,
      "ĠRe": 754,
      "Ġsch": 755,
      "den": 756,
      "Ġfir": 757,
      "ough": 758,
      "lem": 759,
      "fic": 760,
      "ve": 761,
      "iss": 762,
      "Ġwhen": 763,
      "Ġuna": 764,
      "Ã¶n": 765,
      "æĺ¯": 766,
      "ada": 767,
      "Ġ4": 768,
      "Ġtra": 769,
      "lu": 770,
      "ism": 771,
      "Ġbet": 772,
      "Ġwould": 773,
      "Ġthese": 774,
      "Ġkn": 775,
      "rough": 776,
      "Ġover": 777,
      "åĽ": 778,
      "Ġdur": 779,
      "Ġbl": 780,
      "lich": 781,
      "ause": 782,
      "ject": 783,
      "Ġcol": 784,
      "ivers": 785,
      "Ġtw": 786,
      "stem": 787,
      "ĠZ": 788,
      "Ä°": 789,
      "Ã±": 790,
      "int": 791,
      "Ġmost": 792,
      "Ġnew": 793,
      "Ġtime": 794,
      "Ġprodu": 795,
      "Ġ5": 796,
      "Ġher": 797,
      "Ä±m": 798,
      "Ġform": 799,
      "âĢľ": 800,
      "eit": 801,
      "Ġrel": 802,
      "ced": 803,
      "Ġist": 804,
      "Ġmit": 805,
      "Ġac": 806,
      "aj": 807,
      "ks": 808,
      "Ġzu": 809,
      "Ġgr": 810,
      "Ġsuch": 811,
      "ãĢģ": 812,
      "ally": 813,
      "ĠPro": 814,
      "oy": 815,
      "ise": 816,
      "Ġdem": 817,
      "æĹ": 818,
      "Ġpeople": 819,
      "iÅŁ": 820,
      "Ġuse": 821,
      "ities": 822,
      "ĠThis": 823,
      "land": 824,
      "ç»": 825,
      "ÃŃa": 826,
      "velop": 827,
      "Ġreg": 828,
      "ike": 829,
      "ĠÃ¼": 830,
      "Ġhow": 831,
      "wn": 832,
      "ros": 833,
      "tern": 834,
      "Ġpres": 835,
      "Ġif": 836,
      "idad": 837,
      "gan": 838,
      "Ġ201": 839,
      "ath": 840,
      "ific": 841,
      "Ġpers": 842,
      "ĠAr": 843,
      "Ġdec": 844,
      "uc": 845,
      "Ġprov": 846,
      "ĠÃ": 847,
      "å¹": 848,
      "Ä±z": 849,
      "ĠEn": 850,
      "Ġpos": 851,
      "Ġinclud": 852,
      "Ġfirst": 853,
      "Ġonly": 854,
      "ool": 855,
      "ec": 856,
      "Ġph": 857,
      "åį": 858,
      "Ä±ÅŁ": 859,
      "Ġeff": 860,
      "alth": 861,
      "res": 862,
      "Ġge": 863,
      "ond": 864,
      "Ġany": 865,
      "earch": 866,
      "omm": 867,
      "ible": 868,
      "ll": 869,
      "åľ¨": 870,
      "ick": 871,
      "Ġvon": 872,
      "ys": 873,
      "Ã¡s": 874,
      "In": 875,
      "als": 876,
      "fter": 877,
      "ä¼": 878,
      "rib": 879,
      "è¯": 880,
      "Ġra": 881,
      "Ġet": 882,
      "ower": 883,
      "ĠHe": 884,
      "Ġchild": 885,
      "ink": 886,
      "Ġtwo": 887,
      "ran": 888,
      "cess": 889,
      "ating": 890,
      "ement": 891,
      "ins": 892,
      "Ġauf": 893,
      "ont": 894,
      "Ġhigh": 895,
      "kt": 896,
      "li": 897,
      "ä¸į": 898,
      "ics": 899,
      "Ġour": 900,
      "Ġfe": 901,
      "||": 902,
      "Ġinv": 903,
      "Ġused": 904,
      "arg": 905,
      "Ġmod": 906,
      "Ġ18": 907,
      "Ġdevelop": 908,
      "è®": 909,
      "Ġmany": 910,
      "æľī": 911,
      "Ġol": 912,
      "chen": 913,
      "Ġsur": 914,
      "æĿ": 915,
      "åŃ": 916,
      "ĠWh": 917,
      "itt": 918,
      "ident": 919,
      "Ġsub": 920,
      "Ġbel": 921,
      "atur": 922,
      "Ġwhat": 923,
      "hed": 924,
      "chn": 925,
      "Ġthrough": 926,
      "oth": 927,
      "äºº": 928,
      "æī": 929,
      "old": 930,
      "Ġmed": 931,
      "Ġfl": 932,
      "ĠfÃ¼r": 933,
      "Ġneed": 934,
      "ini": 935,
      "äºĨ": 936,
      "pro": 937,
      "ative": 938,
      "red": 939,
      "its": 940,
      "uy": 941,
      "ĠAs": 942,
      "ĠiÃ§": 943,
      "ÃŁ": 944,
      "abil": 945,
      "Ġinform": 946,
      "meric": 947,
      "Ġsystem": 948,
      "Ġprob": 949,
      "Ġpol": 950,
      "Ġinf": 951,
      "Th": 952,
      "ress": 953,
      "Ġatt": 954,
      "erg": 955,
      "oh": 956,
      "pos": 957,
      "Ä±k": 958,
      "Ġyears": 959,
      "me": 960,
      "Ġdas": 961,
      "Ġda": 962,
      "eth": 963,
      "ĠSch": 964,
      "ited": 965,
      "ution": 966,
      "å¾": 967,
      "å¸": 968,
      "Ġtrans": 969,
      "Ġlo": 970,
      "tic": 971,
      "gram": 972,
      "ĠâĢĵ": 973,
      "Ġins": 974,
      "Ġhab": 975,
      "ife": 976,
      "Ġrem": 977,
      "Ġinst": 978,
      "å¥": 979,
      "Ġcar": 980,
      "eral": 981,
      "ased": 982,
      "Ġdi": 983,
      "ful": 984,
      "Ġ6": 985,
      "urn": 986,
      "ene": 987,
      "Ġsc": 988,
      "orn": 989,
      "ily": 990,
      "pect": 991,
      "éĢ": 992,
      "xt": 993,
      "Ġpo": 994,
      "Ġdiffer": 995,
      "arm": 996,
      "Ġson": 997,
      "Ġadd": 998,
      "Ġhel": 999,
      "Ġcent": 1000,
      "ines": 1001,
      "ente": 1002,
      "Ġmon": 1003,
      "ween": 1004,
      "cy": 1005,
      "å·": 1006,
      "éĩ": 1007,
      "Ã¶r": 1008,
      "Ġser": 1009,
      "Ġmuch": 1010,
      "ists": 1011,
      "ĠAmeric": 1012,
      "ale": 1013,
      "å¼": 1014,
      "Ġint": 1015,
      "Ġcould": 1016,
      "Ä±l": 1017,
      "Ġwater": 1018,
      "ract": 1019,
      "Ġshould": 1020,
      "uss": 1021,
      "ange": 1022,
      "Ġear": 1023,
      "Ġnum": 1024,
      "ata": 1025,
      "Ġsm": 1026,
      "ious": 1027,
      "ever": 1028,
      "Ġbetween": 1029,
      "fore": 1030,
      "Ġperson": 1031,
      "erst": 1032,
      "ology": 1033,
      "19": 1034,
      "ĠDe": 1035,
      "af": 1036,
      "Ġpub": 1037,
      "ict": 1038,
      "Ġimport": 1039,
      "uz": 1040,
      "Ġwell": 1041,
      "Ġdr": 1042,
      "iones": 1043,
      "ional": 1044,
      "Ġhelp": 1045,
      "Ġtod": 1046,
      "lam": 1047,
      "Ġsol": 1048,
      ".\"": 1049,
      "inde": 1050,
      "Ġget": 1051,
      "ize": 1052,
      "Ġgo": 1053,
      "men": 1054,
      "èĢ": 1055,
      "Ġwhere": 1056,
      "man": 1057,
      "ma": 1058,
      "åº": 1059,
      "Ġaut": 1060,
      "Ġsaid": 1061,
      "que": 1062,
      "Ġco": 1063,
      "ants": 1064,
      "000": 1065,
      "Ġsim": 1066,
      "Ġlike": 1067,
      "cent": 1068,
      "ri": 1069,
      "Ġcre": 1070,
      "cept": 1071,
      "è¡": 1072,
      "Ġold": 1073,
      "Ġsich": 1074,
      "ĠÅŁ": 1075,
      "Ġfound": 1076,
      "ider": 1077,
      "Ġresearch": 1078,
      "ually": 1079,
      "let": 1080,
      "åĩ": 1081,
      "Ġhum": 1082,
      "Ä±nda": 1083,
      "Ġserv": 1084,
      "att": 1085,
      "Ġever": 1086,
      "ird": 1087,
      "Ġdist": 1088,
      "Ġstr": 1089,
      "Ġsupp": 1090,
      "å¤§": 1091,
      "eg": 1092,
      "Ġyap": 1093,
      "iew": 1094,
      "ute": 1095,
      "vent": 1096,
      "uro": 1097,
      "inal": 1098,
      "led": 1099,
      "Ġafter": 1100,
      "ä¸Ń": 1101,
      "Ġass": 1102,
      "elf": 1103,
      "ido": 1104,
      "Ġcount": 1105,
      "cia": 1106,
      "ven": 1107,
      "Ġloc": 1108,
      "ork": 1109,
      "ĠSp": 1110,
      "Ġpartic": 1111,
      "çĽ": 1112,
      "eh": 1113,
      "ments": 1114,
      "Ġap": 1115,
      "Ġresult": 1116,
      "ĥ½": 1117,
      "enn": 1118,
      "ues": 1119,
      "Ġcall": 1120,
      "Ġdisc": 1121,
      "ued": 1122,
      "åĨ": 1123,
      "asÄ±": 1124,
      "ret": 1125,
      "round": 1126,
      "Ġlong": 1127,
      "ature": 1128,
      "Ġexam": 1129,
      "Ġ7": 1130,
      "Ġexper": 1131,
      "Ä±nÄ±": 1132,
      "other": 1133,
      "ina": 1134,
      "Ġfam": 1135,
      "Ġspeci": 1136,
      "overn": 1137,
      "Ġsin": 1138,
      "å¯": 1139,
      "ex": 1140,
      "Ġjust": 1141,
      "Ġsign": 1142,
      "ior": 1143,
      "Ġthose": 1144,
      "Ġbecause": 1145,
      "uest": 1146,
      "Ġworld": 1147,
      "Ġincre": 1148,
      "Ġpat": 1149,
      "Ġthen": 1150,
      "Ġ10": 1151,
      "Ġvery": 1152,
      "ĠSie": 1153,
      "Ġdef": 1154,
      "Ġwar": 1155,
      "plic": 1156,
      "ives": 1157,
      "çī": 1158,
      "åĮ": 1159,
      "min": 1160,
      "ando": 1161,
      "ĠNew": 1162,
      "amp": 1163,
      "Ġmake": 1164,
      "uer": 1165,
      "Ġhist": 1166,
      "amb": 1167,
      "Ġcomo": 1168,
      "esi": 1169,
      "Ġext": 1170,
      "ĠmÃ¡s": 1171,
      "sch": 1172,
      "ures": 1173,
      "Ġset": 1174,
      "Ġeffect": 1175,
      "rol": 1176,
      "Ġ8": 1177,
      "Ġprogram": 1178,
      "ollow": 1179,
      "cient": 1180,
      "Ġfind": 1181,
      "Ġinformation": 1182,
      "Ġknow": 1183,
      "ds": 1184,
      "Ġeven": 1185,
      "ved": 1186,
      "da": 1187,
      "uk": 1188,
      "æĬ": 1189,
      "ning": 1190,
      "ically": 1191,
      "ases": 1192,
      "Ġhealth": 1193,
      "par": 1194,
      "ĠÃ¶": 1195,
      "Ġcap": 1196,
      "Ġdire": 1197,
      "ages": 1198,
      "èµ": 1199,
      "è§": 1200,
      "Ġ199": 1201,
      "Ġnicht": 1202,
      "larÄ±": 1203,
      "iÄŁ": 1204,
      "ores": 1205,
      "Ġaus": 1206,
      "Ġproblem": 1207,
      "ove": 1208,
      "Ġav": 1209,
      "hes": 1210,
      "Ġeine": 1211,
      "Ġvari": 1212,
      "ron": 1213,
      "ather": 1214,
      "Ġtem": 1215,
      ".,": 1216,
      "nen": 1217,
      "ev": 1218,
      "Ġty": 1219,
      "ĠFor": 1220,
      "æķ": 1221,
      "Ġrequ": 1222,
      "alt": 1223,
      "pen": 1224,
      "ruct": 1225,
      "eler": 1226,
      "Ġfact": 1227,
      "lo": 1228,
      "Ãº": 1229,
      "Ġunder": 1230,
      "Ġresp": 1231,
      "ety": 1232,
      "the": 1233,
      "iler": 1234,
      "ock": 1235,
      "cer": 1236,
      "iversity": 1237,
      "Ġcor": 1238,
      "any": 1239,
      "ĠiÃ§in": 1240,
      "Ġeach": 1241,
      "Ġmin": 1242,
      "com": 1243,
      "ral": 1244,
      "Ġ9": 1245,
      "Ġoff": 1246,
      "Ġreal": 1247,
      "ger": 1248,
      "iron": 1249,
      "åĴ": 1250,
      "ward": 1251,
      "ized": 1252,
      "be": 1253,
      "Ġdifferent": 1254,
      "Ġway": 1255,
      "âĢĶ": 1256,
      "imes": 1257,
      "Ġmade": 1258,
      "Ġcur": 1259,
      "aÄŁ": 1260,
      "ital": 1261,
      "els": 1262,
      "Ġtak": 1263,
      "Ġbeing": 1264,
      "Ġpop": 1265,
      "æĪĳ": 1266,
      "Ġchildren": 1267,
      "Ġshe": 1268,
      "æĢ": 1269,
      "igen": 1270,
      "Ġha": 1271,
      "ices": 1272,
      "Ġduring": 1273,
      "ĠÄ°": 1274,
      "å¿": 1275,
      "Wh": 1276,
      "Ġorgan": 1277,
      "Ġbr": 1278,
      "Ġend": 1279,
      "è¦": 1280,
      "ä¸Ĭ": 1281,
      "ungen": 1282,
      "mak": 1283,
      "Ġ20": 1284,
      "Ã¼k": 1285,
      "Ġauch": 1286,
      "iÃ³n": 1287,
      "Ġval": 1288,
      "Ġfollow": 1289,
      "æĶ": 1290,
      "Ġsame": 1291,
      "è´": 1292,
      "ix": 1293,
      "ars": 1294,
      "ner": 1295,
      "çİ": 1296,
      "æŃ": 1297,
      "å±": 1298,
      "ĠWe": 1299,
      "Ġtest": 1300,
      "Ġtechn": 1301,
      "ados": 1302,
      "å½": 1303,
      "ished": 1304,
      "Ġown": 1305,
      "ness": 1306,
      "...": 1307,
      "bre": 1308,
      "pres": 1309,
      "Ġcommun": 1310,
      "Ġevery": 1311,
      "ĠInd": 1312,
      "Ġright": 1313,
      "Ġstudy": 1314,
      "Ġvis": 1315,
      "Ġmem": 1316,
      "alar": 1317,
      "Ġhim": 1318,
      "line": 1319,
      "Ġprote": 1320,
      "hip": 1321,
      "tt": 1322,
      "Ã¼z": 1323,
      "Ġsit": 1324,
      "Ġlife": 1325,
      "ĠSo": 1326,
      "ras": 1327,
      "Ġelect": 1328,
      ",\"": 1329,
      "çľ": 1330,
      "Ġgroup": 1331,
      "ets": 1332,
      "omen": 1333,
      "Ä±ÄŁ": 1334,
      "Ġprocess": 1335,
      "æł": 1336,
      "ting": 1337,
      "Ġactiv": 1338,
      "Ġil": 1339,
      "'t": 1340,
      "åĴĮ": 1341,
      "10": 1342,
      "ivid": 1343,
      "ios": 1344,
      "ands": 1345,
      "lect": 1346,
      "ĠSe": 1347,
      "Ġgel": 1348,
      "Ġschool": 1349,
      "Ġsmall": 1350,
      "Ġagain": 1351,
      ".âĢĿ": 1352,
      "Ġboth": 1353,
      "ted": 1354,
      "ax": 1355,
      "arge": 1356,
      "éĻ": 1357,
      "oun": 1358,
      "Ġsee": 1359,
      "ca": 1360,
      "eng": 1361,
      "ury": 1362,
      "Ġimportant": 1363,
      "Ġlevel": 1364,
      "Ġconst": 1365,
      "Ġlead": 1366,
      "Ġocc": 1367,
      "Ġread": 1368,
      "ody": 1369,
      "raph": 1370,
      "Ġsl": 1371,
      "éĹ": 1372,
      "cul": 1373,
      "Ġequ": 1374,
      "ĠCon": 1375,
      "Ġhuman": 1376,
      "èĩ": 1377,
      "Ġback": 1378,
      "Ġbefore": 1379,
      "Ġsk": 1380,
      "ww": 1381,
      "ä»¥": 1382,
      "iver": 1383,
      "ales": 1384,
      "Ġdise": 1385,
      "Ġmy": 1386,
      "Ġmet": 1387,
      "Ġshow": 1388,
      "ilm": 1389,
      "Ġke": 1390,
      "20": 1391,
      "ĠgÃ¶": 1392,
      "read": 1393,
      "Ġdies": 1394,
      "Ä±y": 1395,
      "ç§": 1396,
      "Ġpublic": 1397,
      "ĠThey": 1398,
      "rain": 1399,
      "Ġdoes": 1400,
      "leri": 1401,
      "viron": 1402,
      "Ã¼m": 1403,
      "Ġappro": 1404,
      "Ġnow": 1405,
      "ently": 1406,
      "Ġcontin": 1407,
      "åİ": 1408,
      "Ġche": 1409,
      "Ä±na": 1410,
      "por": 1411,
      "Ġexpl": 1412,
      "ĠEr": 1413,
      "Ġgovern": 1414,
      "Ġgener": 1415,
      "éĿ": 1416,
      "ante": 1417,
      "Ġwer": 1418,
      "cl": 1419,
      "Ġnumber": 1420,
      "Ġlear": 1421,
      "åĽ½": 1422,
      "Ġreport": 1423,
      "ä¸º": 1424,
      "ĠIs": 1425,
      "Ġmen": 1426,
      "ĠAd": 1427,
      "Ġile": 1428,
      "Ġret": 1429,
      "iven": 1430,
      "Ġsay": 1431,
      "Ġsus": 1432,
      "Ġstudents": 1433,
      "Ġfun": 1434,
      "Ġfood": 1435,
      "hor": 1436,
      "Ġconf": 1437,
      "ida": 1438,
      "Ġart": 1439,
      "ides": 1440,
      "iter": 1441,
      "ĠÂ": 1442,
      "Ġuns": 1443,
      "ĠIf": 1444,
      "ility": 1445,
      "æ°": 1446,
      "aterial": 1447,
      "ze": 1448,
      "ank": 1449,
      "Ġpower": 1450,
      "å¹´": 1451,
      "ĠBe": 1452,
      "ä¸ª": 1453,
      "åĪ°": 1454,
      "Ġday": 1455,
      "Ġprof": 1456,
      "Ġthree": 1457,
      "è¦ģ": 1458,
      "Ġposs": 1459,
      "air": 1460,
      "ĠTe": 1461,
      "Ġdev": 1462,
      "Ġless": 1463,
      "Ġpresent": 1464,
      "Ġ15": 1465,
      "æĥ": 1466,
      "Ġmak": 1467,
      "urs": 1468,
      "Ġgood": 1469,
      "Ġdon": 1470,
      "get": 1471,
      "ungs": 1472,
      "åĳ": 1473,
      "çº": 1474,
      "ĠAnd": 1475,
      "æİ": 1476,
      "Ġcu": 1477,
      "med": 1478,
      "ä¿": 1479,
      "len": 1480,
      "Ġgl": 1481,
      "Ġdata": 1482,
      "ĠMar": 1483,
      "--": 1484,
      "Ġmil": 1485,
      "ĠLa": 1486,
      "Ġbest": 1487,
      "ergy": 1488,
      "Ġris": 1489,
      "ĠOr": 1490,
      "Ġtreat": 1491,
      "Ġhat": 1492,
      "æ³": 1493,
      "vironment": 1494,
      "Ġoften": 1495,
      "ĠBut": 1496,
      "outh": 1497,
      "inin": 1498,
      "Ġcond": 1499,
      "Ġdesc": 1500,
      "éģ": 1501,
      "ves": 1502,
      "conom": 1503,
      "Ġcell": 1504,
      "è¿Ļ": 1505,
      "Ġconsider": 1506,
      "Ġdep": 1507,
      "ctor": 1508,
      "Ġref": 1509,
      "Ġmill": 1510,
      "ash": 1511,
      "gl": 1512,
      "ouse": 1513,
      "ĠQ": 1514,
      "Ġdid": 1515,
      "Ġmust": 1516,
      "ana": 1517,
      "bers": 1518,
      "ica": 1519,
      "Ġmov": 1520,
      "Ġimp": 1521,
      "Ġdesign": 1522,
      "ĠAb": 1523,
      "ya": 1524,
      "Ġlook": 1525,
      "Ġmain": 1526,
      "ĠbaÅŁ": 1527,
      "iyor": 1528,
      "Ġbas": 1529,
      "ara": 1530,
      "Ġredu": 1531,
      "ty": 1532,
      "ken": 1533,
      "ico": 1534,
      "æ²": 1535,
      "Ġbi": 1536,
      "ains": 1537,
      "ĠUniversity": 1538,
      "ste": 1539,
      "Ġant": 1540,
      "Ġwhile": 1541,
      "Ġdown": 1542,
      "acter": 1543,
      "ull": 1544,
      "iving": 1545,
      "ĠHow": 1546,
      "Ġide": 1547,
      "Ġcalled": 1548,
      "Ġay": 1549,
      "ĠRes": 1550,
      "alk": 1551,
      "Ġoder": 1552,
      "Ġusing": 1553,
      "Ä±s": 1554,
      "ural": 1555,
      "Ġsupport": 1556,
      "ĠEl": 1557,
      "cience": 1558,
      "ĠAmerican": 1559,
      "way": 1560,
      "Ġgrow": 1561,
      "ĠVer": 1562,
      "Ġmar": 1563,
      "çĶŁ": 1564,
      "gest": 1565,
      "Ġgreat": 1566,
      "Ġadv": 1567,
      "ument": 1568,
      "Ġclass": 1569,
      "ĠLe": 1570,
      "ats": 1571,
      "åĵ": 1572,
      "ential": 1573,
      "ulation": 1574,
      "of": 1575,
      "ĠOn": 1576,
      "Ġprim": 1577,
      "orth": 1578,
      "Ġfr": 1579,
      "ben": 1580,
      "Ġstate": 1581,
      "rop": 1582,
      "lt": 1583,
      "Ġwerden": 1584,
      "ember": 1585,
      "ÅŁt": 1586,
      "è½": 1587,
      "lear": 1588,
      "Ġplan": 1589,
      "ĠPh": 1590,
      "Ġsom": 1591,
      "Ġeduc": 1592,
      "co": 1593,
      "itions": 1594,
      "ER": 1595,
      "ero": 1596,
      "ges": 1597,
      "ator": 1598,
      "abor": 1599,
      "Ġproduct": 1600,
      "iniz": 1601,
      "Ġfre": 1602,
      "Ġcal": 1603,
      "æĹ¶": 1604,
      "Ġ0": 1605,
      "Ġtake": 1606,
      "Ġum": 1607,
      "ined": 1608,
      "cond": 1609,
      "ĠEuro": 1610,
      "ta": 1611,
      "ĠEs": 1612,
      "press": 1613,
      "ĠCom": 1614,
      "Ġterm": 1615,
      "go": 1616,
      "Ġvers": 1617,
      "ton": 1618,
      "Ġsind": 1619,
      "æĿ¥": 1620,
      "This": 1621,
      "au": 1622,
      "ĠÃ¼ber": 1623,
      "æµ": 1624,
      "agn": 1625,
      "row": 1626,
      "uel": 1627,
      "Ġcommon": 1628,
      "Ġincluding": 1629,
      "Ġot": 1630,
      "ä¼ļ": 1631,
      "Ġmus": 1632,
      "aya": 1633,
      "èĥ½": 1634,
      "çĶ¨": 1635,
      "ĠGr": 1636,
      "Ġ'": 1637,
      "Ġpass": 1638,
      "æŀ": 1639,
      "ï¼ļ": 1640,
      "ke": 1641,
      "Ġbul": 1642,
      "ium": 1643,
      "urch": 1644,
      "ino": 1645,
      "Ġrest": 1646,
      "Ġ&": 1647,
      "reen": 1648,
      "sel": 1649,
      "soci": 1650,
      "larÄ±n": 1651,
      "Ġconc": 1652,
      "Ġthough": 1653,
      "ived": 1654,
      "Ġ.": 1655,
      "Ġaround": 1656,
      "Ġoper": 1657,
      "Ġexample": 1658,
      "Ġbo": 1659,
      "åĩº": 1660,
      "åı¯": 1661,
      "uÄŁ": 1662,
      "era": 1663,
      "Ġknown": 1664,
      "Ã¡n": 1665,
      "iye": 1666,
      "Ġcour": 1667,
      "Ġ17": 1668,
      "ĠEx": 1669,
      "ately": 1670,
      "Ġmaterial": 1671,
      "rag": 1672,
      "Ġrev": 1673,
      "Ġ12": 1674,
      "Ġgu": 1675,
      "etz": 1676,
      "ili": 1677,
      "ĠSh": 1678,
      "Ġleg": 1679,
      "ross": 1680,
      "ources": 1681,
      "Ġkon": 1682,
      "ohn": 1683,
      "ĠTr": 1684,
      "eter": 1685,
      "Ġbook": 1686,
      "æ¯": 1687,
      "Ġsocial": 1688,
      "Ġ[": 1689,
      "iento": 1690,
      "Ġlarge": 1691,
      "iod": 1692,
      "Ġfin": 1693,
      "åī": 1694,
      "larak": 1695,
      "Ġcaus": 1696,
      "lik": 1697,
      "çĲ": 1698,
      "Ġmark": 1699,
      "ĠDie": 1700,
      "âĢĵ": 1701,
      "ley": 1702,
      "ĠÃ¶n": 1703,
      "å®¶": 1704,
      "Ġstill": 1705,
      "Ġpued": 1706,
      "ired": 1707,
      "æĭ": 1708,
      "12": 1709,
      "Ġals": 1710,
      "Ġstand": 1711,
      "Ġindivid": 1712,
      "Ġunt": 1713,
      "ief": 1714,
      "Ġaff": 1715,
      "Ġenc": 1716,
      "ission": 1717,
      "ones": 1718,
      "201": 1719,
      "Ġcr": 1720,
      "Ġbeh": 1721,
      "é¢": 1722,
      "ç½": 1723,
      "Ġbei": 1724,
      "ĠUnited": 1725,
      "Ġpercent": 1726,
      "Ġstart": 1727,
      "ained": 1728,
      "Ġwir": 1729,
      "Ġsi": 1730,
      "wh": 1731,
      "atural": 1732,
      "sy": 1733,
      "ote": 1734,
      "ield": 1735,
      "Ġbody": 1736,
      "Ġwrit": 1737,
      "Ġsie": 1738,
      "Ġbuild": 1739,
      "gin": 1740,
      "Ġcare": 1741,
      "Ġeng": 1742,
      "erstand": 1743,
      "ng": 1744,
      "ä¸ĭ": 1745,
      "Ġallow": 1746,
      "pecial": 1747,
      "Ġsever": 1748,
      "Ġplace": 1749,
      "ries": 1750,
      "è¡Į": 1751,
      "Ġfew": 1752,
      "ences": 1753,
      "Ġident": 1754,
      "los": 1755,
      "anz": 1756,
      "ality": 1757,
      "ä¾": 1758,
      "ĠBu": 1759,
      "Ġanim": 1760,
      "50": 1761,
      "bs": 1762,
      "ativ": 1763,
      "Ġvol": 1764,
      "Ġgovernment": 1765,
      "Ġolarak": 1766,
      "ision": 1767,
      "lished": 1768,
      "amos": 1769,
      "ization": 1770,
      "å¦": 1771,
      "ige": 1772,
      "å°±": 1773,
      "Ġcontrol": 1774,
      "ajor": 1775,
      "Ġteach": 1776,
      "ç«": 1777,
      "Ġquest": 1778,
      "ĠCol": 1779,
      "Ġair": 1780,
      "Ġnear": 1781,
      "æĦ": 1782,
      "âĢ¦": 1783,
      "Ġarea": 1784,
      "ĠThere": 1785,
      "Ġgib": 1786,
      "ason": 1787,
      "åıĳ": 1788,
      "Ġintern": 1789,
      "çŃ": 1790,
      "18": 1791,
      "Ġmat": 1792,
      "Ġenergy": 1793,
      "arb": 1794,
      "ĠChr": 1795,
      "ĠCent": 1796,
      "inci": 1797,
      "ĠGe": 1798,
      "ĠPr": 1799,
      "Ġbre": 1800,
      "ination": 1801,
      "ograph": 1802,
      "Ġcult": 1803,
      "Ġpot": 1804,
      "Ġproject": 1805,
      "Ġter": 1806,
      "stit": 1807,
      "Ġland": 1808,
      "Ġeconom": 1809,
      "Ġlaw": 1810,
      "Ġwithin": 1811,
      "ording": 1812,
      "æ¬": 1813,
      "Ġdirect": 1814,
      "Ġchang": 1815,
      "ahr": 1816,
      "Ġmight": 1817,
      "Ġdest": 1818,
      "Ä±ndan": 1819,
      "Ġlight": 1820,
      "Ġhand": 1821,
      "Ġpract": 1822,
      "ration": 1823,
      "Ġsug": 1824,
      "ĠPl": 1825,
      "Ġwithout": 1826,
      "lex": 1827,
      "ä½ľ": 1828,
      "åľ°": 1829,
      "ological": 1830,
      "rip": 1831,
      "ĠMed": 1832,
      "angu": 1833,
      "ä»ĸ": 1834,
      "Ġlim": 1835,
      "ĠAt": 1836,
      "amente": 1837,
      "oms": 1838,
      "å¤ļ": 1839,
      "ĠNational": 1840,
      "ateg": 1841,
      "200": 1842,
      "elt": 1843,
      "ĠStates": 1844,
      "ids": 1845,
      "ames": 1846,
      "Ġvor": 1847,
      "Ġ16": 1848,
      "Ã¤t": 1849,
      "Ġscient": 1850,
      "ertain": 1851,
      "Ġdevelopment": 1852,
      "æĪĲ": 1853,
      "ischen": 1854,
      "Ġanother": 1855,
      "Ġorig": 1856,
      "Ġiss": 1857,
      "ians": 1858,
      "Ġsel": 1859,
      "Ġich": 1860,
      ",âĢĿ": 1861,
      "Ġanal": 1862,
      "Ġwomen": 1863,
      "Ġphys": 1864,
      "Ġlarg": 1865,
      "Ġenvironment": 1866,
      "åĢ": 1867,
      "ource": 1868,
      "ĠiÅŁ": 1869,
      "mek": 1870,
      "erc": 1871,
      "Ġlast": 1872,
      "rem": 1873,
      "Ġsays": 1874,
      "imate": 1875,
      "ĠThese": 1876,
      "Ã¼ÅŁ": 1877,
      "Ġmeas": 1878,
      "Ġcas": 1879,
      "lÄ±k": 1880,
      "Ġchange": 1881,
      "Ġearly": 1882,
      "iert": 1883,
      "æĮ": 1884,
      "AR": 1885,
      "Ġdass": 1886,
      "atic": 1887,
      "org": 1888,
      "Ġdisease": 1889,
      "è¾": 1890,
      "Ġindividual": 1891,
      "po": 1892,
      "Ġten": 1893,
      "less": 1894,
      "ethod": 1895,
      "Ġkar": 1896,
      "lÃ¼": 1897,
      "wer": 1898,
      "Ġthink": 1899,
      "enden": 1900,
      "ht": 1901,
      "ccess": 1902,
      "Ġagainst": 1903,
      "Ġnach": 1904,
      "ä¸ļ": 1905,
      "Ġchar": 1906,
      "Ġperiod": 1907,
      "rar": 1908,
      "Ġtyp": 1909,
      "Ġparticular": 1910,
      "Ġbro": 1911,
      "Ġsal": 1912,
      "ection": 1913,
      "Ġspecies": 1914,
      "ster": 1915,
      "Ġexp": 1916,
      "ailable": 1917,
      "ental": 1918,
      "ĠComm": 1919,
      "Ġhal": 1920,
      "æ¸": 1921,
      "11": 1922,
      "ĠGen": 1923,
      "AS": 1924,
      "aving": 1925,
      "30": 1926,
      "ä¹Ł": 1927,
      "Ġeas": 1928,
      "vers": 1929,
      "ama": 1930,
      "æĸ°": 1931,
      "Ġorder": 1932,
      "ĠCan": 1933,
      "Ġrisk": 1934,
      "ards": 1935,
      "Ġmajor": 1936,
      "Ġinclude": 1937,
      "pa": 1938,
      "çĤ": 1939,
      "Ġdah": 1940,
      "thers": 1941,
      "Ġinterest": 1942,
      "Ġrad": 1943,
      "éĽ": 1944,
      "Ġblood": 1945,
      "Ġhistory": 1946,
      "ĠAm": 1947,
      "ett": 1948,
      "ç¾": 1949,
      "Ġcost": 1950,
      "ept": 1951,
      "ĠdeÄŁ": 1952,
      "ified": 1953,
      "ends": 1954,
      "esch": 1955,
      "Ġexist": 1956,
      "Ġsym": 1957,
      "Ġunderstand": 1958,
      "och": 1959,
      "å¯¹": 1960,
      "Ġeste": 1961,
      "èĩª": 1962,
      "reg": 1963,
      "Ġ198": 1964,
      "Ġappear": 1965,
      "Ġplay": 1966,
      "Ġhy": 1967,
      "Ġlist": 1968,
      "Ġpoint": 1969,
      "met": 1970,
      "åŁ": 1971,
      "Ġbus": 1972,
      "Ġsec": 1973,
      "za": 1974,
      "Ġopp": 1975,
      "ole": 1976,
      "Ġtop": 1977,
      "Ġseveral": 1978,
      "aps": 1979,
      "zer": 1980,
      "Ġwird": 1981,
      "ĠâĢĶ": 1982,
      "éĺ": 1983,
      "é«": 1984,
      "ilt": 1985,
      "ĠChrist": 1986,
      "Ġdeter": 1987,
      "ilar": 1988,
      "ability": 1989,
      "aciones": 1990,
      "Ġlocal": 1991,
      "æĻ": 1992,
      "Ã¼y": 1993,
      "ples": 1994,
      "olution": 1995,
      "acak": 1996,
      "Ġtrad": 1997,
      "app": 1998,
      "Ġrepres": 1999,
      "Ġseg": 2000,
      "Ġcurr": 2001,
      "Ã©n": 2002,
      "Ġhere": 2003,
      "Ġwant": 2004,
      "ister": 2005,
      "ended": 2006,
      "Ġkul": 2007,
      "Ġ|": 2008,
      "cing": 2009,
      "ĠCl": 2010,
      "Ġwie": 2011,
      "ĠUS": 2012,
      "though": 2013,
      "ided": 2014,
      "ender": 2015,
      "itional": 2016,
      "ĠIntern": 2017,
      "It": 2018,
      "An": 2019,
      "å°ı": 2020,
      "zen": 2021,
      "uring": 2022,
      "itive": 2023,
      "isch": 2024,
      "åħ¬": 2025,
      "Ġdam": 2026,
      "ĠâĢĺ": 2027,
      "Ġamong": 2028,
      "AN": 2029,
      "ĠGod": 2030,
      "Ġfour": 2031,
      "ittle": 2032,
      "ES": 2033,
      "ĠAf": 2034,
      "Ã¼t": 2035,
      "ĠAll": 2036,
      "Ġobs": 2037,
      "gun": 2038,
      "Ġimpro": 2039,
      "Ġpolit": 2040,
      "Ġolan": 2041,
      "æĸ¹": 2042,
      "Ġsignific": 2043,
      "erek": 2044,
      "ised": 2045,
      "aut": 2046,
      "Ġlow": 2047,
      "hal": 2048,
      "æ´": 2049,
      "Ġsecond": 2050,
      "Ġfamily": 2051,
      "Ġavailable": 2052,
      "Ġbecome": 2053,
      "Ġestab": 2054,
      "idence": 2055,
      "Ġya": 2056,
      "\".": 2057,
      "æ±": 2058,
      "une": 2059,
      "Ġger": 2060,
      "yn": 2061,
      "ches": 2062,
      "Ġ30": 2063,
      "Ġbene": 2064,
      "leg": 2065,
      "ĠDr": 2066,
      "Ġsince": 2067,
      "Ġesc": 2068,
      "ots": 2069,
      "åģ": 2070,
      "ably": 2071,
      "Ġeinen": 2072,
      "åŃ¦": 2073,
      "Ġ14": 2074,
      "Ġhome": 2075,
      "Ġareas": 2076,
      "ĠIm": 2077,
      "fe": 2078,
      "Ġstat": 2079,
      "ä»¬": 2080,
      "iness": 2081,
      "Ġinvol": 2082,
      "ps": 2083,
      "å¥½": 2084,
      "El": 2085,
      "Ġolm": 2086,
      "ĠkÃ¶n": 2087,
      "Ġview": 2088,
      "Ġfac": 2089,
      "ense": 2090,
      "Ġnon": 2091,
      "Ġproper": 2092,
      "duct": 2093,
      "èĤ": 2094,
      "ye": 2095,
      "etic": 2096,
      "Ġlik": 2097,
      "Ġrece": 2098,
      "ways": 2099,
      "Ġplant": 2100,
      "Ġprovide": 2101,
      "åĪĨ": 2102,
      "ĠÃ§ok": 2103,
      "ected": 2104,
      "rie": 2105,
      "Ġnatural": 2106,
      "Ġgeneral": 2107,
      "cha": 2108,
      "Ġsein": 2109,
      "encia": 2110,
      "ĠaÃ±": 2111,
      "æĹ¥": 2112,
      "Ġdet": 2113,
      "Ġperform": 2114,
      "Ġturn": 2115,
      "Ġcountry": 2116,
      "Ġvir": 2117,
      "ĠBl": 2118,
      "iet": 2119,
      "ify": 2120,
      "Ä±lÄ±": 2121,
      "Ġpossible": 2122,
      "Ġhay": 2123,
      "Ġ$": 2124,
      "St": 2125,
      "æĽ": 2126,
      "ware": 2127,
      "ĠEurope": 2128,
      "ention": 2129,
      "inden": 2130,
      "oph": 2131,
      "Ġespecial": 2132,
      "ane": 2133,
      "ling": 2134,
      "ĠYou": 2135,
      "Ġprom": 2136,
      "ĠWor": 2137,
      "åŃĲ": 2138,
      "å·¥": 2139,
      "ende": 2140,
      "iem": 2141,
      "Ġhead": 2142,
      "Ġlib": 2143,
      "Ġopen": 2144,
      "Ġrefer": 2145,
      "Ġtoo": 2146,
      "use": 2147,
      "Ġrecord": 2148,
      "Ġlater": 2149,
      "Åŀ": 2150,
      "ĠX": 2151,
      "Ġbelie": 2152,
      "ories": 2153,
      "Ġinvest": 2154,
      "adas": 2155,
      "Ġobject": 2156,
      "Ġmethod": 2157,
      "mente": 2158,
      "ope": 2159,
      "åħ¨": 2160,
      "Ġpod": 2161,
      "put": 2162,
      "Ġcir": 2163,
      "ador": 2164,
      "ambi": 2165,
      "urg": 2166,
      "Ã©s": 2167,
      "Ġgra": 2168,
      "ieren": 2169,
      "Ġnorm": 2170,
      "Ġwhe": 2171,
      "Ġfollowing": 2172,
      "Ġlangu": 2173,
      "arr": 2174,
      "endo": 2175,
      "Ã¼nd": 2176,
      "ura": 2177,
      "15": 2178,
      "Ġname": 2179,
      "ients": 2180,
      "Ġmot": 2181,
      "Ġeiner": 2182,
      "Ġcomb": 2183,
      "åĲİ": 2184,
      "Ġmeans": 2185,
      "sen": 2186,
      "Ġzum": 2187,
      "Ġkann": 2188,
      "ements": 2189,
      "tens": 2190,
      "Ġlearn": 2191,
      "//": 2192,
      "Ġyer": 2193,
      "Ġbil": 2194,
      "ourn": 2195,
      "è·": 2196,
      "ĠHowever": 2197,
      "Ġprop": 2198,
      "Ġcause": 2199,
      "ining": 2200,
      "for": 2201,
      "Ġmonth": 2202,
      "ams": 2203,
      "Ġbetter": 2204,
      "ogn": 2205,
      "pre": 2206,
      "ither": 2207,
      "ĠWar": 2208,
      "ison": 2209,
      "ĠFr": 2210,
      "Ġartic": 2211,
      "ustr": 2212,
      "Ġgiven": 2213,
      "EN": 2214,
      "ĠMan": 2215,
      "Ġfut": 2216,
      "Ä±nÄ±n": 2217,
      "Ġfar": 2218,
      "tal": 2219,
      "ym": 2220,
      "br": 2221,
      "Ġpain": 2222,
      "Ġtimes": 2223,
      "é«ĺ": 2224,
      "ĠTo": 2225,
      "Ġuntil": 2226,
      "As": 2227,
      "ario": 2228,
      "ape": 2229,
      "ĠJohn": 2230,
      "äºİ": 2231,
      "Ġrun": 2232,
      "face": 2233,
      "ĠWhen": 2234,
      "å¤©": 2235,
      "Ġauthor": 2236,
      "hem": 2237,
      "cht": 2238,
      "IN": 2239,
      "itor": 2240,
      "ĠPol": 2241,
      "Ġeinem": 2242,
      "éĤ": 2243,
      "tion": 2244,
      "ode": 2245,
      "Ġothers": 2246,
      "Ġsent": 2247,
      "Ġpost": 2248,
      "Ġmean": 2249,
      "not": 2250,
      "Ġmillion": 2251,
      "anÄ±": 2252,
      "urther": 2253,
      "Ġsun": 2254,
      "æı": 2255,
      "Ġcomput": 2256,
      "Ġ11": 2257,
      "ott": 2258,
      "ience": 2259,
      "Ġtre": 2260,
      "ĠNe": 2261,
      "Ġsing": 2262,
      "__": 2263,
      "imiz": 2264,
      "atory": 2265,
      "Ġbased": 2266,
      "åĬ¨": 2267,
      "Ġlittle": 2268,
      "Ġpap": 2269,
      "Ġcase": 2270,
      "Ġcertain": 2271,
      "Ġ13": 2272,
      "ades": 2273,
      "Ġtreatment": 2274,
      "Ġrepresent": 2275,
      "unu": 2276,
      "thern": 2277,
      "Ġkad": 2278,
      "Ġprev": 2279,
      "Ġweek": 2280,
      "ĠBr": 2281,
      "éĥ½": 2282,
      "roll": 2283,
      "Ġopt": 2284,
      "aster": 2285,
      "ĠEar": 2286,
      "ĠHer": 2287,
      "Ġage": 2288,
      "ische": 2289,
      "Ġmult": 2290,
      "çĲĨ": 2291,
      "://": 2292,
      "idd": 2293,
      "ploy": 2294,
      "ĠCar": 2295,
      "è¿ĩ": 2296,
      "Ġsw": 2297,
      "Ġsuggest": 2298,
      "éĥ": 2299,
      "Ġdaha": 2300,
      "Ġsuccess": 2301,
      "Ġobserv": 2302,
      "aw": 2303,
      "Ġalm": 2304,
      "ç®": 2305,
      "Ġprinci": 2306,
      "Ġhistor": 2307,
      "æľ¬": 2308,
      "Ã¼rk": 2309,
      "ince": 2310,
      "ald": 2311,
      "ills": 2312,
      "Ġcancer": 2313,
      "Ġseem": 2314,
      "Ġmach": 2315,
      "ete": 2316,
      "ä½ł": 2317,
      "Ġfund": 2318,
      "éĿ¢": 2319,
      "Ġkullan": 2320,
      "ĠaÃ§": 2321,
      "Ġcentury": 2322,
      "ances": 2323,
      "Ġcells": 2324,
      "ured": 2325,
      "Ġkur": 2326,
      "Ġzur": 2327,
      "ĠMe": 2328,
      "yr": 2329,
      "Ġprevent": 2330,
      "Ġcome": 2331,
      "Ġput": 2332,
      "ĠFl": 2333,
      "iqu": 2334,
      "fect": 2335,
      "by": 2336,
      "inter": 2337,
      "Ġable": 2338,
      "ĠâĢŀ": 2339,
      "ĠgÃ¶r": 2340,
      "str": 2341,
      "Ġproblems": 2342,
      "En": 2343,
      "é¡": 2344,
      "Ġpress": 2345,
      "Ġsurv": 2346,
      "gel": 2347,
      "inc": 2348,
      "å¼Ģ": 2349,
      "Ġdeath": 2350,
      "Al": 2351,
      "Ġih": 2352,
      "ä¹ĭ": 2353,
      "We": 2354,
      "arch": 2355,
      "Ġpa": 2356,
      "Ġassoci": 2357,
      "Ġred": 2358,
      "Ġkeep": 2359,
      "keit": 2360,
      "éķ": 2361,
      "eden": 2362,
      "Ġsum": 2363,
      "ilen": 2364,
      "ON": 2365,
      "ĠBrit": 2366,
      "èī": 2367,
      "å¸Ĥ": 2368,
      "Ġrele": 2369,
      "Ġhaben": 2370,
      "Ġarr": 2371,
      "osp": 2372,
      "urb": 2373,
      "Ġoffic": 2374,
      "çĻ": 2375,
      "Ġnur": 2376,
      "emos": 2377,
      "ayÄ±": 2378,
      "obal": 2379,
      "Ġstruct": 2380,
      "Ġpopulation": 2381,
      "Ġmanag": 2382,
      "ĠolduÄŁ": 2383,
      "ĠNo": 2384,
      "Ġsoci": 2385,
      "çİ°": 2386,
      "Ġfree": 2387,
      "Ġtel": 2388,
      "Ġhowever": 2389,
      "è¶": 2390,
      "Ġ197": 2391,
      "ef": 2392,
      "Ġthings": 2393,
      "Ġpero": 2394,
      "ĠEin": 2395,
      "hen": 2396,
      "Ġsuper": 2397,
      "aten": 2398,
      "yle": 2399,
      "Ġpast": 2400,
      "Ġrespons": 2401,
      "Ġclear": 2402,
      "Ġsimilar": 2403,
      "ows": 2404,
      "Ġnuest": 2405,
      "ites": 2406,
      "ĠÃĸ": 2407,
      "ki": 2408,
      "Ã¤nd": 2409,
      "Ġaccess": 2410,
      "Ġdescrib": 2411,
      "Ġparticip": 2412,
      "Ġindic": 2413,
      "Ġtu": 2414,
      "Ġ--": 2415,
      "å¿ĥ": 2416,
      "å¾Ĺ": 2417,
      "ç¨": 2418,
      "Ä±ÄŁÄ±": 2419,
      "ĠGerm": 2420,
      "çľĭ": 2421,
      "Ġyet": 2422,
      "ĠCal": 2423,
      "cil": 2424,
      "Ġhast": 2425,
      "Ġshort": 2426,
      "Ġhard": 2427,
      "åīį": 2428,
      "Ġdays": 2429,
      "iÄŁi": 2430,
      "Ġtien": 2431,
      "Ġalong": 2432,
      "Ġill": 2433,
      "åĬĽ": 2434,
      "Ġsite": 2435,
      "Ġnoch": 2436,
      "ober": 2437,
      "cle": 2438,
      "work": 2439,
      "aff": 2440,
      "Ġdurch": 2441,
      "ilir": 2442,
      "iment": 2443,
      "cÄ±": 2444,
      "AT": 2445,
      "Ġuy": 2446,
      "Ġpas": 2447,
      "ĠAfric": 2448,
      "ble": 2449,
      "Ġspecial": 2450,
      "ĠPar": 2451,
      "Ġlevels": 2452,
      "La": 2453,
      "Ġtemper": 2454,
      "Ġdom": 2455,
      "Ġsobre": 2456,
      "Ġbegin": 2457,
      "èģ": 2458,
      "Ġspace": 2459,
      "alÄ±ÅŁ": 2460,
      "16": 2461,
      "çĦ": 2462,
      "ators": 2463,
      "Ġheart": 2464,
      "Ġconsum": 2465,
      "ĠMay": 2466,
      "rodu": 2467,
      "Ġmodel": 2468,
      "lichen": 2469,
      "Ġask": 2470,
      "Ġgre": 2471,
      "Ġusually": 2472,
      "Ġoccur": 2473,
      "son": 2474,
      "unt": 2475,
      "æľĢ": 2476,
      "Ġmal": 2477,
      "oman": 2478,
      "ĠEm": 2479,
      "ering": 2480,
      "sh": 2481,
      "Ġesta": 2482,
      ".)": 2483,
      "omb": 2484,
      "ublic": 2485,
      "Ġamount": 2486,
      "17": 2487,
      "eme": 2488,
      "ĠRep": 2489,
      "ule": 2490,
      "Ġsystems": 2491,
      "ĠWest": 2492,
      "sp": 2493,
      "Ġline": 2494,
      "Ġcommunity": 2495,
      "ivil": 2496,
      "Ġcrit": 2497,
      "Ã¼ck": 2498,
      "Ġ100": 2499,
      "ä¸»": 2500,
      "Ġtar": 2501,
      "aki": 2502,
      "ĠYork": 2503,
      "ee": 2504,
      "ables": 2505,
      "Ġut": 2506,
      "fÃ¼": 2507,
      "ç»ı": 2508,
      "ambiÃ©n": 2509,
      "Ġdeb": 2510,
      "Ġtype": 2511,
      "ox": 2512,
      "fl": 2513,
      "13": 2514,
      "14": 2515,
      "ival": 2516,
      "ttp": 2517,
      "ĠWorld": 2518,
      "Ġabove": 2519,
      "Ġsat": 2520,
      "Ġ/": 2521,
      "çķ": 2522,
      "åĲĮ": 2523,
      "Ġbecame": 2524,
      "ka": 2525,
      "ĠkÃ¶nnen": 2526,
      "Ġcolle": 2527,
      "Ġnos": 2528,
      "ç¾İ": 2529,
      "ĠEst": 2530,
      "ç½ĳ": 2531,
      "ç¤": 2532,
      "Ġlikely": 2533,
      "Ġsignificant": 2534,
      "Ġleast": 2535,
      "æ³ķ": 2536,
      "æľº": 2537,
      "ĠSc": 2538,
      "iol": 2539,
      "ç¬": 2540,
      "Ġsex": 2541,
      "na": 2542,
      "amm": 2543,
      "Ġresults": 2544,
      "Ġviel": 2545,
      "ruction": 2546,
      "ribut": 2547,
      "Ġcharacter": 2548,
      "ortun": 2549,
      "Ġexc": 2550,
      "mas": 2551,
      "Ġport": 2552,
      "Ġprotect": 2553,
      "Ġdoc": 2554,
      "èĢĮ": 2555,
      "å»": 2556,
      "Ġcompar": 2557,
      "Ġnever": 2558,
      "Ġplac": 2559,
      "ĠDep": 2560,
      "ending": 2561,
      "è¿Ľ": 2562,
      "iate": 2563,
      "Ġleft": 2564,
      "Ġeducation": 2565,
      "tir": 2566,
      "bar": 2567,
      "Ġprofess": 2568,
      "tain": 2569,
      "abilir": 2570,
      "Ġnational": 2571,
      "è¯´": 2572,
      "Ġir": 2573,
      "ocus": 2574,
      "isi": 2575,
      "åĵģ": 2576,
      "Ġcreat": 2577,
      "ĠStud": 2578,
      "uev": 2579,
      "Ġcamp": 2580,
      "ered": 2581,
      "Ġcountries": 2582,
      "Ġvar": 2583,
      "çŃī": 2584,
      "Ġ25": 2585,
      "gress": 2586,
      "Ġpolic": 2587,
      "Ġabs": 2588,
      "éĥ¨": 2589,
      "uÅŁ": 2590,
      "Ġonline": 2591,
      "ledge": 2592,
      "Ã¼s": 2593,
      "ĠyaÅŁ": 2594,
      "Ġinflu": 2595,
      "Ġkey": 2596,
      "é£": 2597,
      "Ġsitu": 2598,
      "aves": 2599,
      "geb": 2600,
      "atch": 2601,
      "Ġcourse": 2602,
      "Ġdiscuss": 2603,
      "çŁ": 2604,
      "Ġsor": 2605,
      "ystem": 2606,
      "kl": 2607,
      "åĲĪ": 2608,
      "Ġimpact": 2609,
      "Ġnext": 2610,
      "ficult": 2611,
      "itud": 2612,
      "masÄ±": 2613,
      "åķ": 2614,
      "Ġpur": 2615,
      "Ä±yor": 2616,
      "çĿ": 2617,
      "ĠÃĩ": 2618,
      "Ġsens": 2619,
      "ĠgeÃ§": 2620,
      "uen": 2621,
      "Ġ50": 2622,
      "ĠHealth": 2623,
      "ĠNorth": 2624,
      "Ġchem": 2625,
      "acy": 2626,
      "ismo": 2627,
      "erson": 2628,
      "oot": 2629,
      "iles": 2630,
      "Ġevent": 2631,
      "ĠPart": 2632,
      "OR": 2633,
      "Ġside": 2634,
      "ĠDes": 2635,
      "ĠÃ§alÄ±ÅŁ": 2636,
      "unda": 2637,
      "ellen": 2638,
      "ours": 2639,
      "Ġgibi": 2640,
      "Ġrelig": 2641,
      "If": 2642,
      "mitt": 2643,
      "liche": 2644,
      "Ġentre": 2645,
      "ĠMin": 2646,
      "mit": 2647,
      "Ġann": 2648,
      "ament": 2649,
      "Ġconn": 2650,
      "éļ": 2651,
      "ih": 2652,
      "osed": 2653,
      "åĿ": 2654,
      "Ġmehr": 2655,
      "ĠÃľ": 2656,
      "cek": 2657,
      "Ġtoday": 2658,
      "ething": 2659,
      "Ġnecess": 2660,
      "Ġincrease": 2661,
      "oÄŁ": 2662,
      "jo": 2663,
      "å®ŀ": 2664,
      "Ġlanguage": 2665,
      "Ġfall": 2666,
      "Ġpriv": 2667,
      "ffic": 2668,
      "day": 2669,
      "å¦Ĥ": 2670,
      "glish": 2671,
      "å®ļ": 2672,
      "Ġdue": 2673,
      "ĠWhat": 2674,
      "Ġcity": 2675,
      "Ġfunction": 2676,
      "ĠsaÄŁ": 2677,
      "Ġnet": 2678,
      "Ä±nÄ±z": 2679,
      "Ġkind": 2680,
      "Ã¤r": 2681,
      "asing": 2682,
      "èĢħ": 2683,
      "una": 2684,
      "ring": 2685,
      "Ġdifficult": 2686,
      "Ġchanges": 2687,
      "Ġcover": 2688,
      "Ġstrong": 2689,
      "sych": 2690,
      "ively": 2691,
      "Ġscience": 2692,
      "ĠFran": 2693,
      "ĠAmerica": 2694,
      "AL": 2695,
      "60": 2696,
      "Ġreturn": 2697,
      "Ġmaking": 2698,
      "Ġconditions": 2699,
      "Ġpotential": 2700,
      "Ġsea": 2701,
      "ä½ĵ": 2702,
      "artment": 2703,
      "æīĢ": 2704,
      "å§": 2705,
      "æĥħ": 2706,
      "ipp": 2707,
      "iden": 2708,
      "raft": 2709,
      "aman": 2710,
      "Ġmi": 2711,
      "ored": 2712,
      "Ġwords": 2713,
      "abe": 2714,
      "ĠJew": 2715,
      "Ġsubject": 2716,
      "tÄ±r": 2717,
      "rel": 2718,
      "Ġhigher": 2719,
      "ift": 2720,
      "Ġmedic": 2721,
      "Ġaber": 2722,
      "Ġground": 2723,
      "ĠgÃ¼n": 2724,
      "Ġstudies": 2725,
      "äºĭ": 2726,
      "\",": 2727,
      "Ġimm": 2728,
      "Ġtext": 2729,
      "idos": 2730,
      "For": 2731,
      "ead": 2732,
      "istic": 2733,
      "agen": 2734,
      "Ġspecific": 2735,
      "Ġhar": 2736,
      "Ä±mÄ±z": 2737,
      "Die": 2738,
      "baj": 2739,
      "Ġ2012": 2740,
      "eni": 2741,
      "Ġupon": 2742,
      "selves": 2743,
      "ĠPa": 2744,
      "åĬł": 2745,
      "ush": 2746,
      "bol": 2747,
      "gether": 2748,
      "Ġpay": 2749,
      "Ġgive": 2750,
      "Ġtogether": 2751,
      "Ġbis": 2752,
      "æľĪ": 2753,
      "eder": 2754,
      "Ġarm": 2755,
      "Ġtotal": 2756,
      "ede": 2757,
      "ano": 2758,
      "Ġsize": 2759,
      "ese": 2760,
      "raw": 2761,
      "ekt": 2762,
      "Ġalways": 2763,
      "Ġhor": 2764,
      "ĠAus": 2765,
      "icro": 2766,
      "è°": 2767,
      "Ġapplic": 2768,
      "ĠEd": 2769,
      "Ġcomplet": 2770,
      "Ġdar": 2771,
      "ĠSouth": 2772,
      "Ġmodern": 2773,
      "Ġfuture": 2774,
      "ched": 2775,
      "Ġhac": 2776,
      "Ġconcern": 2777,
      "ips": 2778,
      "amin": 2779,
      "Ġfull": 2780,
      "Ġaway": 2781,
      "Ġwind": 2782,
      "yon": 2783,
      "èĪ": 2784,
      "Ġwhether": 2785,
      "ique": 2786,
      "Ġdu": 2787,
      "tegr": 2788,
      "Ġfeel": 2789,
      "éģĵ": 2790,
      "Ġdig": 2791,
      "oid": 2792,
      "dan": 2793,
      "Ġsev": 2794,
      "åĮĸ": 2795,
      "yl": 2796,
      "40": 2797,
      "ĠsÃ¶": 2798,
      "25": 2799,
      "ias": 2800,
      "Ġgroups": 2801,
      "Ġmass": 2802,
      "orts": 2803,
      "oment": 2804,
      "Ġbehav": 2805,
      "xim": 2806,
      "Ġalt": 2807,
      "Ġ,": 2808,
      "Ġcases": 2809,
      "Ġcho": 2810,
      "irm": 2811,
      "ĠII": 2812,
      "ĠInstit": 2813,
      "cies": 2814,
      "Ġfocus": 2815,
      "ĠHist": 2816,
      "Ġsomething": 2817,
      "Ġpred": 2818,
      "Ġtechnology": 2819,
      "Ġcurrent": 2820,
      "ĠOne": 2821,
      "çĪ": 2822,
      "Ġlog": 2823,
      "Ġihr": 2824,
      "Ġvarious": 2825,
      "ĠMon": 2826,
      "Ġdiscover": 2827,
      "iger": 2828,
      "Ġwur": 2829,
      "ĠSte": 2830,
      "ery": 2831,
      "Ġeffects": 2832,
      "ç´": 2833,
      "ĠAnt": 2834,
      "Ġtodo": 2835,
      "Ġarg": 2836,
      "eding": 2837,
      "order": 2838,
      "imm": 2839,
      "Ġyoung": 2840,
      "lay": 2841,
      "www": 2842,
      "Ġexpect": 2843,
      "Ġtas": 2844,
      "æĢ§": 2845,
      "Ġresearchers": 2846,
      "atures": 2847,
      "Ġenough": 2848,
      "Ã¶l": 2849,
      "isc": 2850,
      "Ġespecially": 2851,
      "Ġneg": 2852,
      "There": 2853,
      "What": 2854,
      "Ġbrain": 2855,
      "ĠGu": 2856,
      "iting": 2857,
      "Ġdos": 2858,
      "Ġrequire": 2859,
      "mÄ±ÅŁ": 2860,
      "å¾Ī": 2861,
      "Ġdeveloped": 2862,
      "ai": 2863,
      "ĠSome": 2864,
      "æĸĩ": 2865,
      "ato": 2866,
      "Ġlower": 2867,
      "ĠEnglish": 2868,
      "Ġfurther": 2869,
      "ahl": 2870,
      "cont": 2871,
      "Ġmembers": 2872,
      "ĠEarth": 2873,
      "side": 2874,
      "äº§": 2875,
      "Ġpatients": 2876,
      "Ġsingle": 2877,
      "idades": 2878,
      "imin": 2879,
      "eren": 2880,
      "Ġflu": 2881,
      "ournal": 2882,
      "off": 2883,
      "ç©": 2884,
      "Ġacross": 2885,
      "Ġplants": 2886,
      "ĠPres": 2887,
      "oss": 2888,
      "Ġdol": 2889,
      "Ġbenef": 2890,
      "Ġlet": 2891,
      "ĠFre": 2892,
      "Ġ2010": 2893,
      "apan": 2894,
      "Ġlearning": 2895,
      "Ġhaving": 2896,
      "apt": 2897,
      "ederal": 2898,
      "Ġkal": 2899,
      "ä¸İ": 2900,
      "åħ¶": 2901,
      "):": 2902,
      "Ġhouse": 2903,
      "ĠgÃ¼": 2904,
      "Ġblack": 2905,
      "minist": 2906,
      "ready": 2907,
      "itar": 2908,
      "eye": 2909,
      "di": 2910,
      "ID": 2911,
      "icult": 2912,
      "aba": 2913,
      "hib": 2914,
      "IS": 2915,
      "Ġ2011": 2916,
      "Ġphot": 2917,
      "ims": 2918,
      "Ġeither": 2919,
      "ito": 2920,
      "Ġfive": 2921,
      "Ġfield": 2922,
      "ume": 2923,
      "Ġnut": 2924,
      "Ġemb": 2925,
      "ving": 2926,
      "Ġsurface": 2927,
      "ĠWeb": 2928,
      "now": 2929,
      "éĩį": 2930,
      "Ġseen": 2931,
      "Ãºn": 2932,
      "ĠDer": 2933,
      "Ġreason": 2934,
      "illi": 2935,
      "ising": 2936,
      "æīĭ": 2937,
      "Ġaccount": 2938,
      "æį": 2939,
      "Ġrather": 2940,
      "ÃŃs": 2941,
      "ĠCont": 2942,
      "ification": 2943,
      "Ġpersonal": 2944,
      "atz": 2945,
      "Ġfa": 2946,
      "ĠReg": 2947,
      "formation": 2948,
      "atter": 2949,
      "ysis": 2950,
      "Ġquestion": 2951,
      "Ġ24": 2952,
      "Ġtaken": 2953,
      "Ġcame": 2954,
      "ĠEng": 2955,
      "Ġcomple": 2956,
      "epend": 2957,
      "22": 2958,
      "Ġmuy": 2959,
      "Ġdrug": 2960,
      "omes": 2961,
      "ĠState": 2962,
      "Ġproduction": 2963,
      "Ġmer": 2964,
      "mal": 2965,
      "ĠestÃ¡": 2966,
      "Ġworking": 2967,
      "Ġaccording": 2968,
      "åº¦": 2969,
      "èĬ": 2970,
      "Ġbar": 2971,
      "å¥³": 2972,
      "Ġgas": 2973,
      "ieder": 2974,
      "ying": 2975,
      "istem": 2976,
      "ĠCo": 2977,
      "Ġans": 2978,
      "ĠBer": 2979,
      "sc": 2980,
      "ĠResearch": 2981,
      "etimes": 2982,
      "Ġop": 2983,
      "è¿ĺ": 2984,
      "Ġcop": 2985,
      "Ġess": 2986,
      "fr": 2987,
      "çĦ¶": 2988,
      "ĠÃ¶z": 2989,
      "IC": 2990,
      "ĠAug": 2991,
      "Ġmej": 2992,
      "mos": 2993,
      "Ġfarm": 2994,
      "ha": 2995,
      "Ġresources": 2996,
      "ged": 2997,
      "Ġevidence": 2998,
      "Ġexpos": 2999,
      "view": 3000,
      "ĠTÃ¼rk": 3001,
      "eld": 3002,
      "thing": 3003,
      "itary": 3004,
      "ĠAct": 3005,
      "lerin": 3006,
      "eds": 3007,
      "ĠgÃ¶re": 3008,
      "çĶµ": 3009,
      "ĠtambiÃ©n": 3010,
      "æģ": 3011,
      "no": 3012,
      "ivo": 3013,
      "dÄ±r": 3014,
      "Ġpolitical": 3015,
      "arak": 3016,
      "Ġrights": 3017,
      "ptoms": 3018,
      "Ġmeet": 3019,
      "ĠÃ§Ä±k": 3020,
      "Ġpublished": 3021,
      "Ġsource": 3022,
      "Ġalready": 3023,
      "ĠJul": 3024,
      "Ġtrabaj": 3025,
      "Ġword": 3026,
      "Ġoffer": 3027,
      "Ã¤n": 3028,
      "Ġwhy": 3029,
      "imiento": 3030,
      "Ġtool": 3031,
      "ista": 3032,
      "Ġneeds": 3033,
      "ĠDas": 3034,
      "ÄŁi": 3035,
      "æıĲ": 3036,
      "Ġstates": 3037,
      "cu": 3038,
      "Ġoil": 3039,
      "Ġcontain": 3040,
      "Ġpuede": 3041,
      "ibility": 3042,
      "lish": 3043,
      "cias": 3044,
      "aÃ§": 3045,
      "ideo": 3046,
      "raf": 3047,
      "lad": 3048,
      "Ġdiv": 3049,
      "åľº": 3050,
      "Ġvalue": 3051,
      "war": 3052,
      "utes": 3053,
      "ÃŃas": 3054,
      "Ġrelations": 3055,
      "duc": 3056,
      "Ġcreate": 3057,
      "Ġinit": 3058,
      "Ġcollect": 3059,
      "Ġrange": 3060,
      "ights": 3061,
      "å¤ĸ": 3062,
      "ĠHis": 3063,
      "eki": 3064,
      "è£": 3065,
      "ington": 3066,
      "Ġben": 3067,
      "acc": 3068,
      "Ġded": 3069,
      "Ġtoward": 3070,
      "Ġdone": 3071,
      "Ġwr": 3072,
      "rup": 3073,
      "çĤ¹": 3074,
      "NA": 3075,
      "åħ³": 3076,
      "inen": 3077,
      "aking": 3078,
      "éľ": 3079,
      "Ġbegan": 3080,
      "pid": 3081,
      "rab": 3082,
      "Ġrecogn": 3083,
      "ĠSan": 3084,
      "ĠThat": 3085,
      "Ġgoing": 3086,
      "ena": 3087,
      "Ġexperience": 3088,
      "Ġglobal": 3089,
      "Ġarticle": 3090,
      "Ġfinal": 3091,
      "Ġonce": 3092,
      "Ġnuev": 3093,
      "ĠPre": 3094,
      "ints": 3095,
      "unic": 3096,
      "empt": 3097,
      "Ġsepar": 3098,
      "Ġemploy": 3099,
      "Ġknowledge": 3100,
      "self": 3101,
      "chie": 3102,
      "Ġrespect": 3103,
      "Ġfail": 3104,
      "åİ»": 3105,
      "sequ": 3106,
      "ĠServ": 3107,
      "Ġattack": 3108,
      "On": 3109,
      "æ¶": 3110,
      "lands": 3111,
      "Ã¼l": 3112,
      "Ġfish": 3113,
      "ĠBy": 3114,
      "illed": 3115,
      "ĠShe": 3116,
      "Ġrate": 3117,
      "æŁ": 3118,
      "éĩĳ": 3119,
      "ĠPer": 3120,
      "ç¥": 3121,
      "Ġaddress": 3122,
      "iente": 3123,
      "Ġexpress": 3124,
      "antes": 3125,
      "inn": 3126,
      "Ġidea": 3127,
      "ĠWith": 3128,
      "ram": 3129,
      "ï¼ģ": 3130,
      "Ġbig": 3131,
      "Ġrole": 3132,
      "Ġmu": 3133,
      "Ġclimate": 3134,
      "ĠIh": 3135,
      "Ġdetail": 3136,
      "Ã¼re": 3137,
      "Ġgir": 3138,
      "Ġkend": 3139,
      "Ġcual": 3140,
      "alu": 3141,
      "cho": 3142,
      "Ġways": 3143,
      "ests": 3144,
      "Ġmind": 3145,
      "itte": 3146,
      "éķ¿": 3147,
      "Ġnormal": 3148,
      "Ġsimple": 3149,
      "iliz": 3150,
      "Ġmedical": 3151,
      "Ġsoll": 3152,
      "Ġhalf": 3153,
      "ump": 3154,
      "Ġlabor": 3155,
      "aron": 3156,
      "è¢": 3157,
      "Ġactivity": 3158,
      "entes": 3159,
      "ops": 3160,
      "Ġbur": 3161,
      "lÄ±ÄŁ": 3162,
      "Ġcontact": 3163,
      "Ġphysical": 3164,
      "Ã±o": 3165,
      "éĢļ": 3166,
      "Ġwhole": 3167,
      "ita": 3168,
      "Ġexperien": 3169,
      "Ġ2009": 3170,
      "Ġfrequ": 3171,
      "Ġtro": 3172,
      "Ġgrowth": 3173,
      "Ġmir": 3174,
      "uck": 3175,
      "æĽ´": 3176,
      "Ġanimals": 3177,
      "OS": 3178,
      "Ã¢": 3179,
      "las": 3180,
      "Ġbelow": 3181,
      "Ġmoment": 3182,
      "Ġeconomic": 3183,
      "èĲ": 3184,
      "Ã¤hr": 3185,
      "Ġinvestig": 3186,
      "iÃ³": 3187,
      "Ġcarb": 3188,
      "ĠAust": 3189,
      "å¢": 3190,
      "Ġhttp": 3191,
      "rict": 3192,
      "oint": 3193,
      "adem": 3194,
      "Ġkadar": 3195,
      "Ġcannot": 3196,
      "iyle": 3197,
      "Ġthemselves": 3198,
      "èµ·": 3199,
      "lin": 3200,
      "Ġitself": 3201,
      "Ġsah": 3202,
      "Ġaddition": 3203,
      "å±ķ": 3204,
      "Ġlive": 3205,
      "Ġthought": 3206,
      "Ġwhite": 3207,
      "cular": 3208,
      "cel": 3209,
      "Ġweb": 3210,
      "anda": 3211,
      "Ġtook": 3212,
      "Ġintrodu": 3213,
      "Ġreally": 3214,
      "å°Ĩ": 3215,
      "AC": 3216,
      "Ġcreated": 3217,
      "uts": 3218,
      "akt": 3219,
      "Ġconcept": 3220,
      "Ġalmost": 3221,
      "Ġactivities": 3222,
      "ç³": 3223,
      "ĠCenter": 3224,
      "Ġliving": 3225,
      "éĹ´": 3226,
      "umb": 3227,
      "Ġengine": 3228,
      "Ġorganiz": 3229,
      "iyet": 3230,
      "beit": 3231,
      "ĠAuf": 3232,
      "Ġadult": 3233,
      "Ġbes": 3234,
      "Ġincreased": 3235,
      "Ġmakes": 3236,
      "ply": 3237,
      "Ġ:": 3238,
      "ĠJan": 3239,
      "ĠMus": 3240,
      "Ġlink": 3241,
      "Ġbuilding": 3242,
      "24": 3243,
      "Ġnature": 3244,
      "Ġconsidered": 3245,
      "Ġregion": 3246,
      "ä¿Ŀ": 3247,
      "heit": 3248,
      "é¦": 3249,
      "Ġnor": 3250,
      "Ġ40": 3251,
      "Ġ=": 3252,
      "Ġcolor": 3253,
      "Ġbusiness": 3254,
      "Ġequip": 3255,
      "Ġunter": 3256,
      "ä¸ī": 3257,
      "oon": 3258,
      "'d": 3259,
      "Ġcla": 3260,
      "åıĬ": 3261,
      "åħ¥": 3262,
      "irst": 3263,
      "do": 3264,
      "rary": 3265,
      "Ġentire": 3266,
      "ĠNov": 3267,
      "Ġhold": 3268,
      "Ġtypes": 3269,
      "neh": 3270,
      "lev": 3271,
      "lara": 3272,
      "Ġmes": 3273,
      "Ġindust": 3274,
      "iation": 3275,
      "ĠÅŁek": 3276,
      "chan": 3277,
      "Ġworks": 3278,
      "Ġpaper": 3279,
      "ream": 3280,
      "Ch": 3281,
      "Ġtan": 3282,
      "Ä±lan": 3283,
      "Ġste": 3284,
      "Un": 3285,
      "Ġ2008": 3286,
      "Ġscientists": 3287,
      "ires": 3288,
      "Ġstory": 3289,
      "Ġself": 3290,
      "ä½Ĩ": 3291,
      "è½¦": 3292,
      "21": 3293,
      "æ¬¡": 3294,
      "Ġliter": 3295,
      "Ġrelated": 3296,
      "23": 3297,
      "urt": 3298,
      "Ġteam": 3299,
      "Ġtell": 3300,
      "Ġaver": 3301,
      "Ġstep": 3302,
      "ctions": 3303,
      "Ã³m": 3304,
      "Ġloss": 3305,
      "osis": 3306,
      "Ġsem": 3307,
      "ĠkarÅŁ": 3308,
      "Ġbring": 3309,
      "Ġx": 3310,
      "Ġproduce": 3311,
      "ï¼Ł": 3312,
      "Ġcorre": 3313,
      "Ġlay": 3314,
      "é»": 3315,
      "æ¯Ķ": 3316,
      "Ġoriginal": 3317,
      "199": 3318,
      "ĠJapan": 3319,
      "Ġdeg": 3320,
      "Ġviol": 3321,
      "åĨħ": 3322,
      "uge": 3323,
      "laÅŁ": 3324,
      "Ġassociated": 3325,
      "ĠBritish": 3326,
      "ommen": 3327,
      "alls": 3328,
      "kan": 3329,
      "å»º": 3330,
      "ï¼ī": 3331,
      "Ġbill": 3332,
      "çĿĢ": 3333,
      "Ġemer": 3334,
      "ĠCor": 3335,
      "attle": 3336,
      "Ġfig": 3337,
      "Ġproducts": 3338,
      "unden": 3339,
      "Ġsymptoms": 3340,
      "Ġconduct": 3341,
      "Ġsix": 3342,
      "IV": 3343,
      "Ġcy": 3344,
      "ample": 3345,
      "Ġlab": 3346,
      "Ġagr": 3347,
      "Ġprepar": 3348,
      "adÄ±r": 3349,
      "Ġast": 3350,
      "ï¼Ī": 3351,
      "åĽł": 3352,
      "eli": 3353,
      "Ġflow": 3354,
      "ĠSchool": 3355,
      "ils": 3356,
      "èµĦ": 3357,
      "Ä±ld": 3358,
      "Ġneeded": 3359,
      "çĽ¸": 3360,
      "Ġrequired": 3361,
      "Ġ194": 3362,
      "Ġmonths": 3363,
      "æĦı": 3364,
      "Ã¤h": 3365,
      "Ġprovided": 3366,
      "osa": 3367,
      "ĠMit": 3368,
      "Ġpage": 3369,
      "Ġtek": 3370,
      "Ġachie": 3371,
      "Ġprovides": 3372,
      "plement": 3373,
      "Ġfri": 3374,
      "Ġmeasure": 3375,
      "éĤ£": 3376,
      "Ġetc": 3377,
      "amiento": 3378,
      "Ġ196": 3379,
      "Ã¶g": 3380,
      "ona": 3381,
      "Ġmarket": 3382,
      "ĠBel": 3383,
      "Ãľ": 3384,
      "ried": 3385,
      "çł": 3386,
      "Ġrecomm": 3387,
      "Ġquality": 3388,
      "Ġcomputer": 3389,
      "å¹³": 3390,
      "ency": 3391,
      "åĸ": 3392,
      "ä¿¡": 3393,
      "ĠÃº": 3394,
      "ects": 3395,
      "How": 3396,
      "Ġinternational": 3397,
      "è¨": 3398,
      "Ġintegr": 3399,
      "ĠSup": 3400,
      "ĠPe": 3401,
      "ED": 3402,
      "book": 3403,
      "ises": 3404,
      "enta": 3405,
      "abet": 3406,
      "Ġdefin": 3407,
      "ä½į": 3408,
      "éĩĮ": 3409,
      "clus": 3410,
      "æĥ³": 3411,
      "æ°´": 3412,
      "Ġdesde": 3413,
      "Ġsound": 3414,
      "iddle": 3415,
      "Ġpie": 3416,
      "Ġens": 3417,
      "Ġearth": 3418,
      "ĠArt": 3419,
      "Ġni": 3420,
      "Ġquestions": 3421,
      "anto": 3422,
      "hing": 3423,
      "ä¸Ģä¸ª": 3424,
      "ĠaÃ±os": 3425,
      "Ġreduce": 3426,
      "bst": 3427,
      "Ġfav": 3428,
      "osten": 3429,
      "ony": 3430,
      "Ġlie": 3431,
      "ĠdoÄŁ": 3432,
      "è¡¨": 3433,
      "Ġik": 3434,
      "iding": 3435,
      "ĠÅŀ": 3436,
      "åĬ¡": 3437,
      "Ġparts": 3438,
      "Ġpopular": 3439,
      "ĠdÃ¼ÅŁ": 3440,
      "Ġrecent": 3441,
      "Ġfue": 3442,
      "Ġled": 3443,
      "Ġsonra": 3444,
      "utions": 3445,
      "cio": 3446,
      "Ġpressure": 3447,
      "ilos": 3448,
      "ĠQu": 3449,
      "ĠSpiel": 3450,
      "Ã¼yÃ¼k": 3451,
      "yd": 3452,
      "çĽ®": 3453,
      "ĠCount": 3454,
      "Ġges": 3455,
      "80": 3456,
      "Ġ21": 3457,
      "ahren": 3458,
      "Ġren": 3459,
      "Ġprograms": 3460,
      "å£": 3461,
      "æĺİ": 3462,
      "pril": 3463,
      "enz": 3464,
      "unun": 3465,
      "Ġactually": 3466,
      "Ġmaterials": 3467,
      "Ġreact": 3468,
      "asÄ±nda": 3469,
      "ĠAut": 3470,
      "éĶ": 3471,
      "ĠScience": 3472,
      "Ġsaf": 3473,
      "fen": 3474,
      "ÃŁen": 3475,
      "Ġaqu": 3476,
      "Ġcommunic": 3477,
      "EL": 3478,
      "èĭ": 3479,
      "âĢĿ,": 3480,
      "ervation": 3481,
      "Ġofficial": 3482,
      "Ġhier": 3483,
      "rought": 3484,
      "lean": 3485,
      "åĪ¶": 3486,
      "To": 3487,
      "ror": 3488,
      "Ġneces": 3489,
      "Ġwenn": 3490,
      "Ġsup": 3491,
      "bl": 3492,
      "Ġinstit": 3493,
      "uments": 3494,
      "Ġrep": 3495,
      "æľŁ": 3496,
      "Ġunivers": 3497,
      "ference": 3498,
      "Ġdocument": 3499,
      "âĢĿ.": 3500,
      "Ġfamil": 3501,
      "æ·": 3502,
      "åı¯ä»¥": 3503,
      "Ġissues": 3504,
      "æŀľ": 3505,
      "Ġfire": 3506,
      "Ġvisit": 3507,
      "åĲį": 3508,
      "Ġchall": 3509,
      "Ġhan": 3510,
      "sten": 3511,
      "ulations": 3512,
      "Ġsure": 3513,
      "ĠKing": 3514,
      "Ġsistem": 3515,
      "iforn": 3516,
      "Ġprot": 3517,
      "imi": 3518,
      "Ġenvironmental": 3519,
      "åı¸": 3520,
      "å½ĵ": 3521,
      "arios": 3522,
      "Ġgreen": 3523,
      "onse": 3524,
      "Ġsett": 3525,
      "ç¬¬": 3526,
      "ander": 3527,
      "Ġhabit": 3528,
      "Ġcam": 3529,
      "ĠInter": 3530,
      "atal": 3531,
      "Ã§ek": 3532,
      "éĩı": 3533,
      "Ã±a": 3534,
      "eri": 3535,
      "Ġorigin": 3536,
      "Ġstudent": 3537,
      "èī²": 3538,
      "Ġbulun": 3539,
      "Ġchemical": 3540,
      "æ²¡": 3541,
      "Ġdesp": 3542,
      "miÅŁ": 3543,
      "cciÃ³n": 3544,
      "iction": 3545,
      "Ġcomplex": 3546,
      "Ġregard": 3547,
      "éħ": 3548,
      "Ġcoll": 3549,
      "dom": 3550,
      "ĠFra": 3551,
      "Ġconv": 3552,
      "Ġmis": 3553,
      "zeit": 3554,
      "oles": 3555,
      "ula": 3556,
      "æ°ĳ": 3557,
      "Ġcuando": 3558,
      "arÄ±": 3559,
      "urity": 3560,
      "like": 3561,
      "Ġservices": 3562,
      "ĠPress": 3563,
      "Ġheav": 3564,
      "Ġapproach": 3565,
      "Ġdetermin": 3566,
      "ĠDepartment": 3567,
      "Ġschools": 3568,
      "ET": 3569,
      "ima": 3570,
      "ĠSm": 3571,
      "å®ī": 3572,
      "Ġcut": 3573,
      "Ġwon": 3574,
      "Ġbuilt": 3575,
      "èº": 3576,
      "Ġrul": 3577,
      "Ġ2007": 3578,
      "Ġstandard": 3579,
      "Ġise": 3580,
      "lying": 3581,
      "Ġservice": 3582,
      "Ġsil": 3583,
      "ĠDav": 3584,
      "When": 3585,
      "Ġnecessary": 3586,
      "Ġshows": 3587,
      "larÄ±nÄ±": 3588,
      "Ġmejor": 3589,
      "Ġreported": 3590,
      "IT": 3591,
      "Ġarch": 3592,
      "çī¹": 3593,
      "ĠAfter": 3594,
      "Ġhap": 3595,
      "ĠMark": 3596,
      "Ġdete": 3597,
      "amed": 3598,
      "uary": 3599,
      "Ġbelir": 3600,
      "Ġmoney": 3601,
      "ĠÃ¼zer": 3602,
      "ĠDo": 3603,
      "ä¹Ī": 3604,
      "Ġparents": 3605,
      "Ġtodos": 3606,
      "Ġdiagn": 3607,
      "æŃ£": 3608,
      "assen": 3609,
      "Ġcit": 3610,
      "Ġbit": 3611,
      "äºĽ": 3612,
      "Ġdat": 3613,
      "ĠEnt": 3614,
      "Ġposition": 3615,
      "Ġsoft": 3616,
      "ç²": 3617,
      "Ġaction": 3618,
      "ĠPark": 3619,
      "akes": 3620,
      "Ġwild": 3621,
      "ĠUnd": 3622,
      "Ġprevious": 3623,
      "Pro": 3624,
      "ĠLib": 3625,
      "ashington": 3626,
      "Ġyaz": 3627,
      "arse": 3628,
      "Ġaccept": 3629,
      "Ġhours": 3630,
      "å½±": 3631,
      "Ġkay": 3632,
      "acaÄŁ": 3633,
      "åı°": 3634,
      "Ġtiene": 3635,
      "hel": 3636,
      "Ġmatter": 3637,
      "atives": 3638,
      "rench": 3639,
      "Ġbin": 3640,
      "icos": 3641,
      "Ġremain": 3642,
      "Ġ23": 3643,
      "omp": 3644,
      "Ġmut": 3645,
      "etrie": 3646,
      "Ġeffective": 3647,
      "Ġhasta": 3648,
      "Ġlot": 3649,
      "Ġterms": 3650,
      "ifornia": 3651,
      "Ġmor": 3652,
      "gy": 3653,
      "utz": 3654,
      "ĠÃ©": 3655,
      "åĮº": 3656,
      "åĪ©": 3657,
      "Ġshar": 3658,
      "idge": 3659,
      "Ġhacer": 3660,
      "berg": 3661,
      "Ġpattern": 3662,
      "Ġrepl": 3663,
      "Ġrock": 3664,
      "Ġfem": 3665,
      "Ġestim": 3666,
      "acional": 3667,
      "Ġsig": 3668,
      "Ġmagn": 3669,
      "crip": 3670,
      "But": 3671,
      "Ġsense": 3672,
      "inks": 3673,
      "alÄ±": 3674,
      "Ġopportun": 3675,
      "Ġunderstanding": 3676,
      "ĠInstitute": 3677,
      "ength": 3678,
      "Ġthroughout": 3679,
      "auf": 3680,
      "Ġmanagement": 3681,
      "ĠAustral": 3682,
      "çī©": 3683,
      "AM": 3684,
      "ĠApp": 3685,
      "Ġlate": 3686,
      "Ar": 3687,
      "Ġago": 3688,
      "Ġquick": 3689,
      "ĠProgram": 3690,
      "etzt": 3691,
      "Ġtrue": 3692,
      "oj": 3693,
      "æ¡": 3694,
      "cak": 3695,
      "Ġtax": 3696,
      "Ġveya": 3697,
      "ayan": 3698,
      "ĠCons": 3699,
      "Ġsuff": 3700,
      "Ġers": 3701,
      "Ġpractice": 3702,
      "Ġcel": 3703,
      "rat": 3704,
      "ĠSept": 3705,
      "Ġoy": 3706,
      "ua": 3707,
      "Ġpoor": 3708,
      "based": 3709,
      "Ġsan": 3710,
      "irit": 3711,
      "ele": 3712,
      "ivity": 3713,
      "val": 3714,
      "Ġlonger": 3715,
      "ption": 3716,
      "erap": 3717,
      "Ġaverage": 3718,
      "Ġboy": 3719,
      "Ġgreater": 3720,
      "Ġincreasing": 3721,
      "Ġprincip": 3722,
      "ogen": 3723,
      "æŃ¤": 3724,
      "âĢ¢": 3725,
      "Ġtaraf": 3726,
      "siniz": 3727,
      "Ġcaused": 3728,
      "Ġcarbon": 3729,
      "ij": 3730,
      "Ã¤s": 3731,
      "è¢«": 3732,
      "Ġpath": 3733,
      "leich": 3734,
      "ĠEduc": 3735,
      "çģ": 3736,
      "ç³»": 3737,
      "Ġability": 3738,
      "ĠMod": 3739,
      "Ġec": 3740,
      "ĠBar": 3741,
      "Ġhem": 3742,
      "adan": 3743,
      "erous": 3744,
      "Ġforce": 3745,
      "Ġwest": 3746,
      "Ġek": 3747,
      "ilities": 3748,
      "Ġweight": 3749,
      "Ġactual": 3750,
      "bir": 3751,
      "idir": 3752,
      "ached": 3753,
      "Ġassess": 3754,
      "kin": 3755,
      "Ġsometimes": 3756,
      "Ġstrateg": 3757,
      "åĭ": 3758,
      "Ġaltern": 3759,
      "Ġrelationship": 3760,
      "ĠHar": 3761,
      "aches": 3762,
      "Ġcapac": 3763,
      "Ġmas": 3764,
      "AD": 3765,
      "Ġcompet": 3766,
      "undo": 3767,
      "Ġissue": 3768,
      "Ġindepend": 3769,
      "Ġolu": 3770,
      "rown": 3771,
      "ĠInternet": 3772,
      "vention": 3773,
      "ĠZeit": 3774,
      "Ġ22": 3775,
      "ĠAugust": 3776,
      "fol": 3777,
      "Ġfeet": 3778,
      "Ġgenerally": 3779,
      "ç®¡": 3780,
      "ĠVor": 3781,
      "Ġextra": 3782,
      "dem": 3783,
      "ĠsÃ¼re": 3784,
      "ĠChina": 3785,
      "Ġimage": 3786,
      "Ġproduced": 3787,
      "Ġhaz": 3788,
      "itz": 3789,
      "Ġshall": 3790,
      "Ġattempt": 3791,
      "Ġcontent": 3792,
      "Ġwurde": 3793,
      "erve": 3794,
      "ĠCalifornia": 3795,
      "oper": 3796,
      "Ġclose": 3797,
      "arily": 3798,
      "è®¾": 3799,
      "Ġsou": 3800,
      "lie": 3801,
      "Ġwritten": 3802,
      "lick": 3803,
      "Ġsubst": 3804,
      "istics": 3805,
      "icas": 3806,
      "Ġanalysis": 3807,
      "ensive": 3808,
      "ĠBaÅŁ": 3809,
      "istance": 3810,
      "ĠyÃ¶n": 3811,
      "anced": 3812,
      "Ġparte": 3813,
      "ĠApril": 3814,
      "Ġsites": 3815,
      "ĠHol": 3816,
      "Ġconsist": 3817,
      "Ġcondition": 3818,
      "å¸¸": 3819,
      "Ġpoll": 3820,
      "Ġsust": 3821,
      "Ġstructure": 3822,
      "æķĻ": 3823,
      "Ġtown": 3824,
      "Ġdesigned": 3825,
      "èº«": 3826,
      "Ġfilm": 3827,
      "ĠCong": 3828,
      "Ġincludes": 3829,
      "Ġgerek": 3830,
      "issions": 3831,
      "Ġshown": 3832,
      "Ġthreat": 3833,
      "Ġzaman": 3834,
      "uman": 3835,
      "ĠRuss": 3836,
      "uth": 3837,
      "iff": 3838,
      "ĠOct": 3839,
      "fully": 3840,
      "ads": 3841,
      "Ġhak": 3842,
      "Ġalle": 3843,
      "Ġskin": 3844,
      "piel": 3845,
      "Ġpolicy": 3846,
      "Ġeffic": 3847,
      "Ġreview": 3848,
      "Ġfactors": 3849,
      "nis": 3850,
      "Ġdemon": 3851,
      "Ġseries": 3852,
      "èĢģ": 3853,
      "Ġscientific": 3854,
      "Ġpan": 3855,
      "ÃŁe": 3856,
      "Ġtiem": 3857,
      "Ġwieder": 3858,
      "Ġsehr": 3859,
      "bo": 3860,
      "Ġemp": 3861,
      "'re": 3862,
      "Ġbal": 3863,
      "æĹł": 3864,
      "ç§į": 3865,
      "Ġcontinu": 3866,
      "æ´»": 3867,
      "ĠkiÅŁ": 3868,
      "Ġprobably": 3869,
      "Ġhiz": 3870,
      "Ġdann": 3871,
      "Ġheld": 3872,
      "Ġtemperature": 3873,
      "Ġbab": 3874,
      "Ġple": 3875,
      "Ġindustry": 3876,
      "æĪĳä»¬": 3877,
      "æ¨": 3878,
      "ĠEv": 3879,
      "ç¨ĭ": 3880,
      "EC": 3881,
      "Ġsources": 3882,
      "olic": 3883,
      "éĴ": 3884,
      "nin": 3885,
      "Ġinteract": 3886,
      "ĠWashington": 3887,
      "Ġdiet": 3888,
      "mar": 3889,
      "Ġtheory": 3890,
      "Ġwarm": 3891,
      "uda": 3892,
      "edia": 3893,
      "Ġtaking": 3894,
      "å¼ı": 3895,
      "rew": 3896,
      "åĳĺ": 3897,
      "æĶ¿": 3898,
      "ccording": 3899,
      "sa": 3900,
      "ĠRiver": 3901,
      "ĠInternational": 3902,
      "omet": 3903,
      "Ġdispl": 3904,
      "Ġbehavior": 3905,
      "Ġspread": 3906,
      "cem": 3907,
      "Ġclos": 3908,
      "Ġjob": 3909,
      "cean": 3910,
      "ĠÃ¶ÄŁ": 3911,
      "iendo": 3912,
      "ĠGre": 3913,
      "Ġcivil": 3914,
      "Ġmilitary": 3915,
      "ilde": 3916,
      "ĠIS": 3917,
      "ĠMarch": 3918,
      "ĠyÄ±l": 3919,
      "uh": 3920,
      "Ġkat": 3921,
      "ĠProf": 3922,
      "eph": 3923,
      "ĠIhr": 3924,
      "Ġalgun": 3925,
      "æº": 3926,
      "lerini": 3927,
      "ĠGo": 3928,
      "Ġcapital": 3929,
      "Ġexerc": 3930,
      "nde": 3931,
      "Ġimplement": 3932,
      "ĠVal": 3933,
      "Ġproced": 3934,
      "ĠAc": 3935,
      "Ġpict": 3936,
      "Ġbilg": 3937,
      "ography": 3938,
      "Ġbelieve": 3939,
      "Ġhappen": 3940,
      "Ġrealiz": 3941,
      "rim": 3942,
      "Ġreading": 3943,
      "Ġanimal": 3944,
      "Ġcentral": 3945,
      "å·²": 3946,
      "Ġyar": 3947,
      "Ġimag": 3948,
      "Ġmiles": 3949,
      "Ġsociety": 3950,
      "ä»İ": 3951,
      "hold": 3952,
      "Ġestablished": 3953,
      "reich": 3954,
      "tedir": 3955,
      "Ġgrad": 3956,
      "Ġdiese": 3957,
      "Ġpropos": 3958,
      "Ġevents": 3959,
      "Ġ2013": 3960,
      "27": 3961,
      "gul": 3962,
      "gn": 3963,
      "Ġincluded": 3964,
      "cis": 3965,
      "igr": 3966,
      "elle": 3967,
      "åģļ": 3968,
      "itation": 3969,
      "ĠMa": 3970,
      "åıª": 3971,
      "Ġmechan": 3972,
      "Ġtip": 3973,
      "makt": 3974,
      "inder": 3975,
      "rad": 3976,
      "ĠPresident": 3977,
      "ĠdÃ¶n": 3978,
      "Ġuses": 3979,
      "æĦŁ": 3980,
      "çĥ": 3981,
      "illa": 3982,
      "æľį": 3983,
      "Ġinvolved": 3984,
      "Ġparticularly": 3985,
      "Ġdonde": 3986,
      "ĠNot": 3987,
      "Ġbase": 3988,
      "Ġsoil": 3989,
      "mes": 3990,
      "èĥ": 3991,
      "urr": 3992,
      "ĠJune": 3993,
      "Ġpsych": 3994,
      "Ġdou": 3995,
      "åºĶ": 3996,
      "Ġinj": 3997,
      "ĠSal": 3998,
      "eln": 3999,
      "é©": 4000,
      "oma": 4001,
      "oz": 4002,
      "Ġnumbers": 4003,
      "gs": 4004,
      "can": 4005,
      "Ġindividuals": 4006,
      "Ġforms": 4007,
      "ĠAv": 4008,
      "ĠUm": 4009,
      "Ġcoun": 4010,
      "Ġej": 4011,
      "Ġfuer": 4012,
      "Ġdeterm": 4013,
      "iciÃ³n": 4014,
      "åħ¬åı¸": 4015,
      "Ġgew": 4016,
      "Ġstop": 4017,
      "Ġyak": 4018,
      "Ġcomes": 4019,
      "ĠFrench": 4020,
      "Ġcheck": 4021,
      "Ġgibt": 4022,
      "ç±": 4023,
      "Ġconcent": 4024,
      "....": 4025,
      "Ġles": 4026,
      "bit": 4027,
      "ĠHa": 4028,
      "ordin": 4029,
      "iva": 4030,
      "ford": 4031,
      "gt": 4032,
      "ÄŁer": 4033,
      "ĠGeneral": 4034,
      "ĠÃ¶nem": 4035,
      "eros": 4036,
      "ä½¿": 4037,
      "ä»£": 4038,
      "Ġhom": 4039,
      "Ġimmer": 4040,
      "Ġnuc": 4041,
      "haps": 4042,
      "ugar": 4043,
      "Ġevalu": 4044,
      "malar": 4045,
      "Ġgest": 4046,
      "29": 4047,
      "ened": 4048,
      "elling": 4049,
      "plied": 4050,
      "26": 4051,
      "reng": 4052,
      "ĠTw": 4053,
      "Ġthus": 4054,
      "28": 4055,
      "ging": 4056,
      "Ġtalk": 4057,
      "ĠLos": 4058,
      "Ġheat": 4059,
      "undred": 4060,
      "ĠFeb": 4061,
      "ĠNach": 4062,
      "Ġcompon": 4063,
      "aret": 4064,
      "Ġthing": 4065,
      "Ġmovement": 4066,
      "Ã¶glich": 4067,
      "Ġcada": 4068,
      "Ġiy": 4069,
      "vert": 4070,
      "Ġthous": 4071,
      "Ġvom": 4072,
      "ronic": 4073,
      "ĠMc": 4074,
      "UR": 4075,
      "idas": 4076,
      "ĠChar": 4077,
      "Ġconstit": 4078,
      "ught": 4079,
      "igt": 4080,
      "Ġdoctor": 4081,
      "He": 4082,
      "ĠLand": 4083,
      "Ġvia": 4084,
      "ĠVol": 4085,
      "Ġremov": 4086,
      "Ġca": 4087,
      "Ġbien": 4088,
      "Ġsiz": 4089,
      "åħĥ": 4090,
      "Ġwhose": 4091,
      "Ġort": 4092,
      "atively": 4093,
      "ago": 4094,
      "pret": 4095,
      "vest": 4096,
      "ç¦": 4097,
      "isl": 4098,
      "åķĨ": 4099,
      "leep": 4100,
      "Ġdeep": 4101,
      "Ġlack": 4102,
      "Ġsimply": 4103,
      "Ġhon": 4104,
      "Ġvariety": 4105,
      "Ġmeaning": 4106,
      "irk": 4107,
      "Ġgut": 4108,
      "isions": 4109,
      "Ġcauses": 4110,
      "Ġnation": 4111,
      "arÃ¡": 4112,
      "ĠUnter": 4113,
      "igkeit": 4114,
      "æķ°": 4115,
      "ners": 4116,
      "Ġera": 4117,
      "Ġ60": 4118,
      "gu": 4119,
      "Ġtut": 4120,
      "ĠIndian": 4121,
      "Ġoutside": 4122,
      "Ġmusic": 4123,
      "å¹¶": 4124,
      "Ġtend": 4125,
      "70": 4126,
      "Ġvez": 4127,
      "Ã¼h": 4128,
      "ĠTechn": 4129,
      "Ġâ": 4130,
      "ufact": 4131,
      "olar": 4132,
      "ĠEuropean": 4133,
      "Ġtal": 4134,
      "Ġdeveloping": 4135,
      "Ġtraining": 4136,
      "Ġmove": 4137,
      "II": 4138,
      "æĪĸ": 4139,
      "Ġbey": 4140,
      "erse": 4141,
      "ceÄŁ": 4142,
      "emb": 4143,
      "omas": 4144,
      "Ġbra": 4145,
      "ĠSur": 4146,
      "Ġtravel": 4147,
      "bet": 4148,
      "Ġey": 4149,
      "Ġsold": 4150,
      "Ġalthough": 4151,
      "Ġ2006": 4152,
      "iner": 4153,
      "ĠHistory": 4154,
      "Ġalc": 4155,
      "ĠGerman": 4156,
      "Ġadminist": 4157,
      "Ġbreak": 4158,
      "eleri": 4159,
      "ecause": 4160,
      "Ġfinan": 4161,
      "Ġresponse": 4162,
      "ube": 4163,
      "ĠSon": 4164,
      "adores": 4165,
      "Ġcorrect": 4166,
      "Ġuz": 4167,
      "Ġdisp": 4168,
      "ems": 4169,
      "ĠGro": 4170,
      "Ġideas": 4171,
      "Ġara": 4172,
      "eller": 4173,
      "ä¸ŃåĽ½": 4174,
      "Ġserious": 4175,
      "æĤ": 4176,
      "Ġjud": 4177,
      ");": 4178,
      "Ġnorth": 4179,
      "ĠChristian": 4180,
      "Ġanswer": 4181,
      "eben": 4182,
      "So": 4183,
      "ĠSystem": 4184,
      "rage": 4185,
      "ĠSeptember": 4186,
      "Ġelectric": 4187,
      "where": 4188,
      "Ġsow": 4189,
      "imum": 4190,
      "ĠPat": 4191,
      "Ġvirus": 4192,
      "Ġmess": 4193,
      "Ġskills": 4194,
      "35": 4195,
      "Ġwebs": 4196,
      "Ġvideo": 4197,
      "Ġregular": 4198,
      "Ġtit": 4199,
      "Ġcomplete": 4200,
      "gency": 4201,
      "æµ·": 4202,
      "lim": 4203,
      "æİ¥": 4204,
      "Ã¤ch": 4205,
      "Ġunser": 4206,
      "Ġthird": 4207,
      "Ġtarg": 4208,
      "Ġlives": 4209,
      "Ġprogress": 4210,
      "çŁ¥": 4211,
      "rast": 4212,
      "çīĩ": 4213,
      "ĠWilli": 4214,
      "ribution": 4215,
      "Ġpresident": 4216,
      "Ġcapt": 4217,
      "nov": 4218,
      "ĠBir": 4219,
      "Ġbasic": 4220,
      "ĠTrans": 4221,
      "Ġilg": 4222,
      "itude": 4223,
      "rÃ¤": 4224,
      "cific": 4225,
      "ĠMany": 4226,
      "äº¤": 4227,
      "Ġ28": 4228,
      "ĠChurch": 4229,
      "Ġnov": 4230,
      "unk": 4231,
      "ĠDis": 4232,
      "Ġverd": 4233,
      "Ġessential": 4234,
      "å·±": 4235,
      "ney": 4236,
      "ĠgerÃ§ek": 4237,
      "ĠWhile": 4238,
      "ham": 4239,
      "ĠbÃ¼yÃ¼k": 4240,
      "ç¼": 4241,
      "imal": 4242,
      "ls": 4243,
      "ĠComp": 4244,
      "iple": 4245,
      "arbeit": 4246,
      "Ġsqu": 4247,
      "Es": 4248,
      "çĸ": 4249,
      "ĠdÃ¼z": 4250,
      "aily": 4251,
      "ĠKar": 4252,
      "Ä±sÄ±": 4253,
      "Ġreci": 4254,
      "Ġaspect": 4255,
      "rength": 4256,
      "bor": 4257,
      "Ġmethods": 4258,
      "Ġpal": 4259,
      "Ġ26": 4260,
      "Ġpen": 4261,
      "ester": 4262,
      "ĠSoci": 4263,
      "fort": 4264,
      "ĠMost": 4265,
      "Ġtiempo": 4266,
      "mon": 4267,
      "ĠJuly": 4268,
      "Ġfederal": 4269,
      "Ġmicro": 4270,
      "ĠVir": 4271,
      "Ġbirth": 4272,
      "Ġface": 4273,
      "Ġcompany": 4274,
      "ĠGovern": 4275,
      "Ġsab": 4276,
      "ĠDem": 4277,
      "ums": 4278,
      "Ġsav": 4279,
      "Ġgran": 4280,
      "æ¼": 4281,
      "ĠInformation": 4282,
      "ora": 4283,
      "Ġ2000": 4284,
      "You": 4285,
      "Ġ...": 4286,
      "çľŁ": 4287,
      "Ġinde": 4288,
      "Ġlarger": 4289,
      "ĠJes": 4290,
      "æ»": 4291,
      "Ġbacter": 4292,
      "ĠAp": 4293,
      "èĦ": 4294,
      "Ġnight": 4295,
      "Ġeth": 4296,
      "è§£": 4297,
      "Ġdin": 4298,
      "ĠAssoci": 4299,
      "Ġclean": 4300,
      "ä»¶": 4301,
      "Ġdurum": 4302,
      "Ġstress": 4303,
      "ius": 4304,
      "Ġhot": 4305,
      "ĠGes": 4306,
      "Ġ27": 4307,
      "Ġbooks": 4308,
      "ĠMal": 4309,
      "ga": 4310,
      "Ġencou": 4311,
      "Ġadded": 4312,
      "ĠBo": 4313,
      "Ġfast": 4314,
      "Ġdir": 4315,
      "ĠUs": 4316,
      "----": 4317,
      "ĠCity": 4318,
      "ĠSw": 4319,
      "Ġweiter": 4320,
      "æł·": 4321,
      "Ġcross": 4322,
      "Ġsen": 4323,
      "Ġwent": 4324,
      "PA": 4325,
      "Ġeg": 4326,
      "aly": 4327,
      "was": 4328,
      "ï¼Ľ": 4329,
      "ĠyÃ¼z": 4330,
      "Ġculture": 4331,
      "Ġforma": 4332,
      "ospital": 4333,
      "Ġcontinue": 4334,
      "36": 4335,
      "Ġsearch": 4336,
      "hood": 4337,
      "Ġsouth": 4338,
      "orge": 4339,
      "Ġhyd": 4340,
      "Ġox": 4341,
      "Ġzwe": 4342,
      "èĩªå·±": 4343,
      "ĠasÃŃ": 4344,
      "Ġmad": 4345,
      "iat": 4346,
      "US": 4347,
      "Ġtherefore": 4348,
      "Ġamb": 4349,
      "Ã¼d": 4350,
      "Ġreceived": 4351,
      "Ġmount": 4352,
      "ĠGl": 4353,
      "jet": 4354,
      "çº¿": 4355,
      "Ġgar": 4356,
      "Ġgrand": 4357,
      "è·¯": 4358,
      "Ġjo": 4359,
      "Ġschon": 4360,
      "Ġbroad": 4361,
      "Ġaz": 4362,
      "Ġdog": 4363,
      "ondon": 4364,
      "Ġaffect": 4365,
      "Ġwood": 4366,
      "ĠÂ¿": 4367,
      "ĠSer": 4368,
      "Ġexcept": 4369,
      "èĻ": 4370,
      "larda": 4371,
      "pose": 4372,
      "ĠTra": 4373,
      "Ġyol": 4374,
      "Ġmedia": 4375,
      "eten": 4376,
      "Ġsac": 4377,
      "Ġceleb": 4378,
      "Ġveget": 4379,
      "quier": 4380,
      "Ġfol": 4381,
      "Ġhundred": 4382,
      "cember": 4383,
      "rote": 4384,
      "ĠPal": 4385,
      "EM": 4386,
      "Ġautom": 4387,
      "Ġappropr": 4388,
      "arden": 4389,
      "çĹ": 4390,
      "ãĢĭ": 4391,
      "ellik": 4392,
      "Ġ2005": 4393,
      "And": 4394,
      "æĬĢ": 4395,
      "Ġfront": 4396,
      "tÄ±": 4397,
      "Ġprior": 4398,
      "Ġsolar": 4399,
      "ÃŃan": 4400,
      "phere": 4401,
      "ĠPlan": 4402,
      "Ġtransport": 4403,
      "Ġgrowing": 4404,
      "aged": 4405,
      "Ġul": 4406,
      "Ġaller": 4407,
      "åĽŀ": 4408,
      "Ġdamage": 4409,
      "Ġhost": 4410,
      "ĠIndia": 4411,
      "astic": 4412,
      "ãĢĬ": 4413,
      "è®¡": 4414,
      "eign": 4415,
      "Ġaud": 4416,
      "äºĮ": 4417,
      "ĠAfrica": 4418,
      "Ġtopl": 4419,
      "éĹ®": 4420,
      "aces": 4421,
      "ellow": 4422,
      "ĠIsra": 4423,
      "90": 4424,
      "Ġimprove": 4425,
      "ĠNor": 4426,
      "Ġfru": 4427,
      "ĠseÃ§": 4428,
      "ĠKon": 4429,
      "anÄ±n": 4430,
      "ĠInc": 4431,
      "åŁº": 4432,
      "water": 4433,
      "Ġnearly": 4434,
      "Ġpun": 4435,
      "Ġadditional": 4436,
      "Ġvida": 4437,
      "ti": 4438,
      "Ġvacc": 4439,
      "Ġbak": 4440,
      "resp": 4441,
      "Ġprivate": 4442,
      "Ġinstead": 4443,
      "ĠMore": 4444,
      "Ġcoast": 4445,
      "ĠCounty": 4446,
      "uv": 4447,
      "èį": 4448,
      "ja": 4449,
      "ĠbaÄŁ": 4450,
      "ilosoph": 4451,
      "Ġsoon": 4452,
      "Ġporque": 4453,
      "Ġhealthy": 4454,
      "Ġ195": 4455,
      "ancy": 4456,
      "mark": 4457,
      "Ġnews": 4458,
      "ĠMart": 4459,
      "ĠRed": 4460,
      "year": 4461,
      "ientes": 4462,
      "Ġreach": 4463,
      "ĠAfrican": 4464,
      "Ġclaim": 4465,
      "Ġ+": 4466,
      "Ġnetwork": 4467,
      "oco": 4468,
      "zt": 4469,
      "Ġdoing": 4470,
      "lement": 4471,
      "Ġadop": 4472,
      "Ġhimself": 4473,
      "Ġteachers": 4474,
      "æīĵ": 4475,
      "Ġimmed": 4476,
      "Ġprimary": 4477,
      "Ġmayor": 4478,
      "abetes": 4479,
      "Ġreflect": 4480,
      "Ġlleg": 4481,
      "Ġdetermine": 4482,
      "Ġcompan": 4483,
      "å°ĳ": 4484,
      "hne": 4485,
      "ä»»": 4486,
      "Ex": 4487,
      "ĠEngland": 4488,
      "æĬ¥": 4489,
      "Ġavoid": 4490,
      "æĶ¾": 4491,
      "Ġwid": 4492,
      "Ġber": 4493,
      "è§Ĩ": 4494,
      "ĠHigh": 4495,
      "tica": 4496,
      "Ġakt": 4497,
      "Ġfark": 4498,
      "ĠChild": 4499,
      "Ġalan": 4500,
      "ĠÅŁekilde": 4501,
      "ici": 4502,
      "Ġwriting": 4503,
      "Ġreligious": 4504,
      "Ġshare": 4505,
      "ulf": 4506,
      "Ġtam": 4507,
      "Ġattention": 4508,
      "lege": 4509,
      "Ġseems": 4510,
      "åĲĦ": 4511,
      "Ġdraw": 4512,
      "Ġsection": 4513,
      "Ġquite": 4514,
      "lk": 4515,
      "ĠOb": 4516,
      "Ġslow": 4517,
      "Ġagricult": 4518,
      "uls": 4519,
      "ĠJanuary": 4520,
      "____": 4521,
      "Ġleaders": 4522,
      "wick": 4523,
      "Ġuno": 4524,
      "Ġidentify": 4525,
      "ĠSec": 4526,
      "è¥": 4527,
      "ç¡": 4528,
      "æĮģ": 4529,
      "empl": 4530,
      "å·¥ä½ľ": 4531,
      "Ġmanufact": 4532,
      "ĠsÃ¼r": 4533,
      "ille": 4534,
      "é¢ĺ": 4535,
      "ields": 4536,
      "ĠNovember": 4537,
      "Ġfamilies": 4538,
      "ĠHand": 4539,
      "ĠMex": 4540,
      "ileri": 4541,
      "Ġharm": 4542,
      "fach": 4543,
      "Ġeasy": 4544,
      "Ġtry": 4545,
      "ÃŃcul": 4546,
      "eal": 4547,
      "Ġneden": 4548,
      "Ġstrength": 4549,
      "Con": 4550,
      "ĠArm": 4551,
      "aries": 4552,
      "Ġcommunities": 4553,
      "éĵ": 4554,
      "Ã¼hr": 4555,
      "Ġvict": 4556,
      "iers": 4557,
      "Ġsafety": 4558,
      "å¥¹": 4559,
      "chied": 4560,
      "Ġult": 4561,
      "Ġwel": 4562,
      "Ġveh": 4563,
      "33": 4564,
      "Ġbeginning": 4565,
      "ĠMor": 4566,
      "itis": 4567,
      "Ġbrought": 4568,
      "Ġhapp": 4569,
      "Ġtakes": 4570,
      "aria": 4571,
      "ustrial": 4572,
      "Ġdirectly": 4573,
      "oke": 4574,
      "oto": 4575,
      "Ph": 4576,
      "yor": 4577,
      "ĠAmericans": 4578,
      "Ġdemonstr": 4579,
      "lere": 4580,
      "Ġcer": 4581,
      "Ġplann": 4582,
      "Ġelement": 4583,
      "icher": 4584,
      "Ġvirt": 4585,
      "OM": 4586,
      "ĠAss": 4587,
      "ĠdÃŃa": 4588,
      "ĠtarafÄ±ndan": 4589,
      "Ġbek": 4590,
      "estic": 4591,
      "No": 4592,
      "Ä±yla": 4593,
      "lier": 4594,
      "iÅŁtir": 4595,
      "Ġlargest": 4596,
      "Ġtherap": 4597,
      "DA": 4598,
      "ĠSpe": 4599,
      "iber": 4600,
      "Ġhear": 4601,
      "Ġlength": 4602,
      "Ġpoints": 4603,
      "itch": 4604,
      "åŀ": 4605,
      "lant": 4606,
      "Ġimages": 4607,
      "Ġdescribed": 4608,
      "pir": 4609,
      "Â»": 4610,
      "ĠaÃ§Ä±k": 4611,
      "ceed": 4612,
      "ava": 4613,
      "Ġpp": 4614,
      "ections": 4615,
      "Ġdeal": 4616,
      "ierung": 4617,
      "Ġtraditional": 4618,
      "ray": 4619,
      "åİŁ": 4620,
      "ÅŁtur": 4621,
      "ÃŃn": 4622,
      "text": 4623,
      "æ¸¸": 4624,
      "ĠbÃ¶l": 4625,
      "éĹ¨": 4626,
      "éª": 4627,
      "Ġprint": 4628,
      "west": 4629,
      "Ġpersonas": 4630,
      "ĠAlthough": 4631,
      "inct": 4632,
      "45": 4633,
      "ky": 4634,
      "lus": 4635,
      "ĠTÃ¼rkiye": 4636,
      "åı£": 4637,
      "ĠSu": 4638,
      "itÃ¤t": 4639,
      "iud": 4640,
      "nes": 4641,
      "éĸ": 4642,
      "Ġcolon": 4643,
      "Ġcos": 4644,
      "back": 4645,
      "ounds": 4646,
      "lor": 4647,
      "aters": 4648,
      "cion": 4649,
      "Ġefforts": 4650,
      "Ġlands": 4651,
      "Ġur": 4652,
      "ĠOctober": 4653,
      "Ġep": 4654,
      "Ġice": 4655,
      "Ġdecre": 4656,
      "Ġlost": 4657,
      "Ġstre": 4658,
      "ĠDies": 4659,
      "De": 4660,
      "isms": 4661,
      "imos": 4662,
      "ĠWir": 4663,
      "ç§ĳ": 4664,
      "ecut": 4665,
      "Ġagre": 4666,
      "Ġdeliver": 4667,
      "ĠJournal": 4668,
      "ĠOf": 4669,
      "Be": 4670,
      "Ġconoc": 4671,
      "Ġfavor": 4672,
      "èª": 4673,
      "åĲĳ": 4674,
      "Ã±os": 4675,
      "Ġempres": 4676,
      "Ġinstr": 4677,
      "utsch": 4678,
      "mercial": 4679,
      "ä¸¤": 4680,
      "Ġelectr": 4681,
      "å¨": 4682,
      "chaft": 4683,
      "ĠBook": 4684,
      "oming": 4685,
      "ĠMil": 4686,
      "Ad": 4687,
      "Ġcou": 4688,
      "Ġactive": 4689,
      "è¥¿": 4690,
      "mission": 4691,
      "ASA": 4692,
      "Ġlimited": 4693,
      "Ġgere": 4694,
      "Ġdere": 4695,
      "istry": 4696,
      "Ġexact": 4697,
      "ucht": 4698,
      "çĽ´": 4699,
      "Ġbott": 4700,
      "éŁ": 4701,
      "Ġdieser": 4702,
      "Ġdetect": 4703,
      "ĠFin": 4704,
      "Ġextens": 4705,
      "Ġdang": 4706,
      "Ġtrees": 4707,
      "ueb": 4708,
      "Ġdied": 4709,
      "onom": 4710,
      "ĠRo": 4711,
      "At": 4712,
      "yp": 4713,
      "Ġmole": 4714,
      "Ġinterpret": 4715,
      "blic": 4716,
      "istas": 4717,
      "Ġhizmet": 4718,
      "ĠMich": 4719,
      "life": 4720,
      "Ãĸ": 4721,
      "ech": 4722,
      "maktadÄ±r": 4723,
      "åıĹ": 4724,
      "Ġhumans": 4725,
      "Ġquant": 4726,
      "Ġkaz": 4727,
      "icio": 4728,
      "alled": 4729,
      "ruary": 4730,
      "Ġfuel": 4731,
      "Ġbenefits": 4732,
      "ĠolduÄŁu": 4733,
      "reme": 4734,
      "elik": 4735,
      "éľĢ": 4736,
      "ĠJewish": 4737,
      "Ġfight": 4738,
      "iency": 4739,
      "çĶ±": 4740,
      "ĠCas": 4741,
      "arih": 4742,
      "Ġlegal": 4743,
      "room": 4744,
      "Ġlaws": 4745,
      "imens": 4746,
      "craft": 4747,
      "Ġilk": 4748,
      "used": 4749,
      "apter": 4750,
      "lat": 4751,
      "ktion": 4752,
      "ously": 4753,
      "çı": 4754,
      "Ġmonitor": 4755,
      "Ġrates": 4756,
      "acht": 4757,
      "è®©": 4758,
      "cn": 4759,
      "uÃŁ": 4760,
      "Ġdemand": 4761,
      "ĠDi": 4762,
      "ingu": 4763,
      "ux": 4764,
      "Ġcenter": 4765,
      "Ġforces": 4766,
      "Ġborn": 4767,
      "ĠBay": 4768,
      "Ġlove": 4769,
      "Ġtrib": 4770,
      "ST": 4771,
      "å¼º": 4772,
      "Ġestablish": 4773,
      "Ġtools": 4774,
      "Ġyan": 4775,
      "adt": 4776,
      "ĠMy": 4777,
      "isten": 4778,
      "Ġpack": 4779,
      "Ġok": 4780,
      "Ġlocated": 4781,
      "Ġspeak": 4782,
      "Ġlif": 4783,
      "kn": 4784,
      "term": 4785,
      "ika": 4786,
      "Ġiz": 4787,
      "Ġwide": 4788,
      "lung": 4789,
      "ĠLat": 4790,
      "umn": 4791,
      "Ġformer": 4792,
      "Ġextrem": 4793,
      "Ġtree": 4794,
      "rogen": 4795,
      "Ġ29": 4796,
      "Ġllev": 4797,
      "rak": 4798,
      "Ġdeclar": 4799,
      "see": 4800,
      "Ġpatient": 4801,
      "iyat": 4802,
      "ĠUN": 4803,
      "oca": 4804,
      "rÃ¡": 4805,
      "Ġsoftware": 4806,
      "Ġreve": 4807,
      "Ġcirc": 4808,
      "Ġsurvey": 4809,
      "Ġcontribut": 4810,
      "ĠaÃ±o": 4811,
      "ç¤º": 4812,
      "Im": 4813,
      "fÃ¼hr": 4814,
      "ĠJos": 4815,
      "ĠLondon": 4816,
      "terior": 4817,
      "Ġtiss": 4818,
      "Ġcust": 4819,
      "Ġstarted": 4820,
      "Ġuseful": 4821,
      "Ġcompared": 4822,
      "åįģ": 4823,
      "Ġgot": 4824,
      "bt": 4825,
      "ĠCongress": 4826,
      "Ġbehind": 4827,
      "Ġclin": 4828,
      "Ġperformance": 4829,
      "AP": 4830,
      "van": 4831,
      "Ġhighly": 4832,
      "Der": 4833,
      "ĠCanada": 4834,
      "Ġfra": 4835,
      "Ġfoods": 4836,
      "ĠsÃ¶y": 4837,
      "ĠUnion": 4838,
      "Ġtests": 4839,
      "load": 4840,
      "Ġmag": 4841,
      "ĠMer": 4842,
      "ĠSociety": 4843,
      "Ġcat": 4844,
      "Ġancient": 4845,
      "ĠRoman": 4846,
      "Ġrapid": 4847,
      "ĠDecember": 4848,
      "burg": 4849,
      "arten": 4850,
      "asons": 4851,
      "ehen": 4852,
      "Ġrecon": 4853,
      "Ġdoesn": 4854,
      "Ġelse": 4855,
      "ĠyapÄ±l": 4856,
      "ĠpaÃŃs": 4857,
      "Ġplanet": 4858,
      "ä¹Ĳ": 4859,
      "Ġcontains": 4860,
      "amil": 4861,
      "ĠFe": 4862,
      "Ġleading": 4863,
      "Ġuygul": 4864,
      "ĠGreat": 4865,
      "Ġproperty": 4866,
      "æł¼": 4867,
      "asyon": 4868,
      "ruck": 4869,
      "Ġinfection": 4870,
      "lend": 4871,
      "Ġyeni": 4872,
      "Ġtable": 4873,
      "æİ¨": 4874,
      "æĶ¶": 4875,
      "åŁİ": 4876,
      "ĠBen": 4877,
      "Ġhace": 4878,
      "æ¥": 4879,
      "Ġinsan": 4880,
      "light": 4881,
      "çĭ": 4882,
      "ĠMad": 4883,
      "Ġking": 4884,
      "Ġpositive": 4885,
      "Ġhands": 4886,
      "bi": 4887,
      "çĲĥ": 4888,
      "Ġnun": 4889,
      "Ġ2004": 4890,
      "mitted": 4891,
      "aje": 4892,
      "æµģ": 4893,
      "fficient": 4894,
      "Ġcard": 4895,
      "vement": 4896,
      "Ġdifference": 4897,
      "ivos": 4898,
      "éĻ¢": 4899,
      "net": 4900,
      "equ": 4901,
      "ogle": 4902,
      "ĠEducation": 4903,
      "Ġgegen": 4904,
      "ĠAg": 4905,
      "Ġtold": 4906,
      "Ġfeed": 4907,
      "Ġreserv": 4908,
      "æį®": 4909,
      "One": 4910,
      "uries": 4911,
      "Ġmob": 4912,
      "Ġcarry": 4913,
      "ĠCoun": 4914,
      "hab": 4915,
      "izing": 4916,
      "Ġevolution": 4917,
      "38": 4918,
      "Ġsleep": 4919,
      "Ġaf": 4920,
      "Ġmid": 4921,
      "Ġworkers": 4922,
      "Ġeasily": 4923,
      "Ġbere": 4924,
      "ĠVers": 4925,
      "Ġspecif": 4926,
      "Ġinside": 4927,
      "Ġcultural": 4928,
      "Ġoc": 4929,
      "rig": 4930,
      "just": 4931,
      "Ġotros": 4932,
      "fall": 4933,
      "iques": 4934,
      "ç«Ļ": 4935,
      "Ġfoot": 4936,
      "ĠMuse": 4937,
      "ĠRetrie": 4938,
      "Ġwrote": 4939,
      "ç«ĭ": 4940,
      "Ġmaintain": 4941,
      "iÃ§": 4942,
      "Ġbed": 4943,
      "ĠArbeit": 4944,
      "Ġdark": 4945,
      "Ġak": 4946,
      "tes": 4947,
      "Ġlines": 4948,
      "inger": 4949,
      "Ġkil": 4950,
      "agement": 4951,
      "Ġcontinued": 4952,
      "ĠTod": 4953,
      "Ġsummer": 4954,
      "ĠOff": 4955,
      "ser": 4956,
      "ĠFrom": 4957,
      "ĠInt": 4958,
      "ç¤¾": 4959,
      "ĠkarÅŁÄ±": 4960,
      "è²": 4961,
      "Ġsupply": 4962,
      "Ġlooking": 4963,
      "amen": 4964,
      "Ġquickly": 4965,
      "mesi": 4966,
      "Ġdiseases": 4967,
      "ĠPhil": 4968,
      "ĠBas": 4969,
      "isis": 4970,
      "Ġfile": 4971,
      "å®Į": 4972,
      "Ġvalues": 4973,
      "æ£": 4974,
      "ĠEast": 4975,
      "head": 4976,
      "Ġcalcul": 4977,
      "39": 4978,
      "rich": 4979,
      "æĴ": 4980,
      "Ġdivers": 4981,
      "ä¸ĩ": 4982,
      "Ġfeatures": 4983,
      "Ġrespond": 4984,
      "Ġord": 4985,
      "èĳ": 4986,
      "hemat": 4987,
      "èİ": 4988,
      "ĠFirst": 4989,
      "yal": 4990,
      "ola": 4991,
      "Ġaccur": 4992,
      "Ġseek": 4993,
      "Ġgetting": 4994,
      "stand": 4995,
      "Ġburn": 4996,
      "eres": 4997,
      "heim": 4998,
      "name": 4999,
      "inese": 5000,
      "åĮĹ": 5001,
      "Ġperfect": 5002,
      "Ġfollowed": 5003,
      "uciÃ³n": 5004,
      "ĠIsrael": 5005,
      "åĥ": 5006,
      "Ġutiliz": 5007,
      "Ġbeg": 5008,
      "Ġprojects": 5009,
      "Ġu": 5010,
      "Ġdrink": 5011,
      "argo": 5012,
      "Ġcontra": 5013,
      "ĠRetrieved": 5014,
      "Ġremains": 5015,
      "wor": 5016,
      "istan": 5017,
      "part": 5018,
      "Ġnothing": 5019,
      "ä¼ģ": 5020,
      "Ġvit": 5021,
      "Ġ80": 5022,
      "ĠSa": 5023,
      "Ġrecently": 5024,
      "ĠUr": 5025,
      "ĠtÃ¼m": 5026,
      "Ġsaw": 5027,
      "ĠMens": 5028,
      "Ġeye": 5029,
      "eÅŁ": 5030,
      "ĠService": 5031,
      "æ±Ĥ": 5032,
      "Ġbad": 5033,
      "ĠStand": 5034,
      "Ġkids": 5035,
      "Ġinfluence": 5036,
      "ĠDire": 5037,
      "ĠRev": 5038,
      "ĠGesch": 5039,
      "ĠHouse": 5040,
      "redit": 5041,
      "By": 5042,
      "uff": 5043,
      "halten": 5044,
      "idents": 5045,
      "Ġtrade": 5046,
      "orum": 5047,
      "Ġbasis": 5048,
      "Ġki": 5049,
      "Ġlugar": 5050,
      "cher": 5051,
      "Ġwebsite": 5052,
      "å¿«": 5053,
      "Ġplaces": 5054,
      "Ġcitiz": 5055,
      "set": 5056,
      "ĠDavid": 5057,
      "ä»·": 5058,
      "Ġdigital": 5059,
      "Ãºblic": 5060,
      "Ġhabe": 5061,
      "ties": 5062,
      "ought": 5063,
      "odies": 5064,
      "Ġstandards": 5065,
      "å¤´": 5066,
      "Ġseason": 5067,
      "aban": 5068,
      "Ã¼c": 5069,
      "Ġdry": 5070,
      "åĶ": 5071,
      "37": 5072,
      "Ġbillion": 5073,
      "Ġfat": 5074,
      "Ġcritical": 5075,
      "Ġweeks": 5076,
      "ĠBet": 5077,
      "Das": 5078,
      "ĠAir": 5079,
      "log": 5080,
      "Ġlimit": 5081,
      "æ²¡æľī": 5082,
      "Ġconflic": 5083,
      "Ġcool": 5084,
      "Ġcollection": 5085,
      "èĩ³": 5086,
      "Ġpet": 5087,
      "Se": 5088,
      "ittee": 5089,
      "Ġohne": 5090,
      "Ġmismo": 5091,
      "ĠKur": 5092,
      "Ġcrop": 5093,
      "roy": 5094,
      "Ġiyi": 5095,
      "xic": 5096,
      "Ġma": 5097,
      "Ġcosts": 5098,
      "Ġfil": 5099,
      "Ã¶z": 5100,
      "nda": 5101,
      "IL": 5102,
      "ieron": 5103,
      "wise": 5104,
      "ĠTex": 5105,
      "itect": 5106,
      "hest": 5107,
      "leÅŁt": 5108,
      "Ġoccup": 5109,
      "34": 5110,
      "ÄŁit": 5111,
      "ĠJahr": 5112,
      "inary": 5113,
      "Ġdate": 5114,
      "è®°": 5115,
      "è¿ĳ": 5116,
      "ially": 5117,
      "Ġprotection": 5118,
      "åħĪ": 5119,
      "Ġforest": 5120,
      "åĽ¾": 5121,
      "Ġdead": 5122,
      "uent": 5123,
      "Â·": 5124,
      "Ġcommand": 5125,
      "orders": 5126,
      "ç»ĵ": 5127,
      "ĠÅŁey": 5128,
      "Ġtransl": 5129,
      "Ġappropriate": 5130,
      "ologies": 5131,
      "Ġobjects": 5132,
      "nehmen": 5133,
      "Ġelements": 5134,
      "uan": 5135,
      "Des": 5136,
      "Ġpurpose": 5137,
      "oud": 5138,
      "car": 5139,
      "ĠHIV": 5140,
      "Ġrob": 5141,
      "é£İ": 5142,
      "ĠOnline": 5143,
      "ii": 5144,
      "ening": 5145,
      "Ġhous": 5146,
      "æľ¯": 5147,
      "Ġearlier": 5148,
      "ĠSim": 5149,
      "airs": 5150,
      "Ġexpected": 5151,
      "Ġcateg": 5152,
      "Ġtrav": 5153,
      "Ġmember": 5154,
      "Ġsequ": 5155,
      "åł": 5156,
      "ĠLaw": 5157,
      "Ġapplication": 5158,
      "ĠPort": 5159,
      "Ġteaching": 5160,
      "Ġsecurity": 5161,
      "larÄ±nÄ±n": 5162,
      "Ġcru": 5163,
      "urban": 5164,
      "ĠaÅŁ": 5165,
      "ĠCour": 5166,
      "Ġban": 5167,
      "Ġdesar": 5168,
      "ria": 5169,
      "ĠRober": 5170,
      "ientos": 5171,
      "ĠArch": 5172,
      "maya": 5173,
      "ĠWind": 5174,
      "ords": 5175,
      "cious": 5176,
      "Ġdaily": 5177,
      "Ġallows": 5178,
      "Ġtarget": 5179,
      "Ġprotein": 5180,
      "Ġspirit": 5181,
      "78": 5182,
      "Ġbirds": 5183,
      "Ġganz": 5184,
      "ĠDay": 5185,
      "ammen": 5186,
      "ĠAssociation": 5187,
      "100": 5188,
      "Ġsn": 5189,
      "Ġmundo": 5190,
      "ĠOrgan": 5191,
      "very": 5192,
      "wend": 5193,
      "ĠPor": 5194,
      "ĠBi": 5195,
      "joy": 5196,
      "99": 5197,
      "ä¸ľ": 5198,
      "ms": 5199,
      "Ġmother": 5200,
      "OL": 5201,
      "ĠDon": 5202,
      "Ġ2003": 5203,
      "osition": 5204,
      "ĠSen": 5205,
      "Ġincor": 5206,
      "Ġgenetic": 5207,
      "aft": 5208,
      "åĦ": 5209,
      "aÄŁÄ±": 5210,
      "Ġwaste": 5211,
      "Ġtrial": 5212,
      "illing": 5213,
      "ocr": 5214,
      "éĽĨ": 5215,
      "ĠOther": 5216,
      "Ġchalleng": 5217,
      "uego": 5218,
      "Ġkap": 5219,
      "ĠMac": 5220,
      "fre": 5221,
      "ĠMr": 5222,
      "omin": 5223,
      "Ġasked": 5224,
      "Ġmultiple": 5225,
      "Ġnamed": 5226,
      "ĠÃ§ek": 5227,
      "ĠTest": 5228,
      "Ġang": 5229,
      "ä¸ĸ": 5230,
      "vious": 5231,
      "Ġcompanies": 5232,
      "Ġauth": 5233,
      "Ġsituation": 5234,
      "ĠWilliam": 5235,
      "Ã©r": 5236,
      "Ġfaz": 5237,
      "Ġeat": 5238,
      "Ġsam": 5239,
      "Ġwalk": 5240,
      "hÃ¤": 5241,
      "pression": 5242,
      "ĠProdu": 5243,
      "ĠBlack": 5244,
      "Ġverb": 5245,
      "Ġcommercial": 5246,
      "tained": 5247,
      "Ġpredict": 5248,
      "Ġweather": 5249,
      "æ¯ı": 5250,
      "Ġtrack": 5251,
      "lig": 5252,
      "Ġmant": 5253,
      "iÄŁini": 5254,
      "ohol": 5255,
      "ĠJust": 5256,
      "Ġsurround": 5257,
      "çħ": 5258,
      "Ġmission": 5259,
      "Ġdrugs": 5260,
      "Ġlat": 5261,
      "enge": 5262,
      "ulate": 5263,
      "å±±": 5264,
      "Ġkeine": 5265,
      "Ġdecision": 5266,
      "iten": 5267,
      "Ä±cÄ±": 5268,
      "Ġkm": 5269,
      "Ġspeed": 5270,
      "het": 5271,
      "Ġmiddle": 5272,
      "Ġfather": 5273,
      "ĠForm": 5274,
      "Ġadults": 5275,
      "Ġsomeone": 5276,
      "anish": 5277,
      "ota": 5278,
      "Ġtanto": 5279,
      "Ġmemory": 5280,
      "vant": 5281,
      "Ġformed": 5282,
      "è±": 5283,
      "rate": 5284,
      "èģĶ": 5285,
      "ĠPaul": 5286,
      "æĬĬ": 5287,
      "Ġcorn": 5288,
      "hand": 5289,
      "wide": 5290,
      "Ġfear": 5291,
      "ximately": 5292,
      "oring": 5293,
      "erb": 5294,
      "Ġcampa": 5295,
      "Ġrain": 5296,
      "Ġoyun": 5297,
      "Ġdomin": 5298,
      "Ġdurante": 5299,
      "Ġversion": 5300,
      "asion": 5301,
      "å®¢": 5302,
      "éĢł": 5303,
      "åįķ": 5304,
      "Ġsolo": 5305,
      "ä»Ĭ": 5306,
      "ĠJames": 5307,
      "75": 5308,
      "ĠJesus": 5309,
      "ĠEnvironment": 5310,
      "ç»Ļ": 5311,
      "ĠFebruary": 5312,
      "ixed": 5313,
      "Ġdiscovered": 5314,
      "æ°Ķ": 5315,
      "æ®": 5316,
      "ierte": 5317,
      "ĠDNA": 5318,
      "ĠDevelop": 5319,
      "Ġolder": 5320,
      "Ġbeyond": 5321,
      "Ġmax": 5322,
      "Ġeffort": 5323,
      "Ġnames": 5324,
      "Ġpueden": 5325,
      "Ġanti": 5326,
      "unch": 5327,
      "Ġacid": 5328,
      "Ġbiz": 5329,
      "Ġminutes": 5330,
      "ulated": 5331,
      "ĠPublic": 5332,
      "ĠdÃ¼n": 5333,
      "Ġtransfer": 5334,
      "eff": 5335,
      "Ġreceive": 5336,
      "è´¹": 5337,
      "Ġgave": 5338,
      "ä»Ģ": 5339,
      "Ġunique": 5340,
      "ĠBra": 5341,
      "ĠRel": 5342,
      "Ġexercise": 5343,
      "Ġchurch": 5344,
      "æºĲ": 5345,
      "uÃ©s": 5346,
      "ellt": 5347,
      "Ġappears": 5348,
      "Ġeines": 5349,
      "Ġrequires": 5350,
      "Ġsevere": 5351,
      "ichtig": 5352,
      "Ġdevam": 5353,
      "emÃ¡s": 5354,
      "Ġlegisl": 5355,
      "Ġcode": 5356,
      "ĠTel": 5357,
      "UN": 5358,
      "65": 5359,
      "enen": 5360,
      "aging": 5361,
      "unuz": 5362,
      "Ãĩ": 5363,
      "ĠÃºlt": 5364,
      "Ġimpos": 5365,
      "Ġespa": 5366,
      "Ġhol": 5367,
      "Ġsafe": 5368,
      "Ġnuclear": 5369,
      "Ġcurrently": 5370,
      "å¤Ħ": 5371,
      "Ġeconomy": 5372,
      "Ġwww": 5373,
      "Ġdirector": 5374,
      "rum": 5375,
      "Ġmich": 5376,
      "Ġsmaller": 5377,
      "ĠyÃ¼k": 5378,
      "åĨį": 5379,
      "ĠChinese": 5380,
      "æķ´": 5381,
      "Ġgame": 5382,
      "Ġscreen": 5383,
      "Ġsymbol": 5384,
      "æĢ»": 5385,
      "ä¼ł": 5386,
      "Ġenter": 5387,
      "Ġvehic": 5388,
      "æģ¯": 5389,
      "ĠestÃ¡n": 5390,
      "Ġmention": 5391,
      "æĬķ": 5392,
      "ache": 5393,
      "Ġterrit": 5394,
      "Ġunc": 5395,
      "fahr": 5396,
      "abei": 5397,
      "å²": 5398,
      "åħī": 5399,
      "wa": 5400,
      "Â¿": 5401,
      "Ġped": 5402,
      "inos": 5403,
      "ç¶": 5404,
      "Ġtener": 5405,
      "æĪ¿": 5406,
      "resh": 5407,
      "ĠGreek": 5408,
      "Ġradio": 5409,
      "PS": 5410,
      "Ġ90": 5411,
      "æĵ": 5412,
      "Ġmental": 5413,
      "Ġalone": 5414,
      "Ä±mÄ±": 5415,
      "Ġweak": 5416,
      "Ġexposure": 5417,
      "Ġanaly": 5418,
      "ĠCouncil": 5419,
      "Ġdepend": 5420,
      "Ġperhaps": 5421,
      "leÅŁ": 5422,
      "Ġplaced": 5423,
      "ript": 5424,
      "ĠNet": 5425,
      "lÄ±ÄŁÄ±": 5426,
      "iliar": 5427,
      "Ġsustain": 5428,
      "Ġdisplay": 5429,
      "Ġrepro": 5430,
      "OT": 5431,
      "Ġemot": 5432,
      "ĠGer": 5433,
      "orial": 5434,
      "ĠÃ¶nce": 5435,
      "Ġconse": 5436,
      "Ġ2001": 5437,
      "Ġprocesses": 5438,
      "Ġones": 5439,
      "Ġresponsible": 5440,
      "Ġciud": 5441,
      "ayÄ±n": 5442,
      "Ġyok": 5443,
      "Ġneigh": 5444,
      "Ġbecomes": 5445,
      "ĠRec": 5446,
      "Ġimportance": 5447,
      "å¯¼": 5448,
      "usammen": 5449,
      "Ġmap": 5450,
      "Ġensure": 5451,
      "iately": 5452,
      "Ġwinter": 5453,
      "bert": 5454,
      "Ġfair": 5455,
      "ĠGermany": 5456,
      "oor": 5457,
      "ä¸ĵ": 5458,
      "oted": 5459,
      "ĠJews": 5460,
      "larÄ±na": 5461,
      "edom": 5462,
      "Ġrat": 5463,
      "ç¥ŀ": 5464,
      "Ġstay": 5465,
      "Ã¼rÃ¼n": 5466,
      "ĠFrance": 5467,
      "Ġhistorical": 5468,
      "Ġconstruction": 5469,
      "Ġcorresp": 5470,
      "udd": 5471,
      "weise": 5472,
      "ä¾Ľ": 5473,
      "Ġod": 5474,
      "Res": 5475,
      "enth": 5476,
      "ala": 5477,
      "ession": 5478,
      "ĠSocial": 5479,
      "Ġsowie": 5480,
      "ĠNews": 5481,
      "rees": 5482,
      "Ġriver": 5483,
      "Ġsche": 5484,
      "ocks": 5485,
      "æīį": 5486,
      "nah": 5487,
      "Ġcand": 5488,
      "ude": 5489,
      "Ġgoal": 5490,
      "All": 5491,
      "oration": 5492,
      "ĠYour": 5493,
      "ĠTem": 5494,
      "come": 5495,
      "reh": 5496,
      "imo": 5497,
      "ibi": 5498,
      "ĠMedic": 5499,
      "Ġallowed": 5500,
      "otic": 5501,
      "Ġvent": 5502,
      "åĪĽ": 5503,
      "oche": 5504,
      "ĠSee": 5505,
      "tr": 5506,
      "iest": 5507,
      "Ġ2002": 5508,
      "Ġreports": 5509,
      "Ġihre": 5510,
      "Bu": 5511,
      "!!": 5512,
      "31": 5513,
      "orb": 5514,
      "Ġbank": 5515,
      "oe": 5516,
      "Ġ70": 5517,
      "ebilir": 5518,
      "ags": 5519,
      "gypt": 5520,
      "88": 5521,
      "Ġtesting": 5522,
      "ĠAlso": 5523,
      "ael": 5524,
      "ĠUnivers": 5525,
      "ç»Ł": 5526,
      "ĠDel": 5527,
      "Ġrise": 5528,
      "dÄ±": 5529,
      "åŀĭ": 5530,
      "ped": 5531,
      "Ġcuenta": 5532,
      "Ġhope": 5533,
      "Ġcook": 5534,
      "uten": 5535,
      "ĠTur": 5536,
      "Ġprefer": 5537,
      "æĮĩ": 5538,
      "Ã¼nde": 5539,
      "Ġsexual": 5540,
      "ĠolduÄŁunu": 5541,
      "Ġdiabetes": 5542,
      "Ġstar": 5543,
      "Ġgives": 5544,
      "Ġwoman": 5545,
      "ION": 5546,
      "Ġbreast": 5547,
      "Ġfriends": 5548,
      "Los": 5549,
      "Ġanything": 5550,
      "usion": 5551,
      "Ġble": 5552,
      "hora": 5553,
      "ĠiÃ§er": 5554,
      "Ġjun": 5555,
      "ĠgÃ¶z": 5556,
      "Ġuser": 5557,
      "ĠBro": 5558,
      "ully": 5559,
      "çĪ±": 5560,
      "house": 5561,
      "ĠInf": 5562,
      "Ġbah": 5563,
      "Ġdegree": 5564,
      "Ġmerc": 5565,
      "zi": 5566,
      "HE": 5567,
      "enty": 5568,
      "va": 5569,
      "å¢ŀ": 5570,
      "åįĹ": 5571,
      "ground": 5572,
      "isiÃ³n": 5573,
      "time": 5574,
      "æ¢": 5575,
      "Ġpel": 5576,
      "Ġacqu": 5577,
      "æłĩ": 5578,
      "Ġconsequ": 5579,
      "oo": 5580,
      "Ġwrite": 5581,
      "æ³¨": 5582,
      "Ġenjoy": 5583,
      "Ġoccurs": 5584,
      "Ġkle": 5585,
      "éĿŀ": 5586,
      "Ġilgili": 5587,
      "aum": 5588,
      "ĠiÅŁlem": 5589,
      "ĠDE": 5590,
      "ĠAustralia": 5591,
      "idel": 5592,
      "Â°": 5593,
      "Ġencont": 5594,
      "Ġtom": 5595,
      "ç²¾": 5596,
      "Ġexperiment": 5597,
      "itable": 5598,
      "ĠÂ«": 5599,
      "åĻ": 5600,
      "Ġlocation": 5601,
      "Ġtrabajo": 5602,
      "Ġequipment": 5603,
      "è§Ħ": 5604,
      "Ġtechniques": 5605,
      "odes": 5606,
      "Ġexhib": 5607,
      "alarÄ±": 5608,
      "Ġblock": 5609,
      "32": 5610,
      "æĪ·": 5611,
      "ohl": 5612,
      "Ġjed": 5613,
      "Ġeinfach": 5614,
      "Ġcold": 5615,
      "ĠGreen": 5616,
      "05": 5617,
      "Ġstatus": 5618,
      "ĠDu": 5619,
      "stan": 5620,
      "ĠPerson": 5621,
      "ĠAk": 5622,
      "Ġintens": 5623,
      "Ġpregn": 5624,
      "BN": 5625,
      "ynam": 5626,
      "Ġfest": 5627,
      "iene": 5628,
      "Ġroom": 5629,
      "ĠkÃ¶": 5630,
      "iny": 5631,
      "ĠDuring": 5632,
      "bul": 5633,
      "å¸ĥ": 5634,
      "ĠdeÄŁer": 5635,
      "ocol": 5636,
      "Ġ35": 5637,
      "ĠNASA": 5638,
      "blem": 5639,
      "These": 5640,
      "Ġbeim": 5641,
      "New": 5642,
      "Ġexplain": 5643,
      "Ġrelatively": 5644,
      "å®¹": 5645,
      "ĠCath": 5646,
      "iere": 5647,
      "uyor": 5648,
      "åĮħ": 5649,
      "known": 5650,
      "nÄ±n": 5651,
      "amental": 5652,
      "éĢī": 5653,
      "Ġdich": 5654,
      "Ġforeign": 5655,
      "Ġrule": 5656,
      "Ġseven": 5657,
      "æĪĺ": 5658,
      "æĶ¹": 5659,
      "mektedir": 5660,
      "Ġents": 5661,
      "Ġidentified": 5662,
      "ç©º": 5663,
      "IM": 5664,
      "Ġcab": 5665,
      "sek": 5666,
      "Ã§a": 5667,
      "èĮ": 5668,
      "Ġcualquier": 5669,
      "æħ": 5670,
      "Ġapplications": 5671,
      "Ġpeace": 5672,
      "Ġdav": 5673,
      "itter": 5674,
      "aden": 5675,
      "Ġinnov": 5676,
      "kanÄ±": 5677,
      "ĠHuman": 5678,
      "Ġdifer": 5679,
      "yright": 5680,
      "ĠRich": 5681,
      "ĠsÃ¶z": 5682,
      "ĠSel": 5683,
      "Ġcaso": 5684,
      "Ġvisual": 5685,
      "reib": 5686,
      "aper": 5687,
      "RE": 5688,
      "ĠSol": 5689,
      "ellig": 5690,
      "ĠCO": 5691,
      "esc": 5692,
      "Ã¼ne": 5693,
      "plies": 5694,
      "Ġmuss": 5695,
      "ĠÃ¶ÄŁren": 5696,
      "ĠMuseum": 5697,
      "Sh": 5698,
      "Ġgal": 5699,
      "iance": 5700,
      "Ä±ÄŁÄ±nÄ±": 5701,
      "éº": 5702,
      "Ġestud": 5703,
      "Ġscale": 5704,
      "Ġvill": 5705,
      "wischen": 5706,
      "çº§": 5707,
      "Ġtowards": 5708,
      "Ġfinancial": 5709,
      "Ġsiem": 5710,
      "Ġeyes": 5711,
      "Ĥ¬": 5712,
      "aint": 5713,
      "ĠIch": 5714,
      "ĠaÄŁ": 5715,
      "wards": 5716,
      "Ġtarih": 5717,
      "ading": 5718,
      "ean": 5719,
      "Ġindustrial": 5720,
      "enda": 5721,
      "Ã¶ch": 5722,
      "ĠMars": 5723,
      "å°±æĺ¯": 5724,
      "Ġoffice": 5725,
      "ciones": 5726,
      "Ġmeasures": 5727,
      "ĠSi": 5728,
      "Ġsuccessful": 5729,
      "zo": 5730,
      "Ġduy": 5731,
      "onic": 5732,
      "çĤº": 5733,
      "ĠWestern": 5734,
      "ĠStre": 5735,
      "phas": 5736,
      "éĢĻ": 5737,
      "åıĺ": 5738,
      "Ġselbst": 5739,
      "Ġsiempre": 5740,
      "Ġadvant": 5741,
      "Ġrecords": 5742,
      "åħ·": 5743,
      "ographic": 5744,
      "èĬ±": 5745,
      "Ġestos": 5746,
      "ä½ķ": 5747,
      "Ġassum": 5748,
      "Ġrecover": 5749,
      "åħ±": 5750,
      "Ġbirlik": 5751,
      "å¸Ī": 5752,
      "Ġnas": 5753,
      "Ġstra": 5754,
      "Re": 5755,
      "ĠBur": 5756,
      "è¿Ĳ": 5757,
      "Ġeing": 5758,
      "æ¸ħ": 5759,
      "ball": 5760,
      "Ġsahip": 5761,
      "Ġconstant": 5762,
      "Ġstage": 5763,
      "Ġdiesem": 5764,
      "Ġmodels": 5765,
      "rome": 5766,
      "Ġreduced": 5767,
      "ĠMiss": 5768,
      "ĠRepublic": 5769,
      "Ġteacher": 5770,
      "ĠCollege": 5771,
      "Ġdevice": 5772,
      "ĠMet": 5773,
      "åıĭ": 5774,
      "åĪ«": 5775,
      "Ġquien": 5776,
      "ĠmÃ¼s": 5777,
      "Ġmajority": 5778,
      "Ġtempor": 5779,
      "ĠMary": 5780,
      "Ġpassed": 5781,
      "ĠEven": 5782,
      "Ġdifferences": 5783,
      "Ġexpand": 5784,
      "Ġdej": 5785,
      "ĠMill": 5786,
      "è³": 5787,
      "isen": 5788,
      "ĠSl": 5789,
      "Ġnuestro": 5790,
      "çķĮ": 5791,
      "Ã§e": 5792,
      "aur": 5793,
      "ĠJah": 5794,
      "ĠTop": 5795,
      "ĠEgypt": 5796,
      "çĻ½": 5797,
      "iments": 5798,
      "lerde": 5799,
      "Te": 5800,
      "Ġtypically": 5801,
      "ĠinformaciÃ³n": 5802,
      "Ġconstruct": 5803,
      "Ġnutr": 5804,
      "Ã³mo": 5805,
      "ãĢĮ": 5806,
      "Ġemissions": 5807,
      "ĠGovernment": 5808,
      "ĠSince": 5809,
      "Ġphilosoph": 5810,
      "ĠSam": 5811,
      "Ġetk": 5812,
      "unque": 5813,
      "ĠDen": 5814,
      "Ġwa": 5815,
      "icios": 5816,
      "Ġorganization": 5817,
      "Ġerst": 5818,
      "Ġproviding": 5819,
      "rid": 5820,
      "Ġperman": 5821,
      "ĠFlor": 5822,
      "rolled": 5823,
      "ĠWater": 5824,
      "ĠÃ¶nemli": 5825,
      "Ġhelps": 5826,
      "è´¨": 5827,
      "ĠCre": 5828,
      "lama": 5829,
      "44": 5830,
      "Ġalg": 5831,
      "åıĳå±ķ": 5832,
      "ĠBild": 5833,
      "ĠkÄ±s": 5834,
      "Ġbeaut": 5835,
      "è°ĥ": 5836,
      "ĠBak": 5837,
      "pan": 5838,
      "ĠDec": 5839,
      "Ġmucho": 5840,
      "Ã¶s": 5841,
      "ivel": 5842,
      "Ġbacteria": 5843,
      "çµ": 5844,
      "èŃ": 5845,
      "aced": 5846,
      "Ġid": 5847,
      "Ġmism": 5848,
      "eso": 5849,
      "Ġrich": 5850,
      "Ġequal": 5851,
      "Ġ#": 5852,
      "Com": 5853,
      "Ġrules": 5854,
      "Ġleaves": 5855,
      "Ġhin": 5856,
      "Ġthinking": 5857,
      "Sch": 5858,
      "Ġrot": 5859,
      "stell": 5860,
      "Ġaffected": 5861,
      "abul": 5862,
      "ronom": 5863,
      "Ġfindings": 5864,
      "æľĥ": 5865,
      "Ġcoming": 5866,
      "Ġshowed": 5867,
      "éł": 5868,
      "ĠFound": 5869,
      "ĠSom": 5870,
      "Ġbound": 5871,
      "Ġworked": 5872,
      "more": 5873,
      "é¡¹": 5874,
      "ĠTexas": 5875,
      "ĠDan": 5876,
      "æĸ¯": 5877,
      "With": 5878,
      "Ä±ndaki": 5879,
      "ĠGeorge": 5880,
      "ĠGal": 5881,
      "Ġradiation": 5882,
      "AB": 5883,
      "azÄ±": 5884,
      "åıĪ": 5885,
      "Ġspiel": 5886,
      "isher": 5887,
      "Ġmiss": 5888,
      "Ġreveal": 5889,
      "ĠLord": 5890,
      "èĢĥ": 5891,
      "Ġstaff": 5892,
      "Ġleave": 5893,
      "Ġrepe": 5894,
      "Ġapplied": 5895,
      "ĠtaÅŁ": 5896,
      "ãĢį": 5897,
      "Ġroad": 5898,
      "ager": 5899,
      "iar": 5900,
      "ĠÃ¡": 5901,
      "mam": 5902,
      "Ġsolution": 5903,
      "Ġsecret": 5904,
      "ella": 5905,
      "ĠThen": 5906,
      "Ġmomento": 5907,
      "Ġkit": 5908,
      "ĠBecause": 5909,
      "Ġrecommend": 5910,
      "ĠMenschen": 5911,
      "Ġchanged": 5912,
      "Ġkol": 5913,
      "Ġregions": 5914,
      "Ġprofes": 5915,
      "Ġcomplic": 5916,
      "arian": 5917,
      "Ġtradition": 5918,
      "Ġtherapy": 5919,
      "Ġcities": 5920,
      "Ġpurch": 5921,
      "Ġfert": 5922,
      "Ġ1990": 5923,
      "gery": 5924,
      "ener": 5925,
      "Ġconvers": 5926,
      "Ġyat": 5927,
      "Ġdivid": 5928,
      "èħ": 5929,
      "Ġsurpr": 5930,
      "esinde": 5931,
      "Ab": 5932,
      "ĠTer": 5933,
      "Ġbelief": 5934,
      "ĠBes": 5935,
      "ĠLas": 5936,
      "ĠAccording": 5937,
      "IR": 5938,
      "Est": 5939,
      "mp": 5940,
      "Ġbaj": 5941,
      "Ġthousands": 5942,
      "Some": 5943,
      "upt": 5944,
      "oria": 5945,
      "Ġabsol": 5946,
      "Ġdoct": 5947,
      "ĠNow": 5948,
      "abilirsiniz": 5949,
      "with": 5950,
      "ĠUp": 5951,
      "Ġremember": 5952,
      "ĠLou": 5953,
      "Ġbenefit": 5954,
      "ĠMont": 5955,
      "Ġfu": 5956,
      "Ġpractices": 5957,
      "åĽĽ": 5958,
      "Ġinteresting": 5959,
      "Ġseparate": 5960,
      "Ġcommonly": 5961,
      "anc": 5962,
      "cons": 5963,
      "Ġdil": 5964,
      "ĠGoogle": 5965,
      "Ġcompletely": 5966,
      "Ġotro": 5967,
      "ologist": 5968,
      "Ġadapt": 5969,
      "Ġexamples": 5970,
      "Ġ186": 5971,
      "Ġeight": 5972,
      "eht": 5973,
      "ĠProject": 5974,
      "æĺĵ": 5975,
      "Ġhyp": 5976,
      "Ġconsult": 5977,
      "yect": 5978,
      "ĠCap": 5979,
      "dir": 5980,
      "Ġese": 5981,
      "Ġign": 5982,
      "èĤ²": 5983,
      "Ġhig": 5984,
      "ĠNav": 5985,
      "Ġpodr": 5986,
      "ĠKe": 5987,
      "ologists": 5988,
      "ĠRad": 5989,
      "Ġexisting": 5990,
      "ĠSub": 5991,
      "Ġunit": 5992,
      "Ġapproximately": 5993,
      "48": 5994,
      "Ġopportunity": 5995,
      "Ġgene": 5996,
      "itting": 5997,
      "Ġtrying": 5998,
      "win": 5999,
      "ĠBank": 6000,
      "Ġfort": 6001,
      "æŃ¥": 6002,
      "Ġsector": 6003,
      "æĸĻ": 6004,
      "nÄ±": 6005,
      "Ġreasons": 6006,
      "ocuk": 6007,
      "æķĪ": 6008,
      "Ġbaby": 6009,
      "Ã¤d": 6010,
      "Ġfactor": 6011,
      "Ġmoved": 6012,
      "iÃŁ": 6013,
      "ested": 6014,
      "Ġqual": 6015,
      "Ġnative": 6016,
      "Ġnuestra": 6017,
      "Ġfaith": 6018,
      "ciences": 6019,
      "ĠIsland": 6020,
      "ĠdeÄŁil": 6021,
      "ĠIhre": 6022,
      "Ġproces": 6023,
      "è¯Ŀ": 6024,
      "ternal": 6025,
      "Ġayr": 6026,
      "Ġgoes": 6027,
      "Ġwen": 6028,
      "Ġopin": 6029,
      "Ġpresence": 6030,
      "rap": 6031,
      "eness": 6032,
      "olf": 6033,
      "Ġ1999": 6034,
      "Ġball": 6035,
      "Ġplat": 6036,
      "ĠSant": 6037,
      "èµ°": 6038,
      "ĠdÃ¼zen": 6039,
      "Ġsido": 6040,
      "Ġtur": 6041,
      "ĠThomas": 6042,
      "Ġdestroy": 6043,
      "ĠDar": 6044,
      "55": 6045,
      "ĠSun": 6046,
      "ming": 6047,
      "ĠÃ¼rÃ¼n": 6048,
      "Ġtab": 6049,
      "ĠJapanese": 6050,
      "Ġdevices": 6051,
      "çłĶ": 6052,
      "Ġobserved": 6053,
      "Ġassist": 6054,
      "Ġspring": 6055,
      "Ã¶yle": 6056,
      "Ġ*": 6057,
      "ribute": 6058,
      "Ġcarried": 6059,
      "Ġpermit": 6060,
      "htm": 6061,
      "å¸¦": 6062,
      "ĠAre": 6063,
      "ĠlÃŃ": 6064,
      "ĠMass": 6065,
      "encies": 6066,
      "Ġdirection": 6067,
      "åıĸ": 6068,
      "Ġpresented": 6069,
      "Ġdistance": 6070,
      "ĠIr": 6071,
      "Ġemail": 6072,
      "æ·±": 6073,
      "ĠMount": 6074,
      "Ġcitizens": 6075,
      "ç»Ħ": 6076,
      "Ġmanera": 6077,
      "Ġusers": 6078,
      "usu": 6079,
      "zent": 6080,
      "ĠTor": 6081,
      "Ġpopulations": 6082,
      "Ġmenos": 6083,
      "band": 6084,
      "Ġelimin": 6085,
      "Ġjournal": 6086,
      "æĲ": 6087,
      "halt": 6088,
      "ãĢĤâĢĿ": 6089,
      "æĳ": 6090,
      "Ġparty": 6091,
      "Ġeducational": 6092,
      "isation": 6093,
      "Ġeverything": 6094,
      "ĠStr": 6095,
      "Ġmel": 6096,
      "Ġdiss": 6097,
      "Ġprice": 6098,
      "ĠHere": 6099,
      "ocal": 6100,
      "itness": 6101,
      "OC": 6102,
      "Ġfinden": 6103,
      "Ġnegative": 6104,
      "Ġshape": 6105,
      "ĠWer": 6106,
      "08": 6107,
      "Ġcustom": 6108,
      "ĠpolÃŃ": 6109,
      "Ġfemale": 6110,
      "ette": 6111,
      "Ġwhom": 6112,
      "Ġsand": 6113,
      "Ġpowerful": 6114,
      "Ġyard": 6115,
      "Ġcorrespond": 6116,
      "related": 6117,
      "Ġurban": 6118,
      "Ġocean": 6119,
      "ibly": 6120,
      "ĠCD": 6121,
      "Ġincorpor": 6122,
      "Ġgan": 6123,
      "æĻĤ": 6124,
      "Ġofre": 6125,
      "Ãºs": 6126,
      "stitution": 6127,
      "æ¶Ī": 6128,
      "igure": 6129,
      "Ġfazla": 6130,
      "ĠfarklÄ±": 6131,
      "cut": 6132,
      "Ġcontract": 6133,
      "Ġmotor": 6134,
      "å¤ª": 6135,
      "ĠdeÄŁiÅŁ": 6136,
      "ĠThus": 6137,
      "essen": 6138,
      "09": 6139,
      "Ġeating": 6140,
      "tered": 6141,
      "unde": 6142,
      "500": 6143,
      "igned": 6144,
      "Ġbelieved": 6145,
      "Ġnar": 6146,
      "iche": 6147,
      "eration": 6148,
      "je": 6149,
      "ĠLie": 6150,
      "isf": 6151,
      "Ġpicture": 6152,
      "ildi": 6153,
      "ä¼ģä¸ļ": 6154,
      "key": 6155,
      "ĠSex": 6156,
      "Ġillness": 6157,
      "Ġappar": 6158,
      "ĠHen": 6159,
      "Ġplans": 6160,
      "Ġtum": 6161,
      "Ġcourt": 6162,
      "'ve": 6163,
      "ĠMexico": 6164,
      "Ġblue": 6165,
      "ĠarasÄ±nda": 6166,
      "æĶ¯": 6167,
      "Ġ31": 6168,
      "Ġdre": 6169,
      "è¾¾": 6170,
      "eras": 6171,
      "spe": 6172,
      "Ġanderen": 6173,
      "ä¾Ĩ": 6174,
      "add": 6175,
      "nte": 6176,
      "ĠdiÄŁer": 6177,
      "Ġprofessional": 6178,
      "ĠquÃ©": 6179,
      "Ġprincipal": 6180,
      "lerinin": 6181,
      "abile": 6182,
      "Ġcreating": 6183,
      "Ġspect": 6184,
      "ĠCr": 6185,
      "liÄŁi": 6186,
      "ĠCivil": 6187,
      "æŁ¥": 6188,
      "example": 6189,
      "Ġencuent": 6190,
      "Ġta": 6191,
      "Ġestimated": 6192,
      "Ġnatur": 6193,
      "Ġhospital": 6194,
      "Ġkilled": 6195,
      "Ġzor": 6196,
      "Ġsuggests": 6197,
      "Ġgain": 6198,
      "'ll": 6199,
      "gang": 6200,
      "ĠChe": 6201,
      "Ġcommunication": 6202,
      "Ġnote": 6203,
      "ĠVirgin": 6204,
      "Ġnoted": 6205,
      "plant": 6206,
      "Ġatmos": 6207,
      "Ġdispos": 6208,
      "ĠTheir": 6209,
      "Ġenh": 6210,
      "ĠRobert": 6211,
      "Ġdefined": 6212,
      "49": 6213,
      "Ġeso": 6214,
      "Ġcapacity": 6215,
      "mann": 6216,
      "izaciÃ³n": 6217,
      "cipl": 6218,
      "Ġminor": 6219,
      "åĻ¨": 6220,
      "Ġreform": 6221,
      "Ġcontext": 6222,
      "Americ": 6223,
      "æ¬¾": 6224,
      "ĠgÃ¼ven": 6225,
      "ilidad": 6226,
      "è®¤": 6227,
      "eyi": 6228,
      "ÄŁitim": 6229,
      "Ġillustr": 6230,
      "force": 6231,
      "Ġdidn": 6232,
      "Ġmoving": 6233,
      "ĠISBN": 6234,
      "Ġphysic": 6235,
      "Ġgrup": 6236,
      "Ġ%": 6237,
      "Ġsouthern": 6238,
      "Ġbran": 6239,
      "Ġconver": 6240,
      "Ġhakk": 6241,
      "ĠBest": 6242,
      "Ġeventually": 6243,
      "Ġcompr": 6244,
      "Ġreleased": 6245,
      "otes": 6246,
      "Ġfully": 6247,
      "å¤ĩ": 6248,
      "SA": 6249,
      "sche": 6250,
      "ormal": 6251,
      "Qu": 6252,
      "ĠPeople": 6253,
      "bes": 6254,
      "ĠgÃ¶ster": 6255,
      "uras": 6256,
      "å½¢": 6257,
      "Ġama": 6258,
      "Ġtruth": 6259,
      "liÄŁ": 6260,
      "Ġideal": 6261,
      "Ġgem": 6262,
      "bilir": 6263,
      "ierno": 6264,
      "ĠiÃ§inde": 6265,
      "Ġbox": 6266,
      "Ġhighest": 6267,
      "Ġcast": 6268,
      "Ġgraph": 6269,
      "Ġtodas": 6270,
      "Ġtreated": 6271,
      "Ġsegu": 6272,
      "ĠDeutsch": 6273,
      "itan": 6274,
      "tico": 6275,
      "Ġreb": 6276,
      "Ġfigure": 6277,
      "Ġfields": 6278,
      "Ġsugar": 6279,
      "oloj": 6280,
      "Ġbreat": 6281,
      "Ġreference": 6282,
      "wort": 6283,
      "ez": 6284,
      "ĠEach": 6285,
      "ĠtravÃ©s": 6286,
      "ĠalÄ±n": 6287,
      "change": 6288,
      "adece": 6289,
      "Ġeinz": 6290,
      "kÃ¼": 6291,
      "åĢĭ": 6292,
      "Am": 6293,
      "uesto": 6294,
      "Ġmale": 6295,
      "Ġdro": 6296,
      "Ġheavy": 6297,
      "cles": 6298,
      "CC": 6299,
      "Ġfot": 6300,
      "Ġtrat": 6301,
      "06": 6302,
      "Ġpil": 6303,
      "nic": 6304,
      "unicip": 6305,
      "Ġtissue": 6306,
      "æľįåĬ¡": 6307,
      "Ġbirlikte": 6308,
      "Ġfunctions": 6309,
      "07": 6310,
      "Ġorganizations": 6311,
      "ĠdÄ±ÅŁ": 6312,
      "Ġtim": 6313,
      "Ġnorthern": 6314,
      "While": 6315,
      "Ġincreases": 6316,
      "ĠSpace": 6317,
      "gesch": 6318,
      "Ġetwas": 6319,
      "Ġdik": 6320,
      "ĠDevelopment": 6321,
      "Ġconservation": 6322,
      "lerine": 6323,
      "ĠDiv": 6324,
      "Ġprofessor": 6325,
      "Ġresource": 6326,
      "abilities": 6327,
      "Ä±rÄ±m": 6328,
      "ĠAdd": 6329,
      "Ġhaber": 6330,
      "iable": 6331,
      "Ġdecades": 6332,
      "Ġgeneration": 6333,
      "ÃŃst": 6334,
      "åºĹ": 6335,
      "Ġfeature": 6336,
      "col": 6337,
      "Ġcoal": 6338,
      "ns": 6339,
      "Ġfamiliar": 6340,
      "Ġiki": 6341,
      "æ²»": 6342,
      "è¯¥": 6343,
      "Ġexplic": 6344,
      "Ġpatterns": 6345,
      "Ġlived": 6346,
      "Ġobjet": 6347,
      "ĠArab": 6348,
      "aks": 6349,
      "essor": 6350,
      "ned": 6351,
      "Ġinstruct": 6352,
      "ker": 6353,
      "Ġtes": 6354,
      "astern": 6355,
      "Ġslight": 6356,
      "Ġfresh": 6357,
      "ĠdÃ¼ÅŁÃ¼n": 6358,
      "Ġstim": 6359,
      "Ġflood": 6360,
      "larÄ±nda": 6361,
      "ĠCommun": 6362,
      "04": 6363,
      "Ġdedic": 6364,
      "iox": 6365,
      "Ġmuj": 6366,
      ".|": 6367,
      "wood": 6368,
      "Ġmeeting": 6369,
      "Ġmedicine": 6370,
      "Ġrelease": 6371,
      "asc": 6372,
      "æł¡": 6373,
      "åĳĬ": 6374,
      "Ġpoco": 6375,
      "Ġindependent": 6376,
      "iana": 6377,
      "Ġannual": 6378,
      "Ġdetails": 6379,
      "ugg": 6380,
      "See": 6381,
      "hy": 6382,
      "Ġemphas": 6383,
      "Ġcum": 6384,
      "Ġpens": 6385,
      "Ġdiscussion": 6386,
      "ĠGew": 6387,
      "éĺŁ": 6388,
      "95": 6389,
      "iyas": 6390,
      "Ġseine": 6391,
      "vis": 6392,
      "that": 6393,
      "åĬŁ": 6394,
      "ä»ĸä»¬": 6395,
      "ague": 6396,
      "Ġrunning": 6397,
      "meye": 6398,
      "ensch": 6399,
      "Por": 6400,
      "Ġtipo": 6401,
      "Ġphen": 6402,
      "ichts": 6403,
      "ĠMedical": 6404,
      "Ġinstance": 6405,
      "Ġacadem": 6406,
      "Ġconducted": 6407,
      "è¶ħ": 6408,
      "Ġdistribution": 6409,
      "åĬŀ": 6410,
      "ÅŁtÄ±r": 6411,
      "Ġnit": 6412,
      "last": 6413,
      "Ġgenes": 6414,
      "Ġworth": 6415,
      "Ġkomm": 6416,
      "Ġincome": 6417,
      "Ġsignal": 6418,
      "ĠPost": 6419,
      "Ġoverall": 6420,
      "Ġimmediately": 6421,
      "Ġbenefic": 6422,
      "Ġupper": 6423,
      "crib": 6424,
      "Ġiniti": 6425,
      "Ġiron": 6426,
      "Ã³g": 6427,
      "Ne": 6428,
      "æĹ¶éĹ´": 6429,
      "Ġintroduced": 6430,
      "Ġgesch": 6431,
      "Ġbattle": 6432,
      "etters": 6433,
      "Ġblog": 6434,
      "ĠCourt": 6435,
      "Ġtransform": 6436,
      "å½©": 6437,
      "ĠPers": 6438,
      "ĠulaÅŁ": 6439,
      "Ġ>": 6440,
      "LE": 6441,
      "Ġturned": 6442,
      "ĠpÃºblic": 6443,
      "Ġoperations": 6444,
      "Ã³lo": 6445,
      "Ġalgo": 6446,
      "å¹¿": 6447,
      "osen": 6448,
      "ĠAN": 6449,
      "Ġletter": 6450,
      "Ġkosten": 6451,
      "ollen": 6452,
      "icial": 6453,
      "stein": 6454,
      "After": 6455,
      "IA": 6456,
      "Ġ1998": 6457,
      "å±Ģ": 6458,
      "Ġliqu": 6459,
      "Ġqued": 6460,
      "Ġcontrast": 6461,
      "Ġfriend": 6462,
      "ĠDa": 6463,
      "Ġmetal": 6464,
      "ĠOur": 6465,
      "ĠLear": 6466,
      "Ġyapt": 6467,
      "é¢Ĩ": 6468,
      "Ġgold": 6469,
      "pf": 6470,
      "Ġproperties": 6471,
      "Ġ500": 6472,
      "Ġmathemat": 6473,
      "Ġfruit": 6474,
      "ĠgÃ¼z": 6475,
      "Ġrela": 6476,
      "Ġark": 6477,
      "ĠChildren": 6478,
      "Ġcreation": 6479,
      "Ġzwei": 6480,
      "Ġcry": 6481,
      "iyorum": 6482,
      "Ġintel": 6483,
      "Ġclinical": 6484,
      "Ġvo": 6485,
      "Ġpartners": 6486,
      "ĠsÃŃ": 6487,
      "issen": 6488,
      "Ġoblig": 6489,
      "Ġpul": 6490,
      "unter": 6491,
      "èı": 6492,
      "Ġperm": 6493,
      "cop": 6494,
      "Ġpark": 6495,
      "çİĭ": 6496,
      "Ġstories": 6497,
      "Ġdamit": 6498,
      "Ġactions": 6499,
      "Ġalcohol": 6500,
      "Ġoffers": 6501,
      "Ġenem": 6502,
      "Ġett": 6503,
      "Ġhatte": 6504,
      "Ġlic": 6505,
      "pat": 6506,
      "ype": 6507,
      "iders": 6508,
      "ilik": 6509,
      "Ġesto": 6510,
      "ĠOld": 6511,
      "Ġproyect": 6512,
      "ĠLabor": 6513,
      "efon": 6514,
      "é¥": 6515,
      "Äģ": 6516,
      "ygen": 6517,
      "ä¹¦": 6518,
      "Ġgiving": 6519,
      "çĶ·": 6520,
      "03": 6521,
      "ĠEnergy": 6522,
      "Ġpersons": 6523,
      "Ġserve": 6524,
      "Ġserved": 6525,
      "Ġcampaign": 6526,
      "Ġstyle": 6527,
      "Ġgarden": 6528,
      "Ġviele": 6529,
      "Ġstructures": 6530,
      "Ġdent": 6531,
      "alan": 6532,
      "Ġantes": 6533,
      "Ġgeht": 6534,
      "Ġpiece": 6535,
      "uchen": 6536,
      "äº¬": 6537,
      "ĠIslam": 6538,
      "ehir": 6539,
      "è£ħ": 6540,
      "Ġneue": 6541,
      "Ġfamous": 6542,
      "Ġtienen": 6543,
      "åįİ": 6544,
      "Ġcm": 6545,
      "Ġmachine": 6546,
      "è§Ĥ": 6547,
      "isk": 6548,
      "Ġatmosphere": 6549,
      "DF": 6550,
      "ĠDist": 6551,
      "ĠAng": 6552,
      "Ġstorm": 6553,
      "cios": 6554,
      "hol": 6555,
      "ilerin": 6556,
      "Ġarticles": 6557,
      "Ġreligion": 6558,
      "ĠArmy": 6559,
      "ĠhazÄ±r": 6560,
      "Ġbor": 6561,
      "Ã¼ÄŁ": 6562,
      "Ġship": 6563,
      "Ġmachen": 6564,
      "ç±»": 6565,
      "Ġbuen": 6566,
      "Ġprem": 6567,
      "è¯ģ": 6568,
      "Ġpoder": 6569,
      "85": 6570,
      "æľª": 6571,
      "æļ": 6572,
      "teil": 6573,
      "Ġkom": 6574,
      "ĠhiÃ§": 6575,
      "CH": 6576,
      "Ġolacak": 6577,
      "ĠCentral": 6578,
      "Ġswe": 6579,
      "Ġdegrees": 6580,
      "Ġforward": 6581,
      "ĠMedicine": 6582,
      "02": 6583,
      "ĠHot": 6584,
      "Ġgeb": 6585,
      "Ġmic": 6586,
      "Ġgrant": 6587,
      "Ġcollabor": 6588,
      "Ġdatab": 6589,
      "Ġsag": 6590,
      "rank": 6591,
      "inf": 6592,
      "yla": 6593,
      "which": 6594,
      "ĠCarol": 6595,
      "Ġwaters": 6596,
      "Ġva": 6597,
      "olved": 6598,
      "46": 6599,
      "é¦ĸ": 6600,
      "è§ģ": 6601,
      "def": 6602,
      "è½¬": 6603,
      "ĠUse": 6604,
      "Ġsigns": 6605,
      "èĬĤ": 6606,
      "IP": 6607,
      "aÃ±": 6608,
      "Ġfundamental": 6609,
      "Is": 6610,
      "Ġround": 6611,
      "76": 6612,
      "ĠSpanish": 6613,
      "ĠPhys": 6614,
      "Ġwrong": 6615,
      "lardan": 6616,
      "Ã¼ber": 6617,
      "mel": 6618,
      "çīĮ": 6619,
      "ĠAD": 6620,
      "Ġvess": 6621,
      "orage": 6622,
      "Ġimplic": 6623,
      "Ġplanning": 6624,
      "Ġclearly": 6625,
      "Ġestar": 6626,
      "ĠMos": 6627,
      "cken": 6628,
      "è¿Ľè¡Į": 6629,
      "Ġaplic": 6630,
      "Ġwatch": 6631,
      "ĠWild": 6632,
      "Ġdisorder": 6633,
      "Ġinfluen": 6634,
      "Ġeast": 6635,
      "ĠAsia": 6636,
      "opp": 6637,
      "ĠIhnen": 6638,
      "ĠIN": 6639,
      "ĠCommission": 6640,
      "schaft": 6641,
      "Ġeveryone": 6642,
      "åı·": 6643,
      "Ġvert": 6644,
      "éĢŁ": 6645,
      "Ġtemperatures": 6646,
      "Ã¶rt": 6647,
      "ĠHel": 6648,
      "Ġesper": 6649,
      "æ¡Ī": 6650,
      "Ġlearned": 6651,
      "Ġvision": 6652,
      "roid": 6653,
      "Ġelev": 6654,
      "Ġnav": 6655,
      "Ġbuildings": 6656,
      "Ġlinks": 6657,
      "izar": 6658,
      "Ġ45": 6659,
      "ĠOffice": 6660,
      "Ġinclus": 6661,
      "Ġweit": 6662,
      "owers": 6663,
      "åĳ¨": 6664,
      "ĠaynÄ±": 6665,
      "Ġcovered": 6666,
      "é©¬": 6667,
      "Ġattract": 6668,
      "rated": 6669,
      "Ġchance": 6670,
      "ancia": 6671,
      "iled": 6672,
      "Ġauthors": 6673,
      "ĠSmith": 6674,
      "æ¹": 6675,
      "Ġboard": 6676,
      "cycl": 6677,
      "Ġproposed": 6678,
      "Ġchoice": 6679,
      "ĠkÃ¼": 6680,
      "ä¼ĺ": 6681,
      "ispiel": 6682,
      "ĠsÄ±r": 6683,
      "Ġkurul": 6684,
      "èĲ¥": 6685,
      "igo": 6686,
      "å®ĥ": 6687,
      "ĠLibrary": 6688,
      "Ġunits": 6689,
      "ĠAB": 6690,
      "åľĭ": 6691,
      "ails": 6692,
      "åĤ": 6693,
      "Ġmouth": 6694,
      "ctic": 6695,
      "åĩĨ": 6696,
      "Ġdistinct": 6697,
      "indeki": 6698,
      "nel": 6699,
      "ĠMag": 6700,
      "Ġze": 6701,
      "ereich": 6702,
      "ĠCatholic": 6703,
      "Ġtres": 6704,
      "Ġbehavi": 6705,
      "Ġfrequently": 6706,
      "ĠsÄ±": 6707,
      "æĿĥ": 6708,
      "Ġstation": 6709,
      "gar": 6710,
      "Ġchoose": 6711,
      "Ġtechnologies": 6712,
      "Ġpages": 6713,
      "Ġisn": 6714,
      "Ġotras": 6715,
      "kat": 6716,
      "rica": 6717,
      "Ġinitial": 6718,
      "Ġconclus": 6719,
      "Ġmilk": 6720,
      "Ġrare": 6721,
      "Ġperspect": 6722,
      "itted": 6723,
      "å§ĭ": 6724,
      "ä»Ģä¹Ī": 6725,
      "Ġresist": 6726,
      "ä¾¿": 6727,
      "ĠPacific": 6728,
      "Ġefficient": 6729,
      "åĩł": 6730,
      "Ġwidely": 6731,
      "well": 6732,
      "ensus": 6733,
      "Ġsolid": 6734,
      "chos": 6735,
      "Ġremained": 6736,
      "Ġreached": 6737,
      "ĠJahren": 6738,
      "ĠdespuÃ©s": 6739,
      "Ġliterature": 6740,
      "çīĪ": 6741,
      "Ġnuevo": 6742,
      "ĠSov": 6743,
      "Ġelectricity": 6744,
      "ĠOver": 6745,
      "arda": 6746,
      "Ġdepos": 6747,
      "Ġsteps": 6748,
      "Ġnotes": 6749,
      "åĥı": 6750,
      "Ġbottom": 6751,
      "Ġinvent": 6752,
      "Ġremoved": 6753,
      "ĠConf": 6754,
      "Ġcompreh": 6755,
      "çª": 6756,
      "Ġtras": 6757,
      "Ġinstrument": 6758,
      "ĠFederal": 6759,
      "éĹ®é¢ĺ": 6760,
      "imize": 6761,
      "Ġarmy": 6762,
      "emiz": 6763,
      "ĠÃ¼lk": 6764,
      "47": 6765,
      "Ġolmak": 6766,
      "ĠdÃŃas": 6767,
      "Ġrout": 6768,
      "Ġconsumption": 6769,
      "å§Ķ": 6770,
      "ira": 6771,
      "Ġextremely": 6772,
      "ĠMat": 6773,
      "halb": 6774,
      "Ġcamb": 6775,
      "Ġbone": 6776,
      "Ġresistance": 6777,
      "Ġarchitect": 6778,
      "éĻĲ": 6779,
      "Ġalternative": 6780,
      "ellikle": 6781,
      "çľģ": 6782,
      "Ġselect": 6783,
      "angi": 6784,
      "Ġvary": 6785,
      "Ġcomponents": 6786,
      "Ġdetermined": 6787,
      "ativa": 6788,
      "Ä±p": 6789,
      "ndrome": 6790,
      "Ġclar": 6791,
      "èĤ¡": 6792,
      "Ġrequirements": 6793,
      "ischer": 6794,
      "Ġhecho": 6795,
      "aped": 6796,
      "Ġisland": 6797,
      "ĠStat": 6798,
      "åĦ¿": 6799,
      "Ġrace": 6800,
      "Ġtask": 6801,
      "Ġrang": 6802,
      "Ġperformed": 6803,
      "alÄ±k": 6804,
      "åĢĻ": 6805,
      "Me": 6806,
      "ĠGroup": 6807,
      "ĠWhite": 6808,
      "uma": 6809,
      "vey": 6810,
      "ounced": 6811,
      "agon": 6812,
      "Ġenv": 6813,
      "Ġnumerous": 6814,
      "bild": 6815,
      "Ġhousehold": 6816,
      "è¶Ĭ": 6817,
      "azu": 6818,
      "çħ§": 6819,
      "Ġgelen": 6820,
      "ĠFrancis": 6821,
      "Ġfreedom": 6822,
      "innen": 6823,
      "ĠâĢ¦": 6824,
      "Ġplease": 6825,
      "cast": 6826,
      "ship": 6827,
      "ĠEnd": 6828,
      "Ġband": 6829,
      "ĠLouis": 6830,
      "ĠAlex": 6831,
      "ĠAcadem": 6832,
      "Ġchief": 6833,
      "IG": 6834,
      "okt": 6835,
      "ĠSou": 6836,
      "aben": 6837,
      "Ġtun": 6838,
      "entlich": 6839,
      "ĠWork": 6840,
      "ela": 6841,
      "Ġauthority": 6842,
      "pped": 6843,
      "uesta": 6844,
      "osystem": 6845,
      "ĠProte": 6846,
      "åĲĥ": 6847,
      "Ġgather": 6848,
      "Ġkont": 6849,
      "Ġnom": 6850,
      "ĠGeb": 6851,
      "ĠFood": 6852,
      "cers": 6853,
      "ĠKl": 6854,
      "Ġkam": 6855,
      "åĮ»": 6856,
      "itos": 6857,
      "Ġwear": 6858,
      "Ġmo": 6859,
      "zeug": 6860,
      "Ġbodies": 6861,
      "Dr": 6862,
      "åĽ¢": 6863,
      "ece": 6864,
      "çĻ¾": 6865,
      "ĠTeil": 6866,
      "Ġcombination": 6867,
      "Ġ1997": 6868,
      "Ġwonder": 6869,
      "Ġpick": 6870,
      "Ġhair": 6871,
      "umin": 6872,
      "Ġimmune": 6873,
      "Ġoccurred": 6874,
      "86": 6875,
      "Ġ<": 6876,
      "éĻħ": 6877,
      "ĠElect": 6878,
      "Ġllam": 6879,
      "Ġwet": 6880,
      "Ġglass": 6881,
      "Ġdesarroll": 6882,
      "rick": 6883,
      "âĢĺ": 6884,
      "è®º": 6885,
      "othes": 6886,
      "å¦Ĥæŀľ": 6887,
      "ching": 6888,
      "Ġsample": 6889,
      "ĠdÃ¶nem": 6890,
      "Ġregional": 6891,
      "ĠBund": 6892,
      "ierten": 6893,
      "ĠÃĸz": 6894,
      "å¼ķ": 6895,
      "Ġguide": 6896,
      "ML": 6897,
      "Ġbear": 6898,
      "TS": 6899,
      "Ġinternet": 6900,
      "iyon": 6901,
      "Ġconclud": 6902,
      "igration": 6903,
      "Ġmessage": 6904,
      "Ġsignificantly": 6905,
      "poses": 6906,
      "Ġ300": 6907,
      "ĠCharles": 6908,
      "Ġsquare": 6909,
      "Ġcrisis": 6910,
      "maz": 6911,
      "olle": 6912,
      "åıį": 6913,
      "ĠUhr": 6914,
      "grad": 6915,
      "Ġschn": 6916,
      "zu": 6917,
      "77": 6918,
      "Ġdram": 6919,
      "Ġitems": 6920,
      "Ġsave": 6921,
      "ĠHal": 6922,
      "Ã¼nÃ¼": 6923,
      "Ġeden": 6924,
      "Ġsalt": 6925,
      "ĠDise": 6926,
      "igung": 6927,
      "Ġotra": 6928,
      "Ġofficials": 6929,
      "ĠWil": 6930,
      "Ġkes": 6931,
      "ughter": 6932,
      "èµĽ": 6933,
      "eta": 6934,
      "pler": 6935,
      "uros": 6936,
      "cre": 6937,
      "Ġapply": 6938,
      "Ġspeech": 6939,
      "azar": 6940,
      "ĠeÅŁ": 6941,
      "Ġisol": 6942,
      "Ġfoss": 6943,
      "anÄ±z": 6944,
      "ä½ı": 6945,
      "89": 6946,
      "MS": 6947,
      "Ġcircum": 6948,
      "Ġsed": 6949,
      "field": 6950,
      "han": 6951,
      ":||": 6952,
      "aching": 6953,
      "è¿Ļä¸ª": 6954,
      "ville": 6955,
      "ĠMem": 6956,
      "lease": 6957,
      "ĠDef": 6958,
      "RO": 6959,
      "Ġfailure": 6960,
      "Ġfinding": 6961,
      "They": 6962,
      "ĠhabÃŃa": 6963,
      "enin": 6964,
      "å¸Ĥåľº": 6965,
      "Ġbalance": 6966,
      "Ġbuy": 6967,
      "obierno": 6968,
      "ĠGar": 6969,
      "Ġjetzt": 6970,
      "ĠJer": 6971,
      "Ġexpert": 6972,
      "Ġkept": 6973,
      "Ġresulting": 6974,
      "Ġoperation": 6975,
      "ĠSin": 6976,
      "Ġpros": 6977,
      "Ġreferred": 6978,
      "ilmesi": 6979,
      "illo": 6980,
      "Ġaim": 6981,
      "atÃ¼r": 6982,
      "ss": 6983,
      "Ġdra": 6984,
      "ahn": 6985,
      "Ġpolicies": 6986,
      "ĠMot": 6987,
      "Ġstatement": 6988,
      "åįļ": 6989,
      "Ġvolume": 6990,
      "è¶³": 6991,
      "çİĩ": 6992,
      "Ġprec": 6993,
      "Ġwall": 6994,
      "ĠVirginia": 6995,
      "Ġconflict": 6996,
      "Ġupd": 6997,
      "æ¨¡": 6998,
      "ĠSuch": 6999,
      "ĠUK": 7000,
      "ĠIts": 7001,
      "ĠPC": 7002,
      "Ġvan": 7003,
      "Ġampl": 7004,
      "Ġcounter": 7005,
      "oting": 7006,
      "ributed": 7007,
      "Ġtelev": 7008,
      "Ġcandid": 7009,
      "äºĶ": 7010,
      "Ġcart": 7011,
      "èĳĹ": 7012,
      "Ġsurgery": 7013,
      "ĠsÃ³lo": 7014,
      "ulum": 7015,
      "ĠWelt": 7016,
      "Ġsort": 7017,
      "ĠFoundation": 7018,
      "Ġunsere": 7019,
      "ä½¿çĶ¨": 7020,
      "ç¡®": 7021,
      "Ġprimera": 7022,
      "mir": 7023,
      "åħļ": 7024,
      "Ġregist": 7025,
      "Ġdrop": 7026,
      "åĬ©": 7027,
      "Ġprinciples": 7028,
      "stanbul": 7029,
      "Ġargument": 7030,
      "Ġspent": 7031,
      "ĠBre": 7032,
      "é¾": 7033,
      "igur": 7034,
      "atically": 7035,
      "Ġestas": 7036,
      "icy": 7037,
      "Ġnivel": 7038,
      "From": 7039,
      "Ġhorm": 7040,
      "Ġvac": 7041,
      "Ġbereits": 7042,
      "nder": 7043,
      "Ġvul": 7044,
      "Ġinstall": 7045,
      "Ġdabei": 7046,
      "ĠCamp": 7047,
      "Gen": 7048,
      "Ġiht": 7049,
      "Ġstars": 7050,
      "Ġhuge": 7051,
      "roph": 7052,
      "ĠiliÅŁ": 7053,
      "Ġclick": 7054,
      "Ġsupported": 7055,
      "range": 7056,
      "Ġwanted": 7057,
      "uft": 7058,
      "ĠDet": 7059,
      "Ġellos": 7060,
      "Ġdebe": 7061,
      "Ġsond": 7062,
      "inas": 7063,
      "ĠyÄ±lÄ±": 7064,
      "Ġmort": 7065,
      "Ġwurden": 7066,
      "geben": 7067,
      "Ġsatisf": 7068,
      "cip": 7069,
      "éĺ²": 7070,
      "Ġthick": 7071,
      "ĠAdminist": 7072,
      "ĠColumb": 7073,
      "çľ¼": 7074,
      "Ġinclu": 7075,
      "Ġhes": 7076,
      "Ġbelong": 7077,
      "Ġorganic": 7078,
      "ĠProblem": 7079,
      "åħĭ": 7080,
      "åĨ³": 7081,
      "iyoruz": 7082,
      "Ġpreviously": 7083,
      "Er": 7084,
      "ĠBeh": 7085,
      "æĺŁ": 7086,
      "larla": 7087,
      "ĠBew": 7088,
      "wert": 7089,
      "Ġcomment": 7090,
      "Ġdrive": 7091,
      "Ġmoral": 7092,
      "Ġefect": 7093,
      "ĠAtlant": 7094,
      "orning": 7095,
      "è©": 7096,
      "Ġcycle": 7097,
      "iÅŁim": 7098,
      "utt": 7099,
      "sun": 7100,
      "jos": 7101,
      "ĠLeg": 7102,
      "Ġfab": 7103,
      "ĠPub": 7104,
      "Ġgrass": 7105,
      "ception": 7106,
      "Ġcharacteristics": 7107,
      "Ġviolence": 7108,
      "ĠSpr": 7109,
      "Ġopportunities": 7110,
      "éħį": 7111,
      "Ġsend": 7112,
      "çļĦäºº": 7113,
      "ĠSk": 7114,
      "Ġoxygen": 7115,
      "Ġrelative": 7116,
      "ç¢": 7117,
      "uly": 7118,
      "Ġcollege": 7119,
      "Ġintellig": 7120,
      "ĠUSA": 7121,
      "Ġhelped": 7122,
      "ĠMah": 7123,
      "å£«": 7124,
      "Ġwestern": 7125,
      "Le": 7126,
      "é£Ł": 7127,
      "Ã¼rÃ¼": 7128,
      "Ġexcess": 7129,
      "ĠBritain": 7130,
      "Ġinner": 7131,
      "ĠLatin": 7132,
      "Ġante": 7133,
      "Ġkazan": 7134,
      "ĠItal": 7135,
      "Ġhour": 7136,
      "oven": 7137,
      "ĠPan": 7138,
      "Wir": 7139,
      "ç®¡çĲĨ": 7140,
      "rack": 7141,
      "è¯·": 7142,
      "Ġappoint": 7143,
      "nam": 7144,
      "Ġreturned": 7145,
      "Ã©d": 7146,
      "Ġpon": 7147,
      "Ġbecoming": 7148,
      "Ġfarmers": 7149,
      "inizi": 7150,
      "ingen": 7151,
      "ĠBon": 7152,
      "ĠDev": 7153,
      "Ġunf": 7154,
      "Ġfal": 7155,
      "ĠPeter": 7156,
      "ä¸įæĺ¯": 7157,
      "cest": 7158,
      "Ġhop": 7159,
      "Ġforced": 7160,
      "ä¸Ķ": 7161,
      "ĠLeb": 7162,
      "Ġintended": 7163,
      "bed": 7164,
      "Ġoutput": 7165,
      "Ġesa": 7166,
      "Ġaspects": 7167,
      "Ġdens": 7168,
      "Ġcert": 7169,
      "Ã¶t": 7170,
      "Ġahora": 7171,
      "jun": 7172,
      "ayer": 7173,
      "Ġdiye": 7174,
      "Ã¡nd": 7175,
      "richt": 7176,
      "è®®": 7177,
      "ffen": 7178,
      "ĠGrund": 7179,
      "Ġgleich": 7180,
      "eties": 7181,
      "ishes": 7182,
      "çİ¯": 7183,
      "Ġclasses": 7184,
      "Ġreality": 7185,
      "Ġdecided": 7186,
      "ault": 7187,
      "Ġinternal": 7188,
      "ĠÃ¼z": 7189,
      "ĠDesign": 7190,
      "Ġsaat": 7191,
      "empor": 7192,
      "ĠTV": 7193,
      "Ġdisorders": 7194,
      "Ġdescribe": 7195,
      "andom": 7196,
      "Ġ1980": 7197,
      "Ġfacil": 7198,
      "åŃĺ": 7199,
      "Ġstrategies": 7200,
      "Ġzwischen": 7201,
      "Ġnations": 7202,
      "Ġfif": 7203,
      "Ġdecir": 7204,
      "Ġcompleted": 7205,
      "Ġkid": 7206,
      "Ġho": 7207,
      "iveness": 7208,
      "board": 7209,
      "ded": 7210,
      "point": 7211,
      "ĠGra": 7212,
      "Ġinstitutions": 7213,
      "Ġassessment": 7214,
      "zeich": 7215,
      "å¼ł": 7216,
      "ING": 7217,
      "Ġheard": 7218,
      "Ġexistence": 7219,
      "Ġprepared": 7220,
      "ĠSum": 7221,
      "obe": 7222,
      "ĠnasÄ±l": 7223,
      "Ġ1996": 7224,
      "Ġsino": 7225,
      "ĠyapÄ±lan": 7226,
      "Ġcompl": 7227,
      "Ġbile": 7228,
      "leÅŁtir": 7229,
      "That": 7230,
      "Ġreplace": 7231,
      "EP": 7232,
      "Ġlassen": 7233,
      "Ġlect": 7234,
      "iller": 7235,
      "Ġhayat": 7236,
      "Ã¡l": 7237,
      "Ġhav": 7238,
      "Ġkan": 7239,
      "Ġcharg": 7240,
      "ishing": 7241,
      "ichte": 7242,
      "bra": 7243,
      "ĠÃľber": 7244,
      "Ġmostly": 7245,
      "çĹħ": 7246,
      "itors": 7247,
      "ĠMichael": 7248,
      "des": 7249,
      "Ġpeque": 7250,
      "overty": 7251,
      "adian": 7252,
      "çĬ": 7253,
      "Ġclassroom": 7254,
      "Ġimportante": 7255,
      "Ġmulti": 7256,
      "iti": 7257,
      "Ġdecisions": 7258,
      "Ġstore": 7259,
      "ĠBerlin": 7260,
      "ĠSchw": 7261,
      "Ġthr": 7262,
      "ĠHistor": 7263,
      "ĠLife": 7264,
      "Ġseit": 7265,
      "ĠUnt": 7266,
      "Ġbrief": 7267,
      "Ġclim": 7268,
      "Ġexposed": 7269,
      "unte": 7270,
      "Ġchronic": 7271,
      "ientras": 7272,
      "iant": 7273,
      "CO": 7274,
      "Ġwealth": 7275,
      "Ġadvanced": 7276,
      "Ã¶glichkeit": 7277,
      "yen": 7278,
      "anos": 7279,
      "LA": 7280,
      "Ġsondern": 7281,
      "Ġmanner": 7282,
      "Ġflex": 7283,
      "Ġlargely": 7284,
      "ä½İ": 7285,
      "ĠMicro": 7286,
      "Ġanyone": 7287,
      "Ġrein": 7288,
      "Ġdatos": 7289,
      "æİĴ": 7290,
      "izes": 7291,
      "æĸ½": 7292,
      "Ġgod": 7293,
      "usal": 7294,
      "å¿ħ": 7295,
      "ĠST": 7296,
      "ĠmÃ¼ssen": 7297,
      "ĠCompany": 7298,
      "Ġexpression": 7299,
      "Ġbackground": 7300,
      "Ġsufficient": 7301,
      "Ġchanging": 7302,
      "aza": 7303,
      "laub": 7304,
      "ĠLake": 7305,
      "wers": 7306,
      "Ġexclus": 7307,
      "Ġcharge": 7308,
      "Ġbud": 7309,
      "Ġextent": 7310,
      "Ġcontro": 7311,
      "Ġcooper": 7312,
      "æľĽ": 7313,
      "Ġprimarily": 7314,
      "Ġneuro": 7315,
      "ç»Ń": 7316,
      "ĠProv": 7317,
      "elled": 7318,
      "Ġprison": 7319,
      "RA": 7320,
      "arter": 7321,
      "icks": 7322,
      "éŁ³": 7323,
      "Ġregul": 7324,
      "asÄ±na": 7325,
      "Ġseed": 7326,
      "Ġfirm": 7327,
      "Ġpurposes": 7328,
      "ĠQue": 7329,
      "Ġlanguages": 7330,
      "Ġlayer": 7331,
      "ĠPsych": 7332,
      "Ġperf": 7333,
      "ienst": 7334,
      "åįĩ": 7335,
      "ĠAgr": 7336,
      "Ġmanif": 7337,
      "Ã¼tÃ¼n": 7338,
      "æŀĹ": 7339,
      "Ġciudad": 7340,
      "ani": 7341,
      "oyal": 7342,
      "utr": 7343,
      "ĠsÄ±k": 7344,
      "iciones": 7345,
      "ĠCop": 7346,
      "Ġran": 7347,
      "Ġrecommended": 7348,
      "ologÃŃa": 7349,
      "Ġprofession": 7350,
      "lerinde": 7351,
      "ĠEconom": 7352,
      "ĠTechnology": 7353,
      "Ġ1995": 7354,
      "æĢĿ": 7355,
      "ĠSil": 7356,
      "Ġachieve": 7357,
      "Ġobvious": 7358,
      "iste": 7359,
      "ĠFar": 7360,
      "Ġju": 7361,
      "ĠFort": 7362,
      "ä¹ł": 7363,
      "ĠJack": 7364,
      "ĠExper": 7365,
      "Or": 7366,
      "ĠFlorida": 7367,
      "gew": 7368,
      "Ġcore": 7369,
      "Ġejempl": 7370,
      "iful": 7371,
      "Ġfle": 7372,
      "Ġunders": 7373,
      "Ġsistema": 7374,
      "ENT": 7375,
      "Ġconnection": 7376,
      "organ": 7377,
      "Ġconnect": 7378,
      "ba": 7379,
      "mi": 7380,
      "Ġwife": 7381,
      "Ġvard": 7382,
      "Although": 7383,
      "Ġchallenge": 7384,
      "Ġexactly": 7385,
      "adaÅŁ": 7386,
      "Ġkendi": 7387,
      "åı¯èĥ½": 7388,
      "Ġadvantage": 7389,
      "ĠWas": 7390,
      "Ġdefic": 7391,
      "é¢ĳ": 7392,
      "æĿ¡": 7393,
      "Ġstarting": 7394,
      "Ġhomes": 7395,
      "ares": 7396,
      "éĻ¤": 7397,
      "Ġele": 7398,
      "zie": 7399,
      "ĠLo": 7400,
      "oral": 7401,
      "ĠOut": 7402,
      "ĠEnvironmental": 7403,
      "pass": 7404,
      "nos": 7405,
      "Ġenerg": 7406,
      "road": 7407,
      "Ġaid": 7408,
      "Ġsyn": 7409,
      "Ġamounts": 7410,
      "è¾ĥ": 7411,
      "Ġapart": 7412,
      "Ġvaccine": 7413,
      "adel": 7414,
      "Ġfrag": 7415,
      "ograf": 7416,
      "çĥŃ": 7417,
      "ĠPet": 7418,
      "Ġinterested": 7419,
      "Ġgetir": 7420,
      "ĠRem": 7421,
      "Ġagricultural": 7422,
      "ĠBa": 7423,
      "ĠolmasÄ±": 7424,
      "Ġentr": 7425,
      "reci": 7426,
      "Ġhabitat": 7427,
      "é¤": 7428,
      "Ġengineering": 7429,
      "Ġrecorded": 7430,
      "Ġtechnical": 7431,
      "Ġsubstant": 7432,
      "Ġdenn": 7433,
      "SS": 7434,
      "Ġcausing": 7435,
      "ĠWhy": 7436,
      "Ġdistingu": 7437,
      "Ġsatell": 7438,
      "Ġsynt": 7439,
      "Ġsaying": 7440,
      "å¹²": 7441,
      "Ġgames": 7442,
      "ĠHay": 7443,
      "what": 7444,
      "éľĢè¦ģ": 7445,
      "ĠOl": 7446,
      "isinde": 7447,
      "Ġfinally": 7448,
      "ĠÃ¼st": 7449,
      "igu": 7450,
      "bel": 7451,
      "ĠDaten": 7452,
      "åĢ¼": 7453,
      "esser": 7454,
      "åį³": 7455,
      "immer": 7456,
      "lamm": 7457,
      "works": 7458,
      "Ġtechnique": 7459,
      "Ġsetting": 7460,
      "Ġanlam": 7461,
      "ules": 7462,
      "Ġlandsc": 7463,
      "Ġmotiv": 7464,
      "Ġgoals": 7465,
      "uate": 7466,
      "Ġbird": 7467,
      "acebook": 7468,
      "Ġinfections": 7469,
      "è§ī": 7470,
      "Ġintent": 7471,
      "ĠControl": 7472,
      "ç®Ĺ": 7473,
      "ĠSea": 7474,
      "ĠoluÅŁtur": 7475,
      "Ġbug": 7476,
      "ĠStadt": 7477,
      "Ġunos": 7478,
      "ecek": 7479,
      "ension": 7480,
      "å¾·": 7481,
      "amer": 7482,
      "Ġoffered": 7483,
      "åıĤ": 7484,
      "fang": 7485,
      "Ġprimer": 7486,
      "Ã¡ct": 7487,
      "zy": 7488,
      "Ġtour": 7489,
      "ĠHenry": 7490,
      "Ġcombined": 7491,
      "unkt": 7492,
      "Si": 7493,
      "æł¹": 7494,
      "Ġdomestic": 7495,
      "Ġrail": 7496,
      "Ġraised": 7497,
      "Ġfine": 7498,
      "ĠÄ°ÅŁ": 7499,
      "ĠÃ§ocuk": 7500,
      "Ġprices": 7501,
      "Ġstorage": 7502,
      "Ġbatter": 7503,
      "Ġbild": 7504,
      "ĠdÃ¼ny": 7505,
      "ĠmÃ¶glich": 7506,
      "åħį": 7507,
      "folg": 7508,
      "å·ŀ": 7509,
      "ĠKind": 7510,
      "Ġmaster": 7511,
      "ĠÃ¶zel": 7512,
      "fÃ¼r": 7513,
      "kes": 7514,
      "ĠKinder": 7515,
      "66": 7516,
      "Ġdan": 7517,
      "andon": 7518,
      "ĠAnn": 7519,
      "Ġgrat": 7520,
      "æĭī": 7521,
      "hi": 7522,
      "ĠOs": 7523,
      "Ġapro": 7524,
      "Ġphenomen": 7525,
      "ĠademÃ¡s": 7526,
      "ritt": 7527,
      "nung": 7528,
      "Ġlang": 7529,
      "èĲ½": 7530,
      "åĨĽ": 7531,
      "Ġbiological": 7532,
      "ompl": 7533,
      "è¯ķ": 7534,
      "Ġparent": 7535,
      "itage": 7536,
      "åŃ©": 7537,
      "Ġsadece": 7538,
      "Ġgust": 7539,
      "overs": 7540,
      "stead": 7541,
      "uridad": 7542,
      "Most": 7543,
      "Ġconcerns": 7544,
      "Ġfib": 7545,
      "ĠJun": 7546,
      "Ġappeared": 7547,
      "More": 7548,
      "enses": 7549,
      "Ġpra": 7550,
      "larÄ±mÄ±z": 7551,
      "å¢ĥ": 7552,
      "cyclop": 7553,
      "UL": 7554,
      ".-": 7555,
      "ipped": 7556,
      "riage": 7557,
      "Cont": 7558,
      "yi": 7559,
      "Ġtoxic": 7560,
      "Ġexperts": 7561,
      "umber": 7562,
      "aca": 7563,
      "Ġinput": 7564,
      "çĮ": 7565,
      "Ġchallenges": 7566,
      "Ġexecut": 7567,
      "fahren": 7568,
      "eti": 7569,
      "Ġfacilities": 7570,
      "Cl": 7571,
      "ideos": 7572,
      "ĠÃ¼ret": 7573,
      "vo": 7574,
      "eline": 7575,
      "cription": 7576,
      "rot": 7577,
      "Ġton": 7578,
      "Ġalles": 7579,
      "Ġindicate": 7580,
      "æĴŃ": 7581,
      "Ġzam": 7582,
      "Ġadministr": 7583,
      "Ġmeant": 7584,
      "eria": 7585,
      "Ġvitamin": 7586,
      "Ġregarding": 7587,
      "luk": 7588,
      "urance": 7589,
      "87": 7590,
      "Ġviv": 7591,
      "Ġinher": 7592,
      "Ġfiles": 7593,
      "Ġsnow": 7594,
      "hetic": 7595,
      "Ġparticles": 7596,
      "Ġoptions": 7597,
      "arte": 7598,
      "ructure": 7599,
      "ĠyÃ¼ksek": 7600,
      "Ġmur": 7601,
      "lieÃŁ": 7602,
      "http": 7603,
      "ĠWindows": 7604,
      "Ġersten": 7605,
      "ĠKore": 7606,
      "åŃĹ": 7607,
      "haus": 7608,
      "asa": 7609,
      "ears": 7610,
      "Ġdestek": 7611,
      "stra": 7612,
      "Ġ189": 7613,
      "Ġcorpor": 7614,
      "ĠEspa": 7615,
      "Ġwarming": 7616,
      "iatric": 7617,
      "mez": 7618,
      "Ġcontinues": 7619,
      "ĠIll": 7620,
      "ĠRights": 7621,
      "kel": 7622,
      "Ġencourag": 7623,
      "Ġweap": 7624,
      "Ġpollution": 7625,
      "ĠHall": 7626,
      "ĠyardÄ±m": 7627,
      "Ġyen": 7628,
      "Ġcenturies": 7629,
      "Ġremove": 7630,
      "ladÄ±": 7631,
      "Ġvast": 7632,
      "èĭ±": 7633,
      "ç©¶": 7634,
      "Ġpoly": 7635,
      "Many": 7636,
      "Ġformation": 7637,
      "Ġgreatest": 7638,
      "ĠTwo": 7639,
      "Ġkarar": 7640,
      "Ġscen": 7641,
      "Ġdefinition": 7642,
      "Ġyourself": 7643,
      "cen": 7644,
      "oes": 7645,
      "Ġmuchos": 7646,
      "æıĲä¾Ľ": 7647,
      "Ġconven": 7648,
      "Ġcant": 7649,
      "éļ¾": 7650,
      "amily": 7651,
      "ĠÃ¶r": 7652,
      "Ġchemicals": 7653,
      "Ġimproved": 7654,
      "Ġandere": 7655,
      "Ġready": 7656,
      "Ġmand": 7657,
      "Ġdoch": 7658,
      "Ġmentioned": 7659,
      "oking": 7660,
      "Ġven": 7661,
      "Ġsamples": 7662,
      "æ¼Ķ": 7663,
      "Ġspot": 7664,
      "inem": 7665,
      "ĠScient": 7666,
      "irt": 7667,
      "ĠseÃ±": 7668,
      "Ġverschied": 7669,
      "Ġaunque": 7670,
      "Ġrevolution": 7671,
      "Ġportion": 7672,
      "idelines": 7673,
      "usunda": 7674,
      "Ġsuggested": 7675,
      "Ġdetailed": 7676,
      "Ġsong": 7677,
      "42": 7678,
      "ĠÃ§ev": 7679,
      "pire": 7680,
      "right": 7681,
      "Ä±ca": 7682,
      "Ġpron": 7683,
      "Ġmuscle": 7684,
      "Ġoppos": 7685,
      "Ġdollar": 7686,
      "Ġplatform": 7687,
      "Ġparticipants": 7688,
      "CE": 7689,
      "Ġtekn": 7690,
      "Ġcolumn": 7691,
      "ĠgÃ¶rev": 7692,
      "Ġsigu": 7693,
      "iling": 7694,
      "æĪı": 7695,
      "Ġcasa": 7696,
      "Ġreaction": 7697,
      "wo": 7698,
      "orf": 7699,
      "ĠÃ©l": 7700,
      "Ã¼rlÃ¼": 7701,
      "Ġcoordin": 7702,
      "ĠKn": 7703,
      "ÃŃo": 7704,
      "Ġtoda": 7705,
      "ĠTag": 7706,
      "onia": 7707,
      "ĠAy": 7708,
      "Ġmeat": 7709,
      "ĠPf": 7710,
      "Ġleader": 7711,
      "Ġkim": 7712,
      "Ġhoy": 7713,
      "ĠBus": 7714,
      "ĠRead": 7715,
      "å©": 7716,
      "å¾®": 7717,
      "Ġdocuments": 7718,
      "Ġarrang": 7719,
      "Ġbon": 7720,
      "Ġcredit": 7721,
      "ĠHome": 7722,
      "acÄ±": 7723,
      "Ã¤re": 7724,
      "Ġreducing": 7725,
      "chae": 7726,
      "Ġig": 7727,
      "ĠFall": 7728,
      "daki": 7729,
      "lag": 7730,
      "Ġconnected": 7731,
      "anas": 7732,
      "Ġagencies": 7733,
      "ortunately": 7734,
      "Ġexplan": 7735,
      "å¡": 7736,
      "Ġnuestros": 7737,
      "Ġolduk": 7738,
      "Ġbegins": 7739,
      "Ġoldu": 7740,
      "American": 7741,
      "emin": 7742,
      "Ġrisks": 7743,
      "å°Ķ": 7744,
      "ĠSecond": 7745,
      "ĠManagement": 7746,
      "Ġtermin": 7747,
      "RI": 7748,
      "Ġayud": 7749,
      "uation": 7750,
      "Las": 7751,
      "ae": 7752,
      "Ġdangerous": 7753,
      "Ġdial": 7754,
      "Ġrecognized": 7755,
      "Ġbulunan": 7756,
      "Ã¤tz": 7757,
      "ĠReview": 7758,
      "Ġgets": 7759,
      "AK": 7760,
      "Ġfrequency": 7761,
      "icon": 7762,
      "ĠJoseph": 7763,
      "aling": 7764,
      "ufen": 7765,
      "Ġexperiences": 7766,
      "å·²ç»ı": 7767,
      "41": 7768,
      "Ġsubsequ": 7769,
      "Sp": 7770,
      "Ġsubs": 7771,
      "Ġotherwise": 7772,
      "Ġdepression": 7773,
      "Ġoperating": 7774,
      "43": 7775,
      "Ġtus": 7776,
      "Ġdiagnosis": 7777,
      "ropical": 7778,
      "Ġjoint": 7779,
      "Ġroot": 7780,
      "lÃ¼k": 7781,
      "éªĮ": 7782,
      "Ġimper": 7783,
      "Ġproport": 7784,
      "ĠQual": 7785,
      "Ġconvent": 7786,
      "Ġrural": 7787,
      "ĠOh": 7788,
      "uÃ§": 7789,
      "Ġobtain": 7790,
      "æŀĦ": 7791,
      "agues": 7792,
      "ĠserÃ¡": 7793,
      "Ġmotion": 7794,
      "IDS": 7795,
      "asser": 7796,
      "ĠFrank": 7797,
      "ĠClass": 7798,
      "Ġecosystem": 7799,
      "Ġprocedure": 7800,
      "Ġeggs": 7801,
      "nea": 7802,
      "é¦Ļ": 7803,
      "Ġcollected": 7804,
      "Ġnovel": 7805,
      "Ġvel": 7806,
      "Ġlinked": 7807,
      "äº§åĵģ": 7808,
      "Ġsubjects": 7809,
      "Ġquer": 7810,
      "Ġcontaining": 7811,
      "According": 7812,
      "ĠBaÅŁkanÄ±": 7813,
      "ĠCommittee": 7814,
      "].": 7815,
      "ä¼Ĺ": 7816,
      "zial": 7817,
      "ami": 7818,
      "pet": 7819,
      "Ġlibrary": 7820,
      "unci": 7821,
      "ĠhÄ±z": 7822,
      "?\"": 7823,
      "Ġing": 7824,
      "Ġletters": 7825,
      "Ġliquid": 7826,
      "Ġpurs": 7827,
      "Ġnerv": 7828,
      "Ġcub": 7829,
      "Ġ1970": 7830,
      "ĠPower": 7831,
      "Ġyouth": 7832,
      "Ġadjust": 7833,
      "Ġ36": 7834,
      "Ġstudied": 7835,
      "Ġlit": 7836,
      "ĠPap": 7837,
      "level": 7838,
      "wareness": 7839,
      "Ġpractical": 7840,
      "ibles": 7841,
      "Ġwaren": 7842,
      "79": 7843,
      "Ġrenew": 7844,
      "Ġalgunos": 7845,
      "ĠJahre": 7846,
      "Ġdynam": 7847,
      "Ġkinds": 7848,
      "åĽłä¸º": 7849,
      "Ġ185": 7850,
      "UT": 7851,
      "rest": 7852,
      "cript": 7853,
      "ĠTre": 7854,
      "Ġreduction": 7855,
      "Ġunserer": 7856,
      "Ġgun": 7857,
      "Ġphase": 7858,
      "Ġcomun": 7859,
      "çĨ": 7860,
      "Ġemergency": 7861,
      "etim": 7862,
      "ĠProt": 7863,
      "Ġstem": 7864,
      "Ã¤hrend": 7865,
      "Ġautor": 7866,
      "Ġcircu": 7867,
      "è½½": 7868,
      "Ġconce": 7869,
      "ĠgÃ¼Ã§": 7870,
      "Ġtitle": 7871,
      "Ġneighbor": 7872,
      "Ġdouble": 7873,
      "ĠSecret": 7874,
      "ĠKont": 7875,
      "ellent": 7876,
      "Ġtopic": 7877,
      "ĠCamb": 7878,
      "ĠAst": 7879,
      "ĠMiddle": 7880,
      "ription": 7881,
      "ĠConstitution": 7882,
      "Ġuygun": 7883,
      "Ġeben": 7884,
      "æĻ¯": 7885,
      "ĠPop": 7886,
      "ses": 7887,
      "ĠgÃ¶rÃ¼": 7888,
      "Ġrelevant": 7889,
      "ĠBudd": 7890,
      "Ġeasier": 7891,
      "Ġti": 7892,
      "ä¸ĸçķĮ": 7893,
      "ĠRom": 7894,
      "Ġunderg": 7895,
      "rado": 7896,
      "Ġpromote": 7897,
      "DE": 7898,
      "Ġmunicip": 7899,
      "ĠWomen": 7900,
      "ĠParis": 7901,
      "æĢģ": 7902,
      "å¤į": 7903,
      "Ã¶h": 7904,
      "Ġformal": 7905,
      "ocra": 7906,
      "Ein": 7907,
      "iced": 7908,
      "ĠSoviet": 7909,
      "Ġobst": 7910,
      "äºļ": 7911,
      "ĠRob": 7912,
      "Ich": 7913,
      "ĠReport": 7914,
      "embly": 7915,
      "aka": 7916,
      "âĢľ,": 7917,
      "Ġremark": 7918,
      "Ġjourn": 7919,
      "Ġ32": 7920,
      "Ä±ldÄ±": 7921,
      "cas": 7922,
      "Ġaware": 7923,
      "ĠmÃ¶ch": 7924,
      "bur": 7925,
      "Ġhundreds": 7926,
      "rik": 7927,
      "Ġdieses": 7928,
      "æµİ": 7929,
      "ĠWell": 7930,
      "izi": 7931,
      "Other": 7932,
      "Ġmeasured": 7933,
      "olars": 7934,
      "Ġdiscovery": 7935,
      "Ġrom": 7936,
      "vor": 7937,
      "gent": 7938,
      "Ġshowing": 7939,
      "emeins": 7940,
      "ç½®": 7941,
      "æ¿": 7942,
      "Ġstream": 7943,
      "çİ©": 7944,
      "Ġobtained": 7945,
      "Ġembargo": 7946,
      "ĠOx": 7947,
      "Ġlooks": 7948,
      "ĠIII": 7949,
      "Ġuniverse": 7950,
      "teen": 7951,
      "Ġpolice": 7952,
      "ridge": 7953,
      "active": 7954,
      "Ġpes": 7955,
      "iday": 7956,
      "Ġneuen": 7957,
      "aber": 7958,
      "è´£": 7959,
      "Ġtrig": 7960,
      "Ġvulner": 7961,
      "è¾¹": 7962,
      "licher": 7963,
      "æĬĢæľ¯": 7964,
      "Ġowners": 7965,
      "Ġsoldiers": 7966,
      "ĠPara": 7967,
      "èŀ": 7968,
      "Ġgall": 7969,
      "Ġvisible": 7970,
      "Ġconserv": 7971,
      "çº¦": 7972,
      "place": 7973,
      "iform": 7974,
      "Ġhit": 7975,
      "ĠMinister": 7976,
      "ĠzurÃ¼ck": 7977,
      "Ġmorning": 7978,
      "Ġindex": 7979,
      "icago": 7980,
      "rete": 7981,
      "iembre": 7982,
      "Ġcogn": 7983,
      "Ġpieces": 7984,
      "è·Ł": 7985,
      "Ġsuperior": 7986,
      "Ġextreme": 7987,
      "raciÃ³n": 7988,
      "Ġefficiency": 7989,
      "ĠRussian": 7990,
      "Ġcertainly": 7991,
      "æİ§": 7992,
      "Ġolur": 7993,
      "html": 7994,
      "ĠSaf": 7995,
      "ĠNature": 7996,
      "Ġstrugg": 7997,
      "ĠcÃ³mo": 7998,
      "Ġorient": 7999,
      "Ġfro": 8000,
      "orno": 8001,
      "long": 8002,
      "çģ«": 8003,
      "Ġmist": 8004,
      "Ġdivided": 8005,
      "Ġselected": 8006,
      "nak": 8007,
      "ĠFahr": 8008,
      "ç§°": 8009,
      "ä¿®": 8010,
      "ĠMD": 8011,
      "kte": 8012,
      "ĠWenn": 8013,
      "emek": 8014,
      "ĠRock": 8015,
      "å®ĺ": 8016,
      "ĠDeutschland": 8017,
      "Ġtroub": 8018,
      "Ġfit": 8019,
      "Ġesp": 8020,
      "ĠwÃ¼r": 8021,
      "aha": 8022,
      "Ġclaims": 8023,
      "Ġcomer": 8024,
      "ocratic": 8025,
      "Ġrapidly": 8026,
      ".;": 8027,
      "Ġplayed": 8028,
      "Ġyellow": 8029,
      "ĠPero": 8030,
      "Ġrough": 8031,
      "Ġdebate": 8032,
      "ĠStreet": 8033,
      "éĿĴ": 8034,
      "Ġlatter": 8035,
      "Ġdatabase": 8036,
      "Ġprove": 8037,
      "ĠRa": 8038,
      "mod": 8039,
      "ĠOnce": 8040,
      "Ġbright": 8041,
      "Ġequival": 8042,
      "ĠIns": 8043,
      "otros": 8044,
      "Ġmedio": 8045,
      "amt": 8046,
      "Now": 8047,
      "Ġdedi": 8048,
      "Ã¤ng": 8049,
      "ÃŃfic": 8050,
      "Ġlooked": 8051,
      "ĠBab": 8052,
      "Ġfelt": 8053,
      "born": 8054,
      "Ġzusammen": 8055,
      "Ġspl": 8056,
      "åĽ½å®¶": 8057,
      "Ġtroops": 8058,
      "ĠgÃ¼zel": 8059,
      "ĠBible": 8060,
      "Ġuso": 8061,
      "ç¿": 8062,
      "hin": 8063,
      "Ġinjury": 8064,
      "Ġtor": 8065,
      "oster": 8066,
      "zahl": 8067,
      "mad": 8068,
      "ĠPolit": 8069,
      "Ġelectrical": 8070,
      "Ġacademic": 8071,
      "ĠLin": 8072,
      "ĠCarolina": 8073,
      "xi": 8074,
      "onders": 8075,
      "ennen": 8076,
      "emia": 8077,
      "Ġted": 8078,
      "è¨Ģ": 8079,
      "Ġdut": 8080,
      "Ġdiferentes": 8081,
      "å¾Ģ": 8082,
      "ĠPass": 8083,
      "ĠMann": 8084,
      "æĬ¤": 8085,
      "Ġancest": 8086,
      "Ġinstruction": 8087,
      "under": 8088,
      "çļĦä¸Ģ": 8089,
      "Ġeigen": 8090,
      "ĠAllah": 8091,
      "Ġhus": 8092,
      "Ġwin": 8093,
      "Ġdepart": 8094,
      "ĠDisc": 8095,
      "down": 8096,
      "Ġviews": 8097,
      "Ġconcerned": 8098,
      "BC": 8099,
      "Ġbomb": 8100,
      "Ġslightly": 8101,
      "Ġchapter": 8102,
      "Ġgovernments": 8103,
      "Ġsorun": 8104,
      "ĠNatural": 8105,
      "Ġmamm": 8106,
      "Ġdiam": 8107,
      "Ġcrops": 8108,
      "Ġjur": 8109,
      "Ġpip": 8110,
      "ĠInst": 8111,
      "umen": 8112,
      "lendir": 8113,
      "ĠIP": 8114,
      "Ġdrinking": 8115,
      "æĤ¨": 8116,
      "lage": 8117,
      "Ġvital": 8118,
      "ĠdoÄŁru": 8119,
      "Ġconfirm": 8120,
      "Ġce": 8121,
      "Ġtall": 8122,
      "ĠRichard": 8123,
      "Ġtried": 8124,
      "äºĨä¸Ģ": 8125,
      "Ġfunding": 8126,
      "Ġprinciple": 8127,
      "eting": 8128,
      "Ind": 8129,
      "ĠyaÅŁam": 8130,
      "Ġfollows": 8131,
      "ionales": 8132,
      "åĨµ": 8133,
      "Ġresol": 8134,
      "ĠEngine": 8135,
      "este": 8136,
      "Ġseiner": 8137,
      "Ġflight": 8138,
      "Ġprocessing": 8139,
      "Ġ1994": 8140,
      "Ġmoon": 8141,
      "Ġchann": 8142,
      "ĠFacebook": 8143,
      "ĠBoth": 8144,
      "leme": 8145,
      "Ã§ok": 8146,
      "eless": 8147,
      "Ġkolay": 8148,
      "asÄ±nÄ±": 8149,
      "Ġinvolves": 8150,
      "Ġtested": 8151,
      "Ġadvance": 8152,
      "Ġerr": 8153,
      "ĠSing": 8154,
      "Ġpaint": 8155,
      "Ġsollte": 8156,
      "Ġequipo": 8157,
      "amew": 8158,
      "ĠHaus": 8159,
      "luss": 8160,
      "osyal": 8161,
      "å£°": 8162,
      "Ġnada": 8163,
      "Ġresponsibility": 8164,
      "edad": 8165,
      "Ġja": 8166,
      "DP": 8167,
      "falls": 8168,
      "ĠVis": 8169,
      "omy": 8170,
      "Ġclosely": 8171,
      "ulu": 8172,
      "Ġpoverty": 8173,
      "Ġkald": 8174,
      "uÃŁer": 8175,
      "Ġ75": 8176,
      "imately": 8177,
      "uto": 8178,
      "åĳ½": 8179,
      "Ġknew": 8180,
      "ĠFÃ¼r": 8181,
      "Ġtypical": 8182,
      "ĠDig": 8183,
      "Ġsurrounding": 8184,
      "Ġtherm": 8185,
      "ĠBal": 8186,
      "atÄ±": 8187,
      "Ġtaught": 8188,
      "**": 8189,
      "Ġexperienced": 8190,
      "Ġcontrolled": 8191,
      "Ġfiyat": 8192,
      "Ġbulund": 8193,
      "ĠCult": 8194,
      "ictionary": 8195,
      "ĠBil": 8196,
      "Ġharek": 8197,
      "body": 8198,
      "ĠFree": 8199,
      "ĠStudents": 8200,
      "ĠCast": 8201,
      "Ġerror": 8202,
      "Ġgef": 8203,
      "ris": 8204,
      "Ġespe": 8205,
      "ĠbÄ±": 8206,
      "Ġgast": 8207,
      "from": 8208,
      "Ġhur": 8209,
      "ĠTimes": 8210,
      "Ġhappens": 8211,
      "ĠProfessor": 8212,
      "Ġgrade": 8213,
      "Ġmainly": 8214,
      "gov": 8215,
      "icken": 8216,
      "Ġkill": 8217,
      "ĠSouthern": 8218,
      "erstÃ¼t": 8219,
      "mail": 8220,
      "ĠTreat": 8221,
      "Ġforests": 8222,
      "ĠJud": 8223,
      "æ®µ": 8224,
      "ierra": 8225,
      "soft": 8226,
      "ĠPM": 8227,
      "Ġabandon": 8228,
      "Ġgirls": 8229,
      "éĢļè¿ĩ": 8230,
      "lection": 8231,
      "ĠFamil": 8232,
      "ogar": 8233,
      "Ġenorm": 8234,
      "Tod": 8235,
      "pite": 8236,
      "çĶŁæ´»": 8237,
      "Ġsud": 8238,
      "cos": 8239,
      "Ġstock": 8240,
      "Ġperiods": 8241,
      "Ġinterview": 8242,
      "sible": 8243,
      "anguage": 8244,
      "bal": 8245,
      "erein": 8246,
      "onds": 8247,
      "Ġgarant": 8248,
      "Ġcomprom": 8249,
      "Ġjobs": 8250,
      "ĠGeorg": 8251,
      "Ġmm": 8252,
      "Ġmuse": 8253,
      "Ġprotected": 8254,
      "rations": 8255,
      "æīĢä»¥": 8256,
      "Ġmoder": 8257,
      "Ġstone": 8258,
      "ĠMaterial": 8259,
      "Ġrelationships": 8260,
      "Ġcosas": 8261,
      "æ©": 8262,
      "acters": 8263,
      "itudes": 8264,
      "hl": 8265,
      "Ġstrategy": 8266,
      "æĢİ": 8267,
      "Ġinteres": 8268,
      "Ġexplained": 8269,
      "Ġvalid": 8270,
      "ĠStudies": 8271,
      "Ġdeaths": 8272,
      "deki": 8273,
      "Ġinterior": 8274,
      "ĠStra": 8275,
      "Ġpag": 8276,
      "èĩ´": 8277,
      "Ġinches": 8278,
      "MA": 8279,
      "Ġstated": 8280,
      "Ġ150": 8281,
      "law": 8282,
      "åĬ¿": 8283,
      "Ġerk": 8284,
      "Ġusu": 8285,
      "å¤±": 8286,
      "æŀģ": 8287,
      "tex": 8288,
      "Ġmillions": 8289,
      "Ġsuc": 8290,
      "åĪĻ": 8291,
      "ç¬¬ä¸Ģ": 8292,
      "riculum": 8293,
      "Ġhacia": 8294,
      "ĠMen": 8295,
      "layan": 8296,
      "ĠPenn": 8297,
      "ĠkullanÄ±l": 8298,
      "åĸľ": 8299,
      "tood": 8300,
      "Ġdistrict": 8301,
      "ĠOcean": 8302,
      "Ġheute": 8303,
      "æĺ¾": 8304,
      "ĠAngel": 8305,
      "Ġmonitoring": 8306,
      "ĠMel": 8307,
      "Ġposible": 8308,
      "ĠarkadaÅŁ": 8309,
      "æĹ©": 8310,
      "Ġfabric": 8311,
      "Ġinterests": 8312,
      "Ġsalud": 8313,
      "Ġadopted": 8314,
      "lerden": 8315,
      "acion": 8316,
      "ĠToday": 8317,
      "ĠOF": 8318,
      "Ġbesch": 8319,
      "iera": 8320,
      "Ġfell": 8321,
      "ifying": 8322,
      "Ã¶ff": 8323,
      "fa": 8324,
      "Ġtheor": 8325,
      "cules": 8326,
      "Ġencontrar": 8327,
      "æĹħ": 8328,
      "æĿĳ": 8329,
      "ello": 8330,
      "rif": 8331,
      "iano": 8332,
      "ĠGlobal": 8333,
      "ket": 8334,
      "AA": 8335,
      "Ġexternal": 8336,
      "--------": 8337,
      "Ġoriginally": 8338,
      "Ġfacts": 8339,
      "èģĮ": 8340,
      "ĠfÃ¼hr": 8341,
      "Ġjug": 8342,
      "Ġmarine": 8343,
      "Ġlatest": 8344,
      "Ġthin": 8345,
      "mm": 8346,
      "esiÃ³n": 8347,
      "çĻ¼": 8348,
      "éŃ": 8349,
      "otos": 8350,
      "ĠSport": 8351,
      "emic": 8352,
      "Ġtex": 8353,
      "Ġange": 8354,
      "Ġconcepts": 8355,
      "Ġeffectively": 8356,
      "lines": 8357,
      "nun": 8358,
      "ĠLet": 8359,
      "æ²¹": 8360,
      "pol": 8361,
      "Pr": 8362,
      "ĠRome": 8363,
      "apes": 8364,
      "Ġiste": 8365,
      "Ġleads": 8366,
      "ragen": 8367,
      "Ä±zÄ±": 8368,
      "ĠHaw": 8369,
      "most": 8370,
      "Ġaccepted": 8371,
      "Ġ2017": 8372,
      "othing": 8373,
      "Ġphotograph": 8374,
      "ĠgeliÅŁ": 8375,
      "Ġattacks": 8376,
      "ĠÃ¼zere": 8377,
      "åĪĹ": 8378,
      "Ġpasado": 8379,
      "Ġ2020": 8380,
      "Ġresidents": 8381,
      "fte": 8382,
      "Ġcopy": 8383,
      "Ġcritic": 8384,
      "gos": 8385,
      "Ġadvoc": 8386,
      "Ġgrav": 8387,
      "allel": 8388,
      "Ġload": 8389,
      "SP": 8390,
      "Ġallowing": 8391,
      "ĠMitt": 8392,
      "çº¢": 8393,
      "ĠAuch": 8394,
      "Ġgeh": 8395,
      "uela": 8396,
      "ä¹°": 8397,
      "Ä°N": 8398,
      "å°į": 8399,
      "Ġaircraft": 8400,
      "ĠSym": 8401,
      "ĠEvery": 8402,
      "Ġdiscipl": 8403,
      "iante": 8404,
      "Ġhistoria": 8405,
      "è¿ŀ": 8406,
      "éģİ": 8407,
      "Ġnarrow": 8408,
      "ĠYet": 8409,
      "ees": 8410,
      "uses": 8411,
      "Ä±rs": 8412,
      "azine": 8413,
      "Ġempresa": 8414,
      "atever": 8415,
      "ĠKan": 8416,
      "Tr": 8417,
      "Ġsyndrome": 8418,
      "ĠÂ»": 8419,
      "ilmek": 8420,
      "Ġexplains": 8421,
      "jekt": 8422,
      "rupt": 8423,
      "Ġpaid": 8424,
      "Ġcasino": 8425,
      "Ġroll": 8426,
      "Ġestable": 8427,
      "liament": 8428,
      "xis": 8429,
      "CD": 8430,
      "ä¿¡æģ¯": 8431,
      "Ġ2015": 8432,
      "Ġproperly": 8433,
      "ĠMartin": 8434,
      "Ġconsists": 8435,
      "Ġfluid": 8436,
      "ĠsÄ±n": 8437,
      "lagen": 8438,
      "lers": 8439,
      "Ġcalls": 8440,
      "Ġmillones": 8441,
      "ĠBeled": 8442,
      "ican": 8443,
      "ä»½": 8444,
      "æ»¡": 8445,
      "Ġaccompl": 8446,
      "Ġcomponent": 8447,
      "Ġcalidad": 8448,
      "ĠÃ¶l": 8449,
      "Para": 8450,
      "æī¾": 8451,
      "Ġlaboratory": 8452,
      "imientos": 8453,
      "zar": 8454,
      "OP": 8455,
      "atro": 8456,
      "ĠId": 8457,
      "Ġtouch": 8458,
      "may": 8459,
      "Ã¶ren": 8460,
      "Ġmaximum": 8461,
      "Ġdepth": 8462,
      "care": 8463,
      "Ã®": 8464,
      "ĠKom": 8465,
      "quir": 8466,
      "Ġlisted": 8467,
      "obil": 8468,
      "edy": 8469,
      "Ġproductos": 8470,
      "Ġsusp": 8471,
      "lang": 8472,
      "Ġpreserv": 8473,
      "ques": 8474,
      "Ġdespite": 8475,
      "Ġning": 8476,
      "Ġoption": 8477,
      "Ġastronom": 8478,
      "ĠTHE": 8479,
      "ienen": 8480,
      "Ġ2016": 8481,
      "Ġihtiy": 8482,
      "åºľ": 8483,
      "Ġgol": 8484,
      "Ġ1960": 8485,
      "ĠeÄŁitim": 8486,
      "Ġplastic": 8487,
      "Ġsides": 8488,
      "Ġbun": 8489,
      "Ġello": 8490,
      "Ġexperiments": 8491,
      "Ġstro": 8492,
      "ĠkonuÅŁ": 8493,
      "Ġeder": 8494,
      "Ġabund": 8495,
      "Ġonto": 8496,
      "ĠParty": 8497,
      "åĢĳ": 8498,
      "ression": 8499,
      "Ġincreasingly": 8500,
      "hÃ¤lt": 8501,
      "abilidad": 8502,
      "ĠRussia": 8503,
      "uerdo": 8504,
      "Ġcircul": 8505,
      "icia": 8506,
      "Ġpersona": 8507,
      "Ġhappened": 8508,
      "Ġnueva": 8509,
      "Ġko": 8510,
      "Ġextensive": 8511,
      "2012": 8512,
      "ĠBul": 8513,
      "Ġarms": 8514,
      "Ġindeed": 8515,
      "Ã¼nkÃ¼": 8516,
      "Ġblan": 8517,
      "Ġ2018": 8518,
      "Ġflat": 8519,
      "kins": 8520,
      "normal": 8521,
      "Pre": 8522,
      "ĠbazÄ±": 8523,
      "ĠKle": 8524,
      "Ġbol": 8525,
      "ĠKunden": 8526,
      "Ġejemplo": 8527,
      "dr": 8528,
      "However": 8529,
      "Ġmigr": 8530,
      "iÄŁimiz": 8531,
      "mb": 8532,
      "Ġkostenlos": 8533,
      "Ġproceso": 8534,
      "Ã©cn": 8535,
      "Ġmix": 8536,
      "Ġaccomp": 8537,
      "è®¸": 8538,
      "ĠChicago": 8539,
      "Ġ?": 8540,
      "Ġgoods": 8541,
      "minister": 8542,
      "During": 8543,
      "emi": 8544,
      "inction": 8545,
      "tar": 8546,
      "å¤§å®¶": 8547,
      "ĠEins": 8548,
      "Ã¶ÃŁ": 8549,
      "Ä±t": 8550,
      "ĠoluÅŁ": 8551,
      "lements": 8552,
      "irect": 8553,
      "Ġages": 8554,
      "Ġspecifically": 8555,
      "ĠData": 8556,
      "Ġconsequences": 8557,
      "Ġagua": 8558,
      "Ġmassive": 8559,
      "æĩ": 8560,
      "Ġsustainable": 8561,
      "Ġencourage": 8562,
      "Ġrandom": 8563,
      "é¢Ħ": 8564,
      "Ġthousand": 8565,
      "Ġcounty": 8566,
      "Ġdiesen": 8567,
      "Ġunless": 8568,
      "CT": 8569,
      "Ġconten": 8570,
      "ĠVict": 8571,
      "Ġchol": 8572,
      "Ġfuncion": 8573,
      "Ġdazu": 8574,
      "Ġdepending": 8575,
      "Ġmily": 8576,
      "Ġ65": 8577,
      "çŁ¥éģĵ": 8578,
      "conÃ³m": 8579,
      "Ġseeds": 8580,
      "Ġisted": 8581,
      "Ġentirely": 8582,
      "ban": 8583,
      "ĠBrown": 8584,
      "è±¡": 8585,
      "Ġletz": 8586,
      "Ã§i": 8587,
      "ktir": 8588,
      "Ġdikkat": 8589,
      "ĠAnother": 8590,
      "stream": 8591,
      "ĠExpl": 8592,
      "ÃŃculo": 8593,
      "ingly": 8594,
      "llen": 8595,
      "Ġselection": 8596,
      "Ġcolleagues": 8597,
      "ĠFund": 8598,
      "ĠOk": 8599,
      "åĪĴ": 8600,
      "ĠUnternehmen": 8601,
      "84": 8602,
      "è¯Ĩ": 8603,
      "cal": 8604,
      "uÅŁtur": 8605,
      "ĠLu": 8606,
      "åħ»": 8607,
      "Ġopened": 8608,
      "mÄ±ÅŁtÄ±r": 8609,
      "Ġnan": 8610,
      "Ġapr": 8611,
      "Ġexpans": 8612,
      "Ġdecade": 8613,
      "Ġrah": 8614,
      "ĠWill": 8615,
      "site": 8616,
      "Ġgrown": 8617,
      "ĠLab": 8618,
      "anan": 8619,
      "Ġdentro": 8620,
      "Ã¤ÃŁ": 8621,
      "Ġaccident": 8622,
      "ĠFer": 8623,
      "Ġteeth": 8624,
      "ĠkadÄ±n": 8625,
      "uke": 8626,
      "Ġpossess": 8627,
      "ativo": 8628,
      "Ġunters": 8629,
      "Ã¤l": 8630,
      "Ġguard": 8631,
      "éļı": 8632,
      "Ġlov": 8633,
      "ĠEU": 8634,
      "Ġproteins": 8635,
      "ĠKr": 8636,
      "Ġcharacters": 8637,
      "Ġpoet": 8638,
      "Ġtreatments": 8639,
      "Ġsoy": 8640,
      "uar": 8641,
      "ç¥¨": 8642,
      "Ġfigures": 8643,
      "such": 8644,
      "Ġreprodu": 8645,
      "Ġmountain": 8646,
      "'m": 8647,
      "ilding": 8648,
      "ĠFurther": 8649,
      "Ġsod": 8650,
      "duÄŁ": 8651,
      "ĠÃ§alÄ±ÅŁmalar": 8652,
      "inding": 8653,
      "pare": 8654,
      "ĠDam": 8655,
      "Ġadvice": 8656,
      "ç»ıæµİ": 8657,
      "Ġhyper": 8658,
      "Ġleaving": 8659,
      "Ġeastern": 8660,
      "ĠTherefore": 8661,
      "Ġcuer": 8662,
      "Ġservicios": 8663,
      "Ġwave": 8664,
      "Ġprohib": 8665,
      "amaz": 8666,
      "Ġcommit": 8667,
      "Ġminimum": 8668,
      "ç¯": 8669,
      "uÄŁu": 8670,
      "but": 8671,
      "ĠâĨ": 8672,
      "ĠNations": 8673,
      "Ġagency": 8674,
      "æĹ¶åĢĻ": 8675,
      "Ġkommt": 8676,
      "äººçļĦ": 8677,
      "ĠCanadian": 8678,
      "ĠCum": 8679,
      "Ġadministration": 8680,
      "Ġagriculture": 8681,
      "Ġfailed": 8682,
      "Ġhearing": 8683,
      "Ġcontamin": 8684,
      "ĠLong": 8685,
      "Ġetmek": 8686,
      "Ġdescribes": 8687,
      "Ġkor": 8688,
      "âĢ¦âĢ¦": 8689,
      "Ġfocused": 8690,
      "untos": 8691,
      "best": 8692,
      "Ġspiritual": 8693,
      "onder": 8694,
      "asure": 8695,
      "71": 8696,
      "éĩĩ": 8697,
      "CS": 8698,
      "ĠmÃ¡": 8699,
      "Ġihrer": 8700,
      "æ±Ł": 8701,
      "Ġihren": 8702,
      "Ġnewsp": 8703,
      "rav": 8704,
      "Ġhelping": 8705,
      "Ġbahis": 8706,
      "Ġconstitution": 8707,
      "unting": 8708,
      "Ġpure": 8709,
      "atos": 8710,
      "fÃ¼g": 8711,
      "Ġpictures": 8712,
      "arÄ±m": 8713,
      "Ġald": 8714,
      "acts": 8715,
      "atÃ¼rlich": 8716,
      "Ä±kt": 8717,
      "ĠInformationen": 8718,
      "ÃŃt": 8719,
      "arias": 8720,
      "Ġorg": 8721,
      "ĠDirector": 8722,
      "Ã¼mÃ¼z": 8723,
      "ĠAcademy": 8724,
      "Ġuygulam": 8725,
      "Ġmientras": 8726,
      "ĠnÃº": 8727,
      "Ġshared": 8728,
      "ĠCam": 8729,
      "Ġtrust": 8730,
      "Ġrepresents": 8731,
      "iÄŁiniz": 8732,
      "Ġcontribute": 8733,
      "cyclopedia": 8734,
      "Ġdimens": 8735,
      "Our": 8736,
      "ĠBei": 8737,
      "Ġyo": 8738,
      "rows": 8739,
      "ĠVert": 8740,
      "Ġimpossible": 8741,
      "ibilidad": 8742,
      "Ġprevention": 8743,
      "Ġaccurate": 8744,
      "Ġdogs": 8745,
      "83": 8746,
      "éĶĢ": 8747,
      "Ġopinion": 8748,
      "èĹ": 8749,
      "otics": 8750,
      "Ġmarriage": 8751,
      "ĠÃ¼zerine": 8752,
      "Ġeinmal": 8753,
      "Ġjedoch": 8754,
      "heast": 8755,
      "Ġbow": 8756,
      "Ġdiscussed": 8757,
      "Ġeig": 8758,
      "Ġliver": 8759,
      "Ġtwenty": 8760,
      "ooth": 8761,
      "spr": 8762,
      "Ġhouses": 8763,
      "Ġnotice": 8764,
      "Äŀ": 8765,
      "åŁŁ": 8766,
      "Ġcomunic": 8767,
      "ä¹ī": 8768,
      "Ġlibert": 8769,
      "Ġ;": 8770,
      "Ġreject": 8771,
      "Ġrefers": 8772,
      "ĠIde": 8773,
      "Ġcircumst": 8774,
      "ĠÃ§Ã¶z": 8775,
      "Ġyoun": 8776,
      "ĠAgricult": 8777,
      "Ġunknown": 8778,
      "ĠAL": 8779,
      "Ġwalls": 8780,
      "ĠCancer": 8781,
      "Ġfaster": 8782,
      "Ġassistance": 8783,
      "ĠMo": 8784,
      "Ġvalu": 8785,
      "ĠAbout": 8786,
      "çİ°åľ¨": 8787,
      "Ġ400": 8788,
      "åıĮ": 8789,
      "ĠSand": 8790,
      "elerin": 8791,
      "Ġvehicle": 8792,
      "Ġprocedures": 8793,
      "é»ĳ": 8794,
      "ĠÃºn": 8795,
      "ĠWik": 8796,
      "ĠMas": 8797,
      "Ġprecis": 8798,
      "Ge": 8799,
      "Here": 8800,
      "ĠColor": 8801,
      "raining": 8802,
      "Ã¼ÅŁter": 8803,
      "chts": 8804,
      "zug": 8805,
      "Ġwire": 8806,
      "å®Ŀ": 8807,
      "utsche": 8808,
      "å¾Īå¤ļ": 8809,
      "ĠÃ¼zerinde": 8810,
      "esis": 8811,
      "ĠyÃ¶": 8812,
      "Ġcomputers": 8813,
      "Ġ1992": 8814,
      "Ġdecline": 8815,
      "Ġadequ": 8816,
      "zing": 8817,
      "Ã¼ler": 8818,
      "Ġderived": 8819,
      "Ġvegetables": 8820,
      "oci": 8821,
      "ighten": 8822,
      "æ¥Ń": 8823,
      "Ġfloor": 8824,
      "ĠDiese": 8825,
      "ĠOper": 8826,
      "Ġsets": 8827,
      "Ġshell": 8828,
      "Ġpregnancy": 8829,
      "elen": 8830,
      "Ġdust": 8831,
      "Ġcompos": 8832,
      "ç¾¤": 8833,
      "lÃ¤": 8834,
      ")|": 8835,
      "Ġpossibly": 8836,
      "Ġremaining": 8837,
      "elli": 8838,
      "imental": 8839,
      "Ġsolutions": 8840,
      "ĠRevolution": 8841,
      "Ġvoice": 8842,
      "ady": 8843,
      "Ġconstru": 8844,
      "hist": 8845,
      "lined": 8846,
      "ĠBoard": 8847,
      "Ġdoubt": 8848,
      "chte": 8849,
      "ç¦»": 8850,
      "Ġmuchas": 8851,
      "ä½Ĩæĺ¯": 8852,
      "Ġhoras": 8853,
      "Ġcort": 8854,
      "èİ·": 8855,
      "kez": 8856,
      "Ġsick": 8857,
      "Ġspend": 8858,
      "ĠAR": 8859,
      "arbon": 8860,
      "éĻ©": 8861,
      "Ġinfant": 8862,
      "Ġuzun": 8863,
      "åºķ": 8864,
      "Ġanterior": 8865,
      "Ġalter": 8866,
      "illas": 8867,
      "åĲ§": 8868,
      "ĠStudy": 8869,
      "Ġortaya": 8870,
      "Ġestado": 8871,
      "My": 8872,
      "irket": 8873,
      "azo": 8874,
      "Ġappearance": 8875,
      "zw": 8876,
      "Ġrub": 8877,
      "ĠÄ°stanbul": 8878,
      "Ġveces": 8879,
      "iza": 8880,
      "Ġorganized": 8881,
      "Ġstraight": 8882,
      "luding": 8883,
      "amework": 8884,
      "ç»´": 8885,
      "prech": 8886,
      "ĠÄ°s": 8887,
      "throp": 8888,
      "Ġteng": 8889,
      "Ġtoler": 8890,
      "EG": 8891,
      "aken": 8892,
      "Ġimpacts": 8893,
      "ĠAtt": 8894,
      "ĠÄ°l": 8895,
      "ĠCy": 8896,
      "ĠColumbia": 8897,
      "Ġfeeling": 8898,
      "åį¡": 8899,
      "Ġnormally": 8900,
      "ĠGrand": 8901,
      "73": 8902,
      "Ġihn": 8903,
      "Ġdrei": 8904,
      "Ġinfected": 8905,
      "Ġexcellent": 8906,
      "ĠhakkÄ±nda": 8907,
      "Ġexplore": 8908,
      "81": 8909,
      "Ġdiox": 8910,
      "ĠcompaÃ±": 8911,
      "ï¼ļâĢľ": 8912,
      "Ġawareness": 8913,
      "72": 8914,
      "cciones": 8915,
      "ç±³": 8916,
      "Ġintellect": 8917,
      "Ġcomfort": 8918,
      "Ġwelche": 8919,
      "Ġwildlife": 8920,
      "ĠHier": 8921,
      "rea": 8922,
      "Ġlabel": 8923,
      "iro": 8924,
      "Ġbeautiful": 8925,
      "Ġcatal": 8926,
      "Ġvillage": 8927,
      "ĠÃ§eÅŁ": 8928,
      "Ġexport": 8929,
      "aften": 8930,
      "å®¤": 8931,
      "å¾Į": 8932,
      "Ġpad": 8933,
      "ilo": 8934,
      "ĠPed": 8935,
      "Ã¼nden": 8936,
      "Ġflowers": 8937,
      "è¼": 8938,
      "Ġpu": 8939,
      "Ġharvest": 8940,
      "èŀį": 8941,
      "ĠSciences": 8942,
      "ĠComput": 8943,
      "adora": 8944,
      "éħĴ": 8945,
      "Ġproducing": 8946,
      "Ġ1993": 8947,
      "ç¾İåĽ½": 8948,
      "oln": 8949,
      "Ġvuel": 8950,
      "è´Ń": 8951,
      "ĠChem": 8952,
      "Ġgalax": 8953,
      "ented": 8954,
      "Ġfossil": 8955,
      "Ġsky": 8956,
      "orsch": 8957,
      "wing": 8958,
      "etet": 8959,
      "rd": 8960,
      "Ġmarked": 8961,
      "Ġdepends": 8962,
      "ĠValley": 8963,
      "Ġheight": 8964,
      "åŃ¸": 8965,
      "olÃ³g": 8966,
      "ĠServices": 8967,
      "Ġaer": 8968,
      "Ġidentity": 8969,
      "Ġrar": 8970,
      "Ġarrived": 8971,
      "Ġphilosophy": 8972,
      "Ġclosed": 8973,
      "æĭį": 8974,
      "ĠCur": 8975,
      "ione": 8976,
      "Ġshr": 8977,
      "inity": 8978,
      "print": 8979,
      "çĽĳ": 8980,
      "Ġinhab": 8981,
      "',": 8982,
      "Ġmath": 8983,
      "Ġdeber": 8984,
      "Ġexchange": 8985,
      "Ġcapable": 8986,
      "Ġparties": 8987,
      "iyors": 8988,
      "Ġsequence": 8989,
      "Ġposit": 8990,
      "Ġunderstood": 8991,
      "ç¦ı": 8992,
      "Ġmedications": 8993,
      "ç¤¾ä¼ļ": 8994,
      "56": 8995,
      "çłĶç©¶": 8996,
      "ĠEine": 8997,
      "Ġcareer": 8998,
      "Ġrepresented": 8999,
      "gres": 9000,
      "ĠEspaÃ±a": 9001,
      "grund": 9002,
      "æķĻèĤ²": 9003,
      "Ġdestroyed": 9004,
      "ĠWood": 9005,
      "Ġimmun": 9006,
      "Ġtrain": 9007,
      "ĠEff": 9008,
      "åĪĩ": 9009,
      "bu": 9010,
      "Ġlesson": 9011,
      "Ġard": 9012,
      "emente": 9013,
      "74": 9014,
      "Ġella": 9015,
      "ĠCa": 9016,
      "82": 9017,
      "Ġraise": 9018,
      "Ġkidney": 9019,
      "Ġcomments": 9020,
      "Ġfounded": 9021,
      "å®īåħ¨": 9022,
      "athy": 9023,
      "free": 9024,
      "look": 9025,
      "ĠpÃ¡": 9026,
      "Ġprovin": 9027,
      "Ã¼yor": 9028,
      "Ġallem": 9029,
      "atters": 9030,
      "isters": 9031,
      "ĠkaÃ§": 9032,
      "Ġpermanent": 9033,
      "Ġexpressed": 9034,
      "Ġsudden": 9035,
      "Ġmater": 9036,
      "uster": 9037,
      "Ġpossibility": 9038,
      "ogue": 9039,
      "Ġov": 9040,
      "igenous": 9041,
      "æ½": 9042,
      "ulin": 9043,
      "æĺ¯ä¸Ģ": 9044,
      "ĠLebens": 9045,
      "è§Ĩé¢ĳ": 9046,
      "ĠSeg": 9047,
      "ĠClin": 9048,
      "mat": 9049,
      "esterol": 9050,
      "ĠAustralian": 9051,
      "Ġcontained": 9052,
      "Ġauthorities": 9053,
      "æĿĲ": 9054,
      "Ã¡m": 9055,
      "Ġcomprehensive": 9056,
      "Mit": 9057,
      "Stud": 9058,
      "pes": 9059,
      "ema": 9060,
      "ĠFun": 9061,
      "Ġapproaches": 9062,
      "Ġsteht": 9063,
      "Ġrepeated": 9064,
      "pected": 9065,
      "ila": 9066,
      "Ġneut": 9067,
      "?âĢĿ": 9068,
      "Ġdescription": 9069,
      "Ġmisma": 9070,
      ".'": 9071,
      "ç´ł": 9072,
      "Ġpotentially": 9073,
      "ĠFest": 9074,
      "Ġcontempor": 9075,
      "ansas": 9076,
      "igan": 9077,
      "éĩįè¦ģ": 9078,
      "orr": 9079,
      "Ġrecy": 9080,
      "lerle": 9081,
      "igation": 9082,
      "Â®": 9083,
      "Ġbietet": 9084,
      "Ġsurvival": 9085,
      "Ġoccasion": 9086,
      "ĠsegÃºn": 9087,
      "anst": 9088,
      "Ġhoriz": 9089,
      "Ġjustice": 9090,
      "Ġbleib": 9091,
      "ĠAber": 9092,
      "azon": 9093,
      "Ġoral": 9094,
      "Ġlose": 9095,
      "Ã¼f": 9096,
      "ĠBundes": 9097,
      "Ġnine": 9098,
      "undan": 9099,
      "ĠTL": 9100,
      "Ġestimates": 9101,
      "ĠFrancisco": 9102,
      "lanan": 9103,
      "ticos": 9104,
      "Ġextended": 9105,
      "ĠAS": 9106,
      "hren": 9107,
      "Ġperspective": 9108,
      "Ġtri": 9109,
      "ji": 9110,
      "Ġscholars": 9111,
      "ĠaquÃŃ": 9112,
      "Ġjue": 9113,
      "åģ¥": 9114,
      "urrent": 9115,
      "Ġworldwide": 9116,
      "ä¾Ŀ": 9117,
      "ivas": 9118,
      "Ġeditor": 9119,
      "Ġservicio": 9120,
      "Ġdesarrollo": 9121,
      "Rec": 9122,
      "æĿİ": 9123,
      "ĠfÃ¡": 9124,
      "ups": 9125,
      "iges": 9126,
      "ĠNorthern": 9127,
      "Ġsuffer": 9128,
      "æĿ¿": 9129,
      "Ġtiny": 9130,
      "Ġbio": 9131,
      "é»Ħ": 9132,
      "ĠOnly": 9133,
      "ĠÂ¡": 9134,
      "Ġwo": 9135,
      "bro": 9136,
      "bau": 9137,
      "Ġphone": 9138,
      "itas": 9139,
      "éĴ±": 9140,
      "æĸŃ": 9141,
      "ĠOt": 9142,
      "Ġadoles": 9143,
      "Ġlaun": 9144,
      "Ġexpensive": 9145,
      "ĠKap": 9146,
      "itÃ¤": 9147,
      "åĭķ": 9148,
      "éĢģ": 9149,
      "Ġverdad": 9150,
      "Ġcardi": 9151,
      "Ġmagnetic": 9152,
      "ĠClar": 9153,
      "Ġrecognize": 9154,
      "Ġinten": 9155,
      "Ġmetab": 9156,
      "Ġagree": 9157,
      "TA": 9158,
      "ĠAlt": 9159,
      "ĠIndians": 9160,
      "ç·": 9161,
      "Ġps": 9162,
      "ieg": 9163,
      "Ġdijo": 9164,
      "Ä±da": 9165,
      "Ġib": 9166,
      "æĻº": 9167,
      "çŃĸ": 9168,
      "Ġborder": 9169,
      "Ġepid": 9170,
      "ĠprÃ³": 9171,
      "Ġinstitution": 9172,
      "Ġmyth": 9173,
      "Ġtopics": 9174,
      "uelle": 9175,
      "Ġdiversity": 9176,
      "åį´": 9177,
      "Ġley": 9178,
      "ĠResources": 9179,
      "lerinden": 9180,
      "Ġ2014": 9181,
      "Ġethnic": 9182,
      "ĠKal": 9183,
      "Ġvolunte": 9184,
      "Ġutil": 9185,
      "Ġconcentration": 9186,
      "ĠCH": 9187,
      "ĠLes": 9188,
      "ificial": 9189,
      "Ġfly": 9190,
      "greg": 9191,
      "åĳ³": 9192,
      "larÄ±ndan": 9193,
      "Ġsounds": 9194,
      "Ġagreement": 9195,
      "anes": 9196,
      "Ġdownload": 9197,
      "acher": 9198,
      "ä»¥åıĬ": 9199,
      "ĠDisease": 9200,
      "Ġkeeping": 9201,
      "Ġ)": 9202,
      "Ġgrandes": 9203,
      "umes": 9204,
      "æ´»åĬ¨": 9205,
      "vol": 9206,
      "Ġabsorb": 9207,
      "åĵį": 9208,
      "Ġregister": 9209,
      "Ġhonor": 9210,
      "69": 9211,
      "ĠSpain": 9212,
      "avery": 9213,
      "ĠFol": 9214,
      "ĠStart": 9215,
      "alter": 9216,
      "ĠHy": 9217,
      "uando": 9218,
      "Ġvaluable": 9219,
      "Ġintroduction": 9220,
      "idden": 9221,
      "Ġbrown": 9222,
      "Ġformat": 9223,
      "Ġgente": 9224,
      "Ġigual": 9225,
      "Ġelectronic": 9226,
      "Ġrevealed": 9227,
      "æĮī": 9228,
      "Ġtraffic": 9229,
      "ĠItaly": 9230,
      "ionen": 9231,
      "Ġstret": 9232,
      "æĸ¹éĿ¢": 9233,
      "Ġpump": 9234,
      "ĠRest": 9235,
      "Ġgender": 9236,
      "æ¸¸æĪı": 9237,
      "iso": 9238,
      "ĠGold": 9239,
      "è¯Ħ": 9240,
      "called": 9241,
      "59": 9242,
      "Ġemotional": 9243,
      "going": 9244,
      "Ġwaves": 9245,
      "ĠBill": 9246,
      "Ġgreatly": 9247,
      "ĠÂ©": 9248,
      "è¡¨ç¤º": 9249,
      "ĠSy": 9250,
      "ikel": 9251,
      "fts": 9252,
      "apping": 9253,
      "wart": 9254,
      "uell": 9255,
      "Ġjeder": 9256,
      "aph": 9257,
      "roc": 9258,
      "Ġmev": 9259,
      "zil": 9260,
      "ospher": 9261,
      "åª": 9262,
      "ĠReal": 9263,
      "Ġextract": 9264,
      "èĪĩ": 9265,
      "âĢĶâĢĶ": 9266,
      "Ġwindow": 9267,
      "kÃ¼n": 9268,
      "åĺ": 9269,
      "erman": 9270,
      "stÃ¤nd": 9271,
      "Ġsituations": 9272,
      "faces": 9273,
      "ritten": 9274,
      "ĠTeam": 9275,
      "Ġtamam": 9276,
      "ston": 9277,
      "ĠCommon": 9278,
      "Ġfacilit": 9279,
      "Ġmarg": 9280,
      "Ġje": 9281,
      "cium": 9282,
      "ĠGood": 9283,
      "ĠFern": 9284,
      "eda": 9285,
      "ä»ĭ": 9286,
      "Ġissued": 9287,
      "Ġobservations": 9288,
      "Ġcoc": 9289,
      "Ġunus": 9290,
      "ĠSchul": 9291,
      "lass": 9292,
      "iated": 9293,
      "incoln": 9294,
      "Ġabuse": 9295,
      "appear": 9296,
      "Ġmolecules": 9297,
      "isto": 9298,
      "oso": 9299,
      "Ġmobile": 9300,
      "nisse": 9301,
      "ĠGuide": 9302,
      "Ġbat": 9303,
      "ciendo": 9304,
      "Ed": 9305,
      "Ġmarried": 9306,
      "reland": 9307,
      "åĶ®": 9308,
      "ĠHeb": 9309,
      "sm": 9310,
      "umuz": 9311,
      "Bl": 9312,
      "Ġinfer": 9313,
      "Ġmaps": 9314,
      "Ġcere": 9315,
      "action": 9316,
      "Ġcultiv": 9317,
      "onio": 9318,
      "icians": 9319,
      "Ġweil": 9320,
      "åĨľ": 9321,
      "fit": 9322,
      "Ġtecn": 9323,
      "æŃ»": 9324,
      "äºĴ": 9325,
      "âĢĿï¼Į": 9326,
      "Ġbiri": 9327,
      "Ġschnell": 9328,
      "Ġ1991": 9329,
      "iring": 9330,
      "ĠEth": 9331,
      "zas": 9332,
      "ãĢĳ": 9333,
      "ĠAM": 9334,
      "ãĢĲ": 9335,
      "ĠSP": 9336,
      "Her": 9337,
      "Ġeleg": 9338,
      "Ġsecondary": 9339,
      "Ġhorse": 9340,
      "akat": 9341,
      "iffer": 9342,
      "Ġacts": 9343,
      "Ġopening": 9344,
      "tenance": 9345,
      "åĪ°äºĨ": 9346,
      "Ver": 9347,
      "âĤ¬": 9348,
      "åįĬ": 9349,
      "IF": 9350,
      "Ġpromin": 9351,
      "ä¾ĭ": 9352,
      "ĠbÃ¼tÃ¼n": 9353,
      "ĠRoyal": 9354,
      "________": 9355,
      "Ġmovements": 9356,
      "Ġvote": 9357,
      "Ġpob": 9358,
      "Bir": 9359,
      "Ġsei": 9360,
      "Ġinject": 9361,
      "ensa": 9362,
      "æµĭ": 9363,
      "cir": 9364,
      "Ġedge": 9365,
      "arÃŃa": 9366,
      "irmed": 9367,
      "ĠTom": 9368,
      "åĽŃ": 9369,
      "Ġjoined": 9370,
      "Ġhaft": 9371,
      "ĠCasino": 9372,
      "ĠBuch": 9373,
      "ĠPak": 9374,
      "Ġmac": 9375,
      "æ¬¢": 9376,
      "Ġingred": 9377,
      "Ġcontrovers": 9378,
      "edir": 9379,
      "oten": 9380,
      "Ġbrother": 9381,
      "oung": 9382,
      "è§Ĵ": 9383,
      "Ġseinen": 9384,
      "alla": 9385,
      "Ġkaps": 9386,
      "Ġtwice": 9387,
      "esity": 9388,
      "Ġyield": 9389,
      "ĠAgency": 9390,
      "ticas": 9391,
      "åİĨ": 9392,
      "Ġgay": 9393,
      "å¤§çļĦ": 9394,
      "å¹³åı°": 9395,
      "ĠSit": 9396,
      "Ġetti": 9397,
      "ĠÎ": 9398,
      "ĠOrt": 9399,
      "Ġsubstance": 9400,
      "Do": 9401,
      "ĠbirÃ§ok": 9402,
      "Can": 9403,
      "Ġcouple": 9404,
      "Ġdaughter": 9405,
      "Ġhoch": 9406,
      "Ġvoc": 9407,
      "Med": 9408,
      "ni": 9409,
      "Ġedition": 9410,
      "lenen": 9411,
      "Ġmedium": 9412,
      "masÄ±nÄ±": 9413,
      "eters": 9414,
      "ĠyatÄ±rÄ±m": 9415,
      "Ġterritory": 9416,
      "Ġaren": 9417,
      "ĠAtlantic": 9418,
      "Ġdiverse": 9419,
      "ĠEastern": 9420,
      "ĠJeff": 9421,
      "Ġapoy": 9422,
      "æ¸¯": 9423,
      "Ġparam": 9424,
      "Ġpig": 9425,
      "ishop": 9426,
      "Ġentry": 9427,
      "Another": 9428,
      "Ġdioxide": 9429,
      "oston": 9430,
      "Ġlaunch": 9431,
      "Ġpuedes": 9432,
      "bran": 9433,
      "amber": 9434,
      "gener": 9435,
      "Ġses": 9436,
      "2010": 9437,
      "Ġreplaced": 9438,
      "ĠAny": 9439,
      "forder": 9440,
      "Last": 9441,
      "Ġ2019": 9442,
      "Ġterci": 9443,
      "UM": 9444,
      "onym": 9445,
      "onces": 9446,
      "Ġkommen": 9447,
      "ĠScott": 9448,
      "ĠgroÃŁ": 9449,
      "Ġships": 9450,
      "åĵª": 9451,
      "agram": 9452,
      "Ġdecrease": 9453,
      "ekte": 9454,
      "Ġproyecto": 9455,
      "ĠWie": 9456,
      "Ġlandscape": 9457,
      "ktÃ¶r": 9458,
      "ĠHill": 9459,
      "HO": 9460,
      "Note": 9461,
      "ĠKÃ¼": 9462,
      "å¤Ł": 9463,
      "ĠThose": 9464,
      "Ġconventional": 9465,
      "Ġverg": 9466,
      "ĠOhio": 9467,
      "ny": 9468,
      "Ġterror": 9469,
      "ĠInstead": 9470,
      "ĠUsing": 9471,
      "Ġorganisms": 9472,
      "ĠgÃ¶rÃ¼ÅŁ": 9473,
      "éĥ½æĺ¯": 9474,
      "Ġplaying": 9475,
      "Ġdefe": 9476,
      "è¿Ļæł·": 9477,
      "utch": 9478,
      "Ġseb": 9479,
      "Ġphr": 9480,
      "ĠAcc": 9481,
      "ĠeconÃ³m": 9482,
      "Why": 9483,
      "Ġconjun": 9484,
      "Ġfer": 9485,
      "ĠKat": 9486,
      "Ġacceler": 9487,
      "Ġkabul": 9488,
      "Ġveter": 9489,
      "ĠInvest": 9490,
      "Ġlegislation": 9491,
      "Ġlimits": 9492,
      "Ġstored": 9493,
      "Ġpartner": 9494,
      "Ġkein": 9495,
      "isa": 9496,
      "åĲĹ": 9497,
      "ilmiÅŁ": 9498,
      "uted": 9499,
      "ĠBig": 9500,
      "Ġgenerated": 9501,
      "Ġment": 9502,
      "ĠEmpire": 9503,
      "Ġequivalent": 9504,
      "çļĦæĺ¯": 9505,
      "Ġdoctors": 9506,
      "athers": 9507,
      "Ġrit": 9508,
      "Ġvessels": 9509,
      "arÃ¡n": 9510,
      "othe": 9511,
      "Ġcred": 9512,
      "CA": 9513,
      "çķĻ": 9514,
      "stellung": 9515,
      "ĠCook": 9516,
      "ĠEnde": 9517,
      "Ġrestric": 9518,
      "ĠAccess": 9519,
      "ĠSanta": 9520,
      "Ġvalor": 9521,
      "ĠyÄ±lÄ±nda": 9522,
      "lichkeit": 9523,
      "uit": 9524,
      "ĠMÃ¶glichkeit": 9525,
      "rients": 9526,
      "64": 9527,
      "avi": 9528,
      "anza": 9529,
      "ĠnÃºmer": 9530,
      "äº¿": 9531,
      "ells": 9532,
      "ç«ł": 9533,
      "ĠHoly": 9534,
      "Ġmanage": 9535,
      "Ġbef": 9536,
      "ĠJo": 9537,
      "hips": 9538,
      "Ġrequest": 9539,
      "Research": 9540,
      "ashion": 9541,
      "esse": 9542,
      "Us": 9543,
      "Ġelectron": 9544,
      "éĿŀå¸¸": 9545,
      "ĠIreland": 9546,
      "ĠFilm": 9547,
      "heits": 9548,
      "inge": 9549,
      "ificaciÃ³n": 9550,
      "ĠWo": 9551,
      "Ġsurvive": 9552,
      "åĽ½éĻħ": 9553,
      "Ġadding": 9554,
      "Ġphysics": 9555,
      "ĠLeben": 9556,
      "Ġsupplies": 9557,
      "è»": 9558,
      "Ġinvestment": 9559,
      "Ġpregun": 9560,
      "ĠbaÅŁka": 9561,
      "uing": 9562,
      "Ġfilled": 9563,
      "Ġaffects": 9564,
      "Ġexists": 9565,
      "state": 9566,
      "Ġkoy": 9567,
      "ĠniÃ±os": 9568,
      "æĶ¿åºľ": 9569,
      "BS": 9570,
      "çĽĬ": 9571,
      "Ġseguridad": 9572,
      "ĠtÃ©cn": 9573,
      "Ġvig": 9574,
      "ĠPot": 9575,
      "ĠEp": 9576,
      "ĠTal": 9577,
      "Ġ33": 9578,
      "èĮĥ": 9579,
      "nahme": 9580,
      "ascular": 9581,
      "omic": 9582,
      "Ġresolution": 9583,
      "ĠSar": 9584,
      "Ġtelefon": 9585,
      "Ġguidelines": 9586,
      "Ġleadership": 9587,
      "Ġshot": 9588,
      "Ġspielen": 9589,
      "Ġshel": 9590,
      "vur": 9591,
[...]
