{
  "version": "1.0",
  "truncation": null,
  "padding": null,
  "added_tokens": [
    {
      "id": 0,
      "content": "<|endoftext|>",
      "single_word": false,
      "lstrip": false,
      "rstrip": false,
      "normalized": false,
      "special": true
    },
    {
      "id": 1,
      "content": "<|padding|>",
      "single_word": false,
      "lstrip": false,
      "rstrip": false,
      "normalized": false,
      "special": true
    }
  ],
  "normalizer": {
    "type": "NFC"
  },
  "pre_tokenizer": {
    "type": "ByteLevel",
    "add_prefix_space": false,
    "trim_offsets": true,
    "use_regex": true
  },
  "post_processor": {
    "type": "ByteLevel",
    "add_prefix_space": true,
    "trim_offsets": false,
    "use_regex": true
  },
  "decoder": {
    "type": "ByteLevel",
    "add_prefix_space": true,
    "trim_offsets": true,
    "use_regex": true
  },
  "model": {
    "type": "BPE",
    "dropout": null,
    "unk_token": null,
    "continuing_subword_prefix": null,
    "end_of_word_suffix": null,
    "fuse_unk": false,
    "byte_fallback": false,
    "ignore_merges": false,
    "vocab": {
      "<|endoftext|>": 0,
      "<|padding|>": 1,
      "!": 2,
      "\"": 3,
      "#": 4,
      "$": 5,
      "%": 6,
      "&": 7,
      "'": 8,
      "(": 9,
      ")": 10,
      "*": 11,
      "+": 12,
      ",": 13,
      "-": 14,
      ".": 15,
      "/": 16,
      "0": 17,
      "1": 18,
      "2": 19,
      "3": 20,
      "4": 21,
      "5": 22,
      "6": 23,
      "7": 24,
      "8": 25,
      "9": 26,
      ":": 27,
      ";": 28,
      "<": 29,
      "=": 30,
      ">": 31,
      "?": 32,
      "@": 33,
      "A": 34,
      "B": 35,
      "C": 36,
      "D": 37,
      "E": 38,
      "F": 39,
      "G": 40,
      "H": 41,
      "I": 42,
      "J": 43,
      "K": 44,
      "L": 45,
      "M": 46,
      "N": 47,
      "O": 48,
      "P": 49,
      "Q": 50,
      "R": 51,
      "S": 52,
      "T": 53,
      "U": 54,
      "V": 55,
      "W": 56,
      "X": 57,
      "Y": 58,
      "Z": 59,
      "[": 60,
      "\\": 61,
      "]": 62,
      "^": 63,
      "_": 64,
      "`": 65,
      "a": 66,
      "b": 67,
      "c": 68,
      "d": 69,
      "e": 70,
      "f": 71,
      "g": 72,
      "h": 73,
      "i": 74,
      "j": 75,
      "k": 76,
      "l": 77,
      "m": 78,
      "n": 79,
      "o": 80,
      "p": 81,
      "q": 82,
      "r": 83,
      "s": 84,
      "t": 85,
      "u": 86,
      "v": 87,
      "w": 88,
      "x": 89,
      "y": 90,
      "z": 91,
      "{": 92,
      "|": 93,
      "}": 94,
      "~": 95,
      "¡": 96,
      "¢": 97,
      "£": 98,
      "¤": 99,
      "¥": 100,
      "¦": 101,
      "§": 102,
      "¨": 103,
      "©": 104,
      "ª": 105,
      "«": 106,
      "¬": 107,
      "®": 108,
      "¯": 109,
      "°": 110,
      "±": 111,
      "²": 112,
      "³": 113,
      "´": 114,
      "µ": 115,
      "¶": 116,
      "·": 117,
      "¸": 118,
      "¹": 119,
      "º": 120,
      "»": 121,
      "¼": 122,
      "½": 123,
      "¾": 124,
      "¿": 125,
      "Â": 126,
      "Ã": 127,
      "Ä": 128,
      "Å": 129,
      "Æ": 130,
      "Ç": 131,
      "È": 132,
      "É": 133,
      "Ê": 134,
      "Ë": 135,
      "Ì": 136,
      "Í": 137,
      "Î": 138,
      "Ï": 139,
      "Ð": 140,
      "Ñ": 141,
      "Ò": 142,
      "Ó": 143,
      "Ô": 144,
      "Õ": 145,
      "Ö": 146,
      "×": 147,
      "Ø": 148,
      "Ù": 149,
      "Ú": 150,
      "Û": 151,
      "Ü": 152,
      "Ý": 153,
      "Þ": 154,
      "ß": 155,
      "à": 156,
      "á": 157,
      "â": 158,
      "ã": 159,
      "ä": 160,
      "å": 161,
      "æ": 162,
      "ç": 163,
      "è": 164,
      "é": 165,
      "ê": 166,
      "ë": 167,
      "ì": 168,
      "í": 169,
      "î": 170,
      "ï": 171,
      "ð": 172,
      "ó": 173,
      "ĉ": 174,
      "Ċ": 175,
      "Ġ": 176,
      "Ģ": 177,
      "ģ": 178,
      "Ĥ": 179,
      "ĥ": 180,
      "Ħ": 181,
      "ħ": 182,
      "Ĩ": 183,
      "ĩ": 184,
      "Ī": 185,
      "ī": 186,
      "Ĭ": 187,
      "ĭ": 188,
      "Į": 189,
      "į": 190,
      "İ": 191,
      "ı": 192,
      "Ĳ": 193,
      "ĳ": 194,
      "Ĵ": 195,
      "ĵ": 196,
      "Ķ": 197,
      "ķ": 198,
      "ĸ": 199,
      "Ĺ": 200,
      "ĺ": 201,
      "Ļ": 202,
      "ļ": 203,
      "Ľ": 204,
      "ľ": 205,
      "Ŀ": 206,
      "ŀ": 207,
      "Ł": 208,
      "ł": 209,
      "Ń": 210,
      "th": 211,
      "Ä±": 212,
      "Ġth": 213,
      "Ġthe": 214,
      "âĢ": 215,
      "in": 216,
      "ing": 217,
      "ch": 218,
      "Ã¼": 219,
      "an": 220,
      "on": 221,
      "en": 222,
      "and": 223,
      "un": 224,
      "ï¼": 225,
      "ÅŁ": 226,
      "er": 227,
      "of": 228,
      "Ġof": 229,
      "or": 230,
      "ar": 231,
      "qu": 232,
      "ä¸": 233,
      "Th": 234,
      "ion": 235,
      "tion": 236,
      "ï¼Į": 237,
      "for": 238,
      "Ġw": 239,
      "Ġand": 240,
      "ÄŁ": 241,
      "ãĢ": 242,
      "ur": 243,
      "re": 244,
      "ro": 245,
      "ļĦ": 246,
      "çļĦ": 247,
      "al": 248,
      "Ã¶": 249,
      "Ã§": 250,
      "Ã³": 251,
      "âĢĻ": 252,
      "ent": 253,
      "ation": 254,
      "pro": 255,
      "Ġb": 256,
      "20": 257,
      "ver": 258,
      "ve": 259,
      "con": 260,
      "Ġwh": 261,
      "ow": 262,
      "äº": 263,
      "ĠS": 264,
      "19": 265,
      "The": 266,
      "ãĢĤ": 267,
      "ÃŃ": 268,
      "Ã¡": 269,
      "Ã¤": 270,
      "ment": 271,
      "âĢĿ": 272,
      "âĢľ": 273,
      "ex": 274,
      "Ġtha": 275,
      "Ġthat": 276,
      "ĠA": 277,
      "Ġcon": 278,
      "Ġbe": 279,
      "und": 280,
      "vi": 281,
      "ab": 282,
      "Ġin": 283,
      "ĠC": 284,
      "Ġ(": 285,
      "Ġh": 286,
      "gh": 287,
      "ĠM": 288,
      "ĠB": 289,
      "In": 290,
      "Ġfor": 291,
      "ä»": 292,
      "Ä±n": 293,
      "Ġf": 294,
      "Ġfro": 295,
      "Ġfrom": 296,
      "Ġpro": 297,
      "ĠP": 298,
      "Ġha": 299,
      "Ġhave": 300,
      "ra": 301,
      "ri": 302,
      "ir": 303,
      "00": 304,
      "Ã©": 305,
      "Ã³n": 306,
      "ed": 307,
      "de": 308,
      "Ġde": 309,
      "æľ": 310,
      "Ġwi": 311,
      "Ġwith": 312,
      "ther": 313,
      "ic": 314,
      "que": 315,
      "ĠH": 316,
      "Ġp": 317,
      "mp": 318,
      "åı": 319,
      "ĠD": 320,
      "ĠG": 321,
      "å¤": 322,
      "ĠF": 323,
      "åħ": 324,
      "ĠW": 325,
      "ä½": 326,
      "ĠE": 327,
      "Ġre": 328,
      "co": 329,
      "Ġco": 330,
      "to": 331,
      "Ġto": 332,
      "Ġcomp": 333,
      "ou": 334,
      "ff": 335,
      "200": 336,
      "Ġex": 337,
      "ĠR": 338,
      "Ä°": 339,
      "ĠThe": 340,
      "ä¹": 341,
      "ĠT": 342,
      "Ġque": 343,
      "Ġby": 344,
      "iÃ³n": 345,
      "di": 346,
      "Ġdi": 347,
      "Ġn": 348,
      "Ġno": 349,
      "Ġm": 350,
      "Ġcom": 351,
      "ĠL": 352,
      "ĠI": 353,
      "ĠK": 354,
      "ĠJ": 355,
      "âĢĵ": 356,
      "ĠN": 357,
      "ãĢģ": 358,
      "Ġpre": 359,
      "Ġpar": 360,
      "è¿": 361,
      "Ġwa": 362,
      "Ġwas": 363,
      "Ġexp": 364,
      "all": 365,
      "ction": 366,
      "ter": 367,
      "der": 368,
      "ally": 369,
      "æĺ": 370,
      "æĺ¯": 371,
      "ciÃ³n": 372,
      "ĠIn": 373,
      "ive": 374,
      "igh": 375,
      "ich": 376,
      "Ġwhich": 377,
      "Un": 378,
      "ung": 379,
      "å®": 380,
      "åľ": 381,
      "201": 382,
      "Ġbu": 383,
      "ä¼": 384,
      "other": 385,
      "our": 386,
      "Ġnot": 387,
      "Ã¼r": 388,
      "åľ¨": 389,
      "Ġwor": 390,
      "it": 391,
      "st": 392,
      "at": 393,
      "ct": 394,
      "ect": 395,
      "out": 396,
      "about": 397,
      "iz": 398,
      "is": 399,
      "Ġthis": 400,
      "il": 401,
      "im": 402,
      "Ġis": 403,
      "ist": 404,
      "if": 405,
      "This": 406,
      "ol": 407,
      "op": 408,
      "ä¸Ģ": 409,
      "Ã±": 410,
      "Ġbir": 411,
      "om": 412,
      "am": 413,
      "um": 414,
      "form": 415,
      "åĪ": 416,
      "åĲ": 417,
      "çĶ": 418,
      "æĪ": 419,
      "ight": 420,
      "ci": 421,
      "ce": 422,
      "Ġc": 423,
      "Ġcan": 424,
      "ck": 425,
      "Ġa": 426,
      "Ġ1": 427,
      "Ġg": 428,
      "ig": 429,
      "Ġma": 430,
      "ity": 431,
      "Ġwil": 432,
      "Ġwill": 433,
      "la": 434,
      "Ġla": 435,
      "da": 436,
      "abl": 437,
      "able": 438,
      "ul": 439,
      "âĢĶ": 440,
      "ber": 441,
      "Ġper": 442,
      "ign": 443,
      "ish": 444,
      "ough": 445,
      "you": 446,
      "Ġyou": 447,
      "own": 448,
      "Ġwer": 449,
      "ĠO": 450,
      "ĠV": 451,
      "Ġs": 452,
      "Ġsu": 453,
      "Ġsh": 454,
      "Ġun": 455,
      "Ġon": 456,
      "Ġund": 457,
      "es": 458,
      "us": 459,
      "os": 460,
      "as": 461,
      "'s": 462,
      "el": 463,
      "le": 464,
      "Ġne": 465,
      "Ġas": 466,
      "ces": 467,
      "ous": 468,
      "oul": 469,
      "ould": 470,
      "Ġwould": 471,
      "Ġshould": 472,
      "Ġ19": 473,
      "Ġwere": 474,
      "ugh": 475,
      "rough": 476,
      "Ġthrough": 477,
      "ly": 478,
      "los": 479,
      "||": 480,
      "ru": 481,
      "ĠCh": 482,
      "Ġhigh": 483,
      "æľī": 484,
      "Ġhis": 485,
      "Ġtheir": 486,
      "ag": 487,
      "ak": 488,
      "ran": 489,
      "ical": 490,
      "å°": 491,
      "æĸ": 492,
      "ific": 493,
      "imp": 494,
      "äºĨ": 495,
      "äºº": 496,
      "ffect": 497,
      "Ġdiff": 498,
      "ject": 499,
      "Ġwork": 500,
      "ad": 501,
      "ound": 502,
      "Ġcomm": 503,
      "åĬ": 504,
      "Ġlos": 505,
      "Ã¼n": 506,
      "du": 507,
      "Ġprodu": 508,
      "ÃŁ": 509,
      "Ġk": 510,
      "ĠUn": 511,
      "ä¸į": 512,
      "Ġabout": 513,
      "ence": 514,
      "ç»": 515,
      "ble": 516,
      "Ġpart": 517,
      "Ġcont": 518,
      "dition": 519,
      "righ": 520,
      "Ġpara": 521,
      "æĹ": 522,
      "sion": 523,
      "ell": 524,
      "com": 525,
      "em": 526,
      "ĠAn": 527,
      "Ġbut": 528,
      "ik": 529,
      "lik": 530,
      "age": 531,
      "Ġwe": 532,
      "åĽ": 533,
      "Ġ18": 534,
      "Ġother": 535,
      "Ġd": 536,
      "Ġt": 537,
      "ut": 538,
      "ant": 539,
      "id": 540,
      "Ġst": 541,
      "est": 542,
      "Ġl": 543,
      "Ġv": 544,
      "Ġy": 545,
      "Ġyour": 546,
      "Ġit": 547,
      "Ġel": 548,
      "Ġar": 549,
      "Ġare": 550,
      "Ġda": 551,
      "Ġan": 552,
      "Ġ\"": 553,
      "Ġimp": 554,
      "Ġus": 555,
      "Ġall": 556,
      "Ġder": 557,
      "ult": 558,
      "et": 559,
      "ĠU": 560,
      "Ġor": 561,
      "ĠâĢľ": 562,
      "ĠY": 563,
      "Ġal": 564,
      "Ġj": 565,
      "Ġle": 566,
      "ort": 567,
      "port": 568,
      "Ġimport": 569,
      "Ġlo": 570,
      "ill": 571,
      "Ġthan": 572,
      "Ġdo": 573,
      "Ġve": 574,
      "vel": 575,
      "velop": 576,
      "Ġdevelop": 577,
      "ople": 578,
      "Ġvi": 579,
      "Ġen": 580,
      "ven": 581,
      "Ġ2": 582,
      "Ġch": 583,
      "Ġat": 584,
      "Ġout": 585,
      "Ġz": 586,
      "ĠTh": 587,
      "ated": 588,
      "eople": 589,
      "Ġpeople": 590,
      "Ġnew": 591,
      "Ġest": 592,
      "Ġ200": 593,
      "Ġe": 594,
      "Ġein": 595,
      "Ġver": 596,
      "over": 597,
      "Ġmo": 598,
      "Ġman": 599,
      "Ġmor": 600,
      "Ġmore": 601,
      "od": 602,
      "ood": 603,
      "formation": 604,
      "Ġmost": 605,
      "å¤§": 606,
      "è®": 607,
      "ĠZ": 608,
      "Ã¶n": 609,
      "Ġsom": 610,
      "Ġsome": 611,
      "Ġse": 612,
      "Ġsp": 613,
      "ate": 614,
      "ance": 615,
      "Ãº": 616,
      "å¹": 617,
      "Ġtim": 618,
      "Ġtra": 619,
      "è¯": 620,
      "ach": 621,
      "Ġgro": 622,
      "Ġhe": 623,
      "tern": 624,
      "uch": 625,
      "up": 626,
      "ap": 627,
      "Ġup": 628,
      "Ġzu": 629,
      "ust": 630,
      "Ġjust": 631,
      "ative": 632,
      "Ġwater": 633,
      "ĠSt": 634,
      "Ġstu": 635,
      "Ġstud": 636,
      "æĿ": 637,
      "ĠThis": 638,
      "Ġimportant": 639,
      "aciÃ³n": 640,
      "hr": 641,
      "Ġover": 642,
      "Ġ3": 643,
      "åį": 644,
      "Ġonly": 645,
      "atur": 646,
      "ron": 647,
      "Ä±r": 648,
      "unt": 649,
      "Ġsuch": 650,
      "pp": 651,
      "lich": 652,
      "Ä±nda": 653,
      "Ġapp": 654,
      "ang": 655,
      "Ġchang": 656,
      "Ġcount": 657,
      "Ġ201": 658,
      "Ġop": 659,
      "Ġol": 660,
      "Ġim": 661,
      "Ġgroup": 662,
      "ide": 663,
      "right": 664,
      "Ġeffect": 665,
      "Ġchil": 666,
      "Ġchild": 667,
      "Ġmay": 668,
      "abil": 669,
      ").": 670,
      "ĠfÃ¼r": 671,
      "Ġlik": 672,
      "ay": 673,
      "aus": 674,
      "act": 675,
      "Ġwell": 676,
      "ies": 677,
      "000": 678,
      "Ġhas": 679,
      "Ġhad": 680,
      "end": 681,
      "ard": 682,
      "ind": 683,
      "æĪĳ": 684,
      "ĥ½": 685,
      "Ġals": 686,
      "Ġalso": 687,
      "ob": 688,
      "Ġob": 689,
      "ub": 690,
      "ubl": 691,
      "ublic": 692,
      "å¸": 693,
      "åŃ": 694,
      "ä¸Ń": 695,
      "å¼": 696,
      "Ġres": 697,
      "Ġresult": 698,
      "ok": 699,
      "ot": 700,
      "og": 701,
      "olog": 702,
      "Ġmak": 703,
      "ĠÃ§": 704,
      "Ġtime": 705,
      "Ġdie": 706,
      "Ġdis": 707,
      "Ä±nÄ±": 708,
      "æī": 709,
      "Ġwho": 710,
      "Ä±ÅŁ": 711,
      "Ġqu": 712,
      "Ġes": 713,
      "Ġab": 714,
      "ĠEn": 715,
      "Ġdiffer": 716,
      "Ġlevel": 717,
      "Ġ199": 718,
      "Ġhow": 719,
      "Ġtran": 720,
      "rof": 721,
      "ĠPro": 722,
      "ac": 723,
      "å¾": 724,
      "ack": 725,
      "ain": 726,
      "irst": 727,
      "Ġfirst": 728,
      "stem": 729,
      "ystem": 730,
      "Ġsystem": 731,
      "ada": 732,
      "å·": 733,
      "éĢ": 734,
      "éĩ": 735,
      "ved": 736,
      "Ġad": 737,
      "Ġact": 738,
      "ong": 739,
      "amp": 740,
      "ast": 741,
      "Ġtak": 742,
      "Ġtrans": 743,
      "ä¿": 744,
      "Ġpla": 745,
      "ĠâĢĵ": 746,
      "Ġra": 747,
      "dad": 748,
      "uf": 749,
      "Ġauf": 750,
      "åĽ½": 751,
      "oci": 752,
      "Ġdur": 753,
      "Ġwhat": 754,
      "Ġwhen": 755,
      "reat": 756,
      "overn": 757,
      "overnment": 758,
      "Ġlong": 759,
      "ä¾": 760,
      "Ġproble": 761,
      "ible": 762,
      "Ġproblem": 763,
      "Ġprovi": 764,
      "Ġstudent": 765,
      "å¹´": 766,
      "Ġcol": 767,
      "Ġcoul": 768,
      "Ġcould": 769,
      "Ġdifferent": 770,
      "Ġvon": 771,
      "å¥": 772,
      "icht": 773,
      "Ġnicht": 774,
      "Ġinto": 775,
      "Ġmuch": 776,
      "ĴĮ": 777,
      "åĴĮ": 778,
      "umber": 779,
      "Ġnumber": 780,
      "lar": 781,
      "ew": 782,
      "ĠNew": 783,
      "ÃŃa": 784,
      "lu": 785,
      "clu": 786,
      "Ġinclu": 787,
      "ities": 788,
      "Ġinformation": 789,
      "ä¸Ĭ": 790,
      "Ġfound": 791,
      "low": 792,
      "ollow": 793,
      "Ġfollow": 794,
      "Ġtw": 795,
      "Ġtwo": 796,
      "è¡": 797,
      "èĢ": 798,
      "èµ": 799,
      "Ġexamp": 800,
      "res": 801,
      "Ġro": 802,
      "Ã¶r": 803,
      "Ġway": 804,
      "ause": 805,
      "cause": 806,
      "Ġbecause": 807,
      "Ġac": 808,
      "ular": 809,
      "Ġchildr": 810,
      "ry": 811,
      "Ġchildren": 812,
      "Ġmany": 813,
      "cess": 814,
      "Ġprocess": 815,
      "qui": 816,
      "Ġkn": 817,
      "Ġknow": 818,
      "Ġknown": 819,
      "Ġsub": 820,
      "ĠÃ": 821,
      "ado": 822,
      "Ä±k": 823,
      "Ġden": 824,
      "Ġcommun": 825,
      "åĩ": 826,
      "stru": 827,
      "Ġnatur": 828,
      "ution": 829,
      "Ġeven": 830,
      "ability": 831,
      "Ġ10": 832,
      "åĨ": 833,
      "åº": 834,
      "å¯": 835,
      "ä»¥": 836,
      "çĽ": 837,
      "æĿ¥": 838,
      "Ġhab": 839,
      "è§": 840,
      "ember": 841,
      "Ġstudy": 842,
      "Ġ4": 843,
      "Ġspe": 844,
      "Ġspeci": 845,
      "åĪ°": 846,
      "iÅŁ": 847,
      "aÅŁ": 848,
      "Ġpartic": 849,
      "Ġif": 850,
      "Ġlif": 851,
      "larÄ±": 852,
      "ph": 853,
      "Ġunder": 854,
      "ĠWh": 855,
      "è¿Ļ": 856,
      "åĩº": 857,
      "åĮ": 858,
      "Ä±ÄŁ": 859,
      "æĹ¶": 860,
      "ract": 861,
      "ram": 862,
      "gram": 863,
      "Ġprogram": 864,
      "ident": 865,
      "50": 866,
      "ä¸ª": 867,
      "ib": 868,
      "Ġpres": 869,
      "larÄ±n": 870,
      "Ġused": 871,
      "ä¼ļ": 872,
      "idad": 873,
      "Ġ20": 874,
      "Ġparticular": 875,
      "Ġneed": 876,
      "ĠIt": 877,
      "æĬ": 878,
      "Ġemp": 879,
      "ĠAr": 880,
      "ä¸º": 881,
      "ook": 882,
      "è¡Į": 883,
      "ations": 884,
      "ational": 885,
      "âĢ¦": 886,
      "Ġresp": 887,
      "Ġyap": 888,
      "Ġev": 889,
      "Ġever": 890,
      "iver": 891,
      "ĠUniver": 892,
      "Ġeach": 893,
      "iÃ§": 894,
      "ĠiÃ§": 895,
      "ĠiÃ§in": 896,
      "Ġo": 897,
      "Ġam": 898,
      "Ġour": 899,
      "ving": 900,
      "çī": 901,
      "Ġuna": 902,
      "Ġlook": 903,
      "ĠâĢ": 904,
      "Ġist": 905,
      "Ġr": 906,
      "Ä±l": 907,
      "Ġwir": 908,
      "Ġgrow": 909,
      "way": 910,
      "çĶŁ": 911,
      "çĶ¨": 912,
      "ublish": 913,
      "å¿": 914,
      "ï¼ļ": 915,
      "Ä±ÄŁÄ±": 916,
      "ek": 917,
      "Ġprovide": 918,
      "ding": 919,
      "Ġincluding": 920,
      "Ġinclude": 921,
      "ler": 922,
      "ĠAl": 923,
      "Ġher": 924,
      "Ġhel": 925,
      "Ġhelp": 926,
      "Ġaround": 927,
      "ultur": 928,
      "¦ģ": 929,
      "è¦ģ": 930,
      "Ġpublic": 931,
      "å½": 932,
      "å±": 933,
      "Ġexample": 934,
      "raph": 935,
      "Ġpresent": 936,
      "Ġinter": 937,
      "Ġvar": 938,
      "Ġvari": 939,
      "ip": 940,
      "Ġrespon": 941,
      "èĥ½": 942,
      "è´": 943,
      "viron": 944,
      "vironment": 945,
      "Ġenvironment": 946,
      "Ġthos": 947,
      "Ġthose": 948,
      "Ġthough": 949,
      "illion": 950,
      "Ġshow": 951,
      "ost": 952,
      "Ġsoci": 953,
      "Ġright": 954,
      "Ġform": 955,
      "ology": 956,
      "olution": 957,
      "__": 958,
      "æķ": 959,
      "rect": 960,
      "Ġdirect": 961,
      "cre": 962,
      "creas": 963,
      "Ġincreas": 964,
      "Ġdist": 965,
      "Ġhum": 966,
      "Ġhuman": 967,
      "åľ°": 968,
      "Ġevery": 969,
      "æŃ": 970,
      "Ġfact": 971,
      "Ġduring": 972,
      "Ġgovernment": 973,
      "éĿ": 974,
      "Ġme": 975,
      "ĠmÃ¡": 976,
      "Ġmit": 977,
      "æĶ": 978,
      "éĹ": 979,
      "éĻ": 980,
      "æĪĲ": 981,
      "ĠmÃ¡s": 982,
      "Ġprof": 983,
      "Ġprop": 984,
      "å¯¹": 985,
      "ress": 986,
      "rib": 987,
      "Ġworl": 988,
      "Ġworld": 989,
      "land": 990,
      "Ġdel": 991,
      "az": 992,
      "Ġsup": 993,
      "Ġsupport": 994,
      "Ġpos": 995,
      "Ġpol": 996,
      "Ġpri": 997,
      "rit": 998,
      "ric": 999,
      "Ġpor": 1000,
      "Ġpl": 1001,
      "Ġplant": 1002,
      "Ġplan": 1003,
      "Ġrequi": 1004,
      "å®¶": 1005,
      "arch": 1006,
      "earch": 1007,
      "Ġresearch": 1008,
      "Ġsich": 1009,
      "Ġsch": 1010,
      "Ġsay": 1011,
      "isch": 1012,
      "ĠSch": 1013,
      "Ġsign": 1014,
      "Ġsignific": 1015,
      "istor": 1016,
      "Ġhistor": 1017,
      "åı¯": 1018,
      "Ġone": 1019,
      "ine": 1020,
      "emp": 1021,
      "Ġwerd": 1022,
      "Ã¼ber": 1023,
      "Ã¼z": 1024,
      "Ä±z": 1025,
      "èĩ": 1026,
      "èĩª": 1027,
      "å°±": 1028,
      "rat": 1029,
      "Ġits": 1030,
      "Ġdas": 1031,
      "Ġreport": 1032,
      "hip": 1033,
      "Ġ-": 1034,
      "Ġback": 1035,
      "Ġuse": 1036,
      "Ġlike": 1037,
      "ition": 1038,
      "conom": 1039,
      "Ġeconom": 1040,
      "ĠRe": 1041,
      "Ġmade": 1042,
      "ful": 1043,
      "Ġcall": 1044,
      "ick": 1045,
      "Åŀ": 1046,
      "ç§": 1047,
      "çľ": 1048,
      "ge": 1049,
      "ission": 1050,
      "ä½ľ": 1051,
      "æĢ": 1052,
      "ĠâĢĺ": 1053,
      "ĠAm": 1054,
      "ĠAmer": 1055,
      "ĠAmeric": 1056,
      "ĠAmerican": 1057,
      "ower": 1058,
      "Ġpower": 1059,
      "ism": 1060,
      "10": 1061,
      "),": 1062,
      "Ġdown": 1063,
      "Ġcontro": 1064,
      "Ġcontrol": 1065,
      "Ġwerden": 1066,
      "ient": 1067,
      "cent": 1068,
      "Ġent": 1069,
      "cient": 1070,
      "Ġpercent": 1071,
      "Ġri": 1072,
      "ĠÄ°": 1073,
      "Ġ5": 1074,
      "ĠUnivers": 1075,
      "ĠUniversity": 1076,
      "Ġart": 1077,
      "ten": 1078,
      "Ġgen": 1079,
      "Ġgener": 1080,
      "outh": 1081,
      "Ä±m": 1082,
      "ĠÃ¼ber": 1083,
      "acion": 1084,
      "å¤ļ": 1085,
      "Ġloc": 1086,
      "ĠCon": 1087,
      "æł": 1088,
      "ological": 1089,
      "fter": 1090,
      "Ġafter": 1091,
      "Wh": 1092,
      "Ġph": 1093,
      "Ġbeen": 1094,
      "Ġbefor": 1095,
      "ources": 1096,
      "Ġproject": 1097,
      "Ġbefore": 1098,
      "ark": 1099,
      "art": 1100,
      "ĠâĢŀ": 1101,
      "Ġ6": 1102,
      "Ġown": 1103,
      "Ġproduct": 1104,
      "Qu": 1105,
      "Ġcons": 1106,
      "çİ": 1107,
      "åİ": 1108,
      "åĳ": 1109,
      "åĵ": 1110,
      "Ġday": 1111,
      "Ġcountry": 1112,
      "Ġwher": 1113,
      "Ġwhere": 1114,
      "ary": 1115,
      "Ġcar": 1116,
      "ely": 1117,
      "ah": 1118,
      "Ġnow": 1119,
      "Ġfind": 1120,
      "ä»ĸ": 1121,
      "Ġcent": 1122,
      "Ġdevelopment": 1123,
      "Ġrequire": 1124,
      "åıĳ": 1125,
      "Ġwrit": 1126,
      "Ġwar": 1127,
      "Ġcap": 1128,
      "Ġcla": 1129,
      "Ġamong": 1130,
      "Ġelect": 1131,
      "æĸ°": 1132,
      "æĸ¹": 1133,
      "ext": 1134,
      "Ġobject": 1135,
      "Ġwithout": 1136,
      "ppro": 1137,
      "Ġappro": 1138,
      "Ġimpro": 1139,
      "Ġlikely": 1140,
      "Ġpop": 1141,
      "Ġpopul": 1142,
      "Ġ&": 1143,
      "ĠÅŁ": 1144,
      "Ġcondition": 1145,
      "Ġaddition": 1146,
      "Ġanother": 1147,
      "Ġstate": 1148,
      "ually": 1149,
      "å¥½": 1150,
      "è½": 1151,
      "cience": 1152,
      "Ġparticip": 1153,
      "æ°": 1154,
      "tom": 1155,
      "Ġdu": 1156,
      "ograph": 1157,
      "Ġbecom": 1158,
      "Ġstudi": 1159,
      "æĹ¥": 1160,
      "éĥ½": 1161,
      "Ġreg": 1162,
      "Ġregion": 1163,
      "æµ": 1164,
      "Ġauch": 1165,
      "Ġsupp": 1166,
      "Ġoder": 1167,
      "Ġoc": 1168,
      "Ġocc": 1169,
      "Ġcre": 1170,
      "tain": 1171,
      "å°ı": 1172,
      "ically": 1173,
      "Ġcomo": 1174,
      "li": 1175,
      "ates": 1176,
      "ĠStates": 1177,
      "les": 1178,
      "Ġbuil": 1179,
      "Ġword": 1180,
      "åŃ¦": 1181,
      "åŃĲ": 1182,
      "Ġcaus": 1183,
      "Ġany": 1184,
      "ä¸ļ": 1185,
      "ä¸ĭ": 1186,
      "ĠbaÅŁ": 1187,
      "fer": 1188,
      "ternational": 1189,
      "ĠNational": 1190,
      "ä¹Ł": 1191,
      "Ġem": 1192,
      "Ġtreat": 1193,
      "Ġtreatment": 1194,
      "Ġgreat": 1195,
      "å·¥": 1196,
      "æ²": 1197,
      "éģ": 1198,
      "ure": 1199,
      "çº": 1200,
      "æĥ": 1201,
      "æ³": 1202,
      "æİ": 1203,
      "Ġevent": 1204,
      "tw": 1205,
      "Ġbetw": 1206,
      "Ġbetwe": 1207,
      "Ġbetween": 1208,
      "Ġthre": 1209,
      "Ġag": 1210,
      "Ġagain": 1211,
      "Ġcontain": 1212,
      "Ġagainst": 1213,
      "Ġlife": 1214,
      "Ġallow": 1215,
      "Ġpers": 1216,
      "Ġperson": 1217,
      "Ġcommon": 1218,
      "Ġcalled": 1219,
      "ĠVer": 1220,
      "Ġexper": 1221,
      "Ġexperi": 1222,
      "iv": 1223,
      "ĠFor": 1224,
      "Ġbuilding": 1225,
      "ĠÃ§ok": 1226,
      "ablish": 1227,
      "Ġestablish": 1228,
      "Ġso": 1229,
      "ount": 1230,
      "åī": 1231,
      "Ġbook": 1232,
      "ĠOn": 1233,
      "Ġoldu": 1234,
      "ĠHow": 1235,
      "Ġtemp": 1236,
      "Ġamount": 1237,
      "ace": 1238,
      "Ã¶z": 1239,
      "ĠÂ": 1240,
      "Ġthree": 1241,
      "Ġbas": 1242,
      "Ġcas": 1243,
      "Ġ[": 1244,
      "Ġsol": 1245,
      "æŀ": 1246,
      "æ¯": 1247,
      "å¦": 1248,
      "çİ°": 1249,
      "Ġear": 1250,
      "Ġearly": 1251,
      "Ġperform": 1252,
      "ame": 1253,
      "Ġsame": 1254,
      "Ġsa": 1255,
      "Ġsaid": 1256,
      "éĿ¢": 1257,
      "Ġplace": 1258,
      "ç½": 1259,
      "row": 1260,
      "Ġwom": 1261,
      "Ġscho": 1262,
      "Ġschool": 1263,
      "Ġbo": 1264,
      "Ġboth": 1265,
      "Ġsimp": 1266,
      "ĠYou": 1267,
      "åīį": 1268,
      "acter": 1269,
      "cep": 1270,
      "cept": 1271,
      "amil": 1272,
      "Ġfamil": 1273,
      "ile": 1274,
      "Ġwhile": 1275,
      "ail": 1276,
      "ailable": 1277,
      "vailable": 1278,
      "aj": 1279,
      "ia": 1280,
      "Ġmake": 1281,
      "Ġmust": 1282,
      "Ġgood": 1283,
      "Ġfood": 1284,
      "ately": 1285,
      "Ġoccur": 1286,
      "Ġhom": 1287,
      "omm": 1288,
      "ĠComm": 1289,
      "åĪĨ": 1290,
      "Ġpract": 1291,
      "ç½ĳ": 1292,
      "Ġesp": 1293,
      "ĠSp": 1294,
      "Ġrep": 1295,
      "Ġrepres": 1296,
      "Ġrepresent": 1297,
      "sch": 1298,
      "lo": 1299,
      "ivi": 1300,
      "Ġactivi": 1301,
      "vidu": 1302,
      "dividu": 1303,
      "Ġindividu": 1304,
      "Ġindividual": 1305,
      "ial": 1306,
      "terial": 1307,
      "Ġmaterial": 1308,
      "alth": 1309,
      "Ġhealth": 1310,
      "ath": 1311,
      "ĠolduÄŁ": 1312,
      "çĲ": 1313,
      "çĲĨ": 1314,
      "çŃ": 1315,
      "iel": 1316,
      "ield": 1317,
      "ER": 1318,
      "ä»¬": 1319,
      "é¢": 1320,
      "Ġ15": 1321,
      "Ġsubject": 1322,
      "Ġvery": 1323,
      "çŃī": 1324,
      "Ġpo": 1325,
      "Ġinterest": 1326,
      "Ġtradition": 1327,
      "Ġmode": 1328,
      "Ġmillion": 1329,
      "å¿ĥ": 1330,
      "Ġredu": 1331,
      "Ġsever": 1332,
      "Ġ17": 1333,
      "Ġ7": 1334,
      "struction": 1335,
      "duct": 1336,
      "struct": 1337,
      "æ³ķ": 1338,
      "lood": 1339,
      "Ġblood": 1340,
      "åħ¬": 1341,
      "Ġce": 1342,
      "Ġcel": 1343,
      "Ġcell": 1344,
      "chn": 1345,
      "echn": 1346,
      "Ġtechn": 1347,
      "ĠEx": 1348,
      "Ã¡n": 1349,
      "Ġtest": 1350,
      "å¤©": 1351,
      "ĠUnit": 1352,
      "ĠUnited": 1353,
      "Ġcause": 1354,
      "Ġstill": 1355,
      "Ġusually": 1356,
      "Ġsocial": 1357,
      "Ġtechnology": 1358,
      "Ġile": 1359,
      "Ġprim": 1360,
      "åĢ": 1361,
      "å¼Ģ": 1362,
      "rin": 1363,
      "Ġprin": 1364,
      "Ġprinci": 1365,
      "Ġpoin": 1366,
      "Ġpoint": 1367,
      "æ¬": 1368,
      "ann": 1369,
      "vention": 1370,
      "Ġrel": 1371,
      "inde": 1372,
      "ffic": 1373,
      "enci": 1374,
      "encia": 1375,
      "Ġdon": 1376,
      "Ġmon": 1377,
      "Ġmaj": 1378,
      "Ġmajor": 1379,
      "cond": 1380,
      "Ġsecond": 1381,
      "Ġcontin": 1382,
      "Ġcontinu": 1383,
      "Ġsur": 1384,
      "ruct": 1385,
      "Ġstruct": 1386,
      "æĦ": 1387,
      "ian": 1388,
      "Ġmean": 1389,
      "Ġ12": 1390,
      "Ġ16": 1391,
      "Ġsignificant": 1392,
      "å¾Ĺ": 1393,
      "ull": 1394,
      "Ġhim": 1395,
      "ression": 1396,
      "Ġdat": 1397,
      "Ġdata": 1398,
      "ĠQu": 1399,
      "Ġet": 1400,
      "Ġ9": 1401,
      "Ġ8": 1402,
      "Ġget": 1403,
      "Ġ198": 1404,
      "Ġspec": 1405,
      "Ġspecific": 1406,
      "cion": 1407,
      "cover": 1408,
      "Ġavailable": 1409,
      "Ġstart": 1410,
      "though": 1411,
      "Ġser": 1412,
      "Ġservi": 1413,
      "Ġer": 1414,
      "Ġed": 1415,
      "Ġter": 1416,
      "Ġterm": 1417,
      "Ġident": 1418,
      "Ġidentif": 1419,
      "Ġpopulation": 1420,
      "çľĭ": 1421,
      "æĭ": 1422,
      "Ġprincip": 1423,
      "Ġexist": 1424,
      "Ġext": 1425,
      "Ġ$": 1426,
      "æ¸": 1427,
      "ĠÃĸ": 1428,
      "Ġmark": 1429,
      "Ġwomen": 1430,
      "æľ¬": 1431,
      "ĠÃ¶n": 1432,
      "Ġant": 1433,
      "ç«": 1434,
      "åĲİ": 1435,
      "Ġscient": 1436,
      "å¦Ĥ": 1437,
      "å¸Ĥ": 1438,
      "Ã¼ÅŁ": 1439,
      "Ġstudents": 1440,
      "ren": 1441,
      "Ġson": 1442,
      "è¿ĩ": 1443,
      "Ã¤n": 1444,
      "oc": 1445,
      "Ġgra": 1446,
      "åĵģ": 1447,
      "count": 1448,
      "ä½ł": 1449,
      "sible": 1450,
      "Ġpossible": 1451,
      "æĮ": 1452,
      "day": 1453,
      "Ġactivit": 1454,
      "Ġprot": 1455,
      "«ĺ": 1456,
      "é«ĺ": 1457,
      "Ġaccount": 1458,
      "ĠÃľ": 1459,
      "ĠÃĩ": 1460,
      "äºİ": 1461,
      "Ġlang": 1462,
      "asÄ±": 1463,
      "ource": 1464,
      "éĺ": 1465,
      "view": 1466,
      "Ġcommunity": 1467,
      "Ã¼k": 1468,
      "èĢĮ": 1469,
      "Ġcultur": 1470,
      "Ġmove": 1471,
      "ä¹ĭ": 1472,
      "Ġequi": 1473,
      "Ġimm": 1474,
      "Ġwant": 1475,
      "ced": 1476,
      "ages": 1477,
      "Ġaccess": 1478,
      "vent": 1479,
      "Ġprevent": 1480,
      "ential": 1481,
      "crib": 1482,
      "ribut": 1483,
      "éģĵ": 1484,
      "part": 1485,
      "gen": 1486,
      "Ġlas": 1487,
      "Ġresources": 1488,
      "Ġusing": 1489,
      "æĥħ": 1490,
      "èĢħ": 1491,
      "fic": 1492,
      "lic": 1493,
      "elf": 1494,
      "lam": 1495,
      "ĠEng": 1496,
      "åĬ¨": 1497,
      "åħ¨": 1498,
      "Ġstand": 1499,
      "Ġstandard": 1500,
      "Ġhand": 1501,
      "Ġland": 1502,
      "stand": 1503,
      "Ġunderstand": 1504,
      "ando": 1505,
      "éĽ": 1506,
      "åĬĽ": 1507,
      "Ġview": 1508,
      "Ġye": 1509,
      "Ġyear": 1510,
      "Ġyears": 1511,
      "Ġlar": 1512,
      "Ġlarge": 1513,
      "Ġlarg": 1514,
      "gan": 1515,
      "Ġorgan": 1516,
      "Ġorganiz": 1517,
      "Ġground": 1518,
      "Ġ30": 1519,
      "è¾": 1520,
      "è¿Ľ": 1521,
      "urn": 1522,
      "Ġcentur": 1523,
      "cor": 1524,
      "cording": 1525,
      "cord": 1526,
      "Ġrecord": 1527,
      "Ġpractic": 1528,
      "hn": 1529,
      "ohn": 1530,
      "ĠJohn": 1531,
      "Ġclos": 1532,
      "urop": 1533,
      "ĠEurop": 1534,
      "Ġspace": 1535,
      "çĶµ": 1536,
      "Ġdiscover": 1537,
      "Ġseveral": 1538,
      "Ġmodel": 1539,
      "æĻ": 1540,
      "åŁ": 1541,
      "Ġedu": 1542,
      "Ġeduc": 1543,
      "Ġvol": 1544,
      "Ġlight": 1545,
      "Ġlive": 1546,
      "Ġmember": 1547,
      "Ġlocal": 1548,
      "atient": 1549,
      "Ġpatient": 1550,
      "Ġide": 1551,
      "Ġrem": 1552,
      "Ġremain": 1553,
      "mall": 1554,
      "Ġsmall": 1555,
      "Ġrefer": 1556,
      "æĢ§": 1557,
      "ator": 1558,
      "ating": 1559,
      "Ġaccording": 1560,
      "ected": 1561,
      "Ġcomple": 1562,
      "æĽ": 1563,
      "Ġcu": 1564,
      "Ġcor": 1565,
      "Ġcl": 1566,
      "Ġcur": 1567,
      "Ġcurr": 1568,
      "Ġcurrent": 1569,
      "line": 1570,
      "Ġcour": 1571,
      "ade": 1572,
      "av": 1573,
      "18": 1574,
      "avi": 1575,
      "æ±": 1576,
      "ĠkÃ¶n": 1577,
      "ĠkÃ¶nn": 1578,
      "ward": 1579,
      "Ġspecies": 1580,
      "log": 1581,
      "æ´": 1582,
      "åĲĮ": 1583,
      "Ġval": 1584,
      "Ġvalu": 1585,
      "ç»ı": 1586,
      "vol": 1587,
      "Ġdes": 1588,
      "Ġdesign": 1589,
      "Ġdescrib": 1590,
      "Ġdem": 1591,
      "man": 1592,
      "Ġclas": 1593,
      "Ġclass": 1594,
      "Ġlangu": 1595,
      "Ġlanguage": 1596,
      "ider": 1597,
      "Ġconsider": 1598,
      "ie": 1599,
      "ĠSie": 1600,
      "ier": 1601,
      "ida": 1602,
      "iy": 1603,
      "ix": 1604,
      "ire": 1605,
      "ĠDie": 1606,
      "Ġnatural": 1607,
      "Ġadd": 1608,
      "ccess": 1609,
      "Ġsuccess": 1610,
      "Ġnecess": 1611,
      "Ġprofes": 1612,
      "è¯´": 1613,
      "Ġapplic": 1614,
      "ection": 1615,
      "unction": 1616,
      "Ġfunction": 1617,
      "Ġpopular": 1618,
      "ribution": 1619,
      "itution": 1620,
      "stitution": 1621,
      "aracter": 1622,
      "Ġcharacter": 1623,
      "ĠÃ§Ä±k": 1624,
      "åĬł": 1625,
      "leri": 1626,
      "æľĢ": 1627,
      "Ġpas": 1628,
      "Ġpublish": 1629,
      "æīĢ": 1630,
      "Ġimpact": 1631,
      "partment": 1632,
      "åģ": 1633,
      "ç¾": 1634,
      "ç¾İ": 1635,
      "çĤ": 1636,
      "çĤ¹": 1637,
      "æĸĩ": 1638,
      "åĮĸ": 1639,
      "ww": 1640,
      "old": 1641,
      "12": 1642,
      "dust": 1643,
      "ĠAnd": 1644,
      "Ġwird": 1645,
      "ud": 1646,
      "uz": 1647,
      "ä½ĵ": 1648,
      "Ġcomplet": 1649,
      "ft": 1650,
      "Ġatt": 1651,
      "Ġapproach": 1652,
      "Ġnach": 1653,
      "ĠOr": 1654,
      "ĠEr": 1655,
      "æĽ´": 1656,
      "ĠFran": 1657,
      "range": 1658,
      "Ġmonth": 1659,
      "thod": 1660,
      "Ġmethod": 1661,
      "Ġbod": 1662,
      "Ġbody": 1663,
      "Ġeducation": 1664,
      "Ġname": 1665,
      "Ġnor": 1666,
      "Ġnu": 1667,
      "Ġnuest": 1668,
      "comp": 1669,
      "mptom": 1670,
      "æľº": 1671,
      "Ġdoes": 1672,
      "cer": 1673,
      "Ġcancer": 1674,
      "____": 1675,
      "Ġ14": 1676,
      "30": 1677,
      "Ġdiffic": 1678,
      "Ġdifficult": 1679,
      "iven": 1680,
      "Ġgiven": 1681,
      "Ġhapp": 1682,
      "Ġindust": 1683,
      "Ġfield": 1684,
      "ious": 1685,
      "Ġsind": 1686,
      "Ġsit": 1687,
      "Ġaddress": 1688,
      "Ġtimes": 1689,
      "lerin": 1690,
      "Ġmight": 1691,
      "ever": 1692,
      "ĠHowever": 1693,
      "Ġhowever": 1694,
      "Ġ100": 1695,
      "ĠGod": 1696,
      "åı¯ä»¥": 1697,
      "Ġris": 1698,
      "Ġrisk": 1699,
      "Ġinvol": 1700,
      "ĠIf": 1701,
      "èĤ": 1702,
      "éĤ": 1703,
      "Ġposition": 1704,
      "Ġconf": 1705,
      "Ġscientist": 1706,
      "Ġscientific": 1707,
      "Ġkull": 1708,
      "Ġkullan": 1709,
      "ados": 1710,
      "Ġlead": 1711,
      "Ġlear": 1712,
      "Ġlearn": 1713,
      "arak": 1714,
      "Ġolarak": 1715,
      "mak": 1716,
      "åľº": 1717,
      "cid": 1718,
      "Ġattack": 1719,
      "Ġelectric": 1720,
      "ricultur": 1721,
      "Ġorder": 1722,
      "Ġmoder": 1723,
      "ĠX": 1724,
      "ĠâĢĶ": 1725,
      "ĠiÅŁ": 1726,
      "è¿ĺ": 1727,
      "amb": 1728,
      "ambi": 1729,
      "ambiÃ©": 1730,
      "ambiÃ©n": 1731,
      "Ġshort": 1732,
      "å®ŀ": 1733,
      "å®ļ": 1734,
      "Ġfew": 1735,
      "ality": 1736,
      "ĠChri": 1737,
      "ĠChrist": 1738,
      "cial": 1739,
      "æı": 1740,
      "æıĲ": 1741,
      "Ġalong": 1742,
      "fficient": 1743,
      "iento": 1744,
      "å¥³": 1745,
      "Ġturn": 1746,
      "Ġrecent": 1747,
      "Ġnational": 1748,
      "Ġvarious": 1749,
      "ĠUS": 1750,
      "Ġinf": 1751,
      "Ġinflu": 1752,
      "omp": 1753,
      "ĠComp": 1754,
      "Ġcountri": 1755,
      "Ġcountries": 1756,
      "Ġread": 1757,
      "read": 1758,
      "ith": 1759,
      "åĲĪ": 1760,
      "å¾Ī": 1761,
      "Ġevi": 1762,
      "Ġgib": 1763,
      "ahr": 1764,
      "ĠBut": 1765,
      "ink": 1766,
      "Ġthink": 1767,
      "Ġlink": 1768,
      "Ġmain": 1769,
      "Ġbeli": 1770,
      "Ġbelie": 1771,
      "Ġplay": 1772,
      "Ġleft": 1773,
      "Ġhistory": 1774,
      "ĠTher": 1775,
      "ĠThere": 1776,
      "Ġevid": 1777,
      "Ġevidence": 1778,
      "Ġspecial": 1779,
      "iyor": 1780,
      "io": 1781,
      "Ġproduction": 1782,
      "Ġ11": 1783,
      "Ġ13": 1784,
      "cul": 1785,
      "cis": 1786,
      "cision": 1787,
      "Ġ0": 1788,
      "ĠÃ¶": 1789,
      "ĠgÃ¶": 1790,
      "Ġmed": 1791,
      "Ġthing": 1792,
      "Ġthere": 1793,
      "Ġfre": 1794,
      "åº¦": 1795,
      "Ġdurch": 1796,
      "uÅŁ": 1797,
      "ual": 1798,
      "laÅŁ": 1799,
      "Ġ197": 1800,
      "æľĪ": 1801,
      "Ġnext": 1802,
      "ä¸»": 1803,
      "ably": 1804,
      "Ġactually": 1805,
      "Ġimprove": 1806,
      "ĠHistor": 1807,
      "Ġpolit": 1808,
      "Ġpolitical": 1809,
      "Ġpolic": 1810,
      "Ġkann": 1811,
      "æĥ³": 1812,
      "//": 1813,
      "://": 1814,
      "Ġorig": 1815,
      "Ġorigin": 1816,
      "Ġ'": 1817,
      "'t": 1818,
      "Ġci": 1819,
      "cially": 1820,
      "Ġich": 1821,
      "www": 1822,
      "ä¿Ŀ": 1823,
      "ĠProgram": 1824,
      "aciones": 1825,
      "ficial": 1826,
      "Ġstor": 1827,
      "Ġonline": 1828,
      "éĤ£": 1829,
      "Ġexperience": 1830,
      "äº§": 1831,
      "Ä±nÄ±n": 1832,
      "è½¦": 1833,
      "Ġclim": 1834,
      "Ġclimate": 1835,
      "Ġsuper": 1836,
      "lock": 1837,
      "lack": 1838,
      "ĠChristian": 1839,
      "ĿĢ": 1840,
      "Ġcentury": 1841,
      "éĥ": 1842,
      "éĥ¨": 1843,
      "éķ": 1844,
      "éķ¿": 1845,
      "ĠSh": 1846,
      "æ¯Ķ": 1847,
      "Ġmus": 1848,
      "Ġemplo": 1849,
      "AR": 1850,
      "Ġmil": 1851,
      "Ġbul": 1852,
      "Ġadv": 1853,
      "ork": 1854,
      "ĠYork": 1855,
      "twork": 1856,
      "Ġnetwork": 1857,
      "vest": 1858,
      "Ġinvest": 1859,
      "ĠgÃ¶r": 1860,
      "æīĭ": 1861,
      "äºĭ": 1862,
      "ungen": 1863,
      "ove": 1864,
      "Ġabove": 1865,
      "ves": 1866,
      "ido": 1867,
      "å±ķ": 1868,
      "masÄ±": 1869,
      "Ġfollowing": 1870,
      "Ġphy": 1871,
      "Ġphys": 1872,
      "Ġphysical": 1873,
      "Ġfamily": 1874,
      "tos": 1875,
      "ers": 1876,
      "éĹ´": 1877,
      "ĠIndi": 1878,
      "æĦı": 1879,
      "å§": 1880,
      "åķ": 1881,
      "Ġlow": 1882,
      "Ġlab": 1883,
      "Ġlist": 1884,
      "Ġles": 1885,
      "Ġless": 1886,
      "Ġli": 1887,
      "Ġlower": 1888,
      "Ġliving": 1889,
      "Ġtext": 1890,
      "ĠHe": 1891,
      "ĠHealth": 1892,
      "Ġartic": 1893,
      "Ġhous": 1894,
      "Ġinfection": 1895,
      "ä¸İ": 1896,
      "è·": 1897,
      "Ġheart": 1898,
      "esearch": 1899,
      "ĠResearch": 1900,
      "xim": 1901,
      "Ġoper": 1902,
      "Ġmodern": 1903,
      "Ġmehr": 1904,
      "Ġmeas": 1905,
      "æĪĳä»¬": 1906,
      "Ġconcer": 1907,
      "Ġconcern": 1908,
      "Ġdah": 1909,
      "Ġdaha": 1910,
      ".\"": 1911,
      "vious": 1912,
      "Ġdisp": 1913,
      "face": 1914,
      "Ġsurface": 1915,
      "Ġmaintain": 1916,
      "ertain": 1917,
      "Ġcertain": 1918,
      "éĩį": 1919,
      "Ä±ÄŁÄ±nÄ±": 1920,
      "ĠCol": 1921,
      "Ġpu": 1922,
      "Ġpued": 1923,
      "cu": 1924,
      "Ġdocu": 1925,
      "Ġdocument": 1926,
      "ug": 1927,
      "Ġdisc": 1928,
      "Ġdiscus": 1929,
      "Ġleg": 1930,
      "Ġleast": 1931,
      "Ġlea": 1932,
      "éĩĳ": 1933,
      "ature": 1934,
      "Ġzum": 1935,
      "éĩĮ": 1936,
      "éĩı": 1937,
      "åİ»": 1938,
      "Ġalway": 1939,
      "ception": 1940,
      "pend": 1941,
      "ymptom": 1942,
      "yp": 1943,
      "Ġtyp": 1944,
      "Ġthey": 1945,
      "lÄ±": 1946,
      "ll": 1947,
      "Ġdid": 1948,
      "Ġdies": 1949,
      "Ġaus": 1950,
      "Ġaffect": 1951,
      "Ġactivities": 1952,
      "ĠEl": 1953,
      "Ġdoct": 1954,
      "fric": 1955,
      "ĠAfric": 1956,
      "Ġconduct": 1957,
      "å¤ĸ": 1958,
      "iod": 1959,
      "Ġperiod": 1960,
      "çĿĢ": 1961,
      "Ġnecessary": 1962,
      "é¡": 1963,
      "æ¬¡": 1964,
      "ä¿¡": 1965,
      "Ġrul": 1966,
      "Ġrun": 1967,
      "Ġgel": 1968,
      "Ġgo": 1969,
      "otential": 1970,
      "dic": 1971,
      "do": 1972,
      "Ġend": 1973,
      "Ġcamp": 1974,
      "ĠSouth": 1975,
      "Ġresearchers": 1976,
      "ĠDe": 1977,
      "ĠDepartment": 1978,
      "oftw": 1979,
      "Ġinvestig": 1980,
      "Ġfactor": 1981,
      "Ġnorm": 1982,
      "éĢļ": 1983,
      "éļ": 1984,
      "Ġcover": 1985,
      "ility": 1986,
      "ibility": 1987,
      "Ġalread": 1988,
      "Ġrelig": 1989,
      "Ġrelative": 1990,
      "Ġrelations": 1991,
      "Ġrelationship": 1992,
      "Ġrelated": 1993,
      "aÄŁ": 1994,
      "ä¸Ģä¸ª": 1995,
      "æĺİ": 1996,
      "Ġeffective": 1997,
      "Ġpain": 1998,
      "abilir": 1999,
      "Ġprevious": 2000,
      "è¡¨": 2001,
      "ĠyapÄ±l": 2002,
      "Ġquality": 2003,
      "larÄ±nÄ±": 2004,
      "Ġpotential": 2005,
      "æ°´": 2006,
      "Ġitself": 2007,
      "ĠsaÄŁ": 2008,
      "èµ·": 2009,
      "èµĦ": 2010,
      "æŀľ": 2011,
      "ĠtambiÃ©n": 2012,
      "11": 2013,
      "ines": 2014,
      "Ġmeasure": 2015,
      "Ġmeasur": 2016,
      "Ä±nd": 2017,
      "Ä±ndan": 2018,
      "Ġequ": 2019,
      "Ġfrequ": 2020,
      "Ġlim": 2021,
      "Ġlimit": 2022,
      "Ġanim": 2023,
      "Ġanimal": 2024,
      "ral": 2025,
      "Ġgeneral": 2026,
      "ring": 2027,
      "èī": 2028,
      "èī²": 2029,
      "resident": 2030,
      "Ġil": 2031,
      "Ġi": 2032,
      "Ġihr": 2033,
      "Ġih": 2034,
      "Ġ|": 2035,
      "Ġnever": 2036,
      "Ã±os": 2037,
      "Ġenough": 2038,
      "å°Ĩ": 2039,
      "æ°ĳ": 2040,
      "ç®": 2041,
      "çķ": 2042,
      "ustral": 2043,
      "ç¬": 2044,
      "ç¬¬": 2045,
      "çĻ": 2046,
      "Ġdef": 2047,
      "å»": 2048,
      "å»º": 2049,
      "ration": 2050,
      "é£": 2051,
      "ĠAmerica": 2052,
      "abaj": 2053,
      "rabaj": 2054,
      "Ġtrabaj": 2055,
      "acak": 2056,
      "lob": 2057,
      "Ġglob": 2058,
      "åĿ": 2059,
      "Ġhat": 2060,
      "Ġhaving": 2061,
      "ince": 2062,
      "Ġsince": 2063,
      "Ġset": 2064,
      "ceive": 2065,
      "Ġreceive": 2066,
      "Ġprotect": 2067,
      "çĦ": 2068,
      "çĦ¶": 2069,
      "è¶": 2070,
      "åħ¶": 2071,
      "ç¤": 2072,
      "ç¨": 2073,
      "Ġcuando": 2074,
      "mek": 2075,
      "Ġweek": 2076,
      "Ġcost": 2077,
      "soci": 2078,
      "Ġassoci": 2079,
      "Ġassociated": 2080,
      "ĠSoci": 2081,
      "Ġsie": 2082,
      "Ġnear": 2083,
      "ĠkÃ¶nnen": 2084,
      "ischen": 2085,
      "red": 2086,
      "obre": 2087,
      "Ġsobre": 2088,
      "çĽ¸": 2089,
      "çĽ®": 2090,
      "Ġmult": 2091,
      "å¹³": 2092,
      "Ġthroughout": 2093,
      "Ġpass": 2094,
      "lÄ±k": 2095,
      "itt": 2096,
      "Ġlitt": 2097,
      "Ġlittle": 2098,
      "eit": 2099,
      "Ġblack": 2100,
      "åĽł": 2101,
      "ä½Ĩ": 2102,
      "Ġpresident": 2103,
      "thing": 2104,
      "Ġsomething": 2105,
      "Ã¼m": 2106,
      "cur": 2107,
      "ÄŁi": 2108,
      "ments": 2109,
      "ament": 2110,
      "agement": 2111,
      "Ġmanagement": 2112,
      "ique": 2113,
      "Ġtechnique": 2114,
      "ien": 2115,
      "den": 2116,
      "ences": 2117,
      "Ġclaim": 2118,
      "Ġcentral": 2119,
      "urch": 2120,
      "Ġ196": 2121,
      "uth": 2122,
      "uthor": 2123,
      "Ġauthor": 2124,
      "ĠEurope": 2125,
      "Ġ2012": 2126,
      "Ġ2010": 2127,
      "Ġ2011": 2128,
      "åĨħ": 2129,
      "Ġleader": 2130,
      "Ġsaf": 2131,
      "å½ĵ": 2132,
      "Ġsymptom": 2133,
      "Ġentire": 2134,
      "Ġentre": 2135,
      "Ġvor": 2136,
      "ĠyaÅŁ": 2137,
      "åģļ": 2138,
      "Ã¼ck": 2139,
      "ĠÃ¼": 2140,
      "Ã¼hr": 2141,
      "Ġum": 2142,
      "Ġot": 2143,
      "åĬ¡": 2144,
      "ç®¡": 2145,
      "æ²¡": 2146,
      "Ġdise": 2147,
      "Ġdiseas": 2148,
      "Ġdisease": 2149,
      "Ġfour": 2150,
      "Ġalready": 2151,
      "åħ³": 2152,
      "Ġtien": 2153,
      "vice": 2154,
      "Ġstudies": 2155,
      "rong": 2156,
      "Ġstrong": 2157,
      "ĠJew": 2158,
      "Ġrat": 2159,
      "Ġradi": 2160,
      "udi": 2161,
      "Ġattemp": 2162,
      "Ġarticle": 2163,
      "Ġtru": 2164,
      "Ġmedical": 2165,
      "Ġprofession": 2166,
      "light": 2167,
      "cy": 2168,
      "ugust": 2169,
      "Ġcolle": 2170,
      "ĠestÃ¡": 2171,
      "Ġrange": 2172,
      "Ġ50": 2173,
      "rodu": 2174,
      "trodu": 2175,
      "fort": 2176,
      "ffort": 2177,
      "Ġeffort": 2178,
      "rand": 2179,
      "Ġmultip": 2180,
      "Ġproper": 2181,
      "ĠgÃ¶re": 2182,
      "Ġkon": 2183,
      "Ãºn": 2184,
      "Ġuniver": 2185,
      "raft": 2186,
      "aft": 2187,
      "schaft": 2188,
      "Ä±na": 2189,
      "ather": 2190,
      "Ġrather": 2191,
      "gether": 2192,
      "Ġtogether": 2193,
      "urther": 2194,
      "Ġfurther": 2195,
      "Ġotro": 2196,
      "Ġmarket": 2197,
      "Ġeconomic": 2198,
      "å½±": 2199,
      "Ġgibi": 2200,
      "ä¸ī": 2201,
      "ï¼ī": 2202,
      "ï¼ģ": 2203,
      "ï¼Ī": 2204,
      "ï¼Ł": 2205,
      "Ġsuccessful": 2206,
      "Ġdefin": 2207,
      "vers": 2208,
      "Ãľ": 2209,
      "Ã¢": 2210,
      "âĢ¢": 2211,
      "Ġscience": 2212,
      "Ġparent": 2213,
      "ĠCent": 2214,
      "Ġlaw": 2215,
      "å·¥ä½ľ": 2216,
      "15": 2217,
      "ĠSpiel": 2218,
      "Ġemploy": 2219,
      "Ġpost": 2220,
      "Ġreligious": 2221,
      "èģ": 2222,
      "Ġindustry": 2223,
      "èĩªå·": 2224,
      "èĩªå·±": 2225,
      "åķĨ": 2226,
      "Ġtemper": 2227,
      "Ġtemperature": 2228,
      "åĮº": 2229,
      "ON": 2230,
      "AN": 2231,
      "IN": 2232,
      "EN": 2233,
      "Ġadult": 2234,
      "Ġtake": 2235,
      "ourn": 2236,
      "ournal": 2237,
      "ĠBrit": 2238,
      "ĠBritish": 2239,
      "Ġmach": 2240,
      "imiz": 2241,
      "cade": 2242,
      "éľ": 2243,
      "Ġrespect": 2244,
      "Ġhead": 2245,
      "Ġtri": 2246,
      "Ġservices": 2247,
      "ç¨ĭ": 2248,
      "Ã±o": 2249,
      "Ġwind": 2250,
      "Ġeinem": 2251,
      "Ġeine": 2252,
      "16": 2253,
      "Ġstructure": 2254,
      "Ġinvolved": 2255,
      "depend": 2256,
      "Ġdepend": 2257,
      "lex": 2258,
      "Ġcomplex": 2259,
      "ä½į": 2260,
      "Ġcivi": 2261,
      "ciones": 2262,
      "Ġmin": 2263,
      "æĦŁ": 2264,
      "Ł¥": 2265,
      "ocus": 2266,
      "Ġfocus": 2267,
      "Ġespe": 2268,
      "Ġespecially": 2269,
      "çī¹": 2270,
      "Ġtravel": 2271,
      "17": 2272,
      "Ġfull": 2273,
      "Ġactivity": 2274,
      "pos": 2275,
      "æŃ¤": 2276,
      "æŃ£": 2277,
      "Ġeas": 2278,
      "Ġindic": 2279,
      "æĹł": 2280,
      "havi": 2281,
      "Ġbehavi": 2282,
      "ĠJahr": 2283,
      "Ġte": 2284,
      "Ġteach": 2285,
      "Ġge": 2286,
      "ĠgeÃ§": 2287,
      "ĠgÃ¼n": 2288,
      "Ġbecome": 2289,
      "Ġcreated": 2290,
      "Ġcreate": 2291,
      "Ġgive": 2292,
      "itive": 2293,
      "Ġzur": 2294,
      "min": 2295,
      "minist": 2296,
      "Ġadminist": 2297,
      "rom": 2298,
      "round": 2299,
      "ç´": 2300,
      "Ġflow": 2301,
      "Ġoften": 2302,
      "èĢģ": 2303,
      "Ġspread": 2304,
      "ĠÃ¶z": 2305,
      "Ġsimple": 2306,
      "ĠNor": 2307,
      "ĠNorth": 2308,
      "Ġaccept": 2309,
      "Ġglobal": 2310,
      "istic": 2311,
      "Ġ194": 2312,
      "rop": 2313,
      "ros": 2314,
      "Ġacros": 2315,
      "pri": 2316,
      "Ġappropri": 2317,
      "ep": 2318,
      "ĠWe": 2319,
      "oward": 2320,
      "Ġtoward": 2321,
      "off": 2322,
      "What": 2323,
      "Ġcomb": 2324,
      "Ġbest": 2325,
      "ĠÅŁek": 2326,
      "gest": 2327,
      "ggest": 2328,
      "Ġsuggest": 2329,
      "ï¼Ľ": 2330,
      "ĠyÄ±l": 2331,
      "Ġlet": 2332,
      "Ġgrowth": 2333,
      "ĠEngl": 2334,
      "ĠEnglish": 2335,
      "Ġcorrect": 2336,
      "Ġindustri": 2337,
      "ĠgroÃŁ": 2338,
      "rug": 2339,
      "Ġdrug": 2340,
      "è°": 2341,
      "14": 2342,
      "val": 2343,
      "Ġpriv": 2344,
      "Ġcle": 2345,
      "Ġclear": 2346,
      "rain": 2347,
      "Ġbrain": 2348,
      "came": 2349,
      "Ġbecame": 2350,
      "comm": 2351,
      "commend": 2352,
      "Ġrecommend": 2353,
      "Ġstates": 2354,
      "åħ¥": 2355,
      "elves": 2356,
      "ĠWhat": 2357,
      "13": 2358,
      "ario": 2359,
      "æ´»": 2360,
      "Ġcame": 2361,
      "ĠAustral": 2362,
      "åĪ¶": 2363,
      "Ġactual": 2364,
      "Ġreal": 2365,
      "Ġrealiz": 2366,
      "Ġref": 2367,
      "Ġrest": 2368,
      "Ġdoctor": 2369,
      "ĠdÃ¼ÅŁ": 2370,
      "Ġ25": 2371,
      "Ġregard": 2372,
      "Ġbeing": 2373,
      "Ġservice": 2374,
      "åĳĺ": 2375,
      "çī©": 2376,
      "Ġsociet": 2377,
      "Ġthreat": 2378,
      "ĠWhen": 2379,
      "Ġconsist": 2380,
      "äºĽ": 2381,
      "Ġvir": 2382,
      "rÃ¤": 2383,
      "å®ī": 2384,
      "å·²": 2385,
      "Ġagricultur": 2386,
      "ite": 2387,
      "Ġwhite": 2388,
      "Ġchange": 2389,
      "Ġchanges": 2390,
      "Ġliter": 2391,
      "ä¸ŃåĽ½": 2392,
      "Ġgre": 2393,
      "ĠScience": 2394,
      "Ã¼rk": 2395,
      "ĠTÃ¼rk": 2396,
      "Ġopport": 2397,
      "Ġopportun": 2398,
      "Ġopen": 2399,
      "Ġoppos": 2400,
      "ES": 2401,
      "OR": 2402,
      "Ġhour": 2403,
      "Ġhacer": 2404,
      "åħ¬åı": 2405,
      "åħ¬åı¸": 2406,
      "å¸¸": 2407,
      "åıĬ": 2408,
      "Ġpositive": 2409,
      "Ġgenerally": 2410,
      "Ġolan": 2411,
      "èĪ": 2412,
      "çĪ": 2413,
      "ä¹Ī": 2414,
      "Ġmedic": 2415,
      "lan": 2416,
      "Ġcollection": 2417,
      "èĬ": 2418,
      "Ġbre": 2419,
      "Ġtre": 2420,
      "Ġcontribut": 2421,
      "Ġcontra": 2422,
      "Ġcontact": 2423,
      "Ġbehavior": 2424,
      "Ġdecision": 2425,
      "cciÃ³n": 2426,
      "æľŁ": 2427,
      "ĠWith": 2428,
      "ĠEngland": 2429,
      "ĠAugust": 2430,
      "Ġreduce": 2431,
      "Ġdeath": 2432,
      "ĠÃ¼z": 2433,
      "ĠÃ¼zer": 2434,
      "Ġger": 2435,
      "Ġgerek": 2436,
      "Ġgu": 2437,
      "å¼ı": 2438,
      "ĠdeÄŁ": 2439,
      "Ġcoll": 2440,
      "Ġcolor": 2441,
      "lus": 2442,
      "clus": 2443,
      "Ġproduced": 2444,
      "Ġproduce": 2445,
      "curity": 2446,
      "199": 2447,
      "ĠPart": 2448,
      "ĠCount": 2449,
      "ÄŁin": 2450,
      "iemp": 2451,
      "lay": 2452,
      "Ä±y": 2453,
      "Ä±yor": 2454,
      "Ġappe": 2455,
      "Ġappear": 2456,
      "Ġline": 2457,
      "An": 2458,
      "AS": 2459,
      "Ġpast": 2460,
      "uture": 2461,
      "Ġfuture": 2462,
      "Ġpublished": 2463,
      "Ġapproxim": 2464,
      "Ġsomet": 2465,
      "Ġsometim": 2466,
      "Ġmet": 2467,
      "Ġwide": 2468,
      "Ġnon": 2469,
      "Ġsource": 2470,
      "å¹¶": 2471,
      "æ¶": 2472,
      "erman": 2473,
      "ĠGerman": 2474,
      "rict": 2475,
      "rÃ¡": 2476,
      "Ġ2009": 2477,
      "rate": 2478,
      "Ġstrate": 2479,
      "ax": 2480,
      "Ġteam": 2481,
      "ç©": 2482,
      "åĪ©": 2483,
      "Ġnoch": 2484,
      "Ġserious": 2485,
      "åĲį": 2486,
      "æį": 2487,
      "Ġmaking": 2488,
      "Ġbegan": 2489,
      "å¢": 2490,
      "Ġearth": 2491,
      "Ġearli": 2492,
      "Ġzw": 2493,
      "ĠÃ¶ÄŁ": 2494,
      "thern": 2495,
      "outhern": 2496,
      "ither": 2497,
      "Ġeither": 2498,
      "Ġdam": 2499,
      "Ġnur": 2500,
      "æķĻ": 2501,
      "é¦": 2502,
      "ç§į": 2503,
      "pect": 2504,
      "rup": 2505,
      "ĠPresident": 2506,
      "Ġtransport": 2507,
      "amiento": 2508,
      "imiento": 2509,
      "rip": 2510,
      "crip": 2511,
      "cription": 2512,
      "Ġnormal": 2513,
      "Ġintrodu": 2514,
      "Ġ24": 2515,
      "irm": 2516,
      "erv": 2517,
      "ervation": 2518,
      "Ġbring": 2519,
      "Ġmej": 2520,
      "Ġmejor": 2521,
      "urpos": 2522,
      "Ġpurpos": 2523,
      "ĠInformation": 2524,
      "è·¯": 2525,
      "Ġ=": 2526,
      "Ġconcept": 2527,
      "ĠTÃ¼rkiy": 2528,
      "ized": 2529,
      "aÃ±": 2530,
      "Ġalways": 2531,
      "Ġregular": 2532,
      "çīĩ": 2533,
      "Ġhast": 2534,
      "æģ": 2535,
      "ently": 2536,
      "oph": 2537,
      "Ġspeak": 2538,
      "Ġbreak": 2539,
      "ĠyÃ¶n": 2540,
      "Ġwritten": 2541,
      "Ġdisplay": 2542,
      "ification": 2543,
      "Ġsonra": 2544,
      "æķ°": 2545,
      "ador": 2546,
      "Ġlabor": 2547,
      "ĠEnvironment": 2548,
      "Ġ40": 2549,
      "cret": 2550,
      "ĠChurch": 2551,
      "Ġ2008": 2552,
      "stit": 2553,
      "stitut": 2554,
      "ĠInstitut": 2555,
      "Ġlast": 2556,
      "ĠInternational": 2557,
      "Ġcommunities": 2558,
      "Ġcommunic": 2559,
      "åºĶ": 2560,
      "ĠÅŀ": 2561,
      "cular": 2562,
      "cle": 2563,
      "Ġnucle": 2564,
      "oftwar": 2565,
      "éľĢ": 2566,
      "Ġnorth": 2567,
      "atures": 2568,
      "è£": 2569,
      "èĲ": 2570,
      "ĠPh": 2571,
      "Ġhappen": 2572,
      "çŁ¥": 2573,
      "çľŁ": 2574,
      "Ġbelow": 2575,
      "åĸ": 2576,
      "å£": 2577,
      "amos": 2578,
      "Ġhard": 2579,
      "ĠWhile": 2580,
      "Ġzam": 2581,
      "termin": 2582,
      "atter": 2583,
      "Ġmatter": 2584,
      "Ġmen": 2585,
      "Ġmu": 2586,
      "Ġdetermin": 2587,
      "igen": 2588,
      "endi": 2589,
      "Ġsitu": 2590,
      "Ġbased": 2591,
      "ĠgerÃ§": 2592,
      "ĠgerÃ§ek": 2593,
      "Ġquick": 2594,
      "Ġside": 2595,
      "Ġgran": 2596,
      "ĠState": 2597,
      "Ġbelieve": 2598,
      "åı°": 2599,
      "è¢": 2600,
      "è¢«": 2601,
      "çĲĥ": 2602,
      "ä½¿": 2603,
      "æĶ¿": 2604,
      "æĪĸ": 2605,
      "Ġregul": 2606,
      "ayÄ±": 2607,
      "Ġhay": 2608,
      "ĠThey": 2609,
      "selves": 2610,
      "mselves": 2611,
      "Ġthemselves": 2612,
      "æľį": 2613,
      "ternet": 2614,
      "ĠInternet": 2615,
      "ĠAfter": 2616,
      "Ġsimply": 2617,
      "ister": 2618,
      "ond": 2619,
      "ord": 2620,
      "ild": 2621,
      "ĠAd": 2622,
      "Ġvac": 2623,
      "cto": 2624,
      "Ġwhol": 2625,
      "ization": 2626,
      "Ġsiz": 2627,
      "vision": 2628,
      "Ġsurvi": 2629,
      "ĠAb": 2630,
      "Ġacross": 2631,
      "Ġcombin": 2632,
      "éĹ®": 2633,
      "æ²¡æľī": 2634,
      "Die": 2635,
      "ctober": 2636,
      "ĠOctober": 2637,
      "Ã¤t": 2638,
      "keit": 2639,
      "beit": 2640,
      "ĠZeit": 2641,
      "uk": 2642,
      "Ġprovid": 2643,
      "Ġprovided": 2644,
      "æµ·": 2645,
      "Ġbulun": 2646,
      "ç³": 2647,
      "ç³»": 2648,
      "ç¥": 2649,
      "æİ¥": 2650,
      "cht": 2651,
      "turn": 2652,
      "Ġreturn": 2653,
      "etic": 2654,
      "Ġhaben": 2655,
      "Ġhabit": 2656,
      "ital": 2657,
      "Ġcapital": 2658,
      "Ġmilit": 2659,
      "Ġmilitary": 2660,
      "Ġelectron": 2661,
      "åŁº": 2662,
      "º«": 2663,
      "èº«": 2664,
      "Ġunivers": 2665,
      "Ġguide": 2666,
      "Ġgenetic": 2667,
      "éĹ¨": 2668,
      "Ġreach": 2669,
      ".âĢĿ": 2670,
      "ufact": 2671,
      "Ġmanufact": 2672,
      "æ¸¸": 2673,
      "Ġmakes": 2674,
      "verage": 2675,
      "éĶ": 2676,
      "é»": 2677,
      "Ġinternational": 2678,
      "Ġinform": 2679,
      "Ġhome": 2680,
      "Ġneces": 2681,
      "Ġable": 2682,
      "Ġu": 2683,
      "Ġuy": 2684,
      "Ġill": 2685,
      "amente": 2686,
      "ances": 2687,
      "ĠOrgan": 2688,
      "Ġpredic": 2689,
      "Ġobtain": 2690,
      "Ġotra": 2691,
      "ox": 2692,
      "ĠJewish": 2693,
      "ĠIndian": 2694,
      "Ġconsum": 2695,
      "Ġchem": 2696,
      "Ġchemical": 2697,
      "ĠdoÄŁ": 2698,
      "nes": 2699,
      "ness": 2700,
      "Ġreco": 2701,
      "Ġrecog": 2702,
      "Ġrecogn": 2703,
      "å¥¹": 2704,
      "ccording": 2705,
      "Ä±nÄ±z": 2706,
      "lement": 2707,
      "Ġimplement": 2708,
      "é¢ĺ": 2709,
      "Ġzaman": 2710,
      "åŁİ": 2711,
      "Ġpap": 2712,
      "Ġmoment": 2713,
      "Ġrequired": 2714,
      "ld": 2715,
      "orld": 2716,
      "ĠWorld": 2717,
      "Ġwild": 2718,
      "tention": 2719,
      "Ġuyg": 2720,
      "par": 2721,
      "Ġprepar": 2722,
      "Ġsepar": 2723,
      "ĠÃ§al": 2724,
      "ĠÃ§alÄ±ÅŁ": 2725,
      "acional": 2726,
      "Ġrespons": 2727,
      "Ġresponsible": 2728,
      "Ġcrit": 2729,
      "Ġsc": 2730,
      "Ġtar": 2731,
      "Ġcity": 2732,
      "Ġcharacteristic": 2733,
      "ä»İ": 2734,
      "Ã¤r": 2735,
      "æį®": 2736,
      "iert": 2737,
      "ept": 2738,
      "eptember": 2739,
      "eep": 2740,
      "Ġkeep": 2741,
      "Ġstep": 2742,
      "ĠSeptember": 2743,
      "Ġneg": 2744,
      "Ġstrateg": 2745,
      "Ġequip": 2746,
      "Ġshown": 2747,
      "è®¾": 2748,
      "Ġchurch": 2749,
      "Ġapproximately": 2750,
      "Ther": 2751,
      "There": 2752,
      "ference": 2753,
      "çł": 2754,
      "lichkeit": 2755,
      "ç¤º": 2756,
      "ç¤¾": 2757,
      "Ġfac": 2758,
      "acaÄŁ": 2759,
      "Ġfin": 2760,
      "Ġfish": 2761,
      "amin": 2762,
      "heit": 2763,
      "Ġnam": 2764,
      "è§£": 2765,
      "ä»£": 2766,
      "Ġprivate": 2767,
      "Ġ2007": 2768,
      "ologist": 2769,
      "volution": 2770,
      "Ġevolution": 2771,
      "ov": 2772,
      "Ġmount": 2773,
      "Ġcreat": 2774,
      "Ġsometimes": 2775,
      "Ġlib": 2776,
      "Ġstructur": 2777,
      "Ġimag": 2778,
      "äº¤": 2779,
      "Ġmovement": 2780,
      "ãĢĬ": 2781,
      "Ġlearning": 2782,
      "imil": 2783,
      "imilar": 2784,
      "Ġsimilar": 2785,
      "Ġdom": 2786,
      "ome": 2787,
      "ĠSome": 2788,
      "ĠdÃ¶n": 2789,
      "Ġcours": 2790,
      "Ġcourse": 2791,
      "Ġkind": 2792,
      "inden": 2793,
      "Ġkad": 2794,
      "Ġkadar": 2795,
      "Ġdamage": 2796,
      "Ġold": 2797,
      "Ġtiemp": 2798,
      "Ġsex": 2799,
      "Ġsk": 2800,
      "Ġskill": 2801,
      "Ġ2013": 2802,
      "Ã¤hr": 2803,
      "kt": 2804,
      "ank": 2805,
      "rink": 2806,
      "Ġthought": 2807,
      "Ġreview": 2808,
      "Ġemb": 2809,
      "las": 2810,
      "Ġsays": 2811,
      "Ġfund": 2812,
      "Ġfundament": 2813,
      "utsch": 2814,
      "ĠDeutsch": 2815,
      "ĠDevelop": 2816,
      "wh": 2817,
      "ios": 2818,
      "Ġweb": 2819,
      "iri": 2820,
      "Ġdri": 2821,
      "Ġdrink": 2822,
      "fahr": 2823,
      "mÄ±ÅŁ": 2824,
      "vo": 2825,
      "void": 2826,
      "èĩ³": 2827,
      "undred": 2828,
      "Ġhundred": 2829,
      "Ġcontent": 2830,
      "mitt": 2831,
      "çĽ´": 2832,
      "æĬĢ": 2833,
      "æľįåĬ¡": 2834,
      "éħ": 2835,
      "Ġalthough": 2836,
      "ĠAlthough": 2837,
      "ĠAll": 2838,
      "ĠAct": 2839,
      "You": 2840,
      "ä»¶": 2841,
      "Ġheld": 2842,
      "dem": 2843,
      "æīĵ": 2844,
      "Ġnorthern": 2845,
      "Ġattention": 2846,
      "Ġdivers": 2847,
      "ĠRiver": 2848,
      "åĽŀ": 2849,
      "è¨": 2850,
      "Ġrequires": 2851,
      "Ġaway": 2852,
      "geb": 2853,
      "Ġespecial": 2854,
      "miÅŁ": 2855,
      "Ġolm": 2856,
      "ĠoluÅŁ": 2857,
      "Ġprotection": 2858,
      "Ġbro": 2859,
      "auf": 2860,
      "ĠAuf": 2861,
      "Ġinclud": 2862,
      "dÄ±r": 2863,
      "tÄ±r": 2864,
      "Ġexpla": 2865,
      "Ġexplain": 2866,
      "ĠTechn": 2867,
      "idade": 2868,
      "Ġliber": 2869,
      "Ġactive": 2870,
      "çº¿": 2871,
      "ĠÂ¿": 2872,
      "æĶ¾": 2873,
      "æĶ¶": 2874,
      "ãĢĭ": 2875,
      "Ġfu": 2876,
      "ump": 2877,
      "umption": 2878,
      "gu": 2879,
      "Ġargu": 2880,
      "erg": 2881,
      "Ġenerg": 2882,
      "Ġenergy": 2883,
      "gin": 2884,
      "Ġbegin": 2885,
      "Ġarch": 2886,
      "ĠThat": 2887,
      "Ġestim": 2888,
      "Ġnue": 2889,
      "Ġnuev": 2890,
      "Ġimage": 2891,
      "Ġmy": 2892,
      "Ġmar": 2893,
      "Ġdiag": 2894,
      "Ġdiagn": 2895,
      "Ġthings": 2896,
      "Ġoccup": 2897,
      "Ġsurround": 2898,
      "ĠdeÄŁiÅŁ": 2899,
      "eb": 2900,
      "one": 2901,
      "ason": 2902,
      "Ġreason": 2903,
      "Ġprob": 2904,
      "Ġprobably": 2905,
      "æĮģ": 2906,
      "é£İ": 2907,
      "ship": 2908,
      "Ġsahip": 2909,
      "Ġpaper": 2910,
      "Ġtoday": 2911,
      "æł·": 2912,
      "Ġ2000": 2913,
      "ĠWeb": 2914,
      "è§Ĩ": 2915,
      "æĬ¥": 2916,
      "Ġmag": 2917,
      "Ġmas": 2918,
      "How": 2919,
      "ki": 2920,
      "ativ": 2921,
      "Ġcri": 2922,
      "Ġcir": 2923,
      "ĠProf": 2924,
      "led": 2925,
      "ledge": 2926,
      "Ġknowledge": 2927,
      "Ã¼l": 2928,
      "Ġincluded": 2929,
      "Ġweight": 2930,
      "åıĳå±ķ": 2931,
      "duc": 2932,
      "ĠEduc": 2933,
      "åİŁ": 2934,
      "AT": 2935,
      "éĹ®é¢ĺ": 2936,
      "Ġreally": 2937,
      "Ġvariet": 2938,
      "æ·": 2939,
      "Ġcare": 2940,
      "Ġattempt": 2941,
      "Ġ--": 2942,
      "Ġcal": 2943,
      "Ġcalcul": 2944,
      "Ġhal": 2945,
      "Ġhalf": 2946,
      "piel": 2947,
      "Ġnuevo": 2948,
      "åıª": 2949,
      "å¼º": 2950,
      "Ġhar": 2951,
      "ĠChild": 2952,
      "æ°Ķ": 2953,
      "lant": 2954,
      "etz": 2955,
      "ĠEnerg": 2956,
      "Ġdifference": 2957,
      "Ġdifferences": 2958,
      "Ġwww": 2959,
      "éĴ": 2960,
      "lor": 2961,
      "Ġexplor": 2962,
      "Ġexpos": 2963,
      "ahl": 2964,
      "Ġfamilies": 2965,
      "Ġdeliver": 2966,
      "Ġcommand": 2967,
      "Ġsources": 2968,
      "Ġimages": 2969,
      "Ġstat": 2970,
      "Ġthous": 2971,
      "Ġthousand": 2972,
      "Ġjob": 2973,
      "Ġmism": 2974,
      "ivit": 2975,
      "ivity": 2976,
      "Ġclean": 2977,
      "Ġthir": 2978,
      "Ġthird": 2979,
      "Ã§Ä±k": 2980,
      "rol": 2981,
      "orn": 2982,
      "ory": 2983,
      "rown": 2984,
      "On": 2985,
      "ĠJournal": 2986,
      "Ġjournal": 2987,
      "Ġshe": 2988,
      "Ġshar": 2989,
      "ĠPol": 2990,
      "Ġ/": 2991,
      "Ġmuy": 2992,
      "Ġsix": 2993,
      "Ġaverage": 2994,
      "ĠWill": 2995,
      "ĠArbeit": 2996,
      "Ġmeet": 2997,
      "Ġvirus": 2998,
      "oto": 2999,
      "Ġphoto": 3000,
      "Ġflu": 3001,
      "ater": 3002,
      "Ġgreater": 3003,
      "iter": 3004,
      "Ġweiter": 3005,
      "Ġlater": 3006,
      "Ġparticularly": 3007,
      "Ġextre": 3008,
      "Ġextrem": 3009,
      "Ġextra": 3010,
      "Ġprom": 3011,
      "Ġproced": 3012,
      "Ġremember": 3013,
      "Ġtax": 3014,
      "yn": 3015,
      "En": 3016,
      "El": 3017,
      "pril": 3018,
      "ĠApril": 3019,
      "Ġinfluence": 3020,
      "Ġoriginal": 3021,
      "Ġeinen": 3022,
      "Ġeiner": 3023,
      "äºĮ": 3024,
      "Ġeng": 3025,
      "Ġengine": 3026,
      "Ġalg": 3027,
      "Ġalgun": 3028,
      "af": 3029,
      "Ġtaraf": 3030,
      "ĠtarafÄ±ndan": 3031,
      "ĠOnline": 3032,
      "Ġmeans": 3033,
      "Ġcells": 3034,
      "Ġwhole": 3035,
      "Ġreligion": 3036,
      "Ġaccomp": 3037,
      "iniz": 3038,
      "Ġemission": 3039,
      "Ġpat": 3040,
      "Ġpattern": 3041,
      "ç§ĳ": 3042,
      "å°ĳ": 3043,
      "Ġappropriate": 3044,
      "Ġcritical": 3045,
      "Ġseem": 3046,
      "åĭ": 3047,
      "èĭ": 3048,
      "Ġresident": 3049,
      "enn": 3050,
      "Ġwenn": 3051,
      "riend": 3052,
      "Ġfriend": 3053,
      "rid": 3054,
      "ridge": 3055,
      "leas": 3056,
      "Ġreleas": 3057,
      "ample": 3058,
      "ç²": 3059,
      "Ġfree": 3060,
      "Ġdiscussion": 3061,
      "ium": 3062,
      "ired": 3063,
      "Ġpersonal": 3064,
      "igkeit": 3065,
      "get": 3066,
      "Ġtarget": 3067,
      "Ġveget": 3068,
      "ges": 3069,
      "çĶ±": 3070,
      "Ġdiagnos": 3071,
      "atory": 3072,
      "Ġarm": 3073,
      "Ġself": 3074,
      "self": 3075,
      "Ġhimself": 3076,
      "Ġdeveloped": 3077,
      "demÃ¡": 3078,
      "most": 3079,
      "Ġalmost": 3080,
      "25": 3081,
      "adÄ±r": 3082,
      "Ġupon": 3083,
      "Ġseason": 3084,
      "æİ¨": 3085,
      "Ġsto": 3086,
      "Ġprimary": 3087,
      "Ġprimer": 3088,
      "Ġperformance": 3089,
      ",\"": 3090,
      "Ġsyn": 3091,
      "Ġsouth": 3092,
      "Ġtry": 3093,
      "Ġtemperatures": 3094,
      "æ¯ı": 3095,
      "Ġexperiment": 3096,
      "ĠJap": 3097,
      "ĠJapan": 3098,
      "ĠJul": 3099,
      "anz": 3100,
      "é©": 3101,
      "æµģ": 3102,
      "ĠRo": 3103,
      "jo": 3104,
      "stant": 3105,
      "Ġconcent": 3106,
      "Ġkur": 3107,
      "Ġdemand": 3108,
      "leÅŁ": 3109,
      "ĠgerÃ§ekleÅŁ": 3110,
      "ĠExp": 3111,
      "gency": 3112,
      "Ġmountain": 3113,
      "èģĶ": 3114,
      "Ġoffer": 3115,
      "Ġagre": 3116,
      "å¿«": 3117,
      "IV": 3118,
      "æ±Ĥ": 3119,
      "ĠÃ¶nem": 3120,
      "ey": 3121,
      "Ġmoney": 3122,
      "Ġkey": 3123,
      "te": 3124,
      "tim": 3125,
      "Ġpropert": 3126,
      "ether": 3127,
      "Ġwhether": 3128,
      "ipp": 3129,
      "ied": 3130,
      "ified": 3131,
      "schied": 3132,
      "Ġidentified": 3133,
      "åĲĦ": 3134,
      "Ġgreen": 3135,
      "åħĥ": 3136,
      "Ġexamples": 3137,
      "Ġemerg": 3138,
      "Ġbeginn": 3139,
      "Ġunter": 3140,
      "Ġsurve": 3141,
      "ave": 3142,
      "Ġcollect": 3143,
      "çĤº": 3144,
      "cil": 3145,
      "ca": 3146,
      "ĠÅŁekil": 3147,
      "ĠÅŁekilde": 3148,
      "æł¼": 3149,
      "æģ¯": 3150,
      "ĠApp": 3151,
      "osoph": 3152,
      "ilosoph": 3153,
      "Ġphilosoph": 3154,
      "Ġedil": 3155,
      "Ġbil": 3156,
      "Ġsurpri": 3157,
      "Ġlle": 3158,
      "Ġlie": 3159,
      "Ġbacter": 3160,
      "Ġfe": 3161,
      "Ġfeel": 3162,
      "Ġfeatures": 3163,
      "Ġfil": 3164,
      "Ġfail": 3165,
      "Ġfar": 3166,
      "Ġfarm": 3167,
      "men": 3168,
      "mber": 3169,
      "ovember": 3170,
      "cember": 3171,
      "ĠDecember": 3172,
      "ĠNovember": 3173,
      "Ġsize": 3174,
      "Ġwie": 3175,
      "tail": 3176,
      "Ġdetail": 3177,
      "ç¥ŀ": 3178,
      "Ġlocated": 3179,
      "Ġaccur": 3180,
      "ĠaÃ±os": 3181,
      "Ġcompar": 3182,
      "Ġgrand": 3183,
      "ency": 3184,
      "iency": 3185,
      "Ġkendi": 3186,
      "Ġkar": 3187,
      "ĠkarÅŁ": 3188,
      "ĠkarÅŁÄ±": 3189,
      "Ġkill": 3190,
      "Ġtrain": 3191,
      "Ġempres": 3192,
      "Ġsearch": 3193,
      "Ġgradu": 3194,
      "stitu": 3195,
      "ç²¾": 3196,
      "æ¡": 3197,
      "è®¡": 3198,
      "Ġcompan": 3199,
      "Ġcompu": 3200,
      "Ġcomputer": 3201,
      "åĮĹ": 3202,
      "Ġsett": 3203,
      "book": 3204,
      "åĲĳ": 3205,
      "Ġservici": 3206,
      "Ġhyp": 3207,
      "ĠCenter": 3208,
      "å¢ŀ": 3209,
      "Ġtherefor": 3210,
      "Ġeducational": 3211,
      "ç«Ļ": 3212,
      "ç«ĭ": 3213,
      "Ġrock": 3214,
      "graph": 3215,
      "Ġphotograph": 3216,
      "ford": 3217,
      "Ġseries": 3218,
      "Ġfall": 3219,
      "Ġsociety": 3220,
      "Ġmind": 3221,
      "Ġfinal": 3222,
      "Ġviel": 3223,
      "æ¨": 3224,
      "æº": 3225,
      "æºĲ": 3226,
      "ç©º": 3227,
      "ä¹Ĳ": 3228,
      "Ä±mÄ±z": 3229,
      "Ġletter": 3230,
      "fficiency": 3231,
      "Ġesc": 3232,
      "Ġgibt": 3233,
      "Ġproviding": 3234,
      "Ġconflic": 3235,
      "ĠOther": 3236,
      "hib": 3237,
      "hibit": 3238,
      "Ġconfirm": 3239,
      "ä¸¤": 3240,
      "Ġfacil": 3241,
      "Ġextend": 3242,
      "Ġsolution": 3243,
      "Ġoption": 3244,
      "Ġmagn": 3245,
      "Ġvacc": 3246,
      "For": 3247,
      "Ġhor": 3248,
      "Ġchall": 3249,
      "Ġchallen": 3250,
      "Ġshall": 3251,
      "Ġcele": 3252,
      "Ġceleb": 3253,
      "eh": 3254,
      "ehmen": 3255,
      "Ġgeh": 3256,
      "Ġdurum": 3257,
      "ĠWar": 3258,
      "Ãĸ": 3259,
      "Ġ21": 3260,
      "Ġaltern": 3261,
      "Ġalternative": 3262,
      "ternehmen": 3263,
      "Ġpropos": 3264,
      "ommen": 3265,
      "Ã¼y": 3266,
      "Ã¼yÃ¼k": 3267,
      "ĠbÃ¼yÃ¼k": 3268,
      "ĠDavi": 3269,
      "Ġtiempo": 3270,
      "Ġjud": 3271,
      "ĠStud": 3272,
      "ĠMarch": 3273,
      "Ġphysic": 3274,
      "fect": 3275,
      "ef": 3276,
      "efit": 3277,
      "enefit": 3278,
      "Ġbenefit": 3279,
      "Ġtaken": 3280,
      "ĠEducation": 3281,
      "Ġsuff": 3282,
      "Ġsus": 3283,
      "Ġvariety": 3284,
      "Ġcivil": 3285,
      "cript": 3286,
      "abilities": 3287,
      "Ġimportance": 3288,
      "ĠReg": 3289,
      "ĠBu": 3290,
      "Ġversion": 3291,
      "atic": 3292,
      "att": 3293,
      "attle": 3294,
      "let": 3295,
      "Ġrole": 3296,
      "Ġsw": 3297,
      "ground": 3298,
      "ger": 3299,
      "Ġmedia": 3300,
      "zeit": 3301,
      "Ġpleas": 3302,
      "éĽĨ": 3303,
      "æŁ¥": 3304,
      "emb": 3305,
      "AL": 3306,
      "Ġavoid": 3307,
      "Ġcontext": 3308,
      "åı£": 3309,
      "ä»»": 3310,
      "60": 3311,
      "40": 3312,
      "Ġ60": 3313,
      "80": 3314,
      "Ġ2006": 3315,
      "Ġnegative": 3316,
      "Ġfire": 3317,
      "tadÄ±r": 3318,
      "maktadÄ±r": 3319,
      "ner": 3320,
      "not": 3321,
      "Ġcannot": 3322,
      "iler": 3323,
      "Ġoil": 3324,
      "ĠHer": 3325,
      "eler": 3326,
      "åĽ¾": 3327,
      "ĠAs": 3328,
      "ĠAssoci": 3329,
      "Ġability": 3330,
      "vices": 3331,
      "work": 3332,
      "Ġporque": 3333,
      "Ġteachers": 3334,
      "Ġbillion": 3335,
      "istem": 3336,
      "Ġsistem": 3337,
      "Ġresist": 3338,
      "order": 3339,
      "Ġdisorder": 3340,
      "çģ": 3341,
      "Ġdistribution": 3342,
      "ĠGre": 3343,
      "Ġwood": 3344,
      "Ġwur": 3345,
      "Ġwurde": 3346,
      "asÄ±nda": 3347,
      "ĠarasÄ±nda": 3348,
      "cident": 3349,
      "raw": 3350,
      "Ġdraw": 3351,
      "Ġillust": 3352,
      "æĶ¹": 3353,
      "ĠSystem": 3354,
      "éĿŀ": 3355,
      "rench": 3356,
      "ĠFrench": 3357,
      "ĠÃ¶ÄŁren": 3358,
      "clusion": 3359,
      "cip": 3360,
      "è®©": 3361,
      "Ġquickly": 3362,
      "æĤ": 3363,
      "Ġnut": 3364,
      "Ġnutri": 3365,
      "Ġput": 3366,
      "ä»ĸä»¬": 3367,
      "æ³¨": 3368,
      "Ġdistrict": 3369,
      "Ġcommitt": 3370,
      "Ġnature": 3371,
      "Ġsite": 3372,
      "oftware": 3373,
      "utom": 3374,
      "ÄŁini": 3375,
      "rought": 3376,
      "Ġbrought": 3377,
      "ĠEuropean": 3378,
      "Ã¶l": 3379,
      "Ã¶y": 3380,
      "Ã¶yle": 3381,
      "Ġwhy": 3382,
      "Ġvolunt": 3383,
      "Ã¤h": 3384,
      "Ġlargest": 3385,
      "æķ´": 3386,
      "ĠOffic": 3387,
      "aya": 3388,
      "Ġpay": 3389,
      "ĠMay": 3390,
      "ĠkiÅŁ": 3391,
      "ĠgeliÅŁ": 3392,
      "éĻ¢": 3393,
      "Ġneu": 3394,
      "Ġquite": 3395,
      "Â»": 3396,
      "ĠII": 3397,
      "Ġillness": 3398,
      "Ġpromot": 3399,
      "lass": 3400,
      "Ġcases": 3401,
      "Ġcase": 3402,
      "Ġwithin": 3403,
      "ĠAus": 3404,
      "ĠMus": 3405,
      "Ġsel": 3406,
      "Ġmother": 3407,
      "Ġuseful": 3408,
      "Ġtown": 3409,
      "Ġpero": 3410,
      "now": 3411,
      "dos": 3412,
      "Ġreceived": 3413,
      "ID": 3414,
      "Ġperfect": 3415,
      "ĠAssociation": 3416,
      "ĠFre": 3417,
      "iempre": 3418,
      "Ġobs": 3419,
      "Ġobserv": 3420,
      "Ġobser": 3421,
      "chtig": 3422,
      "æĬĬ": 3423,
      "æĬķ": 3424,
      "çĪ±": 3425,
      "lim": 3426,
      "lin": 3427,
      "len": 3428,
      "Ġskin": 3429,
      "Ġcarb": 3430,
      "Ġcarbon": 3431,
      "Ġmanufactur": 3432,
      "Ġprote": 3433,
      "Ġprotein": 3434,
      "Ġten": 3435,
      "Ġtend": 3436,
      "æ¼": 3437,
      "å¤´": 3438,
      "osph": 3439,
      "Ġnight": 3440,
      "Ġsites": 3441,
      "ĠLa": 3442,
      "Ġidea": 3443,
      "ĠDavid": 3444,
      "Ġtechnolog": 3445,
      "Ġhem": 3446,
      "idades": 3447,
      "Ġindepend": 3448,
      "we": 3449,
      "åĮħ": 3450,
      "Ġcambi": 3451,
      "chie": 3452,
      "Ġachie": 3453,
      "Ġachieve": 3454,
      "pital": 3455,
      "ospital": 3456,
      "Ġhospital": 3457,
      "iyle": 3458,
      "Ġfav": 3459,
      "Ġfavor": 3460,
      "æĶ¯": 3461,
      "æľ¯": 3462,
      "ĠWilli": 3463,
      "ĠWilliam": 3464,
      "å¯¼": 3465,
      "Ġir": 3466,
      "air": 3467,
      "Ġâ": 3468,
      "aff": 3469,
      "Ġexposure": 3470,
      "ç¼": 3471,
      "Ġtype": 3472,
      "Ġtypes": 3473,
      "Ġtypically": 3474,
      "Ġsound": 3475,
      "Ġvide": 3476,
      "Ġvideo": 3477,
      "och": 3478,
      "oung": 3479,
      "Ġyoung": 3480,
      "endo": 3481,
      "Ġsymptoms": 3482,
      "Ġterrit": 3483,
      "Ġfirm": 3484,
      "ily": 3485,
      "Ġeasily": 3486,
      "Ġdaily": 3487,
      "arily": 3488,
      "Ġplaces": 3489,
      "Ġclient": 3490,
      "Ġtransfer": 3491,
      "åŀ": 3492,
      "åŀĭ": 3493,
      "wer": 3494,
      "ĠdÃ¼ÅŁÃ¼n": 3495,
      "Ġmaxim": 3496,
      "ç±": 3497,
      "èĬ±": 3498,
      "å±±": 3499,
      "ially": 3500,
      "Ġmal": 3501,
      "Ġmid": 3502,
      "ĠolduÄŁun": 3503,
      "ĠAdminist": 3504,
      "pre": 3505,
      "Ġinterpre": 3506,
      "Ġihre": 3507,
      "gre": 3508,
      "Ġdegre": 3509,
      "Ġdire": 3510,
      "Ġdirection": 3511,
      "Ġstre": 3512,
      "ongress": 3513,
      "ĠCongress": 3514,
      "Ġleaves": 3515,
      "Ġideas": 3516,
      "Ġslow": 3517,
      "Ġsal": 3518,
      "Ġenvironmental": 3519,
      "lÃ¼": 3520,
      "Ġbel": 3521,
      "Ġbelir": 3522,
      "Ġsehr": 3523,
      "22": 3524,
      "Ġcual": 3525,
      "Ġcualqui": 3526,
      "Ġtip": 3527,
      "NA": 3528,
      "Ġthus": 3529,
      "Ġneigh": 3530,
      "ĠHigh": 3531,
      "Ġunique": 3532,
      "uncil": 3533,
      "ĠArt": 3534,
      "til": 3535,
      "Ġuntil": 3536,
      "è®°": 3537,
      "Ġhier": 3538,
      "ieren": 3539,
      "Ġdou": 3540,
      "Ġdos": 3541,
      "ĠdÃ¼z": 3542,
      "Ġdann": 3543,
      "ische": 3544,
      "Ġcourt": 3545,
      "Ġvis": 3546,
      "Ġvisit": 3547,
      "Ġvisual": 3548,
      "Ġviol": 3549,
      "Ġvict": 3550,
      "æĮĩ": 3551,
      "Ġuygul": 3552,
      "çłĶ": 3553,
      "æ·±": 3554,
      "rÃ¼": 3555,
      "rar": 3556,
      "rary": 3557,
      "ĠMar": 3558,
      "ĠMan": 3559,
      "ĠCar": 3560,
      "ĠCan": 3561,
      "ĠCanada": 3562,
      "war": 3563,
      "Ġllev": 3564,
      "Ġlleg": 3565,
      "çĥ": 3566,
      "èĢĥ": 3567,
      "èĥ": 3568,
      "çĸ": 3569,
      "ĠProdu": 3570,
      "ĠIhr": 3571,
      "å¦Ĥæŀľ": 3572,
      "Ġeventually": 3573,
      "ĠulaÅŁ": 3574,
      "è¿ĳ": 3575,
      "24": 3576,
      "21": 3577,
      "mosph": 3578,
      "Ġatmosph": 3579,
      "umm": 3580,
      "Ġsumm": 3581,
      "Ġsen": 3582,
      "Ġsens": 3583,
      "lichen": 3584,
      "enden": 3585,
      "Ġconditions": 3586,
      "Ġsent": 3587,
      "Ġsoftware": 3588,
      "ä½ķ": 3589,
      "æĹ¶éĹ´": 3590,
      "ĠÃ¶nce": 3591,
      "Ġren": 3592,
      "Ġenco": 3593,
      "Ġencour": 3594,
      "Ġetc": 3595,
      "éĸ": 3596,
      "éĵ": 3597,
      "ico": 3598,
      "ĠCo": 3599,
      "ĠCouncil": 3600,
      "ä¾Ľ": 3601,
      "Ġhasta": 3602,
      "ma": 3603,
      "Ġthem": 3604,
      "Ġbeginning": 3605,
      "ĠÃ¶nemli": 3606,
      "Ġru": 3607,
      "ĠolduÄŁu": 3608,
      "Ġfilm": 3609,
      "å¨": 3610,
      "Ġohn": 3611,
      "ebru": 3612,
      "ebruary": 3613,
      "ĠFebruary": 3614,
      "ĠFirst": 3615,
      "ĠÃľber": 3616,
      "ĠRober": 3617,
      "Ġblock": 3618,
      "Ġshap": 3619,
      "Ġship": 3620,
      "Ġpopulations": 3621,
      "Ġobserved": 3622,
      "Ġwhos": 3623,
      "éª": 3624,
      "Ġhigher": 3625,
      "colog": 3626,
      "go": 3627,
      "gress": 3628,
      "Ġprogress": 3629,
      "ĠPress": 3630,
      "Ġexpress": 3631,
      "Ġstress": 3632,
      "Ġexpected": 3633,
      "rag": 3634,
      "teg": 3635,
      "Ġinteg": 3636,
      "Ġstory": 3637,
      "iyet": 3638,
      "Ġsuffer": 3639,
      "Ġoffic": 3640,
      "ĠAustralia": 3641,
      "Ġlanguages": 3642,
      "Ġbuild": 3643,
      "Ġbuilt": 3644,
      "æ»": 3645,
      "Ġpatients": 3646,
      "Ġsexual": 3647,
      "igure": 3648,
      "ĠbÃ¶l": 3649,
      "Ġran": 3650,
      "stell": 3651,
      "ellow": 3652,
      "Ġ2005": 3653,
      "ĠEin": 3654,
      "Ġmix": 3655,
      "ÄŁiniz": 3656,
      "Ġsecurity": 3657,
      "ĠChildren": 3658,
      "Ġstren": 3659,
      "Ġstreng": 3660,
      "Ġstrength": 3661,
      "ĠLe": 3662,
      "Ġdonde": 3663,
      "è°ĥ": 3664,
      "Ġbi": 3665,
      "ĠTo": 3666,
      "Ġjo": 3667,
      "Ġjoin": 3668,
      "ector": 3669,
      "Ġmeaning": 3670,
      "Ġfrequently": 3671,
      "ä¼ģ": 3672,
      "ä¼ģä¸ļ": 3673,
      "lerini": 3674,
      "Ġcapac": 3675,
      "ĠCentral": 3676,
      "Ġunderstanding": 3677,
      "Ġconsidered": 3678,
      "Ġnearly": 3679,
      "ĠWork": 3680,
      "Ġfuel": 3681,
      "Ġlevels": 3682,
      "Ġsection": 3683,
      "action": 3684,
      "Ġaction": 3685,
      "ĠmÃ¼": 3686,
      "oth": 3687,
      "Ġplaced": 3688,
      "çº§": 3689,
      "çĻ½": 3690,
      "Ġbilg": 3691,
      "ĠHIV": 3692,
      "Ġdesp": 3693,
      "Ġdesde": 3694,
      "forn": 3695,
      "fornia": 3696,
      "ifornia": 3697,
      "alifornia": 3698,
      "ĠCalifornia": 3699,
      "Ġbacteria": 3700,
      "Ã¼t": 3701,
      "Ã¼re": 3702,
      "ĠsÃ¼re": 3703,
      "ĠWas": 3704,
      "ĠWash": 3705,
      "ĠWashing": 3706,
      "ĠWashingt": 3707,
      "ĠWashington": 3708,
      "Ġscientists": 3709,
      "ĠÅŁey": 3710,
      "Ġdass": 3711,
      "æĢ»": 3712,
      "IC": 3713,
      "If": 3714,
      "Ä±yla": 3715,
      "ĠAfrican": 3716,
      "ĠAfrica": 3717,
      "Ġcompanies": 3718,
      "Ġcompany": 3719,
      "ĠStudi": 3720,
      "Ġprimarily": 3721,
      "just": 3722,
      "Ġfinan": 3723,
      "Ġfinancial": 3724,
      "ä»·": 3725,
      "ä»Ĭ": 3726,
      "ä»Ģ": 3727,
      "ä»Ģä¹Ī": 3728,
      "Â·": 3729,
      "ĠHistory": 3730,
      "Ġnuestra": 3731,
      "Ġanything": 3732,
      "Ġnothing": 3733,
      "Ġeverything": 3734,
      "Ġreduced": 3735,
      "çķĮ": 3736,
      "å®Į": 3737,
      "Ġhold": 3738,
      "Ġresource": 3739,
      "Ġexpect": 3740,
      "Ġareas": 3741,
      "lick": 3742,
      "lat": 3743,
      "lif": 3744,
      "Ġmission": 3745,
      "Ġmis": 3746,
      "ise": 3747,
      "Ġmem": 3748,
      "Ġmemory": 3749,
      "Ġeste": 3750,
      "Ġesta": 3751,
      "ĠestÃ¡n": 3752,
      "Ġestudi": 3753,
      "ĠInstitute": 3754,
      "ãĢĮ": 3755,
      "cÄ±": 3756,
      "Ä±cÄ±": 3757,
      "Ġwurden": 3758,
      "Ġgoing": 3759,
      "ling": 3760,
      "Al": 3761,
      "Although": 3762,
      "ä¸ĸ": 3763,
      "ä¸ĸçķĮ": 3764,
      "ä¸ľ": 3765,
      "ä¸ĩ": 3766,
      "ä¸ĵ": 3767,
      "æłĩ": 3768,
      "Ġofficial": 3769,
      "Ġcapacity": 3770,
      "ç»ĵ": 3771,
      "ĠSociet": 3772,
      "Ġsafet": 3773,
      "Ġsafety": 3774,
      "¥¿": 3775,
      "è¥¿": 3776,
      "Ġwriting": 3777,
      "ä¼ł": 3778,
      "Ġrepla": 3779,
      "æıĲä¾Ľ": 3780,
      "Ġwhose": 3781,
      "æ¸ħ": 3782,
      "ĠBaÅŁ": 3783,
      "Ġanal": 3784,
      "Ġanaly": 3785,
      "ĠSociety": 3786,
      "Ġidentify": 3787,
      "Ġfeet": 3788,
      "Ġproblems": 3789,
      "Ġhistorical": 3790,
      "Ġperspect": 3791,
      "ĠQ": 3792,
      "Ġ+": 3793,
      "èĦ": 3794,
      "Ġneighb": 3795,
      "IS": 3796,
      "ãĢį": 3797,
      "Ġpolicy": 3798,
      "dern": 3799,
      "Ġdol": 3800,
      "ĠUnion": 3801,
      "Ġtodos": 3802,
      "Ġhol": 3803,
      "Ġhop": 3804,
      "the": 3805,
      "Ġmath": 3806,
      "Ġconstant": 3807,
      "é¡¹": 3808,
      "è´¹": 3809,
      "Ġminut": 3810,
      "Ġmultiple": 3811,
      "arÄ±": 3812,
      "æĪ¿": 3813,
      "æĪĺ": 3814,
      "æĪ·": 3815,
      "æĺĵ": 3816,
      "vert": 3817,
      "Ġliterature": 3818,
      "Ġ23": 3819,
      "Ġ22": 3820,
      "ĠÂ«": 3821,
      "Ġtodo": 3822,
      "23": 3823,
      "Ġcarri": 3824,
      "Ġcarry": 3825,
      "hood": 3826,
      "Ġplanet": 3827,
      "ĠProject": 3828,
      "produ": 3829,
      "ĠJuly": 3830,
      "Ġexact": 3831,
      "èĻ": 3832,
      "Ġfive": 3833,
      "ĠDr": 3834,
      "ĠinformaciÃ³n": 3835,
      "ĠCounty": 3836,
      "ĠUnternehmen": 3837,
      "è¿Ĳ": 3838,
      "Ġadop": 3839,
      "When": 3840,
      "Ġperm": 3841,
      "Ġvida": 3842,
      "æĬĢæľ¯": 3843,
      "Ġtraining": 3844,
      "Ġequipment": 3845,
      "æīį": 3846,
      "ĠaÃ§Ä±k": 3847,
      "Ġvalue": 3848,
      "ÃŃn": 3849,
      "ift": 3850,
      "ĠGovernment": 3851,
      "iÄŁi": 3852,
      "åĽĽ": 3853,
      "Ġpress": 3854,
      "Ġpressure": 3855,
      "Ġbroad": 3856,
      "Ġpath": 3857,
      "ica": 3858,
      "cont": 3859,
      "Ġopportunity": 3860,
      "Ġopportunities": 3861,
      "èį": 3862,
      "åĨį": 3863,
      "Ġconservation": 3864,
      "Ġconsumption": 3865,
      "example": 3866,
      "Ġfru": 3867,
      "Ġfruit": 3868,
      "Ġprofessional": 3869,
      "Ġcho": 3870,
      "ç®¡çĲĨ": 3871,
      "å¸Ĥåľº": 3872,
      "It": 3873,
      "ront": 3874,
      "Ġfront": 3875,
      "è§Ħ": 3876,
      "éĢł": 3877,
      "ĠFamil": 3878,
      "UR": 3879,
      "èĬĤ": 3880,
      "åĪĽ": 3881,
      "dom": 3882,
      "ĠRom": 3883,
      "ĠRoman": 3884,
      "omb": 3885,
      "Ġsector": 3886,
      "Ġsun": 3887,
      "Ġsin": 3888,
      "ordin": 3889,
      "å¤Ħ": 3890,
      "abor": 3891,
      "Ġcollabor": 3892,
      "Â¿": 3893,
      "Â°": 3894,
      "Ã¶g": 3895,
      "Ã¶glich": 3896,
      "Ã¶glichkeit": 3897,
      "åĶ": 3898,
      "Ġapplications": 3899,
      "Ġapplication": 3900,
      "Ġproduc": 3901,
      "larÄ±nÄ±n": 3902,
      "Ġpod": 3903,
      "åıĹ": 3904,
      "Ġdurant": 3905,
      "Ġexamin": 3906,
      "èµ°": 3907,
      "Ġgegen": 3908,
      "arios": 3909,
      "side": 3910,
      "Ġoutside": 3911,
      "craft": 3912,
      "è¿Ľè¡Į": 3913,
      "æ¶Ī": 3914,
      "Ġcompletely": 3915,
      "Ġox": 3916,
      "Ġx": 3917,
      "Ãĩ": 3918,
      "ĠColle": 3919,
      "ĠCollege": 3920,
      "åįģ": 3921,
      "åįķ": 3922,
      "ĠBaÅŁk": 3923,
      "alk": 3924,
      "Ġtalk": 3925,
      "Ġwalk": 3926,
      "mal": 3927,
      "ecause": 3928,
      "water": 3929,
      "æ£": 3930,
      "Ġbrother": 3931,
      "ĠJun": 3932,
      "åĥ": 3933,
      "åł": 3934,
      "åĦ": 3935,
      "å¸ĥ": 3936,
      "Ġexpert": 3937,
      "æľĥ": 3938,
      "Ġdefinition": 3939,
      "ibrary": 3940,
      "éŁ": 3941,
      "estern": 3942,
      "ternal": 3943,
      "é©¬": 3944,
      "ASA": 3945,
      "ĠNASA": 3946,
      "ĠNo": 3947,
      "Ġlibrary": 3948,
      "Ġdecade": 3949,
      "Ġcuent": 3950,
      "cak": 3951,
      "cut": 3952,
      "ĠEst": 3953,
      "çĹ": 3954,
      "rus": 3955,
      "Ġ193": 3956,
      "ivo": 3957,
      "ustom": 3958,
      "Ġcustom": 3959,
      "weise": 3960,
      "Ġsurvey": 3961,
      "ç¡": 3962,
      "ĠPark": 3963,
      "ĠPre": 3964,
      "æŃ¥": 3965,
      "æ¥": 3966,
      "Ġdiseases": 3967,
      "vant": 3968,
      "ercis": 3969,
      "Ġexercis": 3970,
      "ĠFrancis": 3971,
      "Ġ2004": 3972,
      "Ġreading": 3973,
      "ĠkonuÅŁ": 3974,
      "Ġinterpret": 3975,
      "ä½¿çĶ¨": 3976,
      "Ġsoll": 3977,
      "ĠyÃ¼z": 3978,
      "Ġihn": 3979,
      "OS": 3980,
      "cek": 3981,
      "æķĪ": 3982,
      "å¸Ī": 3983,
      "åħĪ": 3984,
      "ework": 3985,
      "ĠÃ§ek": 3986,
      "ĠGreek": 3987,
      "ĠIndia": 3988,
      "Ġbreast": 3989,
      "Ġbreath": 3990,
      "iendo": 3991,
      "Ġbei": 3992,
      "åĦ¿": 3993,
      "leep": 3994,
      "Ġsleep": 3995,
      "Ġdeep": 3996,
      "leich": 3997,
      "lem": 3998,
      "ĠiÅŁlem": 3999,
      "åĥı": 4000,
      "Ġatmospher": 4001,
      "Ġport": 4002,
      "Ġpage": 4003,
      "Ġ195": 4004,
      "ĠBaÅŁkan": 4005,
      "ĠCommission": 4006,
      "onder": 4007,
      "Ġcolon": 4008,
      "ç¦": 4009,
      "çı": 4010,
      "ĠBlack": 4011,
      "Ġbelieved": 4012,
      "cia": 4013,
      "èª": 4014,
      "æ¬¾": 4015,
      "Ġcompet": 4016,
      "Ġdirectly": 4017,
      "Ġganz": 4018,
      "Ġsein": 4019,
      "Ġaber": 4020,
      "Ġsiempre": 4021,
      "Ġarticles": 4022,
      "é¦ĸ": 4023,
      "Ġexpression": 4024,
      "Ġwords": 4025,
      "ĠMark": 4026,
      "ĠSup": 4027,
      "Ġnuestro": 4028,
      "æ¡Ī": 4029,
      "Ġcros": 4030,
      "Ġnuestros": 4031,
      "fÃ¼hr": 4032,
      "æĸ¯": 4033,
      "ĠGen": 4034,
      "ĠGener": 4035,
      "ĠGeneral": 4036,
      "ĠGreat": 4037,
      "ĠgÃ¼": 4038,
      "ĠgÃ¼ven": 4039,
      "Ġtherefore": 4040,
      "Ġintroduced": 4041,
      "adi": 4042,
      "Ġremove": 4043,
      "Ġleave": 4044,
      "Ġut": 4045,
      "Ġutil": 4046,
      "Ġutiliz": 4047,
      "Ġincrease": 4048,
      "Ġincreased": 4049,
      "Ġincreasing": 4050,
      "Ġpuede": 4051,
      "ue": 4052,
      "uego": 4053,
      "Ġemail": 4054,
      "Ġface": 4055,
      "Ch": 4056,
      "Ġestablished": 4057,
      "Ġsupply": 4058,
      "Ġ27": 4059,
      "Ġ28": 4060,
      "Ġ26": 4061,
      "Ã¤ch": 4062,
      "atch": 4063,
      "Ġorganism": 4064,
      "Ġsoil": 4065,
      "ebil": 4066,
      "ebilir": 4067,
      "rated": 4068,
      "Ġrecently": 4069,
      "æĸĻ": 4070,
      "ç»Ļ": 4071,
      "Ġtechnologies": 4072,
      "å¸¦": 4073,
      "ĠLond": 4074,
      "ĠLondon": 4075,
      "å°±æĺ¯": 4076,
      "Ġmention": 4077,
      "å®¢": 4078,
      "å®¹": 4079,
      "Ġfrequency": 4080,
      "col": 4081,
      "cop": 4082,
      "app": 4083,
      "åĮ»": 4084,
      "ç±»": 4085,
      "ĠyÃ¼k": 4086,
      "load": 4087,
      "Ġhere": 4088,
      "Ġscre": 4089,
      "ude": 4090,
      "itude": 4091,
      "è´¨": 4092,
      "Ġmot": 4093,
      "Ġvirt": 4094,
      "etzt": 4095,
      "æĴ": 4096,
      "Ġmonit": 4097,
      "Ġmonitor": 4098,
      "emplo": 4099,
      "Ġautom": 4100,
      "Ġcru": 4101,
      "Ġlog": 4102,
      "ern": 4103,
      "ning": 4104,
      "Ġrunning": 4105,
      "Ġmusic": 4106,
      "Ġbasic": 4107,
      "èİ": 4108,
      "Ġanalys": 4109,
      "Ġanalysis": 4110,
      "Ġsee": 4111,
      "mente": 4112,
      "ĠDevelopment": 4113,
      "ice": 4114,
      "èĤ²": 4115,
      "å²": 4116,
      "åĻ": 4117,
      "åĻ¨": 4118,
      "éĢĻ": 4119,
      "éĢī": 4120,
      "è²": 4121,
      "Ġconvert": 4122,
      "Ġconn": 4123,
      "Ġconnection": 4124,
      "arbeit": 4125,
      "ĠRus": 4126,
      "Ġmathem": 4127,
      "Ġpoor": 4128,
      "Ġpowerful": 4129,
      "Ġancient": 4130,
      "Ġfuer": 4131,
      "Ġfue": 4132,
      "Ġgoal": 4133,
      "Ġconstruction": 4134,
      "iber": 4135,
      "Ġcome": 4136,
      "eben": 4137,
      "lad": 4138,
      "ÃŃas": 4139,
      "bre": 4140,
      "æĵ": 4141,
      "æŁ": 4142,
      "nov": 4143,
      "Ġextremely": 4144,
      "Ġ80": 4145,
      "Ġdar": 4146,
      "Ġtell": 4147,
      "Ġtek": 4148,
      "ritual": 4149,
      "ez": 4150,
      "ĠOne": 4151,
      "Ġprint": 4152,
      "ĠAt": 4153,
      "dit": 4154,
      "Ġcredit": 4155,
      "ĠCont": 4156,
      "tions": 4157,
      "Ġmembers": 4158,
      "ION": 4159,
      "'d": 4160,
      "ĠRep": 4161,
      "ĠRepublic": 4162,
      "ĠPublic": 4163,
      "æĻĤ": 4164,
      "entially": 4165,
      "Ġ2003": 4166,
      "Ġ2001": 4167,
      "Ġ2002": 4168,
      "Ġspring": 4169,
      "ĠkullanÄ±l": 4170,
      "ures": 4171,
      "Ġage": 4172,
      "Ġappli": 4173,
      "cyc": 4174,
      "Ġeval": 4175,
      "Ġevalu": 4176,
      "Ġtel": 4177,
      "________": 4178,
      "åħī": 4179,
      "IT": 4180,
      "ĠCommun": 4181,
      "Ġmass": 4182,
      "ĠBritain": 4183,
      "Ġpie": 4184,
      "Ġobvious": 4185,
      "Ĥ¬": 4186,
      "è½¬": 4187,
      "Ġreduction": 4188,
      "Ġur": 4189,
      "Ġvom": 4190,
      "ä¾Ĩ": 4191,
      "itÃ¤t": 4192,
      "ĠScho": 4193,
      "ĠSchool": 4194,
      "70": 4195,
      "èĲ¥": 4196,
      "While": 4197,
      "ĠNot": 4198,
      "oud": 4199,
      "Ġcloud": 4200,
      "éº": 4201,
      "Ġrecover": 4202,
      "Ġreaction": 4203,
      "Ġinteraction": 4204,
      "Ġweather": 4205,
      "ĠWestern": 4206,
      "Ġimmun": 4207,
      "larda": 4208,
      "Ġdistin": 4209,
      "Ġdistinct": 4210,
      "å½¢": 4211,
      "å½©": 4212,
      "åĪ«": 4213,
      "Ġsituation": 4214,
      "Ġmer": 4215,
      "Ġconsult": 4216,
      "per": 4217,
      "Ġprecis": 4218,
      "Ġprefer": 4219,
      "ungs": 4220,
      "iving": 4221,
      "Ġdec": 4222,
      "Ġdeclar": 4223,
      "Ġtaking": 4224,
      "Ġworking": 4225,
      "Ġpot": 4226,
      "ĠMon": 4227,
      "ervice": 4228,
      "ĠService": 4229,
      "Ġexten": 4230,
      "ĠMuslim": 4231,
      "Ġwoman": 4232,
      "éľĢè¦ģ": 4233,
      "Ġscreen": 4234,
      "rund": 4235,
      "æł¡": 4236,
      "unter": 4237,
      "çĭ": 4238,
      "Ġ190": 4239,
      "Ġbackground": 4240,
      "ĠDNA": 4241,
      "Ġcontemp": 4242,
      "Ġcontract": 4243,
      "Ġcontamin": 4244,
      "90": 4245,
      "ĠFrance": 4246,
      "ĠWest": 4247,
      "ĠWater": 4248,
      "Ġlarger": 4249,
      "å·²ç»ı": 4250,
      "ecek": 4251,
      "Ġwrong": 4252,
      "èĳ": 4253,
      "cious": 4254,
      "ç¶": 4255,
      "arth": 4256,
      "ĠEarth": 4257,
      "car": 4258,
      "Ġchar": 4259,
      "ĠEmp": 4260,
      "ecut": 4261,
      "Ġlargely": 4262,
      "ĠÃ¶zell": 4263,
      "Ġcontribution": 4264,
      "imm": 4265,
      "Ġmajority": 4266,
      "Ġcirc": 4267,
      "Ã¤tz": 4268,
      "ĠNach": 4269,
      "Ġdifer": 4270,
      "Ġcut": 4271,
      "au": 4272,
      "ues": 4273,
      "ĠolduÄŁunu": 4274,
      "Ġtu": 4275,
      "Ġtan": 4276,
      "Ġtanto": 4277,
      "Ġtro": 4278,
      "Ġtem": 4279,
      "Ġmi": 4280,
      "Ġmill": 4281,
      "Ġmes": 4282,
      "acy": 4283,
      "ĠArch": 4284,
      "Ġair": 4285,
      "cell": 4286,
      "Ġonce": 4287,
      "è±": 4288,
      "åħ±": 4289,
      "Ġdecreas": 4290,
      "ĠLeben": 4291,
      "Ġerst": 4292,
      "ĠbaÄŁ": 4293,
      "aÄŁÄ±": 4294,
      "Ġburn": 4295,
      "Ġriver": 4296,
      "elt": 4297,
      "Ġrelatively": 4298,
      "ili": 4299,
      "ini": 4300,
      "æ®": 4301,
      "ĠTechnology": 4302,
      "ief": 4303,
      "stances": 4304,
      "EL": 4305,
      "ä¿¡æģ¯": 4306,
      "Ġhost": 4307,
      "Ġmap": 4308,
      "Ġwarm": 4309,
      "Ġeffects": 4310,
      "Ġattribut": 4311,
      "Ġcross": 4312,
      "Ġcareful": 4313,
      "reich": 4314,
      "Ġcoast": 4315,
      "Ġbank": 4316,
      "ç¡®": 4317,
      "utz": 4318,
      "Ġzwischen": 4319,
      "Ġliqu": 4320,
      "è¾¾": 4321,
      "liÄŁi": 4322,
      "diÄŁi": 4323,
      "çīĮ": 4324,
      "çīĪ": 4325,
      "èĳĹ": 4326,
      "Ġdiscuss": 4327,
      "Ġcollected": 4328,
      "Ġexecut": 4329,
      "Ġ90": 4330,
      "Äģ": 4331,
      "å±Ģ": 4332,
      "Ã³m": 4333,
      "Ġuz": 4334,
      "laciÃ³n": 4335,
      "Ġfather": 4336,
      "Ġdue": 4337,
      "hal": 4338,
      "Ġtraditional": 4339,
      "ĠJune": 4340,
      "Ġmidd": 4341,
      "Ġmiddle": 4342,
      "Ġvolum": 4343,
      "exico": 4344,
      "ĠMexico": 4345,
      "halten": 4346,
      "çŁ": 4347,
      "ç»Ł": 4348,
      "Ġrate": 4349,
      "gital": 4350,
      "Ġdigital": 4351,
      "ĠTÃ¼rkiye": 4352,
      "Ġcorres": 4353,
      "Ġcorresp": 4354,
      "Ġcop": 4355,
      "Ġrap": 4356,
      "Ġrapid": 4357,
      "åħ·": 4358,
      "Ġlove": 4359,
      "Ġmech": 4360,
      "Ġmechan": 4361,
      "Ġmechanism": 4362,
      "iness": 4363,
      "ĠChines": 4364,
      "Ġchoice": 4365,
      "Ġchoos": 4366,
      "å¹¿": 4367,
      "Ġyet": 4368,
      "Ġestimated": 4369,
      "ĠControl": 4370,
      "Ġcada": 4371,
      "Ex": 4372,
      "ED": 4373,
      "Ġaspect": 4374,
      "å§Ķ": 4375,
      "å§ĭ": 4376,
      "Ġwindow": 4377,
      "Ġkid": 4378,
      "Ġattract": 4379,
      "åĳĬ": 4380,
      "åĳ¨": 4381,
      "ancy": 4382,
      "Ġgew": 4383,
      "Ġgain": 4384,
      "Ġgas": 4385,
      "è§Ĥ": 4386,
      "Ġlines": 4387,
      "Ġlate": 4388,
      "Ġlug": 4389,
      "Ġlugar": 4390,
      "lines": 4391,
      "Ä±mcÄ±": 4392,
      "Ġlocation": 4393,
      "å¢ĥ": 4394,
      "Ġplanning": 4395,
      "ET": 4396,
      "æ¢": 4397,
      "çĶ·": 4398,
      "çľģ": 4399,
      "çľ¼": 4400,
      "cuent": 4401,
      "èµĽ": 4402,
      "è£ħ": 4403,
      "Ġcaused": 4404,
      "Ġcauses": 4405,
      "Ġcualquier": 4406,
      "Ġimmer": 4407,
      "Ġcoordin": 4408,
      "ĠManagement": 4409,
      "ĠSocial": 4410,
      "Ġmiles": 4411,
      "Ġcrop": 4412,
      "Ġcit": 4413,
      "Ġcitiz": 4414,
      "Ġcitizen": 4415,
      "Ġann": 4416,
      "Ġannual": 4417,
      "siness": 4418,
      "Ġbusiness": 4419,
      "ĠBook": 4420,
      "Ã¼rÃ¼n": 4421,
      "ĠÃ¼rÃ¼n": 4422,
      "ĠYour": 4423,
      "Ġseparate": 4424,
      "è§ģ": 4425,
      "çłĶç©": 4426,
      "æ²»": 4427,
      "Ã¤l": 4428,
      "é¢Ĩ": 4429,
      "Ġpermit": 4430,
      "çĻ¾": 4431,
      "åıĪ": 4432,
      "åıĺ": 4433,
      "åıĸ": 4434,
      "åıĭ": 4435,
      "âĢĺ": 4436,
      "ç»Ħ": 4437,
      "ä¾¿": 4438,
      "åĬŀ": 4439,
      "è®¤": 4440,
      "Ġseg": 4441,
      "Ġaccident": 4442,
      "Ġdeveloping": 4443,
      "ĠGu": 4444,
      "éł": 4445,
      "Ġolacak": 4446,
      "ountain": 4447,
      "çħ": 4448,
      "çħ§": 4449,
      "è¶ħ": 4450,
      "è¶Ĭ": 4451,
      "è¶³": 4452,
      "æħ": 4453,
      "Ġpresence": 4454,
      "ĠAccording": 4455,
      "Ġremo": 4456,
      "Ġremoved": 4457,
      "Ġresistance": 4458,
      "æ¨¡": 4459,
      "çµ": 4460,
      "Ġ70": 4461,
      "Ġrefl": 4462,
      "Ġreflect": 4463,
      "Ġcircu": 4464,
      "ĠPhil": 4465,
      "ĠdeÄŁil": 4466,
      "Ġadditional": 4467,
      "Ġyaz": 4468,
      "Ġhaz": 4469,
      "ĠhazÄ±r": 4470,
      "ĠÃ©": 4471,
      "åĢĭ": 4472,
      "åľĭ": 4473,
      "çİĭ": 4474,
      "Ġiy": 4475,
      "Ġiyi": 4476,
      "aÃ§": 4477,
      "unda": 4478,
      "ina": 4479,
      "ĠChina": 4480,
      "ĠLibrary": 4481,
      "Ġreported": 4482,
      "ruck": 4483,
      "eck": 4484,
      "Ġcheck": 4485,
      "ĠdoÄŁru": 4486,
      "Ġchief": 4487,
      "Ġpoco": 4488,
      "ĠNatur": 4489,
      "Ġstaff": 4490,
      "Ġ#": 4491,
      "Ġquant": 4492,
      "Ġadvant": 4493,
      "ĠPrin": 4494,
      "Ġdays": 4495,
      "Ġoccurred": 4496,
      "Ġdemon": 4497,
      "Ġdemonst": 4498,
      "Ġbelong": 4499,
      "å¤ª": 4500,
      "æľª": 4501,
      "ĠgÃ¶z": 4502,
      "chen": 4503,
      "Ġfinding": 4504,
      "Ġik": 4505,
      "Ġwichtig": 4506,
      "åįĹ": 4507,
      "åĬŁ": 4508,
      "And": 4509,
      "ĠStudent": 4510,
      "ĠPar": 4511,
      "Ġshift": 4512,
      "Ġconnected": 4513,
      "Ġconnect": 4514,
      "Ġfeed": 4515,
      "Ġtiene": 4516,
      "Ġrespond": 4517,
      "Ġwall": 4518,
      "Ġreferred": 4519,
      "Ġreference": 4520,
      "çĹħ": 4521,
      "ĠAtlant": 4522,
      "å¼ķ": 4523,
      "Ġnuclear": 4524,
      "Ġdistribut": 4525,
      "Ġdistance": 4526,
      "éŁ³": 4527,
      "ynam": 4528,
      "sues": 4529,
      "Ġissues": 4530,
      "Ġencuent": 4531,
      "åĽ¢": 4532,
      "äº§åĵģ": 4533,
      "Ġmund": 4534,
      "Ġmundo": 4535,
      "Ġmic": 4536,
      "Ġmicro": 4537,
      "Ġmut": 4538,
      "But": 4539,
      "room": 4540,
      "Ġclassroom": 4541,
      "Ġ29": 4542,
      "æĲ": 4543,
      "æķĻèĤ²": 4544,
      "Ġej": 4545,
      "Ġejemplo": 4546,
      "Ġobj": 4547,
      "Ã¼tz": 4548,
      "Ġmodi": 4549,
      "ĠRuss": 4550,
      "Ġscal": 4551,
      "Ġstop": 4552,
      "ĠRobert": 4553,
      "ĠNorthern": 4554,
      "Ġanimals": 4555,
      "Ġkay": 4556,
      "Ġkal": 4557,
      "Ġkap": 4558,
      "ĠDeutschland": 4559,
      "åĩł": 4560,
      "åĩĨ": 4561,
      "è¿Ļä¸ª": 4562,
      "Ġquien": 4563,
      "Ġbien": 4564,
      "met": 4565,
      "izmet": 4566,
      "Ġhizmet": 4567,
      "å¤ĩ": 4568,
      "Ġencont": 4569,
      "èĤ¡": 4570,
      "ciences": 4571,
      "Ġsat": 4572,
      "é£Ł": 4573,
      "éĺŁ": 4574,
      "Ġfacilities": 4575,
      "äº¬": 4576,
      "Ġparents": 4577,
      "åĢĻ": 4578,
      "Ġsurger": 4579,
      "Ġdev": 4580,
      "Ġdevam": 4581,
      "Ġprov": 4582,
      "II": 4583,
      "ĠÃº": 4584,
      "ĠÃºl": 4585,
      "ĠÃºltim": 4586,
      "ĠiÃ§er": 4587,
      "ake": 4588,
      "ought": 4589,
      "ĠdÃŃa": 4590,
      "acebook": 4591,
      "ĠSpace": 4592,
      "Ġwonder": 4593,
      "Ġearlier": 4594,
      "Ġenter": 4595,
      "Ġpractice": 4596,
      "se": 4597,
      "Ġthese": 4598,
      "ĠThese": 4599,
      "ĠSe": 4600,
      "ste": 4601,
      "stead": 4602,
      "Ġinstead": 4603,
      "We": 4604,
      "ize": 4605,
      "Ġdone": 4606,
      "sue": 4607,
      "Ġissue": 4608,
      "issue": 4609,
      "Ġtissue": 4610,
      "ecto": 4611,
      "Ġhours": 4612,
      "Ġmonths": 4613,
      "Ġresults": 4614,
      "Ġroad": 4615,
      "Ġroom": 4616,
      "Ġrout": 4617,
      "Ġgut": 4618,
      "ĠSo": 4619,
      "Ġrequirements": 4620,
      "ĠLaw": 4621,
      "Ġult": 4622,
      "èĮ": 4623,
      "è¦": 4624,
      "29": 4625,
      "26": 4626,
      "28": 4627,
      "27": 4628,
      "ouse": 4629,
      "ĠHouse": 4630,
      "Ġstatus": 4631,
      "With": 4632,
      "ĠSecond": 4633,
      "å£«": 4634,
      "Ġroot": 4635,
      "Ġliquid": 4636,
      "Ġspiel": 4637,
      "active": 4638,
      "Ġequival": 4639,
      "Ġencontrar": 4640,
      "Ġgraph": 4641,
      "Ġideal": 4642,
      "Ġproperty": 4643,
      "Ġproperties": 4644,
      "Ġcenturies": 4645,
      "ories": 4646,
      "Ġmol": 4647,
      "è¯Ŀ": 4648,
      "ĠTran": 4649,
      "ĠTrans": 4650,
      "Ġadvantage": 4651,
      "demÃ¡s": 4652,
      "Ġred": 4653,
      "Ġrecon": 4654,
      "Ġarea": 4655,
      "Ġetw": 4656,
      "Ġplat": 4657,
      "Ġplatform": 4658,
      "arklÄ±": 4659,
      "Ġdark": 4660,
      "ĠfarklÄ±": 4661,
      "ramework": 4662,
      "éħį": 4663,
      "ĠJan": 4664,
      "ĠJanu": 4665,
      "ĠJanuary": 4666,
      "ĠJust": 4667,
      "ä¼ĺ": 4668,
      "mekt": 4669,
      "mekted": 4670,
      "mektedir": 4671,
      "Ġgroups": 4672,
      "Ġmarri": 4673,
      "é¦Ļ": 4674,
      "Ġtrib": 4675,
      "ocuk": 4676,
      "ĠÃ§ocuk": 4677,
      "Ġvegetable": 4678,
      "æĹ¶åĢĻ": 4679,
      "Ġcurrently": 4680,
      "Ġreli": 4681,
      "Ġgave": 4682,
      "Ġgovern": 4683,
      "ercial": 4684,
      "Ġcommercial": 4685,
      "emos": 4686,
      "èĲ½": 4687,
      "å¼ł": 4688,
      "Ġeasy": 4689,
      "ĠMany": 4690,
      "Ġneur": 4691,
      "ä½ı": 4692,
      "ä½İ": 4693,
      "amples": 4694,
      "less": 4695,
      "strument": 4696,
      "æ¼Ķ": 4697,
      "Ġilg": 4698,
      "Ġilgili": 4699,
      "Ġmanag": 4700,
      "!!": 4701,
      "Ġsubstant": 4702,
      "'re": 4703,
      "uÃŁ": 4704,
      "Ġhabitat": 4705,
      "Ġborn": 4706,
      "Ġsure": 4707,
      "ture": 4708,
      "ĠCommitt": 4709,
      "Ġperspective": 4710,
      "Ġohne": 4711,
      "Ġnecessarily": 4712,
      "Ġdatab": 4713,
      "Ġjetzt": 4714,
      "Ġdiet": 4715,
      "åı¯èĥ½": 4716,
      "Ġfailure": 4717,
      "æľĽ": 4718,
      "ĠÃ¶zellik": 4719,
      "lorida": 4720,
      "Ġexperiences": 4721,
      "quences": 4722,
      "Ġolmak": 4723,
      "Ġgrowing": 4724,
      "ĠFrom": 4725,
      "Ġdivi": 4726,
      "æł¹": 4727,
      "è³": 4728,
      "Ġtakes": 4729,
      "Ġvalues": 4730,
      "æĳ": 4731,
      "AC": 4732,
      "Con": 4733,
      "çłĶç©¶": 4734,
      "istry": 4735,
      "Ġago": 4736,
      "erson": 4737,
      "ĠPerson": 4738,
      "Ġadded": 4739,
      "Ġsomeone": 4740,
      "ekt": 4741,
      "ert": 4742,
      "ĠBecause": 4743,
      "Ġattend": 4744,
      "Ġattach": 4745,
      "Ġsaw": 4746,
      "Ġconclu": 4747,
      "Ġconstruct": 4748,
      "Ġfamili": 4749,
      "æĴŃ": 4750,
      "Ġdatabas": 4751,
      "Ġencounter": 4752,
      "Ġcounter": 4753,
      "åºĹ": 4754,
      "è®º": 4755,
      "Ġmoved": 4756,
      "Ġmoving": 4757,
      "Ġdiscip": 4758,
      "lage": 4759,
      "uge": 4760,
      "Ġwestern": 4761,
      "Ġdouble": 4762,
      "Ġdoub": 4763,
      "ĠtÃ¼m": 4764,
      "Ġoccas": 4765,
      "Ġoccasion": 4766,
      "stance": 4767,
      "stain": 4768,
      "Ġsustain": 4769,
      "Ġelectricity": 4770,
      "ĠdeÄŁer": 4771,
      "Ġprior": 4772,
      "ĠVol": 4773,
      "Ġcomplic": 4774,
      "Ġcompos": 4775,
      "idos": 4776,
      "Ġexplic": 4777,
      "ters": 4778,
      "term": 4779,
      "termine": 4780,
      "Ġdetermine": 4781,
      "me": 4782,
      "ante": 4783,
      "ĠInter": 4784,
      "Ġconse": 4785,
      "Ġconsequences": 4786,
      "Ġdurante": 4787,
      "Ġtrue": 4788,
      "Ġmorning": 4789,
      "Ġimproved": 4790,
      "ocrat": 4791,
      "èħ": 4792,
      "èŃ": 4793,
      "çĥŃ": 4794,
      "Ġolder": 4795,
      "ĠPeople": 4796,
      "Ġplants": 4797,
      "Ġminutes": 4798,
      "Ġperman": 4799,
      "Ġbird": 4800,
      "Ġbelief": 4801,
      "fall": 4802,
      "ula": 4803,
      "pression": 4804,
      "ĠLand": 4805,
      "éªĮ": 4806,
      "ĠsÃ¶z": 4807,
      "ĠmÃ¶glich": 4808,
      "Ġmouth": 4809,
      "Ġimmed": 4810,
      "Ġimmedi": 4811,
      "Ġimmediately": 4812,
      "çŁ¥éģĵ": 4813,
      "Ġmismo": 4814,
      "Ġtrack": 4815,
      "ç®Ĺ": 4816,
      "Ġstream": 4817,
      "Ġjed": 4818,
      "Ġdesigned": 4819,
      "ehold": 4820,
      "Ġhousehold": 4821,
      "ehen": 4822,
      "roll": 4823,
      "org": 4824,
      "owie": 4825,
      "Ġsowie": 4826,
      "æ¸¸æĪ": 4827,
      "mark": 4828,
      "rogen": 4829,
      "Ġsignal": 4830,
      "åĬ©": 4831,
      "osten": 4832,
      "ostenlos": 4833,
      "ĠMost": 4834,
      "Ġparticles": 4835,
      "udad": 4836,
      "Ġciudad": 4837,
      "ÃŃcul": 4838,
      "ä¹¦": 4839,
      "ivil": 4840,
      "ĠCivil": 4841,
      "ior": 4842,
      "terior": 4843,
      "Ġsuperior": 4844,
      "Ġsummer": 4845,
      "Ã¶ÃŁ": 4846,
      "rÃ¶ÃŁ": 4847,
      "ĠFrank": 4848,
      "Ġek": 4849,
      "Ġindependent": 4850,
      "Ġcompon": 4851,
      "Ġcomponent": 4852,
      "Ġfundamental": 4853,
      "æĺŁ": 4854,
      "éĢŁ": 4855,
      "ators": 4856,
      "Ġadopt": 4857,
      "Ġspeed": 4858,
      "Ġlegis": 4859,
      "Ġlegisl": 4860,
      "Ġlegal": 4861,
      "encias": 4862,
      "encies": 4863,
      "Ġagencies": 4864,
      "Ġilk": 4865,
      "ĠiliÅŁ": 4866,
      "Ġask": 4867,
      "Ġhak": 4868,
      "Ġcultural": 4869,
      "æ®µ": 4870,
      "Ġdescription": 4871,
      "éĻĲ": 4872,
      "Ġparticipant": 4873,
      "åĮĹäº¬": 4874,
      "Ã¤uf": 4875,
      "ror": 4876,
      "Ġerror": 4877,
      "Ġwhom": 4878,
      "Ġaircraft": 4879,
      "vil": 4880,
      "è¯¥": 4881,
      "æ¹": 4882,
      "ĠProdukt": 4883,
      "Ġharm": 4884,
      "Ġbet": 4885,
      "Ġbetter": 4886,
      "inter": 4887,
      "Ġwinter": 4888,
      "Ġdomin": 4889,
      "Ġconflict": 4890,
      "Ġediyor": 4891,
      "æļ": 4892,
      "siniz": 4893,
      "abilirsiniz": 4894,
      "Ġdiferent": 4895,
      "çİĩ": 4896,
      "çİ¯": 4897,
      "Ġultim": 4898,
      "Ġchallenges": 4899,
      "Ġchallenge": 4900,
      "ively": 4901,
      "Ġtruth": 4902,
      "iciÃ³n": 4903,
      "icture": 4904,
      "Ġpicture": 4905,
      "Ġculture": 4906,
      "Ġmotiv": 4907,
      "Ġmotor": 4908,
      "åĤ": 4909,
      "éĺ²": 4910,
      "è§ī": 4911,
      "ĠpolÃŃ": 4912,
      "ĠCanadi": 4913,
      "èĭ±": 4914,
      "gel": 4915,
      "Ġimplic": 4916,
      "Ġviolence": 4917,
      "ammen": 4918,
      "usammen": 4919,
      "Ġzusammen": 4920,
      "urchas": 4921,
      "Ġpurchas": 4922,
      "Ġhace": 4923,
      "Ġbirth": 4924,
      "Ġbirlik": 4925,
      "Ġbirlikte": 4926,
      "liche": 4927,
      "Ġprincipal": 4928,
      "Ġprinciples": 4929,
      "Ġpotentially": 4930,
      "ĠHis": 4931,
      "å¹²": 4932,
      "éĢļè¿ĩ": 4933,
      "Ġrecognized": 4934,
      "arrol": 4935,
      "Ġdesarrol": 4936,
      "ĠChinese": 4937,
      "anced": 4938,
      "Ġadvanced": 4939,
      "Ġlonger": 4940,
      "ĠRussian": 4941,
      "Ġresponsibility": 4942,
      "Ġantib": 4943,
      "ibil": 4944,
      "Ġproducts": 4945,
      "ware": 4946,
      "iye": 4947,
      "Ġresponse": 4948,
      "Ġele": 4949,
      "Ġelements": 4950,
      "Ġelement": 4951,
      "Ġsense": 4952,
      "Ġteaching": 4953,
      "ership": 4954,
      "å®ĥ": 4955,
      "æĿĥ": 4956,
      "åĲĥ": 4957,
      "è¾ĥ": 4958,
      "Ġexpand": 4959,
      "Ġ1990": 4960,
      "stall": 4961,
      "Ġinstall": 4962,
      "Ġpiece": 4963,
      "Ġenjo": 4964,
      "Ġenjoy": 4965,
      "Ġboy": 4966,
      "Ġboard": 4967,
      "Ġbox": 4968,
      "Ġey": 4969,
      "Ġeight": 4970,
      "ĠhiÃ§": 4971,
      "éĻħ": 4972,
      "å¿ħ": 4973,
      "Ġsondern": 4974,
      "ĠPlan": 4975,
      "Ġproces": 4976,
      "ulation": 4977,
      "Ġcommunication": 4978,
      "Ġsegur": 4979,
      "Ġcollege": 4980,
      "Ġclose": 4981,
      "ĠFlorida": 4982,
      "Ġice": 4983,
      "Ġwel": 4984,
      "Ġwent": 4985,
      "Ġvariable": 4986,
      "Ġtable": 4987,
      "Ġhypoth": 4988,
      "Ġmathematic": 4989,
      "mÄ±ÅŁtÄ±r": 4990,
      "æĸ½": 4991,
      "ĠzurÃ¼ck": 4992,
      "roup": 4993,
      "åĽłä¸º": 4994,
      "hap": 4995,
      "Ġperhap": 4996,
      "Ġprotected": 4997,
      "Ġattitude": 4998,
      "Ġwelch": 4999,
      "acific": 5000,
      "ĠPacific": 5001,
      "ĠWhite": 5002,
      "icip": 5003,
      "unicip": 5004,
      "åĢ¼": 5005,
      "Ġsecret": 5006,
      "wise": 5007,
      "ĠHol": 5008,
      "pped": 5009,
      "Ġtransform": 5010,
      "Ġoptim": 5011,
      "Ġcomplete": 5012,
      "Ġhouse": 5013,
      "After": 5014,
      "which": 5015,
      "ĠMich": 5016,
      "**": 5017,
      "Ġbig": 5018,
      "Ġbar": 5019,
      "èĩ´": 5020,
      "Ġpoder": 5021,
      "Ġcircum": 5022,
      "Ġcircumstances": 5023,
      "Ġlaboratory": 5024,
      "ĠeÄŁ": 5025,
      "Ġedit": 5026,
      "Ġorganizations": 5027,
      "Ġorganization": 5028,
      "å£°": 5029,
      "La": 5030,
      "indow": 5031,
      "ĠWindow": 5032,
      "maya": 5033,
      "ç»ıæµ": 5034,
      "ç»ıæµİ": 5035,
      "åįİ": 5036,
      "Ġpieces": 5037,
      "Ġwildlif": 5038,
      "mission": 5039,
      "ĠAustralian": 5040,
      "ography": 5041,
      "come": 5042,
      "ĠseÃ§": 5043,
      "Ġselect": 5044,
      "ĠSecret": 5045,
      "Ġetk": 5046,
      "çİ©": 5047,
      "eich": 5048,
      "Ġmich": 5049,
      "ore": 5050,
      "ĠMore": 5051,
      "he": 5052,
      "head": 5053,
      "Ġefficient": 5054,
      "Ġsufficient": 5055,
      "Ġbasis": 5056,
      "gn": 5057,
      "Ġpregn": 5058,
      "Ġpregnancy": 5059,
      "Ġmuj": 5060,
      "ĠArm": 5061,
      "Ġincreases": 5062,
      "Ġpack": 5063,
      "è¡¨ç¤º": 5064,
      "åŃĺ": 5065,
      "ä¸Ķ": 5066,
      "quest": 5067,
      "Ġrequest": 5068,
      "Ġdest": 5069,
      "Ġdestro": 5070,
      "Ġdestroy": 5071,
      "Ġdeb": 5072,
      "Ġwro": 5073,
      "Ġwrote": 5074,
      "Ġcenter": 5075,
      "äºĶ": 5076,
      "Ġgame": 5077,
      "name": 5078,
      "Ġradiation": 5079,
      "éĿŀå¸¸": 5080,
      "è§Ĩé¢": 5081,
      "è§Ĩé¢ĳ": 5082,
      "Ġacade": 5083,
      "Ġacadem": 5084,
      "ray": 5085,
      "ĠTra": 5086,
      "ĠThom": 5087,
      "ĠThomas": 5088,
      "Ġsafe": 5089,
      "çĶŁæ´»": 5090,
      "Ġpolicies": 5091,
      "Ġgold": 5092,
      "Ġprice": 5093,
      "Ġneeded": 5094,
      "Ġaudi": 5095,
      "Ġneighbor": 5096,
      "aba": 5097,
      "abet": 5098,
      "Ġdiabet": 5099,
      "Ġdiabetes": 5100,
      "Ġhighly": 5101,
      "Ġdang": 5102,
      "Ġdanger": 5103,
      "Ġdangerous": 5104,
      "mer": 5105,
      "mey": 5106,
      "ĠpolÃŃt": 5107,
      "ton": 5108,
      "ones": 5109,
      "Ġschon": 5110,
      "Ġchron": 5111,
      "ronom": 5112,
      "stronom": 5113,
      "omet": 5114,
      "Ġcolleag": 5115,
      "Ġcolleagues": 5116,
      "corp": 5117,
      "corpor": 5118,
      "Ġtop": 5119,
      "put": 5120,
      "sp": 5121,
      "rap": 5122,
      "Ġep": 5123,
      "aut": 5124,
      "Ġtherap": 5125,
      "Ġsystems": 5126,
      "Ġdirector": 5127,
      "Ġcuenta": 5128,
      "plic": 5129,
      "ierung": 5130,
      "ĠKon": 5131,
      "ĠNe": 5132,
      "Ġpe": 5133,
      "Ġpeace": 5134,
      "ĠGroup": 5135,
      "Ġskills": 5136,
      "åı·": 5137,
      "æĤ¨": 5138,
      "âĤ¬": 5139,
      "Ġbiological": 5140,
      "Ġsouthern": 5141,
      "ĠUN": 5142,
      "Ġmuscle": 5143,
      "100": 5144,
      "ynÄ±": 5145,
      "ĠRes": 5146,
      "ĠResources": 5147,
      "adores": 5148,
      "mes": 5149,
      "mesi": 5150,
      "Ġrates": 5151,
      "esch": 5152,
      "ĠGesch": 5153,
      "Ġexcess": 5154,
      "ĠPri": 5155,
      "Ġworkers": 5156,
      "Ġmujer": 5157,
      "Ġbis": 5158,
      "Ġdescribed": 5159,
      "Ġmedicine": 5160,
      "Ġmillones": 5161,
      "Ġstrug": 5162,
      "Ġstrugg": 5163,
      "Ġstock": 5164,
      "Ġlack": 5165,
      "Ġposs": 5166,
      "Ġpossibility": 5167,
      "Ġadjust": 5168,
      "Ġharvest": 5169,
      "Ġpeque": 5170,
      "Ġclick": 5171,
      "Ġclin": 5172,
      "Ġclinical": 5173,
      "Ġtechnical": 5174,
      "Ġindustrial": 5175,
      "ley": 5176,
      "ville": 5177,
      "Ġeth": 5178,
      "çĻ¼": 5179,
      "EC": 5180,
      "Ġmad": 5181,
      "Ġbiri": 5182,
      "ente": 5183,
      "æ¸¸æĪı": 5184,
      "Ġexcell": 5185,
      "Ġnum": 5186,
      "Ġnumer": 5187,
      "Ġnumerous": 5188,
      "Ġgesch": 5189,
      "èı": 5190,
      "her": 5191,
      "ĠArab": 5192,
      "Ġefficiency": 5193,
      "house": 5194,
      "ĠgÃ¼Ã§": 5195,
      "Ġtopic": 5196,
      "Ġselected": 5197,
      "æĢĿ": 5198,
      "berg": 5199,
      "blic": 5200,
      "Ãºblic": 5201,
      "ĠpÃºblic": 5202,
      "Ġtempor": 5203,
      "Ã¤ft": 5204,
      "Ġoutput": 5205,
      "lies": 5206,
      "Ġuygulam": 5207,
      "Ġdry": 5208,
      "Ġamb": 5209,
      "like": 5210,
      "æİĴ": 5211,
      "Ġpractical": 5212,
      "ĠÃ§Ã¶z": 5213,
      "æ´»åĬ¨": 5214,
      "Ġnation": 5215,
      "US": 5216,
      "ynamic": 5217,
      "Ġselb": 5218,
      "Ġselbst": 5219,
      "Ġselection": 5220,
      "ĠBe": 5221,
      "Ġnutrition": 5222,
      "Ġnutrient": 5223,
      "é¥": 5224,
      "quar": 5225,
      "Ġsquar": 5226,
      "Ġcopy": 5227,
      "Ġeconomy": 5228,
      "è¯ģ": 5229,
      "ç¥¨": 5230,
      "ĠCom": 5231,
      "ĠolmasÄ±": 5232,
      "Ġupper": 5233,
      "ĠImp": 5234,
      "oot": 5235,
      "Ġfoot": 5236,
      "Ġhot": 5237,
      "Ġflood": 5238,
      "Ġfun": 5239,
      "Ġfuncion": 5240,
      "Ġcomun": 5241,
      "Ġstrategies": 5242,
      "Ġgreenhouse": 5243,
      "Ã¼yor": 5244,
      "Ġfeature": 5245,
      "ĠIs": 5246,
      "ĠIsland": 5247,
      "ĠIsra": 5248,
      "ĠIsrael": 5249,
      "ĠIslam": 5250,
      "ĠIm": 5251,
      "mÄ±z": 5252,
      "larÄ±mÄ±z": 5253,
      "Ä±ÄŁÄ±mÄ±z": 5254,
      "Ġradio": 5255,
      "Ġemo": 5256,
      "Ġemotion": 5257,
      "Ġdoesn": 5258,
      "Ġthen": 5259,
      "ne": 5260,
      "ney": 5261,
      "Ġkidney": 5262,
      "nown": 5263,
      "known": 5264,
      "alley": 5265,
      "Ġmole": 5266,
      "Ġmolecul": 5267,
      "éĻ¤": 5268,
      "ottom": 5269,
      "Ġbottom": 5270,
      "Ġrich": 5271,
      "cho": 5272,
      "unch": 5273,
      "Ġlaunch": 5274,
      "Ġphysician": 5275,
      "ä¹ł": 5276,
      "Ġnative": 5277,
      "unun": 5278,
      "Ġbecomes": 5279,
      "levant": 5280,
      "Ġrelevant": 5281,
      "rel": 5282,
      "related": 5283,
      "Ġtreated": 5284,
      "Ġdevice": 5285,
      "Ġadvice": 5286,
      "Ã¼tÃ¼n": 5287,
      "Ġprocedure": 5288,
      "Ġprocedures": 5289,
      "rupp": 5290,
      "ify": 5291,
      "å·ŀ": 5292,
      "ished": 5293,
      "Ġapplied": 5294,
      "ĠdÃ¶nem": 5295,
      "Ġ186": 5296,
      "irect": 5297,
      "ĠDirect": 5298,
      "ĠLord": 5299,
      "Ġgiving": 5300,
      "Ġetwas": 5301,
      "ebilirsiniz": 5302,
      "Ġfamiliar": 5303,
      "hibition": 5304,
      "According": 5305,
      "):": 5306,
      "larÄ±nda": 5307,
      "ÄŁimiz": 5308,
      "ĠRich": 5309,
      "ĠRichard": 5310,
      "ĠhabÃŃa": 5311,
      "uda": 5312,
      "chang": 5313,
      "Ġexchang": 5314,
      "Ġexhibit": 5315,
      "Ġexception": 5316,
      "Ġexcept": 5317,
      "However": 5318,
      "Ġmir": 5319,
      "rÃ¼n": 5320,
      "ĠgÃ¶rÃ¼n": 5321,
      "Ġremark": 5322,
      "ĠProble": 5323,
      "ĠLabor": 5324,
      "Ġ1999": 5325,
      "Ġimpos": 5326,
      "Ġimpossible": 5327,
      "Ġreduc": 5328,
      "Ġcook": 5329,
      "Ġcoup": 5330,
      "Ġmeeting": 5331,
      "Ġguidelines": 5332,
      ",âĢĿ": 5333,
      "ĠOb": 5334,
      "ett": 5335,
      "Ã¤lt": 5336,
      "Ġpredict": 5337,
      "å¼Ģå§ĭ": 5338,
      "Ġlot": 5339,
      "Ġadministrat": 5340,
      "Ġadministration": 5341,
      "aster": 5342,
      "ĠâĤ¬": 5343,
      "æŀĹ": 5344,
      "æŀĦ": 5345,
      "Ġtook": 5346,
      "Ġok": 5347,
      "æīĢä»¥": 5348,
      "çģ«": 5349,
      "ranch": 5350,
      "Ġbranch": 5351,
      "ç±³": 5352,
      "Ġhakk": 5353,
      "ĠhakkÄ±nda": 5354,
      "ĠGuide": 5355,
      "ĠCity": 5356,
      "ĠdÃŃas": 5357,
      "Ġstories": 5358,
      "æİ§": 5359,
      "Ġcode": 5360,
      "Ġkostenlos": 5361,
      "rief": 5362,
      "Ġtrade": 5363,
      "ographic": 5364,
      "Ġcritic": 5365,
      "uck": 5366,
      "dap": 5367,
      "dapt": 5368,
      "Ġadapt": 5369,
      "gra": 5370,
      "urg": 5371,
      "burg": 5372,
      "ĠFra": 5373,
      "ä¿®": 5374,
      "è®®": 5375,
      "ç½®": 5376,
      "Ġserved": 5377,
      "Ġeveryone": 5378,
      "umb": 5379,
      "ĠColumb": 5380,
      "åĨ³": 5381,
      "åĨĽ": 5382,
      "ĠÃ¼l": 5383,
      "ĠÃ¼lk": 5384,
      "Ġpersonas": 5385,
      "athol": 5386,
      "atholic": 5387,
      "ĠCatholic": 5388,
      "ĠCour": 5389,
      "Ġmunicip": 5390,
      "ĠUnter": 5391,
      "ĠÃ¼zerinde": 5392,
      "Ġinvolves": 5393,
      "Ġinvolve": 5394,
      "Ġsor": 5395,
      "Ġsample": 5396,
      "è¾¹": 5397,
      "Ġdownload": 5398,
      "eleri": 5399,
      "Ġni": 5400,
      "iet": 5401,
      "Ġtari": 5402,
      "Ġtarih": 5403,
      "Ġanti": 5404,
      "Ġfigure": 5405,
      "Ġgleich": 5406,
      "ĠSince": 5407,
      "Ġreve": 5408,
      "Ġreveal": 5409,
      "Ġrec": 5410,
      "ec": 5411,
      "Ġconscious": 5412,
      "Ġeigen": 5413,
      "UN": 5414,
      "Ġresolution": 5415,
      "back": 5416,
      "bol": 5417,
      "mbol": 5418,
      "ymbol": 5419,
      "Ġsymbol": 5420,
      "be": 5421,
      "mension": 5422,
      "è·Ł": 5423,
      "Ġtypical": 5424,
      "Ġoperations": 5425,
      "åıį": 5426,
      "Ġtut": 5427,
      "ute": 5428,
      "eign": 5429,
      "Ġforeign": 5430,
      "Ġapply": 5431,
      "Ġoff": 5432,
      "Ġarri": 5433,
      "ĠGreen": 5434,
      "Ġclosely": 5435,
      "asÄ±na": 5436,
      "Ġyourself": 5437,
      "rend": 5438,
      "Ġtrend": 5439,
      "Ã³mo": 5440,
      "conÃ³m": 5441,
      "Ġcontrovers": 5442,
      "Ġvision": 5443,
      "Ġvisible": 5444,
      "Ġvit": 5445,
      "Ġvitamin": 5446,
      "rant": 5447,
      "ĠCourt": 5448,
      "éĿĴ": 5449,
      "fach": 5450,
      "Ġeinfach": 5451,
      "Ġelev": 5452,
      "éļ¾": 5453,
      "irgin": 5454,
      "ĠVirgin": 5455,
      "ĠVirginia": 5456,
      "Ġinfant": 5457,
      "Ġotherwise": 5458,
      "è½½": 5459,
      "Ġleaving": 5460,
      "Ġagree": 5461,
      "Ġreplace": 5462,
      "Ġoce": 5463,
      "Ġocean": 5464,
      "ece": 5465,
      "Ġsm": 5466,
      "Ġsmok": 5467,
      "Ġsem": 5468,
      "Ġdiesem": 5469,
      "Ġengineer": 5470,
      "Ġspend": 5471,
      "ç³»ç»Ł": 5472,
      "ĠVor": 5473,
      "Ġauthority": 5474,
      "å¹³åı°": 5475,
      "iyat": 5476,
      "é¡¹çĽ®": 5477,
      "è¨Ģ": 5478,
      "Ġcircul": 5479,
      "int": 5480,
      "oint": 5481,
      "Ġappoint": 5482,
      "Ġpaint": 5483,
      "St": 5484,
      "unden": 5485,
      "ç¤¾ä¼ļ": 5486,
      "ogen": 5487,
      "ogle": 5488,
      "oogle": 5489,
      "ĠGoogle": 5490,
      "ĠniÃ±os": 5491,
      "ĠAdministration": 5492,
      "heim": 5493,
      "Ġtrees": 5494,
      "Ġbrok": 5495,
      "åĽ½éĻħ": 5496,
      "Ġseven": 5497,
      "oÄŁ": 5498,
      "ode": 5499,
      "Ġbeaut": 5500,
      "Ġbeautif": 5501,
      "Ġbeautiful": 5502,
      "ĠEconom": 5503,
      "Ġvent": 5504,
      "Ġvot": 5505,
      "Ġverschied": 5506,
      "Ġrights": 5507,
      "Ġeasier": 5508,
      "Ġeastern": 5509,
      "Ġurb": 5510,
      "Ġurban": 5511,
      "product": 5512,
      "Ġwied": 5513,
      "Ġwieder": 5514,
      "yd": 5515,
      "Ġhyd": 5516,
      "ĠdÃ¼zen": 5517,
      "åŃ©": 5518,
      "åŃĹ": 5519,
      "aw": 5520,
      "igrant": 5521,
      "ç¾¤": 5522,
      "æĬ¤": 5523,
      "Ġartist": 5524,
      "swer": 5525,
      "Ġanswer": 5526,
      "ĠDis": 5527,
      "Ġfluid": 5528,
      "åıĤ": 5529,
      "stions": 5530,
      "Ġquestions": 5531,
      "Ġcharge": 5532,
      "inder": 5533,
      "ĠKinder": 5534,
      "ader": 5535,
      "Ġreader": 5536,
      "Ġbodi": 5537,
      "ĠAcade": 5538,
      "ĠAcadem": 5539,
      "obier": 5540,
      "obiern": 5541,
      "ĠsegÃºn": 5542,
      "ternacional": 5543,
      "ĠcÃ³mo": 5544,
      "ock": 5545,
      "hol": 5546,
      "cohol": 5547,
      "Ġalcohol": 5548,
      "Ġalt": 5549,
      "Ġlimited": 5550,
      "ĠâĨ": 5551,
      "è±¡": 5552,
      "inin": 5553,
      "ino": 5554,
      "To": 5555,
      "Ġtrabajo": 5556,
      "system": 5557,
      "cosystem": 5558,
      "Ġecosystem": 5559,
      "ĠsÃ¶y": 5560,
      "Ġcat": 5561,
      "Ġconclusion": 5562,
      "Ġthick": 5563,
      "Ġborder": 5564,
      "New": 5565,
      "spaÃ±": 5566,
      "ĠEspaÃ±": 5567,
      "99": 5568,
      "ĠFrau": 5569,
      "å°Ķ": 5570,
      "èģĮ": 5571,
      "Ġperhaps": 5572,
      "Ġintervention": 5573,
      "Ä±lÄ±": 5574,
      "Ġargument": 5575,
      "Ġpractices": 5576,
      "Ġinside": 5577,
      "Ġinnov": 5578,
      "Ġtele": 5579,
      "Ġtelef": 5580,
      "Ġfight": 5581,
      "Ġmolecular": 5582,
      "Ġminim": 5583,
      "etri": 5584,
      "ĠRetri": 5585,
      "ĠRetrie": 5586,
      "ĠRetrieved": 5587,
      "Ġwealth": 5588,
      "Ġcomes": 5589,
      "Ġcompro": 5590,
      "Ġcold": 5591,
      "å®īåħ¨": 5592,
      "Ġhydrogen": 5593,
      "Ġinstitution": 5594,
      "ĠConstitution": 5595,
      "Ġvo": 5596,
      "ĠeÄŁit": 5597,
      "ĠeÄŁitim": 5598,
      "Ġmatch": 5599,
      "åĽ½å®¶": 5600,
      "avy": 5601,
      "Ġheavy": 5602,
      "Ġtherapy": 5603,
      "ĠdÃ¼n": 5604,
      "ĠdÃ¼ny": 5605,
      "Ġincorpor": 5606,
      "Ġescap": 5607,
      "Ġfinally": 5608,
      "Ġconvention": 5609,
      "quently": 5610,
      "Ġalone": 5611,
      "Ġuns": 5612,
      "Ġunser": 5613,
      "Ġunit": 5614,
      "itz": 5615,
      "Ġmachine": 5616,
      "Ġbattle": 5617,
      "Ġbur": 5618,
      "åĬ¿": 5619,
      "æŀģ": 5620,
      "Ġinterior": 5621,
      "Ġdevices": 5622,
      "Ġkomm": 5623,
      "Ġfacilit": 5624,
      "ĠgÃ¶rÃ¼ÅŁ": 5625,
      "ĠWir": 5626,
      "ĠquÃ©": 5627,
      "æĢģ": 5628,
      "æĢİ": 5629,
      "è¯·": 5630,
      "è¯ķ": 5631,
      "æĺ¾": 5632,
      "Ġhuge": 5633,
      "Ġkaz": 5634,
      "idi": 5635,
      "æ»¡": 5636,
      "Ġdiese": 5637,
      "Ġdieser": 5638,
      "Ġprovision": 5639,
      "Ġprovider": 5640,
      "Ġvaccine": 5641,
      "Ġdecline": 5642,
      "ĠIhn": 5643,
      "Ä±lÄ±k": 5644,
      "Ġmagnetic": 5645,
      "ĠtaÅŁ": 5646,
      "Ġprices": 5647,
      "çļ": 5648,
      "åħļ": 5649,
      "åħĭ": 5650,
      "åįļ": 5651,
      "Ġintroduction": 5652,
      "jur": 5653,
      "Ġinjur": 5654,
      "Ġbiet": 5655,
      "åŁŁ": 5656,
      "lÄ±ÄŁÄ±": 5657,
      "å¾·": 5658,
      "èİ·": 5659,
      "éĩĩ": 5660,
      "Ġarchit": 5661,
      "Ġarchitect": 5662,
      "Ġposible": 5663,
      "ĠÃ§alÄ±ÅŁmal": 5664,
      "Ġconcentration": 5665,
      "Ġtold": 5666,
      "Ġequal": 5667,
      "Ġchap": 5668,
      "cap": 5669,
      "ĠLaboratory": 5670,
      "Ġmob": 5671,
      "ĠRegion": 5672,
      "dicion": 5673,
      "Ġ<": 5674,
      "AM": 5675,
      "Ġsac": 5676,
      "ç½ĳç«Ļ": 5677,
      "Ġhecho": 5678,
      "nowledge": 5679,
      "Ġlost": 5680,
      "Ġinterview": 5681,
      "ĠReview": 5682,
      "Ġbilgiler": 5683,
      "Ġacid": 5684,
      "Ã¤hrend": 5685,
      "asÄ±nÄ±": 5686,
      "ama": 5687,
      "ĠIhnen": 5688,
      "Ġhazard": 5689,
      "Ġdram": 5690,
      "Ġdrop": 5691,
      "ĠReport": 5692,
      "Ġreplaced": 5693,
      "uel": 5694,
      "unu": 5695,
      "Ġfactors": 5696,
      "Ġworth": 5697,
      "Ġdispos": 5698,
      "Ġtroop": 5699,
      "arÃ¡": 5700,
      "Ġrecognize": 5701,
      "Ġreform": 5702,
      "Ġcompared": 5703,
      "cluding": 5704,
      "Ġchronic": 5705,
      "Ġyer": 5706,
      "ĠOld": 5707,
      "é¾": 5708,
      "é¤": 5709,
      "Ġcompound": 5710,
      "Ġspect": 5711,
      "Ġsi": 5712,
      "Ġsig": 5713,
      "ige": 5714,
      "Ġsab": 5715,
      "Ġsil": 5716,
      "Ġexercise": 5717,
      "çª": 5718,
      "åĳ½": 5719,
      "ession": 5720,
      "æ²¹": 5721,
      "Ġuygun": 5722,
      "åĨµ": 5723,
      "æĥħåĨµ": 5724,
      "Ġbase": 5725,
      "Ġcommission": 5726,
      "Ġsing": 5727,
      "Ġsingle": 5728,
      "Ġterror": 5729,
      "'ll": 5730,
      "Ġexclus": 5731,
      "Ġexc": 5732,
      "Ġpurpose": 5733,
      "æĻ¯": 5734,
      "åĸľ": 5735,
      "ĠGrund": 5736,
      "ĠGe": 5737,
      "ĠGeor": 5738,
      "ĠGeorge": 5739,
      "ĠGeorg": 5740,
      "Ġacademic": 5741,
      "wide": 5742,
      "oxide": 5743,
      "Ġmayor": 5744,
      "Ġdrive": 5745,
      "ĠGlob": 5746,
      "Ġfair": 5747,
      "Ġpodr": 5748,
      "with": 5749,
      "force": 5750,
      "ames": 5751,
      "ĠJames": 5752,
      "ĠOp": 5753,
      "quence": 5754,
      "Ġexistence": 5755,
      "Ã©s": 5756,
      "vÃ©s": 5757,
      "ĠtravÃ©s": 5758,
      "uÃ©s": 5759,
      "ĠdespuÃ©s": 5760,
      "Ã©n": 5761,
      "vor": 5762,
      "Ġarrived": 5763,
      "Ġrenew": 5764,
      "Ġknew": 5765,
      "æĿ¡": 5766,
      "obierno": 5767,
      "Ġachieved": 5768,
      "Ġdomest": 5769,
      "Ġdomestic": 5770,
      "ĠStand": 5771,
      "ĠStandard": 5772,
      "Ġteacher": 5773,
      "Ġrevolution": 5774,
      "ĠRevolution": 5775,
      "ĠFacebook": 5776,
      "gyp": 5777,
      "ĠEgyp": 5778,
      "ĠEgypt": 5779,
      "Ġ500": 5780,
      "Ġimmigrant": 5781,
      "Ġpump": 5782,
      "ush": 5783,
      "hind": 5784,
      "Ġbehind": 5785,
      "Ġjug": 5786,
      "vit": 5787,
      "Ġmovi": 5788,
      "amous": 5789,
      "Ġfamous": 5790,
      "schen": 5791,
      "Ġben": 5792,
      "Ġbab": 5793,
      "Ġbaby": 5794,
      "ych": 5795,
      "sych": 5796,
      "Ġpsych": 5797,
      "ĠPsych": 5798,
      "Pro": 5799,
      "field": 5800,
      "ç§°": 5801,
      "Ġexternal": 5802,
      "Ġexam": 5803,
      "Ġtransmission": 5804,
      "Ġtransl": 5805,
      "Äŀ": 5806,
      "Ä±ra": 5807,
      "ĠsÄ±ra": 5808,
      "Ġdestek": 5809,
      "éħĴ": 5810,
      "198": 5811,
      "Ġpollu": 5812,
      "Ġpollution": 5813,
      "é¾Ļ": 5814,
      "Ar": 5815,
      "Ġsof": 5816,
      "é¢Ħ": 5817,
      "last": 5818,
      "mon": 5819,
      "Ġfast": 5820,
      "mitted": 5821,
      "Ġvictim": 5822,
      "ivos": 5823,
      "iva": 5824,
      "Ġquier": 5825,
      "Ġkids": 5826,
      "Ġagency": 5827,
      "å¾Īå¤ļ": 5828,
      "Ġadvance": 5829,
      "Ġadvoc": 5830,
      "å»ºè®¾": 5831,
      "è®¾è®¡": 5832,
      "Ġsurgery": 5833,
      "Ġmaterials": 5834,
      "ĠCommon": 5835,
      "Ġnames": 5836,
      "Ġnamed": 5837,
      "ĠShe": 5838,
      "Ġjedoch": 5839,
      "éģİ": 5840,
      "èĮĥ": 5841,
      "Ġleading": 5842,
      "Ġdivision": 5843,
      "Ġtelevision": 5844,
      "Ġcomfort": 5845,
      "fortun": 5846,
      "fortunately": 5847,
      "Ġultimately": 5848,
      "Ġbecoming": 5849,
      "å¾®": 5850,
      "Ġproductos": 5851,
      "Ġmomento": 5852,
      "Ġwrite": 5853,
      "æĭī": 5854,
      "æ¥Ń": 5855,
      "ç»Ń": 5856,
      "Ġbrief": 5857,
      "Ġpueden": 5858,
      "åĴ": 5859,
      "å¡": 5860,
      "å©": 5861,
      "è©": 5862,
      "Ġsamples": 5863,
      "ĠUm": 5864,
      "Ġ1998": 5865,
      "Ġtree": 5866,
      "Ġcommonly": 5867,
      "Ġexactly": 5868,
      "ç¾İåĽ½": 5869,
      "sche": 5870,
      "Re": 5871,
      "RO": 5872,
      "ĠaÃ§Ä±klam": 5873,
      "Ġllam": 5874,
      "Ġcities": 5875,
      "ectos": 5876,
      "ambridge": 5877,
      "Ġ1980": 5878,
      "unque": 5879,
      "Ġanalyz": 5880,
      "ĠLou": 5881,
      "ĠLouis": 5882,
      "Ġworldwide": 5883,
      "ä¼Ĺ": 5884,
      "Ġpermission": 5885,
      "çº¦": 5886,
      "ispiel": 5887,
      "ivers": 5888,
      "augh": 5889,
      "aught": 5890,
      "ughter": 5891,
      "ĠFound": 5892,
      "ĠFoundation": 5893,
      "Ġbound": 5894,
      "Ġeating": 5895,
      "Ġeat": 5896,
      "Ġecolog": 5897,
      "ij": 5898,
      "ä»¥åıĬ": 5899,
      "ĠGeschÃ¤ft": 5900,
      "Ġsevere": 5901,
      "Ġmeasures": 5902,
      "ç¦ı": 5903,
      "ç¦»": 5904,
      "éļı": 5905,
      "Ġbit": 5906,
      "Ġbak": 5907,
      "ĠUhr": 5908,
      "roscop": 5909,
      "Ġmicroscop": 5910,
      "Ġkonus": 5911,
      "Ġkonusunda": 5912,
      "Ġdespite": 5913,
      "Ġround": 5914,
      "Ġshare": 5915,
      "ĠEast": 5916,
      "ourney": 5917,
      "Ġcontrast": 5918,
      "Ġregister": 5919,
      "ĠgÃ¶s": 5920,
      "ĠgÃ¶ster": 5921,
      "Ġbodies": 5922,
      "36": 5923,
      "35": 5924,
      "45": 5925,
      "æķ°æį®": 5926,
      "Ġdisapp": 5927,
      "Ã¼rlÃ¼": 5928,
      "Ġcombination": 5929,
      "ĠaÃ±o": 5930,
      "å¾Ģ": 5931,
      "usion": 5932,
      "ĠRock": 5933,
      "Ġgather": 5934,
      "Ä±mÄ±": 5935,
      "idir": 5936,
      "Ġpreviously": 5937,
      "ĠgÃ¼z": 5938,
      "oh": 5939,
      "ohl": 5940,
      "sh": 5941,
      "Ġwish": 5942,
      "resh": 5943,
      "Ġfresh": 5944,
      "Ġass": 5945,
      "Ġassist": 5946,
      "Ġassign": 5947,
      "Ġasses": 5948,
      "Ġassess": 5949,
      "Ġassum": 5950,
      "Ġassemb": 5951,
      "Ġassessment": 5952,
      "ĠasÃŃ": 5953,
      "Ġprovides": 5954,
      "ĠBaÅŁkanÄ±": 5955,
      "ĠgÃ¼zel": 5956,
      "Ġoy": 5957,
      "Ġoyun": 5958,
      "Ġsupplies": 5959,
      "AD": 5960,
      "Ġwidely": 5961,
      "ously": 5962,
      "Ġestos": 5963,
      "Ġtwent": 5964,
      "åĭķ": 5965,
      "Ġnormally": 5966,
      "Ġnaturally": 5967,
      "Ġrais": 5968,
      "Ġdre": 5969,
      "ĠÃ¼re": 5970,
      "ĠÃ¼cret": 5971,
      "Ġoperating": 5972,
      "Ġdirekt": 5973,
      "Amer": 5974,
      "Americ": 5975,
      "American": 5976,
      "Ġclearly": 5977,
      "cycl": 5978,
      "cyclop": 5979,
      "ĠEncyclop": 5980,
      "Ġcab": 5981,
      "éĶĢ": 5982,
      "ĠGermany": 5983,
      "Ġconserv": 5984,
      "igration": 5985,
      "ĠIS": 5986,
      "ĠISB": 5987,
      "ĠISBN": 5988,
      "Some": 5989,
      "äºļ": 5990,
      "orial": 5991,
      "Ġcasino": 5992,
      "Ġrestrict": 5993,
      "Ġfem": 5994,
      "Ġfemal": 5995,
      "Ġsurvival": 5996,
      "æĹħ": 5997,
      "æĹ©": 5998,
      "Ġvoice": 5999,
      "æĢİä¹Ī": 6000,
      "Ġsetting": 6001,
      "Ġfear": 6002,
      "æĬķèµĦ": 6003,
      "Ġopin": 6004,
      "Ġopinion": 6005,
      "åĢĳ": 6006,
      "ĠCancer": 6007,
      "Ġrob": 6008,
      "Ġment": 6009,
      "Ġmental": 6010,
      "Research": 6011,
      "unuz": 6012,
      "mith": 6013,
      "ĠSmith": 6014,
      "Ã¼mÃ¼z": 6015,
      "Ġoriginally": 6016,
      "tt": 6017,
      "ttp": 6018,
      "Ġhttp": 6019,
      "http": 6020,
      "cott": 6021,
      "Ġhydro": 6022,
      "Ġhatte": 6023,
      "dustri": 6024,
      "Ġett": 6025,
      "ĠPer": 6026,
      "Ġnegoci": 6027,
      "ibilidad": 6028,
      "ibilities": 6029,
      "ING": 6030,
      "åħį": 6031,
      "rÄ±": 6032,
      "rÄ±ca": 6033,
      "ĠdÄ±ÅŁ": 6034,
      "çĽ®åīį": 6035,
      "minister": 6036,
      "ĠUnder": 6037,
      "ĠeconÃ³m": 6038,
      "rum": 6039,
      "rÃ³": 6040,
      "rÃ³xim": 6041,
      "Ġhealthy": 6042,
      "EM": 6043,
      "Ġstreet": 6044,
      "Ġrobot": 6045,
      "å¤į": 6046,
      "å¤±": 6047,
      "Ġassumption": 6048,
      "ĠRussia": 6049,
      "rimin": 6050,
      "Ġdiscrimin": 6051,
      "Ġdamit": 6052,
      "78": 6053,
      "è´£": 6054,
      "Ġcomposition": 6055,
      "Ġdollar": 6056,
      "Ġgeb": 6057,
      "Ġpolitic": 6058,
      "ĠEngine": 6059,
      "Ġdiscovered": 6060,
      "ĠiliÅŁk": 6061,
      "Ġserve": 6062,
      "ĠMuse": 6063,
      "ĠMuseum": 6064,
      "Ġsolar": 6065,
      "è¿Ļæł·": 6066,
      "çĬ": 6067,
      "ĠkadÄ±n": 6068,
      "Ġfarmers": 6069,
      "ĠChar": 6070,
      "ĠCharles": 6071,
      "gar": 6072,
      "Ġsugar": 6073,
      "gnitive": 6074,
      "Ġevents": 6075,
      "can": 6076,
      "ĠEnergy": 6077,
      "ĠRight": 6078,
      "Ġmodific": 6079,
      "Ġmodif": 6080,
      "ĠFahr": 6081,
      "Ġterritory": 6082,
      "Ġkept": 6083,
      "è§Ĵ": 6084,
      "zahl": 6085,
      "Ġestimates": 6086,
      "ç¢": 6087,
      "çº¢": 6088,
      "ĠMart": 6089,
      "Ġtas": 6090,
      "Ġtask": 6091,
      "Ġtur": 6092,
      "ĠsÃ¶yled": 6093,
      "Ġstorage": 6094,
      "Ġfollowed": 6095,
      "uy": 6096,
      "uyor": 6097,
      "uÄŁ": 6098,
      "ĠdiÄŁ": 6099,
      "ĠdiÄŁer": 6100,
      "very": 6101,
      "Ġrar": 6102,
      "Ġstar": 6103,
      "ĠHar": 6104,
      "bar": 6105,
      "Ġstay": 6106,
      "Ġchance": 6107,
      "alarÄ±": 6108,
      "ĠHand": 6109,
      "Ġslight": 6110,
      "Ġslightly": 6111,
      "ĠCanadian": 6112,
      "ç¬¬ä¸Ģ": 6113,
      "Ġheat": 6114,
      "top": 6115,
      "Ġexperiments": 6116,
      "åį³": 6117,
      "åįĩ": 6118,
      "anÄ±": 6119,
      "ĠSecurity": 6120,
      "Ġsomewh": 6121,
      "Ġgrant": 6122,
      "éĴ±": 6123,
      "unk": 6124,
      "Ġcool": 6125,
      "cientist": 6126,
      "ĠFrancisco": 6127,
      "ĠToday": 6128,
      "ãĢĲ": 6129,
      "ãĢĳ": 6130,
      "çŃĸ": 6131,
      "Ġevol": 6132,
      "Ġeye": 6133,
      "Ġeyes": 6134,
      "Ġsave": 6135,
      "Ġseek": 6136,
      "æĶ¿åº": 6137,
      "æĶ¿åºľ": 6138,
      "oard": 6139,
      "board": 6140,
      "ardÄ±r": 6141,
      "Ġvaluable": 6142,
      "iÃŁ": 6143,
      "Ġexplan": 6144,
      "Ġ1997": 6145,
      "ĠColumbia": 6146,
      "çĮ": 6147,
      "Ġpropor": 6148,
      "Ġyak": 6149,
      "ĠyaklaÅŁ": 6150,
      "eld": 6151,
      "Ġneither": 6152,
      "ĠCap": 6153,
      "ivision": 6154,
      "version": 6155,
      "ĠpaylaÅŁ": 6156,
      "åĶ®": 6157,
      "Ġsenior": 6158,
      "ehr": 6159,
      "ENT": 6160,
      "ayÄ±n": 6161,
      "Ġpurposes": 6162,
      "Ġbehaviour": 6163,
      "lerinin": 6164,
      "Ġcognitive": 6165,
      "ĠDas": 6166,
      "å®ĺ": 6167,
      "organ": 6168,
      "dÄ±": 6169,
      "Ġsupplement": 6170,
      "Ġsigu": 6171,
      "Ġsiguient": 6172,
      "ientos": 6173,
      "adas": 6174,
      "Ġabs": 6175,
      "Ġabsol": 6176,
      "Ġabsor": 6177,
      "ĠbÃ¶lÃ¼m": 6178,
      "Ġfile": 6179,
      "Ġscor": 6180,
      "ĠartÃŃcul": 6181,
      "Ġkurul": 6182,
      "Ġleadership": 6183,
      "åŃ©åŃĲ": 6184,
      "Ġproportion": 6185,
      "Ġsatell": 6186,
      "Ġsatis": 6187,
      "Ġsatisf": 6188,
      "Ġcurric": 6189,
      "Ġsensitive": 6190,
      "Ġchapter": 6191,
      "tur": 6192,
      "ĠoluÅŁtur": 6193,
      "Ġcaptur": 6194,
      "uÅŁtur": 6195,
      "ĠÃ¶zel": 6196,
      "Ġscale": 6197,
      "Ġtraffic": 6198,
      "ĠBank": 6199,
      "éĩįè¦ģ": 6200,
      "Ġ*": 6201,
      "Ġ.": 6202,
      "Ġ:": 6203,
      "Ġ>": 6204,
      "Ġagent": 6205,
      "aci": 6206,
      "Ġespaci": 6207,
      "acidad": 6208,
      "Ġinfected": 6209,
      "æ¿": 6210,
      "æ©": 6211,
      "è¿ŀ": 6212,
      "structure": 6213,
      "aith": 6214,
      "Ġfaith": 6215,
      "lara": 6216,
      "Ġdivid": 6217,
      "Ġmarriage": 6218,
      "Ġencourage": 6219,
      "Ġencourag": 6220,
      "Ġdomain": 6221,
      "ĠschÃ¶n": 6222,
      "ux": 6223,
      "Ġgeneration": 6224,
      "ĠiÃ§inde": 6225,
      "des": 6226,
      "Ã¼nde": 6227,
      "Ġblu": 6228,
      "Ġpush": 6229,
      "Ġinstruction": 6230,
      "cal": 6231,
      "Ġforce": 6232,
      "lace": 6233,
      "Ġdesarrollo": 6234,
      "ä¾Ŀ": 6235,
      "ä¾ĭ": 6236,
      "çĿ": 6237,
      "Ġembar": 6238,
      "Ġembargo": 6239,
      "ĠSovi": 6240,
      "ĠSoviet": 6241,
      "Ġstage": 6242,
      "Ġseguridad": 6243,
      "Ġfix": 6244,
      "dan": 6245,
      "Ġkazan": 6246,
      "Ġdaughter": 6247,
      "Ġextract": 6248,
      "Ġextent": 6249,
      "Ġchanged": 6250,
      "Ġchanging": 6251,
      "Ġgames": 6252,
      "ĠJah": 6253,
      "ĠJahre": 6254,
      "ĠJos": 6255,
      "500": 6256,
      "ĠSouthern": 6257,
      "Ġsignificantly": 6258,
      "leg": 6259,
      "gth": 6260,
      "ength": 6261,
      "Ġlength": 6262,
      "Ġeg": 6263,
      "Ġegg": 6264,
      "gricultur": 6265,
      "Ġ1970": 6266,
      "ropical": 6267,
      "Ġforces": 6268,
      "åºķ": 6269,
      "Ġret": 6270,
      "æ±Ł": 6271,
      "æ©Ł": 6272,
      "ologÃŃa": 6273,
      "enschen": 6274,
      "ĠMenschen": 6275,
      "Not": 6276,
      "lastname": 6277,
      "ĠÃĸz": 6278,
      "word": 6279,
      "wood": 6280,
      "Ġapproved": 6281,
      "Ġhope": 6282,
      "ĠMed": 6283,
      "ĠMedical": 6284,
      "ĠMedic": 6285,
      "ĠMedicine": 6286,
      "iction": 6287,
      "ictionary": 6288,
      "icos": 6289,
      "icide": 6290,
      "Ġelectronic": 6291,
      "Ã³lo": 6292,
      "ĠsÃ³lo": 6293,
      "Ġassistance": 6294,
      "Ġign": 6295,
      "Ġsido": 6296,
      "ĠsÃ¼r": 6297,
      "åĳ³": 6298,
      "gesch": 6299,
      "æī¾": 6300,
      "enced": 6301,
      "Ġexperienced": 6302,
      "Ġexperiencia": 6303,
      "Ġinstrument": 6304,
      "Ġdioxide": 6305,
      "Ġdimension": 6306,
      "Ġequivalent": 6307,
      "Ġexcellent": 6308,
      "ç´ł": 6309,
      "é»ĳ": 6310,
      "é»Ħ": 6311,
      "ham": 6312,
      "pping": 6313,
      "æĻº": 6314,
      "Ġuses": 6315,
      "ches": 6316,
      "Ġstructures": 6317,
      "ĠJapanes": 6318,
      "ĠJapanese": 6319,
      "Ġcontrolled": 6320,
      "ĠespaÃ±": 6321,
      "ĠcompaÃ±": 6322,
      ");": 6323,
      "Ġcarried": 6324,
      "Ġasked": 6325,
      "Ġjourney": 6326,
      "ors": 6327,
      "Ġrecur": 6328,
      "Ġpossib": 6329,
      "Ġpossibly": 6330,
      "éĻ©": 6331,
      "ä¹°": 6332,
      "Ġobjective": 6333,
      "Ġneeds": 6334,
      "åŃ¸": 6335,
      "åģ¥": 6336,
      "ĠaynÄ±": 6337,
      "sential": 6338,
      "Ġessential": 6339,
      "ĠJews": 6340,
      "æĸ¹éĿ¢": 6341,
      "Ġmetal": 6342,
      "Ġmant": 6343,
      "Ġsatellite": 6344,
      "Ġtaught": 6345,
      "ĠTim": 6346,
      "Ġsla": 6347,
      "Ġgir": 6348,
      "Ġgirl": 6349,
      "Ġgem": 6350,
      "Ġgard": 6351,
      "Ġgarden": 6352,
      "Ġgrup": 6353,
      "cel": 6354,
      "iden": 6355,
      "Ġbulund": 6356,
      "Ġinvolving": 6357,
      "èīº": 6358,
      "ahmen": 6359,
      "iriÅŁ": 6360,
      "ĠArmy": 6361,
      "yrÄ±ca": 6362,
      "Ġiki": 6363,
      "fore": 6364,
      "ĠTherefore": 6365,
      "Ġyok": 6366,
      "Ġya": 6367,
      "±ä¹Ĳ": 6368,
      "å¨±ä¹Ĳ": 6369,
      "ĠEven": 6370,
      "Ġspok": 6371,
      "unca": 6372,
      "Ġlives": 6373,
      "Ġlived": 6374,
      "ians": 6375,
      "ĠEmpire": 6376,
      "æ¬¢": 6377,
      "æĸŃ": 6378,
      "ĠAgricultur": 6379,
      "Ġ1996": 6380,
      "ĠgiriÅŁ": 6381,
      "èŀ": 6382,
      "èŀį": 6383,
      "Ġblog": 6384,
      "Ġreprodu": 6385,
      "alar": 6386,
      "alt": 6387,
      "Ġtwice": 6388,
      "certain": 6389,
      "Ġsustainable": 6390,
      "è¦ģæ±Ĥ": 6391,
      "Ġcolour": 6392,
      "å¾Į": 6393,
      "Ġinflam": 6394,
      "izaciÃ³n": 6395,
      "Ġdecir": 6396,
      "Ġfacility": 6397,
      "Ġrise": 6398,
      "Ġdegree": 6399,
      "Ġdegrees": 6400,
      "Ġstarted": 6401,
      "ĠValley": 6402,
      "Ġcontinue": 6403,
      "Ġcontinued": 6404,
      "Ġtrial": 6405,
      "Ġforest": 6406,
      "ĠAlex": 6407,
      "ĠAlexand": 6408,
      "ĠTex": 6409,
      "ĠTexas": 6410,
      "ĠTw": 6411,
      "Ġmobile": 6412,
      "Ġcalidad": 6413,
      "Ġdog": 6414,
      "tolog": 6415,
      "ladÄ±": 6416,
      "ä»½": 6417,
      "75": 6418,
      "Ġhacia": 6419,
      "ancia": 6420,
      "Ġglass": 6421,
      "Ġgot": 6422,
      "Ġemph": 6423,
      "Ġemphas": 6424,
      "Ġprofesion": 6425,
      "anÄ±n": 6426,
      "æµĭ": 6427,
      "Ġsnow": 6428,
      "Ġnovel": 6429,
      "halt": 6430,
      "Ġrapidly": 6431,
      "Ġhayat": 6432,
      "Ġconstitution": 6433,
      "ĠThus": 6434,
      "Ġrichtig": 6435,
      "åĪĻ": 6436,
      "Ġmoral": 6437,
      "Ġsav": 6438,
      "Ãºmer": 6439,
      "ĠnÃºmer": 6440,
      "stÃ¤n": 6441,
      "larÄ±ndan": 6442,
      "ĠNow": 6443,
      "éĸĭ": 6444,
      "Ġdemonstrated": 6445,
      "fol": 6446,
      "ĠCarol": 6447,
      "ĠCarolina": 6448,
      "born": 6449,
      "rik": 6450,
      "Ġstrik": 6451,
      "rich": 6452,
      "Ġ1995": 6453,
      "Ġpark": 6454,
      "Ġchildhood": 6455,
      "jection": 6456,
      "Ġterms": 6457,
      "Ġtermin": 6458,
      "Ã©r": 6459,
      "rab": 6460,
      "Ġcer": 6461,
      "Ġacqui": 6462,
      "ç«ł": 6463,
      "Ġimmediate": 6464,
      "Ġcreating": 6465,
      "From": 6466,
      "drom": 6467,
      "Ġsyndrom": 6468,
      "çŁ³": 6469,
      "Ġmaximum": 6470,
      "é¤Ĳ": 6471,
      "Ġhighest": 6472,
      "Ġgest": 6473,
      "çķĻ": 6474,
      "Ġauthorities": 6475,
      "æĩ": 6476,
      "Ġneighborhood": 6477,
      "Ġsolid": 6478,
      "uest": 6479,
      "åĽŃ": 6480,
      "Ġzamand": 6481,
      "Ġgravit": 6482,
      "Ġmedio": 6483,
      "Ġkat": 6484,
      "ĠkatÄ±l": 6485,
      "å°į": 6486,
      "IL": 6487,
      "Ġwol": 6488,
      "Ġsollte": 6489,
      "Ġcard": 6490,
      "unto": 6491,
      "è®¸": 6492,
      "ĠElect": 6493,
      "æĮī": 6494,
      "âĢ¦âĢ¦": 6495,
      "Ġhighlight": 6496,
      "Ġclo": 6497,
      "Ġcy": 6498,
      "Ġcycle": 6499,
      "yond": 6500,
      "Ġbeyond": 6501,
      "Ġcorrespond": 6502,
      "Ġcorrespon": 6503,
      "son": 6504,
      "Ġprison": 6505,
      "yon": 6506,
      "asyon": 6507,
      "Ġsoon": 6508,
      "Ġlesson": 6509,
      "Ġiron": 6510,
      "ya": 6511,
      "Ġveya": 6512,
      "ana": 6513,
      "Ġsea": 6514,
      "Ġhan": 6515,
      "Ġsubstance": 6516,
      "Ġinstance": 6517,
      "abilidad": 6518,
      "Ġlabel": 6519,
      "æ½": 6520,
      "Ġinternet": 6521,
      "çĨ": 6522,
      "Ġmodified": 6523,
      "ĠAbout": 6524,
      "ĠMin": 6525,
      "ĠMinister": 6526,
      "ĠMode": 6527,
      "Ġfill": 6528,
      "cles": 6529,
      "Ġmuscles": 6530,
      "ateg": 6531,
      "Ġcateg": 6532,
      "Ġcam": 6533,
      "lag": 6534,
      "Ġdate": 6535,
      "Ġded": 6536,
      "Ġdedic": 6537,
      "Another": 6538,
      "ownload": 6539,
      "Ġverschieden": 6540,
      "iment": 6541,
      "ument": 6542,
      "Ġcomment": 6543,
      "Ġstatement": 6544,
      "uer": 6545,
      "aterial": 6546,
      "ç¿": 6547,
      "ardÄ±mcÄ±": 6548,
      "Ġfemale": 6549,
      "cing": 6550,
      "Ġacc": 6551,
      "æ¿Ģ": 6552,
      "etrieb": 6553,
      "åıĮ": 6554,
      "unkt": 6555,
      "ĠdÃ¶nÃ¼ÅŁ": 6556,
      "Ġflight": 6557,
      "Ã¼ÄŁ": 6558,
      "'ve": 6559,
      "Ġmanner": 6560,
      "Ġvirtual": 6561,
      "vis": 6562,
      "æ£Ģ": 6563,
      "ĠFurther": 6564,
      "ĠFood": 6565,
      "Ġpa": 6566,
      "ĠpaÃŃ": 6567,
      "ĠpaÃŃs": 6568,
      "za": 6569,
      "Ġvez": 6570,
      "Ġmotion": 6571,
      "Ġmod": 6572,
      "eral": 6573,
      "ederal": 6574,
      "Ġfederal": 6575,
      "Ġmineral": 6576,
      "ĠFederal": 6577,
      "Ġber": 6578,
      "Ġbereit": 6579,
      "Ġfol": 6580,
      "Ġbaj": 6581,
      "Other": 6582,
      "Ġlooking": 6583,
      "Ġusers": 6584,
      "ecific": 6585,
      "rank": 6586,
      "Ġifade": 6587,
      "Ġspecifically": 6588,
      "åŃ£": 6589,
      "ĠÄ°ÅŁ": 6590,
      "Ġprinciple": 6591,
      "Ġmedida": 6592,
      "ellen": 6593,
      "ĠÂ»": 6594,
      "ĠBeispiel": 6595,
      "Ġcaso": 6596,
      "Ġtipo": 6597,
      "Ġanno": 6598,
      "Ġannoun": 6599,
      "Ġannounced": 6600,
      "una": 6601,
      "ĠDies": 6602,
      "rations": 6603,
      "çİ¯å¢ĥ": 6604,
      "ĠCor": 6605,
      "ĠCorp": 6606,
      "ĠCO": 6607,
      "press": 6608,
      "Ġflex": 6609,
      "Ġflo": 6610,
      "Ġsegu": 6611,
      "Ġspot": 6612,
      "ĠCre": 6613,
      "Ġprevention": 6614,
      "Ġetti": 6615,
      "çı¾": 6616,
      "Ġreality": 6617,
      "Ġtrying": 6618,
      "ĠZusammen": 6619,
      "åĿĢ": 6620,
      "åĺ": 6621,
      "ä¹ī": 6622,
      "æĿĳ": 6623,
      "Ġorganic": 6624,
      "fÃ¼": 6625,
      "fÃ¼g": 6626,
      "ĠUr": 6627,
      "Ġimproving": 6628,
      "struments": 6629,
      "ĠPort": 6630,
      "Ġsport": 6631,
      "Ġconoc": 6632,
      "æł¸": 6633,
      "ĠbaÅŁk": 6634,
      "Ġrefuge": 6635,
      "Ġcategories": 6636,
      "erve": 6637,
      "Ġefforts": 6638,
      "Ġdepartment": 6639,
      "irit": 6640,
      "Ġspirit": 6641,
      "Ġsoldi": 6642,
      "Ġsoldiers": 6643,
      "One": 6644,
      "Ġblue": 6645,
      "ech": 6646,
      "Ġspeech": 6647,
      "Ġzwe": 6648,
      "Ġzwei": 6649,
      "æ¸¯": 6650,
      "æĸ¹å¼ı": 6651,
      "Ġfeeling": 6652,
      "Ġwollen": 6653,
      "aces": 6654,
      "Ġproducto": 6655,
      "Ġinfluenced": 6656,
      "ĠsaÄŁlÄ±k": 6657,
      "ĠsaÄŁlay": 6658,
      "ĠsaÄŁlam": 6659,
      "Ġengag": 6660,
      "greg": 6661,
      "ĠMaterial": 6662,
      "irk": 6663,
      "ĠÅŁirk": 6664,
      "ĠÅŁirket": 6665,
      "bir": 6666,
      "Ġmilk": 6667,
      "aria": 6668,
      "åª": 6669,
      "Ġdynamic": 6670,
      "Ġfiyat": 6671,
      "Ġoxy": 6672,
      "Ġoxygen": 6673,
      "rado": 6674,
      "Ġcolum": 6675,
      "Ġcolumn": 6676,
      "Ġminimum": 6677,
      "æĿİ": 6678,
      "æĿĲ": 6679,
      "åĵį": 6680,
      "å½±åĵį": 6681,
      "çĶµå½±": 6682,
      "Ġ35": 6683,
      "ĠAsia": 6684,
      "Ġrain": 6685,
      "inn": 6686,
      "Ġcopyright": 6687,
      "ĠSeit": 6688,
      "Ġminor": 6689,
      "èªª": 6690,
      "åĵª": 6691,
      "quÃŃ": 6692,
      "ÃŃan": 6693,
      "ĠIII": 6694,
      "Ġdent": 6695,
      "Ġdentro": 6696,
      "Ġdin": 6697,
      "rent": 6698,
      "Ġalgo": 6699,
      "è¿ĻäºĽ": 6700,
      "ä¸ĢäºĽ": 6701,
      "ĠÂ©": 6702,
      "ĠÂ¡": 6703,
      "ĠCamp": 6704,
      "icher": 6705,
      "icherheit": 6706,
      "Ġdiagnosis": 6707,
      "ĠTemp": 6708,
      "éĢīæĭ": 6709,
      "éĢīæĭ©": 6710,
      "gebot": 6711,
      "ĠUnd": 6712,
      "das": 6713,
      "daki": 6714,
      "abilece": 6715,
      "Ġvil": 6716,
      "Ġvillage": 6717,
      "Ġ300": 6718,
      "Ġoperation": 6719,
      "Ġelection": 6720,
      "stÃ¼tz": 6721,
      "Ġcircuit": 6722,
      "Ġmethods": 6723,
      "Ġmess": 6724,
      "Ġmessage": 6725,
      "Ġbenefits": 6726,
      "Ġwebs": 6727,
      "Ġwebsite": 6728,
      "ĠLos": 6729,
      "ash": 6730,
      "Ġindividuals": 6731,
      "33": 6732,
      "Ġstorm": 6733,
      "æĸĩåĮĸ": 6734,
      "cession": 6735,
      "Ġproduces": 6736,
      "uto": 6737,
      "ito": 6738,
      "Ġilleg": 6739,
      "ç§ĳæĬĢ": 6740,
      "å¤§å®¶": 6741,
      "Ġrules": 6742,
      "Ġrule": 6743,
      "ismo": 6744,
      "uc": 6745,
      "ä½Ĩæĺ¯": 6746,
      "ĠWild": 6747,
      "ĠWildlif": 6748,
      "æĭį": 6749,
      "Ġlatter": 6750,
      "Ġbatter": 6751,
      "ĠkullanÄ±cÄ±": 6752,
      "Ġrace": 6753,
      "é£ŀ": 6754,
      "ctic": 6755,
      "Ġ1960": 6756,
      "ÃŃfic": 6757,
      "by": 6758,
      "oy": 6759,
      "halb": 6760,
      "åĪĹ": 6761,
      "åĪĴ": 6762,
      "Ġappar": 6763,
      "Ġmedium": 6764,
      "ç®Ģ": 6765,
      "Ġtam": 6766,
      "Ġtamam": 6767,
      "å®¤": 6768,
      "å®Ŀ": 6769,
      "ĠEntw": 6770,
      "ĠEntwick": 6771,
      "Ġhabe": 6772,
      "Ġhaber": 6773,
      "æĿ¿": 6774,
      "ĠJack": 6775,
      "Ġbomb": 6776,
      "Ġweak": 6777,
      "break": 6778,
      "latz": 6779,
      "Ġharek": 6780,
      "Ġhareket": 6781,
      "erek": 6782,
      "Ġobjet": 6783,
      "Ġobjetivo": 6784,
      "å¦Ĥä½ķ": 6785,
      "Ġtienen": 6786,
      "Ġvolcan": 6787,
      "Ġoverall": 6788,
      "çĽĳ": 6789,
      "Ġdrought": 6790,
      "Ġconcentrations": 6791,
      "Ġspacecraft": 6792,
      "ĠâĢ¢": 6793,
      "éŃ": 6794,
      "çıŃ": 6795,
      "è´Ń": 6796,
      "Ã®": 6797,
      "PA": 6798,
      "Ġaplic": 6799,
      "Ġidentity": 6800,
      "otic": 6801,
      "Ġopt": 6802,
      "ĠyapÄ±": 6803,
      "Ġerfol": 6804,
      "rick": 6805,
      "tock": 6806,
      "Ġyield": 6807,
      "wick": 6808,
      "Ġemissions": 6809,
      "Ġreci": 6810,
      "Ġpaid": 6811,
      "Ġiz": 6812,
      "Ġ150": 6813,
      "çł´": 6814,
      "ĠWelt": 6815,
      "Ġetmek": 6816,
      "aint": 6817,
      "æĻ®": 6818,
      "æĻļ": 6819,
      "Ġregist": 6820,
      "fre": 6821,
      "ault": 6822,
      "ultiv": 6823,
      "Ġcultiv": 6824,
      "ĠEnvironmental": 6825,
      "gleich": 6826,
      "Ġisland": 6827,
      "Ġobservations": 6828,
      "Â®": 6829,
      "Ġsequence": 6830,
      "iritual": 6831,
      "Ġspiritual": 6832,
      "iotic": 6833,
      "Ġantibiotic": 6834,
      "ĠInstead": 6835,
      "ecution": 6836,
      "dex": 6837,
      "iff": 6838,
      "ĠâĨĳ": 6839,
      "ĠpodrÃ¡": 6840,
      "ellig": 6841,
      "tellig": 6842,
      "telligence": 6843,
      "Ġcump": 6844,
      "æķħ": 6845,
      "Ġmaster": 6846,
      "ĠDivision": 6847,
      "ĠAnother": 6848,
      "Ġcrimin": 6849,
      "stion": 6850,
      "Ġquestion": 6851,
      "ĠEs": 6852,
      "ĠyÃ¼ks": 6853,
      "ĠyÃ¼ksek": 6854,
      "zen": 6855,
      "raz": 6856,
      "ras": 6857,
      "ientras": 6858,
      "Ġmientras": 6859,
      "raction": 6860,
      "racy": 6861,
      "rack": 6862,
      "rastructure": 6863,
      "Ġinfrastructure": 6864,
      "Ġschools": 6865,
      "liament": 6866,
      "rist": 6867,
      "Ġbirds": 6868,
      "Ġways": 6869,
      "shop": 6870,
      "oper": 6871,
      "Ġcooper": 6872,
      "Ġedition": 6873,
      "ĠkÄ±": 6874,
      "ĠkÄ±s": 6875,
      "azÄ±": 6876,
      "Ġfaz": 6877,
      "Ġfazla": 6878,
      "ĠbazÄ±": 6879,
      "ĠAngebot": 6880,
      "ĠAnt": 6881,
      "åĳ¢": 6882,
      "ä¸»è¦ģ": 6883,
      "olar": 6884,
      "Ġscholar": 6885,
      "arse": 6886,
      "Ġeast": 6887,
      "Ġcast": 6888,
      "ĠeÅŁ": 6889,
      "Ġshows": 6890,
      "Ġotros": 6891,
      "è¯Ĩ": 6892,
      "Ġunknown": 6893,
      "Ġcurricul": 6894,
      "Ġcurriculum": 6895,
      "ĠStre": 6896,
      "ĠStreet": 6897,
      "ä»ĭ": 6898,
      "ĭåıĭ": 6899,
      "æľĭåıĭ": 6900,
      "ãģ": 6901,
      "Ġindicate": 6902,
      "Ġaccurate": 6903,
      "Ġaccuracy": 6904,
      "Ã¤nger": 6905,
      "Ġcrucial": 6906,
      "ĠwÃ¤hrend": 6907,
      "spread": 6908,
      "Ġwidespread": 6909,
      "ocracy": 6910,
      "åĲ§": 6911,
      "Ġambient": 6912,
      "åŁ¹": 6913,
      "more": 6914,
      "forder": 6915,
      "Ġsolo": 6916,
      "ĠespaÃ±ol": 6917,
      "Ġcreation": 6918,
      "ĠMit": 6919,
      "ites": 6920,
      "posit": 6921,
      "Ġbene": 6922,
      "Ġbenefic": 6923,
      "Ġbeneficial": 6924,
      "Ġrepresentative": 6925,
      "Ġagreement": 6926,
      "38": 6927,
      "Ġmenos": 6928,
      "otos": 6929,
      "Ġphotos": 6930,
      "Ġdatos": 6931,
      "ffair": 6932,
      "eln": 6933,
      "Ġdidn": 6934,
      "ĠDay": 6935,
      "Ġanyone": 6936,
      "æĸ¼": 6937,
      "Ġprofess": 6938,
      "Ġprofessor": 6939,
      "ĠHospital": 6940,
      "Ġcaracter": 6941,
      "Ġhistoria": 6942,
      "åİĨ": 6943,
      "Ġslavery": 6944,
      "ĠEvery": 6945,
      "point": 6946,
      "åĵģçīĮ": 6947,
      "Ġjoint": 6948,
      "Ġcompetition": 6949,
      "Ġcircle": 6950,
      "48": 6951,
      "ä¸įæĺ¯": 6952,
      "æ¯į": 6953,
      "Ġindependence": 6954,
      "iger": 6955,
      "Ġcapture": 6956,
      "igur": 6957,
      "Ġconfigur": 6958,
      "Ġpur": 6959,
      "ĠKur": 6960,
      "Ġolur": 6961,
      "lerinde": 6962,
      "Ġsettlement": 6963,
      "ĠDat": 6964,
      "ĠDaten": 6965,
      "ĠYoung": 6966,
      "Ġatmosphere": 6967,
      "ants": 6968,
      "antes": 6969,
      "èĪĩ": 6970,
      "Ġvivi": 6971,
      "Ġ1994": 6972,
      "Ġobl": 6973,
      "Ġoblig": 6974,
      "schutz": 6975,
      "onom": 6976,
      "ĠÃ¼st": 6977,
      "elle": 6978,
      "ĠDem": 6979,
      "ĠDemocrat": 6980,
      "ĠDes": 6981,
      "ĠDesign": 6982,
      "Ġfacult": 6983,
      "Ġcontinent": 6984,
      "Ġpermanent": 6985,
      "tures": 6986,
      "ictures": 6987,
      "Ġpictures": 6988,
      "igures": 6989,
      "Ġfigures": 6990,
      "Ġdedi": 6991,
      "ias": 6992,
      "lerine": 6993,
      "Ġminister": 6994,
      "è½»": 6995,
      "æŃ»": 6996,
      "Ġobservation": 6997,
      "Ġnearby": 6998,
      "ç¶ĵ": 6999,
      "å¤Ł": 7000,
      "åĲĮæĹ¶": 7001,
      "Ġfat": 7002,
      "åĪĩ": 7003,
      "ists": 7004,
      "åħ»": 7005,
      "reib": 7006,
      "Ġadvis": 7007,
      "Ġopposite": 7008,
      "éĸĵ": 7009,
      "Ġges": 7010,
      "ales": 7011,
      "ores": 7012,
      "Ġplast": 7013,
      "Ġplastic": 7014,
      "Ġsend": 7015,
      "Ġdiversity": 7016,
      "çĽ¸åħ³": 7017,
      "ĠCommitte": 7018,
      "Ġchemistry": 7019,
      "Ġchain": 7020,
      "imul": 7021,
      "Ġstimul": 7022,
      "ĠPower": 7023,
      "ĠvardÄ±r": 7024,
      "Ġothers": 7025,
      "Ġseems": 7026,
      "ayan": 7027,
      "stein": 7028,
      "duÄŁ": 7029,
      "Ġshape": 7030,
      "Ã¤ÃŁ": 7031,
      "ty": 7032,
      "overty": 7033,
      "Ġpoverty": 7034,
      "ody": 7035,
      "Ġyapt": 7036,
      "ĠyaptÄ±ÄŁÄ±": 7037,
      "dÄ±ÄŁÄ±": 7038,
      "Ġtrat": 7039,
      "tal": 7040,
      "Ġtotal": 7041,
      "tiri": 7042,
      "miÅŁt": 7043,
      "miÅŁtir": 7044,
      "ĠGlobal": 7045,
      "direct": 7046,
      "Ġtelefon": 7047,
      "ĠyÄ±lÄ±nda": 7048,
      "bas": 7049,
      "based": 7050,
      "Ġclothing": 7051,
      "icles": 7052,
      "Ġverb": 7053,
      "ben": 7054,
      "Ġeben": 7055,
      "åĨħå®¹": 7056,
      "Ġ189": 7057,
      "Ġ188": 7058,
      "ĠStudy": 7059,
      "Ġmanif": 7060,
      "Ġmanifest": 7061,
      "çĽĬ": 7062,
      "ype": 7063,
      "Ġsquare": 7064,
      "abe": 7065,
      "abei": 7066,
      "Ġdabei": 7067,
      "ze": 7068,
      "zeug": 7069,
      "Ġchoose": 7070,
      "All": 7071,
      "omen": 7072,
      "ĠWomen": 7073,
      "enomen": 7074,
      "Ġphenomen": 7075,
      "Ġseen": 7076,
      "Ġphas": 7077,
      "ä¸ĭè½½": 7078,
      "éĺ¿": 7079,
      "éĺ³": 7080,
      "aries": 7081,
      "Ġolduk": 7082,
      "Ġreserv": 7083,
      "ç¯": 7084,
      "Ġful": 7085,
      "Ġfully": 7086,
      "Ġliver": 7087,
      "Ġscen": 7088,
      "ĠâĢ¦": 7089,
      "Ġrough": 7090,
      "ĠThrough": 7091,
      "ĠHum": 7092,
      "ĠHuman": 7093,
      "åĨľ": 7094,
      "å¤ľ": 7095,
      "Ġpasado": 7096,
      "va": 7097,
      "ĠOffice": 7098,
      "embran": 7099,
      "Ġdiy": 7100,
      "Ġsurrounding": 7101,
      "roph": 7102,
      "Ġmedications": 7103,
      "Ġsurvive": 7104,
      "ectual": 7105,
      "ellectual": 7106,
      "ense": 7107,
      "Ġdemonstrate": 7108,
      "çİ°åľ¨": 7109,
      "entlich": 7110,
      "é»ŀ": 7111,
      "xford": 7112,
      "ĠOxford": 7113,
      "ĠOf": 7114,
      "Ġyol": 7115,
      "Ġsaving": 7116,
      "Ġsade": 7117,
      "Ġsadece": 7118,
      "Ġsaat": 7119,
      "lerde": 7120,
      "ĠVide": 7121,
      "Ġerk": 7122,
      "road": 7123,
      "Ġ2020": 7124,
      "Ġequipo": 7125,
      "Ġcand": 7126,
      "Ġcandid": 7127,
      "ĠObama": 7128,
      "erved": 7129,
      "Ġreserved": 7130,
      "è®°èĢħ": 7131,
      "çªģ": 7132,
      "Ġabsorb": 7133,
      "Ġethn": 7134,
      "ires": 7135,
      "å¿µ": 7136,
      "ĠMountain": 7137,
      "ĠGeorgia": 7138,
      "Ġrecognition": 7139,
      "Ġmovements": 7140,
      "Ġdepression": 7141,
      "lot": 7142,
      "ç¶²": 7143,
      "ç¬ĳ": 7144,
      "ĠbÄ±ra": 7145,
      "Ġgeht": 7146,
      "ĠgehÃ¶r": 7147,
      "åİĭ": 7148,
      "å¾ĭ": 7149,
      "ĠDer": 7150,
      "Ġesper": 7151,
      "Ġsalud": 7152,
      "Ġspectrum": 7153,
      "Ġethnic": 7154,
      "èŃ¦": 7155,
      "Ġfrag": 7156,
      "Ġerhalten": 7157,
      "Ġagricultural": 7158,
      "tak": 7159,
      "rates": 7160,
      "ĠhiÃ§bir": 7161,
      "jekt": 7162,
      "éĢģ": 7163,
      "Ġproperly": 7164,
      "Ġsynth": 7165,
      "ĠÃĦ": 7166,
      "è¯Ħ": 7167,
      "Ġrela": 7168,
      "Ġapparently": 7169,
      "aje": 7170,
      "adaÅŁ": 7171,
      "kadaÅŁ": 7172,
      "ĠarkadaÅŁ": 7173,
      "Ġalgunos": 7174,
      "rad": 7175,
      "raf": 7176,
      "dÃ¼r": 7177,
      "Ġolabilir": 7178,
      "That": 7179,
      "Ä±ndaki": 7180,
      "Ġacuer": 7181,
      "Ġacuerdo": 7182,
      "Ä±dÄ±r": 7183,
      "01": 7184,
      "Ġ31": 7185,
      "05": 7186,
      "Ġholding": 7187,
      "Ġstatistic": 7188,
      "sive": 7189,
      "ensive": 7190,
      "Ġextensive": 7191,
      "Ġexpensive": 7192,
      "hensive": 7193,
      "rehensive": 7194,
      "Ġcomprehensive": 7195,
      "Ġmassive": 7196,
      "Ġextension": 7197,
      "Ġprograms": 7198,
      "Ġpages": 7199,
      "quel": 7200,
      "Ġaquel": 7201,
      "ĠNature": 7202,
      "Ġcry": 7203,
      "Ġball": 7204,
      "Ġreducing": 7205,
      "ĠCompan": 7206,
      "ĠCompany": 7207,
      "éĻį": 7208,
      "Ġsort": 7209,
      "Ġestado": 7210,
      "Ġfoto": 7211,
      "åĽ¾çīĩ": 7212,
      "icas": 7213,
      "ĠBer": 7214,
      "ĠBerlin": 7215,
      "ĠBereich": 7216,
      "zeich": 7217,
      "Ġtener": 7218,
      "rÃ¡fic": 7219,
      "ĠOver": 7220,
      "Ġacquired": 7221,
      "estiv": 7222,
      "estival": 7223,
      "Ġactiv": 7224,
      "ĠTest": 7225,
      "alog": 7226,
      "time": 7227,
      "ison": 7228,
      "Ġcomparison": 7229,
      "Ġpoison": 7230,
      "ĠmÃ¡xim": 7231,
      "van": 7232,
      "ĠBoard": 7233,
      "nis": 7234,
      "gebnis": 7235,
      "ehir": 7236,
      "ĠBir": 7237,
      "æ¸©": 7238,
      "ç»´": 7239,
      "stellung": 7240,
      "åħ¶ä»ĸ": 7241,
      "Ã¤nder": 7242,
      "ĠPhilosoph": 7243,
      "ĠPhy": 7244,
      "ashion": 7245,
      "49": 7246,
      "39": 7247,
      "ĠÃ©l": 7248,
      "ĠUSA": 7249,
      "Ġmessages": 7250,
      "éĤĦ": 7251,
      "Ġreact": 7252,
      "ç·": 7253,
      "åº·": 7254,
      "åģ¥åº·": 7255,
      "åº§": 7256,
      "reg": 7257,
      "eg": 7258,
      "rig": 7259,
      "rateg": 7260,
      "dig": 7261,
      "richt": 7262,
      "åĽ´": 7263,
      "Ġyellow": 7264,
      "Ġdoubt": 7265,
      "ç¼ĸ": 7266,
      "ĠAngel": 7267,
      "Ġkilled": 7268,
      "pper": 7269,
      "ervices": 7270,
      "ĠServices": 7271,
      "Ġarbeit": 7272,
      "Ġsuppos": 7273,
      "agn": 7274,
      "Ġdeposit": 7275,
      "Ġsituations": 7276,
      "Ġadults": 7277,
      "ĠfÃ¼hr": 7278,
      "dades": 7279,
      "Ġactividades": 7280,
      "Ġoffice": 7281,
      "Ġ1992": 7282,
      "Ġ1993": 7283,
      "Ġ1991": 7284,
      "ĠbÃ¼tÃ¼n": 7285,
      "09": 7286,
      "iÃ³": 7287,
      "anish": 7288,
      "ĠSpanish": 7289,
      "Ġfamilia": 7290,
      "thodox": 7291,
      "è¡Ģ": 7292,
      "ficiency": 7293,
      "Ġcorp": 7294,
      "Ġcorpor": 7295,
      "Ġsag": 7296,
      "ĠkiÅŁiler": 7297,
      "åį¡": 7298,
      "tocol": 7299,
      "ĠÂ·": 7300,
      "lung": 7301,
      "Ġlocations": 7302,
      "ĠÃ¼zerinden": 7303,
      "ĠÃ¼zerine": 7304,
      "Ġarchitecture": 7305,
      "Ġdefined": 7306,
      "Ġreleased": 7307,
      "Ġrelease": 7308,
      "å·´": 7309,
      "åį´": 7310,
      "Ùİ": 7311,
      "ĠTe": 7312,
      "ĠTeach": 7313,
      "ĠTeil": 7314,
      "ĠTeam": 7315,
      "ĠyaÅŁam": 7316,
      "lease": 7317,
      "å±ħ": 7318,
      "æĶ¿çŃĸ": 7319,
      "raciÃ³n": 7320,
      "uciÃ³n": 7321,
      "abric": 7322,
      "Ġfabric": 7323,
      "Ġbah": 7324,
      "Ġbahis": 7325,
      "gestell": 7326,
      "Ġbiggest": 7327,
      "Ġletz": 7328,
      "Ġcloth": 7329,
      "Ġdecid": 7330,
      "Ġdecided": 7331,
      "lendi": 7332,
      "Ġwon": 7333,
      "Ġpron": 7334,
      "Ġfeedback": 7335,
      "ĠserÃ¡": 7336,
      "Ġincludes": 7337,
      "ĠCommittee": 7338,
      "ĠalÄ±n": 7339,
      "ĠÄ°n": 7340,
      "æ±½": 7341,
      "æ±½è½¦": 7342,
      "Ġintegrated": 7343,
      "Ġdesc": 7344,
      "Ġdescend": 7345,
      "ĠDur": 7346,
      "ĠDuring": 7347,
      "Ã§Ä±": 7348,
      "ĠoldukÃ§": 7349,
      "ingdom": 7350,
      "Ġengineering": 7351,
      "è¯Ń": 7352,
      "çŁŃ": 7353,
      "Ġtekn": 7354,
      "è¼": 7355,
      "Ġdiferentes": 7356,
      "ende": 7357,
      "çĬ¶": 7358,
      "Ġhoy": 7359,
      "Ġgar": 7360,
      "Ġgarant": 7361,
      "Ġconstru": 7362,
      "Ġsmaller": 7363,
      "inary": 7364,
      "ein": 7365,
      "Ġkein": 7366,
      "Ġgemein": 7367,
      "Ġaffected": 7368,
      "Ġbreed": 7369,
      "ĠprÃ³xim": 7370,
      "Ġpermite": 7371,
      "Ġsan": 7372,
      "Ġsession": 7373,
      "Ġmodul": 7374,
      "Ġbright": 7375,
      "ilecek": 7376,
      "Ġindicates": 7377,
      "Ġhombre": 7378,
      "Ġ45": 7379,
      "Ġearliest": 7380,
      "Ġdriving": 7381,
      "resent": 7382,
      "ĠOnce": 7383,
      "08": 7384,
      "Ġfavour": 7385,
      "èĹ": 7386,
      "Ġrespectively": 7387,
      "Ġgreatest": 7388,
      "Ġinvestment": 7389,
      "odi": 7390,
      "èĥ½å¤Ł": 7391,
      "larÄ±na": 7392,
      "Ġera": 7393,
      "Ġmargin": 7394,
      "Ġlat": 7395,
      "Ġlatest": 7396,
      "Ġled": 7397,
      "ĠmÃ¼cade": 7398,
      "åľŁ": 7399,
      "Ġslaves": 7400,
      "limate": 7401,
      "ĠunterstÃ¼tz": 7402,
      "Ġperceive": 7403,
      "position": 7404,
      "Ġ2017": 7405,
      "Ġ2018": 7406,
      "Ġ2016": 7407,
      "Ġ2015": 7408,
      "Ġ2014": 7409,
      "Ġmilyon": 7410,
      "ĠÃ¡": 7411,
      "ĠArctic": 7412,
      "Ä±ÄŁÄ±nda": 7413,
      "Ġtrip": 7414,
      "ometim": 7415,
      "ometimes": 7416,
      "Ġdivided": 7417,
      "Ġtransition": 7418,
      "These": 7419,
      "ĠNatural": 7420,
      "rigin": 7421,
      "sequently": 7422,
      "æĺ¥": 7423,
      "ciendo": 7424,
      "Ġakt": 7425,
      "åŃ¦ä¹ł": 7426,
      "åįĬ": 7427,
      "Ġactividad": 7428,
      "ceiving": 7429,
      "Ġdamag": 7430,
      "äºĴ": 7431,
      "IR": 7432,
      "éĿ©": 7433,
      "ä»ħ": 7434,
      "Ġesto": 7435,
      "å½ķ": 7436,
      "Ġforma": 7437,
      "Ġfreed": 7438,
      "Ġfreedom": 7439,
      "Ġcomments": 7440,
      "ishop": 7441,
      "Ġemer": 7442,
      "Ġemergency": 7443,
      "å¸Į": 7444,
      "å¸ĮæľĽ": 7445,
      "embre": 7446,
      "ĠseÃ±": 7447,
      "mann": 7448,
      "ĠSuch": 7449,
      "rauch": 7450,
      "ĠSan": 7451,
      "Ġfloor": 7452,
      "rush": 7453,
      "hab": 7454,
      "habit": 7455,
      "Ġwaves": 7456,
      "Ġwat": 7457,
      "Ġwatch": 7458,
      "Ġwave": 7459,
      "Ġwait": 7460,
      "che": 7461,
      "itch": 7462,
      "Ġswitch": 7463,
      "Ġtit": 7464,
      "Ġtitle": 7465,
      "ĠgÃ¶n": 7466,
      "ĠgÃ¶nder": 7467,
      "ender": 7468,
      "Ġagu": 7469,
      "Ġreceiving": 7470,
      "ĠMont": 7471,
      "Ġheight": 7472,
      "äº¿": 7473,
      "37": 7474,
      "grund": 7475,
      "ceed": 7476,
      "Ġexceed": 7477,
      "Ġproceed": 7478,
      "cceed": 7479,
      "Ġsucceed": 7480,
      "well": 7481,
      "åŁİå¸Ĥ": 7482,
      "Ġpregnant": 7483,
      "Ġphone": 7484,
      "æĶ¯æĮģ": 7485,
      "ril": 7486,
      "ĠJes": 7487,
      "ĠJesus": 7488,
      "ĠiÃ§eris": 7489,
      "ĠiÃ§erisinde": 7490,
      "oj": 7491,
      "oloj": 7492,
      "Ġteknoloj": 7493,
      "Ġhabl": 7494,
      "body": 7495,
      "Ġallerg": 7496,
      "ç½Ĺ": 7497,
      "å¿Ĺ": 7498,
      "åĲĹ": 7499,
      "Ġextraordin": 7500,
      "lymp": 7501,
      "Ġincreasingly": 7502,
      "istrict": 7503,
      "ĠDistrict": 7504,
      "ĠPhys": 7505,
      "Ġwound": 7506,
      "ĠKunden": 7507,
      "Ã¤ng": 7508,
      "phone": 7509,
      "Ġ%": 7510,
      "ĠWoch": 7511,
      "ç§¯": 7512,
      "åĸľæ¬¢": 7513,
      "ĠInvest": 7514,
      "ĠOrganization": 7515,
      "Ġzweit": 7516,
      "ĠÃºn": 7517,
      "ĠÃ¶r": 7518,
      "Ġtenemos": 7519,
      "ĠgÃ¶rev": 7520,
      "Ġsubstances": 7521,
      "cope": 7522,
      "ĠPost": 7523,
      "çļ®": 7524,
      "hre": 7525,
      "ĠIhre": 7526,
      "Ġrad": 7527,
      "ĠmÃ¶": 7528,
      "ĠmÃ¶cht": 7529,
      "Ġservicios": 7530,
      "Ġservicio": 7531,
      "Ġarrange": 7532,
      "Ġstring": 7533,
      "Ġearthqu": 7534,
      "34": 7535,
      "Ġaccompl": 7536,
      "Ġaccompan": 7537,
      "ficient": 7538,
      "etwork": 7539,
      "ĠNetwork": 7540,
      "Ġtrust": 7541,
      "Ġappearance": 7542,
      "edia": 7543,
      "ĠEncyclopedia": 7544,
      "ipedia": 7545,
      "ikipedia": 7546,
      "atically": 7547,
      "ĠDirector": 7548,
      "Ġproposed": 7549,
      "Ġpair": 7550,
      "Ġpen": 7551,
      "Ġpick": 7552,
      "Ġevolved": 7553,
      "ĠEd": 7554,
      "ĠEdward": 7555,
      "Ġforward": 7556,
      "ĠdeÄŁild": 7557,
      "Ġopposition": 7558,
      "ĠUse": 7559,
      "Ã¤chst": 7560,
      "IDS": 7561,
      "Comp": 7562,
      "Ġkomp": 7563,
      "ĠPrevention": 7564,
      "ĠConvention": 7565,
      "å¥ĩ": 7566,
      "å¥ĸ": 7567,
      "astern": 7568,
      "ĠEastern": 7569,
      "HE": 7570,
      "ĠTHE": 7571,
      "éĵ¶": 7572,
      "Ġmarch": 7573,
      "Ġtub": 7574,
      "Ä±rÄ±m": 7575,
      "ĠUK": 7576,
      "ĠBay": 7577,
      "Ġabus": 7578,
      "ĠCommunity": 7579,
      "rific": 7580,
      "Ġsacrific": 7581,
      "aign": 7582,
      "Ġcampaign": 7583,
      "ĠyÃ¶net": 7584,
      "ĠÃ§e": 7585,
      "ĠÃ§eÅŁ": 7586,
      "ĠÃ§ev": 7587,
      "ĠÃ§eÅŁit": 7588,
      "vin": 7589,
      "65": 7590,
      "OL": 7591,
      "OT": 7592,
      "æīĢæľī": 7593,
      "Ġpoet": 7594,
      "Ġpodem": 7595,
      "Ġpodemos": 7596,
      "ette": 7597,
      "asÄ±l": 7598,
      "ĠnasÄ±l": 7599,
      "Ġvolume": 7600,
      "æīĭæľº": 7601,
      "æĹ¥æľ¬": 7602,
      "DA": 7603,
      "ĠOrigin": 7604,
      "Ġepide": 7605,
      "Ġproducer": 7606,
      "elik": 7607,
      "ĠsituaciÃ³n": 7608,
      "Ġbietet": 7609,
      "Ġconducted": 7610,
      "ĠMac": 7611,
      "ĠEnt": 7612,
      "rupt": 7613,
      "Ġveh": 7614,
      "Ġvehicles": 7615,
      "Ġvehic": 7616,
      "Ġvehicle": 7617,
      "ĠvehÃŃcul": 7618,
      "lash": 7619,
      "Ġcategory": 7620,
      "Ġtheory": 7621,
      "Ġuzun": 7622,
      "ĠTop": 7623,
      "Ġartific": 7624,
      "Ġartificial": 7625,
      "åı¤": 7626,
      "Ġprofit": 7627,
      "lerinden": 7628,
      "Ġprocesses": 7629,
      "Ġpues": 7630,
      "ĠProfes": 7631,
      "åŃ¦çĶŁ": 7632,
      "Ġgett": 7633,
      "Ġgetting": 7634,
      "trol": 7635,
      "Ġkontrol": 7636,
      "ĠFurthermore": 7637,
      "åģľ": 7638,
      "åģĩ": 7639,
      "ardan": 7640,
      "lardan": 7641,
      "Ä±lan": 7642,
      "ĠyapÄ±lan": 7643,
      "ĠEach": 7644,
      "Ġtechniques": 7645,
      "Ġconcret": 7646,
      "wher": 7647,
      "where": 7648,
      "Ġoutbreak": 7649,
      "ĠGeschicht": 7650,
      "tica": 7651,
      "ĠpolÃŃtica": 7652,
      "udd": 7653,
      "uddh": 7654,
      "ĠBuddh": 7655,
      "ĠCas": 7656,
      "ĠCasino": 7657,
      "Ġsemana": 7658,
      "Ġterci": 7659,
      "Ġtercih": 7660,
      "Ġcoming": 7661,
      "Ġsubstantial": 7662,
      "Ġframework": 7663,
      "Ġcamer": 7664,
      "ĠwÃ¼r": 7665,
      "Ġekonom": 7666,
      "ĠÃ¼Ã§": 7667,
      "Ġabsolut": 7668,
      "Ġabsolute": 7669,
      "Ġheute": 7670,
      "Ġchann": 7671,
      "Ġchannel": 7672,
      "èĢĮä¸Ķ": 7673,
      "Ġbio": 7674,
      "Ġband": 7675,
      "åħħ": 7676,
      "Ġourselves": 7677,
      "ĠCollection": 7678,
      "åĸĦ": 7679,
      "éĥ½æĺ¯": 7680,
      "ĠGold": 7681,
      "ĠGew": 7682,
      "rint": 7683,
      "Ġload": 7684,
      "ĠSpain": 7685,
      "lut": 7686,
      "lÃ¤": 7687,
      "Ã¼ÅŁter": 7688,
      "ĠmÃ¼ÅŁter": 7689,
      "ĠyakÄ±n": 7690,
      "Ġrelacion": 7691,
      "07": 7692,
      "04": 7693,
      "06": 7694,
      "03": 7695,
      "44": 7696,
      "Ġolmad": 7697,
      "Ġbad": 7698,
      "mad": 7699,
      "ĠRead": 7700,
      "nÄ±n": 7701,
      "Ġgrat": 7702,
      "ratory": 7703,
      "Ġexisting": 7704,
      "Ġconsegu": 7705,
      "02": 7706,
      "2010": 7707,
      "Ġvalley": 7708,
      "Ġrefus": 7709,
      "Ġroll": 7710,
      "ĠAtlantic": 7711,
      "åĲ¬": 7712,
      "Ġ185": 7713,
      "ĠClass": 7714,
      "Ġallowed": 7715,
      "ged": 7716,
      "Ġstudied": 7717,
      "Ġbl": 7718,
      "Ġbiz": 7719,
      "lah": 7720,
      "ĠAllah": 7721,
      "hand": 7722,
      "ieh": 7723,
      "è¿ĺæĺ¯": 7724,
      "å¯Į": 7725,
      "Ġste": 7726,
      "Ä±lmasÄ±": 7727,
      "ĠChang": 7728,
      "gang": 7729,
      "ĠLake": 7730,
      "Ġbal": 7731,
      "Ġbalance": 7732,
      "Ġrare": 7733,
      "Ġrarely": 7734,
      "Ġportion": 7735,
      "Ġaggress": 7736,
      "Ġignor": 7737,
      "Ġcontempor": 7738,
      "Ġcontemporary": 7739,
      "aban": 7740,
      "Ġmembran": 7741,
      "å¾ħ": 7742,
      "atÄ±rÄ±m": 7743,
      "ĠÃ§Ã¶zÃ¼m": 7744,
      "Ġmoon": 7745,
      "Ġdeclin": 7746,
      "ĠClin": 7747,
      "åĩ»": 7748,
      "Ġcatch": 7749,
      "Ġcert": 7750,
      "Ġcertific": 7751,
      "Ġdedicated": 7752,
      "ĠIndustri": 7753,
      "geben": 7754,
      "ĠJahren": 7755,
      "è¿ľ": 7756,
      "Ġdir": 7757,
      "Ã¼rlich": 7758,
      "atÃ¼rlich": 7759,
      "ĠnatÃ¼rlich": 7760,
      "Ġjustice": 7761,
      "ĠPublish": 7762,
      "Ġpull": 7763,
      "Ġunterschied": 7764,
      "ĠbaÄŁlÄ±": 7765,
      "Ġcomercial": 7766,
      "ĠItal": 7767,
      "ĠItalian": 7768,
      "lerimiz": 7769,
      "yle": 7770,
      "Ġstyle": 7771,
      "unci": 7772,
      "Ġneut": 7773,
      "Ã¤ll": 7774,
      "Ġimmune": 7775,
      "æ¦": 7776,
      "æ¾": 7777,
      "æĽ¾": 7778,
      "ä¸¾": 7779,
      "Ġcompleted": 7780,
      "Ã§ok": 7781,
      "ĠbirÃ§ok": 7782,
      "Ġbin": 7783,
      "ãĢĤâĢĿ": 7784,
      "program": 7785,
      "ĠParliament": 7786,
      "Ġraise": 7787,
      "31": 7788,
      "32": 7789,
      "Ġdijo": 7790,
      "Ġnacional": 7791,
      "ĠNacional": 7792,
      "ĠAgency": 7793,
      "Ġratio": 7794,
      "äº²": 7795,
      "äº«": 7796,
      "äºĳ": 7797,
      "é«": 7798,
      "é«Ķ": 7799,
      "Â«": 7800,
      "ĠMicha": 7801,
      "ĠMichael": 7802,
      "ĠBel": 7803,
      "Ġinteresting": 7804,
      "Ġthinking": 7805,
      "æŃ¢": 7806,
      "çķ¥": 7807,
      "ä¸¥": 7808,
      "Ġprotocol": 7809,
      "çºª": 7810,
      "ST": 7811,
      "Ġblind": 7812,
      "Ġstrategy": 7813,
      "vas": 7814,
      "laub": 7815,
      "åĿĩ": 7816,
      "ĠÃ¼y": 7817,
      "Ġmachen": 7818,
      "Ġmachines": 7819,
      "ĠSpring": 7820,
      "ĠSpe": 7821,
      "ĠSpecial": 7822,
      "ĠSpirit": 7823,
      "Ġplease": 7824,
      "Ġmirror": 7825,
      "ĠBar": 7826,
      "ivenes": 7827,
      "Ġeffectivenes": 7828,
      "ĠÄ°l": 7829,
      "Ġeffectively": 7830,
      "Ġcertainly": 7831,
      "Ġentirely": 7832,
      "Ph": 7833,
      "ä¸Ńå¿ĥ": 7834,
      "å±Ĥ": 7835,
      "å±ŀ": 7836,
      "éĢĤ": 7837,
      "âĢŀ": 7838,
      "ĠMartin": 7839,
      "troduction": 7840,
      "Ġestimate": 7841,
      "ĠDise": 7842,
      "ĠDiseas": 7843,
      "ĠÃ¶ÄŁrencil": 7844,
      "Ġnar": 7845,
      "Ġnarrow": 7846,
      "Ġnarrat": 7847,
      "Ã¶ff": 7848,
      "ä¹Łæĺ¯": 7849,
      "æł¹æį®": 7850,
      "Ġexposed": 7851,
      "Ġcomunic": 7852,
      "ĠTwo": 7853,
      "å¯Ĩ": 7854,
      "otherap": 7855,
      "Ġremot": 7856,
      "Ġprotest": 7857,
      "acht": 7858,
      "Ġgemacht": 7859,
      "RE": 7860,
      "RI": 7861,
      "ĠTreat": 7862,
      "Ġwarning": 7863,
      "arning": 7864,
      "ĠLearning": 7865,
      "ĠTru": 7866,
      "ĠgrÃ¶ÃŁ": 7867,
      "ĠCambridge": 7868,
      "Ġdetermined": 7869,
      "ended": 7870,
      "tended": 7871,
      "Ġintended": 7872,
      "vail": 7873,
      "Ġbiology": 7874,
      "ä¸ĵä¸ļ": 7875,
      "ĠPop": 7876,
      "Ġflag": 7877,
      "Ġquot": 7878,
      "ott": 7879,
      "otros": 7880,
      "Ġbarri": 7881,
      "Ġcomput": 7882,
      "Ġaut": 7883,
      "Ġautor": 7884,
      "Ġautonom": 7885,
      "Ġconsequence": 7886,
      "Ġmort": 7887,
      "Ġmortality": 7888,
      "ĠFort": 7889,
      "Ġphosph": 7890,
      "Ġ..": 7891,
      "Ġ...": 7892,
      "Ġluego": 7893,
      "Ġjuego": 7894,
      "ĠÄ°st": 7895,
      "ĠÄ°stan": 7896,
      "ĠÄ°stanb": 7897,
      "ĠÄ°stanbul": 7898,
      "ructur": 7899,
      "zu": 7900,
      "Ġdazu": 7901,
      "Ġdav": 7902,
      "ureau": 7903,
      "compaÃ±": 7904,
      "Figure": 7905,
      "Ġdramatic": 7906,
      "Ġvirtually": 7907,
      "ulner": 7908,
      "Ġvulner": 7909,
      "Ġvulnerable": 7910,
      "Ġvoc": 7911,
      "Ġdrugs": 7912,
      "Ġobjects": 7913,
      "ĠdiseÃ±o": 7914,
      "ATION": 7915,
      "ĠdolayÄ±": 7916,
      "Ġprett": 7917,
      "Ġprescrib": 7918,
      "çĩ": 7919,
      "Ġdebate": 7920,
      "ĠSciences": 7921,
      "ĠScott": 7922,
      "Ġidentification": 7923,
      "level": 7924,
      "éľĢæ±Ĥ": 7925,
      "AP": 7926,
      "oulder": 7927,
      "Ġsoul": 7928,
      "äºī": 7929,
      "rosof": 7930,
      "icrosof": 7931,
      "icrosoft": 7932,
      "Ġduy": 7933,
      "ĠalgÃºn": 7934,
      "ĠkÃ¶": 7935,
      "æŁĲ": 7936,
      "Ġsorun": 7937,
      "Ġepidem": 7938,
      "Ġneutral": 7939,
      "Ġdestin": 7940,
      "Ġdestac": 7941,
      "åįı": 7942,
      "miento": 7943,
      "Ġsomewhat": 7944,
      "abilecek": 7945,
      "Ġrecyc": 7946,
      "ĠRecht": 7947,
      "Ġanticip": 7948,
      "kez": 7949,
      "Ġmerkez": 7950,
      "Ġmerely": 7951,
      "Ġmerc": 7952,
      "Ġmercado": 7953,
      "Ġestaba": 7954,
      "ĠIch": 7955,
      "Ġgrew": 7956,
      "Ġappeal": 7957,
      "è®¡åĪĴ": 7958,
      "unktion": 7959,
      "88": 7960,
      "éĥ¨åĪĨ": 7961,
      "Ġexport": 7962,
      "è¡£": 7963,
      "ĠTestament": 7964,
      "ĠCultur": 7965,
      "Ġpan": 7966,
      "Ġpanel": 7967,
      "Ġstrict": 7968,
      "Ġvital": 7969,
      "bild": 7970,
      "quir": 7971,
      "ĠyÃ¶nelik": 7972,
      "while": 7973,
      "vailability": 7974,
      "Ġelectrical": 7975,
      "Ġsah": 7976,
      "bit": 7977,
      "Ġorbit": 7978,
      "itial": 7979,
      "Ġinitial": 7980,
      "Ġcommit": 7981,
      "ĠSex": 7982,
      "ĠJohnson": 7983,
      "Ġrenewable": 7984,
      "cientific": 7985,
      "Ġhon": 7986,
      "Ġhonor": 7987,
      "Ġsand": 7988,
      "Ġperception": 7989,
      "ĠpersÃ¶n": 7990,
      "Ġpersist": 7991,
      "Ġtwenty": 7992,
      "ĠAcademy": 7993,
      "Ġcausing": 7994,
      "åıĳçİ°": 7995,
      "Ġfrequent": 7996,
      "æĵį": 7997,
      "ĠKontak": 7998,
      "Ġtank": 7999,
      "Ġwri": 8000,
      "kommen": 8001,
      "Ġkommen": 8002,
      "Ġkil": 8003,
      "teil": 8004,
      "Ġremoval": 8005,
      "åİ¿": 8006,
      "æī¿": 8007,
      "Ã¡gin": 8008,
      "ĠpÃ¡gin": 8009,
      "Ġchrom": 8010,
      "åªĴ": 8011,
      "riff": 8012,
      "Ġamp": 8013,
      "Ġthousands": 8014,
      "ĠCons": 8015,
      "ĠConservation": 8016,
      "ĠConf": 8017,
      "Ġperf": 8018,
      "ä»»ä½ķ": 8019,
      "Ġeinmal": 8020,
      "Ġqual": 8021,
      "oÄŁlu": 8022,
      "render": 8023,
      "Ġkayn": 8024,
      "èĪ¬": 8025,
      "No": 8026,
      "ago": 8027,
      "icago": 8028,
      "ĠChicago": 8029,
      "2012": 8030,
      "iyas": 8031,
      "iyon": 8032,
      "ass": 8033,
      "ĠMass": 8034,
      "ĠMassach": 8035,
      "ĠMassachus": 8036,
      "ĠMassachusett": 8037,
      "Ġstandards": 8038,
      "Ġpreci": 8039,
      "åĪĿ": 8040,
      "Ġtres": 8041,
      "Â©": 8042,
      "Ġsyndrome": 8043,
      "Ġraised": 8044,
      "åľ¨çº¿": 8045,
      "ĠArchive": 8046,
      "Ġresol": 8047,
      "Ġexplos": 8048,
      "æŀĲ": 8049,
      "åĪĨæŀĲ": 8050,
      "Ġpretty": 8051,
      "Ġarmy": 8052,
      "Ġrivers": 8053,
      "Ġellos": 8054,
      "Ġvast": 8055,
      "place": 8056,
      "Ġkarar": 8057,
      "ĠbÄ±rak": 8058,
      "Ġbulunan": 8059,
      "More": 8060,
      "Ġlibrar": 8061,
      "ĠPhilipp": 8062,
      "Ġmagaz": 8063,
      "ĠMÃ¶glichkeit": 8064,
      "äººæ°ĳ": 8065,
      "Ġreflected": 8066,
      "ĠLif": 8067,
      "ĠLife": 8068,
      "ĠPhilade": 8069,
      "Ġcouple": 8070,
      "çĶ¨æĪ·": 8071,
      "Ã¼nÃ¼": 8072,
      "Ġdefense": 8073,
      "åĿļ": 8074,
      "Ġbill": 8075,
      "Ġbone": 8076,
      "igital": 8077,
      "Ġnecesit": 8078,
      "ĠbulunduÄŁ": 8079,
      "Ġmeasurements": 8080,
      "Ġdiagnost": 8081,
      "ĠBefore": 8082,
      "Ġstrain": 8083,
      "Ġbooks": 8084,
      "usiness": 8085,
      "Ġpray": 8086,
      "Ġpal": 8087,
      "Ġpound": 8088,
      "Ġprovince": 8089,
      "Ġprovin": 8090,
      "ĠKar": 8091,
      "Ġpet": 8092,
      "ĠLie": 8093,
      "Ġhair": 8094,
      "Ġhaft": 8095,
      "Ġ1950": 8096,
      "åı²": 8097,
      "æ´²": 8098,
      "Ġadminister": 8099,
      "ibles": 8100,
      "ĠNutz": 8101,
      "Ġinteract": 8102,
      "Ġdevlet": 8103,
      "Ġadvantages": 8104,
      "Ġgoes": 8105,
      "hor": 8106,
      "hora": 8107,
      "Ġahora": 8108,
      "Ġslave": 8109,
      "ĠProblem": 8110,
      "Ġearthquake": 8111,
      "âĢĶâĢĶ": 8112,
      "Ġguid": 8113,
      "indeki": 8114,
      "deki": 8115,
      "Ġbabies": 8116,
      "Ġdiscovery": 8117,
      "yl": 8118,
      "ylvan": 8119,
      "ylvania": 8120,
      "ĠKingdom": 8121,
      "ĠKore": 8122,
      "Ġaunque": 8123,
      "ï¼ļâĢľ": 8124,
      "ĠSchw": 8125,
      "47": 8126,
      "46": 8127,
      "Ġemotional": 8128,
      "Ġradical": 8129,
      "Ġincome": 8130,
      "overeign": 8131,
      "xiet": 8132,
      "Ġuniversity": 8133,
      "atz": 8134,
      "alÄ±": 8135,
      "Ġrank": 8136,
      "ç»Ī": 8137,
      "ç»Ĩ": 8138,
      "éĨ": 8139,
      "ĠsÄ±k": 8140,
      "è»": 8141,
      "west": 8142,
      "ĠSw": 8143,
      "ĠJose": 8144,
      "ĠJoseph": 8145,
      "icial": 8146,
      "satz": 8147,
      "èį¯": 8148,
      "Ġtropical": 8149,
      "ĠClimate": 8150,
      "ĠÃ¼retim": 8151,
      "alax": 8152,
      "Ġgalax": 8153,
      "inal": 8154,
      "Ġmein": 8155,
      "åĪ°äºĨ": 8156,
      "Ġminimiz": 8157,
      "esticide": 8158,
      "çķ¶": 8159,
      "lÄ±ÄŁ": 8160,
      "illa": 8161,
      "ç«¯": 8162,
      "èī¯": 8163,
      "nership": 8164,
      "Ġinflamm": 8165,
      "Ġwildlife": 8166,
      "Ġpueb": 8167,
      "Ġpromin": 8168,
      "Ġprove": 8169,
      "Ġexplanation": 8170,
      "ä¸įåĲĮ": 8171,
      "Most": 8172,
      "åĬŁèĥ½": 8173,
      "æ¯Ķè¾ĥ": 8174,
      "Ġorganis": 8175,
      "Ġdro": 8176,
      "Ġdropped": 8177,
      "Ġstopped": 8178,
      "Ġcapacidad": 8179,
      "Ġcapable": 8180,
      "tellectual": 8181,
      "ĠConference": 8182,
      "Ġcarefully": 8183,
      "Ġentwick": 8184,
      "Ġcombined": 8185,
      "æ¶Īè´¹": 8186,
      "Ġinjury": 8187,
      "Ġinjuries": 8188,
      "dity": 8189,
      "Ġcouncil": 8190,
      "ĠAncak": 8191,
      "lacak": 8192,
      "Ġsignificance": 8193,
      "Ġmagnitude": 8194,
      "77": 8195,
      "Ġautomatically": 8196,
      "Ġdramatically": 8197,
      "Ġlegislation": 8198,
      "Ġdeutsch": 8199,
      "odern": 8200,
      "Ġproceso": 8201,
      "xic": 8202,
      "Ġtoxic": 8203,
      "Ġexcit": 8204,
      "Ġcriter": 8205,
      "Ġcriteria": 8206,
      "ĠIll": 8207,
      "ĠIllino": 8208,
      "xiety": 8209,
      "ĠLang": 8210,
      "åı¦": 8211,
      "ĠhÄ±z": 8212,
      "Ġhunt": 8213,
      "Ġconvers": 8214,
      "Ġfinished": 8215,
      "rill": 8216,
      "Ġdrill": 8217,
      "IM": 8218,
      "Ġdrain": 8219,
      "Ġflat": 8220,
      "Ġgerne": 8221,
      "spap": 8222,
      "Ġnewspap": 8223,
      "uesto": 8224,
      "ĠDigital": 8225,
      "éĤ£ä¹Ī": 8226,
      "ç¬¬äºĮ": 8227,
      "bert": 8228,
      "Ġgift": 8229,
      "ĠEconomic": 8230,
      "Ġpeak": 8231,
      "Ġdistinction": 8232,
      "Ġfindings": 8233,
      "Ġmentioned": 8234,
      "åĲĪä½ľ": 8235,
      "Ġanterior": 8236,
      "Ġvary": 8237,
      "cias": 8238,
      "Ġgracias": 8239,
      "Ġtesting": 8240,
      "Ġmainly": 8241,
      "Ġgod": 8242,
      "Ġkaynak": 8243,
      "Ġclar": 8244,
      "Ġcub": 8245,
      "Ġformer": 8246,
      "uÃŁer": 8247,
      "æĹħæ¸¸": 8248,
      "Ä±klarÄ±": 8249,
      "ĠWood": 8250,
      "Ġmarine": 8251,
      "ç»Ħç»": 8252,
      "ç»Ħç»ĩ": 8253,
      "ague": 8254,
      "Ġexplo": 8255,
      "ðŁ": 8256,
      "Ġdarauf": 8257,
      "Ġphase": 8258,
      "ĠLink": 8259,
      "ĠLat": 8260,
      "ĠLatin": 8261,
      "Ã¡cil": 8262,
      "ĠfÃ¡cil": 8263,
      "ĠInf": 8264,
      "çĻ»": 8265,
      "ä»·æł¼": 8266,
      "fahren": 8267,
      "ĠErfahr": 8268,
      "å¸®": 8269,
      "Ġmeant": 8270,
      "Ġretain": 8271,
      "ĠAnn": 8272,
      "ĠParis": 8273,
      "Ġtal": 8274,
      "isi": 8275,
      "ĠAccess": 8276,
      "Ġabsence": 8277,
      "Ġharmful": 8278,
      "fully": 8279,
      "bil": 8280,
      "bilir": 8281,
      "Ġrail": 8282,
      "Ġrailroad": 8283,
      "è»Ĭ": 8284,
      "Ġ2019": 8285,
      "Ġpassed": 8286,
      "Ġregulations": 8287,
      "ĠLangu": 8288,
      "ĠLanguage": 8289,
      "aron": 8290,
      "Ġpromis": 8291,
      "tÄ±": 8292,
      "tection": 8293,
      "ĠProtection": 8294,
      "Ġkommt": 8295,
      "eht": 8296,
      "Ġsteht": 8297,
      "Ġliteracy": 8298,
      "John": 8299,
      "ĠWohn": 8300,
      "uÃŁerdem": 8301,
      "éĽ»": 8302,
      "Ġvictory": 8303,
      "éķ·": 8304,
      "åįĥ": 8305,
      "Ġsettled": 8306,
      "lang": 8307,
      "ä¹ħ": 8308,
      "76": 8309,
      "aÅŁtÄ±r": 8310,
      "ĠaraÅŁtÄ±r": 8311,
      "dir": 8312,
      "æŃ¦": 8313,
      "Ä±ÅŁtÄ±r": 8314,
      "ĠSecretary": 8315,
      "Ġshowed": 8316,
      "throp": 8317,
      "Ġwif": 8318,
      "Ġwife": 8319,
      "Ġmixture": 8320,
      "manÄ±z": 8321,
      "anÄ±z": 8322,
      "Ġgram": 8323,
      "Ã¼kÃ¼m": 8324,
      "Ġpartnership": 8325,
      "ĠmÃ¼s": 8326,
      "Ġfinanci": 8327,
      "ĠhÄ±zlÄ±": 8328,
      "Ġdatabase": 8329,
      "Ġsecondary": 8330,
      "ĠMary": 8331,
      "é¦Ļæ¸¯": 8332,
      "æĹı": 8333,
      "Ġmeasured": 8334,
      "åĮħæĭ": 8335,
      "åĮħæĭ¬": 8336,
      "çĭ¬": 8337,
      "Ġpossession": 8338,
      "èĤī": 8339,
      "Ġleaf": 8340,
      "ĠAddition": 8341,
      "Ø§": 8342,
      "Ã¼h": 8343,
      "Ġagriculture": 8344,
      "Ġkingdom": 8345,
      "tra": 8346,
      "ÃŃst": 8347,
      "ĠcaracterÃŃst": 8348,
      "è´Ł": 8349,
      "è´¢": 8350,
      "è´§": 8351,
      "ĠsayÄ±": 8352,
      "ĠIllinois": 8353,
      "ĠgerÃ§ekleÅŁtiri": 8354,
      "Ġabund": 8355,
      "ĠsÃ¶yle": 8356,
      "ĠPortug": 8357,
      "Ġperformed": 8358,
      "æį¢": 8359,
      "åī¯": 8360,
      "Ġfiber": 8361,
      "fÃ¼ll": 8362,
      "å·®": 8363,
      "Ġvarieties": 8364,
      "ĠpodrÃŃa": 8365,
      "æ²³": 8366,
      "Ġheard": 8367,
      "Ġappre": 8368,
      "Ġappreci": 8369,
      "Ġpsychological": 8370,
      "iology": 8371,
      "Ġinternal": 8372,
      "ä»£è¡¨": 8373,
      "Ġjue": 8374,
      "Ġjump": 8375,
      "Ġguard": 8376,
      "Ġparte": 8377,
      "Ġtranspar": 8378,
      "Ġnegot": 8379,
      "Ġnegoti": 8380,
      "ih": 8381,
      "Ġrepair": 8382,
      "ÃŁen": 8383,
      "ĠEur": 8384,
      "ĠEuro": 8385,
      "ĠSur": 8386,
      "ĠSurve": 8387,
      "ĠSurvey": 8388,
      "ĠSub": 8389,
      "Ġclub": 8390,
      "arian": 8391,
      "Ġprominent": 8392,
      "Ġzor": 8393,
      "Ġschn": 8394,
      "Ġschnell": 8395,
      "Ġsegund": 8396,
      "åķĬ": 8397,
      "Ġanalog": 8398,
      "Ġrand": 8399,
      "Ġrandom": 8400,
      "ĠEspaÃ±a": 8401,
      "Ġcaught": 8402,
      "Ã¶rper": 8403,
      "ktÃ¶r": 8404,
      "ĠsektÃ¶r": 8405,
      "Ġseguir": 8406,
      "æĶ¹éĿ©": 8407,
      "Ġrelief": 8408,
      "æľ¨": 8409,
      "celer": 8410,
      "Ġacceler": 8411,
      "Because": 8412,
      "Ġdep": 8413,
      "Ġdepth": 8414,
      "Ġrh": 8415,
      "hÃ¤lt": 8416,
      "ĠMc": 8417,
      "Ġboundaries": 8418,
      "ĠWord": 8419,
      "plant": 8420,
      "Ġtransplant": 8421,
      "Ġpp": 8422,
      "Ġnive": 8423,
      "Ġnivel": 8424,
      "Ġnunca": 8425,
      "Ġcriminal": 8426,
      "Ġspent": 8427,
      "ĠRadi": 8428,
      "Ġagua": 8429,
      "idence": 8430,
      "Ġconfidence": 8431,
      "äººåĳĺ": 8432,
      "Ġexploit": 8433,
      "Ġdiagram": 8434,
      "Ġfram": 8435,
      "çīĽ": 8436,
      "ĠErgebnis": 8437,
      "Ġnecesario": 8438,
      "Ġinterface": 8439,
      "ĠmÃº": 8440,
      "Ġaccomplish": 8441,
      "ĠEinsatz": 8442,
      "è®²": 8443,
      "Ġthreaten": 8444,
      "Ġpunto": 8445,
      "Ġjunto": 8446,
      "Phone": 8447,
      "Ġnations": 8448,
      "Ġworkshop": 8449,
      "ĠText": 8450,
      "Ġcharged": 8451,
      "rÃ¼ck": 8452,
      "Ġregional": 8453,
      "é²": 8454,
      "innen": 8455,
      "å³": 8456,
      "Ġhardware": 8457,
      "ĠWenn": 8458,
      "rÃŃ": 8459,
      "Ġboyunca": 8460,
      "Ġaccum": 8461,
      "Ġflowers": 8462,
      "ç½ĳç»": 8463,
      "ç½ĳç»ľ": 8464,
      "eli": 8465,
      "ĠMichig": 8466,
      "tect": 8467,
      "Ġdetect": 8468,
      "çĽ´æİ¥": 8469,
      "Ġstuff": 8470,
      "çĵ": 8471,
      "Ġerfolgre": 8472,
      "Ġestable": 8473,
      "Ġtasar": 8474,
      "ameter": 8475,
      "Ġdiameter": 8476,
      "Ġaccomplished": 8477,
      "Ġadding": 8478,
      "laÅŁtÄ±r": 8479,
      "acaktÄ±r": 8480,
      "ĠSchul": 8481,
      "Ġalan": 8482,
      "Ġaliment": 8483,
      "Ġanxiety": 8484,
      "Ġpainting": 8485,
      "net": 8486,
      "zeichnet": 8487,
      "Ġrot": 8488,
      "ĠGrand": 8489,
      "ĠGeb": 8490,
      "Ġletzten": 8491,
      "æĪĲä¸º": 8492,
      "ä½ľä¸º": 8493,
      "çłģ": 8494,
      "Ġgobierno": 8495,
      "haus": 8496,
      "Ġkol": 8497,
      "Ġkolay": 8498,
      "Ã¼rlÃ¼ÄŁ": 8499,
      "éĶĻ": 8500,
      "Ġstruggle": 8501,
      "ĠOlymp": 8502,
      "Ġreached": 8503,
      "Ġneue": 8504,
      "ĠÃ¼zere": 8505,
      "Ġprimera": 8506,
      "ĠiPhone": 8507,
      "Ġ75": 8508,
      "95": 8509,
      "Ġthirty": 8510,
      "ĠTur": 8511,
      "ĠTurk": 8512,
      "Ġanlam": 8513,
      "Ġuncertain": 8514,
      "ĠFall": 8515,
      "Ġmechanical": 8516,
      "Ġrender": 8517,
      "Ġdream": 8518,
      "Ġdrei": 8519,
      "æłĩåĩĨ": 8520,
      "ktion": 8521,
      "Ġpoly": 8522,
      "Ġpollut": 8523,
      "Ġpun": 8524,
      "Ġpunish": 8525,
      "Ġpesticide": 8526,
      "Ġconstitut": 8527,
      "Ġwriters": 8528,
      "Ġwriter": 8529,
      "Ġaband": 8530,
      "Ġabandon": 8531,
      "Ġspecified": 8532,
      "æ³¢": 8533,
      "Ġproporcion": 8534,
      "mit": 8535,
      "Ġtransmit": 8536,
      "atric": 8537,
      "iatric": 8538,
      "atri": 8539,
      "rim": 8540,
      "ĠEm": 8541,
      "Ġyapmak": 8542,
      "Ġaudience": 8543,
      "ç³»åĪĹ": 8544,
      "Ġistiyor": 8545,
      "Ġhear": 8546,
      "ä»ĭç»": 8547,
      "ä»ĭç»į": 8548,
      "orough": 8549,
      "Ġthorough": 8550,
      "Ã¤ndern": 8551,
      "Ġsimul": 8552,
      "Ġshock": 8553,
      "Ġpolice": 8554,
      "CO": 8555,
      "Ġweeks": 8556,
      "ĠHaw": 8557,
      "èµĦæºĲ": 8558,
      "ĠAng": 8559,
      "å®¢æĪ·": 8560,
      "åħŃ": 8561,
      "ĠPrince": 8562,
      "ĠPrincip": 8563,
      "ĠGovern": 8564,
      "Ġinteres": 8565,
      "ĠItaly": 8566,
      "ĠStudies": 8567,
      "raight": 8568,
      "Ġstraight": 8569,
      "Ġindex": 8570,
      "è«": 8571,
      "æ¤": 8572,
      "Ġsong": 8573,
      "ĠStad": 8574,
      "ĠStadt": 8575,
      "ĠMill": 8576,
      "Ġeleg": 8577,
      "from": 8578,
      "ĠolacaktÄ±r": 8579,
      "schlus": 8580,
      "Ä°N": 8581,
      "Ġdeci": 8582,
      "Ġdecide": 8583,
      "Ġcalci": 8584,
      "Ġcalcium": 8585,
      "Ã©c": 8586,
      "Ã©cn": 8587,
      "ĠtÃ©cn": 8588,
      "Ġmetab": 8589,
      "Ġmetabol": 8590,
      "Ġbelieves": 8591,
      "Ġadvances": 8592,
      "ä»Ģéº": 8593,
      "å¤®": 8594,
      "å¤«": 8595,
      "Ġexamine": 8596,
      "ĠWeiter": 8597,
      "Ġstehen": 8598,
      "Ġstone": 8599,
      "Ġstem": 8600,
      "Ġstick": 8601,
      "ĠJustice": 8602,
      "æ¬§": 8603,
      "ç´§": 8604,
      "ç´¢": 8605,
      "habitants": 8606,
      "scap": 8607,
      "Ġlandscap": 8608,
      "Ġ400": 8609,
      "lÃ¼k": 8610,
      "Ã§Ã¼k": 8611,
      "Ã¼Ã§Ã¼k": 8612,
      "ĠJackson": 8613,
      "å¯¦": 8614,
      "Ðµ": 8615,
      "Ð°": 8616,
      "Ġcamin": 8617,
      "Ġconven": 8618,
      "ĠÃ¶l": 8619,
      "Ġorient": 8620,
      "ç©¿": 8621,
      "Ġsl": 8622,
      "ĠTrain": 8623,
      "Ġcolla": 8624,
      "Ġcolabor": 8625,
      "Ġcollap": 8626,
      "raham": 8627,
      "ĠAbraham": 8628,
      "ĠData": 8629,
      "redi": 8630,
      "redient": 8631,
      "ingredient": 8632,
      "Ġingredient": 8633,
      "Ġgeldi": 8634,
      "Ġproducing": 8635,
      "ormal": 8636,
      "normal": 8637,
      "Ġabnormal": 8638,
      "pher": 8639,
      "Ġimplications": 8640,
      "Ġhelpful": 8641,
      "lymph": 8642,
      "Ġlect": 8643,
      "Ġadvert": 8644,
      "ĠwÃ¼rde": 8645,
      "ken": 8646,
      "Ġdoing": 8647,
      "Ġcorresponding": 8648,
      "ilding": 8649,
      "ĠBuilding": 8650,
      "ĠMil": 8651,
      "ĠWil": 8652,
      "Ġfaster": 8653,
      "Ġdisaster": 8654,
      "Ġinclus": 8655,
      "gent": 8656,
      "ĠArgent": 8657,
      "ĠArgentina": 8658,
      "Ġrestor": 8659,
      "Ġwaste": 8660,
      "imientos": 8661,
      "Ġpoem": 8662,
      "Ġitem": 8663,
      "ose": 8664,
      "ĠThose": 8665,
      "ĠThen": 8666,
      "ĠThough": 8667,
      "çĦ¡": 8668,
      "Ġcorn": 8669,
      "55": 8670,
      "Ä±ldÄ±": 8671,
      "Ġworship": 8672,
      "Ġworse": 8673,
      "ahn": 8674,
      "Ġgrown": 8675,
      "ĠgÃ¶rÃ¼l": 8676,
      "æ¹ĸ": 8677,
      "ĠEntwicklung": 8678,
      "ĠForm": 8679,
      "ĠExplor": 8680,
      "Ã½": 8681,
      "ĠVerfÃ¼g": 8682,
      "ĠPolit": 8683,
      "ĠOper": 8684,
      "éľ²": 8685,
      "éĢ²": 8686,
      "Ġmoist": 8687,
      "Ġkonn": 8688,
      "Ġkonnte": 8689,
      "ĠaraÃ§": 8690,
      "ĠkaÃ§": 8691,
      "QuÃ©": 8692,
      "cas": 8693,
      "cin": 8694,
      "Ġtec": 8695,
      "Ġtecn": 8696,
      "ĠtecnologÃŃa": 8697,
      "imin": 8698,
      "Ġelimin": 8699,
      "cus": 8700,
      "Ġhoriz": 8701,
      "Ġhorizon": 8702,
      "Ġaccurately": 8703,
      "Ġpreserved": 8704,
      "Ġdecades": 8705,
      "Ġshot": 8706,
      "ĠMicrosoft": 8707,
      "Ġirrig": 8708,
      "ĠMichigan": 8709,
      "ä»Ĭå¹´": 8710,
      "ural": 8711,
      "Ġrural": 8712,
      "Ġjur": 8713,
      "Ġlymph": 8714,
      "adrid": 8715,
      "ĠMadrid": 8716,
      "lerden": 8717,
      "ä»ĺ": 8718,
      "ä»¤": 8719,
      "ĠsavaÅŁ": 8720,
      "è¯»": 8721,
      "Ġelectro": 8722,
      "Ġcort": 8723,
      "Ġoport": 8724,
      "Ġoportun": 8725,
      "æĭ¿": 8726,
      "Ġutility": 8727,
      "å·¥ç¨ĭ": 8728,
      "Ġconventional": 8729,
      "å¯Ł": 8730,
      "å¯¹äºİ": 8731,
      "down": 8732,
      "Ġap": 8733,
      "Ġapoy": 8734,
      "ĠademÃ¡s": 8735,
      "è½¯": 8736,
      "èĥ½åĬĽ": 8737,
      "ĠPhiladel": 8738,
      "ĠPhiladelph": 8739,
      "ĠPhiladelphia": 8740,
      "Ġflexible": 8741,
      "Ġsilver": 8742,
      "Ġtowards": 8743,
      "alitÃ¤t": 8744,
      "ĠQualitÃ¤t": 8745,
      "Ġelabor": 8746,
      "Ġebenfall": 8747,
      "ĠAmaz": 8748,
      "ĠAmazon": 8749,
      "ĠSon": 8750,
      "ĠSam": 8751,
      "ĠAmong": 8752,
      "Ġned": 8753,
      "Ġneden": 8754,
      "Ġnedeniyle": 8755,
      "masÄ±nÄ±": 8756,
      "åħįè´¹": 8757,
      "wort": 8758,
      "antwort": 8759,
      "ĠWindows": 8760,
      "obil": 8761,
      "Ġinfect": 8762,
      "ĠRome": 8763,
      "ĠDef": 8764,
      "Ġrespuest": 8765,
      "Ġrespecto": 8766,
      "yecto": 8767,
      "Ġproyecto": 8768,
      "Ġgradually": 8769,
      "Ġnun": 8770,
      "æĽ´å¤ļ": 8771,
      "éķĩ": 8772,
      "çĶ»": 8773,
      "åĨĻ": 8774,
      "Ġbile": 8775,
      "Ġbrown": 8776,
      "ĠBrown": 8777,
      "UL": 8778,
      "dget": 8779,
      "Ġbudget": 8780,
      "Ġnada": 8781,
      "Art": 8782,
      "Ġacces": 8783,
      "ht": 8784,
      "htm": 8785,
      "html": 8786,
      "Ġstret": 8787,
      "Ġstretch": 8788,
      "ĠModel": 8789,
      "éĹ»": 8790,
      "éĹľ": 8791,
      "èıľ": 8792,
      "Ã¼lt": 8793,
      "Ġguidance": 8794,
      "ĠmÃ©": 8795,
      "ĠmÃ©dic": 8796,
      "Ġworks": 8797,
      "ĠLiber": 8798,
      "Now": 8799,
      "ĠIN": 8800,
      "åĲ¦": 8801,
      "Ġfashion": 8802,
      "Ġneuen": 8803,
      "Ġpreserve": 8804,
      "coln": 8805,
      "incoln": 8806,
      "ĠLincoln": 8807,
      "ĠÃ¶dem": 8808,
      "Ġslowly": 8809,
      "Ġofficers": 8810,
      "Ġsistema": 8811,
      "ĠLeague": 8812,
      "Ġconstitu": 8813,
      "Ġrecording": 8814,
      "Ġstrip": 8815,
      "ĠProjekt": 8816,
      "Ã¶ffentlich": 8817,
      "iones": 8818,
      "Ġlabour": 8819,
      "äº¤æĺĵ": 8820,
      "Ġgeeign": 8821,
      "Ġhang": 8822,
      "âĢº": 8823,
      "å®³": 8824,
      "éĢĢ": 8825,
      "Ġfelt": 8826,
      "ĠNavy": 8827,
      "åİĨåı²": 8828,
      "Ġwarming": 8829,
      "Ġpathogen": 8830,
      "punkt": 8831,
      "Ġantes": 8832,
      "uff": 8833,
      "Ġmedi": 8834,
      "Ġmediante": 8835,
      "ç²ī": 8836,
      "opp": 8837,
      "rest": 8838,
      "Ġarrest": 8839,
      "è®¤ä¸º": 8840,
      "igual": 8841,
      "Ġigual": 8842,
      "Ġvilla": 8843,
      "æĶ»": 8844,
      "Ġcourses": 8845,
      "åī§": 8846,
      "bet": 8847,
      "ileri": 8848,
      "Ġinput": 8849,
      "è¡Įä¸ļ": 8850,
      "é¸": 8851,
      "band": 8852,
      "usband": 8853,
      "Ġhusband": 8854,
      "Ġpriest": 8855,
      "ĠproducciÃ³n": 8856,
      "ĠMoreover": 8857,
      "Ġexhibition": 8858,
      "Ġroof": 8859,
      "ĠPhoto": 8860,
      "åĩı": 8861,
      "Ġdescub": 8862,
      "ĠpequeÃ±": 8863,
      "yright": 8864,
      "opyright": 8865,
      "Ġcomprom": 8866,
      "Ġvideos": 8867,
      "Ġgenerated": 8868,
      "emiz": 8869,
      "TÃ¼rk": 8870,
      "TÃ¼rkiye": 8871,
      "ĠbÃ¶yle": 8872,
      "Ġbereits": 8873,
      "çĶŁäº§": 8874,
      "Ġmathemat": 8875,
      "Ġmathematical": 8876,
      "Ġmusical": 8877,
      "asÄ±nÄ±n": 8878,
      "echnology": 8879,
      "Ġinsp": 8880,
      "Ġinspired": 8881,
      "Ġdemocracy": 8882,
      "Ġiht": 8883,
      "Ġihtiy": 8884,
      "ĠihtiyaÃ§": 8885,
      "Ġziy": 8886,
      "å¦Ī": 8887,
      "ÄŁraf": 8888,
      "ĠfotoÄŁraf": 8889,
      "Ġgrade": 8890,
      "Ġsuit": 8891,
      "Ġsuitable": 8892,
      "iti": 8893,
      "itiative": 8894,
      "Ġestas": 8895,
      "Ġcrime": 8896,
      "Ġpuntos": 8897,
      "Ġcovered": 8898,
      "Ġturned": 8899,
      "Ġmarried": 8900,
      "Ġpalab": 8901,
      "ĠAir": 8902,
      "ĠdeÄŁildir": 8903,
      "Ġannually": 8904,
      "ĠBild": 8905,
      "lauf": 8906,
      "Ġroughly": 8907,
      "Ġhij": 8908,
      "ĠChap": 8909,
      "Ġimagin": 8910,
      "ÄŁinde": 8911,
      "Ġgender": 8912,
      "gov": 8913,
      "Ġtrig": 8914,
      "Ġtrigger": 8915,
      "Ġcreatures": 8916,
      "Ġhorizontal": 8917,
      "Ġgeomet": 8918,
      "Ġgef": 8919,
      "faces": 8920,
      "Ġsurfaces": 8921,
      "éĽĨåĽ¢": 8922,
      "Ġmoisture": 8923,
      "Ġhearing": 8924,
      "Ġwohl": 8925,
      "ĠyatÄ±rÄ±m": 8926,
      "commod": 8927,
      "Ġaccommod": 8928,
      "Ġearn": 8929,
      "ĠDurch": 8930,
      "ĠDo": 8931,
      "weight": 8932,
      "çĸĹ": 8933,
      "å¥Ĺ": 8934,
      "åħ´": 8935,
      "Ġid": 8936,
      "ĠMid": 8937,
      "ĠMidd": 8938,
      "ĠMiddle": 8939,
      "roid": 8940,
      "ĠAndroid": 8941,
      "Ġvalid": 8942,
      "vid": 8943,
      "beiter": 8944,
      "Ġdescribe": 8945,
      "Ġdescribes": 8946,
      "Ġparall": 8947,
      "Ġparallel": 8948,
      "Ġcondicion": 8949,
      "è£¡": 8950,
      "cour": 8951,
      "Ġauto": 8952,
      "ĠAuto": 8953,
      "cure": 8954,
      "Ġsecure": 8955,
      "ividad": 8956,
      "Ġmucho": 8957,
      "åĪļ": 8958,
      "Ġmolecules": 8959,
      "Ġell": 8960,
      "Ġello": 8961,
      "Ġpueblo": 8962,
      "Ġexecutive": 8963,
      "èĸ": 8964,
      "Ġaccompanied": 8965,
      "Ġoccupied": 8966,
      "Ġrecommended": 8967,
      "Ġrecommendations": 8968,
      "lied": 8969,
      "glied": 8970,
      "ĠMitglied": 8971,
      "Ġobtained": 8972,
      "Ġsuccessfully": 8973,
      "Ġunless": 8974,
      "Ġconsiderable": 8975,
      "æľºæŀĦ": 8976,
      "chten": 8977,
      "ĠmÃ¶chten": 8978,
      "Ġadvers": 8979,
      "Ġadopted": 8980,
      "Ġfellow": 8981,
      "Ġpapers": 8982,
      "aul": 8983,
      "ĠPaul": 8984,
      "Ġuser": 8985,
      "å²ģ": 8986,
      "ĠCoast": 8987,
      "Ġton": 8988,
      "Ġevil": 8989,
      "Ġastronom": 8990,
      "ĠColor": 8991,
      "ĠColorado": 8992,
      "ĠColomb": 8993,
      "meye": 8994,
      "Â¡": 8995,
      "larla": 8996,
      "fford": 8997,
      "Ġod": 8998,
      "Ġersten": 8999,
      "Ã¤hl": 9000,
      "idity": 9001,
      "Ġapparent": 9002,
      "Ġregarding": 9003,
      "ĠHaus": 9004,
      "Ġprohibit": 9005,
      "äº§ä¸ļ": 9006,
      "Wir": 9007,
      "inci": 9008,
      "çľĭåĪ°": 9009,
      "specific": 9010,
      "ĠCooper": 9011,
      "åĽłæŃ¤": 9012,
      "Ġhomes": 9013,
      "ĠPlease": 9014,
      "è³ĩ": 9015,
      "Ġincluso": 9016,
      "cido": 9017,
      "cidence": 9018,
      "Ġgrupo": 9019,
      "rÃ³n": 9020,
      "ĠelectrÃ³n": 9021,
      "ald": 9022,
      "razil": 9023,
      "ĠBrazil": 9024,
      "Ġbiraz": 9025,
      "Ġautism": 9026,
      "ĠEstados": 9027,
      "ographical": 9028,
      "åł´": 9029,
      "æĭĽ": 9030,
      "Ġ36": 9031,
      "Ġrevers": 9032,
      "Ġreduces": 9033,
      "ĠHistorical": 9034,
      "ĠÃ§oÄŁ": 9035,
      "Ġarray": 9036,
      "standing": 9037,
      "ĠÃģ": 9038,
      "lug": 9039,
      "ĠFil": 9040,
      "ĠWhy": 9041,
      "Ġestar": 9042,
      "Ġreferences": 9043,
      "èĽ": 9044,
      "Ġemployment": 9045,
      "è´Łè´£": 9046,
      "è´£ä»»": 9047,
      "test": 9048,
      "åºĶè¯¥": 9049,
      "Ġdrinking": 9050,
      "èµ·æĿ¥": 9051,
      "Ġaccord": 9052,
      "orum": 9053,
      "Ġhoch": 9054,
      "Ġitems": 9055,
      "waren": 9056,
      "warenes": 9057,
      "wareness": 9058,
      "Ġawareness": 9059,
      "Ġampli": 9060,
      "Ġracial": 9061,
      "bereich": 9062,
      "ĠbaÅŁlay": 9063,
      "ĠZiel": 9064,
      "Ġcomplement": 9065,
      "forcement": 9066,
      "elling": 9067,
      "Ġfinden": 9068,
      "ĠmayorÃŃa": 9069,
      "III": 9070,
      "Ġoptimiz": 9071,
      "ĠSuper": 9072,
      "ĠSupre": 9073,
      "ĠSupreme": 9074,
      "latt": 9075,
      "Ġerfolgreich": 9076,
      "Ġcontains": 9077,
      "æī¹": 9078,
      "79": 9079,
      "2017": 9080,
      "2011": 9081,
      "2018": 9082,
      "2013": 9083,
      "Ġviele": 9084,
      "Ġphilosophy": 9085,
      "Ġlay": 9086,
      "Ġlayer": 9087,
      "ony": 9088,
      "ĠBy": 9089,
      "Ġgenau": 9090,
      "Ġlivestock": 9091,
      "ĠlÃŃn": 9092,
      "ĠAust": 9093,
      "ç²¾ç¥ŀ": 9094,
      "ĠTag": 9095,
      "Âº": 9096,
      "Ġpartner": 9097,
      "ĠJosÃ©": 9098,
      "ÅŁaÄŁÄ±": 9099,
      "ĠÎ": 9100,
      "Ġsn": 9101,
      "Ġscript": 9102,
      "prech": 9103,
      "vasive": 9104,
      "vasion": 9105,
      "productive": 9106,
      "ĠHebre": 9107,
      "ĠHebrew": 9108,
      "Ġstages": 9109,
      "è¿Ļç§į": 9110,
      "Ġbeneath": 9111,
      "stag": 9112,
      "èĪª": 9113,
      "æ²Ļ": 9114,
      "æ²Ĵ": 9115,
      "Ġtodas": 9116,
      "Ġtool": 9117,
      "Ġtools": 9118,
      "ĠRoy": 9119,
      "ĠRoyal": 9120,
      "velength": 9121,
      "nin": 9122,
      "Ġreject": 9123,
      "ĠrelaciÃ³n": 9124,
      "tomach": 9125,
      "Ġstomach": 9126,
      "Ġconsistent": 9127,
      "mesini": 9128,
      "Ġconsciousness": 9129,
      "echos": 9130,
      "mos": 9131,
      "Los": 9132,
      "Ġinteractive": 9133,
      "Ġindicated": 9134,
      "ĠRecord": 9135,
      "ime": 9136,
      "Ġtun": 9137,
      "unft": 9138,
      "Ġsacred": 9139,
      "Ġentry": 9140,
      "Ġposses": 9141,
      "Ġpossibilities": 9142,
      "Ġgerade": 9143,
      "riction": 9144,
      "Ġrestriction": 9145,
      "Ġdevot": 9146,
      "Ġrecip": 9147,
      "ĠGood": 9148,
      "Ġchocol": 9149,
      "Ġchoic": 9150,
      "Ġchoices": 9151,
      "esi": 9152,
      "ĠTimes": 9153,
      "Ġfiles": 9154,
      "Ġdich": 9155,
      "venue": 9156,
      "correct": 9157,
      "prof": 9158,
      "ĠUnidos": 9159,
      "tood": 9160,
      "ĠUnfortunately": 9161,
      "ĠaltÄ±nda": 9162,
      "Ġfemales": 9163,
      "Ġnit": 9164,
      "Ġnitrogen": 9165,
      "Ġnavi": 9166,
      "Ġnavig": 9167,
      "Ġnerve": 9168,
      "lements": 9169,
      "Ġsupplements": 9170,
      "lection": 9171,
      "Ġtekrar": 9172,
      "genous": 9173,
      "digenous": 9174,
      "Ġcardi": 9175,
      "Ġsahib": 9176,
      "ĠMinistry": 9177,
      "ĠMinnes": 9178,
      "ĠMinnesot": 9179,
      "ear": 9180,
      "year": 9181,
      "Ġdisappear": 9182,
      "ĠYear": 9183,
      "Ġdiye": 9184,
      "ĠÃ§alÄ±ÅŁmalar": 9185,
      "lie": 9186,
      "lieÃŁ": 9187,
      "schlieÃŁ": 9188,
      "Ġextreme": 9189,
      "Ġdefect": 9190,
      "Ġeinz": 9191,
      "Ġeines": 9192,
      "éŁ©": 9193,
      "Ġleaders": 9194,
      "oles": 9195,
      "olescent": 9196,
      "Ġadolescent": 9197,
      "Ġcholes": 9198,
      "Ġcholester": 9199,
      "Ġcholesterol": 9200,
      "Ġcontinues": 9201,
      "Ġchair": 9202,
      "æıĲåįĩ": 9203,
      "è®¾å¤ĩ": 9204,
      "diction": 9205,
      "Ġsegunda": 9206,
      "ĠAndre": 9207,
      "ĠÃ¶ÄŁre": 9208,
      "ĠnÃºmero": 9209,
      "66": 9210,
      "Ġcalories": 9211,
      "Ġclus": 9212,
      "loc": 9213,
      "First": 9214,
      "voc": 9215,
      "var": 9216,
      "ĠRÃ¼ck": 9217,
      "Ġtroops": 9218,
      "ativa": 9219,
      "è§£åĨ³": 9220,
      "Ġproved": 9221,
      "Ġproj": 9222,
      "ja": 9223,
      "äº®": 9224,
      "ĠsÃ¼rdÃ¼r": 9225,
      "ĠStrateg": 9226,
      "Ġdic": 9227,
      "Ġcitizens": 9228,
      "Ġjew": 9229,
      "ä¸ĢèĪ¬": 9230,
      "Ġtransmitted": 9231,
      "ĠkÃ¼Ã§Ã¼k": 9232,
      "Ġkle": 9233,
      "Ġklein": 9234,
      "Ġble": 9235,
      "Ġbleib": 9236,
      "Ġheavi": 9237,
      "ä¸Ńå¤®": 9238,
      "Ġwhe": 9239,
      "Ġwheel": 9240,
      "tensive": 9241,
      "Ġremains": 9242,
      "Ġremained": 9243,
      "Ġconference": 9244,
      "Ġpil": 9245,
      "Ġpilot": 9246,
      "ĠHot": 9247,
      "ĠHotel": 9248,
      "Ġveril": 9249,
      "åħ«": 9250,
      "æ¼«": 9251,
      "Bu": 9252,
      "orm": 9253,
      "ctor": 9254,
      "ĠoldukÃ§a": 9255,
      "Ġallows": 9256,
      "Ġengines": 9257,
      "Ġengage": 9258,
      "åıĳå¸ĥ": 9259,
      "IG": 9260,
      "å¨ģ": 9261,
      "ĠyÃ¼zde": 9262,
      "ĠUnterstÃ¼tz": 9263,
      "èĨ": 9264,
      "Ġritual": 9265,
      "äºĨä¸Ģ": 9266,
      "Ġverw": 9267,
      "Ġverwende": 9268,
      "ĠTransport": 9269,
      "èĩªå·±çļĦ": 9270,
      "ĠZahl": 9271,
      "lantÄ±": 9272,
      "ĠPlant": 9273,
      "ĠPatient": 9274,
      "Ġlaws": 9275,
      "Ġextin": 9276,
      "Ġextinction": 9277,
      "ĠRob": 9278,
      "ĠRel": 9279,
      "fferson": 9280,
      "ĠbaÅŁladÄ±": 9281,
      "Ġhypothes": 9282,
      "Ġcharacterized": 9283,
      "including": 9284,
      "ĠBible": 9285,
      "Ġaccessible": 9286,
      "Ġanaliz": 9287,
      "ĠdiseÃ±": 9288,
      "ĠBoth": 9289,
      "ĠBas": 9290,
      "Ġburied": 9291,
      "Ġlearned": 9292,
      "med": 9293,
      "medi": 9294,
      "mar": 9295,
      "Ġguar": 9296,
      "Ġguarante": 9297,
      "ĠÃ§Ä±kar": 9298,
      "Ġziyar": 9299,
      "Ġziyaret": 9300,
      "Ġnarrative": 9301,
      "åĲ¸": 9302,
      "Ä±yoruz": 9303,
      "Ġcattle": 9304,
      "Ġnumbers": 9305,
      "ĠmÃ¼ss": 9306,
      "ĠmÃ¼ssen": 9307,
      "åħ¶ä¸Ń": 9308,
      "ived": 9309,
      "Ġderived": 9310,
      "Ġikinci": 9311,
      "ĠFragen": 9312,
      "Ġgall": 9313,
      "Ġgust": 9314,
      "Ġrecall": 9315,
      "Ġvalor": 9316,
      "Ġfirstname": 9317,
      "ĠProfess": 9318,
      "ĠProfessor": 9319,
      "ĠSee": 9320,
      "Ġhouses": 9321,
      "Ġpassage": 9322,
      "Ġtratamiento": 9323,
      "Ġbuen": 9324,
      "ĠFilm": 9325,
      "æĪĳåĢĳ": 9326,
      "ĠGobierno": 9327,
      "Ġpul": 9328,
      "ĠEnd": 9329,
      "æ¥¼": 9330,
      "Ġtercer": 9331,
      "ruption": 9332,
      "vrup": 9333,
      "agnetic": 9334,
      "quent": 9335,
      "sequent": 9336,
      "Ġsubsequent": 9337,
      "Ġbridge": 9338,
      "Ġeinige": 9339,
      "ĠhÃ¼kÃ¼m": 9340,
      "Ġconvi": 9341,
      "ĠOce": 9342,
      "ĠOcean": 9343,
      "ĠOur": 9344,
      "Ġmonitoring": 9345,
      "Ġdigest": 9346,
      "ĠOut": 9347,
      "Ġbiodi": 9348,
      "Ġbiodivers": 9349,
      "Ġbiodiversity": 9350,
      "Ġdieses": 9351,
      "aval": 9352,
      "alÄ±k": 9353,
      "ellik": 9354,
      "ellikle": 9355,
      "Ġvillages": 9356,
      "Ġready": 9357,
      "Ġscatter": 9358,
      "under": 9359,
      "Ġrund": 9360,
      "Ġcris": 9361,
      "Ġcrisis": 9362,
      "ander": 9363,
      "Ġcharacteristics": 9364,
      "Ġsurpris": 9365,
[...]
