{
  "version": "1.0",
  "truncation": null,
  "padding": null,
  "added_tokens": [
    {
      "id": 0,
      "content": "<|endoftext|>",
      "single_word": false,
      "lstrip": false,
      "rstrip": false,
      "normalized": false,
      "special": true
    },
    {
      "id": 1,
      "content": "<|padding|>",
      "single_word": false,
      "lstrip": false,
      "rstrip": false,
      "normalized": false,
      "special": true
    }
  ],
  "normalizer": {
    "type": "NFC"
  },
  "pre_tokenizer": {
    "type": "ByteLevel",
    "add_prefix_space": false,
    "trim_offsets": true,
    "use_regex": true
  },
  "post_processor": {
    "type": "ByteLevel",
    "add_prefix_space": true,
    "trim_offsets": false,
    "use_regex": true
  },
  "decoder": {
    "type": "ByteLevel",
    "add_prefix_space": true,
    "trim_offsets": true,
    "use_regex": true
  },
  "model": {
    "type": "Unigram",
    "unk_id": null,
    "vocab": [
      [
        "<|endoftext|>",
        -1.0
      ],
      [
        "<|padding|>",
        -1.0
      ],
      [
        "Ġ",
        -1.0
      ],
      [
        "e",
        -1.0
      ],
      [
        "t",
        -1.0
      ],
      [
        "a",
        -1.0
      ],
      [
        "o",
        -1.0
      ],
      [
        "i",
        -1.0
      ],
      [
        "n",
        -1.0
      ],
      [
        "s",
        -1.0
      ],
      [
        "r",
        -1.0
      ],
      [
        "h",
        -1.0
      ],
      [
        "l",
        -1.0
      ],
      [
        "d",
        -1.0
      ],
      [
        "c",
        -1.0
      ],
      [
        "u",
        -1.0
      ],
      [
        "m",
        -1.0
      ],
      [
        "f",
        -1.0
      ],
      [
        "p",
        -1.0
      ],
      [
        "g",
        -1.0
      ],
      [
        "y",
        -1.0
      ],
      [
        "w",
        -1.0
      ],
      [
        "b",
        -1.0
      ],
      [
        ",",
        -1.0
      ],
      [
        ".",
        -1.0
      ],
      [
        "v",
        -1.0
      ],
      [
        "Ċ",
        -1.0
      ],
      [
        "k",
        -1.0
      ],
      [
        "T",
        -1.0
      ],
      [
        "A",
        -1.0
      ],
      [
        "-",
        -1.0
      ],
      [
        "S",
        -1.0
      ],
      [
        "1",
        -1.0
      ],
      [
        "0",
        -1.0
      ],
      [
        "I",
        -1.0
      ],
      [
        "C",
        -1.0
      ],
      [
        "x",
        -1.0
      ],
      [
        "â",
        -1.0
      ],
      [
        "M",
        -1.0
      ],
      [
        "Ģ",
        -1.0
      ],
      [
        "P",
        -1.0
      ],
      [
        "2",
        -1.0
      ],
      [
        "B",
        -1.0
      ],
      [
        ")",
        -1.0
      ],
      [
        "(",
        -1.0
      ],
      [
        "E",
        -1.0
      ],
      [
        "D",
        -1.0
      ],
      [
        "H",
        -1.0
      ],
      [
        "R",
        -1.0
      ],
      [
        "N",
        -1.0
      ],
      [
        "W",
        -1.0
      ],
      [
        "9",
        -1.0
      ],
      [
        "\"",
        -1.0
      ],
      [
        "F",
        -1.0
      ],
      [
        "L",
        -1.0
      ],
      [
        ":",
        -1.0
      ],
      [
        "'",
        -1.0
      ],
      [
        "O",
        -1.0
      ],
      [
        "G",
        -1.0
      ],
      [
        "z",
        -1.0
      ],
      [
        "q",
        -1.0
      ],
      [
        "3",
        -1.0
      ],
      [
        "5",
        -1.0
      ],
      [
        "j",
        -1.0
      ],
      [
        "8",
        -1.0
      ],
      [
        "4",
        -1.0
      ],
      [
        "U",
        -1.0
      ],
      [
        "6",
        -1.0
      ],
      [
        "7",
        -1.0
      ],
      [
        "J",
        -1.0
      ],
      [
        "Ļ",
        -1.0
      ],
      [
        "|",
        -1.0
      ],
      [
        ";",
        -1.0
      ],
      [
        "V",
        -1.0
      ],
      [
        "/",
        -1.0
      ],
      [
        "K",
        -1.0
      ],
      [
        "ľ",
        -1.0
      ],
      [
        "Ŀ",
        -1.0
      ],
      [
        "Y",
        -1.0
      ],
      [
        "?",
        -1.0
      ],
      [
        "ĵ",
        -1.0
      ],
      [
        "Ķ",
        -1.0
      ],
      [
        "Ã",
        -1.0
      ],
      [
        "%",
        -1.0
      ],
      [
        "!",
        -1.0
      ],
      [
        "Q",
        -1.0
      ],
      [
        "[",
        -1.0
      ],
      [
        "]",
        -1.0
      ],
      [
        "_",
        -1.0
      ],
      [
        "Â",
        -1.0
      ],
      [
        "&",
        -1.0
      ],
      [
        "Z",
        -1.0
      ],
      [
        "X",
        -1.0
      ],
      [
        "$",
        -1.0
      ],
      [
        "=",
        -1.0
      ],
      [
        "ĺ",
        -1.0
      ],
      [
        "©",
        -1.0
      ],
      [
        "*",
        -1.0
      ],
      [
        ">",
        -1.0
      ],
      [
        "¢",
        -1.0
      ],
      [
        "+",
        -1.0
      ],
      [
        "¦",
        -1.0
      ],
      [
        "Î",
        -1.0
      ],
      [
        "Ä",
        -1.0
      ],
      [
        "Ð",
        -1.0
      ],
      [
        "ģ",
        -1.0
      ],
      [
        "°",
        -1.0
      ],
      [
        "<",
        -1.0
      ],
      [
        "¡",
        -1.0
      ],
      [
        "¼",
        -1.0
      ],
      [
        "#",
        -1.0
      ],
      [
        "·",
        -1.0
      ],
      [
        "Å",
        -1.0
      ],
      [
        "Ń",
        -1.0
      ],
      [
        "Ĥ",
        -1.0
      ],
      [
        "±",
        -1.0
      ],
      [
        "×",
        -1.0
      ],
      [
        "¸",
        -1.0
      ],
      [
        "¤",
        -1.0
      ],
      [
        "á",
        -1.0
      ],
      [
        "@",
        -1.0
      ],
      [
        "Ï",
        -1.0
      ],
      [
        "³",
        -1.0
      ],
      [
        "à",
        -1.0
      ],
      [
        "Ù",
        -1.0
      ],
      [
        "Ĩ",
        -1.0
      ],
      [
        "½",
        -1.0
      ],
      [
        "»",
        -1.0
      ],
      [
        "ĳ",
        -1.0
      ],
      [
        "Ñ",
        -1.0
      ],
      [
        "§",
        -1.0
      ],
      [
        "¶",
        -1.0
      ],
      [
        "Ħ",
        -1.0
      ],
      [
        "`",
        -1.0
      ],
      [
        "«",
        -1.0
      ],
      [
        "º",
        -1.0
      ],
      [
        "£",
        -1.0
      ],
      [
        "®",
        -1.0
      ],
      [
        "¿",
        -1.0
      ],
      [
        "²",
        -1.0
      ],
      [
        "¹",
        -1.0
      ],
      [
        "Ī",
        -1.0
      ],
      [
        "Ø",
        -1.0
      ],
      [
        "¬",
        -1.0
      ],
      [
        "¨",
        -1.0
      ],
      [
        "µ",
        -1.0
      ],
      [
        "ł",
        -1.0
      ],
      [
        "~",
        -1.0
      ],
      [
        "´",
        -1.0
      ],
      [
        "ã",
        -1.0
      ],
      [
        "¾",
        -1.0
      ],
      [
        "ĥ",
        -1.0
      ],
      [
        "į",
        -1.0
      ],
      [
        "Ĵ",
        -1.0
      ],
      [
        "å",
        -1.0
      ],
      [
        "^",
        -1.0
      ],
      [
        "¥",
        -1.0
      ],
      [
        "Ĳ",
        -1.0
      ],
      [
        "ª",
        -1.0
      ],
      [
        "Ĺ",
        -1.0
      ],
      [
        "ī",
        -1.0
      ],
      [
        "ĩ",
        -1.0
      ],
      [
        "¯",
        -1.0
      ],
      [
        "\\",
        -1.0
      ],
      [
        "ħ",
        -1.0
      ],
      [
        "É",
        -1.0
      ],
      [
        "æ",
        -1.0
      ],
      [
        "ĸ",
        -1.0
      ],
      [
        "Ê",
        -1.0
      ],
      [
        "ķ",
        -1.0
      ],
      [
        "Į",
        -1.0
      ],
      [
        "Ł",
        -1.0
      ],
      [
        "Ë",
        -1.0
      ],
      [
        "İ",
        -1.0
      ],
      [
        "ļ",
        -1.0
      ],
      [
        "Ľ",
        -1.0
      ],
      [
        "ı",
        -1.0
      ],
      [
        "ï",
        -1.0
      ],
      [
        "Ö",
        -1.0
      ],
      [
        "ç",
        -1.0
      ],
      [
        "Ĭ",
        -1.0
      ],
      [
        "ĭ",
        -1.0
      ],
      [
        "ŀ",
        -1.0
      ],
      [
        "è",
        -1.0
      ],
      [
        "ä",
        -1.0
      ],
      [
        "é",
        -1.0
      ],
      [
        "ì",
        -1.0
      ],
      [
        "ë",
        -1.0
      ],
      [
        "Õ",
        -1.0
      ],
      [
        "Ì",
        -1.0
      ],
      [
        "Ç",
        -1.0
      ],
      [
        "ê",
        -1.0
      ],
      [
        "Û",
        -1.0
      ],
      [
        "í",
        -1.0
      ],
      [
        "Æ",
        -1.0
      ],
      [
        "Ú",
        -1.0
      ],
      [
        "}",
        -1.0
      ],
      [
        "È",
        -1.0
      ],
      [
        "Ü",
        -1.0
      ],
      [
        "Þ",
        -1.0
      ],
      [
        "ð",
        -1.0
      ],
      [
        "Ô",
        -1.0
      ],
      [
        "Ò",
        -1.0
      ],
      [
        "Í",
        -1.0
      ],
      [
        "Ó",
        -1.0
      ],
      [
        "Ý",
        -1.0
      ],
      [
        "ß",
        -1.0
      ],
      [
        "ĉ",
        -1.0
      ],
      [
        "ó",
        -1.0
      ],
      [
        "ġ",
        -1.0
      ],
      [
        "ğ",
        -1.0
      ],
      [
        "Ğ",
        -1.0
      ],
      [
        "ĝ",
        -1.0
      ],
      [
        "Ĝ",
        -1.0
      ],
      [
        "ě",
        -1.0
      ],
      [
        "Ě",
        -1.0
      ],
      [
        "ę",
        -1.0
      ],
      [
        "Ę",
        -1.0
      ],
      [
        "ė",
        -1.0
      ],
      [
        "Ė",
        -1.0
      ],
      [
        "ĕ",
        -1.0
      ],
      [
        "Ĕ",
        -1.0
      ],
      [
        "ē",
        -1.0
      ],
      [
        "Ē",
        -1.0
      ],
      [
        "đ",
        -1.0
      ],
      [
        "Đ",
        -1.0
      ],
      [
        "ď",
        -1.0
      ],
      [
        "Ď",
        -1.0
      ],
      [
        "č",
        -1.0
      ],
      [
        "Č",
        -1.0
      ],
      [
        "ċ",
        -1.0
      ],
      [
        "Ĉ",
        -1.0
      ],
      [
        "ć",
        -1.0
      ],
      [
        "Ć",
        -1.0
      ],
      [
        "ą",
        -1.0
      ],
      [
        "Ą",
        -1.0
      ],
      [
        "ă",
        -1.0
      ],
      [
        "Ă",
        -1.0
      ],
      [
        "ā",
        -1.0
      ],
      [
        "Ā",
        -1.0
      ],
      [
        "ÿ",
        -1.0
      ],
      [
        "þ",
        -1.0
      ],
      [
        "ý",
        -1.0
      ],
      [
        "ü",
        -1.0
      ],
      [
        "û",
        -1.0
      ],
      [
        "ú",
        -1.0
      ],
      [
        "ù",
        -1.0
      ],
      [
        "ø",
        -1.0
      ],
      [
        "÷",
        -1.0
      ],
      [
        "ö",
        -1.0
      ],
      [
        "õ",
        -1.0
      ],
      [
        "ô",
        -1.0
      ],
      [
        "ò",
        -1.0
      ],
      [
        "ñ",
        -1.0
      ],
      [
        "î",
        -1.0
      ],
      [
        "Á",
        -1.0
      ],
      [
        "À",
        -1.0
      ],
      [
        "{",
        -1.0
      ],
      [
        "er",
        -1.0
      ],
      [
        "an",
        -1.0
      ],
      [
        "in",
        -1.0
      ],
      [
        "en",
        -1.0
      ],
      [
        "on",
        -1.0
      ],
      [
        "ar",
        -1.0
      ],
      [
        "es",
        -1.0
      ],
      [
        "ti",
        -1.0
      ],
      [
        "ra",
        -1.0
      ],
      [
        "at",
        -1.0
      ],
      [
        "te",
        -1.0
      ],
      [
        "al",
        -1.0
      ],
      [
        "re",
        -1.0
      ],
      [
        "ri",
        -1.0
      ],
      [
        "is",
        -1.0
      ],
      [
        "or",
        -1.0
      ],
      [
        "le",
        -1.0
      ],
      [
        "st",
        -1.0
      ],
      [
        "li",
        -1.0
      ],
      [
        "ro",
        -1.0
      ],
      [
        "ic",
        -1.0
      ],
      [
        "ng",
        -1.0
      ],
      [
        "ch",
        -1.0
      ],
      [
        "la",
        -1.0
      ],
      [
        "ne",
        -1.0
      ],
      [
        "nt",
        -1.0
      ],
      [
        "ta",
        -1.0
      ],
      [
        "it",
        -1.0
      ],
      [
        "ha",
        -1.0
      ],
      [
        "el",
        -1.0
      ],
      [
        "as",
        -1.0
      ],
      [
        "ing",
        -1.0
      ],
      [
        "na",
        -1.0
      ],
      [
        "ĠS",
        -1.0
      ],
      [
        "ma",
        -1.0
      ],
      [
        "he",
        -1.0
      ],
      [
        "ni",
        -1.0
      ],
      [
        "io",
        -1.0
      ],
      [
        "de",
        -1.0
      ],
      [
        "et",
        -1.0
      ],
      [
        "ia",
        -1.0
      ],
      [
        "ll",
        -1.0
      ],
      [
        "nd",
        -1.0
      ],
      [
        "ol",
        -1.0
      ],
      [
        "to",
        -1.0
      ],
      [
        "ion",
        -1.0
      ],
      [
        "th",
        -1.0
      ],
      [
        "se",
        -1.0
      ],
      [
        "ed",
        -1.0
      ],
      [
        "tion",
        -1.0
      ],
      [
        "am",
        -1.0
      ],
      [
        "il",
        -1.0
      ],
      [
        "me",
        -1.0
      ],
      [
        "us",
        -1.0
      ],
      [
        "ur",
        -1.0
      ],
      [
        "ĠM",
        -1.0
      ],
      [
        "ns",
        -1.0
      ],
      [
        "hi",
        -1.0
      ],
      [
        "lo",
        -1.0
      ],
      [
        "ac",
        -1.0
      ],
      [
        "si",
        -1.0
      ],
      [
        "os",
        -1.0
      ],
      [
        "ĠC",
        -1.0
      ],
      [
        "di",
        -1.0
      ],
      [
        "tr",
        -1.0
      ],
      [
        "co",
        -1.0
      ],
      [
        "ter",
        -1.0
      ],
      [
        "ati",
        -1.0
      ],
      [
        "ie",
        -1.0
      ],
      [
        "ca",
        -1.0
      ],
      [
        "ĠA",
        -1.0
      ],
      [
        "ĠP",
        -1.0
      ],
      [
        "ea",
        -1.0
      ],
      [
        "ent",
        -1.0
      ],
      [
        "om",
        -1.0
      ],
      [
        "ĠB",
        -1.0
      ],
      [
        "un",
        -1.0
      ],
      [
        "no",
        -1.0
      ],
      [
        "ation",
        -1.0
      ],
      [
        "ou",
        -1.0
      ],
      [
        "ho",
        -1.0
      ],
      [
        "ge",
        -1.0
      ],
      [
        "mi",
        -1.0
      ],
      [
        "ad",
        -1.0
      ],
      [
        "ss",
        -1.0
      ],
      [
        "id",
        -1.0
      ],
      [
        "ec",
        -1.0
      ],
      [
        "rs",
        -1.0
      ],
      [
        "ve",
        -1.0
      ],
      [
        "Ġs",
        -1.0
      ],
      [
        "sh",
        -1.0
      ],
      [
        "ce",
        -1.0
      ],
      [
        "pe",
        -1.0
      ],
      [
        "ot",
        -1.0
      ],
      [
        "ĠT",
        -1.0
      ],
      [
        "sa",
        -1.0
      ],
      [
        "da",
        -1.0
      ],
      [
        "ai",
        -1.0
      ],
      [
        "ers",
        -1.0
      ],
      [
        "em",
        -1.0
      ],
      [
        "ul",
        -1.0
      ],
      [
        "Ġp",
        -1.0
      ],
      [
        "and",
        -1.0
      ],
      [
        "pa",
        -1.0
      ],
      [
        "op",
        -1.0
      ],
      [
        "ir",
        -1.0
      ],
      [
        "ĠK",
        -1.0
      ],
      [
        "Ġc",
        -1.0
      ],
      [
        "ate",
        -1.0
      ],
      [
        "ĠD",
        -1.0
      ],
      [
        "um",
        -1.0
      ],
      [
        "im",
        -1.0
      ],
      [
        "ab",
        -1.0
      ],
      [
        "ci",
        -1.0
      ],
      [
        "ts",
        -1.0
      ],
      [
        "ag",
        -1.0
      ],
      [
        "Ġa",
        -1.0
      ],
      [
        "ist",
        -1.0
      ],
      [
        "ga",
        -1.0
      ],
      [
        "ĠG",
        -1.0
      ],
      [
        "mo",
        -1.0
      ],
      [
        "be",
        -1.0
      ],
      [
        "ba",
        -1.0
      ],
      [
        "ut",
        -1.0
      ],
      [
        "ĠH",
        -1.0
      ],
      [
        "nc",
        -1.0
      ],
      [
        "ap",
        -1.0
      ],
      [
        "______",
        -1.0
      ],
      [
        "ine",
        -1.0
      ],
      [
        "ka",
        -1.0
      ],
      [
        "vi",
        -1.0
      ],
      [
        "oc",
        -1.0
      ],
      [
        "po",
        -1.0
      ],
      [
        "sc",
        -1.0
      ],
      [
        "ei",
        -1.0
      ],
      [
        "ee",
        -1.0
      ],
      [
        "ĠR",
        -1.0
      ],
      [
        "so",
        -1.0
      ],
      [
        "ct",
        -1.0
      ],
      [
        "ak",
        -1.0
      ],
      [
        "ĠL",
        -1.0
      ],
      [
        "ke",
        -1.0
      ],
      [
        "ph",
        -1.0
      ],
      [
        "ig",
        -1.0
      ],
      [
        "ant",
        -1.0
      ],
      [
        "tt",
        -1.0
      ],
      [
        "Ma",
        -1.0
      ],
      [
        "tu",
        -1.0
      ],
      [
        "Ġm",
        -1.0
      ],
      [
        "og",
        -1.0
      ],
      [
        "eri",
        -1.0
      ],
      [
        "ĠMa",
        -1.0
      ],
      [
        "tic",
        -1.0
      ],
      [
        "ru",
        -1.0
      ],
      [
        "do",
        -1.0
      ],
      [
        "ara",
        -1.0
      ],
      [
        "ari",
        -1.0
      ],
      [
        "oo",
        -1.0
      ],
      [
        "che",
        -1.0
      ],
      [
        "od",
        -1.0
      ],
      [
        "lin",
        -1.0
      ],
      [
        "va",
        -1.0
      ],
      [
        "pr",
        -1.0
      ],
      [
        "man",
        -1.0
      ],
      [
        "all",
        -1.0
      ],
      [
        "ran",
        -1.0
      ],
      [
        "ali",
        -1.0
      ],
      [
        "Ġt",
        -1.0
      ],
      [
        "ĠN",
        -1.0
      ],
      [
        "au",
        -1.0
      ],
      [
        "ica",
        -1.0
      ],
      [
        "ian",
        -1.0
      ],
      [
        "the",
        -1.0
      ],
      [
        "ly",
        -1.0
      ],
      [
        "ell",
        -1.0
      ],
      [
        "ki",
        -1.0
      ],
      [
        "ste",
        -1.0
      ],
      [
        "ĠE",
        -1.0
      ],
      [
        "ess",
        -1.0
      ],
      [
        "bi",
        -1.0
      ],
      [
        "res",
        -1.0
      ],
      [
        "tra",
        -1.0
      ],
      [
        "ana",
        -1.0
      ],
      [
        "est",
        -1.0
      ],
      [
        "gi",
        -1.0
      ],
      [
        "00",
        -1.0
      ],
      [
        "ya",
        -1.0
      ],
      [
        "rd",
        -1.0
      ],
      [
        "Ġd",
        -1.0
      ],
      [
        "tin",
        -1.0
      ],
      [
        "men",
        -1.0
      ],
      [
        "wa",
        -1.0
      ],
      [
        "ons",
        -1.0
      ],
      [
        "ĠF",
        -1.0
      ],
      [
        "her",
        -1.0
      ],
      [
        "ill",
        -1.0
      ],
      [
        "pi",
        -1.0
      ],
      [
        "ay",
        -1.0
      ],
      [
        "lu",
        -1.0
      ],
      [
        "ani",
        -1.0
      ],
      [
        "su",
        -1.0
      ],
      [
        "per",
        -1.0
      ],
      [
        "ere",
        -1.0
      ],
      [
        "ah",
        -1.0
      ],
      [
        "era",
        -1.0
      ],
      [
        "bo",
        -1.0
      ],
      [
        "ry",
        -1.0
      ],
      [
        "lan",
        -1.0
      ],
      [
        "ver",
        -1.0
      ],
      [
        "nn",
        -1.0
      ],
      [
        "rin",
        -1.0
      ],
      [
        "ang",
        -1.0
      ],
      [
        "rat",
        -1.0
      ],
      [
        "ov",
        -1.0
      ],
      [
        "tor",
        -1.0
      ],
      [
        "der",
        -1.0
      ],
      [
        "sta",
        -1.0
      ],
      [
        "nes",
        -1.0
      ],
      [
        "Ġb",
        -1.0
      ],
      [
        "ep",
        -1.0
      ],
      [
        "iv",
        -1.0
      ],
      [
        "ina",
        -1.0
      ],
      [
        "rm",
        -1.0
      ],
      [
        "av",
        -1.0
      ],
      [
        "nti",
        -1.0
      ],
      [
        "Co",
        -1.0
      ],
      [
        "chi",
        -1.0
      ],
      [
        "cha",
        -1.0
      ],
      [
        "str",
        -1.0
      ],
      [
        "ow",
        -1.0
      ],
      [
        "lle",
        -1.0
      ],
      [
        "sti",
        -1.0
      ],
      [
        "han",
        -1.0
      ],
      [
        "fi",
        -1.0
      ],
      [
        "mp",
        -1.0
      ],
      [
        "oni",
        -1.0
      ],
      [
        "ue",
        -1.0
      ],
      [
        "sp",
        -1.0
      ],
      [
        "ae",
        -1.0
      ],
      [
        "ĠI",
        -1.0
      ],
      [
        "ans",
        -1.0
      ],
      [
        "ik",
        -1.0
      ],
      [
        "ĠW",
        -1.0
      ],
      [
        "one",
        -1.0
      ],
      [
        "ment",
        -1.0
      ],
      [
        "sk",
        -1.0
      ],
      [
        "Ġe",
        -1.0
      ],
      [
        "con",
        -1.0
      ],
      [
        "Ġr",
        -1.0
      ],
      [
        "gr",
        -1.0
      ],
      [
        "Ġco",
        -1.0
      ],
      [
        "ens",
        -1.0
      ],
      [
        "rc",
        -1.0
      ],
      [
        "eg",
        -1.0
      ],
      [
        "art",
        -1.0
      ],
      [
        "ach",
        -1.0
      ],
      [
        "ala",
        -1.0
      ],
      [
        "ide",
        -1.0
      ],
      [
        "ast",
        -1.0
      ],
      [
        "ip",
        -1.0
      ],
      [
        "bl",
        -1.0
      ],
      [
        "olo",
        -1.0
      ],
      [
        "hu",
        -1.0
      ],
      [
        "les",
        -1.0
      ],
      [
        "Ġi",
        -1.0
      ],
      [
        "iti",
        -1.0
      ],
      [
        "sch",
        -1.0
      ],
      [
        "ber",
        -1.0
      ],
      [
        "tri",
        -1.0
      ],
      [
        "ect",
        -1.0
      ],
      [
        "fe",
        -1.0
      ],
      [
        "cr",
        -1.0
      ],
      [
        "ene",
        -1.0
      ],
      [
        "ua",
        -1.0
      ],
      [
        "har",
        -1.0
      ],
      [
        "ite",
        -1.0
      ],
      [
        "cu",
        -1.0
      ],
      [
        "ty",
        -1.0
      ],
      [
        "ev",
        -1.0
      ],
      [
        "ĠV",
        -1.0
      ],
      [
        "ini",
        -1.0
      ],
      [
        "uc",
        -1.0
      ],
      [
        "ĠCo",
        -1.0
      ],
      [
        "ui",
        -1.0
      ],
      [
        "ric",
        -1.0
      ],
      [
        "ko",
        -1.0
      ],
      [
        "pl",
        -1.0
      ],
      [
        "---",
        -1.0
      ],
      [
        "ria",
        -1.0
      ],
      [
        "fo",
        -1.0
      ],
      [
        "ris",
        -1.0
      ],
      [
        "eo",
        -1.0
      ],
      [
        "Ġh",
        -1.0
      ],
      [
        "lli",
        -1.0
      ],
      [
        "ard",
        -1.0
      ],
      [
        "go",
        -1.0
      ],
      [
        "ich",
        -1.0
      ],
      [
        "ĠO",
        -1.0
      ],
      [
        "Ch",
        -1.0
      ],
      [
        "ona",
        -1.0
      ],
      [
        "ls",
        -1.0
      ],
      [
        "ĠCh",
        -1.0
      ],
      [
        "int",
        -1.0
      ],
      [
        "ten",
        -1.0
      ],
      [
        "min",
        -1.0
      ],
      [
        "tes",
        -1.0
      ],
      [
        "ib",
        -1.0
      ],
      [
        "lis",
        -1.0
      ],
      [
        "Ca",
        -1.0
      ],
      [
        "ob",
        -1.0
      ],
      [
        "tro",
        -1.0
      ],
      [
        "qu",
        -1.0
      ],
      [
        "tan",
        -1.0
      ],
      [
        "lla",
        -1.0
      ],
      [
        "bu",
        -1.0
      ],
      [
        "oi",
        -1.0
      ],
      [
        "ive",
        -1.0
      ],
      [
        "Pa",
        -1.0
      ],
      [
        "Ġf",
        -1.0
      ],
      [
        "we",
        -1.0
      ],
      [
        "lat",
        -1.0
      ],
      [
        "dr",
        -1.0
      ],
      [
        "hy",
        -1.0
      ],
      [
        "pro",
        -1.0
      ],
      [
        "ili",
        -1.0
      ],
      [
        "ata",
        -1.0
      ],
      [
        "gen",
        -1.0
      ],
      [
        "ud",
        -1.0
      ],
      [
        "ren",
        -1.0
      ],
      [
        "are",
        -1.0
      ],
      [
        "eb",
        -1.0
      ],
      [
        "end",
        -1.0
      ],
      [
        "mb",
        -1.0
      ],
      [
        "ies",
        -1.0
      ],
      [
        "iz",
        -1.0
      ],
      [
        "ĠPa",
        -1.0
      ],
      [
        "mat",
        -1.0
      ],
      [
        "br",
        -1.0
      ],
      [
        "ting",
        -1.0
      ],
      [
        "ĠBa",
        -1.0
      ],
      [
        "ori",
        -1.0
      ],
      [
        "if",
        -1.0
      ],
      [
        "sto",
        -1.0
      ],
      [
        "Ġre",
        -1.0
      ],
      [
        "ĠCa",
        -1.0
      ],
      [
        "log",
        -1.0
      ],
      [
        "ĠSa",
        -1.0
      ],
      [
        "ath",
        -1.0
      ],
      [
        "gh",
        -1.0
      ],
      [
        "eu",
        -1.0
      ],
      [
        "ele",
        -1.0
      ],
      [
        "ama",
        -1.0
      ],
      [
        "Ġn",
        -1.0
      ],
      [
        "ore",
        -1.0
      ],
      [
        "mu",
        -1.0
      ],
      [
        "lit",
        -1.0
      ],
      [
        "ds",
        -1.0
      ],
      [
        "cl",
        -1.0
      ],
      [
        "ron",
        -1.0
      ],
      [
        "ze",
        -1.0
      ],
      [
        "ner",
        -1.0
      ],
      [
        "ton",
        -1.0
      ],
      [
        "ont",
        -1.0
      ],
      [
        "Ġ1",
        -1.0
      ],
      [
        "ale",
        -1.0
      ],
      [
        "ort",
        -1.0
      ],
      [
        "Ġin",
        -1.0
      ],
      [
        "ub",
        -1.0
      ],
      [
        "....",
        -1.0
      ],
      [
        "ass",
        -1.0
      ],
      [
        "ert",
        -1.0
      ],
      [
        "hr",
        -1.0
      ],
      [
        "nu",
        -1.0
      ],
      [
        "Ġg",
        -1.0
      ],
      [
        "ita",
        -1.0
      ],
      [
        "sm",
        -1.0
      ],
      [
        "ted",
        -1.0
      ],
      [
        "oli",
        -1.0
      ],
      [
        "ato",
        -1.0
      ],
      [
        "gu",
        -1.0
      ],
      [
        "ey",
        -1.0
      ],
      [
        "Ġl",
        -1.0
      ],
      [
        "ome",
        -1.0
      ],
      [
        "nis",
        -1.0
      ],
      [
        "ĠKa",
        -1.0
      ],
      [
        "Re",
        -1.0
      ],
      [
        "tions",
        -1.0
      ],
      [
        "olog",
        -1.0
      ],
      [
        "ble",
        -1.0
      ],
      [
        "hin",
        -1.0
      ],
      [
        "wi",
        -1.0
      ],
      [
        "ero",
        -1.0
      ],
      [
        "ions",
        -1.0
      ],
      [
        "St",
        -1.0
      ],
      [
        "eli",
        -1.0
      ],
      [
        "ys",
        -1.0
      ],
      [
        "Ġpr",
        -1.0
      ],
      [
        "for",
        -1.0
      ],
      [
        "nal",
        -1.0
      ],
      [
        "ain",
        -1.0
      ],
      [
        "ano",
        -1.0
      ],
      [
        "rea",
        -1.0
      ],
      [
        "den",
        -1.0
      ],
      [
        "ost",
        -1.0
      ],
      [
        "ler",
        -1.0
      ],
      [
        "du",
        -1.0
      ],
      [
        "nat",
        -1.0
      ],
      [
        "tur",
        -1.0
      ],
      [
        "ish",
        -1.0
      ],
      [
        "ex",
        -1.0
      ],
      [
        "ous",
        -1.0
      ],
      [
        "mm",
        -1.0
      ],
      [
        "tat",
        -1.0
      ],
      [
        "ĠHa",
        -1.0
      ],
      [
        "Äģ",
        -1.0
      ],
      [
        "ins",
        -1.0
      ],
      [
        "rit",
        -1.0
      ],
      [
        "tal",
        -1.0
      ],
      [
        "rac",
        -1.0
      ],
      [
        "01",
        -1.0
      ],
      [
        "ical",
        -1.0
      ],
      [
        "ind",
        -1.0
      ],
      [
        "...",
        -1.0
      ],
      [
        "age",
        -1.0
      ],
      [
        "Ã©",
        -1.0
      ],
      [
        "anc",
        -1.0
      ],
      [
        "ster",
        -1.0
      ],
      [
        "10",
        -1.0
      ],
      [
        "und",
        -1.0
      ],
      [
        "ok",
        -1.0
      ],
      [
        "ef",
        -1.0
      ],
      [
        "Ġo",
        -1.0
      ],
      [
        "din",
        -1.0
      ],
      [
        "ula",
        -1.0
      ],
      [
        "De",
        -1.0
      ],
      [
        "mer",
        -1.0
      ],
      [
        "--",
        -1.0
      ],
      [
        "nic",
        -1.0
      ],
      [
        "ew",
        -1.0
      ],
      [
        "of",
        -1.0
      ],
      [
        "za",
        -1.0
      ],
      [
        "tha",
        -1.0
      ],
      [
        "up",
        -1.0
      ],
      [
        "rop",
        -1.0
      ],
      [
        "fa",
        -1.0
      ],
      [
        "ane",
        -1.0
      ],
      [
        "shi",
        -1.0
      ],
      [
        "hen",
        -1.0
      ],
      [
        "ĠJ",
        -1.0
      ],
      [
        "ger",
        -1.0
      ],
      [
        "ht",
        -1.0
      ],
      [
        "ssi",
        -1.0
      ],
      [
        "tar",
        -1.0
      ],
      [
        "our",
        -1.0
      ],
      [
        "ame",
        -1.0
      ],
      [
        "ity",
        -1.0
      ],
      [
        "ram",
        -1.0
      ],
      [
        "eni",
        -1.0
      ],
      [
        "lic",
        -1.0
      ],
      [
        "par",
        -1.0
      ],
      [
        "pt",
        -1.0
      ],
      [
        "ĠSt",
        -1.0
      ],
      [
        "sin",
        -1.0
      ],
      [
        "ĠMe",
        -1.0
      ],
      [
        "rie",
        -1.0
      ],
      [
        "ros",
        -1.0
      ],
      [
        "Pr",
        -1.0
      ],
      [
        "pp",
        -1.0
      ],
      [
        "ĠDe",
        -1.0
      ],
      [
        "ong",
        -1.0
      ],
      [
        "lar",
        -1.0
      ],
      [
        "mar",
        -1.0
      ],
      [
        "ien",
        -1.0
      ],
      [
        "cho",
        -1.0
      ],
      [
        "000",
        -1.0
      ],
      [
        "nin",
        -1.0
      ],
      [
        "ff",
        -1.0
      ],
      [
        "ure",
        -1.0
      ],
      [
        "tis",
        -1.0
      ],
      [
        "son",
        -1.0
      ],
      [
        "ek",
        -1.0
      ],
      [
        "des",
        -1.0
      ],
      [
        "ora",
        -1.0
      ],
      [
        "erm",
        -1.0
      ],
      [
        "ĠMo",
        -1.0
      ],
      [
        "ami",
        -1.0
      ],
      [
        "len",
        -1.0
      ],
      [
        "In",
        -1.0
      ],
      [
        "Ġma",
        -1.0
      ],
      [
        "oma",
        -1.0
      ],
      [
        "ĠRe",
        -1.0
      ],
      [
        "20",
        -1.0
      ],
      [
        "sen",
        -1.0
      ],
      [
        "ann",
        -1.0
      ],
      [
        "Ġde",
        -1.0
      ],
      [
        "aw",
        -1.0
      ],
      [
        "rl",
        -1.0
      ],
      [
        "las",
        -1.0
      ],
      [
        "sis",
        -1.0
      ],
      [
        "com",
        -1.0
      ],
      [
        "ear",
        -1.0
      ],
      [
        "ial",
        -1.0
      ],
      [
        "ling",
        -1.0
      ],
      [
        "sha",
        -1.0
      ],
      [
        "ras",
        -1.0
      ],
      [
        "able",
        -1.0
      ],
      [
        "pu",
        -1.0
      ],
      [
        "pre",
        -1.0
      ],
      [
        "mon",
        -1.0
      ],
      [
        "met",
        -1.0
      ],
      [
        "Ar",
        -1.0
      ],
      [
        "ier",
        -1.0
      ],
      [
        "ura",
        -1.0
      ],
      [
        "ern",
        -1.0
      ],
      [
        "ĠSh",
        -1.0
      ],
      [
        "ug",
        -1.0
      ],
      [
        "Sh",
        -1.0
      ],
      [
        "af",
        -1.0
      ],
      [
        "eth",
        -1.0
      ],
      [
        "Th",
        -1.0
      ],
      [
        "ER",
        -1.0
      ],
      [
        "oe",
        -1.0
      ],
      [
        "oa",
        -1.0
      ],
      [
        "tiv",
        -1.0
      ],
      [
        "act",
        -1.0
      ],
      [
        "ete",
        -1.0
      ],
      [
        "11",
        -1.0
      ],
      [
        "ĠBe",
        -1.0
      ],
      [
        "ring",
        -1.0
      ],
      [
        "yl",
        -1.0
      ],
      [
        "oph",
        -1.0
      ],
      [
        "ral",
        -1.0
      ],
      [
        "gl",
        -1.0
      ],
      [
        "ser",
        -1.0
      ],
      [
        "Be",
        -1.0
      ],
      [
        "ino",
        -1.0
      ],
      [
        "hal",
        -1.0
      ],
      [
        "ĠPr",
        -1.0
      ],
      [
        "dis",
        -1.0
      ],
      [
        "eme",
        -1.0
      ],
      [
        "..",
        -1.0
      ],
      [
        "ĠLa",
        -1.0
      ],
      [
        "ett",
        -1.0
      ],
      [
        "edi",
        -1.0
      ],
      [
        "ici",
        -1.0
      ],
      [
        "enti",
        -1.0
      ],
      [
        "ism",
        -1.0
      ],
      [
        "Ġk",
        -1.0
      ],
      [
        "IN",
        -1.0
      ],
      [
        "ree",
        -1.0
      ],
      [
        "ther",
        -1.0
      ],
      [
        "ace",
        -1.0
      ],
      [
        "erg",
        -1.0
      ],
      [
        "ĠMi",
        -1.0
      ],
      [
        "nia",
        -1.0
      ],
      [
        "car",
        -1.0
      ],
      [
        "zi",
        -1.0
      ],
      [
        "red",
        -1.0
      ],
      [
        "ja",
        -1.0
      ],
      [
        "eh",
        -1.0
      ],
      [
        "ech",
        -1.0
      ],
      [
        "ise",
        -1.0
      ],
      [
        "Ġpa",
        -1.0
      ],
      [
        "att",
        -1.0
      ],
      [
        "tho",
        -1.0
      ],
      [
        "ntr",
        -1.0
      ],
      [
        "uri",
        -1.0
      ],
      [
        "rom",
        -1.0
      ],
      [
        "az",
        -1.0
      ],
      [
        "ove",
        -1.0
      ],
      [
        "ade",
        -1.0
      ],
      [
        "ack",
        -1.0
      ],
      [
        "ations",
        -1.0
      ],
      [
        "ein",
        -1.0
      ],
      [
        "ness",
        -1.0
      ],
      [
        "ĠU",
        -1.0
      ],
      [
        "oun",
        -1.0
      ],
      [
        "ile",
        -1.0
      ],
      [
        "ĠSe",
        -1.0
      ],
      [
        "ks",
        -1.0
      ],
      [
        "ono",
        -1.0
      ],
      [
        "rap",
        -1.0
      ],
      [
        "Ġdi",
        -1.0
      ],
      [
        "nit",
        -1.0
      ],
      [
        "ĠTa",
        -1.0
      ],
      [
        "ye",
        -1.0
      ],
      [
        "ima",
        -1.0
      ],
      [
        "dia",
        -1.0
      ],
      [
        "eta",
        -1.0
      ],
      [
        "lia",
        -1.0
      ],
      [
        "adi",
        -1.0
      ],
      [
        "ash",
        -1.0
      ],
      [
        "kin",
        -1.0
      ],
      [
        "ena",
        -1.0
      ],
      [
        "yn",
        -1.0
      ],
      [
        "ny",
        -1.0
      ],
      [
        "nan",
        -1.0
      ],
      [
        "ung",
        -1.0
      ],
      [
        "isc",
        -1.0
      ],
      [
        "AN",
        -1.0
      ],
      [
        "ps",
        -1.0
      ],
      [
        "tl",
        -1.0
      ],
      [
        "ick",
        -1.0
      ],
      [
        "Ġu",
        -1.0
      ],
      [
        "ema",
        -1.0
      ],
      [
        "tre",
        -1.0
      ],
      [
        "Ġca",
        -1.0
      ],
      [
        "02",
        -1.0
      ],
      [
        "ela",
        -1.0
      ],
      [
        "san",
        -1.0
      ],
      [
        "ola",
        -1.0
      ],
      [
        "esi",
        -1.0
      ],
      [
        "An",
        -1.0
      ],
      [
        "ĠBo",
        -1.0
      ],
      [
        "que",
        -1.0
      ],
      [
        "12",
        -1.0
      ],
      [
        "Sc",
        -1.0
      ],
      [
        "ĠPo",
        -1.0
      ],
      [
        "can",
        -1.0
      ],
      [
        "oll",
        -1.0
      ],
      [
        "sion",
        -1.0
      ],
      [
        "land",
        -1.0
      ],
      [
        "He",
        -1.0
      ],
      [
        "ker",
        -1.0
      ],
      [
        "ĠPe",
        -1.0
      ],
      [
        "cc",
        -1.0
      ],
      [
        "ĠRa",
        -1.0
      ],
      [
        "ku",
        -1.0
      ],
      [
        "tive",
        -1.0
      ],
      [
        "net",
        -1.0
      ],
      [
        "ese",
        -1.0
      ],
      [
        "hor",
        -1.0
      ],
      [
        "ust",
        -1.0
      ],
      [
        "Ġw",
        -1.0
      ],
      [
        "Ġv",
        -1.0
      ],
      [
        "uk",
        -1.0
      ],
      [
        "Ġcon",
        -1.0
      ],
      [
        "ord",
        -1.0
      ],
      [
        "nst",
        -1.0
      ],
      [
        "nf",
        -1.0
      ],
      [
        "ski",
        -1.0
      ],
      [
        "ĠNa",
        -1.0
      ],
      [
        "rp",
        -1.0
      ],
      [
        "arc",
        -1.0
      ],
      [
        "Ġsu",
        -1.0
      ],
      [
        "cle",
        -1.0
      ],
      [
        "orm",
        -1.0
      ],
      [
        "vo",
        -1.0
      ],
      [
        "cro",
        -1.0
      ],
      [
        "Tr",
        -1.0
      ],
      [
        "gs",
        -1.0
      ],
      [
        "iss",
        -1.0
      ],
      [
        "Ġan",
        -1.0
      ],
      [
        "ada",
        -1.0
      ],
      [
        "emi",
        -1.0
      ],
      [
        "ase",
        -1.0
      ],
      [
        "err",
        -1.0
      ],
      [
        "ms",
        -1.0
      ],
      [
        "igh",
        -1.0
      ],
      [
        "ĠIn",
        -1.0
      ],
      [
        "ole",
        -1.0
      ],
      [
        "ĠHe",
        -1.0
      ],
      [
        "ond",
        -1.0
      ],
      [
        "ret",
        -1.0
      ],
      [
        "ven",
        -1.0
      ],
      [
        "ĠSc",
        -1.0
      ],
      [
        "AR",
        -1.0
      ],
      [
        "rec",
        -1.0
      ],
      [
        "tel",
        -1.0
      ],
      [
        "oto",
        -1.0
      ],
      [
        "03",
        -1.0
      ],
      [
        "pla",
        -1.0
      ],
      [
        "ire",
        -1.0
      ],
      [
        "Ġth",
        -1.0
      ],
      [
        "hil",
        -1.0
      ],
      [
        "fr",
        -1.0
      ],
      [
        "mic",
        -1.0
      ],
      [
        "ith",
        -1.0
      ],
      [
        "ĠSu",
        -1.0
      ],
      [
        "gn",
        -1.0
      ],
      [
        "ning",
        -1.0
      ],
      [
        "sl",
        -1.0
      ],
      [
        "ime",
        -1.0
      ],
      [
        "ĠAr",
        -1.0
      ],
      [
        "ĠBr",
        -1.0
      ],
      [
        "ult",
        -1.0
      ],
      [
        "ĠAn",
        -1.0
      ],
      [
        "15",
        -1.0
      ],
      [
        "Br",
        -1.0
      ],
      [
        "08",
        -1.0
      ],
      [
        "onal",
        -1.0
      ],
      [
        "por",
        -1.0
      ],
      [
        "ally",
        -1.0
      ],
      [
        "fer",
        -1.0
      ],
      [
        "ional",
        -1.0
      ],
      [
        "non",
        -1.0
      ],
      [
        "phi",
        -1.0
      ],
      [
        "yp",
        -1.0
      ],
      [
        "Al",
        -1.0
      ],
      [
        "ĠZ",
        -1.0
      ],
      [
        "ava",
        -1.0
      ],
      [
        "ĠTr",
        -1.0
      ],
      [
        "ize",
        -1.0
      ],
      [
        "19",
        -1.0
      ],
      [
        "use",
        -1.0
      ],
      [
        "rot",
        -1.0
      ],
      [
        "fl",
        -1.0
      ],
      [
        "ote",
        -1.0
      ],
      [
        "ence",
        -1.0
      ],
      [
        "rth",
        -1.0
      ],
      [
        "Con",
        -1.0
      ],
      [
        "kh",
        -1.0
      ],
      [
        "ode",
        -1.0
      ],
      [
        "ors",
        -1.0
      ],
      [
        "atu",
        -1.0
      ],
      [
        "yo",
        -1.0
      ],
      [
        "eve",
        -1.0
      ],
      [
        "ters",
        -1.0
      ],
      [
        "Ġch",
        -1.0
      ],
      [
        "04",
        -1.0
      ],
      [
        "ces",
        -1.0
      ],
      [
        "ham",
        -1.0
      ],
      [
        "eno",
        -1.0
      ],
      [
        "eat",
        -1.0
      ],
      [
        "Ġun",
        -1.0
      ],
      [
        "Ġpro",
        -1.0
      ],
      [
        "ĠDi",
        -1.0
      ],
      [
        "gan",
        -1.0
      ],
      [
        "80",
        -1.0
      ],
      [
        "The",
        -1.0
      ],
      [
        "arr",
        -1.0
      ],
      [
        "ses",
        -1.0
      ],
      [
        "Le",
        -1.0
      ],
      [
        "etr",
        -1.0
      ],
      [
        "05",
        -1.0
      ],
      [
        "ight",
        -1.0
      ],
      [
        "Ġst",
        -1.0
      ],
      [
        "ĠAl",
        -1.0
      ],
      [
        "oro",
        -1.0
      ],
      [
        "rad",
        -1.0
      ],
      [
        "rid",
        -1.0
      ],
      [
        "ĠTe",
        -1.0
      ],
      [
        "ding",
        -1.0
      ],
      [
        "ĠGa",
        -1.0
      ],
      [
        "ice",
        -1.0
      ],
      [
        "aya",
        -1.0
      ],
      [
        "oth",
        -1.0
      ],
      [
        "his",
        -1.0
      ],
      [
        "omi",
        -1.0
      ],
      [
        "cul",
        -1.0
      ],
      [
        "Ġpo",
        -1.0
      ],
      [
        "tional",
        -1.0
      ],
      [
        "18",
        -1.0
      ],
      [
        "ave",
        -1.0
      ],
      [
        "nch",
        -1.0
      ],
      [
        "let",
        -1.0
      ],
      [
        "So",
        -1.0
      ],
      [
        "roc",
        -1.0
      ],
      [
        "eco",
        -1.0
      ],
      [
        "ator",
        -1.0
      ],
      [
        "ON",
        -1.0
      ],
      [
        "AT",
        -1.0
      ],
      [
        "Ġme",
        -1.0
      ],
      [
        "14",
        -1.0
      ],
      [
        "hl",
        -1.0
      ],
      [
        "dd",
        -1.0
      ],
      [
        "Ġse",
        -1.0
      ],
      [
        "stra",
        -1.0
      ],
      [
        "ico",
        -1.0
      ],
      [
        "ĠLe",
        -1.0
      ],
      [
        "sit",
        -1.0
      ],
      [
        "yc",
        -1.0
      ],
      [
        "06",
        -1.0
      ],
      [
        "Pro",
        -1.0
      ],
      [
        "line",
        -1.0
      ],
      [
        "tia",
        -1.0
      ],
      [
        "21",
        -1.0
      ],
      [
        "07",
        -1.0
      ],
      [
        "hat",
        -1.0
      ],
      [
        "ndo",
        -1.0
      ],
      [
        "ization",
        -1.0
      ],
      [
        "ĠSi",
        -1.0
      ],
      [
        "aph",
        -1.0
      ],
      [
        "och",
        -1.0
      ],
      [
        "Gr",
        -1.0
      ],
      [
        "16",
        -1.0
      ],
      [
        "cen",
        -1.0
      ],
      [
        "ings",
        -1.0
      ],
      [
        "ars",
        -1.0
      ],
      [
        "cation",
        -1.0
      ],
      [
        "ĠLi",
        -1.0
      ],
      [
        "ary",
        -1.0
      ],
      [
        "pen",
        -1.0
      ],
      [
        "ated",
        -1.0
      ],
      [
        "RA",
        -1.0
      ],
      [
        "ose",
        -1.0
      ],
      [
        "Ġmi",
        -1.0
      ],
      [
        "nar",
        -1.0
      ],
      [
        "pha",
        -1.0
      ],
      [
        "ance",
        -1.0
      ],
      [
        "sy",
        -1.0
      ],
      [
        "ĠTh",
        -1.0
      ],
      [
        "ĠDa",
        -1.0
      ],
      [
        "col",
        -1.0
      ],
      [
        "ES",
        -1.0
      ],
      [
        "13",
        -1.0
      ],
      [
        "inter",
        -1.0
      ],
      [
        "Ġtr",
        -1.0
      ],
      [
        "abi",
        -1.0
      ],
      [
        "ement",
        -1.0
      ],
      [
        "out",
        -1.0
      ],
      [
        "rai",
        -1.0
      ],
      [
        "tc",
        -1.0
      ],
      [
        "RE",
        -1.0
      ],
      [
        "alo",
        -1.0
      ],
      [
        "ii",
        -1.0
      ],
      [
        "nto",
        -1.0
      ],
      [
        "rus",
        -1.0
      ],
      [
        "graph",
        -1.0
      ],
      [
        "hol",
        -1.0
      ],
      [
        "ĠHo",
        -1.0
      ],
      [
        "hes",
        -1.0
      ],
      [
        "pat",
        -1.0
      ],
      [
        "ila",
        -1.0
      ],
      [
        "17",
        -1.0
      ],
      [
        "ĠRo",
        -1.0
      ],
      [
        "unt",
        -1.0
      ],
      [
        "97",
        -1.0
      ],
      [
        "ira",
        -1.0
      ],
      [
        "emen",
        -1.0
      ],
      [
        "ĠSo",
        -1.0
      ],
      [
        "ĠSch",
        -1.0
      ],
      [
        "cia",
        -1.0
      ],
      [
        "dh",
        -1.0
      ],
      [
        "ĠMu",
        -1.0
      ],
      [
        "mis",
        -1.0
      ],
      [
        "yt",
        -1.0
      ],
      [
        "lm",
        -1.0
      ],
      [
        "ĠGr",
        -1.0
      ],
      [
        "To",
        -1.0
      ],
      [
        "lec",
        -1.0
      ],
      [
        "09",
        -1.0
      ],
      [
        "mal",
        -1.0
      ],
      [
        "mor",
        -1.0
      ],
      [
        "erc",
        -1.0
      ],
      [
        "ines",
        -1.0
      ],
      [
        "eng",
        -1.0
      ],
      [
        "ock",
        -1.0
      ],
      [
        "stic",
        -1.0
      ],
      [
        "lon",
        -1.0
      ],
      [
        "over",
        -1.0
      ],
      [
        "tz",
        -1.0
      ],
      [
        "30",
        -1.0
      ],
      [
        "ĠGe",
        -1.0
      ],
      [
        "inc",
        -1.0
      ],
      [
        "ĠNe",
        -1.0
      ],
      [
        "ater",
        -1.0
      ],
      [
        "arch",
        -1.0
      ],
      [
        "lor",
        -1.0
      ],
      [
        "ration",
        -1.0
      ],
      [
        "avi",
        -1.0
      ],
      [
        "ead",
        -1.0
      ],
      [
        "ean",
        -1.0
      ],
      [
        "ĠCha",
        -1.0
      ],
      [
        "ĠBi",
        -1.0
      ],
      [
        "EN",
        -1.0
      ],
      [
        "78",
        -1.0
      ],
      [
        "amp",
        -1.0
      ],
      [
        "Ã¡",
        -1.0
      ],
      [
        "gin",
        -1.0
      ],
      [
        "aro",
        -1.0
      ],
      [
        "ope",
        -1.0
      ],
      [
        "lac",
        -1.0
      ],
      [
        "wor",
        -1.0
      ],
      [
        "cor",
        -1.0
      ],
      [
        "rio",
        -1.0
      ],
      [
        "itt",
        -1.0
      ],
      [
        "gar",
        -1.0
      ],
      [
        "ake",
        -1.0
      ],
      [
        "ST",
        -1.0
      ],
      [
        "spe",
        -1.0
      ],
      [
        "pin",
        -1.0
      ],
      [
        "dit",
        -1.0
      ],
      [
        "ail",
        -1.0
      ],
      [
        "fu",
        -1.0
      ],
      [
        "ograph",
        -1.0
      ],
      [
        "oh",
        -1.0
      ],
      [
        "alt",
        -1.0
      ],
      [
        "hel",
        -1.0
      ],
      [
        "je",
        -1.0
      ],
      [
        "Ġpe",
        -1.0
      ],
      [
        "pan",
        -1.0
      ],
      [
        "emo",
        -1.0
      ],
      [
        "ium",
        -1.0
      ],
      [
        "qui",
        -1.0
      ],
      [
        "mes",
        -1.0
      ],
      [
        "eal",
        -1.0
      ],
      [
        "ple",
        -1.0
      ],
      [
        "hon",
        -1.0
      ],
      [
        "een",
        -1.0
      ],
      [
        "cy",
        -1.0
      ],
      [
        "50",
        -1.0
      ],
      [
        "22",
        -1.0
      ],
      [
        "ede",
        -1.0
      ],
      [
        "war",
        -1.0
      ],
      [
        "AL",
        -1.0
      ],
      [
        "tation",
        -1.0
      ],
      [
        "ĠY",
        -1.0
      ],
      [
        "TE",
        -1.0
      ],
      [
        "hea",
        -1.0
      ],
      [
        "cher",
        -1.0
      ],
      [
        "ture",
        -1.0
      ],
      [
        "ĠWa",
        -1.0
      ],
      [
        "hn",
        -1.0
      ],
      [
        "40",
        -1.0
      ],
      [
        "Ġsa",
        -1.0
      ],
      [
        "Ġno",
        -1.0
      ],
      [
        "esc",
        -1.0
      ],
      [
        "del",
        -1.0
      ],
      [
        "rol",
        -1.0
      ],
      [
        "pos",
        -1.0
      ],
      [
        "TI",
        -1.0
      ],
      [
        "als",
        -1.0
      ],
      [
        "tom",
        -1.0
      ],
      [
        "nb",
        -1.0
      ],
      [
        "ics",
        -1.0
      ],
      [
        "erv",
        -1.0
      ],
      [
        "lea",
        -1.0
      ],
      [
        "ĠMar",
        -1.0
      ],
      [
        "rel",
        -1.0
      ],
      [
        "ood",
        -1.0
      ],
      [
        "IS",
        -1.0
      ],
      [
        "Ġthe",
        -1.0
      ],
      [
        "uni",
        -1.0
      ],
      [
        "ark",
        -1.0
      ],
      [
        "ents",
        -1.0
      ],
      [
        "MA",
        -1.0
      ],
      [
        "No",
        -1.0
      ],
      [
        "aj",
        -1.0
      ],
      [
        "Ġmo",
        -1.0
      ],
      [
        "orn",
        -1.0
      ],
      [
        "bra",
        -1.0
      ],
      [
        "form",
        -1.0
      ],
      [
        "ym",
        -1.0
      ],
      [
        "los",
        -1.0
      ],
      [
        "dic",
        -1.0
      ],
      [
        "yr",
        -1.0
      ],
      [
        "60",
        -1.0
      ],
      [
        "lam",
        -1.0
      ],
      [
        "ists",
        -1.0
      ],
      [
        "Ġ2",
        -1.0
      ],
      [
        "yan",
        -1.0
      ],
      [
        "cs",
        -1.0
      ],
      [
        "omo",
        -1.0
      ],
      [
        "CA",
        -1.0
      ],
      [
        "mas",
        -1.0
      ],
      [
        "ĠBu",
        -1.0
      ],
      [
        "amb",
        -1.0
      ],
      [
        "lect",
        -1.0
      ],
      [
        "zo",
        -1.0
      ],
      [
        "RI",
        -1.0
      ],
      [
        "Ġ0",
        -1.0
      ],
      [
        "ĠTo",
        -1.0
      ],
      [
        "uro",
        -1.0
      ],
      [
        "lie",
        -1.0
      ],
      [
        "ox",
        -1.0
      ],
      [
        "eter",
        -1.0
      ],
      [
        "ban",
        -1.0
      ],
      [
        "gg",
        -1.0
      ],
      [
        "31",
        -1.0
      ],
      [
        "nos",
        -1.0
      ],
      [
        "rate",
        -1.0
      ],
      [
        "bar",
        -1.0
      ],
      [
        "aria",
        -1.0
      ],
      [
        "xi",
        -1.0
      ],
      [
        "Ã¢",
        -1.0
      ],
      [
        "90",
        -1.0
      ],
      [
        "ĠGo",
        -1.0
      ],
      [
        "sing",
        -1.0
      ],
      [
        "ella",
        -1.0
      ],
      [
        "sel",
        -1.0
      ],
      [
        "icle",
        -1.0
      ],
      [
        "ĠVi",
        -1.0
      ],
      [
        "vers",
        -1.0
      ],
      [
        "uch",
        -1.0
      ],
      [
        "cin",
        -1.0
      ],
      [
        "anda",
        -1.0
      ],
      [
        "arm",
        -1.0
      ],
      [
        "rian",
        -1.0
      ],
      [
        "dan",
        -1.0
      ],
      [
        "ĠVa",
        -1.0
      ],
      [
        "ank",
        -1.0
      ],
      [
        "81",
        -1.0
      ],
      [
        "elli",
        -1.0
      ],
      [
        "tem",
        -1.0
      ],
      [
        "my",
        -1.0
      ],
      [
        "van",
        -1.0
      ],
      [
        "port",
        -1.0
      ],
      [
        "ft",
        -1.0
      ],
      [
        "Do",
        -1.0
      ],
      [
        "mit",
        -1.0
      ],
      [
        "rist",
        -1.0
      ],
      [
        "Ġba",
        -1.0
      ],
      [
        "70",
        -1.0
      ],
      [
        "late",
        -1.0
      ],
      [
        "23",
        -1.0
      ],
      [
        "don",
        -1.0
      ],
      [
        "air",
        -1.0
      ],
      [
        "nas",
        -1.0
      ],
      [
        "Lo",
        -1.0
      ],
      [
        "erb",
        -1.0
      ],
      [
        "ky",
        -1.0
      ],
      [
        "Ġha",
        -1.0
      ],
      [
        "AS",
        -1.0
      ],
      [
        "ÃŃ",
        -1.0
      ],
      [
        "elo",
        -1.0
      ],
      [
        "hem",
        -1.0
      ],
      [
        "rf",
        -1.0
      ],
      [
        "nam",
        -1.0
      ],
      [
        "tric",
        -1.0
      ],
      [
        "erl",
        -1.0
      ],
      [
        "imi",
        -1.0
      ],
      [
        "gy",
        -1.0
      ],
      [
        "rum",
        -1.0
      ],
      [
        "lc",
        -1.0
      ],
      [
        "vel",
        -1.0
      ],
      [
        "oid",
        -1.0
      ],
      [
        "evi",
        -1.0
      ],
      [
        "Ġte",
        -1.0
      ],
      [
        "ition",
        -1.0
      ],
      [
        "CO",
        -1.0
      ],
      [
        "41",
        -1.0
      ],
      [
        "app",
        -1.0
      ],
      [
        "berg",
        -1.0
      ],
      [
        "stan",
        -1.0
      ],
      [
        "LA",
        -1.0
      ],
      [
        "ates",
        -1.0
      ],
      [
        "tai",
        -1.0
      ],
      [
        "tas",
        -1.0
      ],
      [
        "bur",
        -1.0
      ],
      [
        "lus",
        -1.0
      ],
      [
        "24",
        -1.0
      ],
      [
        "ink",
        -1.0
      ],
      [
        "enn",
        -1.0
      ],
      [
        "cer",
        -1.0
      ],
      [
        "esh",
        -1.0
      ],
      [
        "cent",
        -1.0
      ],
      [
        "51",
        -1.0
      ],
      [
        "LE",
        -1.0
      ],
      [
        "rim",
        -1.0
      ],
      [
        "sia",
        -1.0
      ],
      [
        "ĠCon",
        -1.0
      ],
      [
        "ega",
        -1.0
      ],
      [
        "25",
        -1.0
      ],
      [
        "rne",
        -1.0
      ],
      [
        "ull",
        -1.0
      ],
      [
        "rst",
        -1.0
      ],
      [
        "rh",
        -1.0
      ],
      [
        "rem",
        -1.0
      ],
      [
        "arn",
        -1.0
      ],
      [
        "ĠNo",
        -1.0
      ],
      [
        "AC",
        -1.0
      ],
      [
        "lk",
        -1.0
      ],
      [
        "We",
        -1.0
      ],
      [
        "oss",
        -1.0
      ],
      [
        "ges",
        -1.0
      ],
      [
        "ĠPro",
        -1.0
      ],
      [
        "nh",
        -1.0
      ],
      [
        "52",
        -1.0
      ],
      [
        "dy",
        -1.0
      ],
      [
        "iel",
        -1.0
      ],
      [
        "ology",
        -1.0
      ],
      [
        "ĠWi",
        -1.0
      ],
      [
        "stor",
        -1.0
      ],
      [
        "IC",
        -1.0
      ],
      [
        "oy",
        -1.0
      ],
      [
        "ĠDo",
        -1.0
      ],
      [
        "TA",
        -1.0
      ],
      [
        "33",
        -1.0
      ],
      [
        "fic",
        -1.0
      ],
      [
        "uma",
        -1.0
      ],
      [
        "ute",
        -1.0
      ],
      [
        "Sp",
        -1.0
      ],
      [
        "Ġbe",
        -1.0
      ],
      [
        "list",
        -1.0
      ],
      [
        "26",
        -1.0
      ],
      [
        "32",
        -1.0
      ],
      [
        "dra",
        -1.0
      ],
      [
        "OR",
        -1.0
      ],
      [
        "ott",
        -1.0
      ],
      [
        "eas",
        -1.0
      ],
      [
        "awa",
        -1.0
      ],
      [
        "val",
        -1.0
      ],
      [
        "ĠFa",
        -1.0
      ],
      [
        "qua",
        -1.0
      ],
      [
        "rod",
        -1.0
      ],
      [
        "Ġint",
        -1.0
      ],
      [
        "As",
        -1.0
      ],
      [
        "phe",
        -1.0
      ],
      [
        "ji",
        -1.0
      ],
      [
        "king",
        -1.0
      ],
      [
        "NA",
        -1.0
      ],
      [
        "dar",
        -1.0
      ],
      [
        "ange",
        -1.0
      ],
      [
        "led",
        -1.0
      ],
      [
        "LI",
        -1.0
      ],
      [
        "61",
        -1.0
      ],
      [
        "28",
        -1.0
      ],
      [
        "lig",
        -1.0
      ],
      [
        "aste",
        -1.0
      ],
      [
        "99",
        -1.0
      ],
      [
        "eur",
        -1.0
      ],
      [
        "rag",
        -1.0
      ],
      [
        "bal",
        -1.0
      ],
      [
        "lb",
        -1.0
      ],
      [
        "lation",
        -1.0
      ],
      [
        "comp",
        -1.0
      ],
      [
        "oge",
        -1.0
      ],
      [
        "sho",
        -1.0
      ],
      [
        "ĠLo",
        -1.0
      ],
      [
        "tim",
        -1.0
      ],
      [
        "ets",
        -1.0
      ],
      [
        "vil",
        -1.0
      ],
      [
        "isto",
        -1.0
      ],
      [
        "ĠVe",
        -1.0
      ],
      [
        "tru",
        -1.0
      ],
      [
        "nci",
        -1.0
      ],
      [
        "Ġpre",
        -1.0
      ],
      [
        "has",
        -1.0
      ],
      [
        "onc",
        -1.0
      ],
      [
        "pres",
        -1.0
      ],
      [
        "eld",
        -1.0
      ],
      [
        "Art",
        -1.0
      ],
      [
        "tos",
        -1.0
      ],
      [
        "lem",
        -1.0
      ],
      [
        "27",
        -1.0
      ],
      [
        "ĠPi",
        -1.0
      ],
      [
        "illa",
        -1.0
      ],
      [
        "ory",
        -1.0
      ],
      [
        "91",
        -1.0
      ],
      [
        "nom",
        -1.0
      ],
      [
        "ating",
        -1.0
      ],
      [
        "ational",
        -1.0
      ],
      [
        "ook",
        -1.0
      ],
      [
        "rig",
        -1.0
      ],
      [
        "ius",
        -1.0
      ],
      [
        "nation",
        -1.0
      ],
      [
        "sal",
        -1.0
      ],
      [
        "71",
        -1.0
      ],
      [
        "rab",
        -1.0
      ],
      [
        "yd",
        -1.0
      ],
      [
        "ically",
        -1.0
      ],
      [
        "sar",
        -1.0
      ],
      [
        "hou",
        -1.0
      ],
      [
        "atr",
        -1.0
      ],
      [
        "nv",
        -1.0
      ],
      [
        "til",
        -1.0
      ],
      [
        "sso",
        -1.0
      ],
      [
        "med",
        -1.0
      ],
      [
        "ush",
        -1.0
      ],
      [
        "ign",
        -1.0
      ],
      [
        "NE",
        -1.0
      ],
      [
        "ual",
        -1.0
      ],
      [
        "hs",
        -1.0
      ],
      [
        "sca",
        -1.0
      ],
      [
        "amm",
        -1.0
      ],
      [
        "old",
        -1.0
      ],
      [
        "bs",
        -1.0
      ],
      [
        "hm",
        -1.0
      ],
      [
        "ette",
        -1.0
      ],
      [
        "rep",
        -1.0
      ],
      [
        "vin",
        -1.0
      ],
      [
        "29",
        -1.0
      ],
      [
        "ova",
        -1.0
      ],
      [
        "42",
        -1.0
      ],
      [
        "ians",
        -1.0
      ],
      [
        "Ġnon",
        -1.0
      ],
      [
        "arb",
        -1.0
      ],
      [
        "ez",
        -1.0
      ],
      [
        "ken",
        -1.0
      ],
      [
        "rog",
        -1.0
      ],
      [
        "Ġhe",
        -1.0
      ],
      [
        "35",
        -1.0
      ],
      [
        "ats",
        -1.0
      ],
      [
        "Ġdis",
        -1.0
      ],
      [
        "SA",
        -1.0
      ],
      [
        "ĠFr",
        -1.0
      ],
      [
        "els",
        -1.0
      ],
      [
        "unc",
        -1.0
      ],
      [
        "34",
        -1.0
      ],
      [
        "RO",
        -1.0
      ],
      [
        "top",
        -1.0
      ],
      [
        "92",
        -1.0
      ],
      [
        "osa",
        -1.0
      ],
      [
        "uth",
        -1.0
      ],
      [
        "onn",
        -1.0
      ],
      [
        "var",
        -1.0
      ],
      [
        "its",
        -1.0
      ],
      [
        "tle",
        -1.0
      ],
      [
        "vic",
        -1.0
      ],
      [
        "cre",
        -1.0
      ],
      [
        "ative",
        -1.0
      ],
      [
        "sed",
        -1.0
      ],
      [
        "ĠGu",
        -1.0
      ],
      [
        "aus",
        -1.0
      ],
      [
        "ound",
        -1.0
      ],
      [
        "bel",
        -1.0
      ],
      [
        "44",
        -1.0
      ],
      [
        "Ġli",
        -1.0
      ],
      [
        "lp",
        -1.0
      ],
      [
        "55",
        -1.0
      ],
      [
        "53",
        -1.0
      ],
      [
        "ao",
        -1.0
      ],
      [
        "inn",
        -1.0
      ],
      [
        "ves",
        -1.0
      ],
      [
        "thr",
        -1.0
      ],
      [
        "CH",
        -1.0
      ],
      [
        "dal",
        -1.0
      ],
      [
        "Ġla",
        -1.0
      ],
      [
        "oly",
        -1.0
      ],
      [
        "45",
        -1.0
      ],
      [
        "tam",
        -1.0
      ],
      [
        "vis",
        -1.0
      ],
      [
        "43",
        -1.0
      ],
      [
        "bor",
        -1.0
      ],
      [
        "chan",
        -1.0
      ],
      [
        "Ġar",
        -1.0
      ],
      [
        "95",
        -1.0
      ],
      [
        "ĠSp",
        -1.0
      ],
      [
        "hot",
        -1.0
      ],
      [
        "ĠWe",
        -1.0
      ],
      [
        "62",
        -1.0
      ],
      [
        "nco",
        -1.0
      ],
      [
        "gre",
        -1.0
      ],
      [
        "85",
        -1.0
      ],
      [
        "itu",
        -1.0
      ],
      [
        "Ġ9",
        -1.0
      ],
      [
        "ĠPar",
        -1.0
      ],
      [
        "sb",
        -1.0
      ],
      [
        "ork",
        -1.0
      ],
      [
        "SE",
        -1.0
      ],
      [
        "Com",
        -1.0
      ],
      [
        "82",
        -1.0
      ],
      [
        "gal",
        -1.0
      ],
      [
        "ville",
        -1.0
      ],
      [
        "ffe",
        -1.0
      ],
      [
        "56",
        -1.0
      ],
      [
        "ape",
        -1.0
      ],
      [
        "iva",
        -1.0
      ],
      [
        "ries",
        -1.0
      ],
      [
        "bac",
        -1.0
      ],
      [
        "urg",
        -1.0
      ],
      [
        "Ġcom",
        -1.0
      ],
      [
        "Ġex",
        -1.0
      ],
      [
        "dor",
        -1.0
      ],
      [
        "Ġsh",
        -1.0
      ],
      [
        "tus",
        -1.0
      ],
      [
        "iro",
        -1.0
      ],
      [
        "win",
        -1.0
      ],
      [
        "84",
        -1.0
      ],
      [
        "nel",
        -1.0
      ],
      [
        "not",
        -1.0
      ],
      [
        "36",
        -1.0
      ],
      [
        "stin",
        -1.0
      ],
      [
        "39",
        -1.0
      ],
      [
        "Ġne",
        -1.0
      ],
      [
        "DE",
        -1.0
      ],
      [
        "Ġta",
        -1.0
      ],
      [
        "cou",
        -1.0
      ],
      [
        "eric",
        -1.0
      ],
      [
        "bb",
        -1.0
      ],
      [
        "87",
        -1.0
      ],
      [
        "ders",
        -1.0
      ],
      [
        "54",
        -1.0
      ],
      [
        "ery",
        -1.0
      ],
      [
        "sw",
        -1.0
      ],
      [
        "ĠMan",
        -1.0
      ],
      [
        "59",
        -1.0
      ],
      [
        "37",
        -1.0
      ],
      [
        "47",
        -1.0
      ],
      [
        "38",
        -1.0
      ],
      [
        "93",
        -1.0
      ],
      [
        "eria",
        -1.0
      ],
      [
        "arti",
        -1.0
      ],
      [
        "low",
        -1.0
      ],
      [
        "eck",
        -1.0
      ],
      [
        "57",
        -1.0
      ],
      [
        "ool",
        -1.0
      ],
      [
        "98",
        -1.0
      ],
      [
        "iso",
        -1.0
      ],
      [
        "200",
        -1.0
      ],
      [
        "ility",
        -1.0
      ],
      [
        "jo",
        -1.0
      ],
      [
        "Ġen",
        -1.0
      ],
      [
        "eci",
        -1.0
      ],
      [
        "ĠÎ",
        -1.0
      ],
      [
        "mpl",
        -1.0
      ],
      [
        "EL",
        -1.0
      ],
      [
        "Ġbi",
        -1.0
      ],
      [
        "88",
        -1.0
      ],
      [
        "72",
        -1.0
      ],
      [
        "46",
        -1.0
      ],
      [
        "ij",
        -1.0
      ],
      [
        "ologic",
        -1.0
      ],
      [
        "65",
        -1.0
      ],
      [
        "ĠPh",
        -1.0
      ],
      [
        "oin",
        -1.0
      ],
      [
        "Ġal",
        -1.0
      ],
      [
        "aut",
        -1.0
      ],
      [
        "ids",
        -1.0
      ],
      [
        "74",
        -1.0
      ],
      [
        "ike",
        -1.0
      ],
      [
        "ild",
        -1.0
      ],
      [
        "63",
        -1.0
      ],
      [
        "Ġsp",
        -1.0
      ],
      [
        "arg",
        -1.0
      ],
      [
        "hir",
        -1.0
      ],
      [
        "atic",
        -1.0
      ],
      [
        "yst",
        -1.0
      ],
      [
        "Ġinter",
        -1.0
      ],
      [
        "89",
        -1.0
      ],
      [
        "Cl",
        -1.0
      ],
      [
        "mag",
        -1.0
      ],
      [
        "less",
        -1.0
      ],
      [
        "83",
        -1.0
      ],
      [
        "IT",
        -1.0
      ],
      [
        "96",
        -1.0
      ],
      [
        "94",
        -1.0
      ],
      [
        "mel",
        -1.0
      ],
      [
        "ned",
        -1.0
      ],
      [
        "NG",
        -1.0
      ],
      [
        "Ã³",
        -1.0
      ],
      [
        "ĠCar",
        -1.0
      ],
      [
        "ept",
        -1.0
      ],
      [
        "tol",
        -1.0
      ],
      [
        "ache",
        -1.0
      ],
      [
        "66",
        -1.0
      ],
      [
        "ĠNi",
        -1.0
      ],
      [
        "64",
        -1.0
      ],
      [
        "NT",
        -1.0
      ],
      [
        "Ġso",
        -1.0
      ],
      [
        "75",
        -1.0
      ],
      [
        "uf",
        -1.0
      ],
      [
        "ĠTi",
        -1.0
      ],
      [
        "tern",
        -1.0
      ],
      [
        "mac",
        -1.0
      ],
      [
        "58",
        -1.0
      ],
      [
        "mus",
        -1.0
      ],
      [
        "ogen",
        -1.0
      ],
      [
        "lim",
        -1.0
      ],
      [
        "86",
        -1.0
      ],
      [
        "dent",
        -1.0
      ],
      [
        "HA",
        -1.0
      ],
      [
        "own",
        -1.0
      ],
      [
        "73",
        -1.0
      ],
      [
        "48",
        -1.0
      ],
      [
        "sn",
        -1.0
      ],
      [
        "67",
        -1.0
      ],
      [
        "pal",
        -1.0
      ],
      [
        "ĠCr",
        -1.0
      ],
      [
        "ssion",
        -1.0
      ],
      [
        "Ġna",
        -1.0
      ],
      [
        "lio",
        -1.0
      ],
      [
        "run",
        -1.0
      ],
      [
        "set",
        -1.0
      ],
      [
        "ues",
        -1.0
      ],
      [
        "opa",
        -1.0
      ],
      [
        "Ġpar",
        -1.0
      ],
      [
        "ener",
        -1.0
      ],
      [
        "ient",
        -1.0
      ],
      [
        "tory",
        -1.0
      ],
      [
        "pers",
        -1.0
      ],
      [
        "76",
        -1.0
      ],
      [
        "ides",
        -1.0
      ],
      [
        "sur",
        -1.0
      ],
      [
        "SI",
        -1.0
      ],
      [
        "AM",
        -1.0
      ],
      [
        "acc",
        -1.0
      ],
      [
        "49",
        -1.0
      ],
      [
        "sky",
        -1.0
      ],
      [
        "bin",
        -1.0
      ],
      [
        "iver",
        -1.0
      ],
      [
        "duc",
        -1.0
      ],
      [
        "rav",
        -1.0
      ],
      [
        "urs",
        -1.0
      ],
      [
        "fin",
        -1.0
      ],
      [
        "79",
        -1.0
      ],
      [
        "udi",
        -1.0
      ],
      [
        "Ã¼",
        -1.0
      ],
      [
        "ju",
        -1.0
      ],
      [
        "Ġge",
        -1.0
      ],
      [
        "ular",
        -1.0
      ],
      [
        "eso",
        -1.0
      ],
      [
        "sid",
        -1.0
      ],
      [
        "gis",
        -1.0
      ],
      [
        "77",
        -1.0
      ],
      [
        "enes",
        -1.0
      ],
      [
        "eva",
        -1.0
      ],
      [
        "rip",
        -1.0
      ],
      [
        "una",
        -1.0
      ],
      [
        "Ġper",
        -1.0
      ],
      [
        "nor",
        -1.0
      ],
      [
        "rce",
        -1.0
      ],
      [
        "ĠAs",
        -1.0
      ],
      [
        "mun",
        -1.0
      ],
      [
        "ĠSta",
        -1.0
      ],
      [
        "ctor",
        -1.0
      ],
      [
        "68",
        -1.0
      ],
      [
        "thy",
        -1.0
      ],
      [
        "ume",
        -1.0
      ],
      [
        "uan",
        -1.0
      ],
      [
        "reg",
        -1.0
      ],
      [
        "onic",
        -1.0
      ],
      [
        "Ã¶",
        -1.0
      ],
      [
        "dio",
        -1.0
      ],
      [
        "ege",
        -1.0
      ],
      [
        "ering",
        -1.0
      ],
      [
        "gic",
        -1.0
      ],
      [
        "eed",
        -1.0
      ],
      [
        "rob",
        -1.0
      ],
      [
        "Ġto",
        -1.0
      ],
      [
        "Ġfo",
        -1.0
      ],
      [
        "ites",
        -1.0
      ],
      [
        "ax",
        -1.0
      ],
      [
        "ING",
        -1.0
      ],
      [
        "ones",
        -1.0
      ],
      [
        "nus",
        -1.0
      ],
      [
        "erd",
        -1.0
      ],
      [
        "ability",
        -1.0
      ],
      [
        "spi",
        -1.0
      ],
      [
        "lum",
        -1.0
      ],
      [
        "ias",
        -1.0
      ],
      [
        "alu",
        -1.0
      ],
      [
        "uss",
        -1.0
      ],
      [
        "ald",
        -1.0
      ],
      [
        "sic",
        -1.0
      ],
      [
        "eit",
        -1.0
      ],
      [
        "abo",
        -1.0
      ],
      [
        "ule",
        -1.0
      ],
      [
        "Un",
        -1.0
      ],
      [
        "het",
        -1.0
      ],
      [
        "ley",
        -1.0
      ],
      [
        "ĠFi",
        -1.0
      ],
      [
        "Ġsi",
        -1.0
      ],
      [
        "tac",
        -1.0
      ],
      [
        "hai",
        -1.0
      ],
      [
        "ED",
        -1.0
      ],
      [
        "sor",
        -1.0
      ],
      [
        "oul",
        -1.0
      ],
      [
        "ME",
        -1.0
      ],
      [
        "sol",
        -1.0
      ],
      [
        "ties",
        -1.0
      ],
      [
        "org",
        -1.0
      ],
      [
        "by",
        -1.0
      ],
      [
        "cel",
        -1.0
      ],
      [
        "69",
        -1.0
      ],
      [
        "abil",
        -1.0
      ],
      [
        "ext",
        -1.0
      ],
      [
        "ĠAm",
        -1.0
      ],
      [
        "PA",
        -1.0
      ],
      [
        "Ġmu",
        -1.0
      ],
      [
        "cas",
        -1.0
      ],
      [
        "Ġtra",
        -1.0
      ],
      [
        "ific",
        -1.0
      ],
      [
        "gel",
        -1.0
      ],
      [
        "off",
        -1.0
      ],
      [
        "tical",
        -1.0
      ],
      [
        "lv",
        -1.0
      ],
      [
        "etic",
        -1.0
      ],
      [
        "ized",
        -1.0
      ],
      [
        "ago",
        -1.0
      ],
      [
        "arl",
        -1.0
      ],
      [
        "LL",
        -1.0
      ],
      [
        "mann",
        -1.0
      ],
      [
        "stu",
        -1.0
      ],
      [
        "urn",
        -1.0
      ],
      [
        "erp",
        -1.0
      ],
      [
        "orr",
        -1.0
      ],
      [
        "athe",
        -1.0
      ],
      [
        "osp",
        -1.0
      ],
      [
        "lid",
        -1.0
      ],
      [
        "ĠBar",
        -1.0
      ],
      [
        "ude",
        -1.0
      ],
      [
        "Ġsc",
        -1.0
      ],
      [
        "cop",
        -1.0
      ],
      [
        "US",
        -1.0
      ],
      [
        "row",
        -1.0
      ],
      [
        "oz",
        -1.0
      ],
      [
        "ios",
        -1.0
      ],
      [
        "tate",
        -1.0
      ],
      [
        "lab",
        -1.0
      ],
      [
        "ĠQ",
        -1.0
      ],
      [
        "ĠEn",
        -1.0
      ],
      [
        "pon",
        -1.0
      ],
      [
        "SS",
        -1.0
      ],
      [
        "rib",
        -1.0
      ],
      [
        "mul",
        -1.0
      ],
      [
        "lop",
        -1.0
      ],
      [
        "eer",
        -1.0
      ],
      [
        "gon",
        -1.0
      ],
      [
        "ĠRi",
        -1.0
      ],
      [
        "ET",
        -1.0
      ],
      [
        "Ġra",
        -1.0
      ],
      [
        "IA",
        -1.0
      ],
      [
        "rer",
        -1.0
      ],
      [
        "ological",
        -1.0
      ],
      [
        "ments",
        -1.0
      ],
      [
        "cra",
        -1.0
      ],
      [
        "wan",
        -1.0
      ],
      [
        "Ġj",
        -1.0
      ],
      [
        "Ġho",
        -1.0
      ],
      [
        "NI",
        -1.0
      ],
      [
        "atch",
        -1.0
      ],
      [
        "lot",
        -1.0
      ],
      [
        "ĠDu",
        -1.0
      ],
      [
        "vent",
        -1.0
      ],
      [
        "cus",
        -1.0
      ],
      [
        "reat",
        -1.0
      ],
      [
        "rent",
        -1.0
      ],
      [
        "ril",
        -1.0
      ],
      [
        "rest",
        -1.0
      ],
      [
        "uo",
        -1.0
      ],
      [
        "esp",
        -1.0
      ],
      [
        "Ġph",
        -1.0
      ],
      [
        "hip",
        -1.0
      ],
      [
        "tw",
        -1.0
      ],
      [
        "ches",
        -1.0
      ],
      [
        "nj",
        -1.0
      ],
      [
        "wh",
        -1.0
      ],
      [
        "imp",
        -1.0
      ],
      [
        "ied",
        -1.0
      ],
      [
        "trop",
        -1.0
      ],
      [
        "rain",
        -1.0
      ],
      [
        "Ġle",
        -1.0
      ],
      [
        "Ġgr",
        -1.0
      ],
      [
        "ict",
        -1.0
      ],
      [
        "hed",
        -1.0
      ],
      [
        "emp",
        -1.0
      ],
      [
        "peri",
        -1.0
      ],
      [
        "under",
        -1.0
      ],
      [
        "lay",
        -1.0
      ],
      [
        "iqu",
        -1.0
      ],
      [
        "aster",
        -1.0
      ],
      [
        "umb",
        -1.0
      ],
      [
        "ĠPer",
        -1.0
      ],
      [
        "emb",
        -1.0
      ],
      [
        "lant",
        -1.0
      ],
      [
        "dg",
        -1.0
      ],
      [
        "pic",
        -1.0
      ],
      [
        "Ac",
        -1.0
      ],
      [
        "100",
        -1.0
      ],
      [
        "ife",
        -1.0
      ],
      [
        "uer",
        -1.0
      ],
      [
        "ston",
        -1.0
      ],
      [
        "nate",
        -1.0
      ],
      [
        "rand",
        -1.0
      ],
      [
        "nac",
        -1.0
      ],
      [
        "lag",
        -1.0
      ],
      [
        "omb",
        -1.0
      ],
      [
        "rev",
        -1.0
      ],
      [
        "cla",
        -1.0
      ],
      [
        "ĠTu",
        -1.0
      ],
      [
        "lg",
        -1.0
      ],
      [
        "nov",
        -1.0
      ],
      [
        "ĠMon",
        -1.0
      ],
      [
        "iet",
        -1.0
      ],
      [
        "ores",
        -1.0
      ],
      [
        "Ġcr",
        -1.0
      ],
      [
        "cur",
        -1.0
      ],
      [
        "NS",
        -1.0
      ],
      [
        "ower",
        -1.0
      ],
      [
        "istic",
        -1.0
      ],
      [
        "SC",
        -1.0
      ],
      [
        "Ġvi",
        -1.0
      ],
      [
        "uar",
        -1.0
      ],
      [
        "onia",
        -1.0
      ],
      [
        "For",
        -1.0
      ],
      [
        "ely",
        -1.0
      ],
      [
        "asc",
        -1.0
      ],
      [
        "Ġfa",
        -1.0
      ],
      [
        "mos",
        -1.0
      ],
      [
        "Ġsub",
        -1.0
      ],
      [
        "ĠUn",
        -1.0
      ],
      [
        "tors",
        -1.0
      ],
      [
        "gro",
        -1.0
      ],
      [
        "cos",
        -1.0
      ],
      [
        "CE",
        -1.0
      ],
      [
        "dle",
        -1.0
      ],
      [
        "pit",
        -1.0
      ],
      [
        "get",
        -1.0
      ],
      [
        "rah",
        -1.0
      ],
      [
        "HE",
        -1.0
      ],
      [
        "ĠHu",
        -1.0
      ],
      [
        "ĠThe",
        -1.0
      ],
      [
        "sil",
        -1.0
      ],
      [
        "Ġac",
        -1.0
      ],
      [
        "ologist",
        -1.0
      ],
      [
        "Ġbr",
        -1.0
      ],
      [
        "Ġbo",
        -1.0
      ],
      [
        "lian",
        -1.0
      ],
      [
        "TO",
        -1.0
      ],
      [
        "EC",
        -1.0
      ],
      [
        "ĠTra",
        -1.0
      ],
      [
        "egi",
        -1.0
      ],
      [
        "work",
        -1.0
      ],
      [
        "hand",
        -1.0
      ],
      [
        "ĠLu",
        -1.0
      ],
      [
        "eph",
        -1.0
      ],
      [
        "np",
        -1.0
      ],
      [
        "ĠEl",
        -1.0
      ],
      [
        "itz",
        -1.0
      ],
      [
        "ever",
        -1.0
      ],
      [
        "dem",
        -1.0
      ],
      [
        "TR",
        -1.0
      ],
      [
        "ix",
        -1.0
      ],
      [
        "inger",
        -1.0
      ],
      [
        "AP",
        -1.0
      ],
      [
        "bit",
        -1.0
      ],
      [
        "ows",
        -1.0
      ],
      [
        "ification",
        -1.0
      ],
      [
        "eral",
        -1.0
      ],
      [
        "Ġmicro",
        -1.0
      ],
      [
        "mpe",
        -1.0
      ],
      [
        "elect",
        -1.0
      ],
      [
        "IL",
        -1.0
      ],
      [
        "oot",
        -1.0
      ],
      [
        "arth",
        -1.0
      ],
      [
        "Ġfi",
        -1.0
      ],
      [
        "ĠCl",
        -1.0
      ],
      [
        "llu",
        -1.0
      ],
      [
        "sation",
        -1.0
      ],
      [
        "gle",
        -1.0
      ],
      [
        "DI",
        -1.0
      ],
      [
        "OS",
        -1.0
      ],
      [
        "AD",
        -1.0
      ],
      [
        "uit",
        -1.0
      ],
      [
        "rial",
        -1.0
      ],
      [
        "chn",
        -1.0
      ],
      [
        "epa",
        -1.0
      ],
      [
        "equ",
        -1.0
      ],
      [
        "uin",
        -1.0
      ],
      [
        "Ġant",
        -1.0
      ],
      [
        "erman",
        -1.0
      ],
      [
        "onst",
        -1.0
      ],
      [
        "lad",
        -1.0
      ],
      [
        "ique",
        -1.0
      ],
      [
        "Ġve",
        -1.0
      ],
      [
        "press",
        -1.0
      ],
      [
        "ands",
        -1.0
      ],
      [
        "ough",
        -1.0
      ],
      [
        "py",
        -1.0
      ],
      [
        "side",
        -1.0
      ],
      [
        "leg",
        -1.0
      ],
      [
        "ities",
        -1.0
      ],
      [
        "EA",
        -1.0
      ],
      [
        "pur",
        -1.0
      ],
      [
        "any",
        -1.0
      ],
      [
        "iter",
        -1.0
      ],
      [
        "hang",
        -1.0
      ],
      [
        "tron",
        -1.0
      ],
      [
        "eet",
        -1.0
      ],
      [
        "ĠMac",
        -1.0
      ],
      [
        "ews",
        -1.0
      ],
      [
        "tif",
        -1.0
      ],
      [
        "ĠPu",
        -1.0
      ],
      [
        "rich",
        -1.0
      ],
      [
        "stru",
        -1.0
      ],
      [
        "part",
        -1.0
      ],
      [
        "ĠAu",
        -1.0
      ],
      [
        "Ġcha",
        -1.0
      ],
      [
        "ĠStr",
        -1.0
      ],
      [
        "ĠCom",
        -1.0
      ],
      [
        "dt",
        -1.0
      ],
      [
        "ales",
        -1.0
      ],
      [
        "pel",
        -1.0
      ],
      [
        "ket",
        -1.0
      ],
      [
        "cep",
        -1.0
      ],
      [
        "zer",
        -1.0
      ],
      [
        "ped",
        -1.0
      ],
      [
        "Ġdo",
        -1.0
      ],
      [
        "had",
        -1.0
      ],
      [
        "ĠRu",
        -1.0
      ],
      [
        "MI",
        -1.0
      ],
      [
        "hee",
        -1.0
      ],
      [
        "tag",
        -1.0
      ],
      [
        "osh",
        -1.0
      ],
      [
        "mn",
        -1.0
      ],
      [
        "other",
        -1.0
      ],
      [
        "last",
        -1.0
      ],
      [
        "Ad",
        -1.0
      ],
      [
        "ject",
        -1.0
      ],
      [
        "ded",
        -1.0
      ],
      [
        "nec",
        -1.0
      ],
      [
        "ece",
        -1.0
      ],
      [
        "sem",
        -1.0
      ],
      [
        "oon",
        -1.0
      ],
      [
        "ution",
        -1.0
      ],
      [
        "tech",
        -1.0
      ],
      [
        "alk",
        -1.0
      ],
      [
        "serv",
        -1.0
      ],
      [
        "bus",
        -1.0
      ],
      [
        "lif",
        -1.0
      ],
      [
        "isation",
        -1.0
      ],
      [
        "PE",
        -1.0
      ],
      [
        "cial",
        -1.0
      ],
      [
        "Ġhy",
        -1.0
      ],
      [
        "ĠSan",
        -1.0
      ],
      [
        "nea",
        -1.0
      ],
      [
        "OL",
        -1.0
      ],
      [
        "urr",
        -1.0
      ],
      [
        "nop",
        -1.0
      ],
      [
        "ID",
        -1.0
      ],
      [
        "lization",
        -1.0
      ],
      [
        "ĠPre",
        -1.0
      ],
      [
        "ray",
        -1.0
      ],
      [
        "ND",
        -1.0
      ],
      [
        "une",
        -1.0
      ],
      [
        "anch",
        -1.0
      ],
      [
        "rant",
        -1.0
      ],
      [
        "uz",
        -1.0
      ],
      [
        "sten",
        -1.0
      ],
      [
        "table",
        -1.0
      ],
      [
        "ĠPl",
        -1.0
      ],
      [
        "osc",
        -1.0
      ],
      [
        "ref",
        -1.0
      ],
      [
        "LO",
        -1.0
      ],
      [
        "eon",
        -1.0
      ],
      [
        "eman",
        -1.0
      ],
      [
        "Ġga",
        -1.0
      ],
      [
        "tum",
        -1.0
      ],
      [
        "ĠQu",
        -1.0
      ],
      [
        "uil",
        -1.0
      ],
      [
        "gical",
        -1.0
      ],
      [
        "ĠBl",
        -1.0
      ],
      [
        "ĠOr",
        -1.0
      ],
      [
        "DA",
        -1.0
      ],
      [
        "ouse",
        -1.0
      ],
      [
        "ered",
        -1.0
      ],
      [
        "Ġas",
        -1.0
      ],
      [
        "hist",
        -1.0
      ],
      [
        "Ġwa",
        -1.0
      ],
      [
        "tent",
        -1.0
      ],
      [
        "Dr",
        -1.0
      ],
      [
        "mid",
        -1.0
      ],
      [
        "ption",
        -1.0
      ],
      [
        "pet",
        -1.0
      ],
      [
        "ental",
        -1.0
      ],
      [
        "Ġ3",
        -1.0
      ],
      [
        "raf",
        -1.0
      ],
      [
        "ams",
        -1.0
      ],
      [
        "ĠAb",
        -1.0
      ],
      [
        "him",
        -1.0
      ],
      [
        "onf",
        -1.0
      ],
      [
        "num",
        -1.0
      ],
      [
        "cess",
        -1.0
      ],
      [
        "oor",
        -1.0
      ],
      [
        "yb",
        -1.0
      ],
      [
        "RS",
        -1.0
      ],
      [
        "tain",
        -1.0
      ],
      [
        "ĠAc",
        -1.0
      ],
      [
        "lav",
        -1.0
      ],
      [
        "rite",
        -1.0
      ],
      [
        "hur",
        -1.0
      ],
      [
        "ĠInt",
        -1.0
      ],
      [
        "tics",
        -1.0
      ],
      [
        "than",
        -1.0
      ],
      [
        "ping",
        -1.0
      ],
      [
        "ious",
        -1.0
      ],
      [
        "ander",
        -1.0
      ],
      [
        "iden",
        -1.0
      ],
      [
        "itis",
        -1.0
      ],
      [
        "Ġfr",
        -1.0
      ],
      [
        "uck",
        -1.0
      ],
      [
        "ican",
        -1.0
      ],
      [
        "Ġpi",
        -1.0
      ],
      [
        "Ġpl",
        -1.0
      ],
      [
        "Ex",
        -1.0
      ],
      [
        "elt",
        -1.0
      ],
      [
        "nten",
        -1.0
      ],
      [
        "aul",
        -1.0
      ],
      [
        "alm",
        -1.0
      ],
      [
        "dom",
        -1.0
      ],
      [
        "CC",
        -1.0
      ],
      [
        "cid",
        -1.0
      ],
      [
        "try",
        -1.0
      ],
      [
        "ees",
        -1.0
      ],
      [
        "lip",
        -1.0
      ],
      [
        "ĠBer",
        -1.0
      ],
      [
        "ĠHar",
        -1.0
      ],
      [
        "noc",
        -1.0
      ],
      [
        "ĠDr",
        -1.0
      ],
      [
        "iner",
        -1.0
      ],
      [
        "aly",
        -1.0
      ],
      [
        "bon",
        -1.0
      ],
      [
        "riv",
        -1.0
      ],
      [
        "obe",
        -1.0
      ],
      [
        "nstr",
        -1.0
      ],
      [
        "sec",
        -1.0
      ],
      [
        "tine",
        -1.0
      ],
      [
        "tant",
        -1.0
      ],
      [
        "ania",
        -1.0
      ],
      [
        "Ġlo",
        -1.0
      ],
      [
        "ience",
        -1.0
      ],
      [
        "lib",
        -1.0
      ],
      [
        "gas",
        -1.0
      ],
      [
        "Ġfor",
        -1.0
      ],
      [
        "rof",
        -1.0
      ],
      [
        "UR",
        -1.0
      ],
      [
        "TH",
        -1.0
      ],
      [
        "AA",
        -1.0
      ],
      [
        "ipp",
        -1.0
      ],
      [
        "clo",
        -1.0
      ],
      [
        "vol",
        -1.0
      ],
      [
        "ming",
        -1.0
      ],
      [
        "uv",
        -1.0
      ],
      [
        "uis",
        -1.0
      ],
      [
        "zing",
        -1.0
      ],
      [
        "OM",
        -1.0
      ],
      [
        "ants",
        -1.0
      ],
      [
        "CI",
        -1.0
      ],
      [
        "vid",
        -1.0
      ],
      [
        "ĠFl",
        -1.0
      ],
      [
        "Ġbu",
        -1.0
      ],
      [
        "Is",
        -1.0
      ],
      [
        "ior",
        -1.0
      ],
      [
        "ense",
        -1.0
      ],
      [
        "lite",
        -1.0
      ],
      [
        "Ġanti",
        -1.0
      ],
      [
        "ĠCu",
        -1.0
      ],
      [
        "isp",
        -1.0
      ],
      [
        "Ġim",
        -1.0
      ],
      [
        "Ġpol",
        -1.0
      ],
      [
        "new",
        -1.0
      ],
      [
        "uns",
        -1.0
      ],
      [
        "but",
        -1.0
      ],
      [
        "nw",
        -1.0
      ],
      [
        "hap",
        -1.0
      ],
      [
        "urt",
        -1.0
      ],
      [
        "wel",
        -1.0
      ],
      [
        "Ġres",
        -1.0
      ],
      [
        "tig",
        -1.0
      ],
      [
        "ophy",
        -1.0
      ],
      [
        "yer",
        -1.0
      ],
      [
        "kel",
        -1.0
      ],
      [
        "aff",
        -1.0
      ],
      [
        "RT",
        -1.0
      ],
      [
        "ĠVer",
        -1.0
      ],
      [
        "inal",
        -1.0
      ],
      [
        "pot",
        -1.0
      ],
      [
        "ĠAd",
        -1.0
      ],
      [
        "GE",
        -1.0
      ],
      [
        "AI",
        -1.0
      ],
      [
        "EM",
        -1.0
      ],
      [
        "ffi",
        -1.0
      ],
      [
        "nism",
        -1.0
      ],
      [
        "now",
        -1.0
      ],
      [
        "rif",
        -1.0
      ],
      [
        "matic",
        -1.0
      ],
      [
        "iff",
        -1.0
      ],
      [
        "ecu",
        -1.0
      ],
      [
        "ĠCor",
        -1.0
      ],
      [
        "aine",
        -1.0
      ],
      [
        "each",
        -1.0
      ],
      [
        "osis",
        -1.0
      ],
      [
        "arian",
        -1.0
      ],
      [
        "arp",
        -1.0
      ],
      [
        "Ġcar",
        -1.0
      ],
      [
        "term",
        -1.0
      ],
      [
        "SH",
        -1.0
      ],
      [
        "Ġva",
        -1.0
      ],
      [
        "Ġro",
        -1.0
      ],
      [
        "Ap",
        -1.0
      ],
      [
        "eau",
        -1.0
      ],
      [
        "Ġap",
        -1.0
      ],
      [
        "dm",
        -1.0
      ],
      [
        "scri",
        -1.0
      ],
      [
        "Ġcomp",
        -1.0
      ],
      [
        "Ġ15",
        -1.0
      ],
      [
        "count",
        -1.0
      ],
      [
        "ĠPan",
        -1.0
      ],
      [
        "field",
        -1.0
      ],
      [
        "ester",
        -1.0
      ],
      [
        "PR",
        -1.0
      ],
      [
        "Ġfl",
        -1.0
      ],
      [
        "cum",
        -1.0
      ],
      [
        "aft",
        -1.0
      ],
      [
        "meter",
        -1.0
      ],
      [
        "ois",
        -1.0
      ],
      [
        "At",
        -1.0
      ],
      [
        "hop",
        -1.0
      ],
      [
        "ession",
        -1.0
      ],
      [
        "plo",
        -1.0
      ],
      [
        "ful",
        -1.0
      ],
      [
        "mand",
        -1.0
      ],
      [
        "izing",
        -1.0
      ],
      [
        "SP",
        -1.0
      ],
      [
        "eus",
        -1.0
      ],
      [
        "Ġad",
        -1.0
      ],
      [
        "dam",
        -1.0
      ],
      [
        "ship",
        -1.0
      ],
      [
        "MO",
        -1.0
      ],
      [
        "bert",
        -1.0
      ],
      [
        "NC",
        -1.0
      ],
      [
        "time",
        -1.0
      ],
      [
        "omy",
        -1.0
      ],
      [
        "tun",
        -1.0
      ],
      [
        "CT",
        -1.0
      ],
      [
        "ube",
        -1.0
      ],
      [
        "Ġcl",
        -1.0
      ],
      [
        "ulation",
        -1.0
      ],
      [
        "ipe",
        -1.0
      ],
      [
        "nno",
        -1.0
      ],
      [
        "Ġtrans",
        -1.0
      ],
      [
        "duct",
        -1.0
      ],
      [
        "anic",
        -1.0
      ],
      [
        "ĠInter",
        -1.0
      ],
      [
        "Ġover",
        -1.0
      ],
      [
        "ols",
        -1.0
      ],
      [
        "ivers",
        -1.0
      ],
      [
        "gor",
        -1.0
      ],
      [
        "ĠJo",
        -1.0
      ],
      [
        "oke",
        -1.0
      ],
      [
        "Ġsup",
        -1.0
      ],
      [
        "IR",
        -1.0
      ],
      [
        "Ġcont",
        -1.0
      ],
      [
        "ops",
        -1.0
      ],
      [
        "eam",
        -1.0
      ],
      [
        "cate",
        -1.0
      ],
      [
        "sent",
        -1.0
      ],
      [
        "pes",
        -1.0
      ],
      [
        "mod",
        -1.0
      ],
      [
        "Ġmic",
        -1.0
      ],
      [
        "Ġor",
        -1.0
      ],
      [
        "uff",
        -1.0
      ],
      [
        "AB",
        -1.0
      ],
      [
        "rine",
        -1.0
      ],
      [
        "hyd",
        -1.0
      ],
      [
        "nim",
        -1.0
      ],
      [
        "Ġstr",
        -1.0
      ],
      [
        "kers",
        -1.0
      ],
      [
        "hers",
        -1.0
      ],
      [
        "enic",
        -1.0
      ],
      [
        "ination",
        -1.0
      ],
      [
        "ĠCal",
        -1.0
      ],
      [
        "itch",
        -1.0
      ],
      [
        "way",
        -1.0
      ],
      [
        "mation",
        -1.0
      ],
      [
        "day",
        -1.0
      ],
      [
        "IM",
        -1.0
      ],
      [
        "ĠCol",
        -1.0
      ],
      [
        "aud",
        -1.0
      ],
      [
        "Ġtri",
        -1.0
      ],
      [
        "ney",
        -1.0
      ],
      [
        "test",
        -1.0
      ],
      [
        "tian",
        -1.0
      ],
      [
        "lder",
        -1.0
      ],
      [
        "like",
        -1.0
      ],
      [
        "dw",
        -1.0
      ],
      [
        "Ġcons",
        -1.0
      ],
      [
        "edu",
        -1.0
      ],
      [
        "iac",
        -1.0
      ],
      [
        "bol",
        -1.0
      ],
      [
        "sign",
        -1.0
      ],
      [
        "uction",
        -1.0
      ],
      [
        "SO",
        -1.0
      ],
      [
        "Ġce",
        -1.0
      ],
      [
        "ĠGl",
        -1.0
      ],
      [
        "lement",
        -1.0
      ],
      [
        "etro",
        -1.0
      ],
      [
        "Ġrec",
        -1.0
      ],
      [
        "phic",
        -1.0
      ],
      [
        "sus",
        -1.0
      ],
      [
        "ider",
        -1.0
      ],
      [
        "Ġy",
        -1.0
      ],
      [
        "Ġpu",
        -1.0
      ],
      [
        "omin",
        -1.0
      ],
      [
        "Ġqu",
        -1.0
      ],
      [
        "ogram",
        -1.0
      ],
      [
        "Ġwi",
        -1.0
      ],
      [
        "Ġsuper",
        -1.0
      ],
      [
        "Ġand",
        -1.0
      ],
      [
        "water",
        -1.0
      ],
      [
        "TS",
        -1.0
      ],
      [
        "dian",
        -1.0
      ],
      [
        "eir",
        -1.0
      ],
      [
        "VI",
        -1.0
      ],
      [
        "erson",
        -1.0
      ],
      [
        "sum",
        -1.0
      ],
      [
        "ego",
        -1.0
      ],
      [
        "vert",
        -1.0
      ],
      [
        "ots",
        -1.0
      ],
      [
        "Ġtran",
        -1.0
      ],
      [
        "ĠHy",
        -1.0
      ],
      [
        "ĠJu",
        -1.0
      ],
      [
        "iation",
        -1.0
      ],
      [
        "read",
        -1.0
      ],
      [
        "ask",
        -1.0
      ],
      [
        "alization",
        -1.0
      ],
      [
        "back",
        -1.0
      ],
      [
        "bot",
        -1.0
      ],
      [
        "struct",
        -1.0
      ],
      [
        "esis",
        -1.0
      ],
      [
        "ĠHer",
        -1.0
      ],
      [
        "ather",
        -1.0
      ],
      [
        "sph",
        -1.0
      ],
      [
        "tist",
        -1.0
      ],
      [
        "ĠMc",
        -1.0
      ],
      [
        "ging",
        -1.0
      ],
      [
        "ality",
        -1.0
      ],
      [
        "Ġau",
        -1.0
      ],
      [
        "omen",
        -1.0
      ],
      [
        "ital",
        -1.0
      ],
      [
        "ural",
        -1.0
      ],
      [
        "eel",
        -1.0
      ],
      [
        "HO",
        -1.0
      ],
      [
        "sian",
        -1.0
      ],
      [
        "ography",
        -1.0
      ],
      [
        "aid",
        -1.0
      ],
      [
        "ux",
        -1.0
      ],
      [
        "lve",
        -1.0
      ],
      [
        "Ġmet",
        -1.0
      ],
      [
        "Ġ18",
        -1.0
      ],
      [
        "Ġman",
        -1.0
      ],
      [
        "pul",
        -1.0
      ],
      [
        "Ġhyp",
        -1.0
      ],
      [
        "ques",
        -1.0
      ],
      [
        "pis",
        -1.0
      ],
      [
        "put",
        -1.0
      ],
      [
        "ĠIs",
        -1.0
      ],
      [
        "Ġam",
        -1.0
      ],
      [
        "fs",
        -1.0
      ],
      [
        "yle",
        -1.0
      ],
      [
        "ĠCO",
        -1.0
      ],
      [
        "ures",
        -1.0
      ],
      [
        "lah",
        -1.0
      ],
      [
        "bia",
        -1.0
      ],
      [
        "ĠAp",
        -1.0
      ],
      [
        "irc",
        -1.0
      ],
      [
        "lue",
        -1.0
      ],
      [
        "Ġ16",
        -1.0
      ],
      [
        "cept",
        -1.0
      ],
      [
        "iness",
        -1.0
      ],
      [
        "ners",
        -1.0
      ],
      [
        "ĠShe",
        -1.0
      ],
      [
        "uts",
        -1.0
      ],
      [
        "ony",
        -1.0
      ],
      [
        "arri",
        -1.0
      ],
      [
        "lex",
        -1.0
      ],
      [
        "apt",
        -1.0
      ],
      [
        "cil",
        -1.0
      ],
      [
        "aker",
        -1.0
      ],
      [
        "ĠAt",
        -1.0
      ],
      [
        "dow",
        -1.0
      ],
      [
        "edic",
        -1.0
      ],
      [
        "PO",
        -1.0
      ],
      [
        "hlo",
        -1.0
      ],
      [
        "Ġti",
        -1.0
      ],
      [
        "see",
        -1.0
      ],
      [
        "oper",
        -1.0
      ],
      [
        "ĠFu",
        -1.0
      ],
      [
        "OP",
        -1.0
      ],
      [
        "ister",
        -1.0
      ],
      [
        "light",
        -1.0
      ],
      [
        "eration",
        -1.0
      ],
      [
        "ced",
        -1.0
      ],
      [
        "Ġ4",
        -1.0
      ],
      [
        "uel",
        -1.0
      ],
      [
        "Ġz",
        -1.0
      ],
      [
        "OT",
        -1.0
      ],
      [
        "ctions",
        -1.0
      ],
      [
        "ATION",
        -1.0
      ],
      [
        "even",
        -1.0
      ],
      [
        "Ġfe",
        -1.0
      ],
      [
        "kle",
        -1.0
      ],
      [
        "lev",
        -1.0
      ],
      [
        "ĠX",
        -1.0
      ],
      [
        "Ġq",
        -1.0
      ],
      [
        "EE",
        -1.0
      ],
      [
        "PI",
        -1.0
      ],
      [
        "ying",
        -1.0
      ],
      [
        "stal",
        -1.0
      ],
      [
        "Ġdes",
        -1.0
      ],
      [
        "ays",
        -1.0
      ],
      [
        "bes",
        -1.0
      ],
      [
        "well",
        -1.0
      ],
      [
        "ature",
        -1.0
      ],
      [
        "anes",
        -1.0
      ],
      [
        "âĢ¦",
        -1.0
      ],
      [
        "nite",
        -1.0
      ],
      [
        "ĠSal",
        -1.0
      ],
      [
        "name",
        -1.0
      ],
      [
        "head",
        -1.0
      ],
      [
        "hys",
        -1.0
      ],
      [
        "rium",
        -1.0
      ],
      [
        "ĠMor",
        -1.0
      ],
      [
        "oad",
        -1.0
      ],
      [
        "ards",
        -1.0
      ],
      [
        "irt",
        -1.0
      ],
      [
        "lish",
        -1.0
      ],
      [
        "tten",
        -1.0
      ],
      [
        "house",
        -1.0
      ],
      [
        "ĠAg",
        -1.0
      ],
      [
        "CR",
        -1.0
      ],
      [
        "nee",
        -1.0
      ],
      [
        "Ġcu",
        -1.0
      ],
      [
        "sper",
        -1.0
      ],
      [
        "alism",
        -1.0
      ],
      [
        "script",
        -1.0
      ],
      [
        "isco",
        -1.0
      ],
      [
        "mental",
        -1.0
      ],
      [
        "uy",
        -1.0
      ],
      [
        "Ġ19",
        -1.0
      ],
      [
        "Ġmon",
        -1.0
      ],
      [
        "tens",
        -1.0
      ],
      [
        "tial",
        -1.0
      ],
      [
        "ily",
        -1.0
      ],
      [
        "ĠFor",
        -1.0
      ],
      [
        "ision",
        -1.0
      ],
      [
        "via",
        -1.0
      ],
      [
        "atter",
        -1.0
      ],
      [
        "lock",
        -1.0
      ],
      [
        "ĠCan",
        -1.0
      ],
      [
        "wood",
        -1.0
      ],
      [
        "tral",
        -1.0
      ],
      [
        "orum",
        -1.0
      ],
      [
        "stit",
        -1.0
      ],
      [
        "pil",
        -1.0
      ],
      [
        "ibr",
        -1.0
      ],
      [
        "oom",
        -1.0
      ],
      [
        "stein",
        -1.0
      ],
      [
        "ender",
        -1.0
      ],
      [
        "eor",
        -1.0
      ],
      [
        "book",
        -1.0
      ],
      [
        "Ġ17",
        -1.0
      ],
      [
        "Ġel",
        -1.0
      ],
      [
        "ader",
        -1.0
      ],
      [
        "eep",
        -1.0
      ],
      [
        "mph",
        -1.0
      ],
      [
        "flu",
        -1.0
      ],
      [
        "RC",
        -1.0
      ],
      [
        "ump",
        -1.0
      ],
      [
        "eness",
        -1.0
      ],
      [
        "dol",
        -1.0
      ],
      [
        "ographic",
        -1.0
      ],
      [
        "EP",
        -1.0
      ],
      [
        "ible",
        -1.0
      ],
      [
        "Ġ10",
        -1.0
      ],
      [
        "CS",
        -1.0
      ],
      [
        "rass",
        -1.0
      ],
      [
        "ving",
        -1.0
      ],
      [
        "eath",
        -1.0
      ],
      [
        "dus",
        -1.0
      ],
      [
        "Ġmulti",
        -1.0
      ],
      [
        "Wh",
        -1.0
      ],
      [
        "ages",
        -1.0
      ],
      [
        "olic",
        -1.0
      ],
      [
        "olar",
        -1.0
      ],
      [
        "mark",
        -1.0
      ],
      [
        "ĠDis",
        -1.0
      ],
      [
        "ils",
        -1.0
      ],
      [
        "itor",
        -1.0
      ],
      [
        "ector",
        -1.0
      ],
      [
        "II",
        -1.0
      ],
      [
        "Ġab",
        -1.0
      ],
      [
        "tically",
        -1.0
      ],
      [
        "iate",
        -1.0
      ],
      [
        "Ġ20",
        -1.0
      ],
      [
        "ĠEx",
        -1.0
      ],
      [
        "IP",
        -1.0
      ],
      [
        "nment",
        -1.0
      ],
      [
        "that",
        -1.0
      ],
      [
        "ament",
        -1.0
      ],
      [
        "Ġ11",
        -1.0
      ],
      [
        "fect",
        -1.0
      ],
      [
        "reb",
        -1.0
      ],
      [
        "action",
        -1.0
      ],
      [
        "formation",
        -1.0
      ],
      [
        "Ġwe",
        -1.0
      ],
      [
        "Ġgo",
        -1.0
      ],
      [
        "ads",
        -1.0
      ],
      [
        "rator",
        -1.0
      ],
      [
        "ives",
        -1.0
      ],
      [
        "hine",
        -1.0
      ],
      [
        "more",
        -1.0
      ],
      [
        "rous",
        -1.0
      ],
      [
        "eak",
        -1.0
      ],
      [
        "sg",
        -1.0
      ],
      [
        "omer",
        -1.0
      ],
      [
        "ompa",
        -1.0
      ],
      [
        "utr",
        -1.0
      ],
      [
        "health",
        -1.0
      ],
      [
        "Ġ12",
        -1.0
      ],
      [
        "eff",
        -1.0
      ],
      [
        "On",
        -1.0
      ],
      [
        "Ġpara",
        -1.0
      ],
      [
        "afe",
        -1.0
      ],
      [
        "OU",
        -1.0
      ],
      [
        "ĠGre",
        -1.0
      ],
      [
        "agg",
        -1.0
      ],
      [
        "Ġgra",
        -1.0
      ],
      [
        "some",
        -1.0
      ],
      [
        "abb",
        -1.0
      ],
      [
        "teg",
        -1.0
      ],
      [
        "All",
        -1.0
      ],
      [
        "Ġof",
        -1.0
      ],
      [
        "pid",
        -1.0
      ],
      [
        "omic",
        -1.0
      ],
      [
        "lers",
        -1.0
      ],
      [
        "FA",
        -1.0
      ],
      [
        "asp",
        -1.0
      ],
      [
        "nsp",
        -1.0
      ],
      [
        "ĠSam",
        -1.0
      ],
      [
        "MP",
        -1.0
      ],
      [
        "PS",
        -1.0
      ],
      [
        "source",
        -1.0
      ],
      [
        "Ġci",
        -1.0
      ],
      [
        "atus",
        -1.0
      ],
      [
        "Ġbio",
        -1.0
      ],
      [
        "iber",
        -1.0
      ],
      [
        "tip",
        -1.0
      ],
      [
        "imb",
        -1.0
      ],
      [
        "Ġat",
        -1.0
      ],
      [
        "Ġcor",
        -1.0
      ],
      [
        "Ġmar",
        -1.0
      ],
      [
        "site",
        -1.0
      ],
      [
        "lution",
        -1.0
      ],
      [
        "Ġcol",
        -1.0
      ],
      [
        "umm",
        -1.0
      ],
      [
        "stone",
        -1.0
      ],
      [
        "with",
        -1.0
      ],
      [
        "ised",
        -1.0
      ],
      [
        "coc",
        -1.0
      ],
      [
        "zy",
        -1.0
      ],
      [
        "ching",
        -1.0
      ],
      [
        "Ġbl",
        -1.0
      ],
      [
        "Ġunder",
        -1.0
      ],
      [
        "Ġins",
        -1.0
      ],
      [
        "ators",
        -1.0
      ],
      [
        "New",
        -1.0
      ],
      [
        "ĠSy",
        -1.0
      ],
      [
        "oat",
        -1.0
      ],
      [
        "ĠBen",
        -1.0
      ],
      [
        "sters",
        -1.0
      ],
      [
        "gers",
        -1.0
      ],
      [
        "cip",
        -1.0
      ],
      [
        "how",
        -1.0
      ],
      [
        "My",
        -1.0
      ],
      [
        "Ġund",
        -1.0
      ],
      [
        "lap",
        -1.0
      ],
      [
        "sive",
        -1.0
      ],
      [
        "aps",
        -1.0
      ],
      [
        "iles",
        -1.0
      ],
      [
        "ged",
        -1.0
      ],
      [
        "Ġpoly",
        -1.0
      ],
      [
        "ford",
        -1.0
      ],
      [
        "long",
        -1.0
      ],
      [
        "aver",
        -1.0
      ],
      [
        "git",
        -1.0
      ],
      [
        "Ġri",
        -1.0
      ],
      [
        "wing",
        -1.0
      ],
      [
        "rick",
        -1.0
      ],
      [
        "ilt",
        -1.0
      ],
      [
        "Ġis",
        -1.0
      ],
      [
        "ved",
        -1.0
      ],
      [
        "fec",
        -1.0
      ],
      [
        "Ġver",
        -1.0
      ],
      [
        "raw",
        -1.0
      ],
      [
        "eek",
        -1.0
      ],
      [
        "ising",
        -1.0
      ],
      [
        "aug",
        -1.0
      ],
      [
        "evo",
        -1.0
      ],
      [
        "lace",
        -1.0
      ],
      [
        "yon",
        -1.0
      ],
      [
        "ĠLin",
        -1.0
      ],
      [
        "Ġ6",
        -1.0
      ],
      [
        "gno",
        -1.0
      ],
      [
        "Ġgl",
        -1.0
      ],
      [
        "||",
        -1.0
      ],
      [
        "Ġsy",
        -1.0
      ],
      [
        "ward",
        -1.0
      ],
      [
        "ington",
        -1.0
      ],
      [
        "olt",
        -1.0
      ],
      [
        "Ġdr",
        -1.0
      ],
      [
        "etal",
        -1.0
      ],
      [
        "ips",
        -1.0
      ],
      [
        "ologists",
        -1.0
      ],
      [
        "def",
        -1.0
      ],
      [
        "MS",
        -1.0
      ],
      [
        "rave",
        -1.0
      ],
      [
        "emic",
        -1.0
      ],
      [
        "Ġ8",
        -1.0
      ],
      [
        "iph",
        -1.0
      ],
      [
        "ident",
        -1.0
      ],
      [
        "reme",
        -1.0
      ],
      [
        "Ġinc",
        -1.0
      ],
      [
        "Ġ5",
        -1.0
      ],
      [
        "view",
        -1.0
      ],
      [
        "ĠMy",
        -1.0
      ],
      [
        "ining",
        -1.0
      ],
      [
        "cture",
        -1.0
      ],
      [
        "ĠGal",
        -1.0
      ],
      [
        "mers",
        -1.0
      ],
      [
        "RD",
        -1.0
      ],
      [
        "Ġind",
        -1.0
      ],
      [
        "Os",
        -1.0
      ],
      [
        "CL",
        -1.0
      ],
      [
        "chy",
        -1.0
      ],
      [
        "astro",
        -1.0
      ],
      [
        "Ps",
        -1.0
      ],
      [
        "Ġtu",
        -1.0
      ],
      [
        "Ġinf",
        -1.0
      ],
      [
        "ĠHan",
        -1.0
      ],
      [
        "IG",
        -1.0
      ],
      [
        "ĠTrans",
        -1.0
      ],
      [
        "astic",
        -1.0
      ],
      [
        "ride",
        -1.0
      ],
      [
        "Ġov",
        -1.0
      ],
      [
        "ĠSer",
        -1.0
      ],
      [
        "arge",
        -1.0
      ],
      [
        "tex",
        -1.0
      ],
      [
        "mans",
        -1.0
      ],
      [
        "ames",
        -1.0
      ],
      [
        "mpr",
        -1.0
      ],
      [
        "ease",
        -1.0
      ],
      [
        "ths",
        -1.0
      ],
      [
        "mir",
        -1.0
      ],
      [
        "pend",
        -1.0
      ],
      [
        "uest",
        -1.0
      ],
      [
        "inder",
        -1.0
      ],
      [
        "emin",
        -1.0
      ],
      [
        "oes",
        -1.0
      ],
      [
        "lion",
        -1.0
      ],
      [
        "Ġimp",
        -1.0
      ],
      [
        "oud",
        -1.0
      ],
      [
        "otic",
        -1.0
      ],
      [
        "rence",
        -1.0
      ],
      [
        "Ġrep",
        -1.0
      ],
      [
        "ĠCA",
        -1.0
      ],
      [
        "ury",
        -1.0
      ],
      [
        "ĠGen",
        -1.0
      ],
      [
        "rone",
        -1.0
      ],
      [
        "race",
        -1.0
      ],
      [
        "urb",
        -1.0
      ],
      [
        "right",
        -1.0
      ],
      [
        "rup",
        -1.0
      ],
      [
        "nant",
        -1.0
      ],
      [
        "uter",
        -1.0
      ],
      [
        "sman",
        -1.0
      ],
      [
        "tual",
        -1.0
      ],
      [
        "ridge",
        -1.0
      ],
      [
        "rill",
        -1.0
      ],
      [
        "etter",
        -1.0
      ],
      [
        "ison",
        -1.0
      ],
      [
        "ked",
        -1.0
      ],
      [
        "ĠIm",
        -1.0
      ],
      [
        "Ġmul",
        -1.0
      ],
      [
        "SM",
        -1.0
      ],
      [
        "tly",
        -1.0
      ],
      [
        "Ġ7",
        -1.0
      ],
      [
        "ares",
        -1.0
      ],
      [
        "ĠNor",
        -1.0
      ],
      [
        "gent",
        -1.0
      ],
      [
        "DS",
        -1.0
      ],
      [
        "oup",
        -1.0
      ],
      [
        "Ġexp",
        -1.0
      ],
      [
        "fes",
        -1.0
      ],
      [
        "ĠPat",
        -1.0
      ],
      [
        "ains",
        -1.0
      ],
      [
        "rade",
        -1.0
      ],
      [
        "oral",
        -1.0
      ],
      [
        "ĠMen",
        -1.0
      ],
      [
        "ements",
        -1.0
      ],
      [
        "ĠSup",
        -1.0
      ],
      [
        "SU",
        -1.0
      ],
      [
        "lated",
        -1.0
      ],
      [
        "organ",
        -1.0
      ],
      [
        "ĠGar",
        -1.0
      ],
      [
        "ird",
        -1.0
      ],
      [
        "fish",
        -1.0
      ],
      [
        "unk",
        -1.0
      ],
      [
        "lent",
        -1.0
      ],
      [
        "âĢĿ",
        -1.0
      ],
      [
        "df",
        -1.0
      ],
      [
        "sions",
        -1.0
      ],
      [
        "reas",
        -1.0
      ],
      [
        "sty",
        -1.0
      ],
      [
        "cad",
        -1.0
      ],
      [
        "ening",
        -1.0
      ],
      [
        "lands",
        -1.0
      ],
      [
        "ulate",
        -1.0
      ],
      [
        "iment",
        -1.0
      ],
      [
        "ods",
        -1.0
      ],
      [
        "vice",
        -1.0
      ],
      [
        "spect",
        -1.0
      ],
      [
        "cast",
        -1.0
      ],
      [
        "And",
        -1.0
      ],
      [
        "mage",
        -1.0
      ],
      [
        "Ġcomm",
        -1.0
      ],
      [
        "system",
        -1.0
      ],
      [
        "nton",
        -1.0
      ],
      [
        "ball",
        -1.0
      ],
      [
        "Ġwh",
        -1.0
      ],
      [
        "oles",
        -1.0
      ],
      [
        "Ġdec",
        -1.0
      ],
      [
        "eds",
        -1.0
      ],
      [
        "nish",
        -1.0
      ],
      [
        "science",
        -1.0
      ],
      [
        "law",
        -1.0
      ],
      [
        "trib",
        -1.0
      ],
      [
        "ective",
        -1.0
      ],
      [
        "sher",
        -1.0
      ],
      [
        "PL",
        -1.0
      ],
      [
        "IV",
        -1.0
      ],
      [
        "iers",
        -1.0
      ],
      [
        "cient",
        -1.0
      ],
      [
        "luc",
        -1.0
      ],
      [
        "gate",
        -1.0
      ],
      [
        "aper",
        -1.0
      ],
      [
        "rish",
        -1.0
      ],
      [
        "ocal",
        -1.0
      ],
      [
        "rage",
        -1.0
      ],
      [
        "round",
        -1.0
      ],
      [
        "ĠTer",
        -1.0
      ],
      [
        "gus",
        -1.0
      ],
      [
        "metric",
        -1.0
      ],
      [
        "rey",
        -1.0
      ],
      [
        "rew",
        -1.0
      ],
      [
        "aint",
        -1.0
      ],
      [
        "amine",
        -1.0
      ],
      [
        "Ġgu",
        -1.0
      ],
      [
        "lines",
        -1.0
      ],
      [
        "Ġpost",
        -1.0
      ],
      [
        "Health",
        -1.0
      ],
      [
        "itation",
        -1.0
      ],
      [
        "erence",
        -1.0
      ],
      [
        "town",
        -1.0
      ],
      [
        "Ġmis",
        -1.0
      ],
      [
        "bers",
        -1.0
      ],
      [
        "oan",
        -1.0
      ],
      [
        "ĠOp",
        -1.0
      ],
      [
        "Ġcou",
        -1.0
      ],
      [
        "state",
        -1.0
      ],
      [
        "ĠMed",
        -1.0
      ],
      [
        "vation",
        -1.0
      ],
      [
        "cyc",
        -1.0
      ],
      [
        "ĠBur",
        -1.0
      ],
      [
        "ems",
        -1.0
      ],
      [
        "ications",
        -1.0
      ],
      [
        "uge",
        -1.0
      ],
      [
        "pse",
        -1.0
      ],
      [
        "Ġem",
        -1.0
      ],
      [
        "dation",
        -1.0
      ],
      [
        "AF",
        -1.0
      ],
      [
        "ences",
        -1.0
      ],
      [
        "school",
        -1.0
      ],
      [
        "Ġmin",
        -1.0
      ],
      [
        "from",
        -1.0
      ],
      [
        "tage",
        -1.0
      ],
      [
        "imate",
        -1.0
      ],
      [
        "oric",
        -1.0
      ],
      [
        "ream",
        -1.0
      ],
      [
        "ager",
        -1.0
      ],
      [
        "tations",
        -1.0
      ],
      [
        "ware",
        -1.0
      ],
      [
        "nut",
        -1.0
      ],
      [
        "uce",
        -1.0
      ],
      [
        "pus",
        -1.0
      ],
      [
        "board",
        -1.0
      ],
      [
        "dens",
        -1.0
      ],
      [
        "rack",
        -1.0
      ],
      [
        "Ġaut",
        -1.0
      ],
      [
        "ift",
        -1.0
      ],
      [
        "mission",
        -1.0
      ],
      [
        "Ġcan",
        -1.0
      ],
      [
        "ubs",
        -1.0
      ],
      [
        "elf",
        -1.0
      ],
      [
        "Ġcal",
        -1.0
      ],
      [
        "ĠCam",
        -1.0
      ],
      [
        "gos",
        -1.0
      ],
      [
        "ĠSub",
        -1.0
      ],
      [
        "ody",
        -1.0
      ],
      [
        "ential",
        -1.0
      ],
      [
        "itter",
        -1.0
      ],
      [
        "ĠDel",
        -1.0
      ],
      [
        "ĠAnti",
        -1.0
      ],
      [
        "roll",
        -1.0
      ],
      [
        "ĠEc",
        -1.0
      ],
      [
        "ĠWil",
        -1.0
      ],
      [
        "lse",
        -1.0
      ],
      [
        "Ġche",
        -1.0
      ],
      [
        "key",
        -1.0
      ],
      [
        "Ġag",
        -1.0
      ],
      [
        "omes",
        -1.0
      ],
      [
        "uses",
        -1.0
      ],
      [
        "ades",
        -1.0
      ],
      [
        "oop",
        -1.0
      ],
      [
        "ĠArt",
        -1.0
      ],
      [
        "bic",
        -1.0
      ],
      [
        "Ġapp",
        -1.0
      ],
      [
        "rity",
        -1.0
      ],
      [
        "sure",
        -1.0
      ],
      [
        "RN",
        -1.0
      ],
      [
        "thing",
        -1.0
      ],
      [
        "erate",
        -1.0
      ],
      [
        "ĠAll",
        -1.0
      ],
      [
        "mem",
        -1.0
      ],
      [
        "oil",
        -1.0
      ],
      [
        "ĠSl",
        -1.0
      ],
      [
        "SL",
        -1.0
      ],
      [
        "Ġop",
        -1.0
      ],
      [
        "Ġ14",
        -1.0
      ],
      [
        "ench",
        -1.0
      ],
      [
        "emia",
        -1.0
      ],
      [
        "ined",
        -1.0
      ],
      [
        "enth",
        -1.0
      ],
      [
        "nver",
        -1.0
      ],
      [
        "emor",
        -1.0
      ],
      [
        "bed",
        -1.0
      ],
      [
        "cord",
        -1.0
      ],
      [
        "care",
        -1.0
      ],
      [
        "date",
        -1.0
      ],
      [
        "nqu",
        -1.0
      ],
      [
        "inus",
        -1.0
      ],
      [
        "Ġgen",
        -1.0
      ],
      [
        "ingly",
        -1.0
      ],
      [
        "ours",
        -1.0
      ],
      [
        "ĠComp",
        -1.0
      ],
      [
        "spon",
        -1.0
      ],
      [
        "Ġphoto",
        -1.0
      ],
      [
        "opy",
        -1.0
      ],
      [
        "ĠWal",
        -1.0
      ],
      [
        "acks",
        -1.0
      ],
      [
        "ights",
        -1.0
      ],
      [
        "ĠSin",
        -1.0
      ],
      [
        "point",
        -1.0
      ],
      [
        "cles",
        -1.0
      ],
      [
        "cing",
        -1.0
      ],
      [
        "Ġste",
        -1.0
      ],
      [
        "aven",
        -1.0
      ],
      [
        "oster",
        -1.0
      ],
      [
        "ĠEm",
        -1.0
      ],
      [
        "prov",
        -1.0
      ],
      [
        "Ġdu",
        -1.0
      ],
      [
        "rated",
        -1.0
      ],
      [
        "stant",
        -1.0
      ],
      [
        "trate",
        -1.0
      ],
      [
        "rations",
        -1.0
      ],
      [
        "actor",
        -1.0
      ],
      [
        "ously",
        -1.0
      ],
      [
        "Ġmor",
        -1.0
      ],
      [
        "Ġvo",
        -1.0
      ],
      [
        "roid",
        -1.0
      ],
      [
        "lean",
        -1.0
      ],
      [
        "ency",
        -1.0
      ],
      [
        "umber",
        -1.0
      ],
      [
        "netic",
        -1.0
      ],
      [
        "ĠMont",
        -1.0
      ],
      [
        "ums",
        -1.0
      ],
      [
        "IF",
        -1.0
      ],
      [
        "nest",
        -1.0
      ],
      [
        "ĠWh",
        -1.0
      ],
      [
        "eys",
        -1.0
      ],
      [
        "iller",
        -1.0
      ],
      [
        "Ġmy",
        -1.0
      ],
      [
        "lations",
        -1.0
      ],
      [
        "rox",
        -1.0
      ],
      [
        "ĠHol",
        -1.0
      ],
      [
        "ells",
        -1.0
      ],
      [
        "ices",
        -1.0
      ],
      [
        "atory",
        -1.0
      ],
      [
        "erry",
        -1.0
      ],
      [
        "icate",
        -1.0
      ],
      [
        "ĠIN",
        -1.0
      ],
      [
        "tment",
        -1.0
      ],
      [
        "Ġru",
        -1.0
      ],
      [
        "Ġon",
        -1.0
      ],
      [
        "uld",
        -1.0
      ],
      [
        "gest",
        -1.0
      ],
      [
        "aking",
        -1.0
      ],
      [
        "Ġob",
        -1.0
      ],
      [
        "âĢĶ",
        -1.0
      ],
      [
        "Ġprot",
        -1.0
      ],
      [
        "type",
        -1.0
      ],
      [
        "lage",
        -1.0
      ],
      [
        "lies",
        -1.0
      ],
      [
        "erce",
        -1.0
      ],
      [
        "ĠSen",
        -1.0
      ],
      [
        "Ġmat",
        -1.0
      ],
      [
        "Ġhydro",
        -1.0
      ],
      [
        "rove",
        -1.0
      ],
      [
        "lain",
        -1.0
      ],
      [
        "America",
        -1.0
      ],
      [
        "rose",
        -1.0
      ],
      [
        "ĠTur",
        -1.0
      ],
      [
        "500",
        -1.0
      ],
      [
        "position",
        -1.0
      ],
      [
        "lings",
        -1.0
      ],
      [
        "imal",
        -1.0
      ],
      [
        "alog",
        -1.0
      ],
      [
        "olk",
        -1.0
      ],
      [
        "ases",
        -1.0
      ],
      [
        "Ġcy",
        -1.0
      ],
      [
        "acy",
        -1.0
      ],
      [
        "ncr",
        -1.0
      ],
      [
        "tism",
        -1.0
      ],
      [
        "real",
        -1.0
      ],
      [
        "oms",
        -1.0
      ],
      [
        "ĠEd",
        -1.0
      ],
      [
        "nium",
        -1.0
      ],
      [
        "Ġer",
        -1.0
      ],
      [
        "odes",
        -1.0
      ],
      [
        "Ġauto",
        -1.0
      ],
      [
        "rical",
        -1.0
      ],
      [
        "otes",
        -1.0
      ],
      [
        "urge",
        -1.0
      ],
      [
        "ively",
        -1.0
      ],
      [
        "Ġelectr",
        -1.0
      ],
      [
        "rance",
        -1.0
      ],
      [
        "nent",
        -1.0
      ],
      [
        "agon",
        -1.0
      ],
      [
        "It",
        -1.0
      ],
      [
        "ĠOn",
        -1.0
      ],
      [
        "hib",
        -1.0
      ],
      [
        "iction",
        -1.0
      ],
      [
        "rug",
        -1.0
      ],
      [
        "Ġelect",
        -1.0
      ],
      [
        "reh",
        -1.0
      ],
      [
        "PC",
        -1.0
      ],
      [
        "ires",
        -1.0
      ],
      [
        "uls",
        -1.0
      ],
      [
        "ĠDan",
        -1.0
      ],
      [
        "class",
        -1.0
      ],
      [
        "ĠSw",
        -1.0
      ],
      [
        "dest",
        -1.0
      ],
      [
        "free",
        -1.0
      ],
      [
        "abs",
        -1.0
      ],
      [
        "vac",
        -1.0
      ],
      [
        "eland",
        -1.0
      ],
      [
        "ading",
        -1.0
      ],
      [
        "nology",
        -1.0
      ],
      [
        "Ġconc",
        -1.0
      ],
      [
        "Ġter",
        -1.0
      ],
      [
        "yal",
        -1.0
      ],
      [
        "ables",
        -1.0
      ],
      [
        "ĠWor",
        -1.0
      ],
      [
        "Ġpat",
        -1.0
      ],
      [
        "tance",
        -1.0
      ],
      [
        "vision",
        -1.0
      ],
      [
        "Ġacc",
        -1.0
      ],
      [
        "ayer",
        -1.0
      ],
      [
        "down",
        -1.0
      ],
      [
        "present",
        -1.0
      ],
      [
        "Ġnano",
        -1.0
      ],
      [
        "alized",
        -1.0
      ],
      [
        "iest",
        -1.0
      ],
      [
        "ĠPor",
        -1.0
      ],
      [
        "iant",
        -1.0
      ],
      [
        "ĠAnd",
        -1.0
      ],
      [
        "rative",
        -1.0
      ],
      [
        "anger",
        -1.0
      ],
      [
        "Ġlu",
        -1.0
      ],
      [
        "icity",
        -1.0
      ],
      [
        "SD",
        -1.0
      ],
      [
        "Ġwor",
        -1.0
      ],
      [
        "oids",
        -1.0
      ],
      [
        "Ġphot",
        -1.0
      ],
      [
        "ĠSm",
        -1.0
      ],
      [
        "EF",
        -1.0
      ],
      [
        "Introduction",
        -1.0
      ],
      [
        "uring",
        -1.0
      ],
      [
        "ivity",
        -1.0
      ],
      [
        "cry",
        -1.0
      ],
      [
        "very",
        -1.0
      ],
      [
        "print",
        -1.0
      ],
      [
        "dness",
        -1.0
      ],
      [
        "eling",
        -1.0
      ],
      [
        "ances",
        -1.0
      ],
      [
        "Ġsl",
        -1.0
      ],
      [
        "itions",
        -1.0
      ],
      [
        "Ġpan",
        -1.0
      ],
      [
        "Ġser",
        -1.0
      ],
      [
        "ched",
        -1.0
      ],
      [
        "range",
        -1.0
      ],
      [
        "Ġdia",
        -1.0
      ],
      [
        "owl",
        -1.0
      ],
      [
        "Ġall",
        -1.0
      ],
      [
        "ĠOb",
        -1.0
      ],
      [
        "Ġprop",
        -1.0
      ],
      [
        "600",
        -1.0
      ],
      [
        "ĠArch",
        -1.0
      ],
      [
        "urv",
        -1.0
      ],
      [
        "CP",
        -1.0
      ],
      [
        "iting",
        -1.0
      ],
      [
        "800",
        -1.0
      ],
      [
        "ether",
        -1.0
      ],
      [
        "ĠWar",
        -1.0
      ],
      [
        "serve",
        -1.0
      ],
      [
        "ulf",
        -1.0
      ],
      [
        "tice",
        -1.0
      ],
      [
        "ĠCap",
        -1.0
      ],
      [
        "ified",
        -1.0
      ],
      [
        "gens",
        -1.0
      ],
      [
        "aring",
        -1.0
      ],
      [
        "ĠST",
        -1.0
      ],
      [
        "gion",
        -1.0
      ],
      [
        "unch",
        -1.0
      ],
      [
        "Ġcount",
        -1.0
      ],
      [
        "rogen",
        -1.0
      ],
      [
        "nous",
        -1.0
      ],
      [
        "eing",
        -1.0
      ],
      [
        "terf",
        -1.0
      ],
      [
        "Ġcat",
        -1.0
      ],
      [
        "icular",
        -1.0
      ],
      [
        "ĠPhil",
        -1.0
      ],
      [
        "cies",
        -1.0
      ],
      [
        "inch",
        -1.0
      ],
      [
        "Ġ21",
        -1.0
      ],
      [
        "Ġec",
        -1.0
      ],
      [
        "ason",
        -1.0
      ],
      [
        "Ġju",
        -1.0
      ],
      [
        "rates",
        -1.0
      ],
      [
        "dict",
        -1.0
      ],
      [
        "eries",
        -1.0
      ],
      [
        "nity",
        -1.0
      ],
      [
        "hale",
        -1.0
      ],
      [
        "Ġher",
        -1.0
      ],
      [
        "Ġent",
        -1.0
      ],
      [
        "OW",
        -1.0
      ],
      [
        "By",
        -1.0
      ],
      [
        "ises",
        -1.0
      ],
      [
        "oning",
        -1.0
      ],
      [
        "ension",
        -1.0
      ],
      [
        "Ġbar",
        -1.0
      ],
      [
        "Ġdisc",
        -1.0
      ],
      [
        "word",
        -1.0
      ],
      [
        "plication",
        -1.0
      ],
      [
        "UC",
        -1.0
      ],
      [
        "antic",
        -1.0
      ],
      [
        "ĠMulti",
        -1.0
      ],
      [
        "nion",
        -1.0
      ],
      [
        "aries",
        -1.0
      ],
      [
        "900",
        -1.0
      ],
      [
        "itive",
        -1.0
      ],
      [
        "gation",
        -1.0
      ],
      [
        "utter",
        -1.0
      ],
      [
        "iny",
        -1.0
      ],
      [
        "phone",
        -1.0
      ],
      [
        "This",
        -1.0
      ],
      [
        "DC",
        -1.0
      ],
      [
        "ĠSun",
        -1.0
      ],
      [
        "face",
        -1.0
      ],
      [
        "ected",
        -1.0
      ],
      [
        "Ġep",
        -1.0
      ],
      [
        "arts",
        -1.0
      ],
      [
        "ĠCre",
        -1.0
      ],
      [
        "Ġcoun",
        -1.0
      ],
      [
        "eters",
        -1.0
      ],
      [
        "aic",
        -1.0
      ],
      [
        "Ġext",
        -1.0
      ],
      [
        "uke",
        -1.0
      ],
      [
        "psy",
        -1.0
      ],
      [
        "eline",
        -1.0
      ],
      [
        "CD",
        -1.0
      ],
      [
        "esses",
        -1.0
      ],
      [
        "power",
        -1.0
      ],
      [
        "augh",
        -1.0
      ],
      [
        "thic",
        -1.0
      ],
      [
        "His",
        -1.0
      ],
      [
        "elling",
        -1.0
      ],
      [
        "Ġneu",
        -1.0
      ],
      [
        "Ġsk",
        -1.0
      ],
      [
        "ady",
        -1.0
      ],
      [
        "ially",
        -1.0
      ],
      [
        "rust",
        -1.0
      ],
      [
        "Ġret",
        -1.0
      ],
      [
        "Ġrel",
        -1.0
      ],
      [
        "eans",
        -1.0
      ],
      [
        "Ġpart",
        -1.0
      ],
      [
        "You",
        -1.0
      ],
      [
        "Ġpen",
        -1.0
      ],
      [
        "dies",
        -1.0
      ],
      [
        "function",
        -1.0
      ],
      [
        "dium",
        -1.0
      ],
      [
        "overs",
        -1.0
      ],
      [
        "ival",
        -1.0
      ],
      [
        "eless",
        -1.0
      ],
      [
        "World",
        -1.0
      ],
      [
        "ools",
        -1.0
      ],
      [
        "aller",
        -1.0
      ],
      [
        "gress",
        -1.0
      ],
      [
        "ĠGreen",
        -1.0
      ],
      [
        "tles",
        -1.0
      ],
      [
        "700",
        -1.0
      ],
      [
        "yes",
        -1.0
      ],
      [
        "oal",
        -1.0
      ],
      [
        "east",
        -1.0
      ],
      [
        "rank",
        -1.0
      ],
      [
        "akes",
        -1.0
      ],
      [
        "come",
        -1.0
      ],
      [
        "tons",
        -1.0
      ],
      [
        "place",
        -1.0
      ],
      [
        "public",
        -1.0
      ],
      [
        "vy",
        -1.0
      ],
      [
        "Ġx",
        -1.0
      ],
      [
        "ĠAng",
        -1.0
      ],
      [
        "tary",
        -1.0
      ],
      [
        "Ġev",
        -1.0
      ],
      [
        "icks",
        -1.0
      ],
      [
        "ĠVol",
        -1.0
      ],
      [
        "pens",
        -1.0
      ],
      [
        "pm",
        -1.0
      ],
      [
        "mig",
        -1.0
      ],
      [
        "olf",
        -1.0
      ],
      [
        "nable",
        -1.0
      ],
      [
        "Ġmal",
        -1.0
      ],
      [
        "âĢĻ",
        -1.0
      ],
      [
        "direct",
        -1.0
      ],
      [
        "ault",
        -1.0
      ],
      [
        "ief",
        -1.0
      ],
      [
        "rner",
        -1.0
      ],
      [
        "ibility",
        -1.0
      ],
      [
        "pine",
        -1.0
      ],
      [
        "lete",
        -1.0
      ],
      [
        "sons",
        -1.0
      ],
      [
        "Ġ22",
        -1.0
      ],
      [
        "oods",
        -1.0
      ],
      [
        "tification",
        -1.0
      ],
      [
        "have",
        -1.0
      ],
      [
        "alls",
        -1.0
      ],
      [
        "Ġâ",
        -1.0
      ],
      [
        "ĠLy",
        -1.0
      ],
      [
        "rier",
        -1.0
      ],
      [
        "Ġdef",
        -1.0
      ],
      [
        "ician",
        -1.0
      ],
      [
        "Ġ13",
        -1.0
      ],
      [
        "ened",
        -1.0
      ],
      [
        "ĠJan",
        -1.0
      ],
      [
        "sers",
        -1.0
      ],
      [
        "ently",
        -1.0
      ],
      [
        "ĠNew",
        -1.0
      ],
      [
        "Ġass",
        -1.0
      ],
      [
        "Ġhar",
        -1.0
      ],
      [
        "ills",
        -1.0
      ],
      [
        "rating",
        -1.0
      ],
      [
        "ials",
        -1.0
      ],
      [
        "sburg",
        -1.0
      ],
      [
        "lash",
        -1.0
      ],
      [
        "mond",
        -1.0
      ],
      [
        "Ġlan",
        -1.0
      ],
      [
        "rush",
        -1.0
      ],
      [
        "BC",
        -1.0
      ],
      [
        "Ġconf",
        -1.0
      ],
      [
        "Ġchar",
        -1.0
      ],
      [
        "Ġcounter",
        -1.0
      ],
      [
        "nip",
        -1.0
      ],
      [
        "eav",
        -1.0
      ],
      [
        "ited",
        -1.0
      ],
      [
        "iology",
        -1.0
      ],
      [
        "Ġsal",
        -1.0
      ],
      [
        "Ġout",
        -1.0
      ],
      [
        "iling",
        -1.0
      ],
      [
        "uation",
        -1.0
      ],
      [
        "Ġcre",
        -1.0
      ],
      [
        "Ġcap",
        -1.0
      ],
      [
        "ĠChris",
        -1.0
      ],
      [
        "ground",
        -1.0
      ],
      [
        "arter",
        -1.0
      ],
      [
        "ably",
        -1.0
      ],
      [
        "ĠLand",
        -1.0
      ],
      [
        "nex",
        -1.0
      ],
      [
        "ocks",
        -1.0
      ],
      [
        "Ġbro",
        -1.0
      ],
      [
        "fig",
        -1.0
      ],
      [
        "hair",
        -1.0
      ],
      [
        "connect",
        -1.0
      ],
      [
        "qual",
        -1.0
      ],
      [
        "Ġreg",
        -1.0
      ],
      [
        "which",
        -1.0
      ],
      [
        "Ġhom",
        -1.0
      ],
      [
        "BS",
        -1.0
      ],
      [
        "Ġspec",
        -1.0
      ],
      [
        "tings",
        -1.0
      ],
      [
        "ĠChrist",
        -1.0
      ],
      [
        "Ġmen",
        -1.0
      ],
      [
        "ories",
        -1.0
      ],
      [
        "Ġplan",
        -1.0
      ],
      [
        "Ġsemi",
        -1.0
      ],
      [
        "ĠOver",
        -1.0
      ],
      [
        "rings",
        -1.0
      ],
      [
        "cting",
        -1.0
      ],
      [
        "mons",
        -1.0
      ],
      [
        "ished",
        -1.0
      ],
      [
        "ured",
        -1.0
      ],
      [
        "ples",
        -1.0
      ],
      [
        "tability",
        -1.0
      ],
      [
        "Ġred",
        -1.0
      ],
      [
        "Ġsyn",
        -1.0
      ],
      [
        "Ġoc",
        -1.0
      ],
      [
        "ports",
        -1.0
      ],
      [
        "Ġhan",
        -1.0
      ],
      [
        "room",
        -1.0
      ],
      [
        "nven",
        -1.0
      ],
      [
        "lice",
        -1.0
      ],
      [
        "Ġref",
        -1.0
      ],
      [
        "itional",
        -1.0
      ],
      [
        "Ġsur",
        -1.0
      ],
      [
        "ules",
        -1.0
      ],
      [
        "verse",
        -1.0
      ],
      [
        "bing",
        -1.0
      ],
      [
        "Ġart",
        -1.0
      ],
      [
        "oned",
        -1.0
      ],
      [
        "ify",
        -1.0
      ],
      [
        "oration",
        -1.0
      ],
      [
        "Ġend",
        -1.0
      ],
      [
        "iah",
        -1.0
      ],
      [
        "ĠStar",
        -1.0
      ],
      [
        "Ġdem",
        -1.0
      ],
      [
        "Ġarch",
        -1.0
      ],
      [
        "ĠDon",
        -1.0
      ],
      [
        "mous",
        -1.0
      ],
      [
        "owing",
        -1.0
      ],
      [
        "ĠDec",
        -1.0
      ],
      [
        "Ġinv",
        -1.0
      ],
      [
        "lets",
        -1.0
      ],
      [
        "dings",
        -1.0
      ],
      [
        "torial",
        -1.0
      ],
      [
        "sym",
        -1.0
      ],
      [
        "station",
        -1.0
      ],
      [
        "kins",
        -1.0
      ],
      [
        "lower",
        -1.0
      ],
      [
        "tery",
        -1.0
      ],
      [
        "ried",
        -1.0
      ],
      [
        "Ġsen",
        -1.0
      ],
      [
        "Ġsol",
        -1.0
      ],
      [
        "ints",
        -1.0
      ],
      [
        "aters",
        -1.0
      ],
      [
        "sage",
        -1.0
      ],
      [
        "SF",
        -1.0
      ],
      [
        "aces",
        -1.0
      ],
      [
        "erts",
        -1.0
      ],
      [
        "iving",
        -1.0
      ],
      [
        "Ġmed",
        -1.0
      ],
      [
        "oney",
        -1.0
      ],
      [
        "develop",
        -1.0
      ],
      [
        "Source",
        -1.0
      ],
      [
        "lates",
        -1.0
      ],
      [
        "American",
        -1.0
      ],
      [
        "Ġuns",
        -1.0
      ],
      [
        "ests",
        -1.0
      ],
      [
        "May",
        -1.0
      ],
      [
        "Ġimm",
        -1.0
      ],
      [
        "sible",
        -1.0
      ],
      [
        "Ġcoll",
        -1.0
      ],
      [
        "Ġ(",
        -1.0
      ],
      [
        "dly",
        -1.0
      ],
      [
        "Ġrem",
        -1.0
      ],
      [
        "Ġpor",
        -1.0
      ],
      [
        "Ġdep",
        -1.0
      ],
      [
        "Ġshe",
        -1.0
      ],
      [
        "Ġthr",
        -1.0
      ],
      [
        "ears",
        -1.0
      ],
      [
        "Ġpers",
        -1.0
      ],
      [
        "older",
        -1.0
      ],
      [
        "erous",
        -1.0
      ],
      [
        "Ġet",
        -1.0
      ],
      [
        "Ġ200",
        -1.0
      ],
      [
        "reed",
        -1.0
      ],
      [
        "izes",
        -1.0
      ],
      [
        "bid",
        -1.0
      ],
      [
        "Ġsea",
        -1.0
      ],
      [
        "eting",
        -1.0
      ],
      [
        "Ġmus",
        -1.0
      ],
      [
        "tile",
        -1.0
      ],
      [
        "gies",
        -1.0
      ],
      [
        "Ġsin",
        -1.0
      ],
      [
        "ulus",
        -1.0
      ],
      [
        "ĠPlan",
        -1.0
      ],
      [
        "rons",
        -1.0
      ],
      [
        "ĠRed",
        -1.0
      ],
      [
        "pose",
        -1.0
      ],
      [
        "aves",
        -1.0
      ],
      [
        "ML",
        -1.0
      ],
      [
        "gov",
        -1.0
      ],
      [
        "Ġdel",
        -1.0
      ],
      [
        "icles",
        -1.0
      ],
      [
        "ĠSea",
        -1.0
      ],
      [
        "ared",
        -1.0
      ],
      [
        "ought",
        -1.0
      ],
      [
        "Ġphy",
        -1.0
      ],
      [
        "Ġpas",
        -1.0
      ],
      [
        "ĠPost",
        -1.0
      ],
      [
        "active",
        -1.0
      ],
      [
        "ishing",
        -1.0
      ],
      [
        "ĠWest",
        -1.0
      ],
      [
        "erator",
        -1.0
      ],
      [
        "onics",
        -1.0
      ],
      [
        "oring",
        -1.0
      ],
      [
        "Ġrev",
        -1.0
      ],
      [
        "Ġsw",
        -1.0
      ],
      [
        "ĠUN",
        -1.0
      ],
      [
        "control",
        -1.0
      ],
      [
        "tland",
        -1.0
      ],
      [
        "nings",
        -1.0
      ],
      [
        "But",
        -1.0
      ],
      [
        "ends",
        -1.0
      ],
      [
        "loy",
        -1.0
      ],
      [
        "Ġdev",
        -1.0
      ],
      [
        "ĠIt",
        -1.0
      ],
      [
        "ails",
        -1.0
      ],
      [
        "tness",
        -1.0
      ],
      [
        "illing",
        -1.0
      ],
      [
        "ancy",
        -1.0
      ],
      [
        "Ġwater",
        -1.0
      ],
      [
        "Ġus",
        -1.0
      ],
      [
        "Ġcent",
        -1.0
      ],
      [
        "ĠReg",
        -1.0
      ],
      [
        "ags",
        -1.0
      ],
      [
        "etting",
        -1.0
      ],
      [
        "orate",
        -1.0
      ],
      [
        "west",
        -1.0
      ],
      [
        "ĠCur",
        -1.0
      ],
      [
        "take",
        -1.0
      ],
      [
        "Ġcur",
        -1.0
      ],
      [
        "minate",
        -1.0
      ],
      [
        "ented",
        -1.0
      ],
      [
        "asses",
        -1.0
      ],
      [
        "mail",
        -1.0
      ],
      [
        "oses",
        -1.0
      ],
      [
        "orms",
        -1.0
      ],
      [
        "lysis",
        -1.0
      ],
      [
        "racy",
        -1.0
      ],
      [
        "Ġsec",
        -1.0
      ],
      [
        "eap",
        -1.0
      ],
      [
        "born",
        -1.0
      ],
      [
        "hood",
        -1.0
      ],
      [
        "iable",
        -1.0
      ],
      [
        "ending",
        -1.0
      ],
      [
        "outs",
        -1.0
      ],
      [
        "eaf",
        -1.0
      ],
      [
        "most",
        -1.0
      ],
      [
        "Ġexc",
        -1.0
      ],
      [
        "Ġup",
        -1.0
      ],
      [
        "essing",
        -1.0
      ],
      [
        "ernal",
        -1.0
      ],
      [
        "ĠElectr",
        -1.0
      ],
      [
        "Ġgene",
        -1.0
      ],
      [
        "arks",
        -1.0
      ],
      [
        "Ġare",
        -1.0
      ],
      [
        "nition",
        -1.0
      ],
      [
        "See",
        -1.0
      ],
      [
        "etics",
        -1.0
      ],
      [
        "eens",
        -1.0
      ],
      [
        "tribute",
        -1.0
      ],
      [
        "Ġhis",
        -1.0
      ],
      [
        "just",
        -1.0
      ],
      [
        "Ġfil",
        -1.0
      ],
      [
        "tered",
        -1.0
      ],
      [
        "Ġten",
        -1.0
      ],
      [
        "lance",
        -1.0
      ],
      [
        "Ġden",
        -1.0
      ],
      [
        "teen",
        -1.0
      ],
      [
        "nies",
        -1.0
      ],
      [
        "dence",
        -1.0
      ],
      [
        "There",
        -1.0
      ],
      [
        "cup",
        -1.0
      ],
      [
        "Ġit",
        -1.0
      ],
      [
        "cultural",
        -1.0
      ],
      [
        "ored",
        -1.0
      ],
      [
        "ctory",
        -1.0
      ],
      [
        "PD",
        -1.0
      ],
      [
        "inks",
        -1.0
      ],
      [
        "Ġbas",
        -1.0
      ],
      [
        "Of",
        -1.0
      ],
      [
        "ĠHis",
        -1.0
      ],
      [
        "Ġ23",
        -1.0
      ],
      [
        "self",
        -1.0
      ],
      [
        "duce",
        -1.0
      ],
      [
        "iated",
        -1.0
      ],
      [
        "Ġest",
        -1.0
      ],
      [
        "iological",
        -1.0
      ],
      [
        "enal",
        -1.0
      ],
      [
        "DP",
        -1.0
      ],
      [
        "Ġscr",
        -1.0
      ],
      [
        "inds",
        -1.0
      ],
      [
        "shop",
        -1.0
      ],
      [
        "odd",
        -1.0
      ],
      [
        "Ġdet",
        -1.0
      ],
      [
        "Ġsm",
        -1.0
      ],
      [
        "stration",
        -1.0
      ],
      [
        "rows",
        -1.0
      ],
      [
        "omatic",
        -1.0
      ],
      [
        "esting",
        -1.0
      ],
      [
        "anding",
        -1.0
      ],
      [
        "Ġorgan",
        -1.0
      ],
      [
        "Ġwin",
        -1.0
      ],
      [
        "fall",
        -1.0
      ],
      [
        "acts",
        -1.0
      ],
      [
        "Ġmel",
        -1.0
      ],
      [
        "ways",
        -1.0
      ],
      [
        "Research",
        -1.0
      ],
      [
        "thetic",
        -1.0
      ],
      [
        "Ġconv",
        -1.0
      ],
      [
        "Ġcas",
        -1.0
      ],
      [
        "dish",
        -1.0
      ],
      [
        "ately",
        -1.0
      ],
      [
        "Ġlib",
        -1.0
      ],
      [
        "Ġban",
        -1.0
      ],
      [
        "ĠWeb",
        -1.0
      ],
      [
        ").",
        -1.0
      ],
      [
        "Ġmer",
        -1.0
      ],
      [
        "Ġtele",
        -1.0
      ],
      [
        "Ġnot",
        -1.0
      ],
      [
        "Ġdisp",
        -1.0
      ],
      [
        "tress",
        -1.0
      ],
      [
        "escent",
        -1.0
      ],
      [
        "Ġir",
        -1.0
      ],
      [
        "lank",
        -1.0
      ],
      [
        "ued",
        -1.0
      ],
      [
        "ocket",
        -1.0
      ],
      [
        "Ġfin",
        -1.0
      ],
      [
        "lson",
        -1.0
      ],
      [
        "Ġrad",
        -1.0
      ],
      [
        "Ġfore",
        -1.0
      ],
      [
        "atives",
        -1.0
      ],
      [
        "More",
        -1.0
      ],
      [
        "Ġsn",
        -1.0
      ],
      [
        "Ġwith",
        -1.0
      ],
      [
        "ups",
        -1.0
      ],
      [
        "ulated",
        -1.0
      ],
      [
        "Ġform",
        -1.0
      ],
      [
        "Ġact",
        -1.0
      ],
      [
        "stream",
        -1.0
      ],
      [
        "Ġback",
        -1.0
      ],
      [
        "fed",
        -1.0
      ],
      [
        "aws",
        -1.0
      ],
      [
        "erty",
        -1.0
      ],
      [
        "lton",
        -1.0
      ],
      [
        "Ġflu",
        -1.0
      ],
      [
        "such",
        -1.0
      ],
      [
        "Ġhand",
        -1.0
      ],
      [
        "cav",
        -1.0
      ],
      [
        "Ġthat",
        -1.0
      ],
      [
        "ledge",
        -1.0
      ],
      [
        "awn",
        -1.0
      ],
      [
        "eers",
        -1.0
      ],
      [
        "ĠWater",
        -1.0
      ],
      [
        "ĠPart",
        -1.0
      ],
      [
        "ĠLib",
        -1.0
      ],
      [
        "Ġven",
        -1.0
      ],
      [
        "culate",
        -1.0
      ],
      [
        "asters",
        -1.0
      ],
      [
        "ĠMath",
        -1.0
      ],
      [
        "ĠMod",
        -1.0
      ],
      [
        "Ġur",
        -1.0
      ],
      [
        "including",
        -1.0
      ],
      [
        "Ġfer",
        -1.0
      ],
      [
        "Ġsim",
        -1.0
      ],
      [
        "osphere",
        -1.0
      ],
      [
        "Ġpsych",
        -1.0
      ],
      [
        "ounds",
        -1.0
      ],
      [
        "Ġed",
        -1.0
      ],
      [
        "icide",
        -1.0
      ],
      [
        "ĠMay",
        -1.0
      ],
      [
        "ulations",
        -1.0
      ],
      [
        "amed",
        -1.0
      ],
      [
        "Ġ26",
        -1.0
      ],
      [
        "ĠAnn",
        -1.0
      ],
      [
        "using",
        -1.0
      ],
      [
        "ogs",
        -1.0
      ],
      [
        "tition",
        -1.0
      ],
      [
        "sequ",
        -1.0
      ],
      [
        "Ġpur",
        -1.0
      ],
      [
        "sable",
        -1.0
      ],
      [
        "ellow",
        -1.0
      ],
      [
        "utes",
        -1.0
      ],
      [
        "Abstract",
        -1.0
      ],
      [
        "inters",
        -1.0
      ],
      [
        "Ġfun",
        -1.0
      ],
      [
        "Ġnew",
        -1.0
      ],
      [
        "One",
        -1.0
      ],
      [
        "Ġ24",
        -1.0
      ],
      [
        "lows",
        -1.0
      ],
      [
        "ogue",
        -1.0
      ],
      [
        "making",
        -1.0
      ],
      [
        "Even",
        -1.0
      ],
      [
        "ĠHealth",
        -1.0
      ],
      [
        "Ġvol",
        -1.0
      ],
      [
        "ired",
        -1.0
      ],
      [
        "ĠLong",
        -1.0
      ],
      [
        "Ġtur",
        -1.0
      ],
      [
        "ĠFree",
        -1.0
      ],
      [
        "Ġcompl",
        -1.0
      ],
      [
        "essed",
        -1.0
      ],
      [
        "ĠAmerica",
        -1.0
      ],
      [
        "âĢľ",
        -1.0
      ],
      [
        "Ġmod",
        -1.0
      ],
      [
        "ĠAct",
        -1.0
      ],
      [
        "ships",
        -1.0
      ],
      [
        "stems",
        -1.0
      ],
      [
        "iously",
        -1.0
      ],
      [
        "Ġcontra",
        -1.0
      ],
      [
        "makers",
        -1.0
      ],
      [
        "Ġang",
        -1.0
      ],
      [
        "owers",
        -1.0
      ],
      [
        "ifying",
        -1.0
      ],
      [
        "Ġval",
        -1.0
      ],
      [
        "ĠBlack",
        -1.0
      ],
      [
        "Ġder",
        -1.0
      ],
      [
        "ĠInc",
        -1.0
      ],
      [
        "holes",
        -1.0
      ],
      [
        "aders",
        -1.0
      ],
      [
        "night",
        -1.0
      ],
      [
        "Ġcir",
        -1.0
      ],
      [
        "Ġgar",
        -1.0
      ],
      [
        "ishes",
        -1.0
      ],
      [
        "With",
        -1.0
      ],
      [
        "Ġtan",
        -1.0
      ],
      [
        "cement",
        -1.0
      ],
      [
        "aging",
        -1.0
      ],
      [
        "Ġmore",
        -1.0
      ],
      [
        "eeds",
        -1.0
      ],
      [
        "Ġimmun",
        -1.0
      ],
      [
        "ĠMark",
        -1.0
      ],
      [
        "Ġnor",
        -1.0
      ],
      [
        "iled",
        -1.0
      ],
      [
        "Ġtim",
        -1.0
      ],
      [
        "lary",
        -1.0
      ],
      [
        "Ġset",
        -1.0
      ],
      [
        "inner",
        -1.0
      ],
      [
        "Ġextra",
        -1.0
      ],
      [
        "gles",
        -1.0
      ],
      [
        "nance",
        -1.0
      ],
      [
        "Ġwar",
        -1.0
      ],
      [
        "Ġ27",
        -1.0
      ],
      [
        "Ġget",
        -1.0
      ],
      [
        "allow",
        -1.0
      ],
      [
        "ditions",
        -1.0
      ],
      [
        "ĠUS",
        -1.0
      ],
      [
        "ained",
        -1.0
      ],
      [
        "ague",
        -1.0
      ],
      [
        "asting",
        -1.0
      ],
      [
        "lants",
        -1.0
      ],
      [
        "ĠPower",
        -1.0
      ],
      [
        "Ġby",
        -1.0
      ],
      [
        "unity",
        -1.0
      ],
      [
        "yers",
        -1.0
      ],
      [
        "wise",
        -1.0
      ],
      [
        "ewer",
        -1.0
      ],
      [
        "screen",
        -1.0
      ],
      [
        "ĠYou",
        -1.0
      ],
      [
        "rally",
        -1.0
      ],
      [
        "erly",
        -1.0
      ],
      [
        "igs",
        -1.0
      ],
      [
        "tals",
        -1.0
      ],
      [
        "Ġbat",
        -1.0
      ],
      [
        "ĠPsych",
        -1.0
      ],
      [
        "earing",
        -1.0
      ],
      [
        "diction",
        -1.0
      ],
      [
        "Ġbur",
        -1.0
      ],
      [
        "ĠUnder",
        -1.0
      ],
      [
        "Ġhum",
        -1.0
      ],
      [
        "where",
        -1.0
      ],
      [
        "aged",
        -1.0
      ],
      [
        "Ġ28",
        -1.0
      ],
      [
        "level",
        -1.0
      ],
      [
        "Ġstar",
        -1.0
      ],
      [
        "http",
        -1.0
      ],
      [
        "Ġ30",
        -1.0
      ],
      [
        "Ġprof",
        -1.0
      ],
      [
        "ĠBut",
        -1.0
      ],
      [
        "essive",
        -1.0
      ],
      [
        "shire",
        -1.0
      ],
      [
        "ĠNot",
        -1.0
      ],
      [
        "gular",
        -1.0
      ],
      [
        "ĠAir",
        -1.0
      ],
      [
        "specific",
        -1.0
      ],
      [
        "ĠDef",
        -1.0
      ],
      [
        "Ġoff",
        -1.0
      ],
      [
        "alities",
        -1.0
      ],
      [
        "building",
        -1.0
      ],
      [
        "iding",
        -1.0
      ],
      [
        "ĠGold",
        -1.0
      ],
      [
        "Ġlong",
        -1.0
      ],
      [
        "itting",
        -1.0
      ],
      [
        "Ġ25",
        -1.0
      ],
      [
        "lks",
        -1.0
      ],
      [
        "arity",
        -1.0
      ],
      [
        "Ġtor",
        -1.0
      ],
      [
        "uting",
        -1.0
      ],
      [
        "iance",
        -1.0
      ],
      [
        "Ġsoc",
        -1.0
      ],
      [
        "eeding",
        -1.0
      ],
      [
        "aded",
        -1.0
      ],
      [
        "government",
        -1.0
      ],
      [
        "oys",
        -1.0
      ],
      [
        "rait",
        -1.0
      ],
      [
        "olds",
        -1.0
      ],
      [
        "Ġsearch",
        -1.0
      ],
      [
        "culation",
        -1.0
      ],
      [
        "Ġradio",
        -1.0
      ],
      [
        "Ġdiv",
        -1.0
      ],
      [
        "inding",
        -1.0
      ],
      [
        "Ġren",
        -1.0
      ],
      [
        "lusion",
        -1.0
      ],
      [
        "ĠUp",
        -1.0
      ],
      [
        "sites",
        -1.0
      ],
      [
        "ĠData",
        -1.0
      ],
      [
        "eating",
        -1.0
      ],
      [
        "nx",
        -1.0
      ],
      [
        "Ġpet",
        -1.0
      ],
      [
        "Ġwork",
        -1.0
      ],
      [
        "bling",
        -1.0
      ],
      [
        "Ġfar",
        -1.0
      ],
      [
        "body",
        -1.0
      ],
      [
        "erative",
        -1.0
      ],
      [
        "ply",
        -1.0
      ],
      [
        "rals",
        -1.0
      ],
      [
        "apping",
        -1.0
      ],
      [
        "ĠBay",
        -1.0
      ],
      [
        "Ġkn",
        -1.0
      ],
      [
        "lence",
        -1.0
      ],
      [
        "Ġpot",
        -1.0
      ],
      [
        "apes",
        -1.0
      ],
      [
        "scale",
        -1.0
      ],
      [
        "atures",
        -1.0
      ],
      [
        "Ġrest",
        -1.0
      ],
      [
        "ĠGod",
        -1.0
      ],
      [
        "Ġhol",
        -1.0
      ],
      [
        "ĠSee",
        -1.0
      ],
      [
        "rison",
        -1.0
      ],
      [
        "Ġsun",
        -1.0
      ],
      [
        "otherapy",
        -1.0
      ],
      [
        "âĢĵ",
        -1.0
      ],
      [
        "used",
        -1.0
      ],
      [
        "eted",
        -1.0
      ],
      [
        "ients",
        -1.0
      ],
      [
        "Posted",
        -1.0
      ],
      [
        "Ġequ",
        -1.0
      ],
      [
        "ields",
        -1.0
      ],
      [
        "itude",
        -1.0
      ],
      [
        "andy",
        -1.0
      ],
      [
        "acking",
        -1.0
      ],
      [
        "inson",
        -1.0
      ],
      [
        "ĠBy",
        -1.0
      ],
      [
        "agic",
        -1.0
      ],
      [
        "inary",
        -1.0
      ],
      [
        "opes",
        -1.0
      ],
      [
        "ended",
        -1.0
      ],
      [
        "inking",
        -1.0
      ],
      [
        "Ġtest",
        -1.0
      ],
      [
        "ĠAD",
        -1.0
      ],
      [
        "Ġmid",
        -1.0
      ],
      [
        "year",
        -1.0
      ],
      [
        "fully",
        -1.0
      ],
      [
        "Ġwas",
        -1.0
      ],
      [
        "Ġill",
        -1.0
      ],
      [
        "Ġtw",
        -1.0
      ],
      [
        "ĠEarth",
        -1.0
      ],
      [
        "Ġtime",
        -1.0
      ],
      [
        "ctures",
        -1.0
      ],
      [
        "Ġsystem",
        -1.0
      ],
      [
        "General",
        -1.0
      ],
      [
        "weight",
        -1.0
      ],
      [
        "From",
        -1.0
      ],
      [
        "tries",
        -1.0
      ],
      [
        "aving",
        -1.0
      ],
      [
        "arrow",
        -1.0
      ],
      [
        "amps",
        -1.0
      ],
      [
        "oking",
        -1.0
      ],
      [
        "fold",
        -1.0
      ],
      [
        "iography",
        -1.0
      ],
      [
        "acle",
        -1.0
      ],
      [
        "eology",
        -1.0
      ],
      [
        "aled",
        -1.0
      ],
      [
        "arry",
        -1.0
      ],
      [
        "Ġland",
        -1.0
      ],
      [
        "ĠCount",
        -1.0
      ],
      [
        "Ġtemp",
        -1.0
      ],
      [
        "Ds",
        -1.0
      ],
      [
        "What",
        -1.0
      ],
      [
        "Ġsign",
        -1.0
      ],
      [
        "âĢĺ",
        -1.0
      ],
      [
        "ĠPop",
        -1.0
      ],
      [
        "orous",
        -1.0
      ],
      [
        "eled",
        -1.0
      ],
      [
        "xon",
        -1.0
      ],
      [
        "thesis",
        -1.0
      ],
      [
        "Ġleg",
        -1.0
      ],
      [
        "sexual",
        -1.0
      ],
      [
        "Ġsus",
        -1.0
      ],
      [
        "osts",
        -1.0
      ],
      [
        "Ġinform",
        -1.0
      ],
      [
        "actions",
        -1.0
      ],
      [
        "Ġemb",
        -1.0
      ],
      [
        "icians",
        -1.0
      ],
      [
        "aths",
        -1.0
      ],
      [
        "anning",
        -1.0
      ],
      [
        "Ġport",
        -1.0
      ],
      [
        "tention",
        -1.0
      ],
      [
        "oons",
        -1.0
      ],
      [
        "How",
        -1.0
      ],
      [
        "rents",
        -1.0
      ],
      [
        "First",
        -1.0
      ],
      [
        "Ġ31",
        -1.0
      ],
      [
        "yard",
        -1.0
      ],
      [
        "aming",
        -1.0
      ],
      [
        "Ġear",
        -1.0
      ],
      [
        "ĠNews",
        -1.0
      ],
      [
        "Ġultra",
        -1.0
      ],
      [
        "aches",
        -1.0
      ],
      [
        "mates",
        -1.0
      ],
      [
        "neous",
        -1.0
      ],
      [
        "ested",
        -1.0
      ],
      [
        "economic",
        -1.0
      ],
      [
        "BM",
        -1.0
      ],
      [
        "wards",
        -1.0
      ],
      [
        "ulating",
        -1.0
      ],
      [
        "eets",
        -1.0
      ],
      [
        "Ġdown",
        -1.0
      ],
      [
        "Ġwr",
        -1.0
      ],
      [
        "ĠAre",
        -1.0
      ],
      [
        "Ġbut",
        -1.0
      ],
      [
        "Ġ29",
        -1.0
      ],
      [
        "cession",
        -1.0
      ],
      [
        "Ġran",
        -1.0
      ],
      [
        "ĠNorth",
        -1.0
      ],
      [
        "ivate",
        -1.0
      ],
      [
        "wide",
        -1.0
      ],
      [
        "pts",
        -1.0
      ],
      [
        "uous",
        -1.0
      ],
      [
        "Ġ32",
        -1.0
      ],
      [
        "Ġyou",
        -1.0
      ],
      [
        "uted",
        -1.0
      ],
      [
        "rains",
        -1.0
      ],
      [
        "HD",
        -1.0
      ],
      [
        "ĠMars",
        -1.0
      ],
      [
        "oves",
        -1.0
      ],
      [
        "Ġfree",
        -1.0
      ],
      [
        "aced",
        -1.0
      ],
      [
        "Ġ60",
        -1.0
      ],
      [
        "Ġthem",
        -1.0
      ],
      [
        "erated",
        -1.0
      ],
      [
        "Ġsqu",
        -1.0
      ],
      [
        "sides",
        -1.0
      ],
      [
        "Ġhigh",
        -1.0
      ],
      [
        "Some",
        -1.0
      ],
      [
        "ĠWorld",
        -1.0
      ],
      [
        "mentary",
        -1.0
      ],
      [
        "Ġloc",
        -1.0
      ],
      [
        "ĠInformation",
        -1.0
      ],
      [
        "John",
        -1.0
      ],
      [
        "Ġfrom",
        -1.0
      ],
      [
        "ĠHome",
        -1.0
      ],
      [
        "ugs",
        -1.0
      ],
      [
        "ĠWood",
        -1.0
      ],
      [
        "ĠHall",
        -1.0
      ],
      [
        "ĠOut",
        -1.0
      ],
      [
        "ochemical",
        -1.0
      ],
      [
        "eological",
        -1.0
      ],
      [
        "Ġ\"",
        -1.0
      ],
      [
        "Ġaff",
        -1.0
      ],
      [
        "tops",
        -1.0
      ],
      [
        "Ġadv",
        -1.0
      ],
      [
        "ĠScience",
        -1.0
      ],
      [
        "eated",
        -1.0
      ],
      [
        "Ġdiffer",
        -1.0
      ],
      [
        "),",
        -1.0
      ],
      [
        "zard",
        -1.0
      ],
      [
        "tally",
        -1.0
      ],
      [
        "cating",
        -1.0
      ],
      [
        "ults",
        -1.0
      ],
      [
        "itable",
        -1.0
      ],
      [
        "airs",
        -1.0
      ],
      [
        "rants",
        -1.0
      ],
      [
        "illed",
        -1.0
      ],
      [
        "forms",
        -1.0
      ],
      [
        "dered",
        -1.0
      ],
      [
        "Ġadd",
        -1.0
      ],
      [
        "Ġclass",
        -1.0
      ],
      [
        "unting",
        -1.0
      ],
      [
        "course",
        -1.0
      ],
      [
        "construction",
        -1.0
      ],
      [
        "arding",
        -1.0
      ],
      [
        "Ġplant",
        -1.0
      ],
      [
        "ĠTime",
        -1.0
      ],
      [
        "kings",
        -1.0
      ],
      [
        "pted",
        -1.0
      ],
      [
        "aying",
        -1.0
      ],
      [
        "Ġsee",
        -1.0
      ],
      [
        "Ġlab",
        -1.0
      ],
      [
        "Ġair",
        -1.0
      ],
      [
        "sors",
        -1.0
      ],
      [
        "Ġperson",
        -1.0
      ],
      [
        "Ġother",
        -1.0
      ],
      [
        "Ġgas",
        -1.0
      ],
      [
        "Ġtop",
        -1.0
      ],
      [
        "Ġcross",
        -1.0
      ],
      [
        "standing",
        -1.0
      ],
      [
        "dication",
        -1.0
      ],
      [
        ".âĢĿ",
        -1.0
      ],
      [
        "enses",
        -1.0
      ],
      [
        "Note",
        -1.0
      ],
      [
        "Ġbul",
        -1.0
      ],
      [
        "ĠLet",
        -1.0
      ],
      [
        "erating",
        -1.0
      ],
      [
        "When",
        -1.0
      ],
      [
        "Ġsome",
        -1.0
      ],
      [
        "ĠState",
        -1.0
      ],
      [
        "physical",
        -1.0
      ],
      [
        "olly",
        -1.0
      ],
      [
        "ĠSouth",
        -1.0
      ],
      [
        "ĠAmerican",
        -1.0
      ],
      [
        "Ġhas",
        -1.0
      ],
      [
        "Ġcul",
        -1.0
      ],
      [
        "Ġhome",
        -1.0
      ],
      [
        "antly",
        -1.0
      ],
      [
        "Ġcharacter",
        -1.0
      ],
      [
        "Ġblack",
        -1.0
      ],
      [
        "oting",
        -1.0
      ],
      [
        "inning",
        -1.0
      ],
      [
        "Ġdig",
        -1.0
      ],
      [
        "iring",
        -1.0
      ],
      [
        "Ġson",
        -1.0
      ],
      [
        "Ġ90",
        -1.0
      ],
      [
        "Ġ35",
        -1.0
      ],
      [
        "Ġlog",
        -1.0
      ],
      [
        "Ġsum",
        -1.0
      ],
      [
        "ĠWhite",
        -1.0
      ],
      [
        "Ġcall",
        -1.0
      ],
      [
        "fusion",
        -1.0
      ],
      [
        "ided",
        -1.0
      ],
      [
        "based",
        -1.0
      ],
      [
        "Ġdata",
        -1.0
      ],
      [
        "Ġ40",
        -1.0
      ],
      [
        "ĠBook",
        -1.0
      ],
      [
        "ighter",
        -1.0
      ],
      [
        "Ġdevelop",
        -1.0
      ],
      [
        "ectors",
        -1.0
      ],
      [
        "lowing",
        -1.0
      ],
      [
        "iders",
        -1.0
      ],
      [
        "tified",
        -1.0
      ],
      [
        "lying",
        -1.0
      ],
      [
        "Ġuse",
        -1.0
      ],
      [
        "Ġ...",
        -1.0
      ],
      [
        "Ġpass",
        -1.0
      ],
      [
        "ĠClass",
        -1.0
      ],
      [
        "Ġsit",
        -1.0
      ],
      [
        "Ġfur",
        -1.0
      ],
      [
        "Ġpul",
        -1.0
      ],
      [
        "Ġ100",
        -1.0
      ],
      [
        "Ġmode",
        -1.0
      ],
      [
        "Ġworld",
        -1.0
      ],
      [
        "Ġgreen",
        -1.0
      ],
      [
        "Ġdeb",
        -1.0
      ],
      [
        "ocking",
        -1.0
      ],
      [
        "gence",
        -1.0
      ],
      [
        "eats",
        -1.0
      ],
      [
        ".\"",
        -1.0
      ],
      [
        "phosphate",
        -1.0
      ],
      [
        "Ġhead",
        -1.0
      ],
      [
        "ĠRock",
        -1.0
      ],
      [
        "Now",
        -1.0
      ],
      [
        "If",
        -1.0
      ],
      [
        "Ġprogram",
        -1.0
      ],
      [
        "dependent",
        -1.0
      ],
      [
        "Published",
        -1.0
      ],
      [
        "Ġ.",
        -1.0
      ],
      [
        "owed",
        -1.0
      ],
      [
        "After",
        -1.0
      ],
      [
        "turing",
        -1.0
      ],
      [
        "Ġweb",
        -1.0
      ],
      [
        "unts",
        -1.0
      ],
      [
        "Ġreal",
        -1.0
      ],
      [
        "Ġlight",
        -1.0
      ],
      [
        "opping",
        -1.0
      ],
      [
        "ĠOf",
        -1.0
      ],
      [
        "Ġamb",
        -1.0
      ],
      [
        "Ġnet",
        -1.0
      ],
      [
        "Ġprocess",
        -1.0
      ],
      [
        "ipes",
        -1.0
      ],
      [
        "ikes",
        -1.0
      ],
      [
        "specially",
        -1.0
      ],
      [
        "Ġchild",
        -1.0
      ],
      [
        "mobile",
        -1.0
      ],
      [
        "ĠLife",
        -1.0
      ],
      [
        "ĠRoman",
        -1.0
      ],
      [
        "eases",
        -1.0
      ],
      [
        "Ġread",
        -1.0
      ],
      [
        "Ġmetal",
        -1.0
      ],
      [
        "ĠWork",
        -1.0
      ],
      [
        "oats",
        -1.0
      ],
      [
        "February",
        -1.0
      ],
      [
        "Ġwind",
        -1.0
      ],
      [
        "Ġdie",
        -1.0
      ],
      [
        "ĠFort",
        -1.0
      ],
      [
        "Ġinformation",
        -1.0
      ],
      [
        "Ġenter",
        -1.0
      ],
      [
        "actors",
        -1.0
      ],
      [
        "Here",
        -1.0
      ],
      [
        "Ġhuman",
        -1.0
      ],
      [
        "Ġhere",
        -1.0
      ],
      [
        "ĠKing",
        -1.0
      ],
      [
        "Ġcard",
        -1.0
      ],
      [
        "lux",
        -1.0
      ],
      [
        "\".",
        -1.0
      ],
      [
        "jection",
        -1.0
      ],
      [
        "itted",
        -1.0
      ],
      [
        "Ġenvironment",
        -1.0
      ],
      [
        "missions",
        -1.0
      ],
      [
        "Ġbus",
        -1.0
      ],
      [
        "tains",
        -1.0
      ],
      [
        "Ġpower",
        -1.0
      ],
      [
        "ounding",
        -1.0
      ],
      [
        "eaker",
        -1.0
      ],
      [
        "Ġstate",
        -1.0
      ],
      [
        "eaking",
        -1.0
      ],
      [
        "ĠChristian",
        -1.0
      ],
      [
        "traction",
        -1.0
      ],
      [
        "minated",
        -1.0
      ],
      [
        "early",
        -1.0
      ],
      [
        "atching",
        -1.0
      ],
      [
        "ĠNational",
        -1.0
      ],
      [
        "vents",
        -1.0
      ],
      [
        "December",
        -1.0
      ],
      [
        "\")",
        -1.0
      ],
      [
        "Ġsand",
        -1.0
      ],
      [
        "Ġfire",
        -1.0
      ],
      [
        "Ġdifferent",
        -1.0
      ],
      [
        "ĠPhys",
        -1.0
      ],
      [
        "Ġtoo",
        -1.0
      ],
      [
        "ĠFrank",
        -1.0
      ],
      [
        "September",
        -1.0
      ],
      [
        "Ġschool",
        -1.0
      ],
      [
        "Ġcell",
        -1.0
      ],
      [
        "Ġalso",
        -1.0
      ],
      [
        "November",
        -1.0
      ],
      [
        "Ġthere",
        -1.0
      ],
      [
        "oping",
        -1.0
      ],
      [
        "ĠSystem",
        -1.0
      ],
      [
        "Ġproduct",
        -1.0
      ],
      [
        "Ġone",
        -1.0
      ],
      [
        "Ġthis",
        -1.0
      ],
      [
        "Ġever",
        -1.0
      ],
      [
        "Ġdisease",
        -1.0
      ],
      [
        "Ġself",
        -1.0
      ],
      [
        "Ġlife",
        -1.0
      ],
      [
        "Ġnation",
        -1.0
      ],
      [
        "ĠSchool",
        -1.0
      ],
      [
        "lays",
        -1.0
      ],
      [
        "Ġcamp",
        -1.0
      ],
      [
        "arker",
        -1.0
      ],
      [
        "arily",
        -1.0
      ],
      [
        "Ġproblem",
        -1.0
      ],
      [
        "Ġdon",
        -1.0
      ],
      [
        "ĠRead",
        -1.0
      ],
      [
        "January",
        -1.0
      ],
      [
        "Ġfat",
        -1.0
      ],
      [
        "eeping",
        -1.0
      ],
      [
        "ĠDay",
        -1.0
      ],
      [
        "ĠHill",
        -1.0
      ],
      [
        "Ġtheir",
        -1.0
      ],
      [
        "Ġline",
        -1.0
      ],
      [
        "Ġarm",
        -1.0
      ],
      [
        "Ġanthrop",
        -1.0
      ],
      [
        "vascular",
        -1.0
      ],
      [
        "ĠGerman",
        -1.0
      ],
      [
        "Ġmath",
        -1.0
      ],
      [
        "vels",
        -1.0
      ],
      [
        "ifies",
        -1.0
      ],
      [
        "ĠHistory",
        -1.0
      ],
      [
        "ĠGood",
        -1.0
      ],
      [
        "borne",
        -1.0
      ],
      [
        "Ġ45",
        -1.0
      ],
      [
        "aked",
        -1.0
      ],
      [
        "ailing",
        -1.0
      ],
      [
        "Ġmain",
        -1.0
      ],
      [
        "aved",
        -1.0
      ],
      [
        "taining",
        -1.0
      ],
      [
        "enters",
        -1.0
      ],
      [
        "itors",
        -1.0
      ],
      [
        "Ġ-",
        -1.0
      ],
      [
        "Ġproject",
        -1.0
      ],
      [
        "Ġfact",
        -1.0
      ],
      [
        "Ġbit",
        -1.0
      ],
      [
        "ĠIndia",
        -1.0
      ],
      [
        "ipping",
        -1.0
      ],
      [
        "icking",
        -1.0
      ],
      [
        "Question",
        -1.0
      ],
      [
        "Ġside",
        -1.0
      ],
      [
        "Ġwho",
        -1.0
      ],
      [
        "iary",
        -1.0
      ],
      [
        "sely",
        -1.0
      ],
      [
        "marks",
        -1.0
      ],
      [
        "gated",
        -1.0
      ],
      [
        "Ġthin",
        -1.0
      ],
      [
        "Ġ50",
        -1.0
      ],
      [
        "Ġwhite",
        -1.0
      ],
      [
        "Ġbook",
        -1.0
      ],
      [
        "ĠSpace",
        -1.0
      ],
      [
        "Last",
        -1.0
      ],
      [
        "Ġobject",
        -1.0
      ],
      [
        "Ġmagnet",
        -1.0
      ],
      [
        "tually",
        -1.0
      ],
      [
        "axis",
        -1.0
      ],
      [
        "Ġcorn",
        -1.0
      ],
      [
        "Portuguese",
        -1.0
      ],
      [
        "Ġeffect",
        -1.0
      ],
      [
        "ĠMartin",
        -1.0
      ],
      [
        "Ġnone",
        -1.0
      ],
      [
        "oxide",
        -1.0
      ],
      [
        "Ġ80",
        -1.0
      ],
      [
        "www",
        -1.0
      ],
      [
        "formed",
        -1.0
      ],
      [
        "ĠProgram",
        -1.0
      ],
      [
        "ĠGrand",
        -1.0
      ],
      [
        "Ġpath",
        -1.0
      ],
      [
        "Ġpast",
        -1.0
      ],
      [
        "ĠâĢľ",
        -1.0
      ],
      [
        "Ġhouse",
        -1.0
      ],
      [
        "Ġterm",
        -1.0
      ],
      [
        ".)",
        -1.0
      ],
      [
        "Ġchange",
        -1.0
      ],
      [
        "related",
        -1.0
      ],
      [
        "Ġtrip",
        -1.0
      ],
      [
        "Although",
        -1.0
      ],
      [
        "Ġhealth",
        -1.0
      ],
      [
        "Ġspace",
        -1.0
      ],
      [
        "Ġshor",
        -1.0
      ],
      [
        "ĠLaw",
        -1.0
      ],
      [
        "Ġmark",
        -1.0
      ],
      [
        "ĠOne",
        -1.0
      ],
      [
        "Ġeven",
        -1.0
      ],
      [
        "ĠBill",
        -1.0
      ],
      [
        "Ġdam",
        -1.0
      ],
      [
        "Ġground",
        -1.0
      ],
      [
        "ĠÂ",
        -1.0
      ],
      [
        "Ġearth",
        -1.0
      ],
      [
        "Ġhear",
        -1.0
      ],
      [
        "Ġgovern",
        -1.0
      ],
      [
        "ĠII",
        -1.0
      ],
      [
        "conscious",
        -1.0
      ],
      [
        "ĠProject",
        -1.0
      ],
      [
        "Ġwill",
        -1.0
      ],
      [
        "ĠChild",
        -1.0
      ],
      [
        "lots",
        -1.0
      ],
      [
        "Ġdirect",
        -1.0
      ],
      [
        "Ġwood",
        -1.0
      ],
      [
        "Ġ150",
        -1.0
      ],
      [
        "rays",
        -1.0
      ],
      [
        "acked",
        -1.0
      ],
      [
        "Students",
        -1.0
      ],
      [
        "Ġcolor",
        -1.0
      ],
      [
        "dated",
        -1.0
      ],
      [
        "Click",
        -1.0
      ],
      [
        "Ġconsider",
        -1.0
      ],
      [
        "Ġrob",
        -1.0
      ],
      [
        "ĠPaul",
        -1.0
      ],
      [
        "posed",
        -1.0
      ],
      [
        "oted",
        -1.0
      ],
      [
        "anting",
        -1.0
      ],
      [
        "inity",
        -1.0
      ],
      [
        "Ġstand",
        -1.0
      ],
      [
        "ĠWell",
        -1.0
      ],
      [
        "ĠEast",
        -1.0
      ],
      [
        "ported",
        -1.0
      ],
      [
        "rying",
        -1.0
      ],
      [
        "Ġ70",
        -1.0
      ],
      [
        "Ġday",
        -1.0
      ],
      [
        "Ġplay",
        -1.0
      ],
      [
        "ealing",
        -1.0
      ],
      [
        "Ġ--",
        -1.0
      ],
      [
        "shore",
        -1.0
      ],
      [
        "ĠRiver",
        -1.0
      ],
      [
        "Most",
        -1.0
      ],
      [
        "Ġpopulation",
        -1.0
      ],
      [
        "Ġtext",
        -1.0
      ],
      [
        "Ġlet",
        -1.0
      ],
      [
        "mits",
        -1.0
      ],
      [
        "Ġbed",
        -1.0
      ],
      [
        "ĠPark",
        -1.0
      ],
      [
        "Ġopen",
        -1.0
      ],
      [
        "Ġcost",
        -1.0
      ],
      [
        "ĠMore",
        -1.0
      ],
      [
        "ĠMD",
        -1.0
      ],
      [
        "ailed",
        -1.0
      ],
      [
        "Ġgeneral",
        -1.0
      ],
      [
        "Ġyear",
        -1.0
      ],
      [
        "Ġball",
        -1.0
      ],
      [
        "Ġresearch",
        -1.0
      ],
      [
        "These",
        -1.0
      ],
      [
        "ĠPress",
        -1.0
      ],
      [
        "Ġrepresent",
        -1.0
      ],
      [
        "Origin",
        -1.0
      ],
      [
        "Ġhard",
        -1.0
      ],
      [
        "Ġafter",
        -1.0
      ],
      [
        "Ġrub",
        -1.0
      ],
      [
        "Many",
        -1.0
      ],
      [
        "Ġmaterial",
        -1.0
      ],
      [
        "Ġshow",
        -1.0
      ],
      [
        "Ġnews",
        -1.0
      ],
      [
        "Ġfunction",
        -1.0
      ],
      [
        "ĠService",
        -1.0
      ],
      [
        "Ġauthor",
        -1.0
      ],
      [
        "ĠMarch",
        -1.0
      ],
      [
        "called",
        -1.0
      ],
      [
        "ĠAge",
        -1.0
      ],
      [
        "ĠHigh",
        -1.0
      ],
      [
        "About",
        -1.0
      ],
      [
        "osity",
        -1.0
      ],
      [
        "Ġgrand",
        -1.0
      ],
      [
        "Ġcontrol",
        -1.0
      ],
      [
        "Ġ75",
        -1.0
      ],
      [
        "Ġword",
        -1.0
      ],
      [
        "Ġlive",
        -1.0
      ],
      [
        "ĠâĢĺ",
        -1.0
      ],
      [
        "Ġjust",
        -1.0
      ],
      [
        "Ġband",
        -1.0
      ],
      [
        "Ġpresent",
        -1.0
      ],
      [
        "ĠIP",
        -1.0
      ],
      [
        "Ġage",
        -1.0
      ],
      [
        "Ġ'",
        -1.0
      ],
      [
        "People",
        -1.0
      ],
      [
        "ĠEnglish",
        -1.0
      ],
      [
        "eased",
        -1.0
      ],
      [
        "apped",
        -1.0
      ],
      [
        "Ġindividual",
        -1.0
      ],
      [
        "ĠAfrica",
        -1.0
      ],
      [
        "Other",
        -1.0
      ],
      [
        "eaks",
        -1.0
      ],
      [
        "ayed",
        -1.0
      ],
      [
        "acting",
        -1.0
      ],
      [
        "Ġstudent",
        -1.0
      ],
      [
        "ĠJohn",
        -1.0
      ],
      [
        "ĠEducation",
        -1.0
      ],
      [
        "Ġpublic",
        -1.0
      ],
      [
        "ĠEurope",
        -1.0
      ],
      [
        "October",
        -1.0
      ],
      [
        "Ġput",
        -1.0
      ],
      [
        "ĠFish",
        -1.0
      ],
      [
        "tained",
        -1.0
      ],
      [
        "Example",
        -1.0
      ],
      [
        "Ġits",
        -1.0
      ],
      [
        "Ġcollect",
        -1.0
      ],
      [
        "Ġinvest",
        -1.0
      ],
      [
        "ĠJust",
        -1.0
      ],
      [
        "Ġshort",
        -1.0
      ],
      [
        "Ġpress",
        -1.0
      ],
      [
        "Ġalter",
        -1.0
      ],
      [
        "Ġbrain",
        -1.0
      ],
      [
        "original",
        -1.0
      ],
      [
        "ĠMary",
        -1.0
      ],
      [
        "reads",
        -1.0
      ],
      [
        "rely",
        -1.0
      ],
      [
        "Ġfront",
        -1.0
      ],
      [
        "Ġgovernment",
        -1.0
      ],
      [
        "Ġcare",
        -1.0
      ],
      [
        "Ġlow",
        -1.0
      ],
      [
        "Ġfish",
        -1.0
      ],
      [
        "Ġcondition",
        -1.0
      ],
      [
        "Ġdevelopment",
        -1.0
      ],
      [
        "easing",
        -1.0
      ],
      [
        "Ġpeople",
        -1.0
      ],
      [
        "Ġchildren",
        -1.0
      ],
      [
        "umes",
        -1.0
      ],
      [
        "Ġwell",
        -1.0
      ],
      [
        "Ġlate",
        -1.0
      ],
      [
        "ĠGlobal",
        -1.0
      ],
      [
        "ĠGeneral",
        -1.0
      ],
      [
        "Ġsent",
        -1.0
      ],
      [
        "forming",
        -1.0
      ],
      [
        "icing",
        -1.0
      ],
      [
        "ĠResources",
        -1.0
      ],
      [
        "Ġkey",
        -1.0
      ],
      [
        "Ġmethod",
        -1.0
      ],
      [
        "Ġmedia",
        -1.0
      ],
      [
        "ĠDirect",
        -1.0
      ],
      [
        "acted",
        -1.0
      ],
      [
        "ĠCenter",
        -1.0
      ],
      [
        "covered",
        -1.0
      ],
      [
        "Ġfoot",
        -1.0
      ],
      [
        "nants",
        -1.0
      ],
      [
        "Ġquestion",
        -1.0
      ],
      [
        "Ġplane",
        -1.0
      ],
      [
        "Ġnational",
        -1.0
      ],
      [
        "Ġblue",
        -1.0
      ],
      [
        "Ġbig",
        -1.0
      ],
      [
        "Ġany",
        -1.0
      ],
      [
        "Ġwhich",
        -1.0
      ],
      [
        "Ġfirst",
        -1.0
      ],
      [
        ")|",
        -1.0
      ],
      [
        "Ġknow",
        -1.0
      ],
      [
        "ĠStates",
        -1.0
      ],
      [
        "ĠResearch",
        -1.0
      ],
      [
        "idity",
        -1.0
      ],
      [
        "erators",
        -1.0
      ],
      [
        "eels",
        -1.0
      ],
      [
        "Ġhave",
        -1.0
      ],
      [
        "ĠAugust",
        -1.0
      ],
      [
        "html",
        -1.0
      ],
      [
        "Ġlanguage",
        -1.0
      ],
      [
        "Ġcome",
        -1.0
      ],
      [
        "Ġdesign",
        -1.0
      ],
      [
        "pressed",
        -1.0
      ],
      [
        "Ġgroup",
        -1.0
      ],
      [
        "ĠList",
        -1.0
      ],
      [
        "Download",
        -1.0
      ],
      [
        "example",
        -1.0
      ],
      [
        "Ġsnow",
        -1.0
      ],
      [
        "ĠEnvironment",
        -1.0
      ],
      [
        "Ġstereo",
        -1.0
      ],
      [
        "Ġconnect",
        -1.0
      ],
      [
        "ibly",
        -1.0
      ],
      [
        "Ġexperiment",
        -1.0
      ],
      [
        "Ġthese",
        -1.0
      ],
      [
        "Ġwere",
        -1.0
      ],
      [
        "Ġperiod",
        -1.0
      ],
      [
        "Ġrock",
        -1.0
      ],
      [
        "Ġlist",
        -1.0
      ],
      [
        "roscopic",
        -1.0
      ],
      [
        "Ġvideo",
        -1.0
      ],
      [
        "Ġstart",
        -1.0
      ],
      [
        "ĠHow",
        -1.0
      ],
      [
        "Ġname",
        -1.0
      ],
      [
        "Ġ[",
        -1.0
      ],
      [
        "ĠOcean",
        -1.0
      ],
      [
        "coming",
        -1.0
      ],
      [
        "ĠFood",
        -1.0
      ],
      [
        "ĠUniversity",
        -1.0
      ],
      [
        "Ġplace",
        -1.0
      ],
      [
        "ĠChina",
        -1.0
      ],
      [
        "Ġ65",
        -1.0
      ],
      [
        "Ġrun",
        -1.0
      ],
      [
        "Ġpain",
        -1.0
      ],
      [
        "Ġlocal",
        -1.0
      ],
      [
        "ĠFund",
        -1.0
      ],
      [
        "While",
        -1.0
      ],
      [
        "Ġcolon",
        -1.0
      ],
      [
        "Ġmass",
        -1.0
      ],
      [
        "ĠBank",
        -1.0
      ],
      [
        "Ġscience",
        -1.0
      ],
      [
        "Ġhistory",
        -1.0
      ],
      [
        "ĠPeter",
        -1.0
      ],
      [
        "ipped",
        -1.0
      ],
      [
        "Ġregion",
        -1.0
      ],
      [
        "Ġteach",
        -1.0
      ],
      [
        "Ġright",
        -1.0
      ],
      [
        "Ġblood",
        -1.0
      ],
      [
        "Ġeducation",
        -1.0
      ],
      [
        "rises",
        -1.0
      ],
      [
        "Ġphotos",
        -1.0
      ],
      [
        "Our",
        -1.0
      ],
      [
        "Ġfour",
        -1.0
      ],
      [
        "Ġsuccess",
        -1.0
      ],
      [
        "Ġevent",
        -1.0
      ],
      [
        "tably",
        -1.0
      ],
      [
        "Ġmay",
        -1.0
      ],
      [
        "ĠHuman",
        -1.0
      ],
      [
        "Ġdid",
        -1.0
      ],
      [
        "Ġbest",
        -1.0
      ],
      [
        "Ġmap",
        -1.0
      ],
      [
        "Ġhabit",
        -1.0
      ],
      [
        "Ġinterpret",
        -1.0
      ],
      [
        "Ġarea",
        -1.0
      ],
      [
        "ĠBC",
        -1.0
      ],
      [
        "Ġthan",
        -1.0
      ],
      [
        "Ġheart",
        -1.0
      ],
      [
        "Ġfood",
        -1.0
      ],
      [
        "Ġgame",
        -1.0
      ],
      [
        "void",
        -1.0
      ],
      [
        "dimensional",
        -1.0
      ],
      [
        "Ġnorth",
        -1.0
      ],
      [
        "Ġlymph",
        -1.0
      ],
      [
        "Ġorigin",
        -1.0
      ],
      [
        "Ġmake",
        -1.0
      ],
      [
        "Ġreport",
        -1.0
      ],
      [
        "Ġanimal",
        -1.0
      ],
      [
        "Ġdocument",
        -1.0
      ],
      [
        "Ġeye",
        -1.0
      ],
      [
        "Ġtreat",
        -1.0
      ],
      [
        "Ġimage",
        -1.0
      ],
      [
        "ĠHere",
        -1.0
      ],
      [
        "ĠArab",
        -1.0
      ],
      [
        "Ġlaw",
        -1.0
      ],
      [
        "Ġyour",
        -1.0
      ],
      [
        "uated",
        -1.0
      ],
      [
        "Ġrefer",
        -1.0
      ],
      [
        "Ġlearn",
        -1.0
      ],
      [
        "ĠUse",
        -1.0
      ],
      [
        "tended",
        -1.0
      ],
      [
        "Ġsecond",
        -1.0
      ],
      [
        "Ġexpress",
        -1.0
      ],
      [
        "lined",
        -1.0
      ],
      [
        "Ġparticular",
        -1.0
      ],
      [
        "Ġcomputer",
        -1.0
      ],
      [
        "Ġtree",
        -1.0
      ],
      [
        "Ġresource",
        -1.0
      ],
      [
        "served",
        -1.0
      ],
      [
        "Ġfile",
        -1.0
      ],
      [
        "Ġthrough",
        -1.0
      ],
      [
        "Ġdog",
        -1.0
      ],
      [
        "'.",
        -1.0
      ],
      [
        "Ġinto",
        -1.0
      ],
      [
        "ĠMount",
        -1.0
      ],
      [
        "ĠCourt",
        -1.0
      ],
      [
        "Ġhad",
        -1.0
      ],
      [
        "ĠDevelop",
        -1.0
      ],
      [
        "Ġmind",
        -1.0
      ],
      [
        "Ġfield",
        -1.0
      ],
      [
        "ĠMr",
        -1.0
      ],
      [
        "orated",
        -1.0
      ],
      [
        "finite",
        -1.0
      ],
      [
        "Ġcommon",
        -1.0
      ],
      [
        "Ġflow",
        -1.0
      ],
      [
        "ĠCity",
        -1.0
      ],
      [
        "Ġevery",
        -1.0
      ],
      [
        "ĠHouse",
        -1.0
      ],
      [
        "atches",
        -1.0
      ],
      [
        "ĠMake",
        -1.0
      ],
      [
        "erted",
        -1.0
      ],
      [
        "Contact",
        -1.0
      ],
      [
        "Ġgrad",
        -1.0
      ],
      [
        "ĠControl",
        -1.0
      ],
      [
        "Ġproper",
        -1.0
      ],
      [
        "Ġcancer",
        -1.0
      ],
      [
        ");",
        -1.0
      ],
      [
        "Ġmodel",
        -1.0
      ],
      [
        "Ġservice",
        -1.0
      ],
      [
        "Ġstep",
        -1.0
      ],
      [
        "Ġinfection",
        -1.0
      ],
      [
        "Ġthy",
        -1.0
      ],
      [
        "Ġacid",
        -1.0
      ],
      [
        "Ġspecial",
        -1.0
      ],
      [
        "ĠDevelopment",
        -1.0
      ],
      [
        "That",
        -1.0
      ],
      [
        "Ġtechnology",
        -1.0
      ],
      [
        "Ġtradition",
        -1.0
      ],
      [
        "Ġsky",
        -1.0
      ],
      [
        "sized",
        -1.0
      ],
      [
        "known",
        -1.0
      ],
      [
        "Ġsouth",
        -1.0
      ],
      [
        "ĠNature",
        -1.0
      ],
      [
        "ĠEnergy",
        -1.0
      ],
      [
        "Ġbill",
        -1.0
      ],
      [
        "Ġsmall",
        -1.0
      ],
      [
        "Ġpoint",
        -1.0
      ],
      [
        "According",
        -1.0
      ],
      [
        "Ġwild",
        -1.0
      ],
      [
        "Ġparent",
        -1.0
      ],
      [
        "Ġmine",
        -1.0
      ],
      [
        "Ġprovide",
        -1.0
      ],
      [
        ".|",
        -1.0
      ],
      [
        "Ġsoft",
        -1.0
      ],
      [
        "ĠChurch",
        -1.0
      ],
      [
        "Ġstudy",
        -1.0
      ],
      [
        "Ġexist",
        -1.0
      ],
      [
        "Ġbad",
        -1.0
      ],
      [
        "ĠSome",
        -1.0
      ],
      [
        "Ġsocial",
        -1.0
      ],
      [
        "ĠPublic",
        -1.0
      ],
      [
        "Ġhorse",
        -1.0
      ],
      [
        "ĠStudent",
        -1.0
      ],
      [
        "Ġlink",
        -1.0
      ],
      [
        "Ġlike",
        -1.0
      ],
      [
        "ĠChange",
        -1.0
      ],
      [
        "ushing",
        -1.0
      ],
      [
        "SQL",
        -1.0
      ],
      [
        "fits",
        -1.0
      ],
      [
        "Ġsource",
        -1.0
      ],
      [
        "ĠIslam",
        -1.0
      ],
      [
        "ĠBrown",
        -1.0
      ],
      [
        "ĠOld",
        -1.0
      ],
      [
        "appropriate",
        -1.0
      ],
      [
        "Ġhim",
        -1.0
      ],
      [
        "ĠIndian",
        -1.0
      ],
      [
        "Ġneed",
        -1.0
      ],
      [
        "Ġconstruct",
        -1.0
      ],
      [
        "Ġcode",
        -1.0
      ],
      [
        "Ġconcept",
        -1.0
      ],
      [
        "âĢĿ.",
        -1.0
      ],
      [
        "European",
        -1.0
      ],
      [
        "ĠLearning",
        -1.0
      ],
      [
        ".]",
        -1.0
      ],
      [
        "Ġthen",
        -1.0
      ],
      [
        "Ġpay",
        -1.0
      ],
      [
        "Ġnumber",
        -1.0
      ],
      [
        "Ġsex",
        -1.0
      ],
      [
        "Ġelement",
        -1.0
      ],
      [
        "Ġbase",
        -1.0
      ],
      [
        "Ġarticle",
        -1.0
      ],
      [
        "placement",
        -1.0
      ],
      [
        "Ġold",
        -1.0
      ],
      [
        "Ġgood",
        -1.0
      ],
      [
        "ĠDesign",
        -1.0
      ],
      [
        "scribed",
        -1.0
      ],
      [
        "Ġour",
        -1.0
      ],
      [
        "ĠTHE",
        -1.0
      ],
      [
        "Ġbird",
        -1.0
      ],
      [
        "Ġgreat",
        -1.0
      ],
      [
        "Ġfarm",
        -1.0
      ],
      [
        "ĠThis",
        -1.0
      ],
      [
        "Ġprint",
        -1.0
      ],
      [
        "Ġflat",
[...]
