{
  "version": "1.0",
  "truncation": null,
  "padding": null,
  "added_tokens": [
    {
      "id": 0,
      "content": "<|endoftext|>",
      "single_word": false,
      "lstrip": false,
      "rstrip": false,
      "normalized": false,
      "special": true
    },
    {
      "id": 1,
      "content": "<|padding|>",
      "single_word": false,
      "lstrip": false,
      "rstrip": false,
      "normalized": false,
      "special": true
    }
  ],
  "normalizer": {
    "type": "NFC"
  },
  "pre_tokenizer": {
    "type": "ByteLevel",
    "add_prefix_space": false,
    "trim_offsets": true,
    "use_regex": true
  },
  "post_processor": {
    "type": "ByteLevel",
    "add_prefix_space": true,
    "trim_offsets": false,
    "use_regex": true
  },
  "decoder": {
    "type": "ByteLevel",
    "add_prefix_space": true,
    "trim_offsets": true,
    "use_regex": true
  },
  "model": {
    "type": "BPE",
    "dropout": null,
    "unk_token": null,
    "continuing_subword_prefix": null,
    "end_of_word_suffix": null,
    "fuse_unk": false,
    "byte_fallback": false,
    "ignore_merges": false,
    "vocab": {
      "<|endoftext|>": 0,
      "<|padding|>": 1,
      "!": 2,
      "\"": 3,
      "#": 4,
      "$": 5,
      "%": 6,
      "&": 7,
      "'": 8,
      "(": 9,
      ")": 10,
      "*": 11,
      "+": 12,
      ",": 13,
      "-": 14,
      ".": 15,
      "/": 16,
      "0": 17,
      "1": 18,
      "2": 19,
      "3": 20,
      "4": 21,
      "5": 22,
      "6": 23,
      "7": 24,
      "8": 25,
      "9": 26,
      ":": 27,
      ";": 28,
      "<": 29,
      "=": 30,
      ">": 31,
      "?": 32,
      "@": 33,
      "A": 34,
      "B": 35,
      "C": 36,
      "D": 37,
      "E": 38,
      "F": 39,
      "G": 40,
      "H": 41,
      "I": 42,
      "J": 43,
      "K": 44,
      "L": 45,
      "M": 46,
      "N": 47,
      "O": 48,
      "P": 49,
      "Q": 50,
      "R": 51,
      "S": 52,
      "T": 53,
      "U": 54,
      "V": 55,
      "W": 56,
      "X": 57,
      "Y": 58,
      "Z": 59,
      "[": 60,
      "\\": 61,
      "]": 62,
      "^": 63,
      "_": 64,
      "`": 65,
      "a": 66,
      "b": 67,
      "c": 68,
      "d": 69,
      "e": 70,
      "f": 71,
      "g": 72,
      "h": 73,
      "i": 74,
      "j": 75,
      "k": 76,
      "l": 77,
      "m": 78,
      "n": 79,
      "o": 80,
      "p": 81,
      "q": 82,
      "r": 83,
      "s": 84,
      "t": 85,
      "u": 86,
      "v": 87,
      "w": 88,
      "x": 89,
      "y": 90,
      "z": 91,
      "|": 92,
      "}": 93,
      "~": 94,
      "¡": 95,
      "¢": 96,
      "£": 97,
      "¤": 98,
      "¥": 99,
      "¦": 100,
      "§": 101,
      "¨": 102,
      "©": 103,
      "ª": 104,
      "«": 105,
      "¬": 106,
      "®": 107,
      "¯": 108,
      "°": 109,
      "±": 110,
      "²": 111,
      "³": 112,
      "´": 113,
      "µ": 114,
      "¶": 115,
      "·": 116,
      "¸": 117,
      "¹": 118,
      "º": 119,
      "»": 120,
      "¼": 121,
      "½": 122,
      "¾": 123,
      "¿": 124,
      "Â": 125,
      "Ã": 126,
      "Ä": 127,
      "Å": 128,
      "Æ": 129,
      "Ç": 130,
      "È": 131,
      "É": 132,
      "Ê": 133,
      "Ë": 134,
      "Ì": 135,
      "Í": 136,
      "Î": 137,
      "Ï": 138,
      "Ð": 139,
      "Ñ": 140,
      "Ò": 141,
      "Ó": 142,
      "Ô": 143,
      "Õ": 144,
      "Ö": 145,
      "×": 146,
      "Ø": 147,
      "Ù": 148,
      "Ú": 149,
      "Û": 150,
      "Ü": 151,
      "Ý": 152,
      "Þ": 153,
      "ß": 154,
      "à": 155,
      "á": 156,
      "â": 157,
      "ã": 158,
      "ä": 159,
      "å": 160,
      "æ": 161,
      "ç": 162,
      "è": 163,
      "é": 164,
      "ê": 165,
      "ë": 166,
      "ì": 167,
      "í": 168,
      "ï": 169,
      "ð": 170,
      "ó": 171,
      "ĉ": 172,
      "Ċ": 173,
      "Ġ": 174,
      "Ģ": 175,
      "ģ": 176,
      "Ĥ": 177,
      "ĥ": 178,
      "Ħ": 179,
      "ħ": 180,
      "Ĩ": 181,
      "ĩ": 182,
      "Ī": 183,
      "ī": 184,
      "Ĭ": 185,
      "ĭ": 186,
      "Į": 187,
      "į": 188,
      "İ": 189,
      "ı": 190,
      "Ĳ": 191,
      "ĳ": 192,
      "Ĵ": 193,
      "ĵ": 194,
      "Ķ": 195,
      "ķ": 196,
      "ĸ": 197,
      "Ĺ": 198,
      "ĺ": 199,
      "Ļ": 200,
      "ļ": 201,
      "Ľ": 202,
      "ľ": 203,
      "Ŀ": 204,
      "ŀ": 205,
      "Ł": 206,
      "ł": 207,
      "Ń": 208,
      "th": 209,
      "the": 210,
      "in": 211,
      "an": 212,
      "on": 213,
      "Ġthe": 214,
      "ing": 215,
      "and": 216,
      "en": 217,
      "of": 218,
      "er": 219,
      "or": 220,
      "re": 221,
      "at": 222,
      "al": 223,
      "ar": 224,
      "Ġof": 225,
      "âĢ": 226,
      "ion": 227,
      "ou": 228,
      "ed": 229,
      "Ġw": 230,
      "Ġand": 231,
      "ation": 232,
      "ent": 233,
      "Th": 234,
      "for": 235,
      "to": 236,
      "Ġto": 237,
      "ro": 238,
      "st": 239,
      "Ġb": 240,
      "ch": 241,
      "it": 242,
      "Ġin": 243,
      "is": 244,
      "ic": 245,
      "Ġa": 246,
      "Ġp": 247,
      "Ġc": 248,
      "ct": 249,
      "es": 250,
      "that": 251,
      "Ġf": 252,
      "Ġh": 253,
      "Ġwh": 254,
      "ow": 255,
      "Ġpro": 256,
      "Ġbe": 257,
      "ver": 258,
      "ve": 259,
      "Ġs": 260,
      "as": 261,
      "om": 262,
      "Ġm": 263,
      "ly": 264,
      "le": 265,
      "gh": 266,
      "Ġcon": 267,
      "Ġd": 268,
      "The": 269,
      "Ġthat": 270,
      "Ġwi": 271,
      "Ġwith": 272,
      "Ġfor": 273,
      "ĠA": 274,
      "ĠS": 275,
      "ther": 276,
      "ment": 277,
      "ĠC": 278,
      "âĢĻ": 279,
      "Ġre": 280,
      "Ġcom": 281,
      "Ġare": 282,
      "ol": 283,
      "ra": 284,
      "Ġfro": 285,
      "Ġfrom": 286,
      "im": 287,
      "ex": 288,
      "Ġwas": 289,
      "il": 290,
      "ĠI": 291,
      "id": 292,
      "00": 293,
      "ur": 294,
      "qu": 295,
      "Ġis": 296,
      "Ġ(": 297,
      "Ġth": 298,
      "Ġn": 299,
      "un": 300,
      "ir": 301,
      "our": 302,
      "oun": 303,
      "ĠM": 304,
      "19": 305,
      "igh": 306,
      "us": 307,
      "am": 308,
      "ĠP": 309,
      "if": 310,
      "ce": 311,
      "Ġno": 312,
      "Ġby": 313,
      "ough": 314,
      "Ġon": 315,
      "Ġha": 316,
      "Ġhave": 317,
      "ay": 318,
      "ive": 319,
      "ble": 320,
      "ĠB": 321,
      "ction": 322,
      "ul": 323,
      "Ġl": 324,
      "Ġg": 325,
      "Ġt": 326,
      "ut": 327,
      "Ġex": 328,
      "ĠH": 329,
      "ĠThe": 330,
      "Ġthis": 331,
      "ist": 332,
      "Ġst": 333,
      "Ġnot": 334,
      "ity": 335,
      "ĠW": 336,
      "ĠIn": 337,
      "Ġas": 338,
      "ure": 339,
      "um": 340,
      "ter": 341,
      "ĠR": 342,
      "ĠD": 343,
      "ri": 344,
      "ĠF": 345,
      "ĠE": 346,
      "op": 347,
      "Ġde": 348,
      "âĢľ": 349,
      "âĢĿ": 350,
      "out": 351,
      "ight": 352,
      "ĠG": 353,
      "el": 354,
      "all": 355,
      "ĠN": 356,
      "Ġit": 357,
      "Ġsh": 358,
      "Ġsu": 359,
      "Ġ1": 360,
      "ĠL": 361,
      "ag": 362,
      "ical": 363,
      "ad": 364,
      "od": 365,
      "ain": 366,
      "Ġ2": 367,
      "ĠT": 368,
      "ies": 369,
      "Ġor": 370,
      "Ġan": 371,
      "Ġy": 372,
      "Ġyou": 373,
      "oul": 374,
      "ould": 375,
      "ud": 376,
      "Ġwil": 377,
      "ig": 378,
      "Ġwhi": 379,
      "Ġwhich": 380,
      "iv": 381,
      "other": 382,
      "Ġyour": 383,
      "Ġcan": 384,
      "ound": 385,
      "ĠJ": 386,
      "Ġwill": 387,
      "ak": 388,
      "em": 389,
      "ill": 390,
      "Ġch": 391,
      "ell": 392,
      "et": 393,
      "ant": 394,
      "Ġus": 395,
      "ĠTh": 396,
      "Ġv": 397,
      "ĠU": 398,
      "Ġun": 399,
      "iz": 400,
      "ect": 401,
      "art": 402,
      "ck": 403,
      "Ġwor": 404,
      "ci": 405,
      "ĠO": 406,
      "ence": 407,
      "over": 408,
      "'s": 409,
      "ish": 410,
      "est": 411,
      "Ġbut": 412,
      "Ġne": 413,
      "ces": 414,
      "ate": 415,
      "Ġat": 416,
      "Ġe": 417,
      "Ġ19": 418,
      "ous": 419,
      "os": 420,
      "ers": 421,
      "Ġstud": 422,
      "ition": 423,
      "Ġcomp": 424,
      "ort": 425,
      "port": 426,
      "Ġcont": 427,
      "ot": 428,
      "ult": 429,
      "ust": 430,
      "ast": 431,
      "ost": 432,
      "vel": 433,
      "Ġdis": 434,
      "Ġpre": 435,
      "Ġhas": 436,
      "Ġ200": 437,
      "ally": 438,
      "ated": 439,
      "Ġ\"": 440,
      "Ġother": 441,
      "Ġle": 442,
      "ood": 443,
      "og": 444,
      "olog": 445,
      "ign": 446,
      "ount": 447,
      "Ġall": 448,
      "Ġal": 449,
      "ome": 450,
      "bout": 451,
      "Ġabout": 452,
      "able": 453,
      "Ġtheir": 454,
      "ab": 455,
      "act": 456,
      "Ġr": 457,
      "Ġim": 458,
      "end": 459,
      "Ġexp": 460,
      "Ġk": 461,
      "Ġcomm": 462,
      "ach": 463,
      "Ġpart": 464,
      "Ġwork": 465,
      "ack": 466,
      "age": 467,
      "ff": 468,
      "âĢĵ": 469,
      "âĢĶ": 470,
      "ong": 471,
      "ĠK": 472,
      "form": 473,
      "velop": 474,
      "ang": 475,
      "ance": 476,
      "own": 477,
      "Ġhe": 478,
      "Ġhis": 479,
      "Ġsome": 480,
      "Ġsp": 481,
      "ap": 482,
      "ĠCh": 483,
      "Ġpl": 484,
      "Ġdevelop": 485,
      "ject": 486,
      "ffect": 487,
      "ard": 488,
      "Ġev": 489,
      "Ġout": 490,
      "Ġj": 491,
      "Ġmor": 492,
      "Ġmore": 493,
      "pp": 494,
      "Ġapp": 495,
      "Ġtim": 496,
      "Ġhigh": 497,
      "Ġhad": 498,
      "du": 499,
      "ru": 500,
      "Ġwould": 501,
      "ear": 502,
      "Ġyear": 503,
      "earch": 504,
      "Ġwer": 505,
      "Ġwere": 506,
      "Ġwe": 507,
      "ace": 508,
      "Ġse": 509,
      "ĠâĢľ": 510,
      "Ġthan": 511,
      "Ġres": 512,
      "ild": 513,
      "Ġchild": 514,
      "Ġ20": 515,
      "ĠThis": 516,
      "irst": 517,
      "Ġfirst": 518,
      "ĠUn": 519,
      "Ġdo": 520,
      "Ġwho": 521,
      "ok": 522,
      "ook": 523,
      "aus": 524,
      "Ġprodu": 525,
      "ĠV": 526,
      "up": 527,
      "Ġup": 528,
      "Ġen": 529,
      "ary": 530,
      "ople": 531,
      "ob": 532,
      "rough": 533,
      "Ġthrough": 534,
      "Ġnew": 535,
      "Ġsuch": 536,
      "ub": 537,
      "Ġkn": 538,
      "Ġman": 539,
      "ĠSt": 540,
      "Ġresearch": 541,
      "Ġmay": 542,
      "lud": 543,
      "clud": 544,
      "Ġshould": 545,
      "Ġinclud": 546,
      "reat": 547,
      "ire": 548,
      "are": 549,
      "oc": 550,
      "ia": 551,
      "av": 552,
      "iff": 553,
      "Ġdiff": 554,
      "ew": 555,
      "ph": 556,
      "Ġmost": 557,
      "stem": 558,
      "ystem": 559,
      "Ġwhen": 560,
      "Ġso": 561,
      "Ġad": 562,
      "Ġund": 563,
      "Ġunder": 564,
      "ution": 565,
      "Ġinto": 566,
      "ess": 567,
      "Ġals": 568,
      "Ġalso": 569,
      "Ġover": 570,
      "cess": 571,
      "ific": 572,
      "ian": 573,
      "ik": 574,
      "Ġlik": 575,
      "res": 576,
      "ress": 577,
      "Ġimp": 578,
      "eople": 579,
      "Ġpeople": 580,
      "ind": 581,
      "dition": 582,
      "ber": 583,
      "ĠY": 584,
      "Ġop": 585,
      "Ġqu": 586,
      ").": 587,
      "ities": 588,
      "Ġcl": 589,
      "very": 590,
      "ubl": 591,
      "Ġsystem": 592,
      "ater": 593,
      "ine": 594,
      "ide": 595,
      "ations": 596,
      "ake": 597,
      "Ġper": 598,
      "Ġimport": 599,
      "lect": 600,
      "Ġwater": 601,
      "Ġchang": 602,
      "Ġinter": 603,
      "ĠIt": 604,
      "pt": 605,
      "Ġ18": 606,
      "iver": 607,
      "ose": 608,
      "Ġhow": 609,
      "low": 610,
      "Ġ3": 611,
      "formation": 612,
      "ac": 613,
      "old": 614,
      "Ġbeen": 615,
      "Ġtime": 616,
      "Ġcould": 617,
      "Ġtra": 618,
      "Ġwhat": 619,
      "ge": 620,
      "Ġ201": 621,
      "Ġjust": 622,
      "ative": 623,
      "ail": 624,
      "row": 625,
      "Ġtw": 626,
      "Ġtwo": 627,
      "Ġthose": 628,
      "ry": 629,
      "ric": 630,
      "ran": 631,
      "ip": 632,
      "ial": 633,
      "Ġra": 634,
      "rit": 635,
      "ause": 636,
      "Ġone": 637,
      "Ġspe": 638,
      "ame": 639,
      "amp": 640,
      "ates": 641,
      "Ġonly": 642,
      "ious": 643,
      "Ġwell": 644,
      "Ġprov": 645,
      "cept": 646,
      "ord": 647,
      "Ġmany": 648,
      "ory": 649,
      "Ġac": 650,
      "ĠWh": 651,
      "Ġknow": 652,
      "Ġeffect": 653,
      "fter": 654,
      "Ġlike": 655,
      "Ġbec": 656,
      "Ġbecause": 657,
      "Ġtran": 658,
      "Ġhel": 659,
      "Ġhelp": 660,
      "ility": 661,
      "Ġob": 662,
      "Ġresult": 663,
      "Ġsub": 664,
      "rib": 665,
      "||": 666,
      "cial": 667,
      "ational": 668,
      "Ġdiffer": 669,
      "ature": 670,
      "Ġits": 671,
      "erv": 672,
      "Ġif": 673,
      "Ġar": 674,
      "ĠUniver": 675,
      "Ġpubl": 676,
      "ove": 677,
      "ible": 678,
      "ular": 679,
      "ark": 680,
      "Ġway": 681,
      "cre": 682,
      "creas": 683,
      "ass": 684,
      "Ġacc": 685,
      "Ġrec": 686,
      "Ġlevel": 687,
      "Ġnum": 688,
      "Ġnumber": 689,
      "ollow": 690,
      "Ġcol": 691,
      "ram": 692,
      "Ġme": 693,
      "ib": 694,
      "Ġact": 695,
      "ract": 696,
      "Ġspec": 697,
      "Ġimportant": 698,
      "ful": 699,
      "Ġafter": 700,
      "Ġneed": 701,
      "ĠAn": 702,
      "In": 703,
      "ĠNew": 704,
      "Ġour": 705,
      "Ġem": 706,
      "Ġgr": 707,
      "Ġgrou": 708,
      "Ġgen": 709,
      "Ġ199": 710,
      "Ġro": 711,
      "stru": 712,
      "gram": 713,
      "Ġprogram": 714,
      "con": 715,
      "Ġproble": 716,
      "Ġprocess": 717,
      "quire": 718,
      "Ġcommun": 719,
      "ens": 720,
      "ren": 721,
      "Ġchildren": 722,
      "Ġpr": 723,
      "ology": 724,
      "Ġthey": 725,
      "Ġcount": 726,
      "Ġph": 727,
      "Ġstudent": 728,
      "Ġdifferent": 729,
      "ions": 730,
      "Ġcons": 731,
      "ool": 732,
      "chool": 733,
      "Ġexamp": 734,
      "Ġpos": 735,
      "000": 736,
      "Ġused": 737,
      "Ġuse": 738,
      "Ġany": 739,
      "Ġag": 740,
      "Ġagain": 741,
      "ink": 742,
      "Ġpres": 743,
      "Ġevery": 744,
      "Ġvery": 745,
      "Ġeach": 746,
      "Ġknown": 747,
      "Ġinformation": 748,
      "ere": 749,
      "Ġwhere": 750,
      "ase": 751,
      "ual": 752,
      "ree": 753,
      "Ġfollow": 754,
      "Ġfound": 755,
      "Ġlong": 756,
      "aw": 757,
      "Ġ4": 758,
      "Ġright": 759,
      "Ġthree": 760,
      "ov": 761,
      "Ġincreas": 762,
      "way": 763,
      "overn": 764,
      "overnment": 765,
      "Ġeven": 766,
      "Ġgener": 767,
      "Ġdes": 768,
      "Ġdesign": 769,
      "ually": 770,
      "Ġ-": 771,
      "Ġgreat": 772,
      "ident": 773,
      "Ġyears": 774,
      "Ġlif": 775,
      "irect": 776,
      "pl": 777,
      "rop": 778,
      "Ġgroup": 779,
      "Ġmake": 780,
      "raph": 781,
      "alth": 782,
      "Ġhealth": 783,
      "ath": 784,
      "Ġtrans": 785,
      "aid": 786,
      "Ġsaid": 787,
      "Wh": 788,
      "Ġbet": 789,
      "Ġbetw": 790,
      "Ġbetwe": 791,
      "Ġbetween": 792,
      "ward": 793,
      "ext": 794,
      "Ġte": 795,
      "Ġtech": 796,
      "Ġtechn": 797,
      "Ġteach": 798,
      "ĠAm": 799,
      "ĠAmer": 800,
      "ĠAmeric": 801,
      "ĠAmerican": 802,
      "ick": 803,
      "ĠEn": 804,
      "Ġear": 805,
      "aterial": 806,
      "Ġday": 807,
      "Ġworl": 808,
      "Ġworld": 809,
      "Ġrel": 810,
      "Ġreg": 811,
      "Ġrequire": 812,
      "uman": 813,
      "Ġhuman": 814,
      "iew": 815,
      "tain": 816,
      "Ġ5": 817,
      "ower": 818,
      "Ġclass": 819,
      "Ġsign": 820,
      "Ġproblem": 821,
      "Ġform": 822,
      "Ġprovid": 823,
      "Ġresp": 824,
      "ep": 825,
      "Ġwrit": 826,
      "Ġbl": 827,
      "les": 828,
      "land": 829,
      "ĠAl": 830,
      "uch": 831,
      "Ġmuch": 832,
      "Ġpartic": 833,
      "one": 834,
      "ice": 835,
      "ue": 836,
      "ite": 837,
      "se": 838,
      "Ġthese": 839,
      "fore": 840,
      "Ġbefore": 841,
      "Ġab": 842,
      "olution": 843,
      "Ġpol": 844,
      "Ġsup": 845,
      "Ġsupport": 846,
      "Ġind": 847,
      "),": 848,
      "Ġthere": 849,
      "Ġaround": 850,
      "Ġwhile": 851,
      "Ġatt": 852,
      "Ġschool": 853,
      "Ġgrow": 854,
      "Ġgovernment": 855,
      "Ġmod": 856,
      "Ġshow": 857,
      "Ġloc": 858,
      "ments": 859,
      "ically": 860,
      "Ġthough": 861,
      "Ġcall": 862,
      "Ġbo": 863,
      "Ġboth": 864,
      "Ġstudy": 865,
      "istory": 866,
      "int": 867,
      "oint": 868,
      "Ġactiv": 869,
      "Ġreport": 870,
      "Ġsur": 871,
      "Ġpower": 872,
      "red": 873,
      "Ġparticular": 874,
      "Ġelect": 875,
      "Ġlead": 876,
      "Ġmean": 877,
      "cient": 878,
      "cience": 879,
      "Ġpers": 880,
      "Ġperson": 881,
      "uild": 882,
      "Ġthink": 883,
      "vent": 884,
      "ever": 885,
      "ĠHe": 886,
      "ie": 887,
      "arge": 888,
      "Ġlarge": 889,
      "urn": 890,
      "Ġprof": 891,
      "hip": 892,
      "Ġsay": 893,
      "elf": 894,
      "Ġplant": 895,
      "Ġnow": 896,
      "ĠCom": 897,
      "und": 898,
      "gan": 899,
      "Ġorgan": 900,
      "conom": 901,
      "Ġback": 902,
      "Ġsever": 903,
      "Ġsame": 904,
      "Ġtreat": 905,
      "Ġeconom": 906,
      "ily": 907,
      "ĠâĢĵ": 908,
      "ĠThere": 909,
      "Ġpublic": 910,
      "occ": 911,
      "Ġocc": 912,
      "Ġown": 913,
      "Ġdown": 914,
      "uring": 915,
      "Ġduring": 916,
      "Ġdisc": 917,
      "tom": 918,
      "Ġplan": 919,
      "Ġplace": 920,
      "Ġsupp": 921,
      "ile": 922,
      "Ġexample": 923,
      "ological": 924,
      "âĢĺ": 925,
      "Ġart": 926,
      "Ġpoint": 927,
      "Ġrem": 928,
      "Ġlife": 929,
      "Ġrespon": 930,
      "ĠCon": 931,
      "Ġdist": 932,
      "Ġfact": 933,
      "Ġext": 934,
      "tern": 935,
      "ĠStates": 936,
      "ural": 937,
      "Ġdec": 938,
      "Ġgood": 939,
      "ources": 940,
      "ork": 941,
      "ĠFor": 942,
      "Ġgo": 943,
      "Ġget": 944,
      "ĠRe": 945,
      "Ġtake": 946,
      "oci": 947,
      "Ġcondition": 948,
      "te": 949,
      "Ġconsid": 950,
      "Ġ10": 951,
      "ĠPro": 952,
      "Ġcontro": 953,
      "Ġpop": 954,
      "Ġpopul": 955,
      "Ġbecome": 956,
      "Ġblood": 957,
      "Ġfood": 958,
      "ĠHow": 959,
      "ĠHowever": 960,
      "ors": 961,
      "Ġbuild": 962,
      "Ġbas": 963,
      "ism": 964,
      "Ġris": 965,
      "Ġrisk": 966,
      "This": 967,
      "Ġcontrol": 968,
      "ness": 969,
      "Ġfind": 970,
      "ating": 971,
      "ailable": 972,
      "uc": 973,
      "Ġallow": 974,
      "iron": 975,
      "viron": 976,
      "vironment": 977,
      "Ġenvironment": 978,
      "ron": 979,
      "Ġdef": 980,
      "Ġref": 981,
      "Ġoff": 982,
      "Ġcomple": 983,
      "ages": 984,
      "yp": 985,
      "Ġtyp": 986,
      "Ġcommon": 987,
      "ĠUnit": 988,
      "Ġspecies": 989,
      "cond": 990,
      "Ġsecond": 991,
      "amily": 992,
      "Ġequ": 993,
      "Ġlook": 994,
      "Ġplay": 995,
      "ivid": 996,
      "ividual": 997,
      "Ġindividual": 998,
      "ives": 999,
      "Ġdirect": 1000,
      "Ġrep": 1001,
      "Ġread": 1002,
      "ade": 1003,
      "Ġmade": 1004,
      "read": 1005,
      "Ġredu": 1006,
      "mall": 1007,
      "Ġsmall": 1008,
      "Ġdevelopment": 1009,
      "Ġexper": 1010,
      "Ġexperi": 1011,
      "Ġexpl": 1012,
      "Ġprovide": 1013,
      "Ġagainst": 1014,
      "Ġanother": 1015,
      "Ġproject": 1016,
      "Ġprop": 1017,
      "cent": 1018,
      "Ġpercent": 1019,
      "ient": 1020,
      "Ġpresent": 1021,
      "Ġcent": 1022,
      "Ġdi": 1023,
      "ĠOn": 1024,
      "Ġstate": 1025,
      "Ġvar": 1026,
      "Ġserv": 1027,
      "outh": 1028,
      "ix": 1029,
      "ith": 1030,
      "Ġinf": 1031,
      "Ġbook": 1032,
      "Ġ6": 1033,
      "Ġend": 1034,
      "vailable": 1035,
      "ock": 1036,
      "Ġlear": 1037,
      "Ġlearn": 1038,
      "Ġdep": 1039,
      "Ġword": 1040,
      "Ġadd": 1041,
      "Ġaddition": 1042,
      "eld": 1043,
      "ield": 1044,
      "Ġobject": 1045,
      "Ġproduct": 1046,
      "Ġoccur": 1047,
      "ences": 1048,
      "enc": 1049,
      "ency": 1050,
      "man": 1051,
      "imate": 1052,
      "Ġsim": 1053,
      "Ġhim": 1054,
      "Ġtak": 1055,
      "Ġrepres": 1056,
      "Ġremain": 1057,
      "Ġcountry": 1058,
      "Ġsignific": 1059,
      "Ġquest": 1060,
      "Ġconsider": 1061,
      "ern": 1062,
      "ĠNational": 1063,
      "Ġtest": 1064,
      "Ġappro": 1065,
      "Ġthem": 1066,
      "Ġam": 1067,
      "Ġamong": 1068,
      "Ġwom": 1069,
      "Ġwomen": 1070,
      "ten": 1071,
      "ict": 1072,
      "Ġhistory": 1073,
      "Ġher": 1074,
      "aj": 1075,
      "ajor": 1076,
      "Ġfl": 1077,
      "ĠIf": 1078,
      "Ġmaterial": 1079,
      "Ġperform": 1080,
      "Ġwithout": 1081,
      "Ġconf": 1082,
      "ave": 1083,
      "Ġbetter": 1084,
      "ability": 1085,
      "Ġless": 1086,
      "Ġadv": 1087,
      "ember": 1088,
      "rodu": 1089,
      "Ġsocial": 1090,
      "__": 1091,
      "Ġyoun": 1092,
      "ograph": 1093,
      "ince": 1094,
      "Ġcontain": 1095,
      "Ġdoes": 1096,
      "stit": 1097,
      "stitution": 1098,
      "Ġcontin": 1099,
      "Ġgra": 1100,
      "Ġbod": 1101,
      "Ġbody": 1102,
      "Ġhowever": 1103,
      "Ġlaw": 1104,
      "day": 1105,
      "ĠEng": 1106,
      "ĠInd": 1107,
      "Ġprevent": 1108,
      "Ġoften": 1109,
      "Ġunderst": 1110,
      "Ġunderstand": 1111,
      "Ġke": 1112,
      "Ġcalled": 1113,
      "ĠBut": 1114,
      "ĠAnd": 1115,
      "ized": 1116,
      "Ġcaus": 1117,
      "'t": 1118,
      "Ġcentur": 1119,
      "lish": 1120,
      "ablish": 1121,
      "ĠEnglish": 1122,
      "view": 1123,
      "Ġview": 1124,
      "riv": 1125,
      "com": 1126,
      "Ġkeep": 1127,
      "Ġrecord": 1128,
      "Ġmust": 1129,
      "Ġearly": 1130,
      "establish": 1131,
      "Ġinterest": 1132,
      "Ġbecame": 1133,
      "Ġcell": 1134,
      "Ġwar": 1135,
      "Ġspecial": 1136,
      "Ġpublish": 1137,
      "Ġmajor": 1138,
      "ĠAr": 1139,
      "atural": 1140,
      "Ġdat": 1141,
      "Ġdata": 1142,
      "ax": 1143,
      "atient": 1144,
      "ared": 1145,
      "Ġsee": 1146,
      "Ġpract": 1147,
      "ond": 1148,
      "Ġamount": 1149,
      "Ġstudents": 1150,
      "ĠUnivers": 1151,
      "ĠUniversity": 1152,
      "Ġhand": 1153,
      "Ġland": 1154,
      "stitut": 1155,
      "Ġpatient": 1156,
      "ise": 1157,
      "iss": 1158,
      "ission": 1159,
      "Ġvis": 1160,
      "illion": 1161,
      "ĠUnited": 1162,
      "Ġvari": 1163,
      "Ġappear": 1164,
      "Ġnatural": 1165,
      "ource": 1166,
      "Ġdesc": 1167,
      "Ġdescrib": 1168,
      "cture": 1169,
      "ructure": 1170,
      "erg": 1171,
      "Ġenerg": 1172,
      "Ġenergy": 1173,
      "Ġ[": 1174,
      "Ġscient": 1175,
      "ĠHealth": 1176,
      "Ġ&": 1177,
      "unction": 1178,
      "struction": 1179,
      "Ġnor": 1180,
      "Ġname": 1181,
      "Ġcap": 1182,
      "Ġdid": 1183,
      "Ġmain": 1184,
      "Ġstart": 1185,
      "Ġstill": 1186,
      "Ġstand": 1187,
      "Ġstandard": 1188,
      "Ġstr": 1189,
      "ĠYou": 1190,
      "Ġhapp": 1191,
      "ization": 1192,
      "ize": 1193,
      "iqu": 1194,
      "ifi": 1195,
      "ribut": 1196,
      "ĠComm": 1197,
      "Ġmeas": 1198,
      "Ġmeasure": 1199,
      "Ġtreatment": 1200,
      "Ġvarious": 1201,
      "ash": 1202,
      "ĠSh": 1203,
      "Ġrepresent": 1204,
      "Ġspecific": 1205,
      "Ġcar": 1206,
      "Ġcur": 1207,
      "Ġcurr": 1208,
      "Ġcurrent": 1209,
      "Ġevent": 1210,
      "Ġaccess": 1211,
      "ĠEx": 1212,
      "Ġwant": 1213,
      "Ġsignificant": 1214,
      "Ġmak": 1215,
      "ox": 1216,
      "Ġimm": 1217,
      "ĠYork": 1218,
      "work": 1219,
      "Ġfamily": 1220,
      "Ġfew": 1221,
      "though": 1222,
      "Ġsubject": 1223,
      "rom": 1224,
      "Ġass": 1225,
      "Ġassoci": 1226,
      "ified": 1227,
      ".\"": 1228,
      "educ": 1229,
      "Ġeduc": 1230,
      "cially": 1231,
      "Ġcare": 1232,
      "Ġcre": 1233,
      "ential": 1234,
      "Ġent": 1235,
      "Ġabove": 1236,
      "Ġusually": 1237,
      "Ġgiv": 1238,
      "Ġimpro": 1239,
      "Ġtradition": 1240,
      "10": 1241,
      "Ġmeth": 1242,
      "Ġmethod": 1243,
      "Ġpass": 1244,
      "ced": 1245,
      "Ġsc": 1246,
      "Ġset": 1247,
      "ason": 1248,
      "Ġreason": 1249,
      "Ġmon": 1250,
      "vest": 1251,
      "Ġ7": 1252,
      "gest": 1253,
      "Ġusing": 1254,
      "20": 1255,
      "Ġindust": 1256,
      "Ġcour": 1257,
      "Ġcourse": 1258,
      "Ġ15": 1259,
      "Ġ17": 1260,
      "Ġposs": 1261,
      "Ġpossible": 1262,
      "Ġincluding": 1263,
      "Ġhere": 1264,
      "Ġfunction": 1265,
      "ists": 1266,
      "Ġseveral": 1267,
      "Ġmonth": 1268,
      "Ġtechnology": 1269,
      "oh": 1270,
      "ĠJoh": 1271,
      "Ġhome": 1272,
      "Ġ9": 1273,
      "ĠZ": 1274,
      "Ġ8": 1275,
      "ulture": 1276,
      "ffic": 1277,
      "itt": 1278,
      "ittle": 1279,
      "Ġlittle": 1280,
      "Ġgiven": 1281,
      "Ġval": 1282,
      "Ġapproach": 1283,
      "Ġprofess": 1284,
      "Ġ198": 1285,
      "iod": 1286,
      "Ġperiod": 1287,
      "Ġsug": 1288,
      "Ġsuggest": 1289,
      "Ġident": 1290,
      "air": 1291,
      "Ġchar": 1292,
      "Ġcharact": 1293,
      "Ġstrong": 1294,
      "emp": 1295,
      "Ġtemp": 1296,
      "Ġsk": 1297,
      "Ġnear": 1298,
      "Ġnecess": 1299,
      "ccess": 1300,
      "Ġsuccess": 1301,
      "ird": 1302,
      "Ġsince": 1303,
      "Ġdiscover": 1304,
      "ieve": 1305,
      "ines": 1306,
      "Ġwid": 1307,
      "ĠGod": 1308,
      "ven": 1309,
      "emb": 1310,
      "olv": 1311,
      "ĠQ": 1312,
      "Ġground": 1313,
      "Ġpopulation": 1314,
      "Ġmark": 1315,
      "Ġavailable": 1316,
      "Ġ$": 1317,
      "rain": 1318,
      "Ġaccord": 1319,
      "Ġpar": 1320,
      "There": 1321,
      "Ġmodel": 1322,
      "Ġalong": 1323,
      "ultural": 1324,
      "ertain": 1325,
      "Ġstructure": 1326,
      "ather": 1327,
      "af": 1328,
      "fficient": 1329,
      "Ġaccount": 1330,
      "duct": 1331,
      "urop": 1332,
      "ĠEurop": 1333,
      "uth": 1334,
      "uthor": 1335,
      "angu": 1336,
      "anguage": 1337,
      "ange": 1338,
      "ore": 1339,
      "Ġfe": 1340,
      "Ġdise": 1341,
      "Ġdisease": 1342,
      "ĠWe": 1343,
      "Ġgl": 1344,
      "ull": 1345,
      "Ġglob": 1346,
      "Ġspace": 1347,
      "Ġcause": 1348,
      "Ġcertain": 1349,
      "ĠSp": 1350,
      "Ġphy": 1351,
      "Ġturn": 1352,
      "Ġresources": 1353,
      "volv": 1354,
      "atter": 1355,
      "Ġcommunity": 1356,
      "ality": 1357,
      "Ġmove": 1358,
      "ety": 1359,
      "200": 1360,
      "Ġco": 1361,
      "fort": 1362,
      "Ġstudies": 1363,
      "thing": 1364,
      "term": 1365,
      "Ġdeterm": 1366,
      "der": 1367,
      "Ġorder": 1368,
      "Ġprote": 1369,
      "Ġcomplete": 1370,
      "Ġcountri": 1371,
      "Ġshort": 1372,
      "Ġold": 1373,
      "ĠJohn": 1374,
      "agn": 1375,
      "ank": 1376,
      "Ġlater": 1377,
      "Ġlight": 1378,
      "ues": 1379,
      "ll": 1380,
      "Ġappl": 1381,
      "Ġdeath": 1382,
      "Ġsimp": 1383,
      "Ġsimil": 1384,
      "idence": 1385,
      "Ġevidence": 1386,
      "ah": 1387,
      "Ġestablish": 1388,
      "ption": 1389,
      "Ġmillion": 1390,
      "Ġposition": 1391,
      "ert": 1392,
      "Ġparticip": 1393,
      "ich": 1394,
      "Ġmight": 1395,
      "Ġfield": 1396,
      "Ġbre": 1397,
      "Ġshe": 1398,
      "ef": 1399,
      "Ġ'": 1400,
      "ĠâĢĶ": 1401,
      "Ġide": 1402,
      "ouse": 1403,
      "Ġnever": 1404,
      "Ġver": 1405,
      "Ġsomething": 1406,
      "ĠThes": 1407,
      "ĠThese": 1408,
      "Ġtimes": 1409,
      "ases": 1410,
      "Ġter": 1411,
      "Ġterm": 1412,
      "arm": 1413,
      "ne": 1414,
      "urch": 1415,
      "ĠIntern": 1416,
      "ribution": 1417,
      "cl": 1418,
      "Ġsimilar": 1419,
      "Ġyoung": 1420,
      "Ġchange": 1421,
      "Ġtru": 1422,
      "rug": 1423,
      "Ġinclude": 1424,
      "Ġleg": 1425,
      "ug": 1426,
      "ĠSe": 1427,
      "Ġdiscus": 1428,
      "face": 1429,
      "Ġsurface": 1430,
      "oy": 1431,
      "ploy": 1432,
      "Ġemploy": 1433,
      "ĠThey": 1434,
      "Ġprim": 1435,
      "Ġorig": 1436,
      "Ġorigin": 1437,
      "Ã©": 1438,
      "Ġenough": 1439,
      "Ġeng": 1440,
      "ĠMar": 1441,
      "ision": 1442,
      "Ġimpact": 1443,
      "Ġeducation": 1444,
      "Ġalway": 1445,
      "ium": 1446,
      "Ġ16": 1447,
      "Ġ12": 1448,
      "Ġrecent": 1449,
      "ft": 1450,
      "Ġleft": 1451,
      "Ġphys": 1452,
      "Ġrest": 1453,
      "Ġgu": 1454,
      "Ġcor": 1455,
      "embers": 1456,
      "Ġlocal": 1457,
      "wh": 1458,
      "Ġkind": 1459,
      "Ġve": 1460,
      "Ġimprove": 1461,
      "ugh": 1462,
      "ĠCol": 1463,
      "ĠâĢĺ": 1464,
      "ĠEurope": 1465,
      "Ġcomput": 1466,
      "ibility": 1467,
      "Ġscientists": 1468,
      "Ġinfl": 1469,
      "less": 1470,
      "Ġnext": 1471,
      "Ġtext": 1472,
      "Ġtri": 1473,
      "Ġdem": 1474,
      "vious": 1475,
      "Ġcentury": 1476,
      "Ġartic": 1477,
      "Ġhead": 1478,
      "Ġheart": 1479,
      "Ġleast": 1480,
      "Ġlast": 1481,
      "Ġlanguage": 1482,
      "Ġlow": 1483,
      "Ġpolit": 1484,
      "Ġpolitical": 1485,
      "Ġauthor": 1486,
      "Ġblack": 1487,
      "Ġanim": 1488,
      "Ġanimal": 1489,
      "Ġrece": 1490,
      "Ġthing": 1491,
      "ĠBrit": 1492,
      "ĠNor": 1493,
      "ĠNorth": 1494,
      "Ġpropert": 1495,
      "ww": 1496,
      "az": 1497,
      "Ġrun": 1498,
      "Ġalread": 1499,
      "Ġele": 1500,
      "Ġactivities": 1501,
      "ĠPh": 1502,
      "ym": 1503,
      "Ġsym": 1504,
      ".âĢĿ": 1505,
      "ĠWhen": 1506,
      "Ġvalue": 1507,
      "urther": 1508,
      "ffort": 1509,
      "Ġeffort": 1510,
      "Ġeas": 1511,
      "atch": 1512,
      "gin": 1513,
      "Ġbegin": 1514,
      "Ġbeing": 1515,
      "tect": 1516,
      "Ġprotect": 1517,
      "pect": 1518,
      "enef": 1519,
      "Ġbenef": 1520,
      "Ġopen": 1521,
      "Ġoper": 1522,
      "Ġsaf": 1523,
      "Ġexplain": 1524,
      "ional": 1525,
      "raft": 1526,
      "18": 1527,
      "Ġseem": 1528,
      "Ġexpect": 1529,
      "gether": 1530,
      "Ġrad": 1531,
      "âĢ¦": 1532,
      "ĠAs": 1533,
      "ros": 1534,
      "Ġacros": 1535,
      "ics": 1536,
      "ctions": 1537,
      "Ġdiffic": 1538,
      "Ġdifficult": 1539,
      "Ġsens": 1540,
      "ike": 1541,
      "io": 1542,
      "ĠDe": 1543,
      "Ġmin": 1544,
      "Ġinflu": 1545,
      "Ġactivity": 1546,
      "erature": 1547,
      "Ġtemperature": 1548,
      "Ġfeature": 1549,
      "Ġfeel": 1550,
      "erman": 1551,
      "ĠGerman": 1552,
      "Ġvol": 1553,
      "Ġactually": 1554,
      "oph": 1555,
      "Ġexperience": 1556,
      "Ġcountries": 1557,
      "Ġdev": 1558,
      "ris": 1559,
      "Ġmodern": 1560,
      "Ġcover": 1561,
      "Ġproduction": 1562,
      "Ġnational": 1563,
      "ning": 1564,
      "Ġbel": 1565,
      "Ġbelie": 1566,
      "ld": 1567,
      "orld": 1568,
      "ĠWorld": 1569,
      "atory": 1570,
      "Ġtechniqu": 1571,
      "âĢ¢": 1572,
      "ĠJew": 1573,
      "Ġquestion": 1574,
      "Ġquestions": 1575,
      "Ġmaintain": 1576,
      "ton": 1577,
      "Ġbelieve": 1578,
      "Ġrange": 1579,
      "fric": 1580,
      "ĠAfric": 1581,
      "ĠBritish": 1582,
      "Ġaddress": 1583,
      "ression": 1584,
      "struct": 1585,
      "Ġbrain": 1586,
      "Ġfour": 1587,
      "Ġclimate": 1588,
      "Ġattack": 1589,
      "Ġ197": 1590,
      "Ġcolle": 1591,
      "Ġparent": 1592,
      "Ġcase": 1593,
      "12": 1594,
      "ĠAmerica": 1595,
      "Ġsoci": 1596,
      "ĠUS": 1597,
      ",\"": 1598,
      "ublic": 1599,
      "ĠAll": 1600,
      "line": 1601,
      "Ġentire": 1602,
      "Ġrecog": 1603,
      "Ġpopular": 1604,
      "Ġprom": 1605,
      "Ġlab": 1606,
      "Ġrather": 1607,
      "Ġphysical": 1608,
      "Ġpain": 1609,
      "ably": 1610,
      "Ġint": 1611,
      "Ġintrodu": 1612,
      "Ġret": 1613,
      "Ġreturn": 1614,
      "Ġquality": 1615,
      "Ġclose": 1616,
      "Ġdoct": 1617,
      "Ġexist": 1618,
      "ices": 1619,
      "Ġservices": 1620,
      "ither": 1621,
      "Ġeither": 1622,
      "thern": 1623,
      "Ġdepend": 1624,
      "Ġfollowing": 1625,
      "Ġvir": 1626,
      "irc": 1627,
      "Ġcirc": 1628,
      "ustr": 1629,
      "Ġcost": 1630,
      "Ġcle": 1631,
      "Ġclear": 1632,
      "ances": 1633,
      "ĠRes": 1634,
      "ĠResearch": 1635,
      "ĠCent": 1636,
      "Ġbeh": 1637,
      "Ġbehav": 1638,
      "Ġbehavi": 1639,
      "Ġteam": 1640,
      "etwork": 1641,
      "Ġengine": 1642,
      "Ġscientific": 1643,
      "Ġcharacter": 1644,
      "Ġapplic": 1645,
      "Ġrespect": 1646,
      "ify": 1647,
      "Ġconsum": 1648,
      "Ġnon": 1649,
      "Ġcrit": 1650,
      "Ġmembers": 1651,
      "Ġlower": 1652,
      "Ġlink": 1653,
      "Ġhav": 1654,
      "Ġnature": 1655,
      "Ġconduct": 1656,
      "Ġrelig": 1657,
      "Ġsays": 1658,
      "Ġaffect": 1659,
      "Ġeffective": 1660,
      "ensive": 1661,
      "itive": 1662,
      "ocus": 1663,
      "Ġfocus": 1664,
      "Ġsociety": 1665,
      "Ġbenefit": 1666,
      "Ġfree": 1667,
      "ĠSouth": 1668,
      "Ġdrug": 1669,
      "ead": 1670,
      "Ġwritten": 1671,
      "ĠAd": 1672,
      "pos": 1673,
      "Ġassociated": 1674,
      "Ġhard": 1675,
      "Ġhouse": 1676,
      "Ġmy": 1677,
      "Ġcomplex": 1678,
      "augh": 1679,
      "Ġfurther": 1680,
      "Ġability": 1681,
      "Ġitself": 1682,
      "Ġlim": 1683,
      "Ġlimit": 1684,
      "Ġcollect": 1685,
      "Ġwind": 1686,
      "ĠIndian": 1687,
      "Ġprevious": 1688,
      "Ġlet": 1689,
      "artment": 1690,
      "epartment": 1691,
      "ether": 1692,
      "Ġwhether": 1693,
      "ĠInstitut": 1694,
      "ec": 1695,
      "Ġintern": 1696,
      "Ġbr": 1697,
      "round": 1698,
      "ĠChr": 1699,
      "ĠChrist": 1700,
      "iness": 1701,
      "usiness": 1702,
      "Ġinvolv": 1703,
      "50": 1704,
      "otential": 1705,
      "Ġvisit": 1706,
      "Ġwhite": 1707,
      "Ġcomb": 1708,
      "get": 1709,
      "Ġcases": 1710,
      "ters": 1711,
      "Ġ30": 1712,
      "ĠWhat": 1713,
      "Ġflow": 1714,
      "Ġareas": 1715,
      "Ġnetwork": 1716,
      "Ġsymp": 1717,
      "Ġsymptom": 1718,
      "Ġcreat": 1719,
      "Ġmil": 1720,
      "Ġmed": 1721,
      "Ġmus": 1722,
      "ilities": 1723,
      "Ġmedical": 1724,
      "Ġbro": 1725,
      "Ġinternational": 1726,
      "Ġreach": 1727,
      "ware": 1728,
      "Ġskill": 1729,
      "Ġmanage": 1730,
      "Ġscience": 1731,
      "Ġrelations": 1732,
      "Ġrelationship": 1733,
      "oto": 1734,
      "Ġphoto": 1735,
      "Ġrecogn": 1736,
      "Ġpolic": 1737,
      "ention": 1738,
      "Ġbuilding": 1739,
      "Ġpo": 1740,
      "ecause": 1741,
      "epend": 1742,
      "uture": 1743,
      "Ġfuture": 1744,
      "igure": 1745,
      "Ġreceiv": 1746,
      "Ġliv": 1747,
      "Ġ14": 1748,
      "led": 1749,
      "ledge": 1750,
      "Ġknowledge": 1751,
      "Ġfull": 1752,
      "eng": 1753,
      "Ġ|": 1754,
      "ĠCl": 1755,
      "ories": 1756,
      "Ġnecessary": 1757,
      "ĠChristian": 1758,
      "Ġchanges": 1759,
      "Ġmarket": 1760,
      "Ġpost": 1761,
      "Ġindepend": 1762,
      "Ġindic": 1763,
      "Ġlikely": 1764,
      "ecially": 1765,
      "pecially": 1766,
      "especially": 1767,
      "Ġespecially": 1768,
      "ves": 1769,
      "elves": 1770,
      "ĠComp": 1771,
      "Ġmult": 1772,
      "Ġadult": 1773,
      "Ġbusiness": 1774,
      "Ġaccept": 1775,
      "Ġcreated": 1776,
      "Ġcreate": 1777,
      "Ġchem": 1778,
      "Ġchemical": 1779,
      "Ġresearchers": 1780,
      "Ġconcept": 1781,
      "Ġcontinu": 1782,
      "ration": 1783,
      "ification": 1784,
      "ination": 1785,
      "Ġbecom": 1786,
      "Ġservice": 1787,
      "resident": 1788,
      "Ġ0": 1789,
      "li": 1790,
      "Ġearli": 1791,
      "Ġarticle": 1792,
      "Ġdiagn": 1793,
      "stead": 1794,
      "aces": 1795,
      "Ġpotential": 1796,
      "What": 1797,
      "rim": 1798,
      "Ġrefer": 1799,
      "ants": 1800,
      "ators": 1801,
      "Ġ196": 1802,
      "ital": 1803,
      "ĠInternational": 1804,
      "quent": 1805,
      "raw": 1806,
      "Ġtravel": 1807,
      "ĠStud": 1808,
      "Ġkill": 1809,
      "mber": 1810,
      "Ġopport": 1811,
      "Ġopportun": 1812,
      "Ġinvest": 1813,
      "ĠDepartment": 1814,
      "Ġbegan": 1815,
      "Ġvariety": 1816,
      "Ġsw": 1817,
      "Ġable": 1818,
      "Ġri": 1819,
      "Ġo": 1820,
      "Ġoil": 1821,
      "ĠX": 1822,
      "Ġel": 1823,
      "Ġunt": 1824,
      "Ġuntil": 1825,
      "Ġ13": 1826,
      "Ġ11": 1827,
      "Ġ100": 1828,
      "Ġgeneral": 1829,
      "Ġmov": 1830,
      "Ġmet": 1831,
      "Ġoffic": 1832,
      "Ġofficial": 1833,
      "ung": 1834,
      "Ġthroughout": 1835,
      "Ġ2012": 1836,
      "Ġ2010": 1837,
      "Ġ2011": 1838,
      "rict": 1839,
      "ĠWith": 1840,
      "Ġthought": 1841,
      "Ġbased": 1842,
      "Ġgrowth": 1843,
      "Ġpractice": 1844,
      "Ġsuff": 1845,
      "An": 1846,
      "Ġkey": 1847,
      "Ġwithin": 1848,
      "cern": 1849,
      "Ġconcern": 1850,
      "estern": 1851,
      "alk": 1852,
      "ek": 1853,
      "Ġweek": 1854,
      "Ġproduced": 1855,
      "Ġproduce": 1856,
      "Ġlist": 1857,
      "Ġtaken": 1858,
      "11": 1859,
      "Ġreduce": 1860,
      "Ġalready": 1861,
      "Ġuniver": 1862,
      "Ġmedic": 1863,
      "atic": 1864,
      "Ġfund": 1865,
      "Ġcome": 1866,
      "omet": 1867,
      "ometim": 1868,
      "ometimes": 1869,
      "Ġmeet": 1870,
      "lease": 1871,
      "Ġbreak": 1872,
      "Ġspeak": 1873,
      "att": 1874,
      "Ġdefin": 1875,
      "any": 1876,
      "Ġmultip": 1877,
      "Ġoppos": 1878,
      "Ġopt": 1879,
      "ugust": 1880,
      "ĠSome": 1881,
      "Ġrecom": 1882,
      "Ġcame": 1883,
      "Ġnorm": 1884,
      "cip": 1885,
      "cipl": 1886,
      "Ġsto": 1887,
      "Ġtogether": 1888,
      "empt": 1889,
      "Ġattempt": 1890,
      "Ġbest": 1891,
      "Ġmatter": 1892,
      "Ġpositive": 1893,
      "Ġhour": 1894,
      "ivil": 1895,
      "Ġrelative": 1896,
      "Ġrelated": 1897,
      "ountain": 1898,
      "Ġindustry": 1899,
      "ĠState": 1900,
      "Ġearth": 1901,
      "Ġtrain": 1902,
      "Ġfarm": 1903,
      "Ġfin": 1904,
      "Ġmanagement": 1905,
      "most": 1906,
      "Ġalmost": 1907,
      "Ġarea": 1908,
      "ĠSchool": 1909,
      "Ġexpos": 1910,
      "Ġill": 1911,
      "ting": 1912,
      "It": 1913,
      "Ġhaving": 1914,
      "Ġsource": 1915,
      "Ġdiseases": 1916,
      "Ġet": 1917,
      "Ġregard": 1918,
      "Ġquick": 1919,
      "light": 1920,
      "ibr": 1921,
      "Ġsafety": 1922,
      "Ġrecomm": 1923,
      "Ġrecommend": 1924,
      "umm": 1925,
      "Ġsumm": 1926,
      "Ġemerg": 1927,
      "Ġeconomic": 1928,
      "Ġenc": 1929,
      "ush": 1930,
      "ovember": 1931,
      "____": 1932,
      "Ġreligious": 1933,
      "istor": 1934,
      "Ġhistor": 1935,
      "Ġyet": 1936,
      "//": 1937,
      "://": 1938,
      "Ġsuccessful": 1939,
      "Ġadm": 1940,
      "Ġ194": 1941,
      "Ġthreat": 1942,
      "like": 1943,
      "Ġidentify": 1944,
      "ociety": 1945,
      "yn": 1946,
      "ourn": 1947,
      "ournal": 1948,
      "ĠCan": 1949,
      "ĠCanad": 1950,
      "oid": 1951,
      "void": 1952,
      "ole": 1953,
      "ved": 1954,
      "Ġprin": 1955,
      "Ġprincip": 1956,
      "ables": 1957,
      "vention": 1958,
      "Ġsite": 1959,
      "Ġgenerally": 1960,
      "Ġregion": 1961,
      "Ġpur": 1962,
      "ĠOr": 1963,
      "ĠWar": 1964,
      "Ġbelow": 1965,
      "Ġdue": 1966,
      "Ġdon": 1967,
      ",âĢĿ": 1968,
      "inist": 1969,
      "Ġadminist": 1970,
      "ĠScience": 1971,
      "Ġtype": 1972,
      "riend": 1973,
      "de": 1974,
      "Ġcontribut": 1975,
      "Ġattention": 1976,
      "ask": 1977,
      "Ġmen": 1978,
      "outhern": 1979,
      "Ġ--": 1980,
      "undred": 1981,
      "Ġspread": 1982,
      "Ġprofessional": 1983,
      "Ġprint": 1984,
      "Ġaccording": 1985,
      "Ġstates": 1986,
      "Ġbeginning": 1987,
      "Ġbu": 1988,
      "Ġbuil": 1989,
      "Ġcanc": 1990,
      "Ġcancer": 1991,
      "ibrary": 1992,
      "Ġmaking": 1993,
      "Ġmakes": 1994,
      "Ġarm": 1995,
      "Ġarch": 1996,
      "Ġdraw": 1997,
      "Ġfriend": 1998,
      "lement": 1999,
      "Ġimplement": 2000,
      "Ġculture": 2001,
      "Ġant": 2002,
      "Ġremov": 2003,
      "Ġgive": 2004,
      "Ġgre": 2005,
      "Ġport": 2006,
      "Ġpast": 2007,
      "Ġput": 2008,
      "Ġmar": 2009,
      "ĠEar": 2010,
      "ĠEarth": 2011,
      "par": 2012,
      "Ġsepar": 2013,
      "ĠCount": 2014,
      "Ġalthough": 2015,
      "Ġfac": 2016,
      "Ġfactors": 2017,
      "Ġfish": 2018,
      "Ġfre": 2019,
      "Ġfrequent": 2020,
      "ervation": 2021,
      "ER": 2022,
      "Ġsimple": 2023,
      "Ġmeans": 2024,
      "ĠAlthough": 2025,
      "Ġrepl": 2026,
      "Ġreal": 2027,
      "Ġreally": 2028,
      "NA": 2029,
      "ptember": 2030,
      "ĠSeptember": 2031,
      "Ġveget": 2032,
      "Ġtre": 2033,
      "Ġprob": 2034,
      "Ġprobably": 2035,
      "rink": 2036,
      "ĠEngland": 2037,
      "Ġassess": 2038,
      "Ġcontinue": 2039,
      "Ġcontact": 2040,
      "ĠAfter": 2041,
      "Ġdiscuss": 2042,
      "Ġshown": 2043,
      "www": 2044,
      "Ġmass": 2045,
      "Ġriver": 2046,
      "Ġfire": 2047,
      "ially": 2048,
      "We": 2049,
      "30": 2050,
      "Ġ50": 2051,
      "olar": 2052,
      "Ġinvestig": 2053,
      "attle": 2054,
      "Ġimage": 2055,
      "verage": 2056,
      "Ġthings": 2057,
      "If": 2058,
      "Ġest": 2059,
      "ĠAt": 2060,
      "cember": 2061,
      "ĠDecember": 2062,
      "ke": 2063,
      "Ġupon": 2064,
      "Ġreview": 2065,
      "ĠProgram": 2066,
      "ĠThat": 2067,
      "Ġgreen": 2068,
      "Ġair": 2069,
      "Ġthird": 2070,
      "Ġbird": 2071,
      "Ġestim": 2072,
      "Ġtry": 2073,
      "ĠWhile": 2074,
      "Ġglobal": 2075,
      "ĠChurch": 2076,
      "Ġflu": 2077,
      "Ġcells": 2078,
      "Ġcorre": 2079,
      "Ġencou": 2080,
      "Ġ=": 2081,
      "Ġhold": 2082,
      "Ġobs": 2083,
      "Ġobserv": 2084,
      "Ġobtain": 2085,
      "ript": 2086,
      "pr": 2087,
      "Ġbuilt": 2088,
      "issions": 2089,
      "Ġstory": 2090,
      "Ġpriv": 2091,
      "Ġtherefore": 2092,
      "not": 2093,
      "Ġcannot": 2094,
      "rench": 2095,
      "ĠFrench": 2096,
      "ger": 2097,
      "Ġser": 2098,
      "Ġserious": 2099,
      "Ġsyn": 2100,
      "Ġkid": 2101,
      "hib": 2102,
      "Ġtoday": 2103,
      "ames": 2104,
      "Ġfam": 2105,
      "Ġfamil": 2106,
      "pril": 2107,
      "Ġfil": 2108,
      "Ġwhose": 2109,
      "ale": 2110,
      "Ġincrease": 2111,
      "Ġimages": 2112,
      "Ġimag": 2113,
      "How": 2114,
      "rought": 2115,
      "Ġcontent": 2116,
      "Ġever": 2117,
      "Ġcommunic": 2118,
      "Ġcommunities": 2119,
      "ument": 2120,
      "ĠMay": 2121,
      "Ġrequired": 2122,
      "Ġthen": 2123,
      "orn": 2124,
      "orm": 2125,
      "ator": 2126,
      "iction": 2127,
      "ĠPl": 2128,
      "stant": 2129,
      "attern": 2130,
      "Ġpattern": 2131,
      "Ġjob": 2132,
      "osph": 2133,
      "ucle": 2134,
      "Ġnucle": 2135,
      "oth": 2136,
      "ĠEnvironment": 2137,
      "Ġcamp": 2138,
      "Ġdispl": 2139,
      "icture": 2140,
      "199": 2141,
      "Ġblock": 2142,
      "Ġpublished": 2143,
      "Ġcorrect": 2144,
      "ĠAct": 2145,
      "Ġencoura": 2146,
      "Ġaway": 2147,
      "Ġage": 2148,
      "ipp": 2149,
      "Ġreflect": 2150,
      "Ġleav": 2151,
      "Ġregular": 2152,
      "Ġregul": 2153,
      "Ġpap": 2154,
      "Ġpaper": 2155,
      "Ġapprop": 2156,
      "Ġappropri": 2157,
      "selves": 2158,
      "Ġthemselves": 2159,
      "cur": 2160,
      "curity": 2161,
      "come": 2162,
      "Ġseries": 2163,
      "ength": 2164,
      "ĠHistory": 2165,
      "Ġtalk": 2166,
      "Ġsit": 2167,
      "Ġsitu": 2168,
      "Ġsize": 2169,
      "Ġsix": 2170,
      "Ġside": 2171,
      "tail": 2172,
      "Ġdetail": 2173,
      "Ġfail": 2174,
      "Ġalways": 2175,
      "Ġproblems": 2176,
      "Ġconver": 2177,
      "ĠÂ": 2178,
      "ateg": 2179,
      "Ġstrateg": 2180,
      "Ġbehind": 2181,
      "ĠAustr": 2182,
      "Ġelectric": 2183,
      "Ġbi": 2184,
      "Ġstep": 2185,
      "Ġdeep": 2186,
      "Ġpred": 2187,
      "idd": 2188,
      "iddle": 2189,
      "Ġheld": 2190,
      "Ġcapital": 2191,
      "Ġresponse": 2192,
      "ford": 2193,
      "Ġmilit": 2194,
      "Ġmilitary": 2195,
      "Ġsurv": 2196,
      "Ġself": 2197,
      "ĠWash": 2198,
      "volution": 2199,
      "Ġevolution": 2200,
      "Ġdisord": 2201,
      "cord": 2202,
      "Ġchurch": 2203,
      "Ġrock": 2204,
      "Ġmovement": 2205,
      "Ġtypes": 2206,
      "oft": 2207,
      "oftware": 2208,
      "Ġ2009": 2209,
      "ĠAugust": 2210,
      "ĠApril": 2211,
      "Ġpredict": 2212,
      "Ġz": 2213,
      "Ġdisplay": 2214,
      "rown": 2215,
      "Ġarg": 2216,
      "Ġline": 2217,
      "ner": 2218,
      "now": 2219,
      "Ġrole": 2220,
      "let": 2221,
      "ty": 2222,
      "Ġwhy": 2223,
      "Ġess": 2224,
      "Ġessential": 2225,
      "etic": 2226,
      "Ġsometimes": 2227,
      "Ġwild": 2228,
      "fer": 2229,
      "Ġask": 2230,
      "amin": 2231,
      "13": 2232,
      "eral": 2233,
      "Ġtr": 2234,
      "Ġaltern": 2235,
      "Ġelectron": 2236,
      "ront": 2237,
      "athe": 2238,
      "Ġseason": 2239,
      "Ġcity": 2240,
      "ĠPresident": 2241,
      "Ġpicture": 2242,
      "16": 2243,
      "15": 2244,
      "17": 2245,
      "ired": 2246,
      "Ġeasily": 2247,
      "une": 2248,
      "ĠJune": 2249,
      "uel": 2250,
      "ĠChild": 2251,
      "14": 2252,
      "Ġhundred": 2253,
      "ral": 2254,
      "Ġcentral": 2255,
      "ivity": 2256,
      "Ġanal": 2257,
      "Ġanaly": 2258,
      "ĠIs": 2259,
      "Ġacross": 2260,
      "Ġsurviv": 2261,
      "ĠDevelop": 2262,
      "When": 2263,
      "ased": 2264,
      "side": 2265,
      "Ġoutside": 2266,
      "Ġ2008": 2267,
      "iber": 2268,
      "Ġpropos": 2269,
      "oss": 2270,
      "Ġloss": 2271,
      "osoph": 2272,
      "ilosoph": 2273,
      "Ġphilosoph": 2274,
      "Ġlar": 2275,
      "Ġlarger": 2276,
      "Ġlargest": 2277,
      "nect": 2278,
      "Ġconnect": 2279,
      "ons": 2280,
      "ief": 2281,
      "Ġsurve": 2282,
      "For": 2283,
      "Ġlearning": 2284,
      "Ġtax": 2285,
      "ately": 2286,
      "Ġliving": 2287,
      "Ġexpress": 2288,
      "gress": 2289,
      "Ġprogress": 2290,
      "gen": 2291,
      "Ġwide": 2292,
      "Ġhyp": 2293,
      "ĠAustral": 2294,
      "Ġconcent": 2295,
      "Ġneg": 2296,
      "Ġcomputer": 2297,
      "ĠGen": 2298,
      "ĠGeneral": 2299,
      "Ġexcept": 2300,
      "ccord": 2301,
      "cy": 2302,
      "Ġlevels": 2303,
      "Ġcompany": 2304,
      "Ġselect": 2305,
      "Ġseen": 2306,
      "ope": 2307,
      "Ġcommand": 2308,
      "Ġdemand": 2309,
      "Ġsimply": 2310,
      "Ġillustr": 2311,
      "app": 2312,
      "Ġprimary": 2313,
      "self": 2314,
      "Ġhimself": 2315,
      "ĠTo": 2316,
      "ĠCenter": 2317,
      "Ġhigher": 2318,
      "Ġrate": 2319,
      "Ġactive": 2320,
      "eck": 2321,
      "Ġcheck": 2322,
      "Ġchall": 2323,
      "Ġchalleng": 2324,
      "Ġcho": 2325,
      "Ġfall": 2326,
      "Ġfuel": 2327,
      "ĠOne": 2328,
      "Ġsl": 2329,
      "Ġsources": 2330,
      "rem": 2331,
      "Ġextrem": 2332,
      "Ġoccup": 2333,
      "Ġdetect": 2334,
      "Ġfeet": 2335,
      "Ġpress": 2336,
      "Ġpressure": 2337,
      "Ġfamilies": 2338,
      "ĠWill": 2339,
      "Ġcivil": 2340,
      "bit": 2341,
      "Ġhabit": 2342,
      "Ġcarb": 2343,
      "Ġcarbon": 2344,
      "ĠRiver": 2345,
      "duc": 2346,
      "ĠEduc": 2347,
      "Ġgradu": 2348,
      "off": 2349,
      "Ġvalues": 2350,
      "Ġdone": 2351,
      "clus": 2352,
      "Ġnumb": 2353,
      "Ġnumbers": 2354,
      "Ġbehavior": 2355,
      "Ġgenetic": 2356,
      "Ġdetermine": 2357,
      "Ġlives": 2358,
      "atives": 2359,
      "imately": 2360,
      "Ġsurround": 2361,
      "ĠJewish": 2362,
      "Ġnorth": 2363,
      "Ġtell": 2364,
      "Ġskin": 2365,
      "ray": 2366,
      "fact": 2367,
      "ufact": 2368,
      "Ġmanufact": 2369,
      "Ġclean": 2370,
      "forn": 2371,
      "fornia": 2372,
      "ifornia": 2373,
      "alifornia": 2374,
      "ĠCalifornia": 2375,
      "Ġdemon": 2376,
      "Ġdemonst": 2377,
      "Ġthous": 2378,
      "Ġthousand": 2379,
      "astern": 2380,
      "Ġaccom": 2381,
      "Ġprotein": 2382,
      "Ġindustri": 2383,
      "itud": 2384,
      "Ġheav": 2385,
      "You": 2386,
      "Ġhappen": 2387,
      "Ġstre": 2388,
      "Ġ25": 2389,
      "Ġfigure": 2390,
      "Ġweb": 2391,
      "Ġweight": 2392,
      "based": 2393,
      "Ġcarri": 2394,
      "Ġbroad": 2395,
      "oad": 2396,
      "Ġconditions": 2397,
      "Ġmind": 2398,
      "Ġplaces": 2399,
      "arget": 2400,
      "Ġtarget": 2401,
      "Ġfive": 2402,
      "Ġlive": 2403,
      "tober": 2404,
      "Ġsearch": 2405,
      "Ġfar": 2406,
      "arily": 2407,
      "ote": 2408,
      "reek": 2409,
      "Ġmagn": 2410,
      "Ġenvironmental": 2411,
      "Ġrespons": 2412,
      "ederal": 2413,
      "IV": 2414,
      "ctober": 2415,
      "ĠOctober": 2416,
      "ĠEuropean": 2417,
      "ime": 2418,
      "aim": 2419,
      "Ġclaim": 2420,
      "graph": 2421,
      "Ġphotograph": 2422,
      "Ġred": 2423,
      "ians": 2424,
      "Ġshare": 2425,
      "ĠCar": 2426,
      "ĠMarch": 2427,
      "ruit": 2428,
      "Ġidea": 2429,
      "ĠRep": 2430,
      "ĠRepublic": 2431,
      "Ġdiet": 2432,
      "ĠLe": 2433,
      "Ġdam": 2434,
      "Ġdamage": 2435,
      "Ġdrink": 2436,
      "Ġprotection": 2437,
      "ĠIsland": 2438,
      "Ġgas": 2439,
      "Ġvac": 2440,
      "Ġsoil": 2441,
      "ina": 2442,
      "ĠChina": 2443,
      "ellow": 2444,
      "Ġdeg": 2445,
      "Ġlabor": 2446,
      "Ġ2007": 2447,
      "Ġquite": 2448,
      "ĠOther": 2449,
      "aster": 2450,
      "ides": 2451,
      "Ġcolor": 2452,
      "Ġcoll": 2453,
      "ĠII": 2454,
      "Ġwhole": 2455,
      "Ġideas": 2456,
      "Ch": 2457,
      "ĠJap": 2458,
      "ĠJapan": 2459,
      "Ġprovides": 2460,
      "Ġdeveloped": 2461,
      "Ġprivate": 2462,
      "ĠFran": 2463,
      "ents": 2464,
      "Ġlay": 2465,
      "Ġshall": 2466,
      "cul": 2467,
      "Ġdel": 2468,
      "Ġdecreas": 2469,
      "Ġsamp": 2470,
      "Ġpresident": 2471,
      "Ġsolution": 2472,
      "Ġpoor": 2473,
      "Ġresponsible": 2474,
      "encies": 2475,
      "upp": 2476,
      "Ġoffer": 2477,
      "Ġwords": 2478,
      "ĠInstitute": 2479,
      "amm": 2480,
      "hibit": 2481,
      "Ġsound": 2482,
      "Ġtransport": 2483,
      "istics": 2484,
      "istic": 2485,
      "Ġassist": 2486,
      "Ġvirus": 2487,
      "Ġdoc": 2488,
      "Ġdocument": 2489,
      "cise": 2490,
      "Ġpatients": 2491,
      "Ġdays": 2492,
      "osphere": 2493,
      "Ġstat": 2494,
      "ĠQu": 2495,
      "Ġdifference": 2496,
      "Ġdifferences": 2497,
      "Ġfruit": 2498,
      "Ġsecurity": 2499,
      "Ġpoll": 2500,
      "Ġidentified": 2501,
      "Ġorganiz": 2502,
      "Ġacid": 2503,
      "rid": 2504,
      "Ġbig": 2505,
      "ongress": 2506,
      "Ġfront": 2507,
      "ription": 2508,
      "Ġexposure": 2509,
      "Ġinfluence": 2510,
      "alf": 2511,
      "Ġhalf": 2512,
      "ĠIndia": 2513,
      "Ġfederal": 2514,
      "Ġapprox": 2515,
      "Ġapproximately": 2516,
      "Ġdiagnos": 2517,
      "ney": 2518,
      "Ġconsist": 2519,
      "Ġplac": 2520,
      "Ġresults": 2521,
      "Ġrul": 2522,
      "Ġnorthern": 2523,
      "ife": 2524,
      "ift": 2525,
      "Ġjournal": 2526,
      "ĠJournal": 2527,
      "Ġjud": 2528,
      "ground": 2529,
      "Ġtrade": 2530,
      "ĠSo": 2531,
      "ans": 2532,
      "ĠNovember": 2533,
      "ense": 2534,
      "Ġoriginal": 2535,
      "Ġslow": 2536,
      "ĠCongress": 2537,
      "Ġdegree": 2538,
      "Ġagree": 2539,
      "Ġlength": 2540,
      "Ġwarm": 2541,
      "Ġcop": 2542,
      "exual": 2543,
      "chieve": 2544,
      "Ġradi": 2545,
      "Ġaverage": 2546,
      "right": 2547,
      "Ġur": 2548,
      "Ġvacc": 2549,
      "Ġonline": 2550,
      "ington": 2551,
      "ĠWashington": 2552,
      "Ġnormal": 2553,
      "Ġrout": 2554,
      "Ġminut": 2555,
      "put": 2556,
      "sh": 2557,
      "Ġbrought": 2558,
      "SA": 2559,
      "Ġparticularly": 2560,
      "aff": 2561,
      "Ġ2013": 2562,
      "oney": 2563,
      "Ġmoney": 2564,
      "uck": 2565,
      "ounter": 2566,
      "Ġdemonstr": 2567,
      "Ġgetting": 2568,
      "Ġcoast": 2569,
      "ĠCont": 2570,
      "Ġagric": 2571,
      "Ġpric": 2572,
      "ĠApp": 2573,
      "Ġnight": 2574,
      "Ġnut": 2575,
      "Ġperformance": 2576,
      "Ġcolon": 2577,
      "Ġdoctor": 2578,
      "Ġassum": 2579,
      "oot": 2580,
      "Ġmot": 2581,
      "Ġlot": 2582,
      "irm": 2583,
      "irth": 2584,
      "Ġbirth": 2585,
      "Ġsm": 2586,
      "Ġsmok": 2587,
      "Ġtend": 2588,
      "Ġlit": 2589,
      "Ġclos": 2590,
      "Ġproced": 2591,
      "Ġprocedure": 2592,
      "hood": 2593,
      "ĠPress": 2594,
      "Ġstress": 2595,
      "hold": 2596,
      "cret": 2597,
      "Ġcourt": 2598,
      "Ġonce": 2599,
      "Ġoce": 2600,
      "Ġcarry": 2601,
      "ape": 2602,
      "Ġann": 2603,
      "enn": 2604,
      "wn": 2605,
      "ann": 2606,
      "eness": 2607,
      "But": 2608,
      "Ġeducational": 2609,
      "ouble": 2610,
      "Ġstren": 2611,
      "Ġstreng": 2612,
      "Ġmech": 2613,
      "Ġmechan": 2614,
      "ech": 2615,
      "Ġeffects": 2616,
      "ule": 2617,
      "ĠWilli": 2618,
      "ĠWilliam": 2619,
      "ier": 2620,
      "Ġdecision": 2621,
      "ection": 2622,
      "Ġinfection": 2623,
      "Ġpay": 2624,
      "Ġpage": 2625,
      "Ġpe": 2626,
      "Ġpath": 2627,
      "Ġpri": 2628,
      "Ġcontext": 2629,
      "Ġuniqu": 2630,
      "Ġincludes": 2631,
      "Ġ40": 2632,
      "Ġsymptoms": 2633,
      "Ġcompared": 2634,
      "Ġpractices": 2635,
      "ulation": 2636,
      "Ġdeliver": 2637,
      "Ġdiver": 2638,
      "Ġdom": 2639,
      "ounc": 2640,
      "ouncil": 2641,
      "Ġtypically": 2642,
      "Ġexpert": 2643,
      "ccording": 2644,
      "Ġcollection": 2645,
      "ross": 2646,
      "Ġcross": 2647,
      "itted": 2648,
      "Ġprovided": 2649,
      "Ġappropriate": 2650,
      "Ġextend": 2651,
      "lex": 2652,
      "Ġthus": 2653,
      "oup": 2654,
      "ode": 2655,
      "Ġneigh": 2656,
      "Ġincreased": 2657,
      "ied": 2658,
      "Ġapplied": 2659,
      "Ġconsidered": 2660,
      "Ġemissions": 2661,
      "Ġpolicy": 2662,
      "Ġey": 2663,
      "Ġrecover": 2664,
      "Ġ24": 2665,
      "Ġmusic": 2666,
      "Ġmother": 2667,
      "Ġago": 2668,
      "Ġcritical": 2669,
      "Ġsouth": 2670,
      "Ġplanet": 2671,
      "Ġremember": 2672,
      "per": 2673,
      "Ġreceive": 2674,
      "Ġimportance": 2675,
      "Ġcut": 2676,
      "Ġcal": 2677,
      "Ġcalcul": 2678,
      "Ġunit": 2679,
      "Ġradio": 2680,
      "val": 2681,
      "abor": 2682,
      "where": 2683,
      "ĠAg": 2684,
      "ĠGreat": 2685,
      "Ġwalk": 2686,
      "Ġwood": 2687,
      "ĠSociety": 2688,
      "Ġvide": 2689,
      "Ġtrue": 2690,
      "Ġrele": 2691,
      "Ġreleased": 2692,
      "cle": 2693,
      "ley": 2694,
      "leep": 2695,
      "ĠMany": 2696,
      "Ġnothing": 2697,
      "Ġliterature": 2698,
      "Ġmedia": 2699,
      "Ġlocated": 2700,
      "Ġlove": 2701,
      "unch": 2702,
      "Ġsun": 2703,
      "Ġavoid": 2704,
      "Ġenter": 2705,
      "reg": 2706,
      "Ġtask": 2707,
      "Äģ": 2708,
      "cious": 2709,
      "Ġcontra": 2710,
      "osp": 2711,
      "ospital": 2712,
      "Ġexamples": 2713,
      "cell": 2714,
      "ĠAss": 2715,
      "ĠAssoci": 2716,
      "Ġarriv": 2717,
      "Ġtoward": 2718,
      "Ġetc": 2719,
      "Ġelements": 2720,
      "anced": 2721,
      "Ġreduced": 2722,
      "Ġdevices": 2723,
      "ĠChildren": 2724,
      "ĠBl": 2725,
      "Ġsystems": 2726,
      "Ġcollabor": 2727,
      "ĠPr": 2728,
      "ĠProf": 2729,
      "Ġincreasing": 2730,
      "Ġgroups": 2731,
      "Ġbring": 2732,
      "Â°": 2733,
      "Ġsense": 2734,
      "olve": 2735,
      "igital": 2736,
      "ĠBe": 2737,
      "ĠEducation": 2738,
      "Ġlack": 2739,
      "Ġnegative": 2740,
      "Ġorganization": 2741,
      "Ġplants": 2742,
      "Ġsafe": 2743,
      "Ġprincipl": 2744,
      "Ġbasic": 2745,
      "Ġincluded": 2746,
      "ĠAfrican": 2747,
      "ĠAfrica": 2748,
      "ference": 2749,
      "ĠJan": 2750,
      "ĠJanu": 2751,
      "ĠJanuary": 2752,
      "ĠColle": 2753,
      "Ġuseful": 2754,
      "ĠRob": 2755,
      "ĠRobert": 2756,
      "Ġtrack": 2757,
      "Ġsch": 2758,
      "Ġgoing": 2759,
      "Ġgoal": 2760,
      "teg": 2761,
      "rote": 2762,
      "Ġwrote": 2763,
      "oll": 2764,
      "Ġvi": 2765,
      "Ġviol": 2766,
      "ĠTech": 2767,
      "Ġspeech": 2768,
      "Ġdistribution": 2769,
      "ĠMus": 2770,
      "fect": 2771,
      "joy": 2772,
      "Ġenjoy": 2773,
      "Ġship": 2774,
      "Ġsleep": 2775,
      "ĠFirst": 2776,
      "rap": 2777,
      "Ġconstruction": 2778,
      "ership": 2779,
      "ĠEm": 2780,
      "Ġsust": 2781,
      "Ġsustain": 2782,
      "Ġgain": 2783,
      "'re": 2784,
      "Ġspir": 2785,
      "Ġspirit": 2786,
      "Ġbelieved": 2787,
      "Ġadj": 2788,
      "ension": 2789,
      "ĠServ": 2790,
      "oud": 2791,
      "ured": 2792,
      "Ġsure": 2793,
      "Ġdistrict": 2794,
      "Ġrestrict": 2795,
      "ĠCollege": 2796,
      "Ġmarri": 2797,
      "Ġancient": 2798,
      "Ġscre": 2799,
      "Ġfeed": 2800,
      "Ġharm": 2801,
      "Ġresist": 2802,
      "rogen": 2803,
      "ĠHis": 2804,
      "ison": 2805,
      "stances": 2806,
      "Ġdest": 2807,
      "Ġdestro": 2808,
      "ecut": 2809,
      "Ġteachers": 2810,
      "ĠGu": 2811,
      "Ġpie": 2812,
      "Ġresident": 2813,
      "Ġhousehold": 2814,
      "ump": 2815,
      "umb": 2816,
      "Ġtook": 2817,
      "Ġpeace": 2818,
      "ĠIsra": 2819,
      "ĠIsrael": 2820,
      "Ġsuffer": 2821,
      "ster": 2822,
      "Ġminim": 2823,
      "Ġanimals": 2824,
      "ruary": 2825,
      "bruary": 2826,
      "adem": 2827,
      "Ġlog": 2828,
      "Ġvict": 2829,
      "Ġtechnolog": 2830,
      "On": 2831,
      "ON": 2832,
      "Ġanything": 2833,
      "Ġeverything": 2834,
      "Ġbillion": 2835,
      "Ġsolar": 2836,
      "Ġscholar": 2837,
      "Ġsent": 2838,
      "IN": 2839,
      "ID": 2840,
      "cular": 2841,
      "Ġadop": 2842,
      "ivision": 2843,
      "Ġextreme": 2844,
      "ĠTechn": 2845,
      "Ġsites": 2846,
      "uthors": 2847,
      "itude": 2848,
      "ĠGe": 2849,
      "ĠGeor": 2850,
      "we": 2851,
      "Ġmiles": 2852,
      "anger": 2853,
      "acter": 2854,
      "Ġbacter": 2855,
      "Ġmultiple": 2856,
      "ĠBlack": 2857,
      "Ġacadem": 2858,
      "au": 2859,
      "aily": 2860,
      "Ġrespond": 2861,
      "ustom": 2862,
      "Ġdaily": 2863,
      "ĠGeorge": 2864,
      "Ġdeb": 2865,
      "Ġsection": 2866,
      "Ġquant": 2867,
      "Ġunderstanding": 2868,
      "Ġsetting": 2869,
      "Ġequip": 2870,
      "Ġequipment": 2871,
      "Ġexperiment": 2872,
      "Ġexperienc": 2873,
      "ĠGovernment": 2874,
      "ĠGreek": 2875,
      "Ġprior": 2876,
      "Ġillness": 2877,
      "Ġanalys": 2878,
      "Ġanalysis": 2879,
      "Ġhistorical": 2880,
      "ES": 2881,
      "Ġconsumption": 2882,
      "Ġ2006": 2883,
      "ished": 2884,
      "Ġtown": 2885,
      "ĠHIV": 2886,
      "Ġmechanism": 2887,
      "Ġdetermin": 2888,
      "ĠService": 2889,
      "Ġface": 2890,
      "ĠCounty": 2891,
      "Ġmix": 2892,
      "athem": 2893,
      "Ġeventually": 2894,
      "stance": 2895,
      "Ġmeaning": 2896,
      "Ġcapac": 2897,
      "Ġsoftware": 2898,
      "Ġmanag": 2899,
      "Ġtree": 2900,
      "AR": 2901,
      "OR": 2902,
      "Ġroad": 2903,
      "Ġemb": 2904,
      "Ġresource": 2905,
      "Ġsuper": 2906,
      "athemat": 2907,
      "Ġpurp": 2908,
      "Ġpurpose": 2909,
      "olic": 2910,
      "Ġrich": 2911,
      "itch": 2912,
      "ych": 2913,
      "sych": 2914,
      "Ġpsych": 2915,
      "Ġterrit": 2916,
      "dom": 2917,
      "ĠAssociation": 2918,
      "Ġreserv": 2919,
      "ĠJu": 2920,
      "ĠJuly": 2921,
      "Ġindependent": 2922,
      "ĠIm": 2923,
      "Ġintroduced": 2924,
      "Ġmonit": 2925,
      "Ġmonitor": 2926,
      "ciences": 2927,
      "Ġdevice": 2928,
      "anguages": 2929,
      "ĠPart": 2930,
      "Ġsold": 2931,
      "ont": 2932,
      "ior": 2933,
      "ĠWork": 2934,
      "ĠWest": 2935,
      "ancy": 2936,
      "racy": 2937,
      "ergy": 2938,
      "ĠEnergy": 2939,
      "acy": 2940,
      "Ġproper": 2941,
      "erve": 2942,
      "ĠHigh": 2943,
      "Ġrule": 2944,
      "Ġrates": 2945,
      "Ġfamous": 2946,
      "Ġnames": 2947,
      "ĠJames": 2948,
      "Ġer": 2949,
      "Ġox": 2950,
      "Ġtaking": 2951,
      "Ġtakes": 2952,
      "ones": 2953,
      "Ġbasis": 2954,
      "room": 2955,
      "Ġclassroom": 2956,
      "Ġ2000": 2957,
      "ĠProject": 2958,
      "Ġgreater": 2959,
      "water": 2960,
      "emory": 2961,
      "Ġmemory": 2962,
      "life": 2963,
      "Ġleave": 2964,
      "Ġ2005": 2965,
      "Ġseven": 2966,
      "Ġmonths": 2967,
      "ĠCommun": 2968,
      "Ġcauses": 2969,
      "Ġcaused": 2970,
      "ling": 2971,
      "ler": 2972,
      "ĠUnion": 2973,
      "atholic": 2974,
      "Ġmember": 2975,
      "Ġnearly": 2976,
      "Ġquickly": 2977,
      "yd": 2978,
      "Ġhyd": 2979,
      "Ġsurvey": 2980,
      "ury": 2981,
      "Ġeasy": 2982,
      "And": 2983,
      "Ġfoot": 2984,
      "ĠInternet": 2985,
      "ĠAustralia": 2986,
      "Ġbacteria": 2987,
      "Ġconservation": 2988,
      "ĠCouncil": 2989,
      "Ġdiab": 2990,
      "book": 2991,
      "Ġreve": 2992,
      "Ġreveal": 2993,
      "Ġinteg": 2994,
      "tt": 2995,
      "ttp": 2996,
      "Ġhttp": 2997,
      "rol": 2998,
      "sequent": 2999,
      "Ġcustom": 3000,
      "One": 3001,
      "Ġconne": 3002,
      "ought": 3003,
      "apt": 3004,
      "Ġadapt": 3005,
      "ott": 3006,
      "St": 3007,
      "ĠArt": 3008,
      "ĠArm": 3009,
      "ĠArch": 3010,
      "Ġcapt": 3011,
      "Ġsett": 3012,
      "25": 3013,
      "Ġburn": 3014,
      "rag": 3015,
      "rad": 3016,
      "Ġextra": 3017,
      "ĠSc": 3018,
      "Ġec": 3019,
      "ĠShe": 3020,
      "Ġadopt": 3021,
      "Ġvers": 3022,
      "Ġversion": 3023,
      "Ġdiabet": 3024,
      "Ġworking": 3025,
      "Ġcompos": 3026,
      "he": 3027,
      "head": 3028,
      "ebruary": 3029,
      "ĠFebruary": 3030,
      "Ġbreast": 3031,
      "isc": 3032,
      "lic": 3033,
      "Ġreprodu": 3034,
      "ĠHouse": 3035,
      "Ġcomes": 3036,
      "Ġprimarily": 3037,
      "ĠDr": 3038,
      "Ġperfect": 3039,
      "Ġtraining": 3040,
      "ĠRom": 3041,
      "Ġhom": 3042,
      "Ġroom": 3043,
      "Ġroot": 3044,
      "Ġhospital": 3045,
      "Ġproducts": 3046,
      "Ġsevere": 3047,
      "Ġ.": 3048,
      "Ġed": 3049,
      "Ġsymb": 3050,
      "amb": 3051,
      "Ġtiss": 3052,
      "Ġtissue": 3053,
      "Ġdefinition": 3054,
      "ĠGr": 3055,
      "ĠRoman": 3056,
      "Ġinvolved": 3057,
      "Ġsituation": 3058,
      "Ġdecl": 3059,
      "ĠFl": 3060,
      "load": 3061,
      "by": 3062,
      "Ġbrother": 3063,
      "Ġconfirm": 3064,
      "Ġlonger": 3065,
      "Ġcompet": 3066,
      "iet": 3067,
      "Ġconstant": 3068,
      "isions": 3069,
      "Ġtraditional": 3070,
      "Ġpersonal": 3071,
      "Ġparents": 3072,
      "Ġwoman": 3073,
      "Ġborn": 3074,
      "equ": 3075,
      "Ġconsequ": 3076,
      "Ġsqu": 3077,
      "Ġsquare": 3078,
      "AT": 3079,
      "Ġarticles": 3080,
      "ridge": 3081,
      "uge": 3082,
      "ĠYour": 3083,
      "Ġconstruct": 3084,
      "entially": 3085,
      "Ġcharacteristics": 3086,
      "Ġneighb": 3087,
      "hap": 3088,
      "Ġperhap": 3089,
      "Ġtransfer": 3090,
      "Ġprefer": 3091,
      "Ġapplication": 3092,
      "Ġapplications": 3093,
      "Ġpopulations": 3094,
      "Ġexact": 3095,
      "ĠWestern": 3096,
      "ĠNo": 3097,
      "ĠNe": 3098,
      "Ġadditional": 3099,
      "Ġscale": 3100,
      "Ġmiddle": 3101,
      "inter": 3102,
      "Ġwinter": 3103,
      "ĠCanada": 3104,
      "ĠOrgan": 3105,
      "Ġestablished": 3106,
      "Ġcapacity": 3107,
      "Ġobvious": 3108,
      "Ġvideo": 3109,
      "ĠPark": 3110,
      "Ġnation": 3111,
      "inal": 3112,
      "inary": 3113,
      "Ġeval": 3114,
      "Ġevalu": 3115,
      "ĠCentral": 3116,
      "Ġrights": 3117,
      "Ġhours": 3118,
      "ĠSystem": 3119,
      "be": 3120,
      "Ġwriting": 3121,
      "ring": 3122,
      "Ġspring": 3123,
      "itiz": 3124,
      "itizens": 3125,
      "ins": 3126,
      "col": 3127,
      "ĠEd": 3128,
      "Ġwast": 3129,
      "uff": 3130,
      "ĠWeb": 3131,
      "Ġscreen": 3132,
      "stall": 3133,
      "Ġwall": 3134,
      "Ġdanger": 3135,
      "Ġguid": 3136,
      "pid": 3137,
      "Ġrapid": 3138,
      "olid": 3139,
      "Ġdire": 3140,
      "Ġdirection": 3141,
      "quest": 3142,
      "Ġimmune": 3143,
      "Ġ193": 3144,
      "ĠHuman": 3145,
      "Ġdirectly": 3146,
      "Ġhost": 3147,
      "Ġcontract": 3148,
      "Ġmole": 3149,
      "Ġmention": 3150,
      "Ġmess": 3151,
      "Ġmach": 3152,
      "Ġ195": 3153,
      "Ġperm": 3154,
      "ised": 3155,
      "Ġkept": 3156,
      "Ġdestroy": 3157,
      "Ġsecret": 3158,
      "Ġassign": 3159,
      "Ġopportunity": 3160,
      "Ġopportunities": 3161,
      "yl": 3162,
      "Ġinfect": 3163,
      "Ġagricultural": 3164,
      "Ġcultural": 3165,
      "Ġregions": 3166,
      "While": 3167,
      "Ġfather": 3168,
      "Ġweather": 3169,
      "Ġpowerful": 3170,
      "Ġserve": 3171,
      "lict": 3172,
      "Ġconflict": 3173,
      "ĠProfess": 3174,
      "ĠCommission": 3175,
      "ologists": 3176,
      "ĠPublic": 3177,
      "Ġothers": 3178,
      "Ġdatab": 3179,
      "Ġpurpos": 3180,
      "Ġbelief": 3181,
      "Ġcenter": 3182,
      "Ġreceived": 3183,
      "ĠDav": 3184,
      "ĠDavid": 3185,
      "Ġreading": 3186,
      "Ġhope": 3187,
      "aunch": 3188,
      "Ġlaunch": 3189,
      "Ġlost": 3190,
      "ercise": 3191,
      "Ġexercise": 3192,
      "Ġexam": 3193,
      "Ġreported": 3194,
      "Ġannual": 3195,
      "Ġvisual": 3196,
      "Ġsymbol": 3197,
      "Ġalternative": 3198,
      "ircraft": 3199,
      "Ġproperty": 3200,
      "Ġ21": 3201,
      "Ġorganizations": 3202,
      "ĠChines": 3203,
      "aries": 3204,
      "Ġstar": 3205,
      "Ġsugar": 3206,
      "ography": 3207,
      "Ġfinding": 3208,
      "irgin": 3209,
      "ĠVirgin": 3210,
      "Ġstop": 3211,
      "Ġfailure": 3212,
      "Ġexecut": 3213,
      "ĠGroup": 3214,
      "Ġunique": 3215,
      "Ġjoint": 3216,
      "Ġeth": 3217,
      "Ġeight": 3218,
      "Ġveh": 3219,
      "Ġvehic": 3220,
      "Ġrunning": 3221,
      "Ġbar": 3222,
      "Ġnuclear": 3223,
      "Ġbase": 3224,
      "pre": 3225,
      "Ġinterpre": 3226,
      "ĠFrom": 3227,
      "Ġpollution": 3228,
      "Ġsurger": 3229,
      "Ġlate": 3230,
      "Ġvirt": 3231,
      "Un": 3232,
      "Ġanti": 3233,
      "Ġantib": 3234,
      "Ġspeed": 3235,
      "Ġseek": 3236,
      "Ġ2004": 3237,
      "):": 3238,
      "Ġshape": 3239,
      "Ġsignal": 3240,
      "ĠMan": 3241,
      "Ġfrequ": 3242,
      "Ġvolum": 3243,
      "oub": 3244,
      "rick": 3245,
      "Ġlines": 3246,
      "Ġproperties": 3247,
      "Ġx": 3248,
      "ĠColumb": 3249,
      "ĠMost": 3250,
      "Ġpossib": 3251,
      "Ġpossess": 3252,
      "Ġstatus": 3253,
      "Ġpurch": 3254,
      "Ġsupply": 3255,
      "Ġeat": 3256,
      "ĠDNA": 3257,
      "With": 3258,
      "house": 3259,
      "cape": 3260,
      "Ġactual": 3261,
      "Ġannoun": 3262,
      "ouch": 3263,
      "ranch": 3264,
      "part": 3265,
      "Ġstaff": 3266,
      "ĠChar": 3267,
      "Ã¡": 3268,
      "ÃŃ": 3269,
      "Ġinstead": 3270,
      "ĠRus": 3271,
      "ĠRuss": 3272,
      "Ġeffic": 3273,
      "Ġdoesn": 3274,
      "which": 3275,
      "Ġ186": 3276,
      "Ġmaterials": 3277,
      "sues": 3278,
      "Ġissues": 3279,
      "Ġpresence": 3280,
      "Ġinv": 3281,
      "Ġinvolve": 3282,
      "Ġfilm": 3283,
      "Ġcombination": 3284,
      "Ġtele": 3285,
      "itamin": 3286,
      "Ġvitamin": 3287,
      "structure": 3288,
      "nown": 3289,
      "known": 3290,
      "action": 3291,
      "Ġbank": 3292,
      "To": 3293,
      "Ġhabitat": 3294,
      "Ġcool": 3295,
      "wer": 3296,
      "swer": 3297,
      "Ġanswer": 3298,
      "Ġearlier": 3299,
      "Ġgives": 3300,
      "Ġgraph": 3301,
      "Ġinterpret": 3302,
      "Ġrecently": 3303,
      "ĠDevelopment": 3304,
      "Ġrequest": 3305,
      "ĠPar": 3306,
      "Ġut": 3307,
      "aut": 3308,
      "Ġ/": 3309,
      "Ġmountain": 3310,
      "Ġmic": 3311,
      "Ġmicro": 3312,
      "Ġsea": 3313,
      "Ġsequ": 3314,
      "Ġmission": 3315,
      "Ġextensive": 3316,
      "Ġpot": 3317,
      "Ġestimated": 3318,
      "Ġgave": 3319,
      "Ġoccas": 3320,
      "Ġpack": 3321,
      "Ġwatch": 3322,
      "els": 3323,
      "stron": 3324,
      "ronic": 3325,
      "40": 3326,
      "Ġir": 3327,
      "Ġcrim": 3328,
      "Ġcode": 3329,
      "Ġgame": 3330,
      "Ġadvanced": 3331,
      "Ġadvant": 3332,
      "ets": 3333,
      "Ġchoose": 3334,
      "Ġchoice": 3335,
      "Ġoffice": 3336,
      "ĠWater": 3337,
      "emale": 3338,
      "Ġboard": 3339,
      "Ġprison": 3340,
      "Ġfemale": 3341,
      "Ġstudied": 3342,
      "ĠHar": 3343,
      "ĠAccording": 3344,
      "ĠAb": 3345,
      "Ġabs": 3346,
      "Al": 3347,
      "Although": 3348,
      "axim": 3349,
      "Ġgovern": 3350,
      "active": 3351,
      "Ġdeal": 3352,
      "ental": 3353,
      "Ġwent": 3354,
      "Ġtrees": 3355,
      "ĠBritain": 3356,
      "Ġsal": 3357,
      "ASA": 3358,
      "ĠNASA": 3359,
      "Ġcitizens": 3360,
      "Ġbab": 3361,
      "Ġmilk": 3362,
      "Ġmajority": 3363,
      "Ġreligion": 3364,
      "Ġice": 3365,
      "Ġmap": 3366,
      "abilities": 3367,
      "Ġfacilities": 3368,
      "Ġrare": 3369,
      "80": 3370,
      "Ġ60": 3371,
      "wise": 3372,
      "ĠSocial": 3373,
      "Ġ2003": 3374,
      "Ġ2001": 3375,
      "Ġ2002": 3376,
      "Ġreference": 3377,
      "Ġyield": 3378,
      "Ġeasier": 3379,
      "Ġcontribution": 3380,
      "roll": 3381,
      "Ġbackground": 3382,
      "Ġtechnologies": 3383,
      "Ġcard": 3384,
      "Ġsufficient": 3385,
      "Ġefficient": 3386,
      "rel": 3387,
      "apter": 3388,
      "Ġagriculture": 3389,
      "Ġedit": 3390,
      "itte": 3391,
      "ĠCommitte": 3392,
      "Ġplanning": 3393,
      "Ġfav": 3394,
      "eign": 3395,
      "Ġult": 3396,
      "Ġexpand": 3397,
      "ondon": 3398,
      "ĠLondon": 3399,
      "Ġge": 3400,
      "Ġstrength": 3401,
      "Ġappoint": 3402,
      "ĠPhil": 3403,
      "rupt": 3404,
      "crib": 3405,
      "Ġcareful": 3406,
      "Ġpiece": 3407,
      "Ġ190": 3408,
      "akes": 3409,
      "Ġbelong": 3410,
      "oard": 3411,
      "ĠBecause": 3412,
      "Ġstream": 3413,
      "Ġsummer": 3414,
      "Ġcontinues": 3415,
      "Ġdeveloping": 3416,
      "Ġeye": 3417,
      "aint": 3418,
      "aught": 3419,
      "Ġdog": 3420,
      "eved": 3421,
      "rieved": 3422,
      "etrieved": 3423,
      "ĠRetrieved": 3424,
      "Ġimproved": 3425,
      "rief": 3426,
      "Ġdriv": 3427,
      "Ġalone": 3428,
      "Ġdesigned": 3429,
      "Ġdecisions": 3430,
      "Ġradiation": 3431,
      "Ġlocation": 3432,
      "Ġtreated": 3433,
      "uk": 3434,
      "Ġseparate": 3435,
      "iency": 3436,
      "Ġefficiency": 3437,
      "Ġfrequency": 3438,
      "Ġcompon": 3439,
      "Ġcomponents": 3440,
      "Ġcompan": 3441,
      "Ġcompanies": 3442,
      "Ġfram": 3443,
      "Ġexperiences": 3444,
      "Ġneeded": 3445,
      "Ġneeds": 3446,
      "ĠChinese": 3447,
      "Ġfavor": 3448,
      "oon": 3449,
      "Ġdead": 3450,
      "Ġcomplet": 3451,
      "Ġperspect": 3452,
      "Ġaspect": 3453,
      "ĠMich": 3454,
      "Ġachieve": 3455,
      "Ġ+": 3456,
      "Ġattribut": 3457,
      "Ġattract": 3458,
      "Ġattend": 3459,
      "Ġattach": 3460,
      "ender": 3461,
      "back": 3462,
      "ynam": 3463,
      "Ġcateg": 3464,
      "exic": 3465,
      "ĠMexic": 3466,
      "Ġwindow": 3467,
      "aughter": 3468,
      "Ġminutes": 3469,
      "ship": 3470,
      "pro": 3471,
      "ĠCompany": 3472,
      "ute": 3473,
      "Ġsomeone": 3474,
      "Ġheat": 3475,
      "rance": 3476,
      "ĠFrance": 3477,
      "Ġresistance": 3478,
      "Ġ22": 3479,
      "Ġ23": 3480,
      "Ġcloud": 3481,
      "Ġremove": 3482,
      "ane": 3483,
      "Ġfinan": 3484,
      "Ġfinancial": 3485,
      "ologist": 3486,
      "Ġskills": 3487,
      "vers": 3488,
      "resh": 3489,
      "uments": 3490,
      "Ġdocuments": 3491,
      "utom": 3492,
      "time": 3493,
      "stronom": 3494,
      "Ġuses": 3495,
      "Ġtransm": 3496,
      "Ġtransl": 3497,
      "ĠSpace": 3498,
      "Ġreplace": 3499,
      "Ġnam": 3500,
      "Ġdark": 3501,
      "Ġreferred": 3502,
      "AN": 3503,
      "Ġelement": 3504,
      "eth": 3505,
      "Ġtruth": 3506,
      "Ġiron": 3507,
      "cont": 3508,
      "Ġsing": 3509,
      "Ġsingle": 3510,
      "Ġsat": 3511,
      "ille": 3512,
      "Ġrelatively": 3513,
      "ently": 3514,
      "Ġocean": 3515,
      "IS": 3516,
      "ohol": 3517,
      "cohol": 3518,
      "Ġalcohol": 3519,
      "ĠTechnology": 3520,
      "ottom": 3521,
      "Ġcrop": 3522,
      "Ġpieces": 3523,
      "Ġstri": 3524,
      "Ġcomplic": 3525,
      "Ġintegr": 3526,
      "Ġfresh": 3527,
      "Ġexpression": 3528,
      "Ġload": 3529,
      "Ġnumer": 3530,
      "Ġnumerous": 3531,
      "Ġmental": 3532,
      "ĠBook": 3533,
      "Ġbodies": 3534,
      "Ġargument": 3535,
      "acific": 3536,
      "Ġcopy": 3537,
      "Ġrelease": 3538,
      "Ġdoub": 3539,
      "Ġdivid": 3540,
      "Ġresponsibility": 3541,
      "Ġbox": 3542,
      "Ex": 3543,
      "EN": 3544,
      "Ġemph": 3545,
      "Ġemphas": 3546,
      "Ġemot": 3547,
      "Ġyellow": 3548,
      "ĠOff": 3549,
      "ĠOffice": 3550,
      "Ġsaw": 3551,
      "ĠLaw": 3552,
      "Ġfile": 3553,
      "force": 3554,
      "Ġforce": 3555,
      "omen": 3556,
      "ene": 3557,
      "Ġgold": 3558,
      "Ġcold": 3559,
      "Ġmuscle": 3560,
      "Ġchief": 3561,
      "ĠReg": 3562,
      "Ġpolicies": 3563,
      "Ġcombin": 3564,
      "Ġevents": 3565,
      "Ġflood": 3566,
      "Ġproduc": 3567,
      "ĠMore": 3568,
      "Ġpossibility": 3569,
      "Ġforces": 3570,
      "ĠEven": 3571,
      "Ġdistance": 3572,
      "Ġdistin": 3573,
      "Ġdistinct": 3574,
      "Ġdistribut": 3575,
      "Ġdegre": 3576,
      "Ġinj": 3577,
      "Ġlegis": 3578,
      "Ġlegisl": 3579,
      "Ġconclud": 3580,
      "Ġblue": 3581,
      "Ġmaxim": 3582,
      "ĠUnder": 3583,
      "Ġspend": 3584,
      "Ġstock": 3585,
      "Ġterms": 3586,
      "rong": 3587,
      "Ġwrong": 3588,
      "Ġfight": 3589,
      "Ġtrib": 3590,
      "rew": 3591,
      "ream": 3592,
      "Ġcontrast": 3593,
      "Ġhous": 3594,
      "Ġerr": 3595,
      "Ġsubstant": 3596,
      "Ġsubsequent": 3597,
      "ĠDuring": 3598,
      "Ġcommer": 3599,
      "Ġcommercial": 3600,
      "Ġcollege": 3601,
      "Ġgrowing": 3602,
      "verse": 3603,
      "Ġinjury": 3604,
      "aking": 3605,
      "Ġeconomy": 3606,
      "Ġmedicine": 3607,
      "wide": 3608,
      "Ġelectricity": 3609,
      "Ġemergency": 3610,
      "cycl": 3611,
      "Ġways": 3612,
      "Ġprograms": 3613,
      "Ġagencies": 3614,
      "ĠTran": 3615,
      "Ġsouthern": 3616,
      "Ġforeign": 3617,
      "Ġeyes": 3618,
      "ites": 3619,
      "Ġdiabetes": 3620,
      "Ġconnection": 3621,
      "Ġprogramm": 3622,
      "Ġmachine": 3623,
      "Ġbottom": 3624,
      "Ġdatabase": 3625,
      "tic": 3626,
      "ĠSecond": 3627,
      "Ġprep": 3628,
      "Ġprepared": 3629,
      "vision": 3630,
      "Ġmessage": 3631,
      "Ġ26": 3632,
      "IC": 3633,
      "Ġelse": 3634,
      "oviet": 3635,
      "Ġbecomes": 3636,
      "Ġguide": 3637,
      "Ġcred": 3638,
      "Ġcredit": 3639,
      "Ġoccurred": 3640,
      "Ġmill": 3641,
      "osystem": 3642,
      "Ġecosystem": 3643,
      "Ġhealthy": 3644,
      "ulf": 3645,
      "Ġupp": 3646,
      "Ġconsequences": 3647,
      "Ġviolence": 3648,
      "Ġspect": 3649,
      "ures": 3650,
      "Ġweak": 3651,
      "Ġbreath": 3652,
      "ĠCharles": 3653,
      "ival": 3654,
      "Ġwhom": 3655,
      "ĠThom": 3656,
      "ĠThomas": 3657,
      "Ġbeaut": 3658,
      "ĠSch": 3659,
      "field": 3660,
      "ĠVirginia": 3661,
      "Ġprepar": 3662,
      "Ġacquire": 3663,
      "Ġliber": 3664,
      "overty": 3665,
      "Ġsoon": 3666,
      "Ġsil": 3667,
      "Ġmineral": 3668,
      "Ġ27": 3669,
      "ĠPeople": 3670,
      "Ġ28": 3671,
      "Ġdr": 3672,
      "After": 3673,
      "iveness": 3674,
      "'ll": 3675,
      "sue": 3676,
      "Ġissue": 3677,
      "Ġbranch": 3678,
      "mosphere": 3679,
      "Ġatmosphere": 3680,
      "ework": 3681,
      "Ġletter": 3682,
      "itect": 3683,
      "Ġarchitect": 3684,
      "Ġfinal": 3685,
      "Ġdepression": 3686,
      "Ġglass": 3687,
      "Ġadded": 3688,
      "ament": 3689,
      "Ġfundament": 3690,
      "Ġstor": 3691,
      "Ġcompar": 3692,
      "Ġcorres": 3693,
      "ĠControl": 3694,
      "ĠGl": 3695,
      "related": 3696,
      "ĠNorthern": 3697,
      "Ġregist": 3698,
      "'ve": 3699,
      "Ġwww": 3700,
      "Ġteaching": 3701,
      "ĠCatholic": 3702,
      "ĠCivil": 3703,
      "Ġmathemat": 3704,
      "Ġadvantage": 3705,
      "rab": 3706,
      "ĠArab": 3707,
      "Ġliter": 3708,
      "Ġassemb": 3709,
      "Ġtechniques": 3710,
      "yond": 3711,
      "Ġbeyond": 3712,
      "Ġaction": 3713,
      "izing": 3714,
      "Ġeg": 3715,
      "Ġegg": 3716,
      "ĠAc": 3717,
      "ĠAcadem": 3718,
      "Ġwaste": 3719,
      "ee": 3720,
      "ifically": 3721,
      "Ġspecifically": 3722,
      "Ġengineer": 3723,
      "Ġeating": 3724,
      "Ġsexual": 3725,
      "ĠInformation": 3726,
      "Ġdiscussion": 3727,
      "Ġstrug": 3728,
      "Ġchronic": 3729,
      "Ġinstru": 3730,
      "Ġparticles": 3731,
      "osis": 3732,
      "Ġintend": 3733,
      "Ġwestern": 3734,
      "Ġcurrently": 3735,
      "ĠSince": 3736,
      "Ġtop": 3737,
      "sp": 3738,
      "Ġnamed": 3739,
      "Ġgard": 3740,
      "Ġimmed": 3741,
      "Ġimmedi": 3742,
      "Ġimmediately": 3743,
      "ese": 3744,
      "These": 3745,
      "ĠJapanese": 3746,
      "Ġrise": 3747,
      "aves": 3748,
      "ges": 3749,
      "ĠMed": 3750,
      "ĠMedic": 3751,
      "ĠMedicine": 3752,
      "ĠMedical": 3753,
      "Â·": 3754,
      "Ġdescribed": 3755,
      "ĠGre": 3756,
      "ĠGreen": 3757,
      "lection": 3758,
      "Ġconclus": 3759,
      "rack": 3760,
      "ycle": 3761,
      "ĠBy": 3762,
      "Ġfat": 3763,
      "ged": 3764,
      "Ġstrugg": 3765,
      "ett": 3766,
      "Ġschools": 3767,
      "Ġstay": 3768,
      "Ġmorning": 3769,
      "Ġdiv": 3770,
      "its": 3771,
      "Ġwildlife": 3772,
      "ĠEast": 3773,
      "ĠPacific": 3774,
      "Ġep": 3775,
      "Ġcommunication": 3776,
      "ĠRich": 3777,
      "Ġfair": 3778,
      "âĨ": 3779,
      "Ġlegal": 3780,
      "ĠEl": 3781,
      "Ġhuge": 3782,
      "24": 3783,
      "Ġorganism": 3784,
      "Ġexplor": 3785,
      "ĠPre": 3786,
      "ville": 3787,
      "Ġshows": 3788,
      "Ġswitch": 3789,
      "Ġnative": 3790,
      "ĠMexico": 3791,
      "Ġvolun": 3792,
      "iquid": 3793,
      "Ġliquid": 3794,
      "Ġwond": 3795,
      "Ġparticipants": 3796,
      "Ġjo": 3797,
      "Ġjoin": 3798,
      "Ġclin": 3799,
      "Ġclinical": 3800,
      "IT": 3801,
      "Ġpotentially": 3802,
      "ĠRichard": 3803,
      "ĠEncycl": 3804,
      "Ġrequirements": 3805,
      "itting": 3806,
      "60": 3807,
      "Ġtrial": 3808,
      "Ġconcentr": 3809,
      "ĠCo": 3810,
      "Ġvegetables": 3811,
      "Ġvision": 3812,
      "Ġbiological": 3813,
      "rade": 3814,
      "year": 3815,
      "Ġleaves": 3816,
      "Ġcommitte": 3817,
      "Ġadjust": 3818,
      "pite": 3819,
      "ĠWhite": 3820,
      "Ġdespite": 3821,
      "Ġcenturies": 3822,
      "Ġanalyz": 3823,
      "Ġgot": 3824,
      "Ġhot": 3825,
      "Ġhar": 3826,
      "Ġharvest": 3827,
      "Ġdescription": 3828,
      "Ġencourage": 3829,
      "22": 3830,
      "Ġregional": 3831,
      "Ġdangerous": 3832,
      "Ġprofessor": 3833,
      "Ġforest": 3834,
      "Ġbaby": 3835,
      "New": 3836,
      "with": 3837,
      "aith": 3838,
      "Ġfaith": 3839,
      "mith": 3840,
      "Ġdigital": 3841,
      "Ġlanguages": 3842,
      "Ġemail": 3843,
      "cription": 3844,
      "change": 3845,
      "arch": 3846,
      "Ġrelev": 3847,
      "Ġincreases": 3848,
      "Ġgrant": 3849,
      "Ġgrass": 3850,
      "PA": 3851,
      "Ġvictim": 3852,
      "ĠKing": 3853,
      "ĠCour": 3854,
      "ĠCourt": 3855,
      "Ġtouch": 3856,
      "Ġaccident": 3857,
      "ae": 3858,
      "ault": 3859,
      "Ġbeautif": 3860,
      "ycl": 3861,
      "Ġbattle": 3862,
      "Ġtoo": 3863,
      "Ġnecessarily": 3864,
      "Ġunivers": 3865,
      "Ġuniverse": 3866,
      "Ġindividuals": 3867,
      "Ġgarden": 3868,
      "Ġteacher": 3869,
      "Ġ189": 3870,
      "Ġwrite": 3871,
      "Ġappe": 3872,
      "Ġappeared": 3873,
      "use": 3874,
      "ele": 3875,
      "Ġcele": 3876,
      "Ġceleb": 3877,
      "Ġcelebr": 3878,
      "Ġcat": 3879,
      "ype": 3880,
      "Ġlimited": 3881,
      "org": 3882,
      "por": 3883,
      "orpor": 3884,
      "corpor": 3885,
      "ĠFlor": 3886,
      "ĠNot": 3887,
      "23": 3888,
      "Ġinside": 3889,
      "Ġtherap": 3890,
      "Ġtherapy": 3891,
      "ossil": 3892,
      "Ġfossil": 3893,
      "Ġfill": 3894,
      "ĠFederal": 3895,
      "Ġdecad": 3896,
      "Ġdecid": 3897,
      "Ġfluid": 3898,
      "Ġdry": 3899,
      "Ġmouth": 3900,
      "Ġrules": 3901,
      "Ġdecades": 3902,
      "Ġequal": 3903,
      "Ġequival": 3904,
      "Ġdrive": 3905,
      "son": 3906,
      "Ġwebs": 3907,
      "Ġwebsite": 3908,
      "Ġelim": 3909,
      "ĠCity": 3910,
      "Ġcharge": 3911,
      "exas": 3912,
      "ĠTexas": 3913,
      "igr": 3914,
      "Ġtechnical": 3915,
      "70": 3916,
      "Ġreplac": 3917,
      "Ġvisible": 3918,
      "ossible": 3919,
      "ĠUN": 3920,
      "Ġcorpor": 3921,
      "Ġcorresp": 3922,
      "Ġcorrespond": 3923,
      "Ġvill": 3924,
      "Ġhair": 3925,
      "Ġimpossible": 3926,
      "Ġimplic": 3927,
      "lim": 3928,
      "ĠMuslim": 3929,
      "ĠMuse": 3930,
      "ĠMuseum": 3931,
      "irl": 3932,
      "Ġgirl": 3933,
      "Ġframework": 3934,
      "Ġinstitution": 3935,
      "ĠConstitution": 3936,
      "Ġdiscipl": 3937,
      "Ġteeth": 3938,
      "Ġeveryone": 3939,
      "ĠSup": 3940,
      "pped": 3941,
      "ĠLibrary": 3942,
      "then": 3943,
      "Ġoperations": 3944,
      "Ġarr": 3945,
      "Ġhighly": 3946,
      "ĠResources": 3947,
      "ocr": 3948,
      "ocratic": 3949,
      "rition": 3950,
      "Ġnutrition": 3951,
      "Ġnutri": 3952,
      "Ġexcess": 3953,
      "Ġexcell": 3954,
      "Ġexc": 3955,
      "Ġexamin": 3956,
      "Ġsatell": 3957,
      "II": 3958,
      "Ġhear": 3959,
      "Ġexhibit": 3960,
      "Ġsamples": 3961,
      "Ġsample": 3962,
      "Ġtub": 3963,
      "Ġlaboratory": 3964,
      "hibition": 3965,
      "Ġpromote": 3966,
      "Ġpromot": 3967,
      "ĠGermany": 3968,
      "Ġapply": 3969,
      "ternal": 3970,
      "tal": 3971,
      "Ġtotal": 3972,
      "Ġcontinued": 3973,
      "ellig": 3974,
      "Ġintellig": 3975,
      "Ġtold": 3976,
      "Ġstories": 3977,
      "Ġphysic": 3978,
      "Ġmanner": 3979,
      "Ġplaced": 3980,
      "Ġcompletely": 3981,
      "ively": 3982,
      "Ġspok": 3983,
      "ĠOb": 3984,
      "ĠOf": 3985,
      "ĠOld": 3986,
      "Ġworth": 3987,
      "Ġstrategies": 3988,
      "astic": 3989,
      "ĠStudents": 3990,
      "Ġ1990": 3991,
      "Ġ80": 3992,
      "Ġmolecul": 3993,
      "ĠQue": 3994,
      "Ġfinally": 3995,
      "ĠFlorid": 3996,
      "Ġcontrovers": 3997,
      "ĠJust": 3998,
      "elt": 3999,
      "Ġking": 4000,
      "ĠDay": 4001,
      "Ġcreation": 4002,
      "Ġletters": 4003,
      "Ġaccur": 4004,
      "urb": 4005,
      "urg": 4006,
      "Ġexistence": 4007,
      "Ġinstall": 4008,
      "ĠLabor": 4009,
      "Ġmeeting": 4010,
      "mon": 4011,
      "Ġexternal": 4012,
      "Ġcircum": 4013,
      "Ġcircumstances": 4014,
      "Ġconcentration": 4015,
      "Ġrecognized": 4016,
      "arian": 4017,
      "Ġappar": 4018,
      "Ġupper": 4019,
      "Ġreduction": 4020,
      "Ġknew": 4021,
      "Ġsolid": 4022,
      "rolog": 4023,
      "udd": 4024,
      "itation": 4025,
      "Ġmethods": 4026,
      "Ġtrend": 4027,
      "Some": 4028,
      "Ġrevolution": 4029,
      "ĠInter": 4030,
      "go": 4031,
      "Ġadministration": 4032,
      "ĠVol": 4033,
      "Ġfirm": 4034,
      "ensity": 4035,
      "Ġauthority": 4036,
      "ĠSmith": 4037,
      "Ġvaccine": 4038,
      "Ġindustrial": 4039,
      "Ġexperiments": 4040,
      "eter": 4041,
      "Ġadequ": 4042,
      "Ġ29": 4043,
      "Ġpolice": 4044,
      "Ġstorage": 4045,
      "Ġbuy": 4046,
      "ceed": 4047,
      "Ġresolution": 4048,
      "ED": 4049,
      "oday": 4050,
      "Ġshift": 4051,
      "igration": 4052,
      "Ġslight": 4053,
      "Ġsav": 4054,
      "Ġbound": 4055,
      "Ġcompound": 4056,
      "ĠFound": 4057,
      "Ġround": 4058,
      "Ġdegrees": 4059,
      "Ġassessment": 4060,
      "Ġsect": 4061,
      "Ġremark": 4062,
      "mark": 4063,
      "Ġpark": 4064,
      "erm": 4065,
      "Ġconstitution": 4066,
      "oxide": 4067,
      "Ġoutput": 4068,
      "Ġcycle": 4069,
      "ographic": 4070,
      "ux": 4071,
      "Ġstorm": 4072,
      "ys": 4073,
      "ĠPhys": 4074,
      "Ġmiss": 4075,
      "Ġmid": 4076,
      "ully": 4077,
      "Ġfully": 4078,
      "Ġfrequently": 4079,
      "ventional": 4080,
      "ĠMon": 4081,
      "29": 4082,
      "However": 4083,
      "Ġlibrary": 4084,
      "Ġworkers": 4085,
      "Ġcolleag": 4086,
      "Ġcolleagues": 4087,
      "ĠIS": 4088,
      "ĠISB": 4089,
      "ĠISBN": 4090,
      "udget": 4091,
      "ev": 4092,
      "Ġwealth": 4093,
      "ited": 4094,
      "Ġtool": 4095,
      "Ġraised": 4096,
      "Ġrain": 4097,
      "Ġrace": 4098,
      "Ġfix": 4099,
      "Ġpreg": 4100,
      "Ġpregn": 4101,
      "Ġpregnancy": 4102,
      "Ġeast": 4103,
      "Ġcounter": 4104,
      "war": 4105,
      "wareness": 4106,
      "ĠTw": 4107,
      "cles": 4108,
      "Ġolder": 4109,
      "ypt": 4110,
      "gypt": 4111,
      "ĠEgypt": 4112,
      "Ġpainting": 4113,
      "Ġfast": 4114,
      "pris": 4115,
      "Ġsurpris": 4116,
      "Ġbur": 4117,
      "Ġbrief": 4118,
      "Ġexpected": 4119,
      "Ġfear": 4120,
      "Ġsus": 4121,
      "ĠReport": 4122,
      "Ġnovel": 4123,
      "aneous": 4124,
      "Ġproduces": 4125,
      "stand": 4126,
      "ĠServices": 4127,
      "Ġmagnetic": 4128,
      "ham": 4129,
      "Ġconsult": 4130,
      "Ġconscious": 4131,
      "Ġ1999": 4132,
      "ĠFoundation": 4133,
      "ĠRead": 4134,
      "Ġyourself": 4135,
      "Ġplastic": 4136,
      ");": 4137,
      "ĠLord": 4138,
      "Ġcoord": 4139,
      "ĠPol": 4140,
      "Ġnar": 4141,
      "Ġnarrow": 4142,
      "Ġvess": 4143,
      "Ġprecise": 4144,
      "Ġefforts": 4145,
      "Ġthick": 4146,
      "cript": 4147,
      "Ġflight": 4148,
      "ĠDo": 4149,
      "ĠDirect": 4150,
      "Ġstage": 4151,
      "Ġste": 4152,
      "Ġprice": 4153,
      "ĠTherefore": 4154,
      "Ġbright": 4155,
      "Ġurb": 4156,
      "Ġurban": 4157,
      "anish": 4158,
      "ĠSpanish": 4159,
      "omb": 4160,
      "Ġtwent": 4161,
      "Ġcomfort": 4162,
      "Ġeastern": 4163,
      "well": 4164,
      "Ġotherwise": 4165,
      "Ġcook": 4166,
      "Ġcities": 4167,
      "Ġcr": 4168,
      "Ġdied": 4169,
      "Ġdioxide": 4170,
      "Ġspiritual": 4171,
      "Ġoptions": 4172,
      "ivers": 4173,
      "iversity": 4174,
      "ĠHistor": 4175,
      "Ġplease": 4176,
      "Ġchapter": 4177,
      "ĠGlob": 4178,
      "obile": 4179,
      "Ġpoly": 4180,
      "ĠCarol": 4181,
      "ĠCarolina": 4182,
      "27": 4183,
      "26": 4184,
      "Ġgreenhouse": 4185,
      "ĠReview": 4186,
      "Ġinterview": 4187,
      "ĠHere": 4188,
      "Ġperhaps": 4189,
      "Ġsend": 4190,
      "Ġbenefits": 4191,
      "Ġtools": 4192,
      "See": 4193,
      "ections": 4194,
      "Ġinfections": 4195,
      "Ġsex": 4196,
      "rig": 4197,
      "ived": 4198,
      "rest": 4199,
      "ĠRight": 4200,
      "Ġextremely": 4201,
      "Ġflo": 4202,
      "Ġgeneration": 4203,
      "road": 4204,
      "Ġdisapp": 4205,
      "28": 4206,
      "Ġencounter": 4207,
      "Ġchallen": 4208,
      "Ġchallenge": 4209,
      "ĠWild": 4210,
      "Ġgene": 4211,
      "He": 4212,
      "Ġindex": 4213,
      "Ġultimately": 4214,
      "ION": 4215,
      "Ġdomin": 4216,
      "Ġdomest": 4217,
      "Ã¼": 4218,
      "Ġpractical": 4219,
      "Ġtypical": 4220,
      "Ġtrust": 4221,
      "ĠCanadian": 4222,
      "tection": 4223,
      "Ġaccompl": 4224,
      "Ġkidney": 4225,
      "Ġkids": 4226,
      "Ġseems": 4227,
      "ĠThus": 4228,
      "Ġdepartment": 4229,
      "Ġhappens": 4230,
      "Ġsuspect": 4231,
      "roph": 4232,
      "ĠRussian": 4233,
      "Ġphase": 4234,
      "ĠSecret": 4235,
      "ĠSoviet": 4236,
      "Ġinstrument": 4237,
      "Ġreaction": 4238,
      "aul": 4239,
      "ĠPaul": 4240,
      "ai": 4241,
      "ĠMiss": 4242,
      "21": 4243,
      "\".": 4244,
      "Ġemotional": 4245,
      "Ġtable": 4246,
      "anc": 4247,
      "ĠPlan": 4248,
      "Ġsurgery": 4249,
      "Ġvessels": 4250,
      "Ġmetal": 4251,
      "ĠBar": 4252,
      "Ġrelevant": 4253,
      "Ġmillions": 4254,
      "Ġheavy": 4255,
      "ĠArmy": 4256,
      "ĠEconom": 4257,
      "Ġselection": 4258,
      "Ġfollowed": 4259,
      "ĠEach": 4260,
      "Ġdecline": 4261,
      "Ġdecade": 4262,
      "Ġgrade": 4263,
      "unately": 4264,
      "fortunately": 4265,
      "According": 4266,
      "Ġisland": 4267,
      "Ġdomestic": 4268,
      "Ġclick": 4269,
      "ĠFranc": 4270,
      "ĠFrank": 4271,
      "Ġcomment": 4272,
      "board": 4273,
      "Ġopin": 4274,
      "________": 4275,
      "All": 4276,
      "Ġvolunte": 4277,
      "Ġproviding": 4278,
      "Ġ90": 4279,
      "Ġfreed": 4280,
      "Ġfreedom": 4281,
      "Ġmom": 4282,
      "Ġmoment": 4283,
      "Ġmale": 4284,
      "Ġdiscovered": 4285,
      "Ġapproved": 4286,
      "ieved": 4287,
      "ius": 4288,
      "Ġreality": 4289,
      "Ġsort": 4290,
      "ery": 4291,
      "Ġ70": 4292,
      "ception": 4293,
      "Ġbad": 4294,
      "istry": 4295,
      "atur": 4296,
      "Ġcru": 4297,
      "Ġautom": 4298,
      "Ġasked": 4299,
      "Ġstarted": 4300,
      "Ġnormally": 4301,
      "ĠLife": 4302,
      "Ġren": 4303,
      "Ġrenew": 4304,
      "Ġexchange": 4305,
      "ĠSw": 4306,
      "Ġtransmission": 4307,
      "actions": 4308,
      "ĠIsl": 4309,
      "ĠIslam": 4310,
      "Ġestimates": 4311,
      "ales": 4312,
      "Ġprinciples": 4313,
      "Ġexpensive": 4314,
      "Ġoperating": 4315,
      "Ġball": 4316,
      "Ġoverall": 4317,
      "Ġhighest": 4318,
      "Ġminor": 4319,
      "Ġinflamm": 4320,
      "Ġfeatures": 4321,
      "othe": 4322,
      "Ġhypothe": 4323,
      "ĠRevolution": 4324,
      "ĠTrans": 4325,
      "aign": 4326,
      "Ġcampaign": 4327,
      "Ġign": 4328,
      "Ġ<": 4329,
      "Ġwonder": 4330,
      "ĠNow": 4331,
      "Ġcomponent": 4332,
      "Ġcurric": 4333,
      "Ġprepare": 4334,
      "Ġcurricul": 4335,
      "Ġevolv": 4336,
      "Ġaff": 4337,
      "olute": 4338,
      "Ġabsolute": 4339,
      "Ġabsor": 4340,
      "ogn": 4341,
      "ognitive": 4342,
      "Ġdisorder": 4343,
      "Ġdisorders": 4344,
      "erson": 4345,
      "inistration": 4346,
      "ĠMinist": 4347,
      "Ġrat": 4348,
      "fl": 4349,
      "ama": 4350,
      "Ġtelevision": 4351,
      "Ġperman": 4352,
      "imens": 4353,
      "Ġdidn": 4354,
      "ollar": 4355,
      "Ġdollar": 4356,
      "From": 4357,
      "Ġrecognize": 4358,
      "Ġwidely": 4359,
      "Ġparts": 4360,
      "Ġhydrogen": 4361,
      "Ġcontamin": 4362,
      "ĠThen": 4363,
      "iti": 4364,
      "Ġiniti": 4365,
      "Ġi": 4366,
      "Ġrob": 4367,
      "Other": 4368,
      "Ġ#": 4369,
      "HE": 4370,
      "Ġchance": 4371,
      "Ġcommonly": 4372,
      "Ġextent": 4373,
      "Ġwif": 4374,
      "Ġmuscles": 4375,
      "izes": 4376,
      "Many": 4377,
      "Ġtransform": 4378,
      "Ġdeli": 4379,
      "yle": 4380,
      "Ġstyle": 4381,
      "ample": 4382,
      "example": 4383,
      "Ġelimin": 4384,
      "orial": 4385,
      "Ġlung": 4386,
      "Ġedition": 4387,
      "Ġepid": 4388,
      "Ġoxy": 4389,
      "Ġoxygen": 4390,
      "ambridge": 4391,
      "Ġdram": 4392,
      "Ġdrop": 4393,
      "Ġinstruction": 4394,
      "ĠAustralian": 4395,
      "Ġ1998": 4396,
      "198": 4397,
      "Ġcompre": 4398,
      "Ġcompreh": 4399,
      "Ġcomprehensive": 4400,
      "comp": 4401,
      "Ġdesire": 4402,
      "Ġrepe": 4403,
      "ĠAng": 4404,
      "ĠAnt": 4405,
      "ĠMiddle": 4406,
      "Ġlo": 4407,
      "ĠWildlife": 4408,
      "Ġneither": 4409,
      "Ġgames": 4410,
      "âĨĳ": 4411,
      "ĠJews": 4412,
      "Ġagency": 4413,
      "hab": 4414,
      "Ġcontemp": 4415,
      "aturally": 4416,
      "Ġoriginally": 4417,
      "Ġdepos": 4418,
      "Ġtraffic": 4419,
      "Ġbooks": 4420,
      "Ġworks": 4421,
      "Ġbirds": 4422,
      "Ġgiving": 4423,
      "Ġsmaller": 4424,
      "Ġcomposition": 4425,
      "ĠEngine": 4426,
      "ĠLaboratory": 4427,
      "ĠOver": 4428,
      "Ġwear": 4429,
      "pire": 4430,
      "ĠEmpire": 4431,
      "Ġpoverty": 4432,
      "Ġsac": 4433,
      "Ġintroduction": 4434,
      "Ġdig": 4435,
      "Ġlived": 4436,
      "ĠAgency": 4437,
      "iodiversity": 4438,
      "Ġcomparison": 4439,
      "Ġmaximum": 4440,
      "ĠUK": 4441,
      "ĠUse": 4442,
      "wood": 4443,
      "Ġprocesses": 4444,
      "Ġannounced": 4445,
      "Ġconventional": 4446,
      "drom": 4447,
      "Ġsyndrom": 4448,
      "Ġgrand": 4449,
      "Ġformer": 4450,
      "Ġsubm": 4451,
      "Ġimmigr": 4452,
      "Ġpurposes": 4453,
      "Ġunders": 4454,
      "co": 4455,
      "Ġdiscrim": 4456,
      "ĠWomen": 4457,
      "enomen": 4458,
      "Ġphenomen": 4459,
      "ze": 4460,
      "Ġvolume": 4461,
      "Ġson": 4462,
      "atric": 4463,
      "iatric": 4464,
      "ĠAgric": 4465,
      "Ġarrange": 4466,
      "Ġproport": 4467,
      "ma": 4468,
      "more": 4469,
      "Am": 4470,
      "Amer": 4471,
      "Americ": 4472,
      "Ġoperation": 4473,
      "Ġsequence": 4474,
      "ĠAtl": 4475,
      "ĠAtlant": 4476,
      "Ġclearly": 4477,
      "Ġconsists": 4478,
      "Ġbeautiful": 4479,
      "here": 4480,
      "uddh": 4481,
      "Ġcontrolled": 4482,
      "Ġroll": 4483,
      "American": 4484,
      "lin": 4485,
      "Ġrough": 4486,
      "Ġrural": 4487,
      "Ġexactly": 4488,
      "tock": 4489,
      "Ġoptim": 4490,
      "Ġpreserv": 4491,
      "Ġ1980": 4492,
      "Ġchanged": 4493,
      "ĠEncyclop": 4494,
      "ING": 4495,
      "Ġdiagnosis": 4496,
      "nowledge": 4497,
      "Ġsnow": 4498,
      "ĠRussia": 4499,
      "Ġestimate": 4500,
      "crete": 4501,
      "ĠCons": 4502,
      "ĠLou": 4503,
      "ĠLouis": 4504,
      "cientists": 4505,
      "Ġadults": 4506,
      "Ġchoices": 4507,
      "Ġtechnique": 4508,
      "Ġwife": 4509,
      "Ġvalu": 4510,
      "Ġdouble": 4511,
      "Ġportion": 4512,
      "Ġmatch": 4513,
      "Ġworldwide": 4514,
      "Ã³": 4515,
      "Ã¶": 4516,
      "Ġlooking": 4517,
      "Ġpreviously": 4518,
      "Ġsave": 4519,
      "Com": 4520,
      "Ġsensitive": 4521,
      "Ġens": 4522,
      "Ġensure": 4523,
      "Ġenh": 4524,
      "Ġelectr": 4525,
      "Ġelectrical": 4526,
      "ĠAnother": 4527,
      "Another": 4528,
      "Ġreduc": 4529,
      "Ġterritory": 4530,
      "Ġreform": 4531,
      "Ġtaught": 4532,
      "Ġconv": 4533,
      "Ġswe": 4534,
      "ĠSee": 4535,
      "Ġsubstance": 4536,
      "Ġten": 4537,
      "Ġmarriage": 4538,
      "Ġvillage": 4539,
      "ST": 4540,
      "Ġvia": 4541,
      "ĠAsia": 4542,
      "agement": 4543,
      "ĠManagement": 4544,
      "ĠFrancisc": 4545,
      "Ġexclus": 4546,
      "Ġinstruments": 4547,
      "ĠJud": 4548,
      "Ġrev": 4549,
      "ĠScott": 4550,
      "ience": 4551,
      "ĠFlorida": 4552,
      "Ġinstance": 4553,
      "Ã¢": 4554,
      "Ġundersto": 4555,
      "Ġunderstood": 4556,
      "ody": 4557,
      "top": 4558,
      "nov": 4559,
      "Ġcolum": 4560,
      "Ġcolumn": 4561,
      "name": 4562,
      "Ġcarried": 4563,
      "Ġdynam": 4564,
      "earning": 4565,
      "ĠKingdom": 4566,
      "Ġleading": 4567,
      "place": 4568,
      "her": 4569,
      "Ġcoming": 4570,
      "Ġunknown": 4571,
      "Ġ1997": 4572,
      "Ġessentially": 4573,
      "Ġmotion": 4574,
      "Ġfactor": 4575,
      "Ġhor": 4576,
      "Ġcomments": 4577,
      "Ġmolecular": 4578,
      "Ġadvoc": 4579,
      "Ġadvance": 4580,
      "Ġadvice": 4581,
      "Ġchann": 4582,
      "Ġcontinuous": 4583,
      "Ġdoubt": 4584,
      "Ġfundamental": 4585,
      "Ġrang": 4586,
      "Ġdomain": 4587,
      "AL": 4588,
      "ĠNatural": 4589,
      "Ġsatellite": 4590,
      "Ġdownload": 4591,
      "Ġhighlight": 4592,
      "quir": 4593,
      "Ġopinion": 4594,
      "Ġpush": 4595,
      "Ġinfra": 4596,
      "Ġinfrastructure": 4597,
      "Ġseed": 4598,
      "see": 4599,
      "Ġauthorities": 4600,
      "ĠConservation": 4601,
      "Ġnutrients": 4602,
      "Ġdeclared": 4603,
      "organ": 4604,
      "78": 4605,
      "berg": 4606,
      "ĠSuprem": 4607,
      "Ġsport": 4608,
      "ĠJose": 4609,
      "ĠJoseph": 4610,
      "Ġleaders": 4611,
      "Ġleadership": 4612,
      "Ġextract": 4613,
      "Ġremote": 4614,
      "Ġprinciple": 4615,
      "Ġinfluenc": 4616,
      "Ġabuse": 4617,
      "ata": 4618,
      "ĠSouthern": 4619,
      "ĠColumbia": 4620,
      "Ġdelay": 4621,
      "Ġexcellent": 4622,
      "Ġshar": 4623,
      "Ġtrouble": 4624,
      "Ġpages": 4625,
      "Ġrefuge": 4626,
      "Ġperspective": 4627,
      "Ġpp": 4628,
      "Ġtreatments": 4629,
      "Ġvo": 4630,
      "Ġvoice": 4631,
      "ictionary": 4632,
      "Ġstatement": 4633,
      "Ġelev": 4634,
      "ĠStudies": 4635,
      "Ġsupplement": 4636,
      "That": 4637,
      "Ġhaz": 4638,
      "Ġhazard": 4639,
      "Ġinternal": 4640,
      "als": 4641,
      "ĠEnvironmental": 4642,
      "iology": 4643,
      "oles": 4644,
      "Ġassistance": 4645,
      "cope": 4646,
      "ĠMc": 4647,
      "Ġmedium": 4648,
      "oly": 4649,
      "Ġbatter": 4650,
      "Ġlatter": 4651,
      "Ġbill": 4652,
      "tocol": 4653,
      "ĠÂ©": 4654,
      "ĠPsych": 4655,
      "greg": 4656,
      "Ġacademic": 4657,
      "burg": 4658,
      "Ġ*": 4659,
      "Ġsustainable": 4660,
      "ĠFood": 4661,
      "resent": 4662,
      "Ġusers": 4663,
      "each": 4664,
      "ĠTeach": 4665,
      "inn": 4666,
      "ulate": 4667,
      "ulated": 4668,
      "ĠFurther": 4669,
      "Ġorganized": 4670,
      "Ġorganic": 4671,
      "Ġsynthe": 4672,
      "Ġreact": 4673,
      "ĠBuddh": 4674,
      "Ġpoison": 4675,
      "ĠConf": 4676,
      "Ġneu": 4677,
      "Ġgoes": 4678,
      "Ġ1970": 4679,
      "Ġcorn": 4680,
      "Ġsignificantly": 4681,
      "ĠMark": 4682,
      "Ġprices": 4683,
      "Ġdrugs": 4684,
      "Ġshared": 4685,
      "As": 4686,
      "Ġrot": 4687,
      "ĠToday": 4688,
      "Ġ>": 4689,
      "Ġelection": 4690,
      "ĠTwo": 4691,
      "Ġmut": 4692,
      "Ġexisting": 4693,
      "RE": 4694,
      "Re": 4695,
      "ĠPort": 4696,
      "Ġstandards": 4697,
      "Ġindicate": 4698,
      "olester": 4699,
      "vironments": 4700,
      "Ġfelt": 4701,
      "ĠCommittee": 4702,
      "Ġbit": 4703,
      "Ġdefined": 4704,
      "Ġled": 4705,
      "Ġcoup": 4706,
      "Ġnaturally": 4707,
      "Ġfeeling": 4708,
      "Ġtrying": 4709,
      "Ġtwice": 4710,
      "ĠClass": 4711,
      "Ġvaluable": 4712,
      "Ġfarmers": 4713,
      "Ġdate": 4714,
      "oper": 4715,
      "Ġcooper": 4716,
      "Ġethn": 4717,
      "Ġneut": 4718,
      "Ġauthors": 4719,
      "Ġwa": 4720,
      "Ġwait": 4721,
      "Ġwon": 4722,
      "Ġwest": 4723,
      "Ġhon": 4724,
      "usion": 4725,
      "Ġoption": 4726,
      "Ġoccasion": 4727,
      "Ġ1996": 4728,
      "ĠElect": 4729,
      "elines": 4730,
      "Ġguidelines": 4731,
      "Ġrank": 4732,
      "what": 4733,
      "Ġuser": 4734,
      "Ġcharacters": 4735,
      "Ġdisturb": 4736,
      "isease": 4737,
      "prise": 4738,
      "pe": 4739,
      "Ġbord": 4740,
      "word": 4741,
      "Ġmicros": 4742,
      "Ġsn": 4743,
      "Ġgenes": 4744,
      "ĠOnce": 4745,
      "town": 4746,
      "AC": 4747,
      "ĠSecurity": 4748,
      "unt": 4749,
      "unk": 4750,
      "Ġhoriz": 4751,
      "Ġsurvive": 4752,
      "Ġslightly": 4753,
      "Ġvary": 4754,
      "aur": 4755,
      "Ġrecycl": 4756,
      "ustri": 4757,
      "Ġdri": 4758,
      "Ġfert": 4759,
      "Ġmotiv": 4760,
      "Ġcopyright": 4761,
      "Ġexplore": 4762,
      "stream": 4763,
      "Ġoffers": 4764,
      "point": 4765,
      "Ġaccurate": 4766,
      "Ġtit": 4767,
      "Ġtitle": 4768,
      "itis": 4769,
      "itness": 4770,
      "itable": 4771,
      "itial": 4772,
      "Ġsatis": 4773,
      "Ġ188": 4774,
      "spap": 4775,
      "Ġnewspap": 4776,
      "xic": 4777,
      "celer": 4778,
      "Ġacceler": 4779,
      "Ġobserved": 4780,
      "Ġinitial": 4781,
      "Ġphysics": 4782,
      "Ġweeks": 4783,
      "Ġdoctors": 4784,
      "Ġchildhood": 4785,
      "Ġcaptured": 4786,
      "Ġconvert": 4787,
      "ourney": 4788,
      "Ġjourney": 4789,
      "Ġanyone": 4790,
      "Ġdescend": 4791,
      "Ġhomes": 4792,
      "Ġfacility": 4793,
      "Ġutil": 4794,
      "Ġrail": 4795,
      "Ġrobot": 4796,
      "rable": 4797,
      "Ġbecoming": 4798,
      "idge": 4799,
      "Ġedge": 4800,
      "Ġbridge": 4801,
      "ĠAdm": 4802,
      "ĠAdministration": 4803,
      "Ġcoal": 4804,
      "Ġcolour": 4805,
      "Ġvalid": 4806,
      "Ġspot": 4807,
      "atically": 4808,
      "ats": 4809,
      "aters": 4810,
      "Ġwaters": 4811,
      "Ġlat": 4812,
      "Ġlatest": 4813,
      "west": 4814,
      "Ġliver": 4815,
      "Ġcontains": 4816,
      "Ġpoints": 4817,
      "Ġfamili": 4818,
      "Ġfamiliar": 4819,
      "iment": 4820,
      "lectual": 4821,
      "Ġpick": 4822,
      "Ġlaws": 4823,
      "ĠNature": 4824,
      "ĠTim": 4825,
      "Ġvehicles": 4826,
      "Ġvehicle": 4827,
      "ĠSur": 4828,
      "ĠSurve": 4829,
      "urt": 4830,
      "ĠOur": 4831,
      "ĠPer": 4832,
      "Ġpat": 4833,
      "Ġarmy": 4834,
      "agaz": 4835,
      "agazine": 4836,
      "Ġengag": 4837,
      "ĠWind": 4838,
      "ĠWindow": 4839,
      "Ġcommission": 4840,
      "icip": 4841,
      "Ġexpans": 4842,
      "ropical": 4843,
      "Ġpeak": 4844,
      "Ġneighbor": 4845,
      "ensus": 4846,
      "afety": 4847,
      "Ġdirector": 4848,
      "Ġwhe": 4849,
      "olesterol": 4850,
      "Ġhorse": 4851,
      "zz": 4852,
      "ĠHer": 4853,
      "Ġproceed": 4854,
      "Ġexceed": 4855,
      "Ġopposite": 4856,
      "Ġsalt": 4857,
      "Ġbomb": 4858,
      "90": 4859,
      "Ġcurriculum": 4860,
      "Ġsituations": 4861,
      "Ġsuitable": 4862,
      "vert": 4863,
      "chieved": 4864,
      "bre": 4865,
      "break": 4866,
      "ĠJes": 4867,
      "ĠJesus": 4868,
      "Ġchallenges": 4869,
      "Ġtour": 4870,
      "Ġcompetition": 4871,
      "Ġkil": 4872,
      "Ġcosts": 4873,
      "Ġwitness": 4874,
      "Ġ1995": 4875,
      "Ġaccomp": 4876,
      "Ġessay": 4877,
      "umber": 4878,
      "bert": 4879,
      "Ġmovements": 4880,
      "Ġenvironments": 4881,
      "Ġenem": 4882,
      "Ġitem": 4883,
      "Ġaffected": 4884,
      "ĠSpec": 4885,
      "spec": 4886,
      "Ġidentity": 4887,
      "rich": 4888,
      "Ġang": 4889,
      "ĠGeorg": 4890,
      "den": 4891,
      "Ġindependence": 4892,
      "Ġdamag": 4893,
      "Ġmere": 4894,
      "Ġmis": 4895,
      "Ġmaster": 4896,
      "Ġstore": 4897,
      "Ġheight": 4898,
      "Ġtheory": 4899,
      "Ġstru": 4900,
      "Ġpump": 4901,
      "ĠYear": 4902,
      "Ġdie": 4903,
      "Ġmargin": 4904,
      "Ġmarine": 4905,
      "Ġrapidly": 4906,
      "Ġstim": 4907,
      "Ġmamm": 4908,
      "Ġrepeated": 4909,
      "Ġrequires": 4910,
      "Ġsuc": 4911,
      "Ġsucceed": 4912,
      "cident": 4913,
      "Ġneighborhood": 4914,
      "Ġlayer": 4915,
      "roduction": 4916,
      "Ġobjects": 4917,
      "elling": 4918,
      "Ġequivalent": 4919,
      "olescent": 4920,
      "Ġremains": 4921,
      "Ġthousands": 4922,
      "ĠSim": 4923,
      "DA": 4924,
      "Ġimmun": 4925,
      "ĠMod": 4926,
      "ultiv": 4927,
      "Ġmeant": 4928,
      "raction": 4929,
      "ĠEvery": 4930,
      "Ġdelivery": 4931,
      "ĠTHE": 4932,
      "Ġabund": 4933,
      "Ġpermanent": 4934,
      "Ġstatistics": 4935,
      "Ġkilled": 4936,
      "Ġarchae": 4937,
      "Ġgreatest": 4938,
      "oyal": 4939,
      "Ġchanging": 4940,
      "Ġminimum": 4941,
      "body": 4942,
      "Ġabsorb": 4943,
      "Ġbudget": 4944,
      "Ġforms": 4945,
      "Ġenhance": 4946,
      "roop": 4947,
      "Ġtroop": 4948,
      "cop": 4949,
      "Ġdescript": 4950,
      "Ġscript": 4951,
      "rigin": 4952,
      "Ġratio": 4953,
      "IDS": 4954,
      "xford": 4955,
      "Ġwaves": 4956,
      "Ġexplan": 4957,
      "Ġbrok": 4958,
      "que": 4959,
      "Ġnav": 4960,
      "ellectual": 4961,
      "Ġintellectual": 4962,
      "espite": 4963,
      "Ġ1960": 4964,
      "Ġfindings": 4965,
      "Ġkm": 4966,
      "Ġmotor": 4967,
      "Ġdescribe": 4968,
      "Ġraise": 4969,
      "Ġagreement": 4970,
      "35": 4971,
      "istrict": 4972,
      "ĠMary": 4973,
      "ctic": 4974,
      "Ġbreed": 4975,
      "ĠGuide": 4976,
      "ises": 4977,
      "ĠDis": 4978,
      "ries": 4979,
      "ches": 4980,
      "ĠDisease": 4981,
      "Ġappre": 4982,
      "Ġappreci": 4983,
      "Ġwire": 4984,
      "ĠThrough": 4985,
      "iety": 4986,
      "xiety": 4987,
      "Ġcreating": 4988,
      "ilit": 4989,
      "Ġfacilit": 4990,
      "ĠEastern": 4991,
      "ĠVal": 4992,
      "ĠValley": 4993,
      "Ġbiggest": 4994,
      "Ġearthqu": 4995,
      "Ġfif": 4996,
      "Ġcriminal": 4997,
      "ulner": 4998,
      "Ġvulner": 4999,
      "ogen": 5000,
      "teen": 5001,
      "Ġhorm": 5002,
      "norm": 5003,
      "Ġabnorm": 5004,
      "Ġorbit": 5005,
      "Ġstem": 5006,
      "Ġsem": 5007,
      "raz": 5008,
      "Ġimprov": 5009,
      "Ġsomewhat": 5010,
      "ĠInstead": 5011,
      "By": 5012,
      "Ġsyndrome": 5013,
      "Ġmedications": 5014,
      "Ġobservations": 5015,
      "ĠCO": 5016,
      "RO": 5017,
      "Ġcrucial": 5018,
      "Ġsatisf": 5019,
      "Ġpair": 5020,
      "Ġarrest": 5021,
      "ĠSan": 5022,
      "Ġpan": 5023,
      "Ġtransition": 5024,
      "Ġmoon": 5025,
      "Ġallowed": 5026,
      "Ġallows": 5027,
      "Ġdetermined": 5028,
      "Ġcategories": 5029,
      "ĠAgriculture": 5030,
      "Ġtrip": 5031,
      "Ġtrig": 5032,
      "Ġtrigger": 5033,
      "iles": 5034,
      "ino": 5035,
      "Ġspent": 5036,
      "Ġmoved": 5037,
      "Ġmoving": 5038,
      "ĠSpe": 5039,
      "ĠSpecial": 5040,
      "Ġtempor": 5041,
      "Ġdoing": 5042,
      "ips": 5043,
      "Ġlands": 5044,
      "Ġlandscape": 5045,
      "Ġmanufacturing": 5046,
      "45": 5047,
      "Ġtissues": 5048,
      "ĠDef": 5049,
      "Ġcolors": 5050,
      "ĠNav": 5051,
      "Ġnearby": 5052,
      "ĠClimate": 5053,
      "ĠAnn": 5054,
      "ĠItal": 5055,
      "Ġqual": 5056,
      "Ġquar": 5057,
      "itz": 5058,
      "AS": 5059,
      "Ġimmediate": 5060,
      "Ġconstitut": 5061,
      "Ġbal": 5062,
      "Ġbalance": 5063,
      "ameter": 5064,
      "Ġwave": 5065,
      "risis": 5066,
      "Ġcrisis": 5067,
      "Ġconducted": 5068,
      "Ġdiameter": 5069,
      "ĠObama": 5070,
      "Ġmigr": 5071,
      "Ġtowards": 5072,
      "Ġintended": 5073,
      "ana": 5074,
      "ean": 5075,
      "ey": 5076,
      "Ġunlike": 5077,
      "Ġthreaten": 5078,
      "Ġwish": 5079,
      "Ġmassive": 5080,
      "ĠArctic": 5081,
      "iscover": 5082,
      "Ġappearance": 5083,
      "Ġappears": 5084,
      "Ġprojects": 5085,
      "ĠAmericans": 5086,
      "ague": 5087,
      "press": 5088,
      "ecution": 5089,
      "ĠProfessor": 5090,
      "ET": 5091,
      "En": 5092,
      "EC": 5093,
      "Ġgod": 5094,
      "Ġpaid": 5095,
      "At": 5096,
      "Ġcapable": 5097,
      "level": 5098,
      "ĠBoard": 5099,
      "ĠLat": 5100,
      "ĠLatin": 5101,
      "Ġpurchase": 5102,
      "Ġintelligence": 5103,
      "Ġserver": 5104,
      "Ġslaves": 5105,
      "Ġsoldi": 5106,
      "Ġsoldiers": 5107,
      "ortality": 5108,
      "Ġsettlement": 5109,
      "Ġbone": 5110,
      "ĠSpain": 5111,
      "Ġchain": 5112,
      "Ġche": 5113,
      "Ġcholesterol": 5114,
      "comm": 5115,
      "Ġpermission": 5116,
      "75": 5117,
      "ceived": 5118,
      "Ġhop": 5119,
      "Ġcouple": 5120,
      "Ġconnections": 5121,
      "Ġclim": 5122,
      "ĠOxford": 5123,
      "ĠAlex": 5124,
      "ĠAlexand": 5125,
      "Ġfrag": 5126,
      "Ġpull": 5127,
      "Ġcommitted": 5128,
      "Ġdefend": 5129,
      "Ġmachines": 5130,
      "ĠAir": 5131,
      "ĠPeter": 5132,
      "Ġgrew": 5133,
      "Ġpray": 5134,
      "Ġchemistry": 5135,
      "sect": 5136,
      "Ġinsect": 5137,
      "Ġfun": 5138,
      "Ġrecognition": 5139,
      "Ġstrain": 5140,
      "Ġsector": 5141,
      "Ġstrategy": 5142,
      "ĠPrince": 5143,
      "Ġdecided": 5144,
      "Ġproposed": 5145,
      "Ġindicates": 5146,
      "Ġleaf": 5147,
      "Ġfloor": 5148,
      "Ġstrengthen": 5149,
      "Ġdestruction": 5150,
      "Ġvital": 5151,
      "Ġsec": 5152,
      "Ġsecure": 5153,
      "Ġgift": 5154,
      "Ġvalley": 5155,
      "Ġexposed": 5156,
      "edia": 5157,
      "ĠEncyclopedia": 5158,
      "Ġpolitics": 5159,
      "Ġremoved": 5160,
      "ishop": 5161,
      "Ġ1994": 5162,
      "Ġden": 5163,
      "Ġadministr": 5164,
      "from": 5165,
      "Ġdaughter": 5166,
      "Ġcompleted": 5167,
      "vail": 5168,
      "Ġvast": 5169,
      "Ġvote": 5170,
      "ĠSpring": 5171,
      "Ġwound": 5172,
      "Ġinvestment": 5173,
      "Ġcry": 5174,
      "raight": 5175,
      "Ġstraight": 5176,
      "Ġpossibly": 5177,
      "ĠFort": 5178,
      "Ġdepth": 5179,
      "Ġdepart": 5180,
      "Ġcommit": 5181,
      "uit": 5182,
      "Ġcircuit": 5183,
      "Ġdiscovery": 5184,
      "36": 5185,
      "ĠPhoto": 5186,
      "Ġexpansion": 5187,
      "Ġmoral": 5188,
      "Ġhands": 5189,
      "Ġreducing": 5190,
      "Ġsurrounding": 5191,
      "Ġserved": 5192,
      "ĠMac": 5193,
      "ĠMountain": 5194,
      "iot": 5195,
      "Ġantibiot": 5196,
      "bl": 5197,
      "Ġinteresting": 5198,
      "Ġgender": 5199,
      "Ġsand": 5200,
      "Ġsoul": 5201,
      "Ġsoft": 5202,
      "Ġsong": 5203,
      "Ġtopics": 5204,
      "Ġpassed": 5205,
      "Ph": 5206,
      "ĠAdv": 5207,
      "Ġmanufactur": 5208,
      "Ġflex": 5209,
      "ĠEdward": 5210,
      "Ġforward": 5211,
      "Ġinvolves": 5212,
      "Ġthinking": 5213,
      "Ġcausing": 5214,
      "Ġethnic": 5215,
      "ĠTreat": 5216,
      "unting": 5217,
      "Ġcutting": 5218,
      "ĠLake": 5219,
      "ublished": 5220,
      "ublish": 5221,
      "Ġtum": 5222,
      "Ġtesting": 5223,
      "Ġtests": 5224,
      "vi": 5225,
      "Ġretain": 5226,
      "Ġrecip": 5227,
      "Ġremind": 5228,
      "Ġinsp": 5229,
      "Ġpow": 5230,
      "ĠItalian": 5231,
      "ĠPrevention": 5232,
      "embran": 5233,
      "ĠSte": 5234,
      "cest": 5235,
      "Ġancest": 5236,
      "ĠNetwork": 5237,
      "theless": 5238,
      "Ġunless": 5239,
      "Ġschem": 5240,
      "ĠExpl": 5241,
      "ĠScot": 5242,
      "Ġlecture": 5243,
      "Ġapparently": 5244,
      "ĠAbout": 5245,
      "empl": 5246,
      "Ġwarning": 5247,
      "ĠIll": 5248,
      "ĠIllino": 5249,
      "ony": 5250,
      "ewhere": 5251,
      "Ġmathematics": 5252,
      "Ġclient": 5253,
      "Ġencouraged": 5254,
      "Ġpet": 5255,
      "Ġpound": 5256,
      "ula": 5257,
      "Ġbul": 5258,
      "Ġcalci": 5259,
      "Ġprescrib": 5260,
      "Ġdepict": 5261,
      "Ġarguments": 5262,
      "Ġincome": 5263,
      "ito": 5264,
      "Ġobservation": 5265,
      "razil": 5266,
      "Ġinvas": 5267,
      "can": 5268,
      "Ġvolcan": 5269,
      "certain": 5270,
      "Ġbehaviour": 5271,
      "Ġsides": 5272,
      "Ġ185": 5273,
      "Ġdispos": 5274,
      "Ġinnov": 5275,
      "During": 5276,
      "38": 5277,
      "Ġincorpor": 5278,
      "Ġnations": 5279,
      "Ġfiles": 5280,
      "Ġblog": 5281,
      "Ġneck": 5282,
      "Ġkingdom": 5283,
      "ogue": 5284,
      "Ġcoordin": 5285,
      "Ġlisten": 5286,
      "Ġshowed": 5287,
      "ipedia": 5288,
      "ikipedia": 5289,
      "ocracy": 5290,
      "while": 5291,
      "Ġchrom": 5292,
      "ĠMart": 5293,
      "ĠRoyal": 5294,
      "roke": 5295,
      "Ġstroke": 5296,
      "Ġheard": 5297,
      "ĠTra": 5298,
      "Ġfoods": 5299,
      "ĠCanc": 5300,
      "Ġalter": 5301,
      "Ġtank": 5302,
      "ĠSuch": 5303,
      "ĠSciences": 5304,
      "Ġoccurs": 5305,
      "ĠMass": 5306,
      "Ġprevention": 5307,
      "ĠIII": 5308,
      "Ġder": 5309,
      "Ġderived": 5310,
      "shop": 5311,
      "Ġsubstances": 5312,
      "Ġproperly": 5313,
      "Ġaud": 5314,
      "Ġaudience": 5315,
      "Stud": 5316,
      "ĠOce": 5317,
      "ĠOcean": 5318,
      "Ġconserv": 5319,
      "Ġnerv": 5320,
      "ising": 5321,
      "More": 5322,
      "Ġcultiv": 5323,
      "Ġcomputers": 5324,
      "100": 5325,
      "Ġsimpl": 5326,
      "Ġcalcium": 5327,
      "dden": 5328,
      "Ġsudden": 5329,
      "oliday": 5330,
      "Ġ35": 5331,
      "Ġrespectively": 5332,
      "Ġarchitecture": 5333,
      "Ġphone": 5334,
      "print": 5335,
      "prof": 5336,
      "Ġhumans": 5337,
      "Ġcategory": 5338,
      "Ġconst": 5339,
      "Ġcam": 5340,
      "Ġcamer": 5341,
      "Ġes": 5342,
      "Ġescape": 5343,
      "ĠDistrict": 5344,
      "Ġdemocracy": 5345,
      "ĠThose": 5346,
      "Ġdiverse": 5347,
      "Here": 5348,
      "rage": 5349,
      "ourage": 5350,
      "esign": 5351,
      "Ġbelieves": 5352,
      "ĠTheir": 5353,
      "ĠKore": 5354,
      "Ġcore": 5355,
      "Ġengineering": 5356,
      "Ġlocations": 5357,
      "power": 5358,
      "Ġheavily": 5359,
      "Ġmeat": 5360,
      "ĠOrganization": 5361,
      "Ġmainten": 5362,
      "Ġmaintenance": 5363,
      "urance": 5364,
      "Ġsignificance": 5365,
      "Ġmessages": 5366,
      "ĠGeorgia": 5367,
      "Â®": 5368,
      "Ġflag": 5369,
      "48": 5370,
      "Ġcapture": 5371,
      "Ġargu": 5372,
      "Ġwet": 5373,
      "Ġrh": 5374,
      "aph": 5375,
      "Ġshap": 5376,
      "craft": 5377,
      "Ġspacecraft": 5378,
      "tomach": 5379,
      "ĠMassach": 5380,
      "ĠAre": 5381,
      "Ġagre": 5382,
      "Most": 5383,
      "Ġsuperv": 5384,
      "Ġmeasuring": 5385,
      "Ġmyster": 5386,
      "idden": 5387,
      "ĠWhy": 5388,
      "ĠWhere": 5389,
      "Ġopposition": 5390,
      "ĠCancer": 5391,
      "Ġ1992": 5392,
      "Ġ1993": 5393,
      "Ġ1991": 5394,
      "Ġhonor": 5395,
      "Ġinteraction": 5396,
      "ibraries": 5397,
      "Ġbroken": 5398,
      "ĠDem": 5399,
      "Ġepidem": 5400,
      "ĠLearning": 5401,
      "Ġobl": 5402,
      "Ġoblig": 5403,
      "33": 5404,
      "Ġpoet": 5405,
      "Ġfertil": 5406,
      "Ġfaster": 5407,
      "Ġdream": 5408,
      "Ġdrought": 5409,
      "Ġstimul": 5410,
      "Ġtwenty": 5411,
      "ĠAcademy": 5412,
      "ĠProtection": 5413,
      "Ġworse": 5414,
      "ployment": 5415,
      "Ġpartn": 5416,
      "Ġpartnership": 5417,
      "Ġparty": 5418,
      "ĠStudy": 5419,
      "car": 5420,
      "ĠVict": 5421,
      "Ġuniversity": 5422,
      "lies": 5423,
      "Ġsupplies": 5424,
      "Ġsuppos": 5425,
      "Cl": 5426,
      "Ġjustice": 5427,
      "standing": 5428,
      "ocal": 5429,
      "fford": 5430,
      "Ġmeasured": 5431,
      "Ġmeasures": 5432,
      "Ġarray": 5433,
      "Ġprotocol": 5434,
      "ĠMississ": 5435,
      "ĠMississipp": 5436,
      "Ġbiology": 5437,
      "ventions": 5438,
      "redient": 5439,
      "Ġcognitive": 5440,
      "Ġdescribes": 5441,
      "ĠMont": 5442,
      "Ġgrav": 5443,
      "Ġadvert": 5444,
      "Figure": 5445,
      "Ġenforce": 5446,
      "Ġadolescent": 5447,
      "zym": 5448,
      "Ġenzym": 5449,
      "Note": 5450,
      "alt": 5451,
      "Ġtopic": 5452,
      "Ġentry": 5453,
      "Ġnegot": 5454,
      "ĠStand": 5455,
      "ĠStandard": 5456,
      "ĠStre": 5457,
      "ĠStreet": 5458,
      "Ġcand": 5459,
      "Ġcandid": 5460,
      "Ġband": 5461,
      "Ġacres": 5462,
      "Ġhydro": 5463,
      "ĠGo": 5464,
      "ĠGoog": 5465,
      "och": 5466,
      "ago": 5467,
      "icago": 5468,
      "ĠChicago": 5469,
      "Ġguard": 5470,
      "urric": 5471,
      "cientific": 5472,
      "ari": 5473,
      "ĠItaly": 5474,
      "Ġintervention": 5475,
      "ylv": 5476,
      "ylvan": 5477,
      "ylvania": 5478,
      "Ġgrown": 5479,
      "Ġdensity": 5480,
      "Ġpriest": 5481,
      "test": 5482,
      "Ġprotest": 5483,
      "ĠTest": 5484,
      "offee": 5485,
      "Â©": 5486,
      "Ġcast": 5487,
      "ĠSub": 5488,
      "Ġperformed": 5489,
      "RI": 5490,
      "ĠGlobal": 5491,
      "cons": 5492,
      "ĠJack": 5493,
      "Ġexists": 5494,
      "Ġfeedback": 5495,
      "ĠConference": 5496,
      "ĠConvention": 5497,
      "ĠSun": 5498,
      "Ġstomach": 5499,
      "Ġsilver": 5500,
      "Ġbehaviors": 5501,
      "Ã¤": 5502,
      "Ġreli": 5503,
      "Ġrelief": 5504,
      "Ġeffectiveness": 5505,
      "ĠPower": 5506,
      "So": 5507,
      "Ġcombined": 5508,
      "Ġproportion": 5509,
      "imm": 5510,
      "Ġdebate": 5511,
      "Ġpatterns": 5512,
      "Ġclosely": 5513,
      "Ġoutbreak": 5514,
      "Now": 5515,
      "faces": 5516,
      "Ġsurfaces": 5517,
      "Ġdiscrimination": 5518,
      "Ġexamination": 5519,
      "Ġlabel": 5520,
      "Ġcontempor": 5521,
      "Ġsubstantial": 5522,
      "Ġdefic": 5523,
      "Ġdefect": 5524,
      "ĠAtlantic": 5525,
      "Ġpaint": 5526,
      "Ġrespir": 5527,
      "irty": 5528,
      "Ġpoem": 5529,
      "Ġinform": 5530,
      "Ġbuff": 5531,
      "Ġconcrete": 5532,
      "Ġdesert": 5533,
      "Ġzone": 5534,
      "Ġstone": 5535,
      "Ġincreasingly": 5536,
      "weight": 5537,
      "Ġdigest": 5538,
      "Ġreports": 5539,
      "Ġgather": 5540,
      "Ġlargely": 5541,
      "Ġdefense": 5542,
      "Ġcontemporary": 5543,
      "olk": 5544,
      "lands": 5545,
      "Ġgram": 5546,
      "Ġborder": 5547,
      "Ġmodels": 5548,
      "Ġmodified": 5549,
      "Ġfriends": 5550,
      "Ġboys": 5551,
      "ysis": 5552,
      "ethod": 5553,
      "Ġroof": 5554,
      "Ġideal": 5555,
      "born": 5556,
      "Ġrecon": 5557,
      "Ġearliest": 5558,
      "ister": 5559,
      "Ġpersist": 5560,
      "ĠAddition": 5561,
      "ĠProv": 5562,
      "Ġbarri": 5563,
      "raham": 5564,
      "Ġscientist": 5565,
      "Ġmolecules": 5566,
      "500": 5567,
      "Ġ500": 5568,
      "Ar": 5569,
      "Ġcritic": 5570,
      "Ġfacult": 5571,
      "lements": 5572,
      "ores": 5573,
      "ĠTimes": 5574,
      "andom": 5575,
      "Ġrandom": 5576,
      "heim": 5577,
      "ĠBefore": 5578,
      "Ġdivision": 5579,
      "ĠDivision": 5580,
      "Ġacute": 5581,
      "ĠData": 5582,
      "venue": 5583,
      "Ġbabies": 5584,
      "ĠJohnson": 5585,
      "Ġcertainly": 5586,
      "ĠTestament": 5587,
      "down": 5588,
      "Ġfilter": 5589,
      "Ġpowers": 5590,
      "alysis": 5591,
      "Ġexport": 5592,
      "mod": 5593,
      "Ġaccommod": 5594,
      "Ġfinished": 5595,
      "Ġitems": 5596,
      "ession": 5597,
      "utrition": 5598,
      "oma": 5599,
      "Ġquot": 5600,
      "Ġagents": 5601,
      "Ġcheap": 5602,
      "cap": 5603,
      "Ġprompt": 5604,
      "http": 5605,
      "Ġformed": 5606,
      "Ġgall": 5607,
      "Ġdecide": 5608,
      "Ġbond": 5609,
      "ĠFamily": 5610,
      "Ġuncertain": 5611,
      "Ġclasses": 5612,
      "Ġinde": 5613,
      "Ġreb": 5614,
      "ball": 5615,
      "ĠRel": 5616,
      "Ġstrict": 5617,
      "Ġcrew": 5618,
      "Ġstick": 5619,
      "Ġmentioned": 5620,
      "Ġirrig": 5621,
      "Ġmeasurements": 5622,
      "Ġdrill": 5623,
      "Ġeffectively": 5624,
      "Ġsuperior": 5625,
      "ĠGoogle": 5626,
      "Ġveter": 5627,
      "do": 5628,
      "oe": 5629,
      "osaur": 5630,
      "Ġsusp": 5631,
      "Ġsuscept": 5632,
      "ĠBoth": 5633,
      "ĠBay": 5634,
      "coln": 5635,
      "incoln": 5636,
      "ĠLincoln": 5637,
      "Ġlegislation": 5638,
      "Ġallerg": 5639,
      "Ġstruggle": 5640,
      "39": 5641,
      "Ġ:": 5642,
      "ĠLand": 5643,
      "ĠAccess": 5644,
      "ĠFurthermore": 5645,
      "Ġpregnant": 5646,
      "ĠAmong": 5647,
      "Ġrepair": 5648,
      "century": 5649,
      "ĠCommon": 5650,
      "Ġreached": 5651,
      "Ġentirely": 5652,
      "Ġsuppli": 5653,
      "Ġpret": 5654,
      "Ġpretty": 5655,
      "Ġgrad": 5656,
      "throp": 5657,
      "stract": 5658,
      "ston": 5659,
      "ĠCoast": 5660,
      "urricane": 5661,
      "Ġgun": 5662,
      "Ġartific": 5663,
      "overeign": 5664,
      "Ġconsistent": 5665,
      "Ġcollap": 5666,
      "Ġdramatic": 5667,
      "Ġworship": 5668,
      "Ġrecords": 5669,
      "Ġreject": 5670,
      "Ġterr": 5671,
      "Ġsecondary": 5672,
      "AM": 5673,
      "Ġexamine": 5674,
      "Ġshot": 5675,
      "ultaneous": 5676,
      "Ġsimultaneous": 5677,
      "US": 5678,
      "Ġconvers": 5679,
      "ĠGrand": 5680,
      "Ġstruct": 5681,
      "Ġstructural": 5682,
      "jection": 5683,
      "lor": 5684,
      "Ġdivers": 5685,
      "Ġdiversity": 5686,
      "Ġnur": 5687,
      "Ġremained": 5688,
      "Ġdebt": 5689,
      "Ġelectronic": 5690,
      "Ġturned": 5691,
      "Ġdivided": 5692,
      "ĠBible": 5693,
      "ĠCor": 5694,
      "Ġerror": 5695,
      "icial": 5696,
      "Ġbeneficial": 5697,
      "ascular": 5698,
      "Ġnegoti": 5699,
      "Ġ300": 5700,
      "Ġbrown": 5701,
      "Ġclust": 5702,
      "uto": 5703,
      "Ġjump": 5704,
      "Ġregulations": 5705,
      "Ġphysician": 5706,
      "Ġmainly": 5707,
      "Ġpresented": 5708,
      "Ġstret": 5709,
      "Ġstretch": 5710,
      "Ġrestor": 5711,
      "ĠColor": 5712,
      "Ġautomatically": 5713,
      "Ġdramatically": 5714,
      "ĠParis": 5715,
      "Ġabsence": 5716,
      "Ġearn": 5717,
      "Because": 5718,
      "Ġroutine": 5719,
      "ĠMassachus": 5720,
      "ĠMassachusett": 5721,
      "Ġidentification": 5722,
      "Ġcovered": 5723,
      "ĠMicha": 5724,
      "ĠMichael": 5725,
      "ĠMichig": 5726,
      "Ġ1950": 5727,
      "Ġevident": 5728,
      "irt": 5729,
      "Ġphilosophy": 5730,
      "ato": 5731,
      "ĠYoun": 5732,
      "itudes": 5733,
      "Ġhouses": 5734,
      "Ġobserve": 5735,
      "Ġaggress": 5736,
      "37": 5737,
      "ĠMr": 5738,
      "rust": 5739,
      "Ġweap": 5740,
      "Ġweapons": 5741,
      "Ġrespiratory": 5742,
      "Ġsettled": 5743,
      "enz": 5744,
      "Ġinfluenz": 5745,
      "à¤": 5746,
      "Ġcatch": 5747,
      "ĠHospital": 5748,
      "Ġsections": 5749,
      "enry": 5750,
      "ĠHenry": 5751,
      "Ġdrain": 5752,
      "ĠBrazil": 5753,
      "ĠViet": 5754,
      "Ġsharp": 5755,
      "Ġvirtual": 5756,
      "Ġvirtually": 5757,
      "Ġstopped": 5758,
      "Ġforced": 5759,
      "ĠPenn": 5760,
      "Ġstation": 5761,
      "Ġliteracy": 5762,
      "Ġdetails": 5763,
      "Ġdetailed": 5764,
      "Ġartificial": 5765,
      "Ġdial": 5766,
      "34": 5767,
      "Ĥ¬": 5768,
      "âĤ¬": 5769,
      "Ġpen": 5770,
      "ĠOnline": 5771,
      "Ġinjur": 5772,
      "Ġinjuries": 5773,
      "othing": 5774,
      "Ġclothing": 5775,
      "ifications": 5776,
      "awai": 5777,
      "ithm": 5778,
      "Ġaccum": 5779,
      "ĠScotland": 5780,
      "Ġourselves": 5781,
      "stone": 5782,
      "ĠRome": 5783,
      "Ġmetab": 5784,
      "Ġreactions": 5785,
      "Ġinteractions": 5786,
      "Ġaffair": 5787,
      "Ġmobile": 5788,
      "Ġpharm": 5789,
      "bor": 5790,
      "ĠSecretary": 5791,
      "Ġexplanation": 5792,
      "Ġleaving": 5793,
      "Pro": 5794,
      "Ġexperienced": 5795,
      "ĠAssemb": 5796,
      "ĠSea": 5797,
      "Ġgluc": 5798,
      "Ġdegrad": 5799,
      "uzz": 5800,
      "Ġinterface": 5801,
      "Ġquarter": 5802,
      "Ġtoxic": 5803,
      "Ġaspects": 5804,
      "ĠColorad": 5805,
      "oom": 5806,
      "Ġnarr": 5807,
      "Ġglucose": 5808,
      "atever": 5809,
      "Ġwhatever": 5810,
      "free": 5811,
      "Ġvulnerable": 5812,
      "ĠTemp": 5813,
      "ĠBank": 5814,
      "uilding": 5815,
      "Ġreduces": 5816,
      "Ġplain": 5817,
      "Ġargue": 5818,
      "ĠBrown": 5819,
      "Ġdisaster": 5820,
      "Ġcharged": 5821,
      "ĠDesign": 5822,
      "Ġfine": 5823,
      "Ġfellow": 5824,
      "Ġflat": 5825,
      "Ġcontribute": 5826,
      "ĠPhilosoph": 5827,
      "Ġmer": 5828,
      "ĠInt": 5829,
      "fall": 5830,
      "Ġple": 5831,
      "Ġpleas": 5832,
      "Ġpip": 5833,
      "Ġpun": 5834,
      "Ġpunish": 5835,
      "Ġpest": 5836,
      "Ġdirections": 5837,
      "Ġactions": 5838,
      "Ġcollections": 5839,
      "igen": 5840,
      "igenous": 5841,
      "Ġindigenous": 5842,
      "Ġnavig": 5843,
      "theast": 5844,
      "Ġvolt": 5845,
      "Ġalle": 5846,
      "ĠHoly": 5847,
      "ging": 5848,
      "Ġtropical": 5849,
      "Ġtail": 5850,
      "Ġindeed": 5851,
      "Ġtransmitted": 5852,
      "Ġnone": 5853,
      "Ġreasons": 5854,
      "ĠDirector": 5855,
      "fully": 5856,
      "Ġharmful": 5857,
      "Ġalg": 5858,
      "Ġassert": 5859,
      "Ġaircraft": 5860,
      "pping": 5861,
      "Ġsurvival": 5862,
      "alle": 5863,
      "Ġparalle": 5864,
      "Ġparallel": 5865,
      "athered": 5866,
      "ĠAbraham": 5867,
      "ĠHol": 5868,
      "otherap": 5869,
      "ĠCap": 5870,
      "Ġpurchased": 5871,
      "Ġpreserve": 5872,
      "Ġpreval": 5873,
      "rific": 5874,
      "Ġsacrific": 5875,
      "icide": 5876,
      "Ġworkshop": 5877,
      "Ġdetection": 5878,
      "Ġprincipal": 5879,
      "ĠOp": 5880,
      "--": 5881,
      "----": 5882,
      "emales": 5883,
      "Ġfemales": 5884,
      "Ġdust": 5885,
      "Ġscen": 5886,
      "vailability": 5887,
      "habit": 5888,
      "itage": 5889,
      "ĠHeritage": 5890,
      "Ġnerve": 5891,
      "Ġnan": 5892,
      "urr": 5893,
      "Ġjudge": 5894,
      "Ġlearned": 5895,
      "Ġrecall": 5896,
      "Ġelectro": 5897,
      "Cont": 5898,
      "illeg": 5899,
      "Ġilleg": 5900,
      "Ġslave": 5901,
      "flow": 5902,
      "Ġvariables": 5903,
      "Ġadequate": 5904,
      "kins": 5905,
      "Ġevil": 5906,
      "ĠWil": 5907,
      "ĠWood": 5908,
      "ĠPost": 5909,
      "Ġrender": 5910,
      "ĠAdam": 5911,
      "Ġshell": 5912,
      "Ġgeomet": 5913,
      "Ġrecommended": 5914,
      "Ġconclusion": 5915,
      "Ġgenerated": 5916,
      "fferson": 5917,
      "rate": 5918,
      "Ġrecruit": 5919,
      "Ġvictory": 5920,
      "Ġstages": 5921,
      "uous": 5922,
      "Ġ150": 5923,
      "Ġenemy": 5924,
      "duced": 5925,
      "claim": 5926,
      "Ġturb": 5927,
      "ruption": 5928,
      "76": 5929,
      "Ġhum": 5930,
      "Ġholiday": 5931,
      "Ġ..": 5932,
      "Ġ...": 5933,
      "cale": 5934,
      "ĠRecord": 5935,
      "Ġinstitutions": 5936,
      "roduct": 5937,
      "na": 5938,
      "Ġstrik": 5939,
      "ĠCamp": 5940,
      "Ġconfidence": 5941,
      "Ġburied": 5942,
      "Ġdefinite": 5943,
      "Ġcounty": 5944,
      "Ġready": 5945,
      "Ġdesired": 5946,
      "Ġinspired": 5947,
      "Ġpsychological": 5948,
      "Ġempire": 5949,
      "Ġcorrel": 5950,
      "Ġmerely": 5951,
      "ky": 5952,
      "thentic": 5953,
      "Photo": 5954,
      "Ġenorm": 5955,
      "Ġenormous": 5956,
      "ĠÃ": 5957,
      "pir": 5958,
      "Ġsick": 5959,
      "Ġsight": 5960,
      "Ġrailroad": 5961,
      "ij": 5962,
      "eg": 5963,
      "Ġconnected": 5964,
      "Ġhorizont": 5965,
      "acco": 5966,
      "Ġhelpful": 5967,
      "Ġnest": 5968,
      "CO": 5969,
      "Ġintense": 5970,
      "Ġintake": 5971,
      "Ġintensity": 5972,
      "Ġearthquake": 5973,
      "avery": 5974,
      "Ġslavery": 5975,
      "ĠGold": 5976,
      "Ġdoctr": 5977,
      "Ġengage": 5978,
      "Ġengines": 5979,
      "unicip": 5980,
      "ifies": 5981,
      "Ġregister": 5982,
      "ider": 5983,
      "ĠâĨĳ": 5984,
      "win": 5985,
      "omin": 5986,
      "oses": 5987,
      "Ġvoltage": 5988,
      "Ġpassage": 5989,
      "ĠWell": 5990,
      "Ad": 5991,
      "Ġupd": 5992,
      "ĠChapter": 5993,
      "Ġerrors": 5994,
      "Ġrefers": 5995,
      "Ġrefus": 5996,
      "ĠCambridge": 5997,
      "Ġcarefully": 5998,
      "Ġofficials": 5999,
      "Ġsuggests": 6000,
      "ĠChange": 6001,
      "Ġformation": 6002,
      "Ġunits": 6003,
      "Ġatom": 6004,
      "Joh": 6005,
      "Ġimplications": 6006,
      "UR": 6007,
      "ĠVietn": 6008,
      "Ġignor": 6009,
      "rav": 6010,
      "Ġvariable": 6011,
      "key": 6012,
      "uke": 6013,
      "Ġstrike": 6014,
      "Ġextension": 6015,
      "ĠJackson": 6016,
      "ĠCommunity": 6017,
      "Ġimpress": 6018,
      "earn": 6019,
      "32": 6020,
      "gov": 6021,
      "Ġwarming": 6022,
      "Ġprovince": 6023,
      "Since": 6024,
      "Ġ45": 6025,
      "ĠMichigan": 6026,
      "ĠMartin": 6027,
      "Ġboost": 6028,
      "46": 6029,
      "49": 6030,
      "Ġeld": 6031,
      "Ġdemonstrated": 6032,
      "Ġsched": 6033,
      "Ġcorner": 6034,
      "Ġmortality": 6035,
      "raq": 6036,
      "ĠIraq": 6037,
      "look": 6038,
      "Ġinteract": 6039,
      "ildren": 6040,
      "Ġmild": 6041,
      "Ġcompare": 6042,
      "Ġindicated": 6043,
      "Ġrub": 6044,
      "Ġscene": 6045,
      "Ġrecommendations": 6046,
      "Ġgradually": 6047,
      "Ġphosph": 6048,
      "ospher": 6049,
      "ospheric": 6050,
      "mospheric": 6051,
      "Ġphr": 6052,
      "Ġphrase": 6053,
      "Ġemployment": 6054,
      "Ġsubs": 6055,
      "Ġoccurring": 6056,
      "Ġsought": 6057,
      "Ġmuse": 6058,
      "Ġmuseum": 6059,
      "lete": 6060,
      "ĠRock": 6061,
      "Ġcharacteristic": 6062,
      "yright": 6063,
      "opyright": 6064,
      "ĠLanguage": 6065,
      "Ġregarding": 6066,
      "gl": 6067,
      "ĠLeg": 6068,
      "Ġprove": 6069,
      "Ġprohibit": 6070,
      "ĠGovern": 6071,
      "outer": 6072,
      "oupl": 6073,
      "ĠUSA": 6074,
      "Ġsteps": 6075,
      "atform": 6076,
      "Ġplatform": 6077,
      "iform": 6078,
      "Ġuniform": 6079,
      "Ġputting": 6080,
      "Ġgenerate": 6081,
      "Ġgenerations": 6082,
      "Ġvot": 6083,
      "Ġconfer": 6084,
      "Ġconference": 6085,
      "Ġreferences": 6086,
      "alax": 6087,
      "Ġgalax": 6088,
      "includ": 6089,
      "Ġvent": 6090,
      "Ġmembran": 6091,
      "Ġobtained": 6092,
      "Ġreturned": 6093,
      "ĠFree": 6094,
      "ĠThree": 6095,
      "Ġpapers": 6096,
      "Ġblind": 6097,
      "ĠVictor": 6098,
      "Ġ31": 6099,
      "47": 6100,
      "Ġpreced": 6101,
      "ĠDemocratic": 6102,
      "ĠGood": 6103,
      "Ġrecept": 6104,
      "ĠEPA": 6105,
      "Ġexplos": 6106,
      "ĠModern": 6107,
      "ĠSurvey": 6108,
      "zheim": 6109,
      "ĠAlzheim": 6110,
      "Ġleader": 6111,
      "ways": 6112,
      "ĠIndepend": 6113,
      "rosoft": 6114,
      "Ġmathematical": 6115,
      "Ġboundaries": 6116,
      "ĠWrit": 6117,
      "Ġpartners": 6118,
      "Ġcompris": 6119,
      "rison": 6120,
      "reland": 6121,
      "ĠIreland": 6122,
      "ald": 6123,
      "Ġtrad": 6124,
      "Ġtract": 6125,
      "Ġtroops": 6126,
      "Ġsolve": 6127,
      "Ġtransportation": 6128,
      "Ġimplementation": 6129,
      "Ġadvantages": 6130,
      "Ġcert": 6131,
      "ĠIllinois": 6132,
      "Ġanalog": 6133,
      "Ġdevot": 6134,
      "Ġspecified": 6135,
      "Ġadverse": 6136,
      "Ġsentence": 6137,
      "Ġanticip": 6138,
      "Ġaccomplish": 6139,
      "fish": 6140,
      "log": 6141,
      "lia": 6142,
      "liament": 6143,
      "ĠParliament": 6144,
      "Ġmem": 6145,
      "Ġflowers": 6146,
      "First": 6147,
      "Ġhearing": 6148,
      "eless": 6149,
      "ĠAngel": 6150,
      "class": 6151,
      "ĠCentury": 6152,
      "Ġcamera": 6153,
      "Ġnervous": 6154,
      "Ġdrinking": 6155,
      "rish": 6156,
      "ĠIrish": 6157,
      "ique": 6158,
      "cast": 6159,
      "Ġbroadcast": 6160,
      "Ġouter": 6161,
      "Ġminister": 6162,
      "ENT": 6163,
      "Ġwin": 6164,
      "ĠJustice": 6165,
      "Ġofficers": 6166,
      "ĠMissour": 6167,
      "Ġsupplements": 6168,
      "Ġrenewable": 6169,
      "ume": 6170,
      "ĠVolume": 6171,
      "rum": 6172,
      "Ġspectrum": 6173,
      "Ġanxiety": 6174,
      "Ġlose": 6175,
      "Ġhardware": 6176,
      "Ġaware": 6177,
      "ĠUnfortunately": 6178,
      "asc": 6179,
      "Ġmechanical": 6180,
      "outheast": 6181,
      "Ġbott": 6182,
      "ĠEnd": 6183,
      "Ġbear": 6184,
      "Ġmeters": 6185,
      "Ġextin": 6186,
      "Ġoccupied": 6187,
      "ĠMy": 6188,
      "call": 6189,
      "Ġcalories": 6190,
      "Ġstated": 6191,
      "eties": 6192,
      "Ġsocieties": 6193,
      "Ġvarieties": 6194,
      "ureau": 6195,
      "eline": 6196,
      "Ġnine": 6197,
      "ighter": 6198,
      "Ġchlor": 6199,
      "Health": 6200,
      "Ġrig": 6201,
      "Ġendanger": 6202,
      "Ġdisput": 6203,
      "Ġinput": 6204,
      "John": 6205,
      "Ġshop": 6206,
      "Ġempt": 6207,
      "abled": 6208,
      "Ġrecovery": 6209,
      "Ġsky": 6210,
      "Ġhistoric": 6211,
      "band": 6212,
      "usband": 6213,
      "Ġhusband": 6214,
      "Ġverb": 6215,
      "ĠGulf": 6216,
      "OT": 6217,
      "Ġadopted": 6218,
      "ĠEarly": 6219,
      "Ġlessons": 6220,
      "elfare": 6221,
      "care": 6222,
      "ĠRoad": 6223,
      "going": 6224,
      "Ġdecrease": 6225,
      "Ġsacred": 6226,
      "cred": 6227,
      "stronaut": 6228,
      "99": 6229,
      "ht": 6230,
      "htm": 6231,
      "html": 6232,
      "Sh": 6233,
      "Ġintegrated": 6234,
      "uracy": 6235,
      "Ġaccuracy": 6236,
      "Ġapparent": 6237,
      "ĠColorado": 6238,
      "Ġparties": 6239,
      "Ġpartner": 6240,
      "ĠRights": 6241,
      "ĠAssess": 6242,
      "ĠEliz": 6243,
      "ĠForest": 6244,
      "estyle": 6245,
      "Ġlifestyle": 6246,
      "ĠWilson": 6247,
      "Ġstructures": 6248,
      "ĠFish": 6249,
      "Ġexhibition": 6250,
      "Today": 6251,
      "Ġpercentage": 6252,
      "ĠÎ": 6253,
      "ĠÂ·": 6254,
      "aust": 6255,
      "Ġnews": 6256,
      "Ġsigns": 6257,
      "esearch": 6258,
      "Research": 6259,
      "Ġsubstitut": 6260,
      "itrogen": 6261,
      "Ġnitrogen": 6262,
      "Ġconsiderable": 6263,
      "Ġoffered": 6264,
      "Ġfields": 6265,
      "ings": 6266,
      "Ġtemperatures": 6267,
      "Ġplans": 6268,
      "Ġmonitoring": 6269,
      "Ġtips": 6270,
      "31": 6271,
      "Ġgap": 6272,
      "Ġov": 6273,
      "health": 6274,
      "Ġmath": 6275,
      "Ġabstract": 6276,
      "Ġaband": 6277,
      "Ġabandon": 6278,
      "Ġabdom": 6279,
      "UN": 6280,
      "ĠOut": 6281,
      "estival": 6282,
      "Ġvert": 6283,
      "agnetic": 6284,
      "ĠHawai": 6285,
      "Ġracial": 6286,
      "Ġneutral": 6287,
      "Ġmagnitude": 6288,
      "Ġultimate": 6289,
      "Ġdeficiency": 6290,
      "Ġmanif": 6291,
      "Ġmanifest": 6292,
      "Ġdistinction": 6293,
      "duction": 6294,
      "Ġgone": 6295,
      "Be": 6296,
      "Before": 6297,
      "ste": 6298,
      "stein": 6299,
      "Ġcommittee": 6300,
      "Ġpotato": 6301,
      "Ġrecorded": 6302,
      "EL": 6303,
      "Ġly": 6304,
      "Ġlaid": 6305,
      "habitants": 6306,
      "Ġimmigrants": 6307,
      "enior": 6308,
      "Ġsenior": 6309,
      "terior": 6310,
      "Ġselected": 6311,
      "Ġannually": 6312,
      "Ġexclud": 6313,
      "specific": 6314,
      "Ġbones": 6315,
      "Ġelections": 6316,
      "Ġguidance": 6317,
      "ara": 6318,
      "Ġexception": 6319,
      "Ġproph": 6320,
      "Ġacqu": 6321,
      "Ġcollected": 6322,
      "Ġcoun": 6323,
      "brew": 6324,
      "ĠHebrew": 6325,
      "Ġecological": 6326,
      "Ġinher": 6327,
      "Ġpromin": 6328,
      "Ġprominent": 6329,
      "Ġdut": 6330,
      "ĠAdd": 6331,
      "Ġord": 6332,
      "Ġordinary": 6333,
      "Ġdisabilities": 6334,
      "Ġcapabilities": 6335,
      "Ġstreet": 6336,
      "Ġstreets": 6337,
      "Ġslowly": 6338,
      "Ġtruly": 6339,
      "Ġburden": 6340,
      "ĠYet": 6341,
      "Ġsweet": 6342,
      "ĠPerhap": 6343,
      "Ġmedication": 6344,
      "Ġmedicines": 6345,
      "ĠYoung": 6346,
      "Ġbow": 6347,
      "ili": 6348,
      "Ġpil": 6349,
      "Ġpilot": 6350,
      "Ġpul": 6351,
      "Ġchair": 6352,
      "Ġchart": 6353,
      "44": 6354,
      "iter": 6355,
      "Ġdrawn": 6356,
      "Ġawareness": 6357,
      "Ġtruck": 6358,
      "Ġartists": 6359,
      "imensional": 6360,
      "Ġages": 6361,
      "Ġspl": 6362,
      "ĠMaryland": 6363,
      "Read": 6364,
      "Ġstead": 6365,
      "ĠParty": 6366,
      "Ġtried": 6367,
      "Ġdemonstrate": 6368,
      "Ġfly": 6369,
      "Ġaren": 6370,
      "Ġmercur": 6371,
      "rows": 6372,
      "Ġcopper": 6373,
      "PS": 6374,
      "Ġkilome": 6375,
      "ĠHome": 6376,
      "Ġexperts": 6377,
      "ĠMoreover": 6378,
      "cover": 6379,
      "itially": 6380,
      "Ġprovision": 6381,
      "called": 6382,
      "oured": 6383,
      "ĠPlease": 6384,
      "Ġdisting": 6385,
      "Ġdistingu": 6386,
      "Ġdistinguish": 6387,
      "Ġdistinguished": 6388,
      "Ġfunctions": 6389,
      "state": 6390,
      "Ġparticipate": 6391,
      "Ġattitudes": 6392,
      "Ġattitude": 6393,
      "Ġdisp": 6394,
      "pread": 6395,
      "espread": 6396,
      "Ġwidespread": 6397,
      "Ġdisappear": 6398,
      "long": 6399,
      "ĠLong": 6400,
      "ĠAlask": 6401,
      "Ġcharacterized": 6402,
      "tolog": 6403,
      "Ġmammals": 6404,
      "DF": 6405,
      "abeth": 6406,
      "ĠElizabeth": 6407,
      "Ġrid": 6408,
      "Ġdemocratic": 6409,
      "steroid": 6410,
      "Ġterror": 6411,
      "Ġhormone": 6412,
      "phone": 6413,
      "Ġlivestock": 6414,
      "Ġevaluation": 6415,
      "Ġsuccessfully": 6416,
      "Ġmostly": 6417,
      "ĠOnly": 6418,
      "ĠFre": 6419,
      "ĠFigure": 6420,
      "Ġastronom": 6421,
      "Ġreliable": 6422,
      "orithm": 6423,
      "Ġalgorithm": 6424,
      "Ġconven": 6425,
      "Ġcoastal": 6426,
      "ĠPal": 6427,
      "ĠPalest": 6428,
      "ĠPublish": 6429,
      "Ġabnormal": 6430,
      "emia": 6431,
      "ĠComput": 6432,
      "western": 6433,
      "thma": 6434,
      "Ġsuggested": 6435,
      "Ġfolk": 6436,
      "ĠÂ£": 6437,
      "Ġfasc": 6438,
      "Ġantibiotics": 6439,
      "Ġfunding": 6440,
      "ĠSupreme": 6441,
      "ounced": 6442,
      "Ġarter": 6443,
      "Ġparticipation": 6444,
      "Ġlabour": 6445,
      "abric": 6446,
      "Ġfabric": 6447,
      "Ġtelephone": 6448,
      "ĠHistorical": 6449,
      "ographical": 6450,
      "ĠFrancisco": 6451,
      "Ġfever": 6452,
      "Ġversions": 6453,
      "Ġconsciousness": 6454,
      "unn": 6455,
      "Ġbread": 6456,
      "istan": 6457,
      "akistan": 6458,
      "Ġchick": 6459,
      "Ġentertain": 6460,
      "hio": 6461,
      "ĠOhio": 6462,
      "ĠOF": 6463,
      "Ġsession": 6464,
      "ario": 6465,
      "Ġ180": 6466,
      "Ġdro": 6467,
      "Ġdropped": 6468,
      "Ġeggs": 6469,
      "Ġresulting": 6470,
      "Ġpollut": 6471,
      "Why": 6472,
      "65": 6473,
      "Ġ1930": 6474,
      "Ġaccurately": 6475,
      "urrent": 6476,
      "quar": 6477,
      "ĠZe": 6478,
      "Ġinteractive": 6479,
      "nowled": 6480,
      "cknowled": 6481,
      "Ġstruck": 6482,
      "Ġassociation": 6483,
      "ĠTur": 6484,
      "urder": 6485,
      "Ġmurder": 6486,
      "Ġneur": 6487,
      "ĠUs": 6488,
      "Ġmarried": 6489,
      "ĠPhilipp": 6490,
      "Ġstarting": 6491,
      "ifying": 6492,
      "Ġinfant": 6493,
      "iant": 6494,
      "Ġgiant": 6495,
      "Ġaudio": 6496,
      "ĠUp": 6497,
      "ĠScript": 6498,
      "Ġprecip": 6499,
      "Ġprem": 6500,
      "ĠThough": 6501,
      "ĠChief": 6502,
      "Ġreward": 6503,
      "Ġcaught": 6504,
      "Ġformula": 6505,
      "Ġapproval": 6506,
      "Ġheritage": 6507,
      "Ġquiet": 6508,
      "Ġcriter": 6509,
      "Ġcriteria": 6510,
      "ras": 6511,
      "Ġplate": 6512,
      "draw": 6513,
      "Ġcraft": 6514,
      "Ġdraft": 6515,
      "Ġutility": 6516,
      "Ġimprovement": 6517,
      "Ġproducing": 6518,
      "Ġvillages": 6519,
      "Ġaccessible": 6520,
      "ilt": 6521,
      "Ġshut": 6522,
      "Ġshoot": 6523,
      "utism": 6524,
      "Ġsolv": 6525,
      "ĠPortug": 6526,
      "Ġfavorite": 6527,
      "Ġequally": 6528,
      "Ġera": 6529,
      "olf": 6530,
      "ĠPolic": 6531,
      "Ġintegration": 6532,
      "Ġsubt": 6533,
      "Ġbuildings": 6534,
      "Ġpasseng": 6535,
      "Ġrainfall": 6536,
      "Ġuniversities": 6537,
      "Ġshock": 6538,
      "Ġclock": 6539,
      "Ġpure": 6540,
      "Ġmales": 6541,
      "Ġflash": 6542,
      "Ġtast": 6543,
      "Ġroughly": 6544,
      "Ġhole": 6545,
      "gener": 6546,
      "een": 6547,
      "eenth": 6548,
      "Ġpeop": 6549,
      "Ġpeoples": 6550,
      "HO": 6551,
      "Our": 6552,
      "Ġinterested": 6553,
      "Ġpossibilities": 6554,
      "Ġstars": 6555,
      "uration": 6556,
      "Ġexplo": 6557,
      "wers": 6558,
      "writ": 6559,
      "Ġmyth": 6560,
      "Ġconcentrations": 6561,
      "Ġofficially": 6562,
      "orough": 6563,
      "Ġthorough": 6564,
      "Ġthin": 6565,
      "ĠAndrew": 6566,
      "arwin": 6567,
      "arctic": 6568,
      "ĠAntarctic": 6569,
      "BC": 6570,
      "orrow": 6571,
      "Ġdefine": 6572,
      "Ġdefault": 6573,
      "Ġdefe": 6574,
      "Ġinfected": 6575,
      "Ġworked": 6576,
      "ined": 6577,
      "Ġaccomplished": 6578,
      "Ġcreatures": 6579,
      "Ġthirty": 6580,
      "Ġod": 6581,
      "Ġappeal": 6582,
      "Ġschedul": 6583,
      "Ġschedule": 6584,
      "ĠWord": 6585,
      "Ġplann": 6586,
      "ashion": 6587,
      "Ġfashion": 6588,
      "77": 6589,
      "position": 6590,
      "allow": 6591,
      "ĠBureau": 6592,
      "ĠTurk": 6593,
      "Ġproof": 6594,
      "rof": 6595,
      "ĠPhilad": 6596,
      "ĠPhiladel": 6597,
      "ĠPhiladelph": 6598,
      "ĠPhiladelphia": 6599,
      "Ġcoupl": 6600,
      "Ġpool": 6601,
      "Ġcattle": 6602,
      "Ġpreferred": 6603,
      "Ġopp": 6604,
      "rook": 6605,
      "Ġreplaced": 6606,
      "oo": 6607,
      "ĠSumm": 6608,
      "Ġlesson": 6609,
      "ĠDictionary": 6610,
      "Click": 6611,
      "Ġtemple": 6612,
      "Ġtechnological": 6613,
      "eep": 6614,
      "iological": 6615,
      "eries": 6616,
      "Ġroute": 6617,
      "Ġinfants": 6618,
      "EM": 6619,
      "ĠSpir": 6620,
      "ĠDec": 6621,
      "ĠAlbert": 6622,
      "ĠAls": 6623,
      "ĠAlso": 6624,
      "Ġhung": 6625,
      "Ġbroke": 6626,
      "ĠAN": 6627,
      "ĠAND": 6628,
      "iffer": 6629,
      "aci": 6630,
      "borne": 6631,
      "Ġacquired": 6632,
      "aud": 6633,
      "Ġgravity": 6634,
      "ansas": 6635,
      "ĠCentre": 6636,
      "Ġmist": 6637,
      "No": 6638,
      "Ġmo": 6639,
      "Ġmoist": 6640,
      "Ġmoisture": 6641,
      "Ġinterval": 6642,
      "ieval": 6643,
      "otherapy": 6644,
      "Ġstrip": 6645,
      "ĠSection": 6646,
      "ias": 6647,
      "ios": 6648,
      "Ġmedieval": 6649,
      "Ġstuff": 6650,
      "ooth": 6651,
      "Ġsmooth": 6652,
      "Ġgoals": 6653,
      "add": 6654,
      "isdom": 6655,
      "Ġwisdom": 6656,
      "Ġsail": 6657,
      "CR": 6658,
      "ĠâĢ¦": 6659,
      "ĠStat": 6660,
      "ĠStatistics": 6661,
      "Ġfailed": 6662,
      "ids": 6663,
      "Ġgar": 6664,
      "Ġlov": 6665,
      "ovascular": 6666,
      "Ġmeasurement": 6667,
      "ĠLike": 6668,
      "Ġstatist": 6669,
      "ATION": 6670,
      "odes": 6671,
      "Ġkilometers": 6672,
      "Ä«": 6673,
      "About": 6674,
      "Ġinches": 6675,
      "Ġcommitment": 6676,
      "ĠSteph": 6677,
      "Ã¨": 6678,
      "ĠOrigin": 6679,
      "Ġeducators": 6680,
      "Ġwanted": 6681,
      "ĠKansas": 6682,
      "Ġradical": 6683,
      "Ġamaz": 6684,
      "Ġamb": 6685,
      "Ġirrit": 6686,
      "ette": 6687,
      "etics": 6688,
      "Ġachieved": 6689,
      "quito": 6690,
      "ocument": 6691,
      "comes": 6692,
      "Ġoutcomes": 6693,
      "Ġremarkable": 6694,
      "Ġpermitted": 6695,
      "charge": 6696,
      "iving": 6697,
      "Ġgathered": 6698,
      "Ġchromos": 6699,
      "Ġconsumers": 6700,
      "Ġcrime": 6701,
      "79": 6702,
      "Ġcentre": 6703,
      "Ġsteel": 6704,
      "Ġsteam": 6705,
      "ĠSpirit": 6706,
      "Ġhunting": 6707,
      "ĠDarwin": 6708,
      "ĠDon": 6709,
      "Ġhem": 6710,
      "ĠClin": 6711,
      "Ġcreative": 6712,
      "emical": 6713,
      "osquito": 6714,
      "Ġwelfare": 6715,
      "abb": 6716,
      "icides": 6717,
      "Ġpesticides": 6718,
      "Ġpig": 6719,
      "OS": 6720,
      "Ġ75": 6721,
      "Ġapproaches": 6722,
      "Ġregularly": 6723,
      "Ġpron": 6724,
      "Ġthread": 6725,
      "conscious": 6726,
      "Ġpromise": 6727,
      "Ġpsychology": 6728,
      "Ġrealize": 6729,
      "aria": 6730,
      "ĠFe": 6731,
      "Ġmusical": 6732,
      "ĠCorp": 6733,
      "Ġagreed": 6734,
      "Ġuniversal": 6735,
      "Ġsciences": 6736,
      "Ġmount": 6737,
      "Ġcouncil": 6738,
      "Ġliterary": 6739,
      "Ġdeliber": 6740,
      "Ġarrived": 6741,
      "Ġlinked": 6742,
      "Ġlinks": 6743,
      "Ġgirls": 6744,
      "Ġoperate": 6745,
      "Ġnotice": 6746,
      "ĠRem": 6747,
      "Ġadvent": 6748,
      "Ġinterpretation": 6749,
      "Ġsupposed": 6750,
      "ended": 6751,
      "aken": 6752,
      "Ġmulti": 6753,
      "ĠForce": 6754,
      "ĠPe": 6755,
      "ĠPrim": 6756,
      "Ġsmoke": 6757,
      "Ġbigger": 6758,
      "Ġtube": 6759,
      "Ã±": 6760,
      "Ġhappened": 6761,
      "ĠClark": 6762,
      "Ġsaying": 6763,
      "Ġprobability": 6764,
      "Ġaccepted": 6765,
      "Ġcontaining": 6766,
      "Ġscenario": 6767,
      "Ġcrops": 6768,
      "Ġstrange": 6769,
      "Ġdestroyed": 6770,
      "Ġvertical": 6771,
      "Ġ1989": 6772,
      "gment": 6773,
      "Ġjudgment": 6774,
      "ĠKeep": 6775,
      "Ġobjective": 6776,
      "Ġobjectives": 6777,
      "ĠField": 6778,
      "ĠCreek": 6779,
      "ĠTime": 6780,
      "ĠNaz": 6781,
      "Ġenable": 6782,
      "Ġcommunications": 6783,
      "Ġcommunicate": 6784,
      "Ġresidents": 6785,
      "Ġregime": 6786,
      "cidence": 6787,
      "unday": 6788,
      "under": 6789,
      "Ġperception": 6790,
      "Ġevaluate": 6791,
      "velength": 6792,
      "Ġwavelength": 6793,
      "Ġvaccines": 6794,
      "ĠLiber": 6795,
      "Ġfiber": 6796,
      "Ġcoverage": 6797,
      "ĠTurkey": 6798,
      "Ġframe": 6799,
      "Ġcenters": 6800,
      "ĠAgain": 6801,
      "ustain": 6802,
      "just": 6803,
      "osen": 6804,
      "Ġchosen": 6805,
      "ĠPakistan": 6806,
      "plant": 6807,
      "Ġtransplant": 6808,
      "ĠProtest": 6809,
      "icians": 6810,
      "Ġhundreds": 6811,
      "Ġescap": 6812,
      "Ġinterior": 6813,
      "eanwhile": 6814,
      "ĠNations": 6815,
      "Ġspecimens": 6816,
      "imensions": 6817,
      "Ġcoffee": 6818,
      "Ġchannel": 6819,
      "Ġchannels": 6820,
      "ĠCooper": 6821,
      "ĠConnect": 6822,
      "Ġtrail": 6823,
      "Ġcrash": 6824,
      "Qu": 6825,
      "orth": 6826,
      "worth": 6827,
      "Ġinitiative": 6828,
      "AP": 6829,
      "ĠSafety": 6830,
      "utch": 6831,
      "Ġindirect": 6832,
      "Ġconsequence": 6833,
      "arr": 6834,
      "Ġdiarr": 6835,
      "valu": 6836,
      "Con": 6837,
      "CC": 6838,
      "men": 6839,
      "osm": 6840,
      "Ġcosm": 6841,
      "ĠSam": 6842,
      "ĠSamuel": 6843,
      "ĠSaint": 6844,
      "Ġclothe": 6845,
      "Ġreadily": 6846,
      "Ġholes": 6847,
      "agram": 6848,
      "Ġdiagram": 6849,
      "ots": 6850,
      "ĠBr": 6851,
      "roup": 6852,
      "Ġcancers": 6853,
      "95": 6854,
      "05": 6855,
      "01": 6856,
      "Ġfle": 6857,
      "Ġfulf": 6858,
      "Ġfulfill": 6859,
      "ĠHill": 6860,
      "Ġfell": 6861,
      "Ġpolar": 6862,
      "Ġconve": 6863,
      "Ġpowder": 6864,
      "Ġadvances": 6865,
      "2012": 6866,
      "Ġtroub": 6867,
      "ĠSunday": 6868,
      "Ġaccompan": 6869,
      "Ġaccompanied": 6870,
      "Ġaccompany": 6871,
      "Ġlayers": 6872,
      "Ġtumor": 6873,
      "Ġtumors": 6874,
      "ecutive": 6875,
      "Ġvisitors": 6876,
      "Ġinvolving": 6877,
      "Ġpredomin": 6878,
      "quarters": 6879,
      "Ġgreatly": 6880,
      "Ġfairly": 6881,
      "ĠWikipedia": 6882,
      "Ġgases": 6883,
      "uccess": 6884,
      "Ġsurge": 6885,
      "Ġsurprise": 6886,
      "Ġfung": 6887,
      "Ġfault": 6888,
      "ani": 6889,
      "aniel": 6890,
      "ĠMississippi": 6891,
      "Ġju": 6892,
      "Ġtemporary": 6893,
      "controll": 6894,
      "Ġsharing": 6895,
      "Ġaim": 6896,
      "imp": 6897,
      "Ġdim": 6898,
      "ĠBas": 6899,
      "ester": 6900,
      "ohyd": 6901,
      "Ġcarbohyd": 6902,
      "Ġsell": 6903,
      "count": 6904,
      "ĠMe": 6905,
      "ranean": 6906,
      "iterranean": 6907,
      "ĠMediterranean": 6908,
      "Ġphenomenon": 6909,
      "á¸": 6910,
      "ĠDutch": 6911,
      "evertheless": 6912,
      "Ġestablishment": 6913,
      "Ġcomplicated": 6914,
      "Ġcomplications": 6915,
      "Ġchemicals": 6916,
      "Ġherb": 6917,
      "Ġregardless": 6918,
      "rates": 6919,
      "Once": 6920,
      "Ġerup": 6921,
      "Ġdiagnost": 6922,
      "ãģ": 6923,
      "Ġevolutionary": 6924,
      "riday": 6925,
      "ĠBlue": 6926,
      "Ġafford": 6927,
      "Ġconcerned": 6928,
      "Ġconcerns": 6929,
      "Ġemphasis": 6930,
      "Ġinfluences": 6931,
      "Ġexecutive": 6932,
      "rian": 6933,
      "Ġfertiliz": 6934,
      "Ġflexible": 6935,
      "Ġpoetry": 6936,
      "aution": 6937,
      "Ġsupported": 6938,
      "ĠOpen": 6939,
      "Ġstood": 6940,
      "Ġrarely": 6941,
      "ĠEffect": 6942,
      "haust": 6943,
      "Ġexhaust": 6944,
      "Ġscatter": 6945,
      "Ġexplained": 6946,
      "Ġphysicians": 6947,
      "Ġcombat": 6948,
      "Ġvessel": 6949,
      "ĠMain": 6950,
      "Ġmal": 6951,
      "ĠConsider": 6952,
      "Ġresponses": 6953,
      "ctive": 6954,
      "Ġreproductive": 6955,
      "ctor": 6956,
      "ML": 6957,
      "Ġ36": 6958,
      "Ġsmart": 6959,
      "Ġoccasionally": 6960,
      "inally": 6961,
      "Ġliterally": 6962,
      "Ġunus": 6963,
      "Ġunusual": 6964,
      "Ġusual": 6965,
      "Ġextended": 6966,
      "ĠCal": 6967,
      "Where": 6968,
      "Ġpassword": 6969,
      "Ġangle": 6970,
      "ĠZeal": 6971,
      "ĠZealand": 6972,
      "DC": 6973,
      "Ġbless": 6974,
      "everal": 6975,
      "Ġglaci": 6976,
      "umin": 6977,
      "ĠOffic": 6978,
      "ĠLet": 6979,
      "etwe": 6980,
      "etween": 6981,
      "IL": 6982,
      "Ġlegend": 6983,
      "itor": 6984,
      "Ġextinction": 6985,
      "Ġsunlight": 6986,
      "Ġprovisions": 6987,
      "Ġscar": 6988,
      "Ġscores": 6989,
      "Ġarrang": 6990,
      "Ġnote": 6991,
      "Ġminute": 6992,
      "oke": 6993,
      "onom": 6994,
      "utonom": 6995,
      "but": 6996,
      "Ġbacterial": 6997,
      "Ġupdated": 6998,
      "radu": 6999,
      "Ġfurn": 7000,
      "rist": 7001,
      "swers": 7002,
      "Ġanswers": 7003,
      "ĠVietnam": 7004,
      "amber": 7005,
      "ĠFund": 7006,
      "Ġseparated": 7007,
      "Ġoceans": 7008,
      "spect": 7009,
      "Ġprospect": 7010,
      "Your": 7011,
      "odox": 7012,
      "thodox": 7013,
      "Ġfourth": 7014,
      "ĠOrthodox": 7015,
      "type": 7016,
      "Ġsuicide": 7017,
      "Ġcatal": 7018,
      "Ġenhanced": 7019,
      "ĠPolicy": 7020,
      "Ġfinish": 7021,
      "Ġ400": 7022,
      "otton": 7023,
      "ĠMill": 7024,
      "Ġexpressed": 7025,
      "ĠEngineer": 7026,
      "ĠMor": 7027,
      "Last": 7028,
      "Ġcotton": 7029,
      "Ġcy": 7030,
      "Ġcycles": 7031,
      "Ġallowing": 7032,
      "People": 7033,
      "ĠArtic": 7034,
      "Ġcolonial": 7035,
      "Ġprivile": 7036,
      "oston": 7037,
      "ĠBoston": 7038,
      "Ġcup": 7039,
      "Not": 7040,
      "Ġgenome": 7041,
      "Ġresemb": 7042,
      "Ġresid": 7043,
      "Ġtransferred": 7044,
      "Ġcycl": 7045,
      "brid": 7046,
      "ybrid": 7047,
      "Ġhybrid": 7048,
      "ĠExper": 7049,
      "ĠExt": 7050,
      "Ġbegins": 7051,
      "spe": 7052,
      "ĠFinally": 7053,
      "Ġpreparation": 7054,
      "Ġrevealed": 7055,
      "ĠRepresent": 7056,
      "foot": 7057,
      "Ġcircle": 7058,
      "Ġinvent": 7059,
      "Ġcond": 7060,
      "ira": 7061,
      "race": 7062,
      "Ġshowing": 7063,
      "Ġargues": 7064,
      "Ġinterventions": 7065,
      "Ġrelax": 7066,
      "Ġrelation": 7067,
      "Ġmanip": 7068,
      "Ġguar": 7069,
      "Ġguarant": 7070,
      "ediatric": 7071,
      "ĠFour": 7072,
      "forest": 7073,
      "Ġremaining": 7074,
      "Ġmalaria": 7075,
      "Ġfib": 7076,
      "Ġerect": 7077,
      "Ġformat": 7078,
      "Ġparticle": 7079,
      "Ġexecution": 7080,
      "ĠAIDS": 7081,
      "ingredient": 7082,
      "Ġingredient": 7083,
      "Ġbind": 7084,
      "ĠPres": 7085,
      "ĠPap": 7086,
      "ĠHarv": 7087,
      "ĠHarvard": 7088,
      "Ġraw": 7089,
      "Ġassault": 7090,
      "Ġflav": 7091,
      "Ġflour": 7092,
      "Ġinflammation": 7093,
      "IG": 7094,
      "Gen": 7095,
      "General": 7096,
      "Ġpreservation": 7097,
      "Ġjoined": 7098,
      "Ġclosed": 7099,
      "Ġcloser": 7100,
      "Ġstored": 7101,
      "Ġrice": 7102,
      "Ġdriver": 7103,
      "Ġdrivers": 7104,
      "Ġteen": 7105,
      "Ġtaste": 7106,
      "amination": 7107,
      "Ġcontamination": 7108,
      "Ġsubstantially": 7109,
      "Ġproductivity": 7110,
      "wards": 7111,
      "ĠRad": 7112,
      "ameters": 7113,
      "Ġparameters": 7114,
      "Ġsubmitted": 7115,
      "Ġcopies": 7116,
      "Ġimprovements": 7117,
      "Ġwebsites": 7118,
      "Ġsatellites": 7119,
      "erate": 7120,
      "Ġmoderate": 7121,
      "Ġcited": 7122,
      "Ġcrack": 7123,
      "Ġmetaph": 7124,
      "Ġraising": 7125,
      "Ġdiscussed": 7126,
      "Ġodd": 7127,
      "ĠFranklin": 7128,
      "Ġreaders": 7129,
      "Ġattached": 7130,
      "ĠMethod": 7131,
      "Ġscope": 7132,
      "Ġdrag": 7133,
      "Ġ65": 7134,
      "Ġpanel": 7135,
      "Ġhousing": 7136,
      "Ġneurolog": 7137,
      "Ġneuro": 7138,
      "roid": 7139,
      "connect": 7140,
      "emistry": 7141,
      "Ġnoise": 7142,
      "rub": 7143,
      "ĠNative": 7144,
      "Ġadministrative": 7145,
      "ĠFather": 7146,
      "rency": 7147,
      "Ġcurrency": 7148,
      "adow": 7149,
      "ades": 7150,
      "Ġorders": 7151,
      "ĠAnalysis": 7152,
      "Ġtranspar": 7153,
      "Ġreceiving": 7154,
      "ĠUsing": 7155,
      "Ġwonderful": 7156,
      "Ġinfluential": 7157,
      "ĠBel": 7158,
      "ĠBattle": 7159,
      "Ġdeposits": 7160,
      "Ġneglect": 7161,
      "ota": 7162,
      "rowd": 7163,
      "Ġcrowd": 7164,
      "Ġimproving": 7165,
      "Ġbrows": 7166,
      "Ġbus": 7167,
      "Ġbiodiversity": 7168,
      "Ġblow": 7169,
      "Every": 7170,
      "ĠPeace": 7171,
      "Ġparliament": 7172,
      "Ġenroll": 7173,
      "ĠAsian": 7174,
      "Ġhappy": 7175,
      "Ġhappiness": 7176,
      "Ġasthma": 7177,
      "escope": 7178,
      "elescope": 7179,
      "Ġconfident": 7180,
      "Ġsol": 7181,
      "ĠLittle": 7182,
      "orous": 7183,
      "Ġachievement": 7184,
      "aker": 7185,
      "about": 7186,
      "Ġcreates": 7187,
      "Ġlym": 7188,
      "Ġlymph": 7189,
      "iance": 7190,
      "Ġradioactive": 7191,
      "Ġmicroscop": 7192,
      "Ġswimm": 7193,
      "Ġthrow": 7194,
      "Ġdepending": 7195,
      "Ġ978": 7196,
      "Ġdiarrhe": 7197,
      "ĠProp": 7198,
      "last": 7199,
      "lastname": 7200,
      "ĠNavy": 7201,
      "ĠAuthor": 7202,
      "Im": 7203,
      "Ġmice": 7204,
      "Ġmunicip": 7205,
      "Ġcollaboration": 7206,
      "ards": 7207,
      "Ġcours": 7208,
      "Ġcourses": 7209,
      "Ġdiss": 7210,
      "Ġdevast": 7211,
      "ctu": 7212,
      "uthentic": 7213,
      "bacco": 7214,
      "Ġexclusively": 7215,
      "iev": 7216,
      "Ġmovie": 7217,
      "urrently": 7218,
      "AD": 7219,
      "Ġbalanced": 7220,
      "etherlands": 7221,
      "ilitary": 7222,
      "ĠWall": 7223,
      "Ġoutdo": 7224,
      "Ġembry": 7225,
      "Ġbiom": 7226,
      "88": 7227,
      "Ġweakness": 7228,
      "Ġsulf": 7229,
      "Ġpersons": 7230,
      "Ġrising": 7231,
      "Ġfixed": 7232,
      "kin": 7233,
      "ophistic": 7234,
      "Ġanywhere": 7235,
      "ĠOper": 7236,
      "ĠOreg": 7237,
      "ĠOregon": 7238,
      "develop": 7239,
      "ĠMissouri": 7240,
      "Ġhealthcare": 7241,
      "ki": 7242,
      "Ġvoc": 7243,
      "Ġvocab": 7244,
      "2010": 7245,
      "adder": 7246,
      "Under": 7247,
      "itter": 7248,
      "ĠDespite": 7249,
      "ĠDi": 7250,
      "Ġlic": 7251,
      "Ġlicens": 7252,
      "icated": 7253,
      "edicated": 7254,
      "Ġdedicated": 7255,
      "ĠDefense": 7256,
      "efferson": 7257,
      "ĠJefferson": 7258,
      "ĠMaterial": 7259,
      "Ġthr": 7260,
      "Ġspaces": 7261,
      "ava": 7262,
      "ĠCheck": 7263,
      "rence": 7264,
      "Ġperceived": 7265,
      "Ġmagazine": 7266,
      "ĠArchives": 7267,
      "Ġinspir": 7268,
      "Ġcareer": 7269,
      "Ġ1940": 7270,
      "oose": 7271,
      "oosevel": 7272,
      "Ġwheat": 7273,
      "Ġguess": 7274,
      "Ġabilities": 7275,
      "leg": 7276,
      "Ġrestaur": 7277,
      "ĠFact": 7278,
      "Ġintention": 7279,
      "Ġmyself": 7280,
      "Ġfought": 7281,
      "Ġhidden": 7282,
      "Ġdependent": 7283,
      "Ġdisrupt": 7284,
      "Ġprecipitation": 7285,
      "Ġadmitted": 7286,
      "Ġdoctrine": 7287,
      "ĠClick": 7288,
      "Ġfilled": 7289,
      "Ġelabor": 7290,
      "Ġwriter": 7291,
      "Ġwriters": 7292,
      "Ġwrites": 7293,
      "Ġbattery": 7294,
      "ibilities": 7295,
      "Ġresponsibilities": 7296,
      "Ġidentical": 7297,
      "Ġinternet": 7298,
      "Ġrational": 7299,
      "uscript": 7300,
      "Ġmanuscript": 7301,
      "rint": 7302,
      "onic": 7303,
      "Ġhit": 7304,
      "Ġdifficulty": 7305,
      "iny": 7306,
      "Ġtiny": 7307,
      "Ġtons": 7308,
      "Ġneurons": 7309,
      "Ġcriticism": 7310,
      "orter": 7311,
      "onym": 7312,
      "Ġhormones": 7313,
      "Ġofficer": 7314,
      "including": 7315,
      "Ġformal": 7316,
      "abet": 7317,
      "ĠPolit": 7318,
      "Ġindustries": 7319,
      "Ġongoing": 7320,
      "Ġhelps": 7321,
      "Ġjobs": 7322,
      "Ġmarked": 7323,
      "Ġrecre": 7324,
      "Ġreverse": 7325,
      "Ġoutcome": 7326,
      "Ġmoves": 7327,
      "Ġdepress": 7328,
      "Ġdress": 7329,
      "Ġsuppress": 7330,
      "Ġlisted": 7331,
      "ĠNote": 7332,
      "peror": 7333,
      "ĠEmperor": 7334,
      "ougl": 7335,
      "ĠIN": 7336,
      "Ġhors": 7337,
      "Ġhorses": 7338,
      "Ġwheel": 7339,
      "ĠChristianity": 7340,
      "athy": 7341,
      "ĠÂ»": 7342,
      "Ġdebris": 7343,
      "Ġconj": 7344,
      "Ġalgae": 7345,
      "Ġopposed": 7346,
      "Ġcow": 7347,
      "ĠHel": 7348,
      "oes": 7349,
      "Ġclimb": 7350,
      "Ġvegetation": 7351,
      "Ġpoliticians": 7352,
      "Ġbeauty": 7353,
      "Ġmetabol": 7354,
      "Ġopinions": 7355,
      "Ġbrush": 7356,
      "Ġabsorption": 7357,
      "Ġinnovative": 7358,
      "yth": 7359,
      "Ġrhyth": 7360,
      "Ġyouth": 7361,
      "through": 7362,
      "odium": 7363,
      "Ġchemotherapy": 7364,
      "ĠLawrence": 7365,
      "inc": 7366,
      "inosaur": 7367,
      "Ġencouraging": 7368,
      "Ġexcessive": 7369,
      "atern": 7370,
      "Ġunf": 7371,
      "Ġunable": 7372,
      "CE": 7373,
      "avior": 7374,
      "aving": 7375,
      "Ġseeds": 7376,
      "ecast": 7377,
      "iting": 7378,
      "Ġexciting": 7379,
      "Ġfit": 7380,
      "ancing": 7381,
      "imal": 7382,
      "ĠFollow": 7383,
      "effect": 7384,
      "Ġlists": 7385,
      "ĠDep": 7386,
      "2011": 7387,
      "Ġ1920": 7388,
      "Ġreceives": 7389,
      "55": 7390,
      "Ġincident": 7391,
      "Ġbio": 7392,
      "ĠAtt": 7393,
      "ret": 7394,
      "Ġerupt": 7395,
      "after": 7396,
      "Ġprevalence": 7397,
      "ĠIndones": 7398,
      "ĠIndustri": 7399,
      "ĠAustri": 7400,
      "Ġoptical": 7401,
      "Ġamounts": 7402,
      "Ġphysically": 7403,
      "Ġshadow": 7404,
      "ipped": 7405,
      "Ġwetlands": 7406,
      "Ġeliminate": 7407,
      "ĠCollection": 7408,
      "blem": 7409,
      "ĠProblem": 7410,
      "Ġrelationships": 7411,
      "eneath": 7412,
      "Ġsovereign": 7413,
      "Ġinvestigation": 7414,
      "Ġpublication": 7415,
      "post": 7416,
      "Ġduty": 7417,
      "aturday": 7418,
      "Ġeveryday": 7419,
      "veloc": 7420,
      "Ġveloc": 7421,
      "Ġstrongly": 7422,
      "Ġimmigration": 7423,
      "Ġmigration": 7424,
      "ĠIslamic": 7425,
      "Ġdecor": 7426,
      "ĠSometimes": 7427,
      "ĠLeague": 7428,
      "ĠIran": 7429,
      "Ġalternatives": 7430,
      "Ġdiagnosed": 7431,
      "ĠCross": 7432,
      "Ġrose": 7433,
      "otech": 7434,
      "Ġfold": 7435,
      "Ġvocabul": 7436,
      "Ġvocabulary": 7437,
      "Ġprofound": 7438,
      "ĠFriday": 7439,
      "Ġgraduate": 7440,
      "isation": 7441,
      "Ġextraord": 7442,
      "Ġextraordinary": 7443,
      "ĠPat": 7444,
      "atitis": 7445,
      "rateg": 7446,
      "Ġforests": 7447,
      "Ġorganisms": 7448,
      "Ġplus": 7449,
      "Ġclaims": 7450,
      "ĠSyn": 7451,
      "Ġpal": 7452,
      "Ġweigh": 7453,
      "Ġannivers": 7454,
      "?\"": 7455,
      "Ġgardens": 7456,
      "Ġobes": 7457,
      "Ġobesity": 7458,
      "ĠIntroduction": 7459,
      "Ġvariations": 7460,
      "Ġvariation": 7461,
      "Ġloose": 7462,
      "uct": 7463,
      "gu": 7464,
      "su": 7465,
      "sued": 7466,
      "Ġissued": 7467,
      "sufficient": 7468,
      "Ġprocedures": 7469,
      "Ġinitiatives": 7470,
      "ĠNov": 7471,
      "Ġimagine": 7472,
      "Ġran": 7473,
      "Ġchap": 7474,
      "Ġengineers": 7475,
      "Ġjur": 7476,
      "Ġjuris": 7477,
      "Ġpropag": 7478,
      "rus": 7479,
      "ĠMinistry": 7480,
      "ĠMinister": 7481,
      "Over": 7482,
      "Ġminority": 7483,
      "Ġfocused": 7484,
      "mail": 7485,
      "met": 7486,
      "Ġartist": 7487,
      "Ġroles": 7488,
      "ĠInc": 7489,
      "ĠInf": 7490,
      "Ġquantity": 7491,
      "Ġquantities": 7492,
      "Ġquantum": 7493,
      "Ġcirculation": 7494,
      "Ġmel": 7495,
      "74": 7496,
      "Ġcalend": 7497,
      "08": 7498,
      "ĠSimil": 7499,
      "ĠSimilar": 7500,
      "mar": 7501,
      "Ġlake": 7502,
      "Ġdeclined": 7503,
      "Ġdose": 7504,
      "Ġadminister": 7505,
      "aches": 7506,
      "Ġbeneath": 7507,
      "ĠMoon": 7508,
      "Ġcryst": 7509,
      "ĠSupport": 7510,
      "Ġconjunction": 7511,
      "ĠMexican": 7512,
      "66": 7513,
      "Ġampl": 7514,
      "Ġepis": 7515,
      "Ġhistorians": 7516,
      "Ġsusceptible": 7517,
      "oven": 7518,
      "night": 7519,
      "Ġemotions": 7520,
      "alse": 7521,
      "Ġfalse": 7522,
      "Ġthank": 7523,
      "ĠWithout": 7524,
      "ĠKh": 7525,
      "Ġcertific": 7526,
      "Ġcompl": 7527,
      "Ġcomplaint": 7528,
      "Ġentrance": 7529,
      "ĠPract": 7530,
      "Ġfract": 7531,
      "Ġelected": 7532,
      "ĠReserve": 7533,
      "Ġlicense": 7534,
      "otic": 7535,
      "Ġexplic": 7536,
      "Ġexplicit": 7537,
      "ĠQuest": 7538,
      "Ġcalendar": 7539,
      "Ġintest": 7540,
      "Ġsavings": 7541,
      "Ġmethane": 7542,
      "Ġprotected": 7543,
      "Ġtables": 7544,
      "ulations": 7545,
      "ĠCommand": 7546,
      "Ġrepresentatives": 7547,
      "ĠHall": 7548,
      "ĠStrateg": 7549,
      "Ġsmoking": 7550,
      "Ġdriving": 7551,
      "Ġdriven": 7552,
      "ĠCommons": 7553,
      "ĠSpecies": 7554,
      "Ġexplains": 7555,
      "ĠOrder": 7556,
      "Ġconfusion": 7557,
      "theastern": 7558,
      "Ġsophistic": 7559,
      "Ġsan": 7560,
      "uesday": 7561,
      "ĠMonday": 7562,
      "Ġcomprom": 7563,
      "Ġbehalf": 7564,
      "âĪ": 7565,
      "Ġcollapse": 7566,
      "ĠLab": 7567,
      "Ġprevail": 7568,
      "Ġhill": 7569,
      "Ġmicrob": 7570,
      "Ġchamber": 7571,
      "world": 7572,
      "wo": 7573,
      "Two": 7574,
      "ĠDemocr": 7575,
      "ĠAmaz": 7576,
      "Ġworst": 7577,
      "Ġworry": 7578,
      "ymp": 7579,
      "ymptom": 7580,
      "Even": 7581,
      "Ġassociate": 7582,
      "Ġhandle": 7583,
      "agraph": 7584,
      "Ġparagraph": 7585,
      "Ġfaculty": 7586,
      "Ġdivine": 7587,
      "Ã¦": 7588,
      "Ġtested": 7589,
      "Ġcompens": 7590,
      "Ġlens": 7591,
      "Ġcompil": 7592,
      "Ġboil": 7593,
      "Ġboy": 7594,
      "Ġlie": 7595,
      "Ġ1988": 7596,
      "ĠRelig": 7597,
      "Ġadvis": 7598,
      "sis": 7599,
      "Ġhypothesis": 7600,
      "Ġcelebration": 7601,
      "Ġdemonstration": 7602,
      "Ġcomposed": 7603,
      "Ġsequences": 7604,
      "Ġfrequencies": 7605,
      "ĠRev": 7606,
      "ĠReference": 7607,
      "ĠGard": 7608,
      "Ġcompetitive": 7609,
      "Ġexer": 7610,
      "Ġexerc": 7611,
      "Ġexercises": 7612,
      "Ġplanned": 7613,
      "ĠAssessment": 7614,
      "ifferent": 7615,
      "ĠTwitter": 7616,
      "Ġcharges": 7617,
      "Ġintroduce": 7618,
      "Ġclassified": 7619,
      "ays": 7620,
      "ifer": 7621,
      "itative": 7622,
      "Ġnarrative": 7623,
      "Ġsubsid": 7624,
      "Ġwalls": 7625,
      "Ġdogs": 7626,
      "Ġeverywhere": 7627,
      "auc": 7628,
      "ulating": 7629,
      "oz": 7630,
      "Ġsummary": 7631,
      "itivity": 7632,
      "Ġsensitivity": 7633,
      "Ġemploye": 7634,
      "Ġemployees": 7635,
      "Ġdominant": 7636,
      "etting": 7637,
      "Ġlooked": 7638,
      "Ġplayed": 7639,
      "Ġhelped": 7640,
      "rans": 7641,
      "trans": 7642,
      "ĠEmerg": 7643,
      "Ġequality": 7644,
      "Ġsalmon": 7645,
      "Ġcontained": 7646,
      "á¹": 7647,
      "Ġzer": 7648,
      "Ġzero": 7649,
      "Ġstatements": 7650,
      "Ġinvolvement": 7651,
      "Ġillegal": 7652,
      "Ġdisk": 7653,
      "Ġfavour": 7654,
      "ourse": 7655,
      "Ġshorter": 7656,
      "Ġreign": 7657,
      "Ġrequir": 7658,
      "ĠAD": 7659,
      "ĠLearn": 7660,
      "Ġgrid": 7661,
      "Ġaccus": 7662,
      "ĠImp": 7663,
      "ĠChris": 7664,
      "ĠThank": 7665,
      "43": 7666,
      "42": 7667,
      "Ġ32": 7668,
      "ĠAssembly": 7669,
      "Ġlibraries": 7670,
      "Ġtriang": 7671,
      "Ġunderground": 7672,
      "Ġenforcement": 7673,
      "41": 7674,
      "ĠView": 7675,
      "Ġmanaged": 7676,
      "Ġcompli": 7677,
      "Ġcompress": 7678,
      "ĠClinical": 7679,
      "Ġstatistical": 7680,
      "elect": 7681,
      "Ġcolonies": 7682,
      "Ġdifficulties": 7683,
      "Ġvaries": 7684,
      "Ġbrand": 7685,
      "Ġfollows": 7686,
      "Ġkinds": 7687,
      "Ġstores": 7688,
      "uther": 7689,
      "ĠWho": 7690,
      "Ġsubjects": 7691,
      "Ġrein": 7692,
      "Ġreinforce": 7693,
      "Ġreef": 7694,
      "def": 7695,
      "Ġinfectious": 7696,
      "Ġdischarge": 7697,
      "Ġsegment": 7698,
      "Ġrect": 7699,
      "ĠPlant": 7700,
      "Ġbatteries": 7701,
      "ologies": 7702,
      "Ġlies": 7703,
      "Ġregulatory": 7704,
      "ĠPers": 7705,
      "akers": 7706,
      "Ġabundant": 7707,
      "oster": 7708,
      "Ġdinosaur": 7709,
      "Ġlaunched": 7710,
      "ura": 7711,
      "Ġconclusions": 7712,
      "ĠNews": 7713,
      "Ġlin": 7714,
      "Ġlinear": 7715,
      "Ġwithdraw": 7716,
      "ĠBuilding": 7717,
      "Ġsodium": 7718,
      "Ġfigures": 7719,
      "ĠDrug": 7720,
      "CT": 7721,
      "ĠAgricultural": 7722,
      "Ġflexibility": 7723,
      "commun": 7724,
      "Ġduties": 7725,
      "Ġlock": 7726,
      "shire": 7727,
      "Ġpanels": 7728,
      "Students": 7729,
      "Ġmode": 7730,
      "Ġhaven": 7731,
      "Ġvelocity": 7732,
      "Ġaggressive": 7733,
      "Ġconcepts": 7734,
      "Ġinvasion": 7735,
      "ĠRemember": 7736,
      "ologically": 7737,
      "ologic": 7738,
      "icrosoft": 7739,
      "Ġmodule": 7740,
      "Ġterritories": 7741,
      "Ġtrick": 7742,
      "Ġancestors": 7743,
      "Ġbag": 7744,
      "Ġmag": 7745,
      "hyd": 7746,
      "Ġspray": 7747,
      "ĠExp": 7748,
      "National": 7749,
      "Ġmosquito": 7750,
      "cision": 7751,
      "roc": 7752,
      "Ġvector": 7753,
      "Ġagent": 7754,
      "Ġviolent": 7755,
      "ĠQueen": 7756,
      "apping": 7757,
      "Ġappointed": 7758,
      "Ġfighting": 7759,
      "Ġmetabolic": 7760,
      "Ġchest": 7761,
      "Ġoldest": 7762,
      "Ġremoval": 7763,
      "Ġinjured": 7764,
      "ĠAny": 7765,
      "ogram": 7766,
      "isto": 7767,
      "ĠEv": 7768,
      "Ġequipped": 7769,
      "amil": 7770,
      "Ġaffirm": 7771,
      "09": 7772,
      "06": 7773,
      "ĠSl": 7774,
      "lers": 7775,
      "Ġsettlers": 7776,
      "cel": 7777,
      "reece": 7778,
      "ĠGreece": 7779,
      "ĠSeveral": 7780,
      "Ġadjac": 7781,
      "Ġdepends": 7782,
      "ĠDavis": 7783,
      "ĠJac": 7784,
      "ĠJacob": 7785,
      "ynast": 7786,
      "ĠCare": 7787,
      "pper": 7788,
      "ritis": 7789,
      "thritis": 7790,
      "Ġstable": 7791,
      "Ġfaces": 7792,
      "ĠGovernor": 7793,
      "EP": 7794,
      "Ġenables": 7795,
      "Ġgalaxies": 7796,
      "73": 7797,
      "Ġconfig": 7798,
      "Ġconfiguration": 7799,
      "'m": 7800,
      "regular": 7801,
      "Ġirregular": 7802,
      "Ġentit": 7803,
      "Ġentitled": 7804,
      "itarian": 7805,
      "ypes": 7806,
      "Ġpriority": 7807,
      "ĠMet": 7808,
      "ĠTemple": 7809,
      "ĠAlzheimer": 7810,
      "thetic": 7811,
      "Artic": 7812,
      "ĠPrin": 7813,
      "sylvania": 7814,
      "ĠPennsylvania": 7815,
      "Ġproteins": 7816,
      "Ġbranches": 7817,
      "Ġempty": 7818,
      "Ġemployed": 7819,
      "irus": 7820,
      "irr": 7821,
      "Ġmirr": 7822,
      "ĠJer": 7823,
      "ĠJerus": 7824,
      "ĠJerusal": 7825,
      "ĠJerusalem": 7826,
      "Ġconfus": 7827,
      "Ġconfront": 7828,
      "employment": 7829,
      "Ġwireless": 7830,
      "elcome": 7831,
      "Ġovercome": 7832,
      "gression": 7833,
      "Ġadjacent": 7834,
      "Ġinfluenza": 7835,
      "Ġhoney": 7836,
      "third": 7837,
      "ĠThird": 7838,
      "Ġsplit": 7839,
      "surance": 7840,
      "ĠType": 7841,
      "ĠCaptain": 7842,
      "85": 7843,
      "Ġtendency": 7844,
      "ĠPoint": 7845,
      "Ġdeploy": 7846,
      "profit": 7847,
      "Ġpictures": 7848,
      "Ġdeleg": 7849,
      "ĠVis": 7850,
      "Ġzones": 7851,
      "ĠPri": 7852,
      "ĠPrize": 7853,
      "Ġdiscussions": 7854,
      "Ġtrem": 7855,
      "ĠDaniel": 7856,
      "rect": 7857,
      "ĠMount": 7858,
      "Ġparas": 7859,
      "ĠLead": 7860,
      "Ġmanufacturers": 7861,
      "ĠAlaska": 7862,
      "De": 7863,
      "Ġmixt": 7864,
      "Ġmixture": 7865,
      "Ġmixed": 7866,
      "izations": 7867,
      "izz": 7868,
      "Ġble": 7869,
      "Ġsuffering": 7870,
      "Ġabundance": 7871,
      "Ġcomfortable": 7872,
      "Ġflower": 7873,
      "Ġbuck": 7874,
      "Ġvideos": 7875,
      "Ġalarm": 7876,
      "ĠTr": 7877,
      "Ġpursue": 7878,
      "Ġcandidate": 7879,
      "Ġcandidates": 7880,
      "ĠWeek": 7881,
      "ĠBur": 7882,
      "yroid": 7883,
      "Ġthyroid": 7884,
      "Ġconsumer": 7885,
      "Ġalign": 7886,
      "Ġmouse": 7887,
      "Ġaggreg": 7888,
      "Ġinterests": 7889,
      "ĠEgyptian": 7890,
      "Ġurine": 7891,
      "Ġtranslation": 7892,
      "ĠRed": 7893,
      "ica": 7894,
      "Ġfertility": 7895,
      "Ġarms": 7896,
      "Ġstations": 7897,
      "Ġstones": 7898,
      "Ġrepresentative": 7899,
      "Ġrepresented": 7900,
      "07": 7901,
      "Ġconstructed": 7902,
      "III": 7903,
      "IA": 7904,
      "Ġdistant": 7905,
      "vant": 7906,
      "Ġteens": 7907,
      "Ġnurs": 7908,
      "ĠRoosevel": 7909,
      "ending": 7910,
      "Ġfifteen": 7911,
      "Ġfifth": 7912,
      "Ġfifty": 7913,
      "ucky": 7914,
      "Ġboat": 7915,
      "Ġopened": 7916,
      "University": 7917,
      "me": 7918,
      "inson": 7919,
      "insula": 7920,
      "Ġdatabases": 7921,
      "Ġreleases": 7922,
      "Ġ1987": 7923,
      "Ġ1986": 7924,
      "71": 7925,
      "itizen": 7926,
      "Ġheaven": 7927,
      "amples": 7928,
      "emeter": 7929,
      "ubble": 7930,
      "Ġprofile": 7931,
      "Ġmissions": 7932,
      "Ġcivilization": 7933,
      "Ġsolutions": 7934,
      "ules": 7935,
      "Ġcooperation": 7936,
      "ocaust": 7937,
      "ĠHolocaust": 7938,
      "Ġ`": 7939,
      "aylor": 7940,
      "May": 7941,
      "Ġdistributed": 7942,
      "Ġyounger": 7943,
      "ĠKorea": 7944,
      "ened": 7945,
      "zen": 7946,
      "ĠSen": 7947,
      "ĠSenate": 7948,
      "Ġfrozen": 7949,
      "Ġinfluenced": 7950,
      "Ġbed": 7951,
      "acebook": 7952,
      "ĠFarm": 7953,
      "Ġplent": 7954,
      "**": 7955,
      "scale": 7956,
      "Ġliberty": 7957,
      "ĠImm": 7958,
      "ĠDisord": 7959,
      "Ġstring": 7960,
      "Ġassume": 7961,
      "Ġloop": 7962,
      "chiev": 7963,
      "Ġdynamic": 7964,
      "Ġgrammar": 7965,
      "Ħ¢": 7966,
      "âĦ¢": 7967,
      "bon": 7968,
      "ĠBlood": 7969,
      "ĠEducational": 7970,
      "Ġexpertise": 7971,
      "Pl": 7972,
      "LE": 7973,
      "ĠEconomic": 7974,
      "Ġownership": 7975,
      "Ġalt": 7976,
      "olt": 7977,
      "Ġreasonable": 7978,
      "Ġoffices": 7979,
      "rank": 7980,
      "Ġbatt": 7981,
      "Ġbishop": 7982,
      "Ġrhythm": 7983,
      "ĠForm": 7984,
      "Ġtextbook": 7985,
      "03": 7986,
      "04": 7987,
      "02": 7988,
      "Ġtight": 7989,
      "sight": 7990,
      "Ġinsight": 7991,
      "Ġattacks": 7992,
      "ĠPop": 7993,
      "ĠST": 7994,
      "Ġpunishment": 7995,
      "Ġsitting": 7996,
      "Ġsynthetic": 7997,
      "Ġdecay": 7998,
      "Ġintegral": 7999
    },
    "merges": [
      [
        "t",
        "h"
      ],
      [
        "th",
        "e"
      ],
      [
        "i",
        "n"
      ],
      [
        "a",
        "n"
      ],
      [
        "o",
        "n"
      ],
      [
        "Ġ",
        "the"
      ],
      [
        "in",
        "g"
      ],
      [
        "an",
        "d"
      ],
      [
        "e",
        "n"
      ],
      [
        "o",
        "f"
      ],
      [
        "e",
        "r"
      ],
      [
        "o",
        "r"
      ],
      [
        "r",
        "e"
      ],
      [
        "a",
        "t"
      ],
      [
        "a",
        "l"
      ],
      [
        "a",
        "r"
      ],
      [
        "Ġ",
        "of"
      ],
      [
        "â",
        "Ģ"
      ],
      [
        "i",
        "on"
      ],
      [
        "o",
        "u"
      ],
      [
        "e",
        "d"
      ],
      [
        "Ġ",
        "w"
      ],
      [
        "Ġ",
        "and"
      ],
      [
        "at",
        "ion"
      ],
      [
        "en",
        "t"
      ],
      [
        "T",
        "h"
      ],
      [
        "f",
        "or"
      ],
      [
        "t",
        "o"
      ],
      [
        "Ġ",
        "to"
      ],
      [
        "r",
        "o"
      ],
      [
        "s",
        "t"
      ],
      [
        "Ġ",
        "b"
      ],
      [
        "c",
        "h"
      ],
      [
        "i",
        "t"
      ],
      [
        "Ġ",
        "in"
      ],
      [
        "i",
        "s"
      ],
      [
        "i",
        "c"
      ],
      [
        "Ġ",
        "a"
      ],
      [
        "Ġ",
        "p"
      ],
      [
        "Ġ",
        "c"
      ],
      [
        "c",
        "t"
      ],
      [
        "e",
        "s"
      ],
      [
        "th",
        "at"
      ],
      [
        "Ġ",
        "f"
      ],
      [
        "Ġ",
        "h"
      ],
      [
        "Ġw",
        "h"
      ],
      [
        "o",
        "w"
      ],
      [
        "Ġp",
        "ro"
      ],
      [
        "Ġb",
        "e"
      ],
      [
        "v",
        "er"
      ],
      [
        "v",
        "e"
      ],
      [
        "Ġ",
        "s"
      ],
      [
        "a",
        "s"
      ],
      [
        "o",
        "m"
      ],
      [
        "Ġ",
        "m"
      ],
      [
        "l",
        "y"
      ],
      [
        "l",
        "e"
      ],
      [
        "g",
        "h"
      ],
      [
        "Ġc",
        "on"
      ],
      [
        "Ġ",
        "d"
      ],
      [
        "Th",
        "e"
      ],
      [
        "Ġ",
        "that"
      ],
      [
        "Ġw",
        "i"
      ],
      [
        "Ġwi",
        "th"
      ],
      [
        "Ġ",
        "for"
      ],
      [
        "Ġ",
        "A"
      ],
      [
        "Ġ",
        "S"
      ],
      [
        "the",
        "r"
      ],
      [
        "m",
        "ent"
      ],
      [
        "Ġ",
        "C"
      ],
      [
        "âĢ",
        "Ļ"
      ],
      [
        "Ġ",
        "re"
      ],
      [
        "Ġc",
        "om"
      ],
      [
        "Ġa",
        "re"
      ],
      [
        "o",
        "l"
      ],
      [
        "r",
        "a"
      ],
      [
        "Ġf",
        "ro"
      ],
      [
        "Ġfro",
        "m"
      ],
      [
        "i",
        "m"
      ],
      [
        "e",
        "x"
      ],
      [
        "Ġw",
        "as"
      ],
      [
        "i",
        "l"
      ],
      [
        "Ġ",
        "I"
      ],
      [
        "i",
        "d"
      ],
      [
        "0",
        "0"
      ],
      [
        "u",
        "r"
      ],
      [
        "q",
        "u"
      ],
      [
        "Ġ",
        "is"
      ],
      [
        "Ġ",
        "("
      ],
      [
        "Ġ",
        "th"
      ],
      [
        "Ġ",
        "n"
      ],
      [
        "u",
        "n"
      ],
      [
        "i",
        "r"
      ],
      [
        "ou",
        "r"
      ],
      [
        "ou",
        "n"
      ],
      [
        "Ġ",
        "M"
      ],
      [
        "1",
        "9"
      ],
      [
        "i",
        "gh"
      ],
      [
        "u",
        "s"
      ],
      [
        "a",
        "m"
      ],
      [
        "Ġ",
        "P"
      ],
      [
        "i",
        "f"
      ],
      [
        "c",
        "e"
      ],
      [
        "Ġn",
        "o"
      ],
      [
        "Ġb",
        "y"
      ],
      [
        "ou",
        "gh"
      ],
      [
        "Ġ",
        "on"
      ],
      [
        "Ġh",
        "a"
      ],
      [
        "Ġha",
        "ve"
      ],
      [
        "a",
        "y"
      ],
      [
        "i",
        "ve"
      ],
      [
        "b",
        "le"
      ],
      [
        "Ġ",
        "B"
      ],
      [
        "ct",
        "ion"
      ],
      [
        "u",
        "l"
      ],
      [
        "Ġ",
        "l"
      ],
      [
        "Ġ",
        "g"
      ],
      [
        "Ġ",
        "t"
      ],
      [
        "u",
        "t"
      ],
      [
        "Ġ",
        "ex"
      ],
      [
        "Ġ",
        "H"
      ],
      [
        "Ġ",
        "The"
      ],
      [
        "Ġth",
        "is"
      ],
      [
        "i",
        "st"
      ],
      [
        "Ġ",
        "st"
      ],
      [
        "Ġno",
        "t"
      ],
      [
        "it",
        "y"
      ],
      [
        "Ġ",
        "W"
      ],
      [
        "ĠI",
        "n"
      ],
      [
        "Ġa",
        "s"
      ],
      [
        "u",
        "re"
      ],
      [
        "u",
        "m"
      ],
      [
        "t",
        "er"
      ],
      [
        "Ġ",
        "R"
      ],
      [
        "Ġ",
        "D"
      ],
      [
        "r",
        "i"
      ],
      [
        "Ġ",
        "F"
      ],
      [
        "Ġ",
        "E"
      ],
      [
        "o",
        "p"
      ],
      [
        "Ġd",
        "e"
      ],
      [
        "âĢ",
        "ľ"
      ],
      [
        "âĢ",
        "Ŀ"
      ],
      [
        "ou",
        "t"
      ],
      [
        "igh",
        "t"
      ],
      [
        "Ġ",
        "G"
      ],
      [
        "e",
        "l"
      ],
      [
        "al",
        "l"
      ],
      [
        "Ġ",
        "N"
      ],
      [
        "Ġ",
        "it"
      ],
      [
        "Ġs",
        "h"
      ],
      [
        "Ġs",
        "u"
      ],
      [
        "Ġ",
        "1"
      ],
      [
        "Ġ",
        "L"
      ],
      [
        "a",
        "g"
      ],
      [
        "ic",
        "al"
      ],
      [
        "a",
        "d"
      ],
      [
        "o",
        "d"
      ],
      [
        "a",
        "in"
      ],
      [
        "Ġ",
        "2"
      ],
      [
        "Ġ",
        "T"
      ],
      [
        "i",
        "es"
      ],
      [
        "Ġ",
        "or"
      ],
      [
        "Ġ",
        "an"
      ],
      [
        "Ġ",
        "y"
      ],
      [
        "Ġy",
        "ou"
      ],
      [
        "ou",
        "l"
      ],
      [
        "oul",
        "d"
      ],
      [
        "u",
        "d"
      ],
      [
        "Ġwi",
        "l"
      ],
      [
        "i",
        "g"
      ],
      [
        "Ġwh",
        "i"
      ],
      [
        "Ġwhi",
        "ch"
      ],
      [
        "i",
        "v"
      ],
      [
        "o",
        "ther"
      ],
      [
        "Ġy",
        "our"
      ],
      [
        "Ġc",
        "an"
      ],
      [
        "oun",
        "d"
      ],
      [
        "Ġ",
        "J"
      ],
      [
        "Ġwil",
        "l"
      ],
      [
        "a",
        "k"
      ],
      [
        "e",
        "m"
      ],
      [
        "il",
        "l"
      ],
      [
        "Ġ",
        "ch"
      ],
      [
        "el",
        "l"
      ],
      [
        "e",
        "t"
      ],
      [
        "an",
        "t"
      ],
      [
        "Ġ",
        "us"
      ],
      [
        "Ġ",
        "Th"
      ],
      [
        "Ġ",
        "v"
      ],
      [
        "Ġ",
        "U"
      ],
      [
        "Ġ",
        "un"
      ],
      [
        "i",
        "z"
      ],
      [
        "e",
        "ct"
      ],
      [
        "ar",
        "t"
      ],
      [
        "c",
        "k"
      ],
      [
        "Ġw",
        "or"
      ],
      [
        "c",
        "i"
      ],
      [
        "Ġ",
        "O"
      ],
      [
        "en",
        "ce"
      ],
      [
        "o",
        "ver"
      ],
      [
        "'",
        "s"
      ],
      [
        "is",
        "h"
      ],
      [
        "e",
        "st"
      ],
      [
        "Ġb",
        "ut"
      ],
      [
        "Ġn",
        "e"
      ],
      [
        "c",
        "es"
      ],
      [
        "at",
        "e"
      ],
      [
        "Ġ",
        "at"
      ],
      [
        "Ġ",
        "e"
      ],
      [
        "Ġ",
        "19"
      ],
      [
        "ou",
        "s"
      ],
      [
        "o",
        "s"
      ],
      [
        "er",
        "s"
      ],
      [
        "Ġst",
        "ud"
      ],
      [
        "it",
        "ion"
      ],
      [
        "Ġcom",
        "p"
      ],
      [
        "or",
        "t"
      ],
      [
        "p",
        "ort"
      ],
      [
        "Ġcon",
        "t"
      ],
      [
        "o",
        "t"
      ],
      [
        "ul",
        "t"
      ],
      [
        "u",
        "st"
      ],
      [
        "a",
        "st"
      ],
      [
        "o",
        "st"
      ],
      [
        "ve",
        "l"
      ],
      [
        "Ġd",
        "is"
      ],
      [
        "Ġp",
        "re"
      ],
      [
        "Ġh",
        "as"
      ],
      [
        "Ġ2",
        "00"
      ],
      [
        "al",
        "ly"
      ],
      [
        "at",
        "ed"
      ],
      [
        "Ġ",
        "\""
      ],
      [
        "Ġ",
        "other"
      ],
      [
        "Ġ",
        "le"
      ],
      [
        "o",
        "od"
      ],
      [
        "o",
        "g"
      ],
      [
        "ol",
        "og"
      ],
      [
        "ig",
        "n"
      ],
      [
        "oun",
        "t"
      ],
      [
        "Ġ",
        "all"
      ],
      [
        "Ġ",
        "al"
      ],
      [
        "om",
        "e"
      ],
      [
        "b",
        "out"
      ],
      [
        "Ġa",
        "bout"
      ],
      [
        "a",
        "ble"
      ],
      [
        "Ġthe",
        "ir"
      ],
      [
        "a",
        "b"
      ],
      [
        "a",
        "ct"
      ],
      [
        "Ġ",
        "r"
      ],
      [
        "Ġ",
        "im"
      ],
      [
        "en",
        "d"
      ],
      [
        "Ġex",
        "p"
      ],
      [
        "Ġ",
        "k"
      ],
      [
        "Ġcom",
        "m"
      ],
      [
        "a",
        "ch"
      ],
      [
        "Ġp",
        "art"
      ],
      [
        "Ġwor",
        "k"
      ],
      [
        "a",
        "ck"
      ],
      [
        "ag",
        "e"
      ],
      [
        "f",
        "f"
      ],
      [
        "âĢ",
        "ĵ"
      ],
      [
        "âĢ",
        "Ķ"
      ],
      [
        "on",
        "g"
      ],
      [
        "Ġ",
        "K"
      ],
      [
        "for",
        "m"
      ],
      [
        "vel",
        "op"
      ],
      [
        "an",
        "g"
      ],
      [
        "an",
        "ce"
      ],
      [
        "ow",
        "n"
      ],
      [
        "Ġh",
        "e"
      ],
      [
        "Ġh",
        "is"
      ],
      [
        "Ġs",
        "ome"
      ],
      [
        "Ġs",
        "p"
      ],
      [
        "a",
        "p"
      ],
      [
        "ĠC",
        "h"
      ],
      [
        "Ġp",
        "l"
      ],
      [
        "Ġde",
        "velop"
      ],
      [
        "j",
        "ect"
      ],
      [
        "ff",
        "ect"
      ],
      [
        "ar",
        "d"
      ],
      [
        "Ġe",
        "v"
      ],
      [
        "Ġ",
        "out"
      ],
      [
        "Ġ",
        "j"
      ],
      [
        "Ġm",
        "or"
      ],
      [
        "Ġmor",
        "e"
      ],
      [
        "p",
        "p"
      ],
      [
        "Ġa",
        "pp"
      ],
      [
        "Ġt",
        "im"
      ],
      [
        "Ġh",
        "igh"
      ],
      [
        "Ġha",
        "d"
      ],
      [
        "d",
        "u"
      ],
      [
        "r",
        "u"
      ],
      [
        "Ġw",
        "ould"
      ],
      [
        "e",
        "ar"
      ],
      [
        "Ġy",
        "ear"
      ],
      [
        "ear",
        "ch"
      ],
      [
        "Ġw",
        "er"
      ],
      [
        "Ġwer",
        "e"
      ],
      [
        "Ġw",
        "e"
      ],
      [
        "a",
        "ce"
      ],
      [
        "Ġs",
        "e"
      ],
      [
        "Ġ",
        "âĢľ"
      ],
      [
        "Ġth",
        "an"
      ],
      [
        "Ġre",
        "s"
      ],
      [
        "il",
        "d"
      ],
      [
        "Ġch",
        "ild"
      ],
      [
        "Ġ2",
        "0"
      ],
      [
        "ĠTh",
        "is"
      ],
      [
        "ir",
        "st"
      ],
      [
        "Ġf",
        "irst"
      ],
      [
        "ĠU",
        "n"
      ],
      [
        "Ġd",
        "o"
      ],
      [
        "Ġwh",
        "o"
      ],
      [
        "o",
        "k"
      ],
      [
        "o",
        "ok"
      ],
      [
        "a",
        "us"
      ],
      [
        "Ġpro",
        "du"
      ],
      [
        "Ġ",
        "V"
      ],
      [
        "u",
        "p"
      ],
      [
        "Ġ",
        "up"
      ],
      [
        "Ġ",
        "en"
      ],
      [
        "ar",
        "y"
      ],
      [
        "op",
        "le"
      ],
      [
        "o",
        "b"
      ],
      [
        "r",
        "ough"
      ],
      [
        "Ġth",
        "rough"
      ],
      [
        "Ġne",
        "w"
      ],
      [
        "Ġsu",
        "ch"
      ],
      [
        "u",
        "b"
      ],
      [
        "Ġk",
        "n"
      ],
      [
        "Ġm",
        "an"
      ],
      [
        "ĠS",
        "t"
      ],
      [
        "Ġres",
        "earch"
      ],
      [
        "Ġm",
        "ay"
      ],
      [
        "l",
        "ud"
      ],
      [
        "c",
        "lud"
      ],
      [
        "Ġsh",
        "ould"
      ],
      [
        "Ġin",
        "clud"
      ],
      [
        "re",
        "at"
      ],
      [
        "i",
        "re"
      ],
      [
        "a",
        "re"
      ],
      [
        "o",
        "c"
      ],
      [
        "i",
        "a"
      ],
      [
        "a",
        "v"
      ],
      [
        "if",
        "f"
      ],
      [
        "Ġd",
        "iff"
      ],
      [
        "e",
        "w"
      ],
      [
        "p",
        "h"
      ],
      [
        "Ġm",
        "ost"
      ],
      [
        "st",
        "em"
      ],
      [
        "y",
        "stem"
      ],
      [
        "Ġwh",
        "en"
      ],
      [
        "Ġs",
        "o"
      ],
      [
        "Ġa",
        "d"
      ],
      [
        "Ġun",
        "d"
      ],
      [
        "Ġund",
        "er"
      ],
      [
        "ut",
        "ion"
      ],
      [
        "Ġin",
        "to"
      ],
      [
        "es",
        "s"
      ],
      [
        "Ġal",
        "s"
      ],
      [
        "Ġals",
        "o"
      ],
      [
        "Ġ",
        "over"
      ],
      [
        "ces",
        "s"
      ],
      [
        "if",
        "ic"
      ],
      [
        "i",
        "an"
      ],
      [
        "i",
        "k"
      ],
      [
        "Ġl",
        "ik"
      ],
      [
        "re",
        "s"
      ],
      [
        "res",
        "s"
      ],
      [
        "Ġim",
        "p"
      ],
      [
        "e",
        "ople"
      ],
      [
        "Ġp",
        "eople"
      ],
      [
        "in",
        "d"
      ],
      [
        "d",
        "ition"
      ],
      [
        "b",
        "er"
      ],
      [
        "Ġ",
        "Y"
      ],
      [
        "Ġ",
        "op"
      ],
      [
        "Ġ",
        "qu"
      ],
      [
        ")",
        "."
      ],
      [
        "it",
        "ies"
      ],
      [
        "Ġc",
        "l"
      ],
      [
        "ver",
        "y"
      ],
      [
        "ub",
        "l"
      ],
      [
        "Ġs",
        "ystem"
      ],
      [
        "at",
        "er"
      ],
      [
        "in",
        "e"
      ],
      [
        "id",
        "e"
      ],
      [
        "ation",
        "s"
      ],
      [
        "ak",
        "e"
      ],
      [
        "Ġp",
        "er"
      ],
      [
        "Ġim",
        "port"
      ],
      [
        "le",
        "ct"
      ],
      [
        "Ġw",
        "ater"
      ],
      [
        "Ġch",
        "ang"
      ],
      [
        "Ġin",
        "ter"
      ],
      [
        "ĠI",
        "t"
      ],
      [
        "p",
        "t"
      ],
      [
        "Ġ1",
        "8"
      ],
      [
        "i",
        "ver"
      ],
      [
        "os",
        "e"
      ],
      [
        "Ġh",
        "ow"
      ],
      [
        "l",
        "ow"
      ],
      [
        "Ġ",
        "3"
      ],
      [
        "form",
        "ation"
      ],
      [
        "a",
        "c"
      ],
      [
        "ol",
        "d"
      ],
      [
        "Ġbe",
        "en"
      ],
      [
        "Ġtim",
        "e"
      ],
      [
        "Ġc",
        "ould"
      ],
      [
        "Ġt",
        "ra"
      ],
      [
        "Ġwh",
        "at"
      ],
      [
        "g",
        "e"
      ],
      [
        "Ġ20",
        "1"
      ],
      [
        "Ġj",
        "ust"
      ],
      [
        "at",
        "ive"
      ],
      [
        "a",
        "il"
      ],
      [
        "ro",
        "w"
      ],
      [
        "Ġt",
        "w"
      ],
      [
        "Ġtw",
        "o"
      ],
      [
        "Ġth",
        "ose"
      ],
      [
        "r",
        "y"
      ],
      [
        "r",
        "ic"
      ],
      [
        "r",
        "an"
      ],
      [
        "i",
        "p"
      ],
      [
        "i",
        "al"
      ],
      [
        "Ġ",
        "ra"
      ],
      [
        "r",
        "it"
      ],
      [
        "aus",
        "e"
      ],
      [
        "Ġon",
        "e"
      ],
      [
        "Ġsp",
        "e"
      ],
      [
        "am",
        "e"
      ],
      [
        "am",
        "p"
      ],
      [
        "at",
        "es"
      ],
      [
        "Ġon",
        "ly"
      ],
      [
        "i",
        "ous"
      ],
      [
        "Ġw",
        "ell"
      ],
      [
        "Ġpro",
        "v"
      ],
      [
        "ce",
        "pt"
      ],
      [
        "or",
        "d"
      ],
      [
        "Ġman",
        "y"
      ],
      [
        "or",
        "y"
      ],
      [
        "Ġa",
        "c"
      ],
      [
        "ĠW",
        "h"
      ],
      [
        "Ġkn",
        "ow"
      ],
      [
        "Ġe",
        "ffect"
      ],
      [
        "f",
        "ter"
      ],
      [
        "Ġlik",
        "e"
      ],
      [
        "Ġbe",
        "c"
      ],
      [
        "Ġbec",
        "ause"
      ],
      [
        "Ġt",
        "ran"
      ],
      [
        "Ġh",
        "el"
      ],
      [
        "Ġhel",
        "p"
      ],
      [
        "il",
        "ity"
      ],
      [
        "Ġ",
        "ob"
      ],
      [
        "Ġres",
        "ult"
      ],
      [
        "Ġsu",
        "b"
      ],
      [
        "ri",
        "b"
      ],
      [
        "|",
        "|"
      ],
      [
        "ci",
        "al"
      ],
      [
        "ation",
        "al"
      ],
      [
        "Ġdiff",
        "er"
      ],
      [
        "at",
        "ure"
      ],
      [
        "Ġit",
        "s"
      ],
      [
        "er",
        "v"
      ],
      [
        "Ġ",
        "if"
      ],
      [
        "Ġ",
        "ar"
      ],
      [
        "ĠUn",
        "iver"
      ],
      [
        "Ġp",
        "ubl"
      ],
      [
        "o",
        "ve"
      ],
      [
        "i",
        "ble"
      ],
      [
        "ul",
        "ar"
      ],
      [
        "ar",
        "k"
      ],
      [
        "Ġw",
        "ay"
      ],
      [
        "c",
        "re"
      ],
      [
        "cre",
        "as"
      ],
      [
        "as",
        "s"
      ],
      [
        "Ġac",
        "c"
      ],
      [
        "Ġre",
        "c"
      ],
      [
        "Ġle",
        "vel"
      ],
      [
        "Ġn",
        "um"
      ],
      [
        "Ġnum",
        "ber"
      ],
      [
        "ol",
        "low"
      ],
      [
        "Ġc",
        "ol"
      ],
      [
        "ra",
        "m"
      ],
      [
        "Ġm",
        "e"
      ],
      [
        "i",
        "b"
      ],
      [
        "Ġa",
        "ct"
      ],
      [
        "ra",
        "ct"
      ],
      [
        "Ġspe",
        "c"
      ],
      [
        "Ġimport",
        "ant"
      ],
      [
        "f",
        "ul"
      ],
      [
        "Ġa",
        "fter"
      ],
      [
        "Ġne",
        "ed"
      ],
      [
        "ĠA",
        "n"
      ],
      [
        "I",
        "n"
      ],
      [
        "ĠN",
        "ew"
      ],
      [
        "Ġ",
        "our"
      ],
      [
        "Ġ",
        "em"
      ],
      [
        "Ġg",
        "r"
      ],
      [
        "Ġgr",
        "ou"
      ],
      [
        "Ġg",
        "en"
      ],
      [
        "Ġ19",
        "9"
      ],
      [
        "Ġ",
        "ro"
      ],
      [
        "st",
        "ru"
      ],
      [
        "g",
        "ram"
      ],
      [
        "Ġpro",
        "gram"
      ],
      [
        "c",
        "on"
      ],
      [
        "Ġpro",
        "ble"
      ],
      [
        "Ġpro",
        "cess"
      ],
      [
        "qu",
        "ire"
      ],
      [
        "Ġcomm",
        "un"
      ],
      [
        "en",
        "s"
      ],
      [
        "r",
        "en"
      ],
      [
        "Ġchild",
        "ren"
      ],
      [
        "Ġp",
        "r"
      ],
      [
        "olog",
        "y"
      ],
      [
        "Ġthe",
        "y"
      ],
      [
        "Ġc",
        "ount"
      ],
      [
        "Ġp",
        "h"
      ],
      [
        "Ġstud",
        "ent"
      ],
      [
        "Ġdiffer",
        "ent"
      ],
      [
        "ion",
        "s"
      ],
      [
        "Ġcon",
        "s"
      ],
      [
        "o",
        "ol"
      ],
      [
        "ch",
        "ool"
      ],
      [
        "Ġex",
        "amp"
      ],
      [
        "Ġp",
        "os"
      ],
      [
        "00",
        "0"
      ],
      [
        "Ġus",
        "ed"
      ],
      [
        "Ġus",
        "e"
      ],
      [
        "Ġan",
        "y"
      ],
      [
        "Ġa",
        "g"
      ],
      [
        "Ġag",
        "ain"
      ],
      [
        "in",
        "k"
      ],
      [
        "Ġpre",
        "s"
      ],
      [
        "Ġe",
        "very"
      ],
      [
        "Ġ",
        "very"
      ],
      [
        "Ġe",
        "ach"
      ],
      [
        "Ġkn",
        "own"
      ],
      [
        "Ġin",
        "formation"
      ],
      [
        "er",
        "e"
      ],
      [
        "Ġwh",
        "ere"
      ],
      [
        "as",
        "e"
      ],
      [
        "u",
        "al"
      ],
      [
        "re",
        "e"
      ],
      [
        "Ġf",
        "ollow"
      ],
      [
        "Ġf",
        "ound"
      ],
      [
        "Ġl",
        "ong"
      ],
      [
        "a",
        "w"
      ],
      [
        "Ġ",
        "4"
      ],
      [
        "Ġr",
        "ight"
      ],
      [
        "Ġth",
        "ree"
      ],
      [
        "o",
        "v"
      ],
      [
        "Ġin",
        "creas"
      ],
      [
        "w",
        "ay"
      ],
      [
        "over",
        "n"
[...]
