{
  "version": "1.0",
  "truncation": null,
  "padding": null,
  "added_tokens": [
    {
      "id": 0,
      "content": "<|endoftext|>",
      "single_word": false,
      "lstrip": false,
      "rstrip": false,
      "normalized": false,
      "special": true
    },
    {
      "id": 1,
      "content": "<|padding|>",
      "single_word": false,
      "lstrip": false,
      "rstrip": false,
      "normalized": false,
      "special": true
    }
  ],
  "normalizer": {
    "type": "NFC"
  },
  "pre_tokenizer": {
    "type": "ByteLevel",
    "add_prefix_space": false,
    "trim_offsets": true,
    "use_regex": true
  },
  "post_processor": {
    "type": "ByteLevel",
    "add_prefix_space": true,
    "trim_offsets": false,
    "use_regex": true
  },
  "decoder": {
    "type": "ByteLevel",
    "add_prefix_space": true,
    "trim_offsets": true,
    "use_regex": true
  },
  "model": {
    "type": "BPE",
    "dropout": null,
    "unk_token": null,
    "continuing_subword_prefix": null,
    "end_of_word_suffix": null,
    "fuse_unk": false,
    "byte_fallback": false,
    "ignore_merges": false,
    "vocab": {
      "<|endoftext|>": 0,
      "<|padding|>": 1,
      "!": 2,
      "\"": 3,
      "#": 4,
      "$": 5,
      "%": 6,
      "&": 7,
      "'": 8,
      "(": 9,
      ")": 10,
      "*": 11,
      "+": 12,
      ",": 13,
      "-": 14,
      ".": 15,
      "/": 16,
      "0": 17,
      "1": 18,
      "2": 19,
      "3": 20,
      "4": 21,
      "5": 22,
      "6": 23,
      "7": 24,
      "8": 25,
      "9": 26,
      ":": 27,
      ";": 28,
      "<": 29,
      "=": 30,
      ">": 31,
      "?": 32,
      "@": 33,
      "A": 34,
      "B": 35,
      "C": 36,
      "D": 37,
      "E": 38,
      "F": 39,
      "G": 40,
      "H": 41,
      "I": 42,
      "J": 43,
      "K": 44,
      "L": 45,
      "M": 46,
      "N": 47,
      "O": 48,
      "P": 49,
      "Q": 50,
      "R": 51,
      "S": 52,
      "T": 53,
      "U": 54,
      "V": 55,
      "W": 56,
      "X": 57,
      "Y": 58,
      "Z": 59,
      "[": 60,
      "\\": 61,
      "]": 62,
      "^": 63,
      "_": 64,
      "`": 65,
      "a": 66,
      "b": 67,
      "c": 68,
      "d": 69,
      "e": 70,
      "f": 71,
      "g": 72,
      "h": 73,
      "i": 74,
      "j": 75,
      "k": 76,
      "l": 77,
      "m": 78,
      "n": 79,
      "o": 80,
      "p": 81,
      "q": 82,
      "r": 83,
      "s": 84,
      "t": 85,
      "u": 86,
      "v": 87,
      "w": 88,
      "x": 89,
      "y": 90,
      "z": 91,
      "{": 92,
      "|": 93,
      "}": 94,
      "~": 95,
      "¡": 96,
      "¢": 97,
      "£": 98,
      "¤": 99,
      "¥": 100,
      "¦": 101,
      "§": 102,
      "¨": 103,
      "©": 104,
      "ª": 105,
      "«": 106,
      "¬": 107,
      "®": 108,
      "¯": 109,
      "°": 110,
      "±": 111,
      "²": 112,
      "³": 113,
      "´": 114,
      "µ": 115,
      "¶": 116,
      "·": 117,
      "¸": 118,
      "¹": 119,
      "º": 120,
      "»": 121,
      "¼": 122,
      "½": 123,
      "¾": 124,
      "¿": 125,
      "Â": 126,
      "Ã": 127,
      "Ä": 128,
      "Å": 129,
      "Æ": 130,
      "Ç": 131,
      "È": 132,
      "É": 133,
      "Ê": 134,
      "Ë": 135,
      "Ì": 136,
      "Í": 137,
      "Î": 138,
      "Ï": 139,
      "Ð": 140,
      "Ñ": 141,
      "Ò": 142,
      "Ó": 143,
      "Ô": 144,
      "Õ": 145,
      "Ö": 146,
      "×": 147,
      "Ø": 148,
      "Ù": 149,
      "Ú": 150,
      "Û": 151,
      "Ü": 152,
      "Ý": 153,
      "Þ": 154,
      "ß": 155,
      "à": 156,
      "á": 157,
      "â": 158,
      "ã": 159,
      "ä": 160,
      "å": 161,
      "æ": 162,
      "ç": 163,
      "è": 164,
      "é": 165,
      "ê": 166,
      "ë": 167,
      "ì": 168,
      "í": 169,
      "î": 170,
      "ï": 171,
      "ð": 172,
      "ó": 173,
      "ĉ": 174,
      "Ċ": 175,
      "Ġ": 176,
      "Ģ": 177,
      "ģ": 178,
      "Ĥ": 179,
      "ĥ": 180,
      "Ħ": 181,
      "ħ": 182,
      "Ĩ": 183,
      "ĩ": 184,
      "Ī": 185,
      "ī": 186,
      "Ĭ": 187,
      "ĭ": 188,
      "Į": 189,
      "į": 190,
      "İ": 191,
      "ı": 192,
      "Ĳ": 193,
      "ĳ": 194,
      "Ĵ": 195,
      "ĵ": 196,
      "Ķ": 197,
      "ķ": 198,
      "ĸ": 199,
      "Ĺ": 200,
      "ĺ": 201,
      "Ļ": 202,
      "ļ": 203,
      "Ľ": 204,
      "ľ": 205,
      "Ŀ": 206,
      "ŀ": 207,
      "Ł": 208,
      "ł": 209,
      "Ń": 210,
      "th": 211,
      "Ä±": 212,
      "âĢ": 213,
      "the": 214,
      "ch": 215,
      "Ġthe": 216,
      "Ã¼": 217,
      "in": 218,
      "ing": 219,
      "ï¼": 220,
      "ÅŁ": 221,
      "nd": 222,
      "and": 223,
      "Th": 224,
      "ä¸": 225,
      "on": 226,
      "en": 227,
      "an": 228,
      "of": 229,
      "ion": 230,
      "tion": 231,
      "ï¼Į": 232,
      "qu": 233,
      "Ġof": 234,
      "ÄŁ": 235,
      "ve": 236,
      "un": 237,
      "ãĢ": 238,
      "ļĦ": 239,
      "Ã¶": 240,
      "çļĦ": 241,
      "Ã§": 242,
      "Ã³": 243,
      "ent": 244,
      "âĢĻ": 245,
      "20": 246,
      "und": 247,
      "Ġand": 248,
      "Ġw": 249,
      "Ġwh": 250,
      "äº": 251,
      "19": 252,
      "ow": 253,
      "con": 254,
      "ation": 255,
      "ÃŃ": 256,
      "Ã¤": 257,
      "Ã¡": 258,
      "ment": 259,
      "ãĢĤ": 260,
      "âĢĿ": 261,
      "âĢľ": 262,
      "or": 263,
      "for": 264,
      "ou": 265,
      "om": 266,
      "com": 267,
      "er": 268,
      "ar": 269,
      "ver": 270,
      "re": 271,
      "al": 272,
      "ther": 273,
      "ur": 274,
      "pr": 275,
      "pro": 276,
      "The": 277,
      "ä»": 278,
      "00": 279,
      "vi": 280,
      "ex": 281,
      "our": 282,
      "Ã©": 283,
      "rom": 284,
      "from": 285,
      "æľ": 286,
      "Ġwi": 287,
      "Ġwith": 288,
      "ic": 289,
      "In": 290,
      "Ã³n": 291,
      "åı": 292,
      "å¤": 293,
      "gh": 294,
      "ough": 295,
      "igh": 296,
      "åħ": 297,
      "ä½": 298,
      "to": 299,
      "Ġto": 300,
      "at": 301,
      "that": 302,
      "st": 303,
      "it": 304,
      "ha": 305,
      "have": 306,
      "ĠS": 307,
      "Ä±n": 308,
      "200": 309,
      "Ġthat": 310,
      "ä¹": 311,
      "ight": 312,
      "âĢĵ": 313,
      "Ä°": 314,
      "è¿": 315,
      "que": 316,
      "ct": 317,
      "all": 318,
      "ol": 319,
      "no": 320,
      "not": 321,
      "ãĢģ": 322,
      "ung": 323,
      "ich": 324,
      "Ġwhich": 325,
      "ir": 326,
      "ra": 327,
      "ive": 328,
      "ro": 329,
      "ction": 330,
      "æĺ": 331,
      "æĺ¯": 332,
      "Ġcon": 333,
      "out": 334,
      "å®": 335,
      "åľ": 336,
      "ally": 337,
      "ĠA": 338,
      "201": 339,
      "ter": 340,
      "iÃ³n": 341,
      "Ġ(": 342,
      "ĠC": 343,
      "ĠM": 344,
      "Ġb": 345,
      "ab": 346,
      "Ġbe": 347,
      "Ġby": 348,
      "about": 349,
      "ĠB": 350,
      "Ġbu": 351,
      "Ġbir": 352,
      "ä¼": 353,
      "Ġfor": 354,
      "other": 355,
      "ä¸Ģ": 356,
      "åľ¨": 357,
      "Ã±": 358,
      "ciÃ³n": 359,
      "ist": 360,
      "iz": 361,
      "åĪ": 362,
      "åĲ": 363,
      "çĶ": 364,
      "ĠP": 365,
      "æĪ": 366,
      "comp": 367,
      "per": 368,
      "Ġpro": 369,
      "ity": 370,
      "il": 371,
      "is": 372,
      "im": 373,
      "this": 374,
      "abl": 375,
      "if": 376,
      "ig": 377,
      "This": 378,
      "ib": 379,
      "âĢĶ": 380,
      "Ġwa": 381,
      "Ġwas": 382,
      "Ġwor": 383,
      "por": 384,
      "port": 385,
      "par": 386,
      "pre": 387,
      "pl": 388,
      "part": 389,
      "18": 390,
      "own": 391,
      "Ã¼r": 392,
      "Un": 393,
      "ber": 394,
      "ical": 395,
      "you": 396,
      "||": 397,
      "Ġtheir": 398,
      "æľī": 399,
      "oul": 400,
      "ould": 401,
      "Ġwould": 402,
      "Ġwer": 403,
      "Ġcont": 404,
      "gra": 405,
      "ign": 406,
      "str": 407,
      "å°": 408,
      "Ġwil": 409,
      "Ġwill": 410,
      "ific": 411,
      "æĸ": 412,
      "form": 413,
      "ant": 414,
      "äºĨ": 415,
      "10": 416,
      "ul": 417,
      "ect": 418,
      "act": 419,
      "ed": 420,
      "de": 421,
      "Ġde": 422,
      "di": 423,
      "id": 424,
      "ad": 425,
      "der": 426,
      "ge": 427,
      "ci": 428,
      "Ġwe": 429,
      "able": 430,
      "ce": 431,
      "ence": 432,
      "end": 433,
      "ond": 434,
      "Ä±nd": 435,
      "äºº": 436,
      "ĠH": 437,
      "tra": 438,
      "ject": 439,
      "åĬ": 440,
      "over": 441,
      "ÃŁ": 442,
      "ä¸į": 443,
      "ç»": 444,
      "ĠG": 445,
      "Ġbut": 446,
      "ult": 447,
      "æĹ": 448,
      "Ġha": 449,
      "ĠF": 450,
      "ance": 451,
      "ated": 452,
      "ĠD": 453,
      "Ġwork": 454,
      "ĠW": 455,
      "åĽ": 456,
      "ide": 457,
      "po": 458,
      "199": 459,
      "lo": 460,
      "ly": 461,
      "rough": 462,
      "through": 463,
      "Ġfrom": 464,
      "è®": 465,
      "å¤§": 466,
      "formation": 467,
      "ven": 468,
      "å¹": 469,
      "Ãº": 470,
      "è¯": 471,
      "die": 472,
      "mber": 473,
      "am": 474,
      "ay": 475,
      "age": 476,
      "ak": 477,
      "as": 478,
      "ck": 479,
      "ik": 480,
      "ous": 481,
      "'s": 482,
      "lik": 483,
      "man": 484,
      "comm": 485,
      "can": 486,
      "your": 487,
      "high": 488,
      "Ġwere": 489,
      "ure": 490,
      "uch": 491,
      "ub": 492,
      "ach": 493,
      "ack": 494,
      "åį": 495,
      "æĿ": 496,
      "um": 497,
      "us": 498,
      "ut": 499,
      "du": 500,
      "Ġprodu": 501,
      "how": 502,
      "gen": 503,
      "ill": 504,
      ").": 505,
      "Ä±nÄ±": 506,
      "000": 507,
      "velo": 508,
      "Ġdevelo": 509,
      "inter": 510,
      "abil": 511,
      "los": 512,
      "though": 513,
      "ĠPro": 514,
      "ate": 515,
      "el": 516,
      "le": 517,
      "la": 518,
      "low": 519,
      "ne": 520,
      "new": 521,
      "now": 522,
      "ple": 523,
      "ative": 524,
      "ible": 525,
      "lar": 526,
      "tw": 527,
      "lich": 528,
      "land": 529,
      "fect": 530,
      "ffect": 531,
      "ĥ½": 532,
      "Ġdevelop": 533,
      "ĠCh": 534,
      "åŃ": 535,
      "ä¸Ń": 536,
      "å¸": 537,
      "æĪĳ": 538,
      "å¼": 539,
      "æī": 540,
      "pres": 541,
      "present": 542,
      "es": 543,
      "ies": 544,
      "are": 545,
      "Ġare": 546,
      "est": 547,
      "ces": 548,
      "ome": 549,
      "cond": 550,
      "stru": 551,
      "up": 552,
      "ust": 553,
      "just": 554,
      "iff": 555,
      "diff": 556,
      "ud": 557,
      "stud": 558,
      "Ä±ÅŁ": 559,
      "sion": 560,
      "å¾": 561,
      "some": 562,
      "éĢ": 563,
      "éĩ": 564,
      "may": 565,
      "mak": 566,
      "mo": 567,
      "most": 568,
      "tr": 569,
      "struct": 570,
      "å·": 571,
      "Ġque": 572,
      "Ġex": 573,
      "Ã¼n": 574,
      "las": 575,
      "aciÃ³n": 576,
      "ĠE": 577,
      "Ġf": 578,
      "uf": 579,
      "ĠfÃ¼r": 580,
      "Ġhave": 581,
      "ĠThe": 582,
      "Ġnot": 583,
      "ĠR": 584,
      "ĠJ": 585,
      "Ġla": 586,
      "ĠK": 587,
      "ĠT": 588,
      "Ġin": 589,
      "ĠI": 590,
      "Ġre": 591,
      "cre": 592,
      "ĠL": 593,
      "Ġcan": 594,
      "Ġinto": 595,
      "Ġthis": 596,
      "Ġm": 597,
      "em": 598,
      "Ġmor": 599,
      "Ġmore": 600,
      "ĠN": 601,
      "Ġdie": 602,
      "Ġh": 603,
      "ph": 604,
      "ish": 605,
      "Ġc": 606,
      "ac": 607,
      "Ġhis": 608,
      "Ġis": 609,
      "dis": 610,
      "Ġhe": 611,
      "Ġyou": 612,
      "gram": 613,
      "Ġprogram": 614,
      "hould": 615,
      "Ġcould": 616,
      "hr": 617,
      "stem": 618,
      "ystem": 619,
      "ap": 620,
      "aus": 621,
      "ĠIn": 622,
      "para": 623,
      "Ġfir": 624,
      "Ġfirst": 625,
      "Ġdis": 626,
      "å¥": 627,
      "ition": 628,
      "cial": 629,
      "åĽ½": 630,
      "ä¿": 631,
      "Ġbetw": 632,
      "gr": 633,
      "grou": 634,
      "Ä±r": 635,
      "graph": 636,
      "student": 637,
      "iÅŁ": 638,
      "import": 639,
      "important": 640,
      "tim": 641,
      "gre": 642,
      "pos": 643,
      "å¹´": 644,
      "Ġprovi": 645,
      "Ġco": 646,
      "Ġcoun": 647,
      "Ġcountr": 648,
      "ĴĮ": 649,
      "åĴĮ": 650,
      "pe": 651,
      "qui": 652,
      "auf": 653,
      "ew": 654,
      "ĠNew": 655,
      "Ġcomp": 656,
      "aÅŁ": 657,
      "ä¸Ĭ": 658,
      "differ": 659,
      "different": 660,
      "è¡": 661,
      "èĢ": 662,
      "ople": 663,
      "people": 664,
      "ample": 665,
      "od": 666,
      "ood": 667,
      "Ġd": 668,
      "ard": 669,
      "ind": 670,
      "ild": 671,
      "child": 672,
      "Ġdo": 673,
      "Ġhad": 674,
      "ado": 675,
      "Ġwho": 676,
      "ound": 677,
      "Ġund": 678,
      "ob": 679,
      "Ġwhen": 680,
      "Ġwhat": 681,
      "Ġdur": 682,
      "Ġpr": 683,
      "two": 684,
      "Ġexample": 685,
      "Ġfound": 686,
      "ubl": 687,
      "publ": 688,
      "appro": 689,
      "view": 690,
      "Ġproces": 691,
      "Ġprob": 692,
      "Ġproble": 693,
      "èµ": 694,
      "public": 695,
      "ved": 696,
      "ution": 697,
      "dition": 698,
      "15": 699,
      "Ġno": 700,
      "icht": 701,
      "ident": 702,
      "Ġhas": 703,
      "ĠWh": 704,
      "than": 705,
      "ange": 706,
      "change": 707,
      "ell": 708,
      "ular": 709,
      "arch": 710,
      "ature": 711,
      "ater": 712,
      "Ġwater": 713,
      "åĩ": 714,
      "Ġproblem": 715,
      "Ġcol": 716,
      "ade": 717,
      "ain": 718,
      "åº": 719,
      "åĨ": 720,
      "å¯": 721,
      "stand": 722,
      "ä¾": 723,
      "ast": 724,
      "Ġprof": 725,
      "ĠV": 726,
      "çĽ": 727,
      "ä»¥": 728,
      "è§": 729,
      "time": 730,
      "ability": 731,
      "Ġinformation": 732,
      "Ġme": 733,
      "ine": 734,
      "earch": 735,
      "Ġhab": 736,
      "åĪ°": 737,
      "30": 738,
      "Ġform": 739,
      "åĮ": 740,
      "ĠSt": 741,
      "ĠEn": 742,
      "like": 743,
      "tran": 744,
      "vol": 745,
      "iv": 746,
      "12": 747,
      "iver": 748,
      "Univer": 749,
      "ever": 750,
      "et": 751,
      "ient": 752,
      "vent": 753,
      "æĿ¥": 754,
      "è¿Ļ": 755,
      "17": 756,
      "Ġmuch": 757,
      "peci": 758,
      "ä¸ª": 759,
      "Ġunder": 760,
      "æĹ¶": 761,
      "ong": 762,
      "only": 763,
      "ĠAn": 764,
      "ĠState": 765,
      "ace": 766,
      "æĬ": 767,
      "ag": 768,
      "åĩº": 769,
      "ä¸º": 770,
      "Ġexper": 771,
      "Ġprovide": 772,
      "fter": 773,
      "ä¼ļ": 774,
      "Ä±ÄŁ": 775,
      "çī": 776,
      "caus": 777,
      "Ġbecaus": 778,
      "Ġcaus": 779,
      "condition": 780,
      "50": 781,
      "creas": 782,
      "Ġincreas": 783,
      "ities": 784,
      "rect": 785,
      "direct": 786,
      "âĢ¦": 787,
      "partic": 788,
      "particular": 789,
      "upport": 790,
      "Ġway": 791,
      "ĠCom": 792,
      "å¿": 793,
      "è¡Į": 794,
      "zu": 795,
      "rib": 796,
      "16": 797,
      "ollow": 798,
      "Ġfollow": 799,
      "olo": 800,
      "olog": 801,
      "umber": 802,
      "number": 803,
      "nicht": 804,
      "çĶŁ": 805,
      "çĶ¨": 806,
      "ĠO": 807,
      "again": 808,
      "ï¼ļ": 809,
      "place": 810,
      "plant": 811,
      "round": 812,
      "¦ģ": 813,
      "è¦ģ": 814,
      "sign": 815,
      "âĢĺ": 816,
      "cient": 817,
      "å½": 818,
      "å±": 819,
      "cience": 820,
      "illion": 821,
      "group": 822,
      "larÄ±": 823,
      "Ä±k": 824,
      "Ä±l": 825,
      "è´": 826,
      "Ġexpl": 827,
      "ip": 828,
      "hip": 829,
      "cent": 830,
      "Ġunderstand": 831,
      "acc": 832,
      "ĠRe": 833,
      "Ġper": 834,
      "Ã¼ber": 835,
      "Ġdas": 836,
      "Ä±ÄŁÄ±": 837,
      "grow": 838,
      "pect": 839,
      "elect": 840,
      "You": 841,
      "æķ": 842,
      "Ġbuild": 843,
      "large": 844,
      "commun": 845,
      "way": 846,
      "conom": 847,
      "ÃŃa": 848,
      "èĥ½": 849,
      "Ġpo": 850,
      "quire": 851,
      "Ġrequire": 852,
      "æŃ": 853,
      "Ġher": 854,
      "Ġhel": 855,
      "Ġhelp": 856,
      "right": 857,
      "éĿ": 858,
      "éĹ": 859,
      "éĻ": 860,
      "æĶ": 861,
      "Ġwir": 862,
      "childr": 863,
      "children": 864,
      "ational": 865,
      "idad": 866,
      "ĠmÃ¡": 867,
      "after": 868,
      "larÄ±n": 869,
      "åľ°": 870,
      "Ã¶n": 871,
      "Ã¶r": 872,
      "ĠInd": 873,
      "know": 874,
      "æĪĲ": 875,
      "many": 876,
      "ology": 877,
      "ological": 878,
      "Ġbo": 879,
      "ok": 880,
      "Ġbetwe": 881,
      "Ġbetween": 882,
      "èĩ": 883,
      "èĩª": 884,
      "ĠIt": 885,
      "look": 886,
      "Ġbook": 887,
      "Ġboth": 888,
      "å®¶": 889,
      "ord": 890,
      "__": 891,
      "long": 892,
      "åı¯": 893,
      "isch": 894,
      "sch": 895,
      "ĠSch": 896,
      "system": 897,
      "iÃ§": 898,
      "iÃ§in": 899,
      "å°±": 900,
      "å¯¹": 901,
      "Ġpercent": 902,
      "Ġsome": 903,
      "Ġlos": 904,
      "rit": 905,
      "Ġwrit": 906,
      "Ä±nda": 907,
      "Ġden": 908,
      "Ġday": 909,
      "Ġyour": 910,
      "),": 911,
      "uman": 912,
      "Ġhuman": 913,
      "æĢ": 914,
      "Ãľ": 915,
      "çľ": 916,
      "ä½ľ": 917,
      "ç§": 918,
      "ten": 919,
      "tak": 920,
      "Ġbeen": 921,
      "Ġmade": 922,
      "Ä±m": 923,
      "ĠAm": 924,
      "ĠAmer": 925,
      "ĠAmeric": 926,
      "ĠAmerican": 927,
      "ĠAl": 928,
      "ler": 929,
      "Ġdel": 930,
      "Ġwel": 931,
      "Ġwell": 932,
      "lu": 933,
      "lude": 934,
      "clude": 935,
      "Ġworl": 936,
      "Ġworld": 937,
      "old": 938,
      "Ä±z": 939,
      "Ġduring": 940,
      "Wh": 941,
      "study": 942,
      "ulation": 943,
      "ful": 944,
      "Ġinclude": 945,
      "14": 946,
      "Ġbefor": 947,
      "gener": 948,
      "Ã¼z": 949,
      "trans": 950,
      "pol": 951,
      "Ġwerd": 952,
      "æł": 953,
      "ĠCon": 954,
      "one": 955,
      "ission": 956,
      "Ãĸ": 957,
      "å¤ļ": 958,
      "Ġproduct": 959,
      "acion": 960,
      "state": 961,
      "ä»ĸ": 962,
      "such": 963,
      "çİ": 964,
      "åİ": 965,
      "åĳ": 966,
      "von": 967,
      "av": 968,
      "var": 969,
      "vari": 970,
      "val": 971,
      "Ġabout": 972,
      "Ġun": 973,
      "Ġother": 974,
      "åĵ": 975,
      "pecial": 976,
      "fic": 977,
      "fer": 978,
      "Ġcent": 979,
      "ĠAr": 980,
      "Ġback": 981,
      "Åŀ": 982,
      "signific": 983,
      "Ġproject": 984,
      "tain": 985,
      "art": 986,
      "te": 987,
      "Ġwar": 988,
      "Ġdist": 989,
      "light": 990,
      "lif": 991,
      "li": 992,
      "lud": 993,
      "clud": 994,
      "Ġinclud": 995,
      "Ġwher": 996,
      "Ġwhere": 997,
      "valu": 998,
      "play": 999,
      "op": 1000,
      "os": 1001,
      "oci": 1002,
      "Ġres": 1003,
      "Ġresearch": 1004,
      "Ġresult": 1005,
      "Ġreport": 1006,
      "198": 1007,
      "åıĳ": 1008,
      "divi": 1009,
      "dividu": 1010,
      "vir": 1011,
      "viron": 1012,
      "vironment": 1013,
      "Ġexperi": 1014,
      "âĢŀ": 1015,
      "Ġbecause": 1016,
      "11": 1017,
      "13": 1018,
      "Ġfind": 1019,
      "overn": 1020,
      "overnment": 1021,
      "national": 1022,
      "ĠNational": 1023,
      "Ġdevelopment": 1024,
      "lood": 1025,
      "ial": 1026,
      "aterial": 1027,
      "term": 1028,
      "ĠInter": 1029,
      "æĸ°": 1030,
      "æĸ¹": 1031,
      "æ°": 1032,
      "tech": 1033,
      "techn": 1034,
      "Ġmaterial": 1035,
      "Ġdisc": 1036,
      "oc": 1037,
      "Ãĩ": 1038,
      "è½": 1039,
      "å¥½": 1040,
      "Ġword": 1041,
      "Ġinter": 1042,
      "inde": 1043,
      "az": 1044,
      "Ġa": 1045,
      "Ġuna": 1046,
      "Ġda": 1047,
      "aj": 1048,
      "ia": 1049,
      "ah": 1050,
      "Ġauch": 1051,
      "Ġpre": 1052,
      "Ġpara": 1053,
      "Ġthan": 1054,
      "Ġmay": 1055,
      "Ġder": 1056,
      "Ġcom": 1057,
      "Ġbecom": 1058,
      "Ġne": 1059,
      "Ġneed": 1060,
      "Ġneces": 1061,
      "Ġmo": 1062,
      "Ġmode": 1063,
      "Ã§Ä±k": 1064,
      "æµ": 1065,
      "life": 1066,
      "å°ı": 1067,
      "used": 1068,
      "should": 1069,
      "occ": 1070,
      "Ġrec": 1071,
      "Ġrecord": 1072,
      "uc": 1073,
      "ually": 1074,
      "Qu": 1075,
      "ically": 1076,
      "æĹ¥": 1077,
      "ä¸ļ": 1078,
      "ä¸ĭ": 1079,
      "ick": 1080,
      "Ġdown": 1081,
      "government": 1082,
      "ang": 1083,
      "ources": 1084,
      "çº": 1085,
      "åŃ¦": 1086,
      "åŃĲ": 1087,
      "æ²": 1088,
      "æĥ": 1089,
      "æ³": 1090,
      "æİ": 1091,
      "Ġdesign": 1092,
      "ä¹Ł": 1093,
      "Ġhist": 1094,
      "Ġhistor": 1095,
      "éģ": 1096,
      "ot": 1097,
      "loc": 1098,
      "ĠU": 1099,
      "publish": 1100,
      "Ġfood": 1101,
      "aÄŁ": 1102,
      "ail": 1103,
      "avail": 1104,
      "available": 1105,
      "ile": 1106,
      "Ġwhile": 1107,
      "af": 1108,
      "å·¥": 1109,
      "ĠFor": 1110,
      "position": 1111,
      "ĠbaÅŁ": 1112,
      "Ġcall": 1113,
      "line": 1114,
      "Ġresp": 1115,
      "ivi": 1116,
      "activi": 1117,
      "Ġfact": 1118,
      "Ġwom": 1119,
      "Ġreg": 1120,
      "Ġregion": 1121,
      "rol": 1122,
      "Ġcontrol": 1123,
      "vel": 1124,
      "level": 1125,
      "åī": 1126,
      "thos": 1127,
      "those": 1128,
      "outh": 1129,
      "thing": 1130,
      "Ã§ok": 1131,
      "ada": 1132,
      "æŀ": 1133,
      "æ¯": 1134,
      "Ġindividu": 1135,
      "order": 1136,
      "Ġver": 1137,
      "allow": 1138,
      "ower": 1139,
      "power": 1140,
      "ĠHow": 1141,
      "ĠHowever": 1142,
      "Ġcomo": 1143,
      "oun": 1144,
      "ount": 1145,
      "get": 1146,
      "å¦": 1147,
      "ric": 1148,
      "good": 1149,
      "appe": 1150,
      "Ġcap": 1151,
      "Ther": 1152,
      "appl": 1153,
      "plan": 1154,
      "ĠVer": 1155,
      "Ġincluding": 1156,
      "ocial": 1157,
      "ablish": 1158,
      "times": 1159,
      "ext": 1160,
      "ris": 1161,
      "ian": 1162,
      "object": 1163,
      "ç½": 1164,
      "Ġwerden": 1165,
      "Ġpract": 1166,
      "technology": 1167,
      "structure": 1168,
      "ie": 1169,
      "ĠSie": 1170,
      "effect": 1171,
      "Ġmit": 1172,
      "ĠAnd": 1173,
      "ek": 1174,
      "ein": 1175,
      "Ġein": 1176,
      "Ġk": 1177,
      "ark": 1178,
      "ink": 1179,
      "risk": 1180,
      "ary": 1181,
      "There": 1182,
      "Ġ19": 1183,
      "ĠâĢľ": 1184,
      "Ġcontain": 1185,
      "çİ°": 1186,
      "iel": 1187,
      "ield": 1188,
      "piel": 1189,
      "struction": 1190,
      "alth": 1191,
      "Ġhealth": 1192,
      "think": 1193,
      "åĪĨ": 1194,
      "ER": 1195,
      "100": 1196,
      "éĿ¢": 1197,
      "éĥ½": 1198,
      "é¢": 1199,
      "çĲ": 1200,
      "çĲĨ": 1201,
      "ä»¬": 1202,
      "Ġcalled": 1203,
      "çŃ": 1204,
      "amil": 1205,
      "Ġfamil": 1206,
      "ame": 1207,
      "ier": 1208,
      "ear": 1209,
      "year": 1210,
      "Ġyear": 1211,
      "early": 1212,
      "appear": 1213,
      "Ġprim": 1214,
      "Ġblood": 1215,
      "åīį": 1216,
      "ism": 1217,
      "Ġdr": 1218,
      "Ã¶ne": 1219,
      "Ã¶z": 1220,
      "Ġmust": 1221,
      "ucces": 1222,
      "Ġpeople": 1223,
      "Ġrespon": 1224,
      "åħ¬": 1225,
      "thre": 1226,
      "tre": 1227,
      "ire": 1228,
      "treat": 1229,
      "treatment": 1230,
      "ath": 1231,
      "establish": 1232,
      "ĠEx": 1233,
      "ix": 1234,
      "particip": 1235,
      "Ġmember": 1236,
      "volution": 1237,
      "Ġbefore": 1238,
      "ç½ĳ": 1239,
      "cia": 1240,
      "åĢ": 1241,
      "å¼Ģ": 1242,
      "Ġtra": 1243,
      "å¿ĥ": 1244,
      "occur": 1245,
      "Ġperform": 1246,
      "å¤©": 1247,
      "æ¬": 1248,
      "ug": 1249,
      "Ġg": 1250,
      "Ġp": 1251,
      "Ġs": 1252,
      "Ġse": 1253,
      "Ġsh": 1254,
      "Ġsub": 1255,
      "Ġas": 1256,
      "ations": 1257,
      "Ġel": 1258,
      "Ġ\"": 1259,
      "Ġyears": 1260,
      "Ġbas": 1261,
      "Ġcons": 1262,
      "Ġconsid": 1263,
      "Ġconsider": 1264,
      "cep": 1265,
      "Ġnew": 1266,
      "Ġsich": 1267,
      "Ġpop": 1268,
      "Ġpopulation": 1269,
      "Ġspe": 1270,
      "pend": 1271,
      "Ġtime": 1272,
      "Ġve": 1273,
      "ĠY": 1274,
      "Ġdi": 1275,
      "Ġpor": 1276,
      "Ġon": 1277,
      "Ġout": 1278,
      "Ġone": 1279,
      "Ġsuch": 1280,
      "Ġall": 1281,
      "Ġ200": 1282,
      "Ġpart": 1283,
      "Ġhigh": 1284,
      "Ġsecond": 1285,
      "Ġzu": 1286,
      "Ġwithout": 1287,
      "Ġmost": 1288,
      "cept": 1289,
      "Ġan": 1290,
      "gan": 1291,
      "organ": 1292,
      "Ġanother": 1293,
      "organiz": 1294,
      "ĠUn": 1295,
      "Ġonly": 1296,
      "ĠZ": 1297,
      "Ġvon": 1298,
      "Ġtwo": 1299,
      "Ġlas": 1300,
      "Ġclas": 1301,
      "Ġn": 1302,
      "Ġit": 1303,
      "Ġst": 1304,
      "Ġits": 1305,
      "Ġ2": 1306,
      "Ġge": 1307,
      "Ġpol": 1308,
      "Ġman": 1309,
      "Ġthrough": 1310,
      "Ġj": 1311,
      "Ġtak": 1312,
      "ĠThis": 1313,
      "Ġlike": 1314,
      "Ġmany": 1315,
      "Ġle": 1316,
      "Ġlead": 1317,
      "Ġvi": 1318,
      "Ġat": 1319,
      "Ġus": 1320,
      "Ġuse": 1321,
      "Ġt": 1322,
      "Ġch": 1323,
      "Ġim": 1324,
      "Ġup": 1325,
      "Ġl": 1326,
      "Ġal": 1327,
      "Ġals": 1328,
      "Ġalso": 1329,
      "Ġy": 1330,
      "Ġyap": 1331,
      "Ġor": 1332,
      "Ġtr": 1333,
      "Ġlo": 1334,
      "Ġover": 1335,
      "Ġmak": 1336,
      "Ġad": 1337,
      "Ġused": 1338,
      "Ġen": 1339,
      "Ġenvironment": 1340,
      "Ġ201": 1341,
      "Ġauf": 1342,
      "Ġhow": 1343,
      "Ġshow": 1344,
      "Ġtrans": 1345,
      "Ġsystem": 1346,
      "Ġcomm": 1347,
      "Ġv": 1348,
      "Ġest": 1349,
      "Ġcre": 1350,
      "Ġac": 1351,
      "Ġ18": 1352,
      "ĠTh": 1353,
      "Ġsch": 1354,
      "Ġshould": 1355,
      "Ġaddition": 1356,
      "Ġgener": 1357,
      "Ġany": 1358,
      "Ġab": 1359,
      "Ġtest": 1360,
      "Ġimpro": 1361,
      "Ġop": 1362,
      "Ġafter": 1363,
      "ĠâĢĵ": 1364,
      "Ġtem": 1365,
      "Ġstate": 1366,
      "Ġol": 1367,
      "Ġoldu": 1368,
      "ĠiÃ§in": 1369,
      "Ġob": 1370,
      "Ġ3": 1371,
      "Ġthre": 1372,
      "ĠmÃ¡s": 1373,
      "Ġadd": 1374,
      "Ġsupport": 1375,
      "Ġnicht": 1376,
      "Ġthose": 1377,
      "Ġvari": 1378,
      "against": 1379,
      "Ġstudent": 1380,
      "Ġacc": 1381,
      "imate": 1382,
      "Ġacces": 1383,
      "Ġpers": 1384,
      "Ġperson": 1385,
      "nown": 1386,
      "Ġknown": 1387,
      "Ġstill": 1388,
      "ĠolduÄŁ": 1389,
      "Ġmake": 1390,
      "Ġrel": 1391,
      "ll": 1392,
      "cell": 1393,
      "ull": 1394,
      "Ä±ndan": 1395,
      "Ġinterest": 1396,
      "Ġnumber": 1397,
      "Ġ1": 1398,
      "Ġknow": 1399,
      "Ġloc": 1400,
      "Ġeffect": 1401,
      "Ġsay": 1402,
      "Ġscho": 1403,
      "Ġschool": 1404,
      "Ġsubject": 1405,
      "Ġstart": 1406,
      "Ġredu": 1407,
      "Ġvery": 1408,
      "iy": 1409,
      "Ġlong": 1410,
      "Ġjust": 1411,
      "Ġtradition": 1412,
      "ĠUnit": 1413,
      "ĠUnited": 1414,
      "ran": 1415,
      "Ġcas": 1416,
      "çŃī": 1417,
      "Ġqu": 1418,
      "æ³ķ": 1419,
      "ĠestÃ¡": 1420,
      "standard": 1421,
      "Ġsame": 1422,
      "Ġusually": 1423,
      "Ġsol": 1424,
      "æĦ": 1425,
      "Ġplan": 1426,
      "Ġpar": 1427,
      "Ġcontin": 1428,
      "Ġcontinu": 1429,
      "Univers": 1430,
      "University": 1431,
      "ĠEng": 1432,
      "vice": 1433,
      "ating": 1434,
      "Ġget": 1435,
      "Ġdifferent": 1436,
      "Ġr": 1437,
      "Ġz": 1438,
      "Ġimportant": 1439,
      "Ġte": 1440,
      "Ġteach": 1441,
      "Ġph": 1442,
      "Ġgr": 1443,
      "Ġchildren": 1444,
      "Ġif": 1445,
      "Ġgre": 1446,
      "Ġgreat": 1447,
      "Ġlarge": 1448,
      "Ġpres": 1449,
      "Ġ199": 1450,
      "Ġ20": 1451,
      "ator": 1452,
      "Ġes": 1453,
      "pecies": 1454,
      "pecially": 1455,
      "Ġ4": 1456,
      "Ġra": 1457,
      "Ġe": 1458,
      "Ġeven": 1459,
      "Ġeine": 1460,
      "Ġeach": 1461,
      "Ġeconom": 1462,
      "Ġevent": 1463,
      "Ġem": 1464,
      "Ġgra": 1465,
      "Ġpos": 1466,
      "Ġstudy": 1467,
      "Ġcommun": 1468,
      "Ġchange": 1469,
      "Ġlife": 1470,
      "Ġgroup": 1471,
      "vention": 1472,
      "Ġaus": 1473,
      "Ġam": 1474,
      "Ġamong": 1475,
      "Ġamount": 1476,
      "Ġ10": 1477,
      "Ġstr": 1478,
      "dustr": 1479,
      "Ġpl": 1480,
      "ĠÃ§": 1481,
      "Ġart": 1482,
      "Ġpower": 1483,
      "Ġlevel": 1484,
      "Ġappro": 1485,
      "è¿ĩ": 1486,
      "Ġmean": 1487,
      "å¾Ĺ": 1488,
      "Ġright": 1489,
      "lie": 1490,
      "Ġbelie": 1491,
      "schaf": 1492,
      "every": 1493,
      "Ġevery": 1494,
      "Ġhowever": 1495,
      "Ġsever": 1496,
      "Ġexperience": 1497,
      "ference": 1498,
      "Ġaccount": 1499,
      "Ġaccord": 1500,
      "Ġcar": 1501,
      "Ġindividual": 1502,
      "Ġpat": 1503,
      "Ġpatient": 1504,
      "Ġpas": 1505,
      "asÄ±": 1506,
      "crib": 1507,
      "Ġspec": 1508,
      "Ġspecific": 1509,
      "ual": 1510,
      "Ġsu": 1511,
      "Ġso": 1512,
      "Ġsocial": 1513,
      "Ġour": 1514,
      "æľ¬": 1515,
      "ç«": 1516,
      "åĲİ": 1517,
      "æĭ": 1518,
      "çľĭ": 1519,
      "æ¸": 1520,
      "«ĺ": 1521,
      "é«ĺ": 1522,
      "ann": 1523,
      "urn": 1524,
      "significant": 1525,
      "Ġplant": 1526,
      "ĠgÃ¶": 1527,
      "æĮ": 1528,
      "Ġhim": 1529,
      "Ġhand": 1530,
      "educ": 1531,
      "around": 1532,
      "ä½ł": 1533,
      "éĺ": 1534,
      "Ġdiscover": 1535,
      "Ġdid": 1536,
      "Ġpublic": 1537,
      "Ġgood": 1538,
      "äºİ": 1539,
      "å¸Ĥ": 1540,
      "å¦Ĥ": 1541,
      "lam": 1542,
      "elf": 1543,
      "atur": 1544,
      "Ġnatur": 1545,
      "Ġprom": 1546,
      "Ġmillion": 1547,
      "Ġfre": 1548,
      "ĠPre": 1549,
      "mall": 1550,
      "Ġsmall": 1551,
      "Ã¼k": 1552,
      "Ġmove": 1553,
      "Ã¼ÅŁ": 1554,
      "Ġlive": 1555,
      "Ġmain": 1556,
      "aid": 1557,
      "Ġsaid": 1558,
      "ä¹ĭ": 1559,
      "Ġtemper": 1560,
      "Ġtemperature": 1561,
      "åĵģ": 1562,
      "èĢĮ": 1563,
      "ulture": 1564,
      "Ġlang": 1565,
      "Ġnatural": 1566,
      "éĽ": 1567,
      "Ġspecies": 1568,
      "åĬ¨": 1569,
      "åĬĽ": 1570,
      "åħ¨": 1571,
      "Ġprevent": 1572,
      "Ġent": 1573,
      "Ġact": 1574,
      "Ġnow": 1575,
      "Ġcommunity": 1576,
      "Ġread": 1577,
      "Ġrepresent": 1578,
      "Ġpresent": 1579,
      "è¾": 1580,
      "Ġist": 1581,
      "Ġtre": 1582,
      "ĠUniversity": 1583,
      "Ġactivi": 1584,
      "ential": 1585,
      "Ġwant": 1586,
      "Ġmark": 1587,
      "60": 1588,
      "vices": 1589,
      "Ġlook": 1590,
      "Ġdat": 1591,
      "Ġdata": 1592,
      "åŁ": 1593,
      "è¿Ľ": 1594,
      "Ġcentur": 1595,
      "éģĵ": 1596,
      "æĻ": 1597,
      "encia": 1598,
      "thod": 1599,
      "Ġmethod": 1600,
      "Ġbod": 1601,
      "Ġbody": 1602,
      "Ġthree": 1603,
      "iven": 1604,
      "Ġgiven": 1605,
      "Ġmoder": 1606,
      "oder": 1607,
      "ource": 1608,
      "difference": 1609,
      "æĥħ": 1610,
      "èĢħ": 1611,
      "Ġcour": 1612,
      "ĠÄ°": 1613,
      "Ġgrow": 1614,
      "Ġcomple": 1615,
      "Ġsur": 1616,
      "Ġlater": 1617,
      "Ġcl": 1618,
      "Ġcare": 1619,
      "Ġclos": 1620,
      "Ġcor": 1621,
      "çĶµ": 1622,
      "Ġthere": 1623,
      "Ġproduc": 1624,
      "Ġusing": 1625,
      "ving": 1626,
      "æĽ": 1627,
      "Ġclimate": 1628,
      "ĠDe": 1629,
      "ĠDie": 1630,
      "æ±": 1631,
      "Ġdaha": 1632,
      "ward": 1633,
      "Ġgovernment": 1634,
      "Ġcell": 1635,
      "Ġwomen": 1636,
      "Ġcontrib": 1637,
      "Ġhome": 1638,
      "æ´": 1639,
      "Ġespecially": 1640,
      "æĢ§": 1641,
      "Ġappl": 1642,
      "Ġsuper": 1643,
      "Ġname": 1644,
      "Ġcur": 1645,
      "Ġcurr": 1646,
      "Ġcurrent": 1647,
      "ope": 1648,
      "urope": 1649,
      "ĠEurope": 1650,
      "ook": 1651,
      "ffic": 1652,
      "Ġproper": 1653,
      "oper": 1654,
      "vid": 1655,
      "vidence": 1656,
      "Ġeduc": 1657,
      "Ġdu": 1658,
      "uz": 1659,
      "identif": 1660,
      "ĠÃ¼ber": 1661,
      "Ġoder": 1662,
      "cientist": 1663,
      "Ġresources": 1664,
      "åĲĮ": 1665,
      "Ġelect": 1666,
      "Ġ5": 1667,
      "ĠkÃ¶n": 1668,
      "ĠkÃ¶nn": 1669,
      "ç»ı": 1670,
      "Ġdoes": 1671,
      "Ġlocal": 1672,
      "Ġdirect": 1673,
      "Ġprocess": 1674,
      "pression": 1675,
      "Ġaround": 1676,
      "ĠÅŁ": 1677,
      "Ġwird": 1678,
      "Ġcommon": 1679,
      "Ġfew": 1680,
      "Ġcountries": 1681,
      "è¯´": 1682,
      "Ġseveral": 1683,
      "Ġcontra": 1684,
      "unction": 1685,
      "Ġfunction": 1686,
      "ando": 1687,
      "åģ": 1688,
      "Ġstrong": 1689,
      "æľĢ": 1690,
      "Ġgen": 1691,
      "ww": 1692,
      "Ġprofes": 1693,
      "ç¾": 1694,
      "ç¾İ": 1695,
      "çĤ": 1696,
      "io": 1697,
      "æīĢ": 1698,
      "leri": 1699,
      "åĬł": 1700,
      "åĮĸ": 1701,
      "æĸĩ": 1702,
      "cientific": 1703,
      "Ġ15": 1704,
      "çĤ¹": 1705,
      "ious": 1706,
      "Ġequi": 1707,
      "Ġactivit": 1708,
      "oh": 1709,
      "ohn": 1710,
      "ĠJohn": 1711,
      "ost": 1712,
      "Ġmodel": 1713,
      "lect": 1714,
      "ĠHe": 1715,
      "ĠHealth": 1716,
      "Ġexist": 1717,
      "ä½ĵ": 1718,
      "Ġrisk": 1719,
      "ustr": 1720,
      "Ġlangu": 1721,
      "Ġlanguage": 1722,
      "Ä±nÄ±n": 1723,
      "Ġsim": 1724,
      "pace": 1725,
      "Ġcam": 1726,
      "Ġown": 1727,
      "Ġ&": 1728,
      "ith": 1729,
      "Ġlab": 1730,
      "uÅŁ": 1731,
      "Ġnor": 1732,
      "Ġnach": 1733,
      "Ġapproach": 1734,
      "Ġgib": 1735,
      "Ġgo": 1736,
      "æľº": 1737,
      "ajor": 1738,
      "Ġmajor": 1739,
      "Ġalong": 1740,
      "ugge": 1741,
      "Ġro": 1742,
      "ines": 1743,
      "ince": 1744,
      "Ġstor": 1745,
      "Ġchild": 1746,
      "tern": 1747,
      "Ġturn": 1748,
      "sible": 1749,
      "Ġpossible": 1750,
      "Ġdrug": 1751,
      "ĠgÃ¶r": 1752,
      "arak": 1753,
      "Ġolarak": 1754,
      "Ġchar": 1755,
      "Ġcharact": 1756,
      "ĠComm": 1757,
      "lerin": 1758,
      "Ġpoin": 1759,
      "Ġpoint": 1760,
      "Ġpopular": 1761,
      "Ġmight": 1762,
      "uggest": 1763,
      "èĤ": 1764,
      "éĤ": 1765,
      "aciones": 1766,
      "ĠGod": 1767,
      "Ġprote": 1768,
      "partment": 1769,
      "Ġpractic": 1770,
      "uest": 1771,
      "Ġnuest": 1772,
      "Ġconf": 1773,
      "ĠIf": 1774,
      "âĢ¢": 1775,
      "Ġproduction": 1776,
      "å®ŀ": 1777,
      "å®ļ": 1778,
      "è¿ĺ": 1779,
      "Ġlink": 1780,
      "æĽ´": 1781,
      "Ġlear": 1782,
      "Ġlearn": 1783,
      "ido": 1784,
      "ociet": 1785,
      "Ġeducation": 1786,
      "æı": 1787,
      "æıĲ": 1788,
      "Ġadv": 1789,
      "ĠOr": 1790,
      "Ġradi": 1791,
      "Ġlit": 1792,
      "Ġprin": 1793,
      "Ġprinci": 1794,
      "duc": 1795,
      "åı¯ä»¥": 1796,
      "Ġoper": 1797,
      "ĠOn": 1798,
      "Ġdiscus": 1799,
      "Ġkann": 1800,
      "Ġkull": 1801,
      "Ġkullan": 1802,
      "åľº": 1803,
      "Ġcondition": 1804,
      "iyor": 1805,
      "Ġfield": 1806,
      "eit": 1807,
      "ite": 1808,
      "stit": 1809,
      "stitution": 1810,
      "stitut": 1811,
      "åĲĪ": 1812,
      "å¾Ī": 1813,
      "red": 1814,
      "Ġallow": 1815,
      "Ġthink": 1816,
      "Ġlist": 1817,
      "Ġlim": 1818,
      "Ġlimit": 1819,
      "Ġlib": 1820,
      "å¥³": 1821,
      "Ġdurch": 1822,
      "Ġvarious": 1823,
      "ĠBut": 1824,
      "Ġimm": 1825,
      "Ġpolit": 1826,
      "Ġpolitical": 1827,
      "udie": 1828,
      "Ġstudie": 1829,
      "udi": 1830,
      "uth": 1831,
      "uthor": 1832,
      "Ġauthor": 1833,
      "Ġth": 1834,
      "ue": 1835,
      "ork": 1836,
      "ĠYork": 1837,
      "twork": 1838,
      "Ġevidence": 1839,
      "Ġdistrib": 1840,
      "Ġsimple": 1841,
      "ĠUS": 1842,
      "Ġpe": 1843,
      "Ġ[": 1844,
      "ĠÂ": 1845,
      "Ġlow": 1846,
      "Ġsomething": 1847,
      "Ġcomplete": 1848,
      "Ġindustr": 1849,
      "ä¸»": 1850,
      "Ġcountry": 1851,
      "lÄ±": 1852,
      "//": 1853,
      "://": 1854,
      "ultur": 1855,
      "æľĪ": 1856,
      "Ġearly": 1857,
      "Ġagainst": 1858,
      "Ġplace": 1859,
      "åº¦": 1860,
      "ern": 1861,
      "Ġprovid": 1862,
      "Ġrecent": 1863,
      "ality": 1864,
      "ahr": 1865,
      "ax": 1866,
      "Ġparticular": 1867,
      "Ġexplain": 1868,
      "Ġstudents": 1869,
      "Ġtechn": 1870,
      "Ġ17": 1871,
      "Ġhat": 1872,
      "Ġpattern": 1873,
      "äº§": 1874,
      "ĠDepartment": 1875,
      "Ġ6": 1876,
      "Ġgel": 1877,
      "Ġactually": 1878,
      "vest": 1879,
      "Ġoccur": 1880,
      "ctor": 1881,
      "ä¿Ŀ": 1882,
      "Ġsimil": 1883,
      "Ġsimilar": 1884,
      "____": 1885,
      "Ġ-": 1886,
      "Ġthough": 1887,
      "éĥ": 1888,
      "éĥ¨": 1889,
      "éķ": 1890,
      "éķ¿": 1891,
      "Ġimprove": 1892,
      "Ġ197": 1893,
      "Ġ7": 1894,
      "Ġplay": 1895,
      "Ġrange": 1896,
      "row": 1897,
      "Ġsup": 1898,
      "AR": 1899,
      "ĿĢ": 1900,
      "ungen": 1901,
      "Ã¢": 1902,
      "Ġmon": 1903,
      "Ġmonth": 1904,
      "ron": 1905,
      "Ġprobabl": 1906,
      "Ġsuppl": 1907,
      "Ã±os": 1908,
      "Ġorganiz": 1909,
      "Ġterm": 1910,
      "Ġdeterm": 1911,
      "Ġar": 1912,
      "ĠThere": 1913,
      "Ġear": 1914,
      "Ġtreatment": 1915,
      "Ġnext": 1916,
      "Ġtext": 1917,
      "mek": 1918,
      "Ġhaving": 1919,
      "Ġprepar": 1920,
      "rip": 1921,
      "crip": 1922,
      "Ġimp": 1923,
      "Ġimpact": 1924,
      "Ġsimpl": 1925,
      "Ġcover": 1926,
      "Ġimage": 1927,
      "iving": 1928,
      "è½¦": 1929,
      "Ġinvest": 1930,
      "Ġappear": 1931,
      "æīĭ": 1932,
      "äºĭ": 1933,
      "day": 1934,
      "Ġpolic": 1935,
      "urch": 1936,
      "lock": 1937,
      "å§": 1938,
      "æĥ³": 1939,
      "æ¯Ķ": 1940,
      "Ġsucces": 1941,
      "Ġanim": 1942,
      "Ġanimal": 1943,
      "å±ķ": 1944,
      "åķ": 1945,
      "è·": 1946,
      "ri": 1947,
      "ĠEr": 1948,
      "iod": 1949,
      "Ġperiod": 1950,
      "Ġ12": 1951,
      "éĹ´": 1952,
      "ä¸İ": 1953,
      "éĤ£": 1954,
      "ave": 1955,
      "Ġvalu": 1956,
      "Ġavailable": 1957,
      "Ġ8": 1958,
      "Ġo": 1959,
      "Ġile": 1960,
      "Ġvol": 1961,
      "Ġlight": 1962,
      "ĠQu": 1963,
      "Ġorder": 1964,
      "Ġsign": 1965,
      "Ġland": 1966,
      "Ġ198": 1967,
      "Ġ9": 1968,
      "Ġthing": 1969,
      "Ġ16": 1970,
      "ĠâĢĺ": 1971,
      "Ġend": 1972,
      "commend": 1973,
      "volved": 1974,
      "riend": 1975,
      "Ġquality": 1976,
      "Ġheart": 1977,
      "ficial": 1978,
      "Ġorig": 1979,
      "Ġorigin": 1980,
      "Ġclass": 1981,
      "Ġpost": 1982,
      "Ġcond": 1983,
      "Ġcharacter": 1984,
      "æĦı": 1985,
      "Ġcost": 1986,
      "å¤ĸ": 1987,
      "Ġhous": 1988,
      "vious": 1989,
      "Ġsince": 1990,
      "éĩį": 1991,
      "Ġhistory": 1992,
      "iento": 1993,
      "Ġphy": 1994,
      "www": 1995,
      "Ġser": 1996,
      "Ġson": 1997,
      "Ġsind": 1998,
      "Ġbul": 1999,
      "é¡": 2000,
      "diffic": 2001,
      "difficult": 2002,
      "éĩĳ": 2003,
      "ĠInstitut": 2004,
      "ĠÃ§ok": 2005,
      "Ġalway": 2006,
      "Ġalmost": 2007,
      "lack": 2008,
      "Ġweek": 2009,
      "Ä±nÄ±z": 2010,
      "Ġmus": 2011,
      "åİ»": 2012,
      "éĩĮ": 2013,
      "éĩı": 2014,
      "Ġnever": 2015,
      "Ġnetwork": 2016,
      "Ġnear": 2017,
      "Ġdoctor": 2018,
      "Ġzum": 2019,
      "ĠCol": 2020,
      "æĪĳä»¬": 2021,
      "æ¬¡": 2022,
      "ä¿¡": 2023,
      "Ġcannot": 2024,
      "ĠgeÃ§": 2025,
      "Ġconsum": 2026,
      "masÄ±": 2027,
      "éļ": 2028,
      "éĢļ": 2029,
      "Ġeinem": 2030,
      "Ã©n": 2031,
      "Ġitself": 2032,
      "Ġet": 2033,
      "Ġ$": 2034,
      "ĠYou": 2035,
      "Ġobject": 2036,
      "æŀľ": 2037,
      "ceive": 2038,
      "Ġreceive": 2039,
      "Ġeffective": 2040,
      "Ġcu": 2041,
      "Ġcuando": 2042,
      "Ġpu": 2043,
      "Ġpued": 2044,
      "abilir": 2045,
      "lÄ±k": 2046,
      "Ġcollect": 2047,
      "ception": 2048,
      "Ġvor": 2049,
      "èī": 2050,
      "èī²": 2051,
      "ä¸Ģä¸ª": 2052,
      "Ġmaintain": 2053,
      "ertain": 2054,
      "Ġcertain": 2055,
      "face": 2056,
      "Ġsurface": 2057,
      "èµ·": 2058,
      "èµĦ": 2059,
      "Ġartic": 2060,
      "Ġarticle": 2061,
      "æĺİ": 2062,
      "Ġset": 2063,
      "ĠIndian": 2064,
      "Ġpriv": 2065,
      "æ°´": 2066,
      "Ġfollowing": 2067,
      "asure": 2068,
      "Ġmeasure": 2069,
      "Ġmehr": 2070,
      "ility": 2071,
      "ibility": 2072,
      "å»": 2073,
      "å»º": 2074,
      "Ġonline": 2075,
      "cul": 2076,
      "cis": 2077,
      "cision": 2078,
      "cion": 2079,
      "Ġfactor": 2080,
      "Ġservices": 2081,
      "ĠJew": 2082,
      "ĠyapÄ±l": 2083,
      "Ġprevious": 2084,
      "é£": 2085,
      "Ġexpect": 2086,
      "Ġground": 2087,
      "ociated": 2088,
      "iÄŁ": 2089,
      "Ġsuggest": 2090,
      "'t": 2091,
      "å°Ĩ": 2092,
      "Ġactivities": 2093,
      ".\"": 2094,
      "Ã¤nd": 2095,
      "Ã¼nd": 2096,
      "Ġproduce": 2097,
      "è¡¨": 2098,
      "ç®": 2099,
      "çķ": 2100,
      "Ġkon": 2101,
      "ĠProgram": 2102,
      "acak": 2103,
      "Ġdem": 2104,
      "Ġpain": 2105,
      "ugh": 2106,
      "Ġnorm": 2107,
      "Ã¼m": 2108,
      "ique": 2109,
      "Ġtechnique": 2110,
      "ç¬": 2111,
      "ç¬¬": 2112,
      "çĻ": 2113,
      "åĿ": 2114,
      "Ġgreater": 2115,
      "Ġstre": 2116,
      "obre": 2117,
      "Ġsobre": 2118,
      "Ġbre": 2119,
      "Ġfamily": 2120,
      "Ġgeneral": 2121,
      "laÅŁ": 2122,
      "Ġaffect": 2123,
      "Ġlaw": 2124,
      "çĿĢ": 2125,
      "çĦ": 2126,
      "çĦ¶": 2127,
      "è¶": 2128,
      "åħ¶": 2129,
      "ç¤": 2130,
      "ç¨": 2131,
      "plement": 2132,
      "ument": 2133,
      "ru": 2134,
      "ischen": 2135,
      "Ã¼ck": 2136,
      "Ġrate": 2137,
      "ament": 2138,
      "da": 2139,
      "æ°ĳ": 2140,
      "atter": 2141,
      "Ġmed": 2142,
      "Ġrelations": 2143,
      "Ġrelationship": 2144,
      "Ġrelig": 2145,
      "Ġrelative": 2146,
      "Ġrelated": 2147,
      "Ġequ": 2148,
      "Ġfrequ": 2149,
      "Ġliving": 2150,
      "iÃ©n": 2151,
      "biÃ©n": 2152,
      "ambiÃ©n": 2153,
      "ĠtambiÃ©n": 2154,
      "Ġlikely": 2155,
      "Ġorgan": 2156,
      "Ġdra": 2157,
      "ove": 2158,
      "Ġabove": 2159,
      "og": 2160,
      "Ġrecog": 2161,
      "ovember": 2162,
      "Ġvir": 2163,
      "Ġspace": 2164,
      "main": 2165,
      "Ġremain": 2166,
      "çĽ¸": 2167,
      "çĽ®": 2168,
      "Ġmarket": 2169,
      "Ġentre": 2170,
      "ĠGre": 2171,
      "Ġentire": 2172,
      "ä½Ĩ": 2173,
      "å¹³": 2174,
      "Ġenough": 2175,
      "åĽł": 2176,
      "ĠInternational": 2177,
      "Ġinternational": 2178,
      "Ġservice": 2179,
      "ĠCent": 2180,
      "ry": 2181,
      "Ġbr": 2182,
      "Ġcentury": 2183,
      "rist": 2184,
      "ĠChrist": 2185,
      "ĠChristian": 2186,
      "ĠPr": 2187,
      "Ġrespect": 2188,
      "Ġ2011": 2189,
      "Ġ2012": 2190,
      "Ġ2010": 2191,
      "Ġinvestig": 2192,
      "tect": 2193,
      "Ġprotect": 2194,
      "Ġtake": 2195,
      "åĨħ": 2196,
      "havi": 2197,
      "Ġbehavi": 2198,
      "ĠBrit": 2199,
      "ĠBritish": 2200,
      "Ġcrit": 2201,
      "Ã¡n": 2202,
      "Ãºn": 2203,
      "Ġhead": 2204,
      "å½ĵ": 2205,
      "Ġleg": 2206,
      "Ġleast": 2207,
      "tegr": 2208,
      "Ġparent": 2209,
      "Ġcolle": 2210,
      "Ã¼l": 2211,
      "ĠâĢŀ": 2212,
      "Ġgive": 2213,
      "åħ³": 2214,
      "Ġblack": 2215,
      "Ġmovement": 2216,
      "Ġexperiment": 2217,
      "oward": 2218,
      "Ġtoward": 2219,
      "Ġcreate": 2220,
      "Ġimplement": 2221,
      "Ġbuilding": 2222,
      "Ġbelieve": 2223,
      "ultural": 2224,
      "Ġ14": 2225,
      "Ġant": 2226,
      "Ġstandard": 2227,
      "Ġestablish": 2228,
      "åĬ¡": 2229,
      "Ġgrowth": 2230,
      "ĠGr": 2231,
      "Ġvar": 2232,
      "Ġ30": 2233,
      "Ġmodern": 2234,
      "Ä±na": 2235,
      "Ġdise": 2236,
      "Ġdiseas": 2237,
      "Ġdisease": 2238,
      "Ġwhite": 2239,
      "åģļ": 2240,
      "æ²¡": 2241,
      "ç®¡": 2242,
      "ä¸ī": 2243,
      "ï¼ī": 2244,
      "ï¼ģ": 2245,
      "ï¼Ī": 2246,
      "ï¼Ł": 2247,
      "Ġwind": 2248,
      "Ġmult": 2249,
      "Ġadult": 2250,
      "èģ": 2251,
      "ON": 2252,
      "AN": 2253,
      "IN": 2254,
      "EN": 2255,
      "ĠFran": 2256,
      "dic": 2257,
      "igen": 2258,
      "ĠgÃ¶re": 2259,
      "Ġgu": 2260,
      "Ġaccept": 2261,
      "pt": 2262,
      "itive": 2263,
      "Ġrather": 2264,
      "agement": 2265,
      "Ġmanagement": 2266,
      "ociety": 2267,
      "Ġthey": 2268,
      "Ġsein": 2269,
      "Ġmedical": 2270,
      "gether": 2271,
      "ather": 2272,
      "urther": 2273,
      "Ġfurther": 2274,
      "å½±": 2275,
      "gend": 2276,
      "éľ": 2277,
      "Ġolan": 2278,
      "Ġthroughout": 2279,
      "esearch": 2280,
      "ĠResearch": 2281,
      "ĠEl": 2282,
      "ptom": 2283,
      "mptom": 2284,
      "Ġleave": 2285,
      "Ġrol": 2286,
      "Ġide": 2287,
      "Ġag": 2288,
      "Ġsignificant": 2289,
      "Ġview": 2290,
      "Ġtimes": 2291,
      "Ġsometimes": 2292,
      "Ġpublish": 2293,
      "åĮº": 2294,
      "fric": 2295,
      "ĠAfric": 2296,
      "Ġinf": 2297,
      "Ġinflu": 2298,
      "Ġprofession": 2299,
      "ugust": 2300,
      "ios": 2301,
      "ĠX": 2302,
      "Ł¥": 2303,
      "Ġrecogn": 2304,
      "èĩªå·": 2305,
      "Ġspecial": 2306,
      "ĠSouth": 2307,
      "ä½į": 2308,
      "å·¥ä½ľ": 2309,
      "Ġbest": 2310,
      "ĠWe": 2311,
      "Ġzur": 2312,
      "ĠâĢĶ": 2313,
      "Ġparticip": 2314,
      "Ġidentif": 2315,
      "Ġextre": 2316,
      "Ġextra": 2317,
      "Ġexpos": 2318,
      "Ġfour": 2319,
      "ĠÅŁek": 2320,
      "ĠÃ¶": 2321,
      "ĠÃĸ": 2322,
      "ĠSome": 2323,
      "Ġdisorder": 2324,
      "lob": 2325,
      "Ġglob": 2326,
      "çī¹": 2327,
      "cription": 2328,
      "Ġindic": 2329,
      "Ġwide": 2330,
      "fort": 2331,
      "ffort": 2332,
      "Ġeffort": 2333,
      "Ġreligious": 2334,
      "ç´": 2335,
      "æŃ¤": 2336,
      "æŃ£": 2337,
      "net": 2338,
      "ĠInternet": 2339,
      "nes": 2340,
      "ness": 2341,
      "Ġcreated": 2342,
      "åķĨ": 2343,
      "Ġrecommend": 2344,
      "Ã±o": 2345,
      "Ġrul": 2346,
      "Ġrun": 2347,
      "Ġnoch": 2348,
      "Ġempl": 2349,
      "inist": 2350,
      "minist": 2351,
      "Ġadminist": 2352,
      "Ġphys": 2353,
      "Ġphysical": 2354,
      "ĠPart": 2355,
      "ĠkÃ¶nnen": 2356,
      "ien": 2357,
      "Ġtien": 2358,
      "æĹł": 2359,
      "Ġscience": 2360,
      "ĠScience": 2361,
      "ç¨ĭ": 2362,
      "Ġregard": 2363,
      "Ġuniver": 2364,
      "Ġapplic": 2365,
      "Ġconsist": 2366,
      "ĠJahr": 2367,
      "uev": 2368,
      "Ġnuev": 2369,
      "Ġmil": 2370,
      "èĩªå·±": 2371,
      "Ġcorrect": 2372,
      "è°": 2373,
      "ification": 2374,
      "ĠiÅŁ": 2375,
      "Ġtogether": 2376,
      "Ġ13": 2377,
      "æĦŁ": 2378,
      "amos": 2379,
      "Ġ'": 2380,
      "Ġdifficult": 2381,
      "Ġ100": 2382,
      "Ġ0": 2383,
      "Ġer": 2384,
      "Ġnational": 2385,
      "Ġ25": 2386,
      "åħ¥": 2387,
      "Ġgibi": 2388,
      "ĠyaÅŁ": 2389,
      "ĠyÄ±l": 2390,
      "Ġcontact": 2391,
      "åĪ¶": 2392,
      "èĢģ": 2393,
      "imiz": 2394,
      "åĳĺ": 2395,
      "ih": 2396,
      "Ġih": 2397,
      "ario": 2398,
      "Ġstructure": 2399,
      "Ġten": 2400,
      "Ġap": 2401,
      "ES": 2402,
      "OR": 2403,
      "Ġ194": 2404,
      "ĠEngl": 2405,
      "ĠEnglish": 2406,
      "å®ī": 2407,
      "off": 2408,
      "oftw": 2409,
      "oftware": 2410,
      "ĠProf": 2411,
      "ĠPh": 2412,
      "Ġrefer": 2413,
      "Ã¼rk": 2414,
      "ĠTÃ¼rk": 2415,
      "uk": 2416,
      "ĠÃĩ": 2417,
      "ymptom": 2418,
      "Ġbecome": 2419,
      "Ġfull": 2420,
      "çī©": 2421,
      "Ġoften": 2422,
      "ĠÃ¶n": 2423,
      "Ġci": 2424,
      "Ġcivi": 2425,
      "Ġscientist": 2426,
      "èĪ": 2427,
      "çĪ": 2428,
      "ä¹Ī": 2429,
      "Ġeconomic": 2430,
      "Ã¼hr": 2431,
      "ĠNor": 2432,
      "ĠNorth": 2433,
      "beit": 2434,
      "What": 2435,
      "ĠWhat": 2436,
      "ä¸ŃåĽ½": 2437,
      "Ġ11": 2438,
      "Ġcondu": 2439,
      "Ġconduct": 2440,
      "Ġtechnology": 2441,
      "aÃ±": 2442,
      "ĠAmerica": 2443,
      "ï¼Ľ": 2444,
      "äºĽ": 2445,
      "å·²": 2446,
      "Ġearth": 2447,
      "Ġearli": 2448,
      "æ´»": 2449,
      "ĠOne": 2450,
      "oto": 2451,
      "Ġphoto": 2452,
      "Ġactual": 2453,
      "Ġger": 2454,
      "Ġgerek": 2455,
      "Ġacro": 2456,
      "imiento": 2457,
      "amiento": 2458,
      "ĠWith": 2459,
      "ĠWest": 2460,
      "Ġreduce": 2461,
      "Ġgenerally": 2462,
      "æľŁ": 2463,
      "åıĬ": 2464,
      "èĬ": 2465,
      "åħ¬åı": 2466,
      "åħ¬åı¸": 2467,
      "å¸¸": 2468,
      "Ġpositive": 2469,
      "trie": 2470,
      "Ġsie": 2471,
      "Ġsp": 2472,
      "rop": 2473,
      "hap": 2474,
      "Ġexp": 2475,
      "Ġsus": 2476,
      "Ġlitt": 2477,
      "Ġlittle": 2478,
      "Ġcle": 2479,
      "Ġclear": 2480,
      "Ġatt": 2481,
      "Ġattack": 2482,
      "ĠgÃ¼n": 2483,
      "ied": 2484,
      "ified": 2485,
      "ized": 2486,
      "agno": 2487,
      "Ġdiagno": 2488,
      "Ġdiver": 2489,
      "Ġbegan": 2490,
      "ank": 2491,
      "å¼ı": 2492,
      "Ġpast": 2493,
      "ĠAustr": 2494,
      "å¢": 2495,
      "AS": 2496,
      "Ġtravel": 2497,
      "Ġcomb": 2498,
      "Ġcompr": 2499,
      "Ġsonra": 2500,
      "thern": 2501,
      "outhern": 2502,
      "ither": 2503,
      "Ġeither": 2504,
      "ç©": 2505,
      "Ġlast": 2506,
      "stell": 2507,
      "Ġ2009": 2508,
      "Ġelectric": 2509,
      "Ġshor": 2510,
      "Ġshe": 2511,
      "Ġshort": 2512,
      "Ã¼re": 2513,
      "åĪ©": 2514,
      "keit": 2515,
      "iniz": 2516,
      "Ġflow": 2517,
      "ĠWhen": 2518,
      "Ġcamp": 2519,
      "ep": 2520,
      "pp": 2521,
      "Ġhapp": 2522,
      "Ġstep": 2523,
      "åĲį": 2524,
      "ĠdÃ¼ÅŁ": 2525,
      "Ġnature": 2526,
      "Ġich": 2527,
      "ĠÃ§Ä±k": 2528,
      "Ġdrink": 2529,
      "å¹¶": 2530,
      "æ¶": 2531,
      "æį": 2532,
      "ĠEngland": 2533,
      "Ġopport": 2534,
      "Ġopen": 2535,
      "Ġopportun": 2536,
      "Ġaddre": 2537,
      "ft": 2538,
      "Ġleft": 2539,
      "raft": 2540,
      "Ġdef": 2541,
      "Ġdefin": 2542,
      "ff": 2543,
      "Ġref": 2544,
      "Ġreflect": 2545,
      "Ġreal": 2546,
      "Ġrealiz": 2547,
      "rain": 2548,
      "Ġbrain": 2549,
      "Ġdeath": 2550,
      "Ġremo": 2551,
      "mos": 2552,
      "Ġcolor": 2553,
      "Ġregular": 2554,
      "Ġdam": 2555,
      "Ġprinciple": 2556,
      "Ġ24": 2557,
      "é¦": 2558,
      "Ġpresident": 2559,
      "otro": 2560,
      "Ġsolution": 2561,
      "Ġ40": 2562,
      "Ġzw": 2563,
      "Ġaccording": 2564,
      "ĠInformation": 2565,
      "æķĻ": 2566,
      "Ġquick": 2567,
      "istic": 2568,
      "ĠÃľ": 2569,
      "Ġtar": 2570,
      "Ġtaraf": 2571,
      "Ġtarget": 2572,
      "ĠtarafÄ±ndan": 2573,
      "aff": 2574,
      "Ġsaf": 2575,
      "Ġty": 2576,
      "Ġtyp": 2577,
      "Ġtype": 2578,
      "Ġinfluence": 2579,
      "Ġsymptom": 2580,
      "ç§į": 2581,
      "Ġbeing": 2582,
      "cument": 2583,
      "Ġdocument": 2584,
      "ĠUnter": 2585,
      "ĠSh": 2586,
      "wh": 2587,
      "uture": 2588,
      "Ġfuture": 2589,
      "ection": 2590,
      "Ġinfection": 2591,
      "Ġcollection": 2592,
      "Ġemplo": 2593,
      "Ġdisplay": 2594,
      "æģ": 2595,
      "Ġteam": 2596,
      "Ġculture": 2597,
      "åĸ": 2598,
      "Ġline": 2599,
      "lex": 2600,
      "Ġcomplex": 2601,
      "ently": 2602,
      "Ġdifference": 2603,
      "Ġmedic": 2604,
      "Ġ2008": 2605,
      "ĠChurch": 2606,
      "Ġconcept": 2607,
      "ization": 2608,
      "ize": 2609,
      "Ġserious": 2610,
      "Ä±y": 2611,
      "Ä±yor": 2612,
      "uy": 2613,
      "çīĩ": 2614,
      "Ġshown": 2615,
      "ief": 2616,
      "amente": 2617,
      "Ġmatter": 2618,
      "ĠdeÄŁ": 2619,
      "Ġglobal": 2620,
      "lus": 2621,
      "clus": 2622,
      "Ġrespond": 2623,
      "è£": 2624,
      "å£": 2625,
      "èĲ": 2626,
      "è·¯": 2627,
      "Ġwhol": 2628,
      "æķ°": 2629,
      "ĠAd": 2630,
      "do": 2631,
      "Ġles": 2632,
      "Ġless": 2633,
      "Die": 2634,
      "Ġpredic": 2635,
      "è¢": 2636,
      "è¢«": 2637,
      "åºĶ": 2638,
      "ustain": 2639,
      "igure": 2640,
      "ĠgerÃ§": 2641,
      "ĠgerÃ§ek": 2642,
      "Ã¶nem": 2643,
      "Ġcame": 2644,
      "came": 2645,
      "Ġbecame": 2646,
      "Ġay": 2647,
      "Ġnur": 2648,
      "trol": 2649,
      "trieved": 2650,
      "ĠÃ¶ÄŁ": 2651,
      "æĪĸ": 2652,
      "ismo": 2653,
      "Ġhast": 2654,
      "Ġ|": 2655,
      "Ġnuestro": 2656,
      "ologist": 2657,
      "åı°": 2658,
      "Ġcommunities": 2659,
      "pread": 2660,
      "Ġpot": 2661,
      "Ġpotential": 2662,
      "Ġlet": 2663,
      "Ġsepar": 2664,
      "ativ": 2665,
      "ĠTÃ¼rkiy": 2666,
      "Ġmoment": 2667,
      "Ġsurvi": 2668,
      "Ġexpres": 2669,
      "etz": 2670,
      "elve": 2671,
      "Ġunter": 2672,
      "uter": 2673,
      "Ġcomputer": 2674,
      "Ġagain": 2675,
      "ĠWhile": 2676,
      "Ġevalu": 2677,
      "ador": 2678,
      "Ġbehavior": 2679,
      "Ġpass": 2680,
      "çľŁ": 2681,
      "Ġhard": 2682,
      "æľį": 2683,
      "Ġtoday": 2684,
      "Ġzam": 2685,
      "ä½¿": 2686,
      "æĶ¿": 2687,
      "schaft": 2688,
      "Ġvacc": 2689,
      "depend": 2690,
      "Ġdepend": 2691,
      "Ġtransport": 2692,
      "Ġappropr": 2693,
      "volve": 2694,
      "Ġmaking": 2695,
      "Ġchem": 2696,
      "Ġchemical": 2697,
      "Ġmej": 2698,
      "Ġmejor": 2699,
      "Ġspeak": 2700,
      "Ġimport": 2701,
      "éľĢ": 2702,
      "ld": 2703,
      "orld": 2704,
      "ĠWorld": 2705,
      "Ġlabor": 2706,
      "Ġcommunic": 2707,
      "ĠAfter": 2708,
      "ĠAugust": 2709,
      "diÄŁ": 2710,
      "Ġneg": 2711,
      "ĠZeit": 2712,
      "vation": 2713,
      "Ġprincip": 2714,
      "Ġelectron": 2715,
      "Ġalg": 2716,
      "Ġaltern": 2717,
      "Ġuy": 2718,
      "Ġmuy": 2719,
      "Ġ50": 2720,
      "dÄ±r": 2721,
      "ĠEnvironment": 2722,
      "Ġocc": 2723,
      "Ġbreak": 2724,
      "Ġwritten": 2725,
      "Ġcorre": 2726,
      "éĹ®": 2727,
      "Ġhour": 2728,
      "Ġcontent": 2729,
      "atch": 2730,
      "éĶ": 2731,
      "Ġ196": 2732,
      "ĠAb": 2733,
      "baj": 2734,
      "Ġtrabaj": 2735,
      "ç³": 2736,
      "ç³»": 2737,
      "é»": 2738,
      "ç¥": 2739,
      "çŁ¥": 2740,
      "æİ¥": 2741,
      "Ġfriend": 2742,
      "How": 2743,
      "verage": 2744,
      "Ġconver": 2745,
      "ourn": 2746,
      "ournal": 2747,
      "Ġsuf": 2748,
      "Ġsuffer": 2749,
      "Ġemploy": 2750,
      "æµ·": 2751,
      "larÄ±nÄ±": 2752,
      "Ä±ÄŁÄ±nÄ±": 2753,
      "º«": 2754,
      "èº«": 2755,
      "åŁº": 2756,
      "Ġnormal": 2757,
      "ĠPubl": 2758,
      "Ġdecision": 2759,
      "Ġotro": 2760,
      "Ġqui": 2761,
      "Ġdivi": 2762,
      "Ġbulun": 2763,
      "tention": 2764,
      "tember": 2765,
      "eptember": 2766,
      "eep": 2767,
      "Ġkeep": 2768,
      "ĠiÃ§": 2769,
      "Ġter": 2770,
      "Ġdraw": 2771,
      "miÅŁ": 2772,
      "é¢ĺ": 2773,
      "plic": 2774,
      "atic": 2775,
      "Ġmach": 2776,
      "Ġmin": 2777,
      "æ¸¸": 2778,
      "ĠThey": 2779,
      "Ġdire": 2780,
      "bre": 2781,
      "Ġposition": 2782,
      "Ġbased": 2783,
      "ĠStates": 2784,
      "ory": 2785,
      "Ġactivity": 2786,
      "Ġsource": 2787,
      "aper": 2788,
      "Ġpaper": 2789,
      "Ġfin": 2790,
      "atory": 2791,
      "Ġrock": 2792,
      "Ġeffic": 2793,
      "quence": 2794,
      "çł": 2795,
      "Ġpage": 2796,
      "Ġage": 2797,
      "Ġdamage": 2798,
      "è®¾": 2799,
      "å¥¹": 2800,
      "æ²¡æľī": 2801,
      "Ġmulti": 2802,
      "ĠAll": 2803,
      "gin": 2804,
      "Ġbegin": 2805,
      "Ġuyg": 2806,
      "Ġpublished": 2807,
      "ateg": 2808,
      "Ġstrateg": 2809,
      "éĹ¨": 2810,
      "Ġseem": 2811,
      "Ġ2007": 2812,
      "Ġcombin": 2813,
      "è§£": 2814,
      "ä»£": 2815,
      "ä»İ": 2816,
      "åŁİ": 2817,
      "Ġbelow": 2818,
      "Ġsit": 2819,
      "Ġsitu": 2820,
      "Ġsize": 2821,
      "Ġmilit": 2822,
      "Ġmilitary": 2823,
      "äº¤": 2824,
      "çĲĥ": 2825,
      "Ġguide": 2826,
      "den": 2827,
      "Ġhaben": 2828,
      "Ġhabit": 2829,
      "Ġvariet": 2830,
      "Ġside": 2831,
      "Ġcharacteristic": 2832,
      "ãĢĬ": 2833,
      "Ġmultiple": 2834,
      "Ġnon": 2835,
      "Ġchurch": 2836,
      "Ġtw": 2837,
      "ufact": 2838,
      "Ġmanufact": 2839,
      "ĠAuf": 2840,
      "glich": 2841,
      "Ã¶glich": 2842,
      "log": 2843,
      "ĠEduc": 2844,
      "ĠOrgan": 2845,
      "ĠRetrieved": 2846,
      "Ġarch": 2847,
      "empt": 2848,
      "Ġattempt": 2849,
      "ĠPol": 2850,
      "ini": 2851,
      "Ġinform": 2852,
      "erg": 2853,
      "Ġenerg": 2854,
      "Ġenergy": 2855,
      "ger": 2856,
      "Ġenc": 2857,
      "Ġencour": 2858,
      "Ġeng": 2859,
      "Ġengine": 2860,
      "Ġhay": 2861,
      "ĠOnline": 2862,
      "utsch": 2863,
      "ĠDeutsch": 2864,
      "achie": 2865,
      "Ġachie": 2866,
      "éħ": 2867,
      "ĠAlthough": 2868,
      "Ġalthough": 2869,
      "ason": 2870,
      "Ġreason": 2871,
      "ç¤º": 2872,
      "ç¤¾": 2873,
      "ĠÃ§al": 2874,
      "ĠÃ§alÄ±ÅŁ": 2875,
      "ĠÃ¶z": 2876,
      "Ġprivate": 2877,
      "æį®": 2878,
      "Ġbro": 2879,
      "ĠFre": 2880,
      "è¨": 2881,
      "Ġkind": 2882,
      "Ġmakes": 2883,
      "istory": 2884,
      "ĠHistory": 2885,
      "Ġreach": 2886,
      "æĬĢ": 2887,
      "ĠJewish": 2888,
      "ä»¶": 2889,
      "Ġ2013": 2890,
      "led": 2891,
      "Ġknowled": 2892,
      "Ġknowledge": 2893,
      "Ġed": 2894,
      "ced": 2895,
      "Ġum": 2896,
      "Ġil": 2897,
      "cy": 2898,
      "gency": 2899,
      "Ġdec": 2900,
      "cto": 2901,
      "ctober": 2902,
      "cer": 2903,
      "Ġcancer": 2904,
      "Ġhacer": 2905,
      "ĠOctober": 2906,
      "ner": 2907,
      "Ġthreat": 2908,
      "liÄŁ": 2909,
      "ĠdoÄŁ": 2910,
      "Ġfund": 2911,
      "Ġfundament": 2912,
      "turn": 2913,
      "Ġreturn": 2914,
      "Ġtarih": 2915,
      "ĠFr": 2916,
      "br": 2917,
      "åĽŀ": 2918,
      "exual": 2919,
      "Ġtrue": 2920,
      "ble": 2921,
      "ouble": 2922,
      "Ġweb": 2923,
      "Ġ2000": 2924,
      "produ": 2925,
      "æīĵ": 2926,
      "Ġhappen": 2927,
      "inden": 2928,
      "men": 2929,
      "me": 2930,
      "Ġextreme": 2931,
      "mÄ±ÅŁ": 2932,
      "Ġthem": 2933,
      "ommen": 2934,
      "Ġmen": 2935,
      "Ġmag": 2936,
      "cern": 2937,
      "Ġconcern": 2938,
      "co": 2939,
      "cular": 2940,
      "ĠNo": 2941,
      "ĠNovember": 2942,
      "Ġdon": 2943,
      "çĽ´": 2944,
      "mit": 2945,
      "ital": 2946,
      "Ġcapital": 2947,
      "igital": 2948,
      "Ġcapac": 2949,
      "Ġfac": 2950,
      "Ġfish": 2951,
      "Ġfoc": 2952,
      "Ġfocus": 2953,
      "Ġobtain": 2954,
      "cek": 2955,
      "ceÄŁ": 2956,
      "ĠEnerg": 2957,
      "igkeit": 2958,
      "fahr": 2959,
      "stance": 2960,
      "Ġpermit": 2961,
      ".âĢĿ": 2962,
      "Ġdecade": 2963,
      "ahl": 2964,
      "ĠPres": 2965,
      "ĠPresident": 2966,
      "Ã¤n": 2967,
      "ning": 2968,
      "Ġbeginning": 2969,
      "enn": 2970,
      "Ġwenn": 2971,
      "En": 2972,
      "tÄ±r": 2973,
      "undred": 2974,
      "adem": 2975,
      "ship": 2976,
      "çº¿": 2977,
      "ĠÂ¿": 2978,
      "Ġstand": 2979,
      "Ġletter": 2980,
      "Ġstat": 2981,
      "ĠThat": 2982,
      "æĶ¾": 2983,
      "æĶ¶": 2984,
      "Ã¼y": 2985,
      "Ã¼yÃ¼k": 2986,
      "ĠÃ¼z": 2987,
      "ĠÃ¼zer": 2988,
      "Ġce": 2989,
      "ĠsaÄŁ": 2990,
      "acaÄŁ": 2991,
      "Ġsc": 2992,
      "Ġsite": 2993,
      "ãĢĭ": 2994,
      "æł·": 2995,
      "èĩ³": 2996,
      "ĠoluÅŁ": 2997,
      "Ġcontribut": 2998,
      "Ġdirection": 2999,
      "Ġcity": 3000,
      "Ġcual": 3001,
      "Ġcualqui": 3002,
      "Ġproced": 3003,
      "Ġprop": 3004,
      "Ġprogre": 3005,
      "Ġprocedure": 3006,
      "ture": 3007,
      "Ã¤t": 3008,
      "Ã¤h": 3009,
      "Ã¤r": 3010,
      "heit": 3011,
      "Ġmet": 3012,
      "Ġmeet": 3013,
      "è§Ĩ": 3014,
      "go": 3015,
      "jo": 3016,
      "Ġarm": 3017,
      "arm": 3018,
      "Ġfarm": 3019,
      "Ġaway": 3020,
      "æĬ¥": 3021,
      "æ·": 3022,
      "Ġrequired": 3023,
      "Ġactive": 3024,
      "Ġempres": 3025,
      "ĠJap": 3026,
      "ĠJapan": 3027,
      "Ġaccomp": 3028,
      "ĠCongre": 3029,
      "Ġjob": 3030,
      "æĮģ": 3031,
      "ried": 3032,
      "åıª": 3033,
      "Ġpropos": 3034,
      "ĠCount": 3035,
      "pital": 3036,
      "ospital": 3037,
      "Ġreview": 3038,
      "éĴ": 3039,
      "Ġoccup": 3040,
      "Ġhundred": 3041,
      "ium": 3042,
      "anz": 3043,
      "Ġeas": 3044,
      "Ġeinen": 3045,
      "Ġnorth": 3046,
      "roÃŁ": 3047,
      "Ã¤ch": 3048,
      "ĠdeÄŁiÅŁ": 3049,
      "book": 3050,
      "é£İ": 3051,
      "Ġlearning": 3052,
      "æľįåĬ¡": 3053,
      "ately": 3054,
      "Ġperformance": 3055,
      "Ġweight": 3056,
      "Ġresponsible": 3057,
      "Ġrespons": 3058,
      "Ġotra": 3059,
      "åİŁ": 3060,
      "å¼º": 3061,
      "ĠWeb": 3062,
      "Ġ--": 3063,
      "ĠRo": 3064,
      "ĠRiver": 3065,
      "Ġriver": 3066,
      "Ġrout": 3067,
      "Ġliter": 3068,
      "Ġthought": 3069,
      "Ġwild": 3070,
      "Ġesc": 3071,
      "Ġfree": 3072,
      "Ġthous": 3073,
      "Ġthousand": 3074,
      "Ġrest": 3075,
      "laim": 3076,
      "Ġclaim": 3077,
      "strument": 3078,
      "idade": 3079,
      "ervation": 3080,
      "scrib": 3081,
      "Ġdescrib": 3082,
      "åıĳå±ķ": 3083,
      "AT": 3084,
      "Ġold": 3085,
      "Ġhold": 3086,
      "Ġhal": 3087,
      "Ġhalf": 3088,
      "ĠArbeit": 3089,
      "Ġlu": 3090,
      "Ġ=": 3091,
      "Ġtreat": 3092,
      "Ġflu": 3093,
      "Ġfire": 3094,
      "Ġexposure": 3095,
      "Ġnorthern": 3096,
      "äºĮ": 3097,
      "mosph": 3098,
      "ĠProdu": 3099,
      "rodu": 3100,
      "Ġgradu": 3101,
      "Ġsurround": 3102,
      "åĭ": 3103,
      "èĭ": 3104,
      "Ġattention": 3105,
      "Ġpur": 3106,
      "Ġpurpos": 3107,
      "Ġput": 3108,
      "Ġzaman": 3109,
      "ox": 3110,
      "ĠChild": 3111,
      "ĠLe": 3112,
      "Ġill": 3113,
      "Ġillustr": 3114,
      "ç²": 3115,
      "ĠUnd": 3116,
      "ise": 3117,
      "Ġcause": 3118,
      "adÄ±r": 3119,
      "Ġreally": 3120,
      "Ġveget": 3121,
      "Ġsurve": 3122,
      "Ġthir": 3123,
      "ĠgroÃŁ": 3124,
      "Ġupon": 3125,
      "ĠDevelo": 3126,
      "Ġinterpre": 3127,
      "ĠJournal": 3128,
      "ĠÅŀ": 3129,
      "Ġachieve": 3130,
      "25": 3131,
      "Ġsk": 3132,
      "Ġskill": 3133,
      "ĠWill": 3134,
      "Ġscientific": 3135,
      "æ°Ķ": 3136,
      "Ġheld": 3137,
      "Ġwhe": 3138,
      "Ġwhether": 3139,
      "iem": 3140,
      "iempo": 3141,
      "iempre": 3142,
      "Ġtiempo": 3143,
      "Ġjournal": 3144,
      "Ġfra": 3145,
      "Ġfe": 3146,
      "Ġfeature": 3147,
      "Ġfeel": 3148,
      "uel": 3149,
      "Ġviel": 3150,
      "Ġdeliver": 3151,
      "Ġtrain": 3152,
      "Ġconcent": 3153,
      "ç§ĳ": 3154,
      "å°ĳ": 3155,
      "Ġnuestra": 3156,
      "Ġbring": 3157,
      "Ġwie": 3158,
      "Ġemp": 3159,
      "Ġemb": 3160,
      "leÅŁ": 3161,
      "ĠgerÃ§ekleÅŁ": 3162,
      "les": 3163,
      "ucle": 3164,
      "Ġnucle": 3165,
      "Ġlle": 3166,
      "Ġemission": 3167,
      "Ġchang": 3168,
      "Ġarg": 3169,
      "Ġargument": 3170,
      "Ġseg": 3171,
      "Ġfamilies": 3172,
      "é©": 3173,
      "ĠCenter": 3174,
      "Ġteacher": 3175,
      "Ġcommonly": 3176,
      "Ġcommand": 3177,
      "Ġdemand": 3178,
      "çĶ±": 3179,
      "ĠsÃ¼re": 3180,
      "éĹ®é¢ĺ": 3181,
      "Ġdone": 3182,
      "Ġdom": 3183,
      "Ġhor": 3184,
      "For": 3185,
      "Ġkad": 3186,
      "Ġkadar": 3187,
      "Ġkur": 3188,
      "Ġalgun": 3189,
      "Ġmar": 3190,
      "Ġtypes": 3191,
      "Ġtypically": 3192,
      "åħĥ": 3193,
      "æİ¨": 3194,
      "imately": 3195,
      "Ġparticularly": 3196,
      "IV": 3197,
      "cord": 3198,
      "ccord": 3199,
      "ordin": 3200,
      "cember": 3201,
      "ĠDecember": 3202,
      "Ġpero": 3203,
      "ico": 3204,
      "Ġprotection": 3205,
      "Ġprotein": 3206,
      "åĲĦ": 3207,
      "we": 3208,
      "aw": 3209,
      "nect": 3210,
      "Ġconnect": 3211,
      "Ġdistribution": 3212,
      "amin": 3213,
      "ĠSeptember": 3214,
      "Ġplac": 3215,
      "Ġalternative": 3216,
      "acional": 3217,
      "ĠbÃ¼yÃ¼k": 3218,
      "gric": 3219,
      "griculture": 3220,
      "gricultural": 3221,
      "Ġtend": 3222,
      "cciÃ³n": 3223,
      "Ġdeveloped": 3224,
      "icture": 3225,
      "Ġpicture": 3226,
      "Ġlate": 3227,
      "Ġvirus": 3228,
      "Ġtax": 3229,
      "Ġpersonal": 3230,
      "æµģ": 3231,
      "iency": 3232,
      "å¿«": 3233,
      "ĠJul": 3234,
      "Ġprimary": 3235,
      "Ä±mÄ±z": 3236,
      "Ġoffer": 3237,
      "ĠSystem": 3238,
      "æ±Ĥ": 3239,
      "æ¯ı": 3240,
      "Ġresearcher": 3241,
      "iler": 3242,
      "Ġeiner": 3243,
      "æ¡": 3244,
      "è®¡": 3245,
      "Ġphotograph": 3246,
      "Ġsuccess": 3247,
      "Ġsuccessful": 3248,
      "æł¼": 3249,
      "Ġquite": 3250,
      "Ġcompan": 3251,
      "Ġcompar": 3252,
      "Ġapprox": 3253,
      "Ġapproximately": 3254,
      "ociation": 3255,
      "schied": 3256,
      "read": 3257,
      "Ġalread": 3258,
      "Ġalready": 3259,
      "Ġpay": 3260,
      "lay": 3261,
      "èģĶ": 3262,
      "Ġcal": 3263,
      "Ġoriginal": 3264,
      "ĠAustral": 3265,
      "ĠAct": 3266,
      "Ġseason": 3267,
      "Ġwithin": 3268,
      "Ġdetermin": 3269,
      "Ġdetermine": 3270,
      "amp": 3271,
      "Ġnam": 3272,
      "Ġtherefor": 3273,
      "cur": 3274,
      "curity": 3275,
      "Ġwur": 3276,
      "Ġwurde": 3277,
      "Ġwww": 3278,
      "Ġwood": 3279,
      "Ġcir": 3280,
      "Ġcirc": 3281,
      "Ġcapture": 3282,
      "ues": 3283,
      "ude": 3284,
      "itude": 3285,
      "Ġvide": 3286,
      "ĠIndia": 3287,
      "æ¨": 3288,
      "åĲĳ": 3289,
      "El": 3290,
      "Ġchall": 3291,
      "Ġchallen": 3292,
      "Ġchallenge": 3293,
      "oung": 3294,
      "Ġyoung": 3295,
      "Ġwhy": 3296,
      "Ġthird": 3297,
      "Ġfall": 3298,
      "Ġfail": 3299,
      "Ġfil": 3300,
      "Ġfigure": 3301,
      "tos": 3302,
      "Ġlower": 3303,
      "40": 3304,
      "ç«Ļ": 3305,
      "ç«ĭ": 3306,
      "Ġrele": 3307,
      "Ġreleas": 3308,
      "istem": 3309,
      "Ġsistem": 3310,
      "Ġlie": 3311,
      "Ġav": 3312,
      "Ġval": 3313,
      "member": 3314,
      "abilities": 3315,
      "æģ¯": 3316,
      "Ġcontext": 3317,
      "åĮĹ": 3318,
      "ĠBe": 3319,
      "ĠBu": 3320,
      "aster": 3321,
      "ä¸¤": 3322,
      "ç¥ŀ": 3323,
      "ford": 3324,
      "Ġdiscussion": 3325,
      "Ġmy": 3326,
      "inder": 3327,
      "rup": 3328,
      "Ġeducational": 3329,
      "Ġidentified": 3330,
      "ä¹Ĳ": 3331,
      "Ġoppos": 3332,
      "Ġoption": 3333,
      "Ġprovided": 3334,
      "Ġihre": 3335,
      "çĤº": 3336,
      "æº": 3337,
      "æºĲ": 3338,
      "ç©º": 3339,
      "bil": 3340,
      "bilir": 3341,
      "Ġedil": 3342,
      "ĠÃ¶zel": 3343,
      "å¢ŀ": 3344,
      "ruit": 3345,
      "Ġreligion": 3346,
      "Ġconcentr": 3347,
      "rim": 3348,
      "ĠSpiel": 3349,
      "Ġfeet": 3350,
      "Ġkar": 3351,
      "ĠkarÅŁ": 3352,
      "ĠWar": 3353,
      "Ġpath": 3354,
      "Ġtodo": 3355,
      "ÃŃcul": 3356,
      "Ġpartner": 3357,
      "Ġfinal": 3358,
      "stant": 3359,
      "Ġ2006": 3360,
      "oph": 3361,
      "osoph": 3362,
      "ilosoph": 3363,
      "Ġphilosoph": 3364,
      "Ġcases": 3365,
      "Ġcase": 3366,
      "Ġcritical": 3367,
      "ĠComp": 3368,
      "Ġintegr": 3369,
      "Ġlocated": 3370,
      "Ġlay": 3371,
      "Ġlack": 3372,
      "ĠMay": 3373,
      "Ġterrit": 3374,
      "ments": 3375,
      "Ã¶l": 3376,
      "Ã¶y": 3377,
      "Ã¶yle": 3378,
      "lan": 3379,
      "åı£": 3380,
      "ĠÅŁekil": 3381,
      "ĠÅŁekilde": 3382,
      "ç²¾": 3383,
      "ä»»": 3384,
      "mitt": 3385,
      "Ġbroad": 3386,
      "Ġsoll": 3387,
      "ption": 3388,
      "Ġuygul": 3389,
      "Ġbil": 3390,
      "Ġoil": 3391,
      "Ġ21": 3392,
      "Ġable": 3393,
      "Ġaverage": 3394,
      "Ġcultural": 3395,
      "An": 3396,
      "Ġclean": 3397,
      "Ġindepend": 3398,
      "çģ": 3399,
      "Ġcele": 3400,
      "Ġcelebr": 3401,
      "AL": 3402,
      "Ġresist": 3403,
      ",\"": 3404,
      "Ġporque": 3405,
      "ĠgeliÅŁ": 3406,
      "Ġapplied": 3407,
      "ische": 3408,
      "roduc": 3409,
      "éĽĨ": 3410,
      "Ġfacil": 3411,
      "ĠBecaus": 3412,
      "Ġself": 3413,
      "Ġspread": 3414,
      "ift": 3415,
      "åĽ¾": 3416,
      "ste": 3417,
      "stead": 3418,
      "éĻ¢": 3419,
      "è®©": 3420,
      "ĠUnion": 3421,
      "Ġsearch": 3422,
      "Ġsix": 3423,
      "Ġmod": 3424,
      "ired": 3425,
      "larger": 3426,
      "zeit": 3427,
      "Ġsources": 3428,
      "Ġdurum": 3429,
      "ĠII": 3430,
      "ccording": 3431,
      "Ġmedia": 3432,
      "ily": 3433,
      "Ġeasily": 3434,
      "Ġatmosph": 3435,
      "Â»": 3436,
      "ĠaÃ±os": 3437,
      "æĤ": 3438,
      "Ä±yla": 3439,
      "iyle": 3440,
      "iyet": 3441,
      "Ġarr": 3442,
      "Ġprimer": 3443,
      "uer": 3444,
      "wer": 3445,
      "ĠMarch": 3446,
      "Ġhom": 3447,
      "éĿŀ": 3448,
      "Ġseries": 3449,
      "Ġnegative": 3450,
      "Ġuseful": 3451,
      "æķ´": 3452,
      "ID": 3453,
      "Ġwhole": 3454,
      "Ġcentr": 3455,
      "Ġcentral": 3456,
      "ĠDr": 3457,
      "ben": 3458,
      "Ġprobably": 3459,
      "ably": 3460,
      "Ã¤hr": 3461,
      "Ġdaily": 3462,
      "arily": 3463,
      "clusion": 3464,
      "Ġtaken": 3465,
      "ĠMar": 3466,
      "ĠMus": 3467,
      "ĠMan": 3468,
      "ĠCan": 3469,
      "ĠCanada": 3470,
      "ĠCoun": 3471,
      "ĠkarÅŁÄ±": 3472,
      "Ġpropert": 3473,
      "æ³¨": 3474,
      "Ġshare": 3475,
      "Ġtransfer": 3476,
      "ĠOther": 3477,
      "å¤´": 3478,
      "æĶ¹": 3479,
      "åŀ": 3480,
      "åŀĭ": 3481,
      "Ġnut": 3482,
      "Ġnutr": 3483,
      "æĬĬ": 3484,
      "æĬķ": 3485,
      "Ġdigital": 3486,
      "Ġsett": 3487,
      "Ġlarger": 3488,
      "Ġcommit": 3489,
      "Ġservi": 3490,
      "Ġservici": 3491,
      "æ¼": 3492,
      "ä»ĸä»¬": 3493,
      "mal": 3494,
      "ĠIm": 3495,
      "mer": 3496,
      "ummer": 3497,
      "ma": 3498,
      "mark": 3499,
      "ham": 3500,
      "Ġfilm": 3501,
      "Ġdann": 3502,
      "Ġcompet": 3503,
      "22": 3504,
      "Ġsites": 3505,
      "Ġris": 3506,
      "ĠkiÅŁ": 3507,
      "Ġkill": 3508,
      "Ġmother": 3509,
      "æľ¯": 3510,
      "Ġfruit": 3511,
      "Ġfuel": 3512,
      "Ġbilg": 3513,
      "astern": 3514,
      "ruary": 3515,
      "ĠEuropean": 3516,
      "gel": 3517,
      "Ġregist": 3518,
      "Ġimag": 3519,
      "ĠRober": 3520,
      "24": 3521,
      "21": 3522,
      "Ġthus": 3523,
      "ĠAus": 3524,
      "å¯¼": 3525,
      "ç¼": 3526,
      "ĠWestern": 3527,
      "ĠÃľber": 3528,
      "ially": 3529,
      "iÄŁi": 3530,
      "Ġhouse": 3531,
      "ĠRepublic": 3532,
      "Ġskin": 3533,
      "çĪ±": 3534,
      "ç±": 3535,
      "å±±": 3536,
      "èĬ±": 3537,
      "çĥ": 3538,
      "çĸ": 3539,
      "èĥ": 3540,
      "Ġciud": 3541,
      "ĠStud": 3542,
      "Ġjud": 3543,
      "è®°": 3544,
      "Ġimportance": 3545,
      "ĠFrance": 3546,
      "tail": 3547,
      "Ġdetail": 3548,
      "att": 3549,
      "attle": 3550,
      "ĠEin": 3551,
      "ograph": 3552,
      "Ġversion": 3553,
      "nother": 3554,
      "NA": 3555,
      "forn": 3556,
      "fornia": 3557,
      "ifornia": 3558,
      "alifornia": 3559,
      "ĠCalifornia": 3560,
      "Ġrecover": 3561,
      "ĠPark": 3562,
      "Ġnight": 3563,
      "Ġtechnolog": 3564,
      "Ġreduced": 3565,
      "Ġeste": 3566,
      "hmen": 3567,
      "nehmen": 3568,
      "ĠUnternehmen": 3569,
      "ĠÃ¶nem": 3570,
      "ĠÃ¶nemli": 3571,
      "endo": 3572,
      "iendo": 3573,
      "ohne": 3574,
      "ĠReg": 3575,
      "Ġtown": 3576,
      "éĸ": 3577,
      "éĵ": 3578,
      "Ġplanet": 3579,
      "æĮĩ": 3580,
      "Ġcarb": 3581,
      "Ġcarbon": 3582,
      "Ġcarry": 3583,
      "è¿ĳ": 3584,
      "Ġetw": 3585,
      "èĢĥ": 3586,
      "Ġanal": 3587,
      "Ġanaly": 3588,
      "ĠOffic": 3589,
      "Ġsupplement": 3590,
      "ĠEducation": 3591,
      "aÃ§": 3592,
      "Ã¼Ã§": 3593,
      "ca": 3594,
      "Ġetc": 3595,
      "80": 3596,
      "Ġsto": 3597,
      "å¨": 3598,
      "ihr": 3599,
      "Ġihr": 3600,
      "Ġsehr": 3601,
      "ciones": 3602,
      "éª": 3603,
      "åĮħ": 3604,
      "Ġoptim": 3605,
      "ĠgÃ¶st": 3606,
      "ĠiÅŁle": 3607,
      "Ġjo": 3608,
      "Ġjoin": 3609,
      "put": 3610,
      "Ġesta": 3611,
      "Ġestimate": 3612,
      "Ġneigh": 3613,
      "ĠHigh": 3614,
      "ä½ķ": 3615,
      "Ġperhap": 3616,
      "ä¾Ľ": 3617,
      "Ġperfect": 3618,
      "Ġeventually": 3619,
      "Ġever": 3620,
      "æĶ¯": 3621,
      "iert": 3622,
      "Ġsafet": 3623,
      "Ġwinter": 3624,
      "Ġben": 3625,
      "Ġbene": 3626,
      "Ġbenef": 3627,
      "Ġbenefit": 3628,
      "ency": 3629,
      "Ġgreen": 3630,
      "Ġenvironmental": 3631,
      "Ġmind": 3632,
      "Ġmas": 3633,
      "Ġmem": 3634,
      "Ġmemory": 3635,
      "Ġdeclar": 3636,
      "Ġgrand": 3637,
      "Ġship": 3638,
      "Ġcivil": 3639,
      "Ġincluded": 3640,
      "Ġexplor": 3641,
      "Ġsociety": 3642,
      "arÄ±": 3643,
      "ayÄ±": 3644,
      "Ġtek": 3645,
      "Ġsection": 3646,
      "Ġsee": 3647,
      "ice": 3648,
      "Ġphysic": 3649,
      "ica": 3650,
      "icro": 3651,
      "Ġmicro": 3652,
      "Ġsecurity": 3653,
      "lÃ¼": 3654,
      "Ġ2005": 3655,
      "ficient": 3656,
      "Ġoffic": 3657,
      "Ġsufficient": 3658,
      "Ġsays": 3659,
      "Ġbillion": 3660,
      "ront": 3661,
      "Ġfront": 3662,
      "ton": 3663,
      "ington": 3664,
      "hington": 3665,
      "ashington": 3666,
      "ĠWashington": 3667,
      "ellow": 3668,
      "æ»": 3669,
      "æĹ¶éĹ´": 3670,
      "ä¼ģ": 3671,
      "ä¼ģä¸ļ": 3672,
      "çłĶ": 3673,
      "Ġclose": 3674,
      "se": 3675,
      "Ġthese": 3676,
      "Ġcourse": 3677,
      "ĠThese": 3678,
      "ante": 3679,
      "Ġdurante": 3680,
      "ĠNe": 3681,
      "ados": 3682,
      "mente": 3683,
      "Ġcome": 3684,
      "be": 3685,
      "Ġhere": 3686,
      "Ġrole": 3687,
      "ĠSe": 3688,
      "ĠSp": 3689,
      "Ġstudies": 3690,
      "Ġcop": 3691,
      "ipp": 3692,
      "Ġincrease": 3693,
      "Ġincreased": 3694,
      "Ġincreasing": 3695,
      "gree": 3696,
      "Ġvalue": 3697,
      "Ġillness": 3698,
      "ĠIhr": 3699,
      "æ·±": 3700,
      "Ġalways": 3701,
      "å¦Ĥæŀľ": 3702,
      "Ġreceived": 3703,
      "Ġdue": 3704,
      "Ġavo": 3705,
      "Ġavoid": 3706,
      "och": 3707,
      "Ġvideo": 3708,
      "æŁ¥": 3709,
      "Ġwaste": 3710,
      "Ġevolution": 3711,
      "self": 3712,
      "Ġhimself": 3713,
      "mission": 3714,
      "rought": 3715,
      "Ġbrought": 3716,
      "Ġblock": 3717,
      "ĠolduÄŁun": 3718,
      "Ġappropri": 3719,
      "Ġappropriate": 3720,
      "ates": 3721,
      "arbeit": 3722,
      "Ġminut": 3723,
      "Ġvida": 3724,
      "larda": 3725,
      "Ġviol": 3726,
      "adas": 3727,
      "Ġkend": 3728,
      "IC": 3729,
      "ior": 3730,
      "Ġprior": 3731,
      "abor": 3732,
      "itor": 3733,
      "Ġmonitor": 3734,
      "ense": 3735,
      "Ġsense": 3736,
      "Ġquickly": 3737,
      "çº§": 3738,
      "cret": 3739,
      "ĠSociety": 3740,
      "bruary": 3741,
      "Ġshall": 3742,
      "ä»·": 3743,
      "ä»Ĭ": 3744,
      "ä»Ģ": 3745,
      "ä»Ģä¹Ī": 3746,
      "Â·": 3747,
      "Ġfuer": 3748,
      "Ġcarried": 3749,
      "pril": 3750,
      "ĠApril": 3751,
      "cil": 3752,
      "ĠCouncil": 3753,
      "Ġbuil": 3754,
      "Ġbuilt": 3755,
      "til": 3756,
      "Ġuntil": 3757,
      "Ġmission": 3758,
      "ĠCommission": 3759,
      "ĠArt": 3760,
      "ivit": 3761,
      "Ġidea": 3762,
      "è°ĥ": 3763,
      "lieÃŁ": 3764,
      "hib": 3765,
      "æĢ»": 3766,
      "¥¿": 3767,
      "è¥¿": 3768,
      "çĻ½": 3769,
      "ä¸ĸ": 3770,
      "ä¸ľ": 3771,
      "ä¸ĩ": 3772,
      "æłĩ": 3773,
      "ä¸ĵ": 3774,
      "Ġadap": 3775,
      "Ġunique": 3776,
      "ĠbÃ¶l": 3777,
      "ç»ĵ": 3778,
      "Ġthings": 3779,
      "Ġtempor": 3780,
      "Ġfrequently": 3781,
      "Ġgenet": 3782,
      "Ġgenetic": 3783,
      "If": 3784,
      "èĦ": 3785,
      "ĠMark": 3786,
      "ĠdÃ¼z": 3787,
      "Ġcuent": 3788,
      "iet": 3789,
      "met": 3790,
      "izmet": 3791,
      "Ġhizmet": 3792,
      "Ġyet": 3793,
      "Ġhospital": 3794,
      "Ġtell": 3795,
      "Ġideas": 3796,
      "Ġmal": 3797,
      "Ġmis": 3798,
      "Ġconsumption": 3799,
      "Ġnearly": 3800,
      "ä¼ł": 3801,
      "Ġpie": 3802,
      "elves": 3803,
      "selves": 3804,
      "Ġthemselves": 3805,
      "Ġ23": 3806,
      "Ġ22": 3807,
      "23": 3808,
      "Ã¶glichkeit": 3809,
      "Ġconstant": 3810,
      "Ġresident": 3811,
      "Ġident": 3812,
      "ĠolduÄŁu": 3813,
      "Ġsound": 3814,
      "IS": 3815,
      "ivity": 3816,
      "èĻ": 3817,
      "ĠJun": 3818,
      "ech": 3819,
      "ĠTech": 3820,
      "ĠTechn": 3821,
      "Ġspeech": 3822,
      "ĠGe": 3823,
      "Ġpuede": 3824,
      "orn": 3825,
      "ort": 3826,
      "yn": 3827,
      "ĠProject": 3828,
      "vil": 3829,
      "å®Į": 3830,
      "çķĮ": 3831,
      "ãĢĮ": 3832,
      "ä¸ĸçķĮ": 3833,
      "ĠWilli": 3834,
      "ĠWilliam": 3835,
      "Ġpeace": 3836,
      "rend": 3837,
      "Ġhier": 3838,
      "empl": 3839,
      "Ġcount": 3840,
      "cÄ±": 3841,
      "Ä±cÄ±": 3842,
      "æĪ¿": 3843,
      "æĪĺ": 3844,
      "æĪ·": 3845,
      "è´¹": 3846,
      "é¡¹": 3847,
      "Ġfinan": 3848,
      "Ġfinancial": 3849,
      "ĠÂ«": 3850,
      "ĠÃ§ek": 3851,
      "ĠAustralia": 3852,
      "Ġtel": 3853,
      "Ġtele": 3854,
      "eler": 3855,
      "ĠHer": 3856,
      "ers": 3857,
      "Ġvis": 3858,
      "Ġvisit": 3859,
      "Ġvisual": 3860,
      "Ġmeans": 3861,
      "acter": 3862,
      "Ġbacter": 3863,
      "Ġhigher": 3864,
      "Ġcells": 3865,
      "Ġacros": 3866,
      "Ġacross": 3867,
      "ĠGer": 3868,
      "ĠGerman": 3869,
      "ĠGermany": 3870,
      "ĠGen": 3871,
      "ĠGener": 3872,
      "ĠGeneral": 3873,
      "ĠGovernment": 3874,
      "Ġimpos": 3875,
      "Ġganz": 3876,
      "æ¸ħ": 3877,
      "æĺĵ": 3878,
      "Ġ/": 3879,
      "è¿Ĳ": 3880,
      "Ġanything": 3881,
      "Ġnothing": 3882,
      "Ġeverything": 3883,
      "Ġselect": 3884,
      "Ġpartic": 3885,
      "Ġancient": 3886,
      "aces": 3887,
      "Ġplaces": 3888,
      "ĠCar": 3889,
      "ĠTo": 3890,
      "ĠTra": 3891,
      "Ġhistorical": 3892,
      "Ġprimarily": 3893,
      "Ġconsidered": 3894,
      "Ġconservation": 3895,
      "Ġliterature": 3896,
      "ĠFrancis": 3897,
      "Ġresource": 3898,
      "éĢł": 3899,
      "leep": 3900,
      "Ġareas": 3901,
      "Ġox": 3902,
      "Ġsubstance": 3903,
      "åĶ": 3904,
      "åıĹ": 3905,
      "Ġfav": 3906,
      "Ġfavor": 3907,
      "Ġfive": 3908,
      "Ġface": 3909,
      "ãĢį": 3910,
      "æīį": 3911,
      "èį": 3912,
      "åĨį": 3913,
      "ush": 3914,
      "he": 3915,
      "We": 3916,
      "Ġke": 3917,
      "Ġkey": 3918,
      "Ġcompanies": 3919,
      "ĠGeor": 3920,
      "roduction": 3921,
      "Ġaction": 3922,
      "action": 3923,
      "nection": 3924,
      "Ġconnection": 3925,
      "Ġadministr": 3926,
      "tter": 3927,
      "Ġbetter": 3928,
      "Ġbei": 3929,
      "Ġgibt": 3930,
      "ĠInstitute": 3931,
      "è§Ħ": 3932,
      "å¤Ħ": 3933,
      "åĽĽ": 3934,
      "åĪĽ": 3935,
      "ground": 3936,
      "tend": 3937,
      "Ġextend": 3938,
      "Â¿": 3939,
      "Â°": 3940,
      "åįģ": 3941,
      "åįķ": 3942,
      "Ġbelieved": 3943,
      "UR": 3944,
      "ĠLeben": 3945,
      "Ġvariety": 3946,
      "hal": 3947,
      "alk": 3948,
      "Ġtalk": 3949,
      "Ġwalk": 3950,
      "ĠAdminist": 3951,
      "Ġestudi": 3952,
      "halten": 3953,
      "ĠWork": 3954,
      "ĠColle": 3955,
      "ĠCollege": 3956,
      "Ġstory": 3957,
      "åĥ": 3958,
      "åł": 3959,
      "åĦ": 3960,
      "æ£": 3961,
      "ĠAfrican": 3962,
      "ĠinformaciÃ³n": 3963,
      "Ġdetect": 3964,
      "éŁ": 3965,
      "Ġexhib": 3966,
      "Ġharm": 3967,
      "gth": 3968,
      "ength": 3969,
      "Ġlength": 3970,
      "Ġstrength": 3971,
      "Ġlleg": 3972,
      "ieren": 3973,
      "ore": 3974,
      "ere": 3975,
      "where": 3976,
      "ercis": 3977,
      "Ġexercis": 3978,
      "Ġexact": 3979,
      "Ġexamin": 3980,
      "ector": 3981,
      "ĠHIV": 3982,
      "çĹ": 3983,
      "Ġgoing": 3984,
      "Ġunderstanding": 3985,
      "å¸ĥ": 3986,
      "Ġapplications": 3987,
      "Ġapplication": 3988,
      "Ġinvolved": 3989,
      "ç¡": 3990,
      "âĤ": 3991,
      "âĤ¬": 3992,
      "èµ°": 3993,
      "arios": 3994,
      "å¸Ĥåľº": 3995,
      "æıĲä¾Ľ": 3996,
      "æľĥ": 3997,
      "Ġclient": 3998,
      "ĠHuman": 3999,
      "ose": 4000,
      "ake": 4001,
      "Ġele": 4002,
      "Ġelements": 4003,
      "Ġelement": 4004,
      "è¿Ľè¡Į": 4005,
      "Ġbacteria": 4006,
      "Ġmeaning": 4007,
      "Ġresearchers": 4008,
      "larÄ±nÄ±n": 4009,
      "Ġsimply": 4010,
      "ç®¡çĲĨ": 4011,
      "Ġdefinition": 4012,
      "Ġindustrial": 4013,
      "Ġindustry": 4014,
      "Ġmention": 4015,
      "stion": 4016,
      "Ġquestion": 4017,
      "motion": 4018,
      "Ġemotion": 4019,
      "Ġev": 4020,
      "Ġatmosphere": 4021,
      "é©¬": 4022,
      "Ġ2004": 4023,
      "Ġonce": 4024,
      "ĠÃ¶nce": 4025,
      "Ġbrother": 4026,
      "ç¦": 4027,
      "èĬĤ": 4028,
      "æ¶Ī": 4029,
      "èª": 4030,
      "lerini": 4031,
      "Ġwurden": 4032,
      "ĠkonuÅŁ": 4033,
      "Ġ193": 4034,
      "Ġdistance": 4035,
      "Ġcompany": 4036,
      "craft": 4037,
      "æŃ¥": 4038,
      "æ¥": 4039,
      "Ġhasta": 4040,
      "Ġak": 4041,
      "Ġslow": 4042,
      "çı": 4043,
      "uyor": 4044,
      "iones": 4045,
      "Ġrunning": 4046,
      "å¸Ī": 4047,
      "æķĪ": 4048,
      "åħĪ": 4049,
      "æĬĢæľ¯": 4050,
      "Ġfue": 4051,
      "tadÄ±r": 4052,
      "maktadÄ±r": 4053,
      "Ġmix": 4054,
      "Ġkeine": 4055,
      "Ġaber": 4056,
      "Ġability": 4057,
      "Ġtruth": 4058,
      "Ġ27": 4059,
      "Ġ28": 4060,
      "Ġ26": 4061,
      "å®¢": 4062,
      "å®¹": 4063,
      "ĠFamil": 4064,
      "Ġdistric": 4065,
      "Ġdistin": 4066,
      "urg": 4067,
      "burg": 4068,
      "Ġayud": 4069,
      "fÃ¼hr": 4070,
      "ouse": 4071,
      "sociated": 4072,
      "Ġassociated": 4073,
      "arth": 4074,
      "ĠEarth": 4075,
      "Ġ195": 4076,
      "æĸ¯": 4077,
      "ĠyÃ¼z": 4078,
      "avi": 4079,
      "It": 4080,
      "Ã¼t": 4081,
      "Ã¼h": 4082,
      "Ġpod": 4083,
      "When": 4084,
      "tract": 4085,
      "ä½¿çĶ¨": 4086,
      "Ġspr": 4087,
      "Ġsal": 4088,
      "Ġsustain": 4089,
      "Ġopportunity": 4090,
      "Ġopportunities": 4091,
      "ĠGeorge": 4092,
      "lick": 4093,
      "Ġespecial": 4094,
      "Ġsample": 4095,
      "example": 4096,
      "Ġsouth": 4097,
      "Ġpoll": 4098,
      "Ġgain": 4099,
      "Ġgas": 4100,
      "Ġgir": 4101,
      "cias": 4102,
      "Ġaccess": 4103,
      "æĴ": 4104,
      "ç»Ļ": 4105,
      "æĸĻ": 4106,
      "æ¬¾": 4107,
      "Ä±ndak": 4108,
      "Ġreference": 4109,
      "Ġremember": 4110,
      "Ġwave": 4111,
      "idge": 4112,
      "Ġacid": 4113,
      "idos": 4114,
      "ino": 4115,
      "oud": 4116,
      "ASA": 4117,
      "ĠNASA": 4118,
      "Ġsurpr": 4119,
      "Ġmagnet": 4120,
      "Ġsoil": 4121,
      "é¦ĸ": 4122,
      "è´¨": 4123,
      "å°±æĺ¯": 4124,
      "anÄ±": 4125,
      "aÄŁÄ±": 4126,
      "Ġacadem": 4127,
      "weise": 4128,
      "èİ": 4129,
      "Ġmill": 4130,
      "Ġperspect": 4131,
      "åĥı": 4132,
      "hood": 4133,
      "Ġcrim": 4134,
      "Ġcho": 4135,
      "å¸¦": 4136,
      "å²": 4137,
      "åĻ": 4138,
      "åĻ¨": 4139,
      "éĢĻ": 4140,
      "éĢī": 4141,
      "èĤ²": 4142,
      "è²": 4143,
      "asÄ±nda": 4144,
      "ĠarasÄ±nda": 4145,
      "Ġcalcul": 4146,
      "Ġdirectly": 4147,
      "Ġdond": 4148,
      "Ġdonde": 4149,
      "Ġdif": 4150,
      "Ġdol": 4151,
      "Ġfrequency": 4152,
      "OS": 4153,
      "Ġcoast": 4154,
      "Ġbreast": 4155,
      "Ġago": 4156,
      "ĠScho": 4157,
      "ĠSchool": 4158,
      "æĻĤ": 4159,
      "æ¡Ī": 4160,
      "ĠGreek": 4161,
      "Ġchoose": 4162,
      "ierung": 4163,
      "ze": 4164,
      "Ġtiene": 4165,
      "Ġpowerful": 4166,
      "ĠÃ": 4167,
      "Ġport": 4168,
      "uÃŁ": 4169,
      "æĵ": 4170,
      "æŁ": 4171,
      "Ġsent": 4172,
      "aÅŁk": 4173,
      "aÅŁkanÄ±": 4174,
      "unk": 4175,
      "Ġconstruction": 4176,
      "Ġange": 4177,
      "Ġ60": 4178,
      "Ġohne": 4179,
      "Ġefficiency": 4180,
      "Ġefficient": 4181,
      "Ġfeed": 4182,
      "ĠyÃ¼k": 4183,
      "less": 4184,
      "Ġlove": 4185,
      "onstr": 4186,
      "Ġdemonstr": 4187,
      "Ġwatch": 4188,
      "Ġbasic": 4189,
      "Ġmusic": 4190,
      "Ġsector": 4191,
      "Ġpolicy": 4192,
      "Ġhy": 4193,
      "Ġhyd": 4194,
      "Ġhydro": 4195,
      "Ġsafety": 4196,
      "ĠCounty": 4197,
      "Ġaccident": 4198,
      "Ġtu": 4199,
      "Ġcontamin": 4200,
      "Ġ80": 4201,
      "ĠHouse": 4202,
      "ĠTran": 4203,
      "ranch": 4204,
      "rank": 4205,
      "ke": 4206,
      "ĠyÃ¶ne": 4207,
      "Ġconsult": 4208,
      "Ġconse": 4209,
      "Ġconsequence": 4210,
      "Ġcateg": 4211,
      "ĠmÃ¼": 4212,
      "Ġmid": 4213,
      "Ġmone": 4214,
      "Ġmoney": 4215,
      "ney": 4216,
      "ĠFren": 4217,
      "ĠFrench": 4218,
      "ĠArch": 4219,
      "åĦ¿": 4220,
      "cious": 4221,
      "Ġprofessional": 4222,
      "åħī": 4223,
      "Ġgoal": 4224,
      "iction": 4225,
      "Ġmismo": 4226,
      "lichen": 4227,
      "ĠbaÄŁ": 4228,
      "Ġpodr": 4229,
      "Ġchoice": 4230,
      "pment": 4231,
      "Ġequipment": 4232,
      "ĠDevelopment": 4233,
      "lass": 4234,
      "Ġcapacity": 4235,
      "Ġaccur": 4236,
      "Ġtraining": 4237,
      "ĠRom": 4238,
      "ĠRoman": 4239,
      "ĠRus": 4240,
      "ecture": 4241,
      "Ġaddres": 4242,
      "Ġcloud": 4243,
      "Ġobs": 4244,
      "Ġobser": 4245,
      "Ġobserved": 4246,
      "Ġaddress": 4247,
      "iye": 4248,
      "ige": 4249,
      "ute": 4250,
      "Re": 4251,
      "Ġquant": 4252,
      "ivo": 4253,
      "éº": 4254,
      "Ġ2003": 4255,
      "Ġ2001": 4256,
      "Ġ2002": 4257,
      "Ġsw": 4258,
      "Ġsha": 4259,
      "Ġshape": 4260,
      "Ġsoftware": 4261,
      "Ġsummer": 4262,
      "ç±»": 4263,
      "ĠkullanÄ±l": 4264,
      "Ġappar": 4265,
      "terior": 4266,
      "ÃŃas": 4267,
      "Ġwhose": 4268,
      "ĠBritain": 4269,
      "Ġreduction": 4270,
      "Ġsleep": 4271,
      "åĪ«": 4272,
      "iciÃ³n": 4273,
      "Ġrelev": 4274,
      "air": 4275,
      "tir": 4276,
      "Ġcada": 4277,
      "å½¢": 4278,
      "å½©": 4279,
      "entially": 4280,
      "Ġofficial": 4281,
      "leich": 4282,
      "è½¬": 4283,
      "ĠJuly": 4284,
      "ĠNach": 4285,
      "Ġrecently": 4286,
      "ä¾Ĩ": 4287,
      "çĭ": 4288,
      "ĠBlack": 4289,
      "ida": 4290,
      "IT": 4291,
      "ION": 4292,
      "Ġpractice": 4293,
      "åĮ»": 4294,
      "70": 4295,
      "Ġfailure": 4296,
      "ĠBook": 4297,
      "ware": 4298,
      "Ġmot": 4299,
      "ode": 4300,
      "ĠAfrica": 4301,
      "ĠBr": 4302,
      "cosystem": 4303,
      "Ġsafe": 4304,
      "Ġregulation": 4305,
      "Ġregul": 4306,
      "èĳ": 4307,
      "Ġmiles": 4308,
      "Ġweit": 4309,
      "Ġpoor": 4310,
      "ĠLib": 4311,
      "ĠJune": 4312,
      "ĠdÃ¼ÅŁÃ¼n": 4313,
      "Ġhem": 4314,
      "Ġwall": 4315,
      "itÃ¤t": 4316,
      "hen": 4317,
      "Ġtrib": 4318,
      "Ġtry": 4319,
      "Ġtrial": 4320,
      "ç¶": 4321,
      "Ġtherefore": 4322,
      "'d": 4323,
      "Ġobserv": 4324,
      "Ġcolon": 4325,
      "èĲ¥": 4326,
      "Ġrare": 4327,
      "è±": 4328,
      "åħ±": 4329,
      "Ġserve": 4330,
      "Ġidentify": 4331,
      "Al": 4332,
      "Although": 4333,
      "lin": 4334,
      "len": 4335,
      "lic": 4336,
      "Ġconflic": 4337,
      "Ġcomplic": 4338,
      "æ®": 4339,
      "Ġweather": 4340,
      "While": 4341,
      "Ġweiter": 4342,
      "Ġir": 4343,
      "Ġspir": 4344,
      "Ġspirit": 4345,
      "Ġciudad": 4346,
      "EL": 4347,
      "Ġek": 4348,
      "Ġimmun": 4349,
      "ĠCommun": 4350,
      "æł¡": 4351,
      "Ġcontribution": 4352,
      "Ġpollution": 4353,
      "ĠFra": 4354,
      "rary": 4355,
      "ĠLibrary": 4356,
      "acy": 4357,
      "Ġemail": 4358,
      "Ġemerg": 4359,
      "Ġilg": 4360,
      "Ġilgil": 4361,
      "ify": 4362,
      "90": 4363,
      "Ġ190": 4364,
      "Ġprecis": 4365,
      "ĠNatur": 4366,
      "ĠVor": 4367,
      "Ġhost": 4368,
      "Ġbackground": 4369,
      "æ¢": 4370,
      "Ġestablished": 4371,
      "çŁ": 4372,
      "ç»Ł": 4373,
      "Ġlibrary": 4374,
      "Ġdrop": 4375,
      "Ġcrop": 4376,
      "Ġobvious": 4377,
      "ote": 4378,
      "etzt": 4379,
      "Ġmech": 4380,
      "Ġmechan": 4381,
      "Ġmechanism": 4382,
      "Ġsituation": 4383,
      "Ġcareful": 4384,
      "Ġmajority": 4385,
      "Ġcollege": 4386,
      "è¾¾": 4387,
      "åħ·": 4388,
      "ĠgÃ¶z": 4389,
      "å·²ç»ı": 4390,
      "ĠaÃ§Ä±k": 4391,
      "Ġcourt": 4392,
      "Ġdes": 4393,
      "Ġdesde": 4394,
      "sive": 4395,
      "tensive": 4396,
      "ĠAs": 4397,
      "ĠAt": 4398,
      "Ġnecess": 4399,
      "Ġnecessary": 4400,
      "Ġconditions": 4401,
      "Ġdass": 4402,
      "Ġlevels": 4403,
      "Ġ90": 4404,
      "Ġwriting": 4405,
      "Ġroot": 4406,
      "Ġroad": 4407,
      "éľĢè¦ģ": 4408,
      "Ġdistinct": 4409,
      "Ġmap": 4410,
      "å±Ģ": 4411,
      "Ġreaction": 4412,
      "Ġprint": 4413,
      "Ġwindow": 4414,
      "Ġburn": 4415,
      "anger": 4416,
      "Ġdanger": 4417,
      "ling": 4418,
      "lim": 4419,
      "ĠMuslim": 4420,
      "Ġbel": 4421,
      "Ġbelir": 4422,
      "lad": 4423,
      "Ġexpression": 4424,
      "çīĮ": 4425,
      "çīĪ": 4426,
      "Ġtrade": 4427,
      "Ġkept": 4428,
      "adopt": 4429,
      "Ġempha": 4430,
      "ĠQ": 4431,
      "Ġ+": 4432,
      "Ã³mo": 4433,
      "Ġcharge": 4434,
      "Ġroom": 4435,
      "Ġproblems": 4436,
      "åĳĬ": 4437,
      "åĳ¨": 4438,
      "åıĺ": 4439,
      "åıĪ": 4440,
      "åıĸ": 4441,
      "cak": 4442,
      "Ġstage": 4443,
      "Ġstaff": 4444,
      "Ġzwischen": 4445,
      "Ġbank": 4446,
      "Äģ": 4447,
      "å¹¿": 4448,
      "Ġworking": 4449,
      "Ġexpand": 4450,
      "Ġfather": 4451,
      "ED": 4452,
      "vision": 4453,
      "ĠolduÄŁunu": 4454,
      "è§Ĥ": 4455,
      "Ġneighb": 4456,
      "mey": 4457,
      "Ġdar": 4458,
      "ĠPar": 4459,
      "Ġpatients": 4460,
      "Ġhope": 4461,
      "åĬŀ": 4462,
      "ĠDNA": 4463,
      "å§Ķ": 4464,
      "å§ĭ": 4465,
      "åıĭ": 4466,
      "arklÄ±": 4467,
      "Ġdev": 4468,
      "Ġlug": 4469,
      "Ġlugar": 4470,
      "ĠTechnology": 4471,
      "çĶ·": 4472,
      "ç»Ħ": 4473,
      "Ġstop": 4474,
      "Ġfocused": 4475,
      "Ġdark": 4476,
      "Ġbien": 4477,
      "ET": 4478,
      "éł": 4479,
      "è®¤": 4480,
      "Ġinteraction": 4481,
      "ren": 4482,
      "ĠÃ¶ÄŁren": 4483,
      "ĠChildren": 4484,
      "æ²»": 4485,
      "Ġreading": 4486,
      "Ġprincipal": 4487,
      "Ġadapt": 4488,
      "èµĽ": 4489,
      "Ġolm": 4490,
      "Ġolder": 4491,
      "Ġadopt": 4492,
      "é¢Ĩ": 4493,
      "ughter": 4494,
      "ĠPublic": 4495,
      "Ġtaking": 4496,
      "ä¿¡æģ¯": 4497,
      "On": 4498,
      "ina": 4499,
      "ĠChina": 4500,
      "ĠChines": 4501,
      "Ex": 4502,
      "________": 4503,
      "ç¡®": 4504,
      "Ġexpert": 4505,
      "Ġreferred": 4506,
      "Ä±mcÄ±": 4507,
      "è£ħ": 4508,
      "çħ": 4509,
      "çħ§": 4510,
      "çµ": 4511,
      "è¶ħ": 4512,
      "è¶Ĭ": 4513,
      "æħ": 4514,
      "è¶³": 4515,
      "utz": 4516,
      "utom": 4517,
      "Ġcut": 4518,
      "cut": 4519,
      "util": 4520,
      "Ġutil": 4521,
      "Ġutiliz": 4522,
      "But": 4523,
      "Ġautom": 4524,
      "Ġple": 4525,
      "Ġpleas": 4526,
      "ĠPhil": 4527,
      "Ġspo": 4528,
      "Ġhypo": 4529,
      "Ġplanning": 4530,
      "exico": 4531,
      "active": 4532,
      "Ġdevam": 4533,
      "mes": 4534,
      "mesi": 4535,
      "Ġdiseases": 4536,
      "water": 4537,
      "ĠGra": 4538,
      "liche": 4539,
      "come": 4540,
      "Ġste": 4541,
      "ecto": 4542,
      "ente": 4543,
      "Ġche": 4544,
      "Ġcheck": 4545,
      "ynam": 4546,
      "çľģ": 4547,
      "çľ¼": 4548,
      "è§ģ": 4549,
      "nder": 4550,
      "ervice": 4551,
      "ĠService": 4552,
      "head": 4553,
      "Ġ70": 4554,
      "Ġoccurred": 4555,
      "Ġsure": 4556,
      "sure": 4557,
      "Ġpressure": 4558,
      "Ġensure": 4559,
      "ä¾¿": 4560,
      "Ġhombre": 4561,
      "ht": 4562,
      "ĠIh": 4563,
      "ĠIhre": 4564,
      "åĢĭ": 4565,
      "åľĭ": 4566,
      "çİĭ": 4567,
      "Ġsurger": 4568,
      "Ġred": 4569,
      "dom": 4570,
      "omb": 4571,
      "Ġvom": 4572,
      "ustom": 4573,
      "Ġcustom": 4574,
      "dos": 4575,
      "Ġtodos": 4576,
      "Ġcompos": 4577,
      "idades": 4578,
      "å¤ª": 4579,
      "æľª": 4580,
      "ĠManagement": 4581,
      "Ġsurvey": 4582,
      "çĻ¾": 4583,
      "matic": 4584,
      "Ġolacak": 4585,
      "ĠgÃ¶ster": 4586,
      "ĠPlan": 4587,
      "ecek": 4588,
      "Ġsun": 4589,
      "known": 4590,
      "èĳĹ": 4591,
      "åįĹ": 4592,
      "ountain": 4593,
      "Ġimmer": 4594,
      "åĤ": 4595,
      "acebook": 4596,
      "Ġtrack": 4597,
      "uck": 4598,
      "Ġremoved": 4599,
      "Ġ29": 4600,
      "Ġmidd": 4601,
      "Ġmiddle": 4602,
      "thematic": 4603,
      "Ġmoun": 4604,
      "Ġmountain": 4605,
      "Ġmoving": 4606,
      "Ġmoved": 4607,
      "Ġinvolve": 4608,
      "Ã¤hrend": 4609,
      "Ġx": 4610,
      "Ġshar": 4611,
      "Ġshift": 4612,
      "ĠKinder": 4613,
      "Ġej": 4614,
      "Ġejempl": 4615,
      "Ġobj": 4616,
      "ĠÃ¶zellik": 4617,
      "28": 4618,
      "26": 4619,
      "29": 4620,
      "27": 4621,
      "æĲ": 4622,
      "Ġrelatively": 4623,
      "Ġtechnologies": 4624,
      "Ġborn": 4625,
      "ĠTÃ¼rkiye": 4626,
      "ĠLa": 4627,
      "With": 4628,
      "åĬŁ": 4629,
      "cle": 4630,
      "moc": 4631,
      "Ġchron": 4632,
      "Ġlines": 4633,
      "iness": 4634,
      "Ġmanag": 4635,
      "åĽ¢": 4636,
      "ĠSocial": 4637,
      "Ġdatab": 4638,
      "Ġseparate": 4639,
      "ki": 4640,
      "å¼ķ": 4641,
      "Ġcoordin": 4642,
      "Ġhaz": 4643,
      "ĠhazÄ±r": 4644,
      "ĠGu": 4645,
      "inin": 4646,
      "Ġneur": 4647,
      "urb": 4648,
      "geb": 4649,
      "æ¨¡": 4650,
      "Ġbrief": 4651,
      "Ġsymptoms": 4652,
      "Ġpresence": 4653,
      "Ġtraditional": 4654,
      "å¢ĥ": 4655,
      "Ġlocation": 4656,
      "Ġnutrient": 4657,
      "Ġnutrition": 4658,
      "å¤ĩ": 4659,
      "Ġdesp": 4660,
      "Ġproduced": 4661,
      "anced": 4662,
      "Ġadvanced": 4663,
      "Ġadvant": 4664,
      "Ġadvantage": 4665,
      "Ġadvance": 4666,
      "ĠJan": 4667,
      "ĠJanu": 4668,
      "ĠJanuary": 4669,
      "Ġtan": 4670,
      "Ġtanto": 4671,
      "åĩł": 4672,
      "åĩĨ": 4673,
      "ĠGreat": 4674,
      "Ġresistance": 4675,
      "Ġinterpret": 4676,
      "è¿Ļä¸ª": 4677,
      "ĠYour": 4678,
      "arrol": 4679,
      "Ġdesarrol": 4680,
      "èĮ": 4681,
      "è¦": 4682,
      "Ġstatus": 4683,
      "Ġintern": 4684,
      "lor": 4685,
      "lorida": 4686,
      "lend": 4687,
      "Ġattend": 4688,
      "Ã¤l": 4689,
      "Ġattach": 4690,
      "äº¬": 4691,
      "Ġrequirements": 4692,
      "uge": 4693,
      "Ġcaused": 4694,
      "Ġcauses": 4695,
      "Ġsmo": 4696,
      "ancy": 4697,
      "Ġbodie": 4698,
      "Ġhar": 4699,
      "äº§åĵģ": 4700,
      "abet": 4701,
      "Ġdiabet": 4702,
      "ĠdeÄŁil": 4703,
      "çłĶç©": 4704,
      "Ġprov": 4705,
      "Ġpropor": 4706,
      "orpor": 4707,
      "corpor": 4708,
      "ories": 4709,
      "house": 4710,
      "éĺŁ": 4711,
      "åĢĻ": 4712,
      "hold": 4713,
      "Ġhousehold": 4714,
      "Ġarrive": 4715,
      "Ġelectricity": 4716,
      "è¯Ŀ": 4717,
      "Ã¶ÃŁ": 4718,
      "lat": 4719,
      "èĤ¡": 4720,
      "Ġdeveloping": 4721,
      "ĠStudent": 4722,
      "eign": 4723,
      "ĠÅŁe": 4724,
      "abe": 4725,
      "ebruary": 4726,
      "ĠFebruary": 4727,
      "ĠUnivers": 4728,
      "II": 4729,
      "Ġinstrument": 4730,
      "Ġinstead": 4731,
      "olution": 4732,
      "paÃ±": 4733,
      "Ġadditional": 4734,
      "Ġreported": 4735,
      "é£Ł": 4736,
      "ĠpolÃŃ": 4737,
      "ĠSo": 4738,
      "oot": 4739,
      "Ġfoot": 4740,
      "oth": 4741,
      "ocuk": 4742,
      "ĠÃ§ocuk": 4743,
      "çĹħ": 4744,
      "Ġchief": 4745,
      "Ã¼rÃ¼n": 4746,
      "ĠVol": 4747,
      "ohol": 4748,
      "cohol": 4749,
      "Ġalcohol": 4750,
      "adores": 4751,
      "ĠWater": 4752,
      "ä¼ĺ": 4753,
      "avid": 4754,
      "ĠDavid": 4755,
      "Ġdecreas": 4756,
      "fall": 4757,
      "Ġscientists": 4758,
      "iÄŁini": 4759,
      "'re": 4760,
      "col": 4761,
      "Ġhol": 4762,
      "Ġeasy": 4763,
      "chen": 4764,
      "cht": 4765,
      "ouch": 4766,
      "Ġconoc": 4767,
      "!!": 4768,
      "ltim": 4769,
      "Ãºltim": 4770,
      "ĠÃºltim": 4771,
      "Ġspeed": 4772,
      "Ġwicht": 4773,
      "trib": 4774,
      "Ġwoman": 4775,
      "éŁ³": 4776,
      "Ġcode": 4777,
      "Ġcook": 4778,
      "dem": 4779,
      "Ġtook": 4780,
      "Ġair": 4781,
      "Ġsubstant": 4782,
      "å£«": 4783,
      "troduc": 4784,
      "Ġimproved": 4785,
      "è³": 4786,
      "Ġfacilities": 4787,
      "eople": 4788,
      "ĠPeople": 4789,
      "Ġbirth": 4790,
      "work": 4791,
      "Ġchance": 4792,
      "Ġyaz": 4793,
      "side": 4794,
      "Ġoutside": 4795,
      "Ġwords": 4796,
      "Ġpoco": 4797,
      "Ġpoder": 4798,
      "ĠNorthern": 4799,
      "æĳ": 4800,
      "Ġlargest": 4801,
      "ĠseÃ§": 4802,
      "igr": 4803,
      "Ġimmigr": 4804,
      "Ġimmed": 4805,
      "Ġimmedi": 4806,
      "Ġimmediately": 4807,
      "Ġmanufactur": 4808,
      "Ġwent": 4809,
      "uff": 4810,
      "Ġprefer": 4811,
      "Ä±ra": 4812,
      "æķĻèĤ²": 4813,
      "å¼ł": 4814,
      "Ġfinding": 4815,
      "Ġteaching": 4816,
      "ĠAccording": 4817,
      "ä½ı": 4818,
      "ä½İ": 4819,
      "ĠDeutschland": 4820,
      "âĨ": 4821,
      "ĠThom": 4822,
      "onom": 4823,
      "stronom": 4824,
      "room": 4825,
      "Ġclassroom": 4826,
      "Ġkom": 4827,
      "Ġkal": 4828,
      "Ġkap": 4829,
      "Ġkid": 4830,
      "Ġkay": 4831,
      "ĠMon": 4832,
      "ison": 4833,
      "ones": 4834,
      "Con": 4835,
      "Ġcompon": 4836,
      "Ġcomponent": 4837,
      "ĠRes": 4838,
      "Ġolmak": 4839,
      "éħį": 4840,
      "ĠEm": 4841,
      "Ġmes": 4842,
      "Ġgrowing": 4843,
      "åı¯èĥ½": 4844,
      "miÅŁtir": 4845,
      "Ġsyn": 4846,
      "ĠdÃŃa": 4847,
      "Ġgave": 4848,
      "Ġwarm": 4849,
      "åºĹ": 4850,
      "èħ": 4851,
      "èŃ": 4852,
      "Ġenter": 4853,
      "è®º": 4854,
      "ĠdÃ¶nem": 4855,
      "Ġtakes": 4856,
      "vit": 4857,
      "æľĽ": 4858,
      "Ġask": 4859,
      "Ġprison": 4860,
      "Ġprice": 4861,
      "Ġvolum": 4862,
      "ump": 4863,
      "Ġconstruct": 4864,
      "Ġextensive": 4865,
      "ĠFrom": 4866,
      "Ġilk": 4867,
      "ĠiliÅŁ": 4868,
      "AC": 4869,
      "Ġsex": 4870,
      "Ġsiempre": 4871,
      "Ġvirt": 4872,
      "int": 4873,
      "point": 4874,
      "Ġappoint": 4875,
      "elt": 4876,
      "Ġhot": 4877,
      "ammen": 4878,
      "usammen": 4879,
      "Ã¼tz": 4880,
      "ĠControl": 4881,
      "é¦Ļ": 4882,
      "owie": 4883,
      "Ġsowie": 4884,
      "Ġimplic": 4885,
      "æ¼Ķ": 4886,
      "Ġcit": 4887,
      "Ġcitiz": 4888,
      "Ġcitizen": 4889,
      "load": 4890,
      "Ġjetzt": 4891,
      "æł¹": 4892,
      "ĠLaw": 4893,
      "Ġwildlife": 4894,
      "Ġdrive": 4895,
      "ĠIndustr": 4896,
      "Ġwhom": 4897,
      "Ġdecid": 4898,
      "Ġsomeone": 4899,
      "èĲ½": 4900,
      "Ġscal": 4901,
      "ruck": 4902,
      "Ġpack": 4903,
      "Ġinternet": 4904,
      "ä¹¦": 4905,
      "Ġcurrently": 4906,
      "ĠLand": 4907,
      "ĠLond": 4908,
      "ĠLondon": 4909,
      "ĠKon": 4910,
      "Ġgame": 4911,
      "Ġgovern": 4912,
      "ĠgÃ¼": 4913,
      "ĠgÃ¼ven": 4914,
      "Ġhak": 4915,
      "Ġhace": 4916,
      "kt": 4917,
      "ken": 4918,
      "ert": 4919,
      "cript": 4920,
      "let": 4921,
      "Ġbird": 4922,
      "Ġbelief": 4923,
      "urban": 4924,
      "ished": 4925,
      "æĴŃ": 4926,
      "swer": 4927,
      "Ġanswer": 4928,
      "Ġnuclear": 4929,
      "è¯¥": 4930,
      "ĠPers": 4931,
      "ĠPerson": 4932,
      "Ġvegetable": 4933,
      "éĻĲ": 4934,
      "ĠArm": 4935,
      "æ¹": 4936,
      "Ġhaber": 4937,
      "Ġsupply": 4938,
      "Ġpiece": 4939,
      "æļ": 4940,
      "Ġlegis": 4941,
      "Ġlegisl": 4942,
      "Ġlegal": 4943,
      "Ġjed": 4944,
      "çĥŃ": 4945,
      "Ġlif": 4946,
      "ĠShe": 4947,
      "éĢŁ": 4948,
      "æĺŁ": 4949,
      "åĬ©": 4950,
      "Ġproportion": 4951,
      "org": 4952,
      "gg": 4953,
      "strugg": 4954,
      "Ġegg": 4955,
      "berg": 4956,
      "Ġpreg": 4957,
      "Ġpregn": 4958,
      "Ġpregnancy": 4959,
      "Ġpurch": 4960,
      "Ġpurchas": 4961,
      "Ġsevere": 4962,
      "ĠStr": 4963,
      "unktion": 4964,
      "ĠJust": 4965,
      "uÄŁ": 4966,
      "ĠeÄŁ": 4967,
      "oÄŁ": 4968,
      "Com": 4969,
      "Ġestim": 4970,
      "Ġestimated": 4971,
      "çŁ¥éģĵ": 4972,
      "ĠAc": 4973,
      "ĠAcadem": 4974,
      "ercial": 4975,
      "Ġcommercial": 4976,
      "heim": 4977,
      "Ġvalues": 4978,
      "æĹ¶åĢĻ": 4979,
      "ĠtÃ¼m": 4980,
      "Ġcru": 4981,
      "ĠdoÄŁru": 4982,
      "Ġequival": 4983,
      "Ġdescription": 4984,
      "Ġperspective": 4985,
      "quare": 4986,
      "Ġmuscle": 4987,
      "Ġdomin": 4988,
      "Ġsuperior": 4989,
      "lave": 4990,
      "ĠEst": 4991,
      "Ġorganism": 4992,
      "Ġbig": 4993,
      "Ġsexual": 4994,
      "Ġimpossible": 4995,
      "çİĩ": 4996,
      "çİ¯": 4997,
      "Ġserved": 4998,
      "nowled": 4999,
      "éªĮ": 5000,
      "ĠStudie": 5001,
      "Ġcompre": 5002,
      "Ġcomprehen": 5003,
      "Ġattitude": 5004,
      "éĺ²": 5005,
      "ĠMany": 5006,
      "Ġproperties": 5007,
      "Ġproperty": 5008,
      "ç®Ĺ": 5009,
      "Ġdre": 5010,
      "reich": 5011,
      "Ġschon": 5012,
      "Ġmotor": 5013,
      "Ġmotiv": 5014,
      "Ġpotentially": 5015,
      "Ġindependent": 5016,
      "Ġsignal": 5017,
      "ĠNot": 5018,
      "Ġthen": 5019,
      "nen": 5020,
      "ĠIhnen": 5021,
      "ĠSecond": 5022,
      "Ġediyor": 5023,
      "å®ĥ": 5024,
      "æĿĥ": 5025,
      "åĲĥ": 5026,
      "è¾ĥ": 5027,
      "Ġgold": 5028,
      "ional": 5029,
      "ract": 5030,
      "Ġcamb": 5031,
      "Ġviolence": 5032,
      "Ġharvest": 5033,
      "Ġgegen": 5034,
      "Ġgew": 5035,
      "wend": 5036,
      "Ġcooper": 5037,
      "æ¸¸æĪ": 5038,
      "au": 5039,
      "unda": 5040,
      "Ġnecessarily": 5041,
      "ĠMexico": 5042,
      "Ġurban": 5043,
      "Ġmembers": 5044,
      "èĭ±": 5045,
      "éĻħ": 5046,
      "å¿ħ": 5047,
      "Ġdoesn": 5048,
      "lines": 5049,
      "ĠMore": 5050,
      "ĠMost": 5051,
      "osten": 5052,
      "ostenlos": 5053,
      "Ġtraffic": 5054,
      "Ġ1990": 5055,
      "Ġmax": 5056,
      "Ġmigr": 5057,
      "After": 5058,
      "Ġbirlik": 5059,
      "Ġbirlikte": 5060,
      "unt": 5061,
      "unch": 5062,
      "Ġlaunch": 5063,
      "Ġcomplet": 5064,
      "å¹²": 5065,
      "ework": 5066,
      "Ã¤ft": 5067,
      "è§ī": 5068,
      "Ġparticles": 5069,
      "éĢļè¿ĩ": 5070,
      "riage": 5071,
      "Ġmarriage": 5072,
      "Ġencourage": 5073,
      "Ġvent": 5074,
      "Ġaircraft": 5075,
      "Ġdesigned": 5076,
      "indow": 5077,
      "hind": 5078,
      "Ġbehind": 5079,
      "ĠWindow": 5080,
      "Ġenjo": 5081,
      "ĠMinist": 5082,
      "Ġilgili": 5083,
      "Ġresponse": 5084,
      "Ġresponsibility": 5085,
      "Ġsecret": 5086,
      "ĠSecret": 5087,
      "ĠGrou": 5088,
      "Ġfight": 5089,
      "Ġeight": 5090,
      "mÄ±ÅŁtÄ±r": 5091,
      "Ġideal": 5092,
      "Ġorganizations": 5093,
      "which": 5094,
      "Ġcomun": 5095,
      "Ġdifer": 5096,
      "æ®µ": 5097,
      "ĠWhite": 5098,
      "ndrom": 5099,
      "ivil": 5100,
      "ĠCivil": 5101,
      "lant": 5102,
      "ĠAtlant": 5103,
      "Ġvariable": 5104,
      "Ġdispos": 5105,
      "Ġsuppos": 5106,
      "Ġposible": 5107,
      "Ġiy": 5108,
      "Ġiyi": 5109,
      "Ġade": 5110,
      "Ġparticipant": 5111,
      "Ġzusammen": 5112,
      "ĠProble": 5113,
      "Ġworkers": 5114,
      "ĠzurÃ¼ck": 5115,
      "Ġdaughter": 5116,
      "ĠHis": 5117,
      "Ġey": 5118,
      "ĠÅŁey": 5119,
      "Ġperman": 5120,
      "æĸ½": 5121,
      "Ġrecon": 5122,
      "name": 5123,
      "**": 5124,
      "aba": 5125,
      "ĠhiÃ§": 5126,
      "Ġarea": 5127,
      "Ġdiese": 5128,
      "åĢ¼": 5129,
      "Ġetk": 5130,
      "Ġausge": 5131,
      "One": 5132,
      "Ġoce": 5133,
      "Ġocean": 5134,
      "Ġstock": 5135,
      "Ġuz": 5136,
      "And": 5137,
      "ĠEnd": 5138,
      "åĽłä¸º": 5139,
      "Ġtable": 5140,
      "Ġcomprehensive": 5141,
      "Ġsequence": 5142,
      "Ġrecognized": 5143,
      "åįİ": 5144,
      "Ġlonger": 5145,
      "Ġcoll": 5146,
      "Ġcollabor": 5147,
      "Ġfirm": 5148,
      "Ġhabitat": 5149,
      "Ġearlier": 5150,
      "erve": 5151,
      "Ġremove": 5152,
      "ĠiÃ§er": 5153,
      "Ġscre": 5154,
      "Ġscreen": 5155,
      "Ġcreating": 5156,
      "Ġdangerous": 5157,
      "ought": 5158,
      "Ġakt": 5159,
      "tic": 5160,
      "pic": 5161,
      "åĮĹäº¬": 5162,
      "ä¸Ķ": 5163,
      "äºĶ": 5164,
      "åŃĺ": 5165,
      "ros": 5166,
      "Ġcros": 5167,
      "Ġeffects": 5168,
      "Ġwro": 5169,
      "Ġwrote": 5170,
      "ameter": 5171,
      "Ġcounter": 5172,
      "irect": 5173,
      "ĠDirect": 5174,
      "Ġwelch": 5175,
      "ogle": 5176,
      "oogle": 5177,
      "ĠGoogle": 5178,
      "Ġminutes": 5179,
      "Ġdiabetes": 5180,
      "ĠUN": 5181,
      "Ġmaxim": 5182,
      "Ä±ndaki": 5183,
      "Ġprofesional": 5184,
      "Ġdirector": 5185,
      "Ġmorning": 5186,
      "åı·": 5187,
      "Ġeditor": 5188,
      "Ġanalys": 5189,
      "Ġanalysis": 5190,
      "Ġerst": 5191,
      "Ġtransform": 5192,
      "wise": 5193,
      "ç»ıæµ": 5194,
      "ç»ıæµİ": 5195,
      "ĠResources": 5196,
      "Ġantib": 5197,
      "Ġpromote": 5198,
      "Ġgut": 5199,
      "Ġmut": 5200,
      "Ġmir": 5201,
      "Ġmund": 5202,
      "Ġmundo": 5203,
      "ĠestÃ¡n": 5204,
      "Ġforeign": 5205,
      "Ġfamili": 5206,
      "Ġanti": 5207,
      "Ġcolleag": 5208,
      "Ġcolleagues": 5209,
      "stall": 5210,
      "Ġacquire": 5211,
      "Ã¤uf": 5212,
      "ÃŃn": 5213,
      "mocr": 5214,
      "mocratic": 5215,
      "Ġreduc": 5216,
      "ibil": 5217,
      "athol": 5218,
      "atholic": 5219,
      "ĠCatholic": 5220,
      "Ġbasis": 5221,
      "Ġbase": 5222,
      "Ġelectr": 5223,
      "Ġcr": 5224,
      "ĠThomas": 5225,
      "Ġorganization": 5226,
      "ĠdiÄŁ": 5227,
      "Ġenjoy": 5228,
      "çĶŁæ´»": 5229,
      "Ġaggre": 5230,
      "ĠRobert": 5231,
      "Ġgran": 5232,
      "Ġgrant": 5233,
      "Ġcompletely": 5234,
      "oloj": 5235,
      "Ġsolo": 5236,
      "ĠÃ¼rÃ¼n": 5237,
      "Ġcommunication": 5238,
      "Ġaspect": 5239,
      "Ġrich": 5240,
      "Ġpieces": 5241,
      "è§Ĩé¢": 5242,
      "Ġstudi": 5243,
      "ĠChar": 5244,
      "ĠCharles": 5245,
      "EC": 5246,
      "å£°": 5247,
      "è¡¨ç¤º": 5248,
      "é¥": 5249,
      "æĢĿ": 5250,
      "è¯ģ": 5251,
      "èĩ´": 5252,
      "Ġreve": 5253,
      "Ġreveal": 5254,
      "èı": 5255,
      "ĠmÃ¶glich": 5256,
      "Ġcenturies": 5257,
      "çİ©": 5258,
      "Ġneeded": 5259,
      "Ġadjust": 5260,
      "æĤ¨": 5261,
      "Ġradiation": 5262,
      "Ġlaboratory": 5263,
      "Ġcenter": 5264,
      "ĠfarklÄ±": 5265,
      "ademÃ¡": 5266,
      "ĠFrank": 5267,
      "ĠquÃ©": 5268,
      "bol": 5269,
      "mbol": 5270,
      "ymbol": 5271,
      "Ġsymbol": 5272,
      "Ġmol": 5273,
      "Ġminist": 5274,
      "back": 5275,
      "Ġ186": 5276,
      "unun": 5277,
      "Ġhighly": 5278,
      "Ġmouth": 5279,
      "ught": 5280,
      "éĿŀå¸¸": 5281,
      "æİĴ": 5282,
      "Ã¼tÃ¼n": 5283,
      "Ġmole": 5284,
      "Ġmolecul": 5285,
      "Ġcompound": 5286,
      "Ġdays": 5287,
      "ators": 5288,
      "å·ŀ": 5289,
      "çłĶç©¶": 5290,
      "Ġcualquier": 5291,
      "ä¹ł": 5292,
      "ĠhabÃŃa": 5293,
      "éĻ¤": 5294,
      "ival": 5295,
      "Ġadvoc": 5296,
      "Ġmedicine": 5297,
      "):": 5298,
      "Ġstar": 5299,
      "Ġintroduc": 5300,
      "acific": 5301,
      "ĠPacific": 5302,
      "Ġconfir": 5303,
      "Ġconfirm": 5304,
      "US": 5305,
      "Ġgleich": 5306,
      "ĠOb": 5307,
      "Ġamb": 5308,
      "mÄ±z": 5309,
      "larÄ±mÄ±z": 5310,
      "ĠiÅŁlem": 5311,
      "siness": 5312,
      "Ġbusiness": 5313,
      "Ġpreci": 5314,
      "Ġradio": 5315,
      "Ġbis": 5316,
      "Ġbar": 5317,
      "Ġbio": 5318,
      "Ġdest": 5319,
      "Ġdestro": 5320,
      "Ġdestroy": 5321,
      "Ġwest": 5322,
      "Ġwestern": 5323,
      "quest": 5324,
      "Ġrequest": 5325,
      "New": 5326,
      "çĻ¼": 5327,
      "pecto": 5328,
      "Ġrepe": 5329,
      "Ġrela": 5330,
      "ĠdeÄŁer": 5331,
      "ĠÃ©": 5332,
      "Ġ1999": 5333,
      "Ġcommission": 5334,
      "sociation": 5335,
      "ĠAssociation": 5336,
      "Ġprogres": 5337,
      "Ġjue": 5338,
      "Ġadded": 5339,
      "Ġsegur": 5340,
      "ĠGuide": 5341,
      "Ġeasier": 5342,
      "Ġbab": 5343,
      "Ġbur": 5344,
      "Ġbit": 5345,
      "ett": 5346,
      "Ġbot": 5347,
      "Ġbott": 5348,
      "Ġbottom": 5349,
      "Ġboy": 5350,
      "Ġboard": 5351,
      "Ġbox": 5352,
      "Ġcomparison": 5353,
      "Ġtechnical": 5354,
      "Ãºb": 5355,
      "ĠpÃºb": 5356,
      "print": 5357,
      "ley": 5358,
      "Ġpolicies": 5359,
      "Ġrap": 5360,
      "Ġrapid": 5361,
      "ĠcÃ³mo": 5362,
      "Ġbi": 5363,
      "Ġbiological": 5364,
      "Ġbattle": 5365,
      "ych": 5366,
      "sych": 5367,
      "Ġpsych": 5368,
      "Ġgeht": 5369,
      "mekt": 5370,
      "mekted": 5371,
      "mektedir": 5372,
      "Ġguidelines": 5373,
      "Ġ#": 5374,
      "Ġcomes": 5375,
      "cend": 5376,
      "Ġtrend": 5377,
      "æ´»åĬ¨": 5378,
      "Ġoperations": 5379,
      "ecut": 5380,
      "Ġexecut": 5381,
      "æŀĹ": 5382,
      "æŀĦ": 5383,
      "ĠMich": 5384,
      "ĠMit": 5385,
      "ungs": 5386,
      "UN": 5387,
      "æīĢä»¥": 5388,
      "Ġcompared": 5389,
      "Ġattrib": 5390,
      "Ġinstall": 5391,
      "ĠolmasÄ±": 5392,
      "icip": 5393,
      "unicip": 5394,
      "ç¥¨": 5395,
      "Ġnum": 5396,
      "Ġnumer": 5397,
      "Ġnumerous": 5398,
      "Ġnation": 5399,
      "Ġprovider": 5400,
      "Ġmillones": 5401,
      "bridge": 5402,
      "Ġbridge": 5403,
      "Ġtrat": 5404,
      "Ġposs": 5405,
      "Ġpossibility": 5406,
      "Ä±lÄ±": 5407,
      "Ġchanges": 5408,
      "Ġanimals": 5409,
      "sues": 5410,
      "Ġissues": 5411,
      "Ġresults": 5412,
      "adi": 5413,
      "ĠCanadi": 5414,
      "unu": 5415,
      "æİ§": 5416,
      "Ġinfant": 5417,
      "However": 5418,
      "Ġdownload": 5419,
      "è®®": 5420,
      "ä¿®": 5421,
      "ç½®": 5422,
      "Ġfar": 5423,
      "Ġsolar": 5424,
      "Ġdiscrim": 5425,
      "zahl": 5426,
      "ĠChinese": 5427,
      "ĠgÃ¶rÃ¼n": 5428,
      "åıį": 5429,
      "Ġrelevant": 5430,
      "Ġcontract": 5431,
      "Ġstream": 5432,
      "è¾¹": 5433,
      "çģ«": 5434,
      "uciÃ³n": 5435,
      "Ġhakk": 5436,
      "ĠsÃ¶z": 5437,
      "ĠÃ§Ã¶z": 5438,
      "Ġsin": 5439,
      "inal": 5440,
      "Ġfundamental": 5441,
      "Ġseven": 5442,
      "åĨ³": 5443,
      "åĨĽ": 5444,
      "ohl": 5445,
      "ĠÃ¼zerinde": 5446,
      "Ġbranch": 5447,
      "ometr": 5448,
      "Some": 5449,
      "irgin": 5450,
      "ĠVirgin": 5451,
      "ĠVirginia": 5452,
      "Ġnative": 5453,
      "lÄ±ÄŁÄ±": 5454,
      "lendir": 5455,
      "ĠGroup": 5456,
      "Ġexcell": 5457,
      "Ġextern": 5458,
      "Ġdescribed": 5459,
      "Ġconscious": 5460,
      "Ġworth": 5461,
      "Ġconflict": 5462,
      "ĠLabor": 5463,
      "Ġflood": 5464,
      "Ġsignific": 5465,
      "Ġfun": 5466,
      "Ġfuncion": 5467,
      "Ġequipo": 5468,
      "Ġmer": 5469,
      "Ġgreenhouse": 5470,
      "Ġeveryone": 5471,
      "Ġsaw": 5472,
      "Ġspend": 5473,
      "Ġexcept": 5474,
      "Ġportion": 5475,
      "arÃ¡": 5476,
      "Ã¡nd": 5477,
      "Ġclin": 5478,
      "Ġclinical": 5479,
      "Ġclick": 5480,
      "Ġpractical": 5481,
      "éļ¾": 5482,
      "è·Ł": 5483,
      "Ġneighbor": 5484,
      "Ġcorpor": 5485,
      "Ġkidney": 5486,
      "Ġbound": 5487,
      "ĠFound": 5488,
      "è½½": 5489,
      "maya": 5490,
      "Ġprovision": 5491,
      "Ġdivision": 5492,
      "Ġecosystem": 5493,
      "rap": 5494,
      "aret": 5495,
      "Ġgiving": 5496,
      "Ġproviding": 5497,
      "ĠFoundation": 5498,
      "Ġagent": 5499,
      "99": 5500,
      "åıĤ": 5501,
      "Ġpaint": 5502,
      "Ġsoci": 5503,
      "Ġsel": 5504,
      "Ġselection": 5505,
      "Ġselb": 5506,
      "Ġselbst": 5507,
      "ĠgerÃ§ekleÅŁtir": 5508,
      "Ġvill": 5509,
      "Ġvillage": 5510,
      "Ġmonths": 5511,
      "Ġassign": 5512,
      "å¼Ģå§ĭ": 5513,
      "éĿĴ": 5514,
      "Ġartist": 5515,
      "Ġpeque": 5516,
      "Ġattract": 5517,
      "ville": 5518,
      "è¨Ģ": 5519,
      "Ġexception": 5520,
      "Ġexchange": 5521,
      "åŃ©": 5522,
      "åŃĹ": 5523,
      "pond": 5524,
      "Ġphysician": 5525,
      "Ġbecomes": 5526,
      "Ġgirl": 5527,
      "ĠFlorida": 5528,
      "Ġtouch": 5529,
      "ĠAustralian": 5530,
      "Ġbiet": 5531,
      "Ġdistrict": 5532,
      "Ġpersonas": 5533,
      "Ġcris": 5534,
      "Ġoccas": 5535,
      "Ġoccasion": 5536,
      "usion": 5537,
      "Ġgroups": 5538,
      "aught": 5539,
      "La": 5540,
      "Ġrob": 5541,
      "hab": 5542,
      "Ġstrategies": 5543,
      "ĠSpace": 5544,
      "Ġdatabas": 5545,
      "asÄ±na": 5546,
      "å¹³åı°": 5547,
      "volving": 5548,
      "ĠDis": 5549,
      "Ġcrisis": 5550,
      "uggestion": 5551,
      "Ġelectrical": 5552,
      "Ġtypical": 5553,
      "Ġsoldi": 5554,
      "iente": 5555,
      "Ġwond": 5556,
      "ĠFrancisco": 5557,
      "å°Ķ": 5558,
      "ĠGes": 5559,
      "ĠGesch": 5560,
      "ierno": 5561,
      "obierno": 5562,
      "ynamic": 5563,
      "Ġparents": 5564,
      "ĠRuss": 5565,
      "ĠRussian": 5566,
      "ç±³": 5567,
      "force": 5568,
      "Ġyourself": 5569,
      "Ġwealth": 5570,
      "Ġstories": 5571,
      "ĠdÃ¼n": 5572,
      "Ġfear": 5573,
      "earning": 5574,
      "unden": 5575,
      "ĠGrund": 5576,
      "Ġlot": 5577,
      "Ġlog": 5578,
      "Ġalt": 5579,
      "Ã¤lt": 5580,
      "ç¤¾ä¼ļ": 5581,
      "Ġchap": 5582,
      "Ġchapter": 5583,
      "Ġintervention": 5584,
      "Ġconvention": 5585,
      "æĬ¤": 5586,
      "ç¾¤": 5587,
      "Ġhuge": 5588,
      "Ġborder": 5589,
      "Ġfinally": 5590,
      "Ġllev": 5591,
      "Ġllevar": 5592,
      "Ġresolution": 5593,
      "Ġtam": 5594,
      "ç³»ç»Ł": 5595,
      "'ll": 5596,
      "ĠCity": 5597,
      "Ġauthority": 5598,
      "è¯·": 5599,
      "è¯ķ": 5600,
      "Ġtreated": 5601,
      "Ġhours": 5602,
      "Ġuygulam": 5603,
      "ames": 5604,
      "ĠJames": 5605,
      "æ¸¸æĪı": 5606,
      "ket": 5607,
      "areket": 5608,
      "Ġwied": 5609,
      "Ġwieder": 5610,
      "Ġminim": 5611,
      "çļ": 5612,
      "åħļ": 5613,
      "åįļ": 5614,
      "åħĭ": 5615,
      "Ġbak": 5616,
      "ĠdÃŃas": 5617,
      "é¡¹çĽ®": 5618,
      "ĠhakkÄ±nda": 5619,
      "Ä±lÄ±k": 5620,
      "ĠStand": 5621,
      "ĠStandard": 5622,
      "ĠStre": 5623,
      "Ġtut": 5624,
      "aut": 5625,
      "Ġbeaut": 5626,
      "Ġbeautif": 5627,
      "Ġtransl": 5628,
      "è§Ĩé¢ĳ": 5629,
      "Ġthick": 5630,
      "Ġextremely": 5631,
      "Ġeconomy": 5632,
      "èģĮ": 5633,
      "Ġvision": 5634,
      "Ġvit": 5635,
      "Ġvitamin": 5636,
      "Ġvisible": 5637,
      "uto": 5638,
      "å®īåħ¨": 5639,
      "ĠdiÄŁer": 5640,
      "Ġik": 5641,
      "Ġok": 5642,
      "Ġmotion": 5643,
      "ĠgÃ¼z": 5644,
      "ĠiÃ§inde": 5645,
      "Ġadver": 5646,
      "Ġpredict": 5647,
      "å¾·": 5648,
      "Ġfair": 5649,
      "Ġverschied": 5650,
      "ivos": 5651,
      "ĠgÃ¼zel": 5652,
      "ĠJose": 5653,
      "ĠJoseph": 5654,
      "nov": 5655,
      "iyat": 5656,
      "Ġcool": 5657,
      "Ġmayor": 5658,
      "ĠNetwork": 5659,
      "Ġkostenlos": 5660,
      "za": 5661,
      "Ġotherwise": 5662,
      "æĢİ": 5663,
      "æĢģ": 5664,
      "æŀģ": 5665,
      "Ġderech": 5666,
      "Ã¼yor": 5667,
      "vor": 5668,
      "Ġoutput": 5669,
      "Ġdeep": 5670,
      "Ġdevice": 5671,
      "Ġadvice": 5672,
      "ĠgÃ¶rÃ¼ÅŁ": 5673,
      "Ġetwas": 5674,
      "mon": 5675,
      "åĽ½éĻħ": 5676,
      "åĽ½å®¶": 5677,
      "ster": 5678,
      "Ġlost": 5679,
      "irst": 5680,
      "ĠFirst": 5681,
      "Ġmachine": 5682,
      "AM": 5683,
      "çª": 5684,
      "Ġexces": 5685,
      "Ġcopy": 5686,
      "oy": 5687,
      "Ġapply": 5688,
      "Ġtrabajo": 5689,
      "Ch": 5690,
      "quently": 5691,
      "RO": 5692,
      "åĬ¿": 5693,
      "Ġpregunt": 5694,
      "Ġdomest": 5695,
      "Ġdiscuss": 5696,
      "Ġpurpose": 5697,
      "ĠMe": 5698,
      "Ġconclusion": 5699,
      "è±¡": 5700,
      "Ġstem": 5701,
      "cies": 5702,
      "gencies": 5703,
      "æĺ¾": 5704,
      "é¾": 5705,
      "é¤": 5706,
      "aving": 5707,
      "Ġmeeting": 5708,
      "idence": 5709,
      "Ġexistence": 5710,
      "Ġplants": 5711,
      "ĠdÃ¼ny": 5712,
      "Ġli": 5713,
      "Ġliqu": 5714,
      "Ġliquid": 5715,
      "Ġfamiliar": 5716,
      "aria": 5717,
      "ugar": 5718,
      "Ġsugar": 5719,
      "Ġalone": 5720,
      "ĠMart": 5721,
      "ekt": 5722,
      "Ġdestek": 5723,
      "Ġseek": 5724,
      "ĠGreen": 5725,
      "Ġrestr": 5726,
      "Ġbenefic": 5727,
      "Ġkaz": 5728,
      "structur": 5729,
      "Ġsouthern": 5730,
      "Ġ500": 5731,
      "åĨµ": 5732,
      "æĥħåĨµ": 5733,
      "æ»¡": 5734,
      "èİ·": 5735,
      "Ġunivers": 5736,
      "Ġuniverse": 5737,
      "æĿ¡": 5738,
      "eleri": 5739,
      ",âĢĿ": 5740,
      "æ²¹": 5741,
      "Ġencourag": 5742,
      "ĠGlob": 5743,
      "æĻ¯": 5744,
      "clusive": 5745,
      "Ġopin": 5746,
      "Ġopinion": 5747,
      "Ġjedoch": 5748,
      "hase": 5749,
      "Ġencoun": 5750,
      "åĳ½": 5751,
      "Ġmassive": 5752,
      "Ã¶ch": 5753,
      "ĠConstitution": 5754,
      "Ġinstitution": 5755,
      "eceÄŁ": 5756,
      "Ġfluid": 5757,
      "Ġmovi": 5758,
      "Ġvisitor": 5759,
      "ination": 5760,
      "Ġeye": 5761,
      "Ġeyes": 5762,
      "ĠÃ§alÄ±ÅŁmal": 5763,
      "xim": 5764,
      "Ġstay": 5765,
      "aya": 5766,
      "Ġcuenta": 5767,
      "Ġnames": 5768,
      "Ġnamed": 5769,
      "Ġtrees": 5770,
      "åĸľ": 5771,
      "ç½ĳç«Ļ": 5772,
      "iÃŁ": 5773,
      "Ġsurvival": 5774,
      "åŁŁ": 5775,
      "Ġdecline": 5776,
      "Ġincreases": 5777,
      "ĠgiriÅŁ": 5778,
      "Ġobjective": 5779,
      "ç§°": 5780,
      "Ġlimited": 5781,
      "ĠMed": 5782,
      "ĠMedical": 5783,
      "ĠMedic": 5784,
      "ĠMedicine": 5785,
      "Ġplaced": 5786,
      "estival": 5787,
      "kommen": 5788,
      "Pro": 5789,
      "ĠCancer": 5790,
      "Ġcred": 5791,
      "Ġcredit": 5792,
      "itz": 5793,
      "Ġunit": 5794,
      "Ġinterview": 5795,
      "ĠReview": 5796,
      "Ġinterior": 5797,
      "Ã¼ne": 5798,
      "Ä±mÄ±": 5799,
      "ider": 5800,
      "Ġsolid": 5801,
      "Ġengineer": 5802,
      "éĩĩ": 5803,
      "Ġagree": 5804,
      "Ġdegree": 5805,
      "imm": 5806,
      "ĠTrans": 5807,
      "Ġstrugg": 5808,
      "Ġfast": 5809,
      "Äŀ": 5810,
      "ĠFrau": 5811,
      "uj": 5812,
      "Ġmuj": 5813,
      "Ġequal": 5814,
      "ĠHol": 5815,
      "Ġcou": 5816,
      "Ġcouple": 5817,
      "oub": 5818,
      "Ġdoub": 5819,
      "Ġcross": 5820,
      "Ġvaccine": 5821,
      "ĠEconom": 5822,
      "Ġneue": 5823,
      "lichkeit": 5824,
      "Ġspiritual": 5825,
      "Ġsoldiers": 5826,
      "å¾®": 5827,
      "æĭī": 5828,
      "ç»Ń": 5829,
      "ĠElect": 5830,
      "ĠTe": 5831,
      "Ġexercise": 5832,
      "Ġice": 5833,
      "ĠPsych": 5834,
      "ĠPer": 5835,
      "erv": 5836,
      "her": 5837,
      "ĠTr": 5838,
      "ror": 5839,
      "Ġerror": 5840,
      "Ġterror": 5841,
      "Ġsor": 5842,
      "Ġsen": 5843,
      "Ġsens": 5844,
      "å¾Īå¤ļ": 5845,
      "éģİ": 5846,
      "then": 5847,
      "Ġ1998": 5848,
      "Ġfem": 5849,
      "Ġfemal": 5850,
      "unque": 5851,
      "Ġforce": 5852,
      "forder": 5853,
      "fore": 5854,
      "ĠTherefore": 5855,
      "Ġpractices": 5856,
      "36": 5857,
      "é¢Ħ": 5858,
      "35": 5859,
      "umb": 5860,
      "ĠColumb": 5861,
      "ĠÃ¼re": 5862,
      "Ġachieved": 5863,
      "stÃ¤nd": 5864,
      "Ġinstance": 5865,
      "Ġcat": 5866,
      "ĠLord": 5867,
      "ientos": 5868,
      "Ġrecognize": 5869,
      "è©": 5870,
      "Ġrecib": 5871,
      "enced": 5872,
      "Ġexperienced": 5873,
      "fach": 5874,
      "Ġeinfach": 5875,
      "Ġoff": 5876,
      "field": 5877,
      "ĠsegÃºn": 5878,
      "Ġarchit": 5879,
      "Ġarchitecture": 5880,
      "ĠeÄŁit": 5881,
      "ĠeÄŁitim": 5882,
      "ä¼Ĺ": 5883,
      "Ġsquare": 5884,
      "ç¾İåĽ½": 5885,
      "Ġcities": 5886,
      "Ġkonus": 5887,
      "Ġkonusunda": 5888,
      "Ġreplace": 5889,
      "ĠMuse": 5890,
      "ĠMuseum": 5891,
      "with": 5892,
      "west": 5893,
      "wide": 5894,
      "oxide": 5895,
      "Ġhyper": 5896,
      "åĴ": 5897,
      "å¡": 5898,
      "å©": 5899,
      "éħĴ": 5900,
      "ropical": 5901,
      "idir": 5902,
      "ĠWir": 5903,
      "çº¦": 5904,
      "Ġcomfort": 5905,
      "fortun": 5906,
      "fortunately": 5907,
      "45": 5908,
      "Ġgot": 5909,
      "otic": 5910,
      "cot": 5911,
      "ĠScot": 5912,
      "cu": 5913,
      "igu": 5914,
      "iger": 5915,
      "Ġencu": 5916,
      "Ġencuent": 5917,
      "å»ºè®¾": 5918,
      "è®¾è®¡": 5919,
      "mith": 5920,
      "ĠSmith": 5921,
      "ĠUm": 5922,
      "Ġinside": 5923,
      "Ġllam": 5924,
      "æ¥Ń": 5925,
      "Ġuygun": 5926,
      "Ġmolecular": 5927,
      "ĠCour": 5928,
      "Ġ1980": 5929,
      "Ġep": 5930,
      "Ġeigen": 5931,
      "Ġeth": 5932,
      "eral": 5933,
      "ederal": 5934,
      "Ġfederal": 5935,
      "Ġmineral": 5936,
      "ĠFederal": 5937,
      "ĠBecause": 5938,
      "ilecek": 5939,
      "ral": 5940,
      "ĠCentral": 5941,
      "Ġmetal": 5942,
      "Ġfoto": 5943,
      "Ġfr": 5944,
      "ĠCourt": 5945,
      "Ġestos": 5946,
      "ĠaÃ§Ä±klam": 5947,
      "contr": 5948,
      "Ġencontr": 5949,
      "Ġyok": 5950,
      "amous": 5951,
      "Ġfamous": 5952,
      "Ġfile": 5953,
      "Ã¤tz": 5954,
      "rier": 5955,
      "Ġproducts": 5956,
      "ĠTex": 5957,
      "ĠTexas": 5958,
      "asÄ±nÄ±": 5959,
      "ä»¥åıĬ": 5960,
      "å¾Ģ": 5961,
      "cap": 5962,
      "Ġescap": 5963,
      "ĠAp": 5964,
      "Ġya": 5965,
      "Ġyer": 5966,
      "Ġmujer": 5967,
      "Ġcold": 5968,
      "ĠdÃ¼zen": 5969,
      "ĠSince": 5970,
      "Ġreprodu": 5971,
      "Ġmi": 5972,
      "ij": 5973,
      "Ġhazard": 5974,
      "èĮĥ": 5975,
      "äºļ": 5976,
      "Ã¼rlÃ¼": 5977,
      "ahip": 5978,
      "Ġsahip": 5979,
      "ibilidad": 5980,
      "ologÃŃa": 5981,
      "ĠLou": 5982,
      "ĠLouis": 5983,
      "uper": 5984,
      "lue": 5985,
      "Ġblue": 5986,
      "ĠIs": 5987,
      "ĠIsland": 5988,
      "ĠIsra": 5989,
      "ĠIsrael": 5990,
      "ĠIslam": 5991,
      "ĠIS": 5992,
      "ĠISB": 5993,
      "ĠISBN": 5994,
      "Ġexperiencia": 5995,
      "Ġren": 5996,
      "Ġrenew": 5997,
      "ĠBrown": 5998,
      "Ä±ÄŁÄ±mÄ±z": 5999,
      "diÄŁi": 6000,
      "abei": 6001,
      "Ġdabei": 6002,
      "Ġbilgiler": 6003,
      "ĠReport": 6004,
      "ĠLaboratory": 6005,
      "ĠMicro": 6006,
      "Ġtwent": 6007,
      "åħį": 6008,
      "dÄ±": 6009,
      "dan": 6010,
      "lardan": 6011,
      "eld": 6012,
      "ĠEd": 6013,
      "ĠEur": 6014,
      "ĠEurop": 6015,
      "ĠEast": 6016,
      "æĹħ": 6017,
      "æĹ©": 6018,
      "Ġworldwide": 6019,
      "Ġexpected": 6020,
      "EM": 6021,
      "Ġoc": 6022,
      "Ġdouble": 6023,
      "Ġtrouble": 6024,
      "ç¦ı": 6025,
      "ç¦»": 6026,
      "éļı": 6027,
      "ĠProfes": 6028,
      "Ġmich": 6029,
      "zeich": 6030,
      "ĠRich": 6031,
      "ĠRichard": 6032,
      "Ġdich": 6033,
      "ordinary": 6034,
      "ĠSovi": 6035,
      "ĠSoviet": 6036,
      "tica": 6037,
      "Ġdevices": 6038,
      "ondern": 6039,
      "78": 6040,
      "ometer": 6041,
      "é¾Ļ": 6042,
      "Ġcontrast": 6043,
      "Ġtelevision": 6044,
      "Ã¼mÃ¼z": 6045,
      "åĭķ": 6046,
      "Ġtold": 6047,
      "ĠOld": 6048,
      "éĶĢ": 6049,
      "eter": 6050,
      "ĠPeter": 6051,
      "Ġcontinue": 6052,
      "ende": 6053,
      "enden": 6054,
      "Ġdefend": 6055,
      "prend": 6056,
      "Ġgames": 6057,
      "Ġmanner": 6058,
      "å¤į": 6059,
      "å¤±": 6060,
      "çĬ": 6061,
      "ç¢": 6062,
      "çº¢": 6063,
      "è´£": 6064,
      "Ġbarrier": 6065,
      "Ġclo": 6066,
      "Ġtamam": 6067,
      "ama": 6068,
      "ING": 6069,
      "Ġfarmers": 6070,
      "Ġblog": 6071,
      "Ġstopp": 6072,
      "Ġmunicip": 6073,
      "preci": 6074,
      "Ġappreci": 6075,
      "larÄ±nda": 6076,
      "ycle": 6077,
      "Ġcycle": 6078,
      "Ġoy": 6079,
      "Ġoyun": 6080,
      "Ġpueden": 6081,
      "Ġgard": 6082,
      "Ġgarden": 6083,
      "oard": 6084,
      "Ġglass": 6085,
      "æķ°æį®": 6086,
      "hÃ¶r": 6087,
      "sh": 6088,
      "Ġfresh": 6089,
      "Ġwish": 6090,
      "shop": 6091,
      "hand": 6092,
      "ash": 6093,
      "Ġsystems": 6094,
      "ĠPress": 6095,
      "Ġplat": 6096,
      "Ġplatform": 6097,
      "Ġreform": 6098,
      "Ġrevolution": 6099,
      "ĠRevolution": 6100,
      "cover": 6101,
      "jection": 6102,
      "åĢĳ": 6103,
      "Ġslave": 6104,
      "Ġdirekt": 6105,
      "According": 6106,
      "AD": 6107,
      "Ġforces": 6108,
      "Ġdivid": 6109,
      "Ġcombination": 6110,
      "Ġforest": 6111,
      "ĠJah": 6112,
      "ĠJahre": 6113,
      "thetic": 6114,
      "Ġyak": 6115,
      "Ġhighest": 6116,
      "åį³": 6117,
      "åįĩ": 6118,
      "board": 6119,
      "Ġcomposition": 6120,
      "ĠÃ¼l": 6121,
      "Ġ1960": 6122,
      "Ġdespu": 6123,
      "ĠdespuÃ©": 6124,
      "Ġdespite": 6125,
      "ĠCo": 6126,
      "astic": 6127,
      "Ġplastic": 6128,
      "Ġdomestic": 6129,
      "Ġcircum": 6130,
      "Ġcircumstance": 6131,
      "Ġsondern": 6132,
      "Ġspring": 6133,
      "Ġtransmission": 6134,
      "adece": 6135,
      "çĽ®åīį": 6136,
      "Ġprohib": 6137,
      "Ġnegoci": 6138,
      "ibilities": 6139,
      "ĠRock": 6140,
      "çĮ": 6141,
      "iment": 6142,
      "sue": 6143,
      "Ġissue": 6144,
      "issue": 6145,
      "Ġtissue": 6146,
      "æĬķèµĦ": 6147,
      "ĠTod": 6148,
      "Ġnormally": 6149,
      "Ġoriginally": 6150,
      "Ġspiel": 6151,
      "ĠcompaÃ±": 6152,
      "Ġsurpris": 6153,
      "Ġmomento": 6154,
      "ĠRight": 6155,
      "Ġuses": 6156,
      "mann": 6157,
      "Ġmad": 6158,
      "Ġmatch": 6159,
      "Ġ1997": 6160,
      "ĠaÃ±o": 6161,
      "avy": 6162,
      "Ġheavy": 6163,
      "Ġterritory": 6164,
      "Ġbeautiful": 6165,
      "Ġkurul": 6166,
      "Ġcurric": 6167,
      "Ġgeograph": 6168,
      "ĠsÃ¶y": 6169,
      "Ġmaster": 6170,
      "ĠasÃŃ": 6171,
      "ĠNow": 6172,
      "Ġmass": 6173,
      "Ġexc": 6174,
      "ĠFahr": 6175,
      "Ġnovel": 6176,
      "å®ĺ": 6177,
      "è¿Ļæł·": 6178,
      "ĠEngine": 6179,
      "ĠyaklaÅŁ": 6180,
      "Ġchronic": 6181,
      "ĠUhr": 6182,
      "è¿ŀ": 6183,
      "Ġkein": 6184,
      "ĠmÃ¶ch": 6185,
      "ov": 6186,
      "Ġpun": 6187,
      "Ġstrik": 6188,
      "Ġrais": 6189,
      "ĠyÃ¶n": 6190,
      "ĠdÃ¶n": 6191,
      "ously": 6192,
      "idi": 6193,
      "ĠpaylaÅŁ": 6194,
      "Ġbaby": 6195,
      "ĠTim": 6196,
      "ĠTre": 6197,
      "ĠTw": 6198,
      "aith": 6199,
      "Ġfaith": 6200,
      "car": 6201,
      "aries": 6202,
      "Ġbroken": 6203,
      "Ġni": 6204,
      "ĠniÃ±os": 6205,
      "Ġayr": 6206,
      "Ġgrade": 6207,
      "Ġtrav": 6208,
      "ĠtravÃ©": 6209,
      "ç¬¬ä¸Ģ": 6210,
      "troduction": 6211,
      "éĴ±": 6212,
      "Ġtom": 6213,
      "liÄŁi": 6214,
      "Ġround": 6215,
      "çŃĸ": 6216,
      "æĶ¿åº": 6217,
      "æĶ¿åºľ": 6218,
      "Ġtree": 6219,
      "Ġtopic": 6220,
      "Ġstorage": 6221,
      "ĠAlex": 6222,
      "ĠAlexand": 6223,
      "ĠHand": 6224,
      "Ġactivid": 6225,
      "Ġdioxide": 6226,
      "ĠCongres": 6227,
      "æ¿": 6228,
      "æ©": 6229,
      "ĠÃĸz": 6230,
      "Ġvictor": 6231,
      "Ġvict": 6232,
      "Ġvictim": 6233,
      "ĠCap": 6234,
      "acknowled": 6235,
      "Ġmarried": 6236,
      "Ġnaturally": 6237,
      "500": 6238,
      "Ġleaders": 6239,
      "yond": 6240,
      "Ġbeyond": 6241,
      "ispiel": 6242,
      "Ġhealthy": 6243,
      "Ġmilk": 6244,
      "Ã¼ÄŁ": 6245,
      "Ġhareket": 6246,
      "Ġexactly": 6247,
      "Ġwidely": 6248,
      "rel": 6249,
      "related": 6250,
      "ĠCre": 6251,
      "cel": 6252,
      "ãĢĲ": 6253,
      "ãĢĳ": 6254,
      "yndrom": 6255,
      "ĠTest": 6256,
      "test": 6257,
      "Ġht": 6258,
      "Ġhtt": 6259,
      "Ġhttp": 6260,
      "è§Ĵ": 6261,
      "Ġelection": 6262,
      "Ġpreviously": 6263,
      "Ġclearly": 6264,
      "ĠdeÄŁerlendir": 6265,
      "Ġgetir": 6266,
      "Ġoperating": 6267,
      "éĩįè¦ģ": 6268,
      "Ġayn": 6269,
      "ĠaynÄ±": 6270,
      "nis": 6271,
      "Ġdollar": 6272,
      "Ġproduces": 6273,
      "cipl": 6274,
      "Ġdiscipl": 6275,
      "Ġrepl": 6276,
      "Ġreplac": 6277,
      "Ġacademic": 6278,
      "ahmen": 6279,
      "Ġinflam": 6280,
      "ĠEs": 6281,
      "ĠEspaÃ±": 6282,
      "ĠEven": 6283,
      "Ġtherap": 6284,
      "Ġtherapy": 6285,
      "æĢİä¹Ī": 6286,
      "Ġeating": 6287,
      "ellen": 6288,
      "tell": 6289,
      "tellig": 6290,
      "tellect": 6291,
      "telligence": 6292,
      "tellectual": 6293,
      "nual": 6294,
      "Ġannual": 6295,
      "ty": 6296,
      "overty": 6297,
      "ey": 6298,
      "alley": 6299,
      "Ġdiy": 6300,
      "ĠEuro": 6301,
      "ĠPort": 6302,
      "Ġscale": 6303,
      "ĠFacebook": 6304,
      "Ġcritic": 6305,
      "Ġpolitic": 6306,
      "Ġleaving": 6307,
      "Ġsegu": 6308,
      "Ġexam": 6309,
      "ĠbÃ¶lÃ¼m": 6310,
      "Ġtas": 6311,
      "Ġtask": 6312,
      "Ġtro": 6313,
      "Ġtroop": 6314,
      "Ġfacilit": 6315,
      "çĿ": 6316,
      "ä¾Ŀ": 6317,
      "ä¾ĭ": 6318,
      "Ġgeneration": 6319,
      "åĶ®": 6320,
      "Ġproductos": 6321,
      "ĠLos": 6322,
      "ĠTeach": 6323,
      "ĠTeil": 6324,
      "ĠdÄ±ÅŁ": 6325,
      "Ġdir": 6326,
      "ĠsÃ¶yled": 6327,
      "Ġengag": 6328,
      "Ġimpres": 6329,
      "Ġembar": 6330,
      "Ġembargo": 6331,
      "war": 6332,
      "wood": 6333,
      "Ġminor": 6334,
      "ĠHar": 6335,
      "Ġdamit": 6336,
      "itt": 6337,
      "Ġext": 6338,
      "Ġextent": 6339,
      "itch": 6340,
      "Ġswitch": 6341,
      "che": 6342,
      "aje": 6343,
      "Ġbaj": 6344,
      "Ġber": 6345,
      "Ġbereit": 6346,
      "Ġdry": 6347,
      "Ġdriver": 6348,
      "ĠCarol": 6349,
      "ĠCarolina": 6350,
      "Ġcriminal": 6351,
      "åºķ": 6352,
      "ENT": 6353,
      "ĠDas": 6354,
      "èŀ": 6355,
      "èŀį": 6356,
      "Ġrise": 6357,
      "ĠtaÅŁ": 6358,
      "atz": 6359,
      "Ġvez": 6360,
      ");": 6361,
      "ĠÃ¼": 6362,
      "ĠÃ¼cret": 6363,
      "ebilir": 6364,
      "ef": 6365,
      "Ġhabe": 6366,
      "ffair": 6367,
      "iva": 6368,
      "cred": 6369,
      "To": 6370,
      "Ġsteht": 6371,
      "Ġsil": 6372,
      "Ġcasino": 6373,
      "æ±Ł": 6374,
      "Ġhypothe": 6375,
      "ĠÃ¼lk": 6376,
      "Ġpark": 6377,
      "jur": 6378,
      "Ġinjur": 6379,
      "Ġfollowed": 6380,
      "paper": 6381,
      "ĠRussia": 6382,
      "æī¾": 6383,
      "bar": 6384,
      "'ve": 6385,
      "ictionary": 6386,
      "ĠÄ°ÅŁ": 6387,
      "Ġarchitect": 6388,
      "Ġ1970": 6389,
      "Ġcontrolled": 6390,
      "ĠkadÄ±n": 6391,
      "Ġquestions": 6392,
      "tolog": 6393,
      "ä¹°": 6394,
      "ç´ł": 6395,
      "Ġdomain": 6396,
      "Ġskills": 6397,
      "Ġusers": 6398,
      "Ġdiscovered": 6399,
      "abileceÄŁ": 6400,
      "halt": 6401,
      "ĠÃ¼st": 6402,
      "æĻº": 6403,
      "ĠExper": 6404,
      "Ġupper": 6405,
      "Ġapproved": 6406,
      "Ġdig": 6407,
      "Ġsenior": 6408,
      "From": 6409,
      "éĻ©": 6410,
      "Ġkontrol": 6411,
      "Ġincorpor": 6412,
      "Ġfix": 6413,
      "é»ĳ": 6414,
      "é»Ħ": 6415,
      "æĸ¹éĿ¢": 6416,
      "Ġsentence": 6417,
      "Ġpoverty": 6418,
      "Ġwol": 6419,
      "åĳ³": 6420,
      "Ġ1996": 6421,
      "ĠsaÄŁlay": 6422,
      "åģ¥": 6423,
      "ock": 6424,
      "æ¬¢": 6425,
      "fre": 6426,
      "åŃ©åŃĲ": 6427,
      "Ġdisappear": 6428,
      "cho": 6429,
      "Ġhecho": 6430,
      "ĠThus": 6431,
      "iÃ³": 6432,
      "Ġsetting": 6433,
      "Ġsettle": 6434,
      "75": 6435,
      "Ġflo": 6436,
      "Ġflex": 6437,
      "ĠToday": 6438,
      "å¾Į": 6439,
      "Ä±ÄŁÄ±nÄ±z": 6440,
      "ĠyapÄ±": 6441,
      "Ġheat": 6442,
      "åŃ¸": 6443,
      "ä»½": 6444,
      "ĠAra": 6445,
      "ĠArab": 6446,
      "ĠbaÅŁk": 6447,
      "ĠbaÅŁlad": 6448,
      "Ġchildhood": 6449,
      "Ġeat": 6450,
      "ĠsÄ±ra": 6451,
      "ĠiliÅŁk": 6452,
      "Ġcontinued": 6453,
      "ĠBank": 6454,
      "åĪĻ": 6455,
      "Ġconserv": 6456,
      "Ġrights": 6457,
      "Ġbulund": 6458,
      "Ġfacility": 6459,
      "Ġnun": 6460,
      "unuz": 6461,
      "æĸŃ": 6462,
      "ultimately": 6463,
      "ĠAcces": 6464,
      "Ġgreate": 6465,
      "Ġgreatest": 6466,
      "ĠEncy": 6467,
      "yon": 6468,
      "asyon": 6469,
      "gu": 6470,
      "Ġul": 6471,
      "ĠulaÅŁ": 6472,
      "Ġultra": 6473,
      "ĠademÃ¡": 6474,
      "Ġsurvive": 6475,
      "lerde": 6476,
      "Ġseguridad": 6477,
      "liament": 6478,
      "èīº": 6479,
      "Ġsensitive": 6480,
      "ĠBir": 6481,
      "quir": 6482,
      "Ġadequ": 6483,
      "çĨ": 6484,
      "Ġlesson": 6485,
      "±ä¹Ĳ": 6486,
      "å¨±ä¹Ĳ": 6487,
      "ĠStreet": 6488,
      "icide": 6489,
      "ĠgÃ¼Ã§": 6490,
      "Ã¼Ã§Ã¼k": 6491,
      "Ġencounter": 6492,
      "ĠEnergy": 6493,
      "ĠSecurity": 6494,
      "å°į": 6495,
      "Ġneither": 6496,
      "Ġphase": 6497,
      "Ġpush": 6498,
      "ĠPartner": 6499,
      "uring": 6500,
      "ĠDuring": 6501,
      "Ġfol": 6502,
      "olar": 6503,
      "Ġscholar": 6504,
      "fol": 6505,
      "æĩ": 6506,
      "âĢ¦âĢ¦": 6507,
      "ĠgrÃ¶ÃŁ": 6508,
      "ĠsaÄŁlÄ±k": 6509,
      "è¦ģæ±Ĥ": 6510,
      "Ġimproving": 6511,
      "Ġ1995": 6512,
      "Ġvaluable": 6513,
      "IL": 6514,
      "æµĭ": 6515,
      "ĠColumbia": 6516,
      "Ġdiferent": 6517,
      "Ġarrange": 6518,
      "Ġappe": 6519,
      "geben": 6520,
      "Ġsoon": 6521,
      "Ġhan": 6522,
      "è®¸": 6523,
      "Ġrefuge": 6524,
      "Ġdazu": 6525,
      "cope": 6526,
      "Ġsadece": 6527,
      "Ġspect": 6528,
      "Ġsi": 6529,
      "ç«ł": 6530,
      "izaciÃ³n": 6531,
      "Ġzwe": 6532,
      "Ġzwei": 6533,
      "ç¿": 6534,
      "Ġmedio": 6535,
      "Ġauthorities": 6536,
      "yecto": 6537,
      "Ġproyecto": 6538,
      "ĠFood": 6539,
      "Ġbra": 6540,
      "bra": 6541,
      "ram": 6542,
      "ÃŃfic": 6543,
      "ficiency": 6544,
      "çķĻ": 6545,
      "Ġsigu": 6546,
      "duÄŁ": 6547,
      "ĠJapanes": 6548,
      "ĠJapanese": 6549,
      "Ġ<": 6550,
      "Ġaz": 6551,
      "Ġneighborhood": 6552,
      "ĠAdministr": 6553,
      "Ġhacia": 6554,
      "Ġcaso": 6555,
      "Ġhatte": 6556,
      "æ½": 6557,
      "Amer": 6558,
      "Americ": 6559,
      "American": 6560,
      "ĠCompan": 6561,
      "ĠComputer": 6562,
      "Ġelectronic": 6563,
      "ĠpolÃŃtica": 6564,
      "Ġprevention": 6565,
      "ĠPower": 6566,
      "éĸĭ": 6567,
      "Ġsignificantly": 6568,
      "åıĮ": 6569,
      "Ġcrucial": 6570,
      "uerdo": 6571,
      "Ġacuerdo": 6572,
      "Ġsustainable": 6573,
      "åĽŃ": 6574,
      "ĠdÃ¶nÃ¼ÅŁ": 6575,
      "Ġdatos": 6576,
      "Ġett": 6577,
      "tal": 6578,
      "Ġtotal": 6579,
      "Ġspot": 6580,
      "Ġetmek": 6581,
      "Ġfill": 6582,
      "Ġthr": 6583,
      "anÄ±n": 6584,
      "æĮī": 6585,
      "stein": 6586,
      "æ©Ł": 6587,
      "Ġgravit": 6588,
      "Ġstra": 6589,
      "Ġstraight": 6590,
      "mocra": 6591,
      "mocracy": 6592,
      "Ġdriving": 6593,
      "Ġconstitution": 6594,
      "Ġtwice": 6595,
      "Ġvirtual": 6596,
      "ĠMode": 6597,
      "Ã¡ct": 6598,
      "Ġolmay": 6599,
      "Ġcalidad": 6600,
      "Ġdisturb": 6601,
      "Ġpossib": 6602,
      "çŁ³": 6603,
      "demÃ¡": 6604,
      "Ġcurricul": 6605,
      "Ġiki": 6606,
      "Ġkomm": 6607,
      "Ġtried": 6608,
      "htm": 6609,
      "Ġsurgery": 6610,
      "Ã¤nger": 6611,
      "siniz": 6612,
      "abilirsiniz": 6613,
      "ebilirsiniz": 6614,
      "iÄŁiniz": 6615,
      "ĠValley": 6616,
      "Ġasked": 6617,
      "Ġstarted": 6618,
      "very": 6619,
      "Ġgar": 6620,
      "Ġlibert": 6621,
      "Ġspecifically": 6622,
      "Ġdisaster": 6623,
      "lerinde": 6624,
      "meye": 6625,
      "Ġfemale": 6626,
      "Ġwrite": 6627,
      "Ġattribut": 6628,
      "ĠgÃ¶nder": 6629,
      "ĠPost": 6630,
      "Ġgrown": 6631,
      "Ġbrown": 6632,
      "ĠSpan": 6633,
      "ĠSpanish": 6634,
      "ĠÂ»": 6635,
      "ĠlÃŃ": 6636,
      "quÃŃ": 6637,
      "Ġposses": 6638,
      "Ġwonder": 6639,
      "Ġyield": 6640,
      "arse": 6641,
      "pec": 6642,
      "pecific": 6643,
      "Ġrelie": 6644,
      "Ġ35": 6645,
      "ĠApple": 6646,
      "Ġcard": 6647,
      "ipo": 6648,
      "Ġtipo": 6649,
      "Ġhayat": 6650,
      "æĿĳ": 6651,
      "Ġkat": 6652,
      "ĠkatÄ±l": 6653,
      "Ġlabel": 6654,
      "Ġwollen": 6655,
      "Ġmenos": 6656,
      "Ġdescend": 6657,
      "ĠÃ§e": 6658,
      "ĠÃ§eÅŁ": 6659,
      "ĠartÃŃcul": 6660,
      "Ġsend": 6661,
      "ildlife": 6662,
      "Ġcomment": 6663,
      "ĠGeschÃ¤ft": 6664,
      "ä¹ī": 6665,
      "Ġdesarrollo": 6666,
      "Ã³lo": 6667,
      "ĠsÃ³lo": 6668,
      "Ġsiz": 6669,
      "Ġsat": 6670,
      "Ġsatis": 6671,
      "Ġsatisf": 6672,
      "ĠbirÃ§ok": 6673,
      "Ġtaught": 6674,
      "Ġleader": 6675,
      "Ġleadership": 6676,
      "Ġleading": 6677,
      "icher": 6678,
      "icherheit": 6679,
      "Ġgesch": 6680,
      "Ġknew": 6681,
      "aint": 6682,
      "Ġbelong": 6683,
      "leÅŁtir": 6684,
      "well": 6685,
      "ĠEmp": 6686,
      "ĠEmpire": 6687,
      "Ġchanged": 6688,
      "Ġgraph": 6689,
      "ĠOf": 6690,
      "ĠsaÄŁlam": 6691,
      "Ġbeneficial": 6692,
      "ĠbÃ¶lge": 6693,
      "lerinin": 6694,
      "Ġ300": 6695,
      "Ġnom": 6696,
      "Ġnombre": 6697,
      "Ġinstruction": 6698,
      "Ġkazan": 6699,
      "ÃŃan": 6700,
      "Ġsuc": 6701,
      "Ġsum": 6702,
      "Ġsof": 6703,
      "Ġslight": 6704,
      "Ġhighlight": 6705,
      "Ġflight": 6706,
      "Ġslightly": 6707,
      "Ġmaximum": 6708,
      "atell": 6709,
      "atellite": 6710,
      "æĿİ": 6711,
      "Research": 6712,
      "Ġobl": 6713,
      "Ġoblig": 6714,
      "Ġiron": 6715,
      "ĠCommon": 6716,
      "ĠCommit": 6717,
      "ĠCommitte": 6718,
      "pon": 6719,
      "Ġoverall": 6720,
      "Ġdog": 6721,
      "Ġinfluenced": 6722,
      "33": 6723,
      "arian": 6724,
      "lag": 6725,
      "last": 6726,
      "lastname": 6727,
      "azla": 6728,
      "Ġfazla": 6729,
      "cles": 6730,
      "Ġmuscles": 6731,
      "ancia": 6732,
      "é¤Ĳ": 6733,
      "æĿĲ": 6734,
      "fecto": 6735,
      "Ġsucce": 6736,
      "ourney": 6737,
      "åŃ£": 6738,
      "åĵį": 6739,
      "å½±åĵį": 6740,
      "çĶµå½±": 6741,
      "amb": 6742,
      "ĠÂ©": 6743,
      "ĠÂ¡": 6744,
      "Ġlatter": 6745,
      "Ġbatter": 6746,
      "ux": 6747,
      "ĠArmy": 6748,
      "by": 6749,
      "bas": 6750,
      "based": 6751,
      "try": 6752,
      "Ġweak": 6753,
      "æĸ¹å¼ı": 6754,
      "Ġifade": 6755,
      "Ã¤ÃŁ": 6756,
      "Ġcategories": 6757,
      "æ£Ģ": 6758,
      "æ¸¯": 6759,
      "ĠUr": 6760,
      "çı¾": 6761,
      "avaÅŁ": 6762,
      "ĠAbout": 6763,
      "ĠCO": 6764,
      "Other": 6765,
      "empor": 6766,
      "Ġcontempor": 6767,
      "è¿ĻäºĽ": 6768,
      "Ġjourney": 6769,
      "ownload": 6770,
      "å¤§å®¶": 6771,
      "æ¿Ģ": 6772,
      "Ġbomb": 6773,
      "Ġbright": 6774,
      "Ġcopyright": 6775,
      "Ġball": 6776,
      "posit": 6777,
      "åĺ": 6778,
      "Ġrain": 6779,
      "Ġrace": 6780,
      "ĠBaÅŁkanÄ±": 6781,
      "cop": 6782,
      "cal": 6783,
      "stÃ¼tz": 6784,
      "Ġrat": 6785,
      "encias": 6786,
      "åĪĹ": 6787,
      "åĪĴ": 6788,
      "jekt": 6789,
      "ĠSpain": 6790,
      "ĠkullanÄ±cÄ±": 6791,
      "likle": 6792,
      "All": 6793,
      "ĠJack": 6794,
      "abilidad": 6795,
      "isi": 6796,
      "ias": 6797,
      "Ġoperation": 6798,
      "å®¤": 6799,
      "å®Ŀ": 6800,
      "ä¸ĢäºĽ": 6801,
      "Ġobjet": 6802,
      "Ġobjetivo": 6803,
      "Ġstreet": 6804,
      "Ġstres": 6805,
      "Ġstress": 6806,
      "Ġfactors": 6807,
      "ĠIII": 6808,
      "break": 6809,
      "æĸĩåĮĸ": 6810,
      "Ġexcellent": 6811,
      "éŃ": 6812,
      "Ġyapt": 6813,
      "Ġequivalent": 6814,
      "Ġgru": 6815,
      "Ġgrupo": 6816,
      "Ã®": 6817,
      "Ġeastern": 6818,
      "Ġment": 6819,
      "Ġmental": 6820,
      "Ġampl": 6821,
      "ĠGew": 6822,
      "Ġdate": 6823,
      "alog": 6824,
      "alar": 6825,
      "alt": 6826,
      "St": 6827,
      "Ġmerke": 6828,
      "Ġfiyat": 6829,
      "æĿ¿": 6830,
      "çĽĳ": 6831,
      "Ġreality": 6832,
      "æł¸": 6833,
      "html": 6834,
      "irket": 6835,
      "ĠÅŁirket": 6836,
      "Ġchain": 6837,
      "schlieÃŁ": 6838,
      "schen": 6839,
      "enschen": 6840,
      "ĠMenschen": 6841,
      "aten": 6842,
      "ĠDaten": 6843,
      "Ġfat": 6844,
      "atric": 6845,
      "Ġfib": 6846,
      "Ġtienen": 6847,
      "ĠDies": 6848,
      "reib": 6849,
      "res": 6850,
      "Ġquien": 6851,
      "zen": 6852,
      "Ġsyndrom": 6853,
      "ĠEntw": 6854,
      "ĠEntwick": 6855,
      "ä½Ĩæĺ¯": 6856,
      "lah": 6857,
      "ĠAllah": 6858,
      "halb": 6859,
      "ĠDes": 6860,
      "ĠDesign": 6861,
      "Ġrules": 6862,
      "Ġrule": 6863,
      "pir": 6864,
      "Ġdecir": 6865,
      "app": 6866,
      "lop": 6867,
      "clop": 6868,
      "ĠEncyclop": 6869,
      "éĢīæĭ": 6870,
      "éĢīæĭ©": 6871,
      "æĭį": 6872,
      "Ġintroduced": 6873,
      "Ġgarant": 6874,
      "ĠAsia": 6875,
      "ĠSuper": 6876,
      "ites": 6877,
      "è¯Ĩ": 6878,
      "word": 6879,
      "wick": 6880,
      "PA": 6881,
      "Ġconvert": 6882,
      "zeug": 6883,
      "Ġsnow": 6884,
      "Ġdidn": 6885,
      "åĵª": 6886,
      "èªª": 6887,
      "åª": 6888,
      "Ġmaterials": 6889,
      "Ġerfol": 6890,
      "åĿĢ": 6891,
      "çİ¯å¢ĥ": 6892,
      "Ġemer": 6893,
      "Ġemergency": 6894,
      "ĠBra": 6895,
      "Ġcra": 6896,
      "iembre": 6897,
      "produc": 6898,
      "Ġbah": 6899,
      "Ġstorm": 6900,
      "Ġagu": 6901,
      "Ãºmer": 6902,
      "ĠnÃºmer": 6903,
      "Ġpossibly": 6904,
      "Ġsave": 6905,
      "è´Ń": 6906,
      "ĠDer": 6907,
      "Ġrapidly": 6908,
      "38": 6909,
      "çıŃ": 6910,
      "reg": 6911,
      "Ġpurposes": 6912,
      "ĠsÃ¼r": 6913,
      "Ġsing": 6914,
      "Ġsingle": 6915,
      "Ġsab": 6916,
      "Ġlooking": 6917,
      "ĠkÄ±": 6918,
      "Ã¶ff": 6919,
      "ardÄ±mcÄ±": 6920,
      "åĲ§": 6921,
      "ĠgeliÅŁtir": 6922,
      "é£ŀ": 6923,
      "Ġuns": 6924,
      "Ġunser": 6925,
      "Ġunsere": 6926,
      "Ġopposite": 6927,
      "Ġexhibit": 6928,
      "ivision": 6929,
      "Ġsea": 6930,
      "Ġseen": 6931,
      "Ġpen": 6932,
      "ĠKur": 6933,
      "ä»ĭ": 6934,
      "æĻ®": 6935,
      "æĻļ": 6936,
      "Â®": 6937,
      "Ġ150": 6938,
      "ä¸įæĺ¯": 6939,
      "ä¸»è¦ģ": 6940,
      "teil": 6941,
      "prech": 6942,
      "æķħ": 6943,
      "ĠFurther": 6944,
      "bir": 6945,
      "Ġveh": 6946,
      "Ġvehic": 6947,
      "Ġvehicles": 6948,
      "Ġvehicle": 6949,
      "Ġorganic": 6950,
      "ĠaÅŁ": 6951,
      "å¦Ĥä½ķ": 6952,
      "fra": 6953,
      "cure": 6954,
      "Ġsecure": 6955,
      "tection": 6956,
      "ĠPhoto": 6957,
      "cident": 6958,
      "åİĨ": 6959,
      "48": 6960,
      "ç§ĳæĬĢ": 6961,
      "iden": 6962,
      "ĠprÃ¡ct": 6963,
      "abric": 6964,
      "Ġfabric": 6965,
      "Ġful": 6966,
      "Ġfully": 6967,
      "gleich": 6968,
      "ĠGeorg": 6969,
      "ĠhiÃ§bir": 6970,
      "ciendo": 6971,
      "ĠCanadian": 6972,
      "Ġisland": 6973,
      "ĠDay": 6974,
      "trag": 6975,
      "Ġobservations": 6976,
      "Ġbehaviour": 6977,
      "Ġsuspect": 6978,
      "Ġrestriction": 6979,
      "tension": 6980,
      "Ġark": 6981,
      "Ġarkad": 6982,
      "ĠarkadaÅŁ": 6983,
      "ĠRead": 6984,
      "Ġinternacional": 6985,
      "antes": 6986,
      "inci": 6987,
      "cio": 6988,
      "ero": 6989,
      "Ġalgo": 6990,
      "erved": 6991,
      "Ġinternal": 6992,
      "Ġedition": 6993,
      "ĠCompany": 6994,
      "Ġsort": 6995,
      "Ġtemple": 6996,
      "ĠKom": 6997,
      "ĠHaus": 6998,
      "Ġmedium": 6999,
      "ĠEdward": 7000,
      "Ġ*": 7001,
      "Ġpoison": 7002,
      "Ġtrust": 7003,
      "èĪĩ": 7004,
      "Ġgem": 7005,
      "Ġoffice": 7006,
      "athematic": 7007,
      "Ġmathematic": 7008,
      "Ġmant": 7009,
      "ants": 7010,
      "çł´": 7011,
      "åĪĩ": 7012,
      "Ġnearby": 7013,
      "åĳ¢": 7014,
      "Ġ189": 7015,
      "Ġ188": 7016,
      "Ġprovides": 7017,
      "ĭåıĭ": 7018,
      "æľĭåıĭ": 7019,
      "noun": 7020,
      "Ġannoun": 7021,
      "Ġannounced": 7022,
      "Ġdistribut": 7023,
      "ĠBel": 7024,
      "ç®Ģ": 7025,
      "Ġidentity": 7026,
      "Ġign": 7027,
      "Ġspacecraft": 7028,
      "å¤Ł": 7029,
      "åĲĮæĹ¶": 7030,
      "acht": 7031,
      "Ġcreation": 7032,
      "Ġcompetition": 7033,
      "Ġ>": 7034,
      "graf": 7035,
      "ensive": 7036,
      "Ġexpensive": 7037,
      "Ġevid": 7038,
      "ĠeÅŁ": 7039,
      "Ġec": 7040,
      "æ¯į": 7041,
      "Ġprove": 7042,
      "more": 7043,
      "Ġbecoming": 7044,
      "Ġ1994": 7045,
      "ç¯": 7046,
      "Ġstatement": 7047,
      "Ġrespective": 7048,
      "ito": 7049,
      "iatric": 7050,
      "Ġrepresentative": 7051,
      "Ġindicate": 7052,
      "alarÄ±": 7053,
      "Ġpues": 7054,
      "Ġpromot": 7055,
      "ĠObama": 7056,
      "Ar": 7057,
      "Ġolur": 7058,
      "Ġfloor": 7059,
      "æŃ»": 7060,
      "è½»": 7061,
      "åħ»": 7062,
      "entlich": 7063,
      "Ġdent": 7064,
      "Ġdentro": 7065,
      "æĸ¼": 7066,
      "diction": 7067,
      "Ġ2020": 7068,
      "çĽ¸åħ³": 7069,
      "Ġjoint": 7070,
      "ague": 7071,
      "ester": 7072,
      "ektÃ¶r": 7073,
      "Ġconsegu": 7074,
      "çĽĬ": 7075,
      "ãģ": 7076,
      "Ġtrying": 7077,
      "Ġfeeling": 7078,
      "gebnis": 7079,
      "Ġmilyon": 7080,
      "Ġremark": 7081,
      "Ã©r": 7082,
      "åĨľ": 7083,
      "å¤ľ": 7084,
      "ultiv": 7085,
      "Ġcultiv": 7086,
      "ĠyaptÄ±ÄŁÄ±": 7087,
      "Ġanyone": 7088,
      "éĺ¿": 7089,
      "éĺ³": 7090,
      "ashion": 7091,
      "çİ°åľ¨": 7092,
      "Ġoxy": 7093,
      "Ġoxygen": 7094,
      "ĠÃĦ": 7095,
      "Ã¼nde": 7096,
      "ĠyÄ±lÄ±nda": 7097,
      "Ġprotest": 7098,
      "Ġproto": 7099,
      "Ġprotocol": 7100,
      "quel": 7101,
      "Ġdijo": 7102,
      "Ġdin": 7103,
      "Ġded": 7104,
      "Ġdedic": 7105,
      "Ġdynamic": 7106,
      "ĠBeispiel": 7107,
      "Ġfilter": 7108,
      "Ġlived": 7109,
      "Ġlives": 7110,
      "Ġappearance": 7111,
      "âĨĳ": 7112,
      "Ġmargin": 7113,
      "åĵģçīĮ": 7114,
      "Ġmagn": 7115,
      "Ġgemein": 7116,
      "Ġminimum": 7117,
      "Ġolabilir": 7118,
      "01": 7119,
      "Ġ31": 7120,
      "05": 7121,
      "ç¶ĵ": 7122,
      "lara": 7123,
      "Ġmoral": 7124,
      "ĠSouthern": 7125,
      "Ġhistoria": 7126,
      "ĠOp": 7127,
      "tock": 7128,
      "schutz": 7129,
      "xford": 7130,
      "è¯Ħ": 7131,
      "ĠSuch": 7132,
      "ĠBar": 7133,
      "Ġmanif": 7134,
      "Ġmanifest": 7135,
      "ĠOver": 7136,
      "ĠOxford": 7137,
      "Ġobservation": 7138,
      "Ġstatistic": 7139,
      "aki": 7140,
      "daki": 7141,
      "Ġi": 7142,
      "ife": 7143,
      "ĠLife": 7144,
      "Ġalgunos": 7145,
      "ĠZusammen": 7146,
      "vis": 7147,
      "Ġadvis": 7148,
      "Ġstates": 7149,
      "Ġolduk": 7150,
      "dÄ±ÄŁÄ±": 7151,
      "å¿µ": 7152,
      "Ġzamand": 7153,
      "é»ŀ": 7154,
      "Ġagreement": 7155,
      "åĨħå®¹": 7156,
      "Ġsido": 7157,
      "ĠOnce": 7158,
      "Ġreserved": 7159,
      "ĠEvery": 7160,
      "Ġmedications": 7161,
      "ĠwÃ¤hrend": 7162,
      "Ġwound": 7163,
      "ray": 7164,
      "Ġunknown": 7165,
      "å¾ĭ": 7166,
      "åİĭ": 7167,
      "vo": 7168,
      "Ġmanufacture": 7169,
      "Ġchann": 7170,
      "Ġchannel": 7171,
      "Ġrepeated": 7172,
      "ago": 7173,
      "Ġvo": 7174,
      "Ġvoice": 7175,
      "Ġrestric": 7176,
      "ĠWelt": 7177,
      "åŁ¹": 7178,
      "Ġeast": 7179,
      "ypt": 7180,
      "gypt": 7181,
      "ĠEgypt": 7182,
      "clu": 7183,
      "Ġimmediate": 7184,
      "Ġaccurate": 7185,
      "Ġaccuracy": 7186,
      "Ġmere": 7187,
      "ĠThrough": 7188,
      "ĠEnvironmental": 7189,
      "éĸĵ": 7190,
      "ĠaÃ§": 7191,
      "uÃ§": 7192,
      "azÄ±": 7193,
      "ĠbazÄ±": 7194,
      "Ġbl": 7195,
      "eg": 7196,
      "Ġilleg": 7197,
      "ec": 7198,
      "Ġparte": 7199,
      "ĠOffice": 7200,
      "ase": 7201,
      "isease": 7202,
      "lease": 7203,
      "ĠTeam": 7204,
      "è®°èĢħ": 7205,
      "ĠVide": 7206,
      "ĠInstead": 7207,
      "ĠPlat": 7208,
      "ç»´": 7209,
      "Ġinfra": 7210,
      "Ġinfrastructure": 7211,
      "Ġchanging": 7212,
      "lung": 7213,
      "ĠpÃºbl": 7214,
      "ĠPhy": 7215,
      "ĠPhilosoph": 7216,
      "ya": 7217,
      "Ġveya": 7218,
      "Ġpa": 7219,
      "ĠpaÃŃ": 7220,
      "ĠpaÃŃs": 7221,
      "una": 7222,
      "unter": 7223,
      "Ã¼ÅŁter": 7224,
      "Ġevents": 7225,
      "Ġcomments": 7226,
      "éĢģ": 7227,
      "ĠÃ©l": 7228,
      "49": 7229,
      "39": 7230,
      "Ġactiv": 7231,
      "ault": 7232,
      "Ġfacult": 7233,
      "ç·": 7234,
      "åº·": 7235,
      "åº§": 7236,
      "åģ¥åº·": 7237,
      "habit": 7238,
      "Ġaccessible": 7239,
      "09": 7240,
      "éĻį": 7241,
      "Ġsem": 7242,
      "Ġgest": 7243,
      "çªģ": 7244,
      "Ġrecognition": 7245,
      "Ġwon": 7246,
      "Ġnuevo": 7247,
      "ogen": 7248,
      "Ġpound": 7249,
      "Ġfinanci": 7250,
      "Ġsollte": 7251,
      "Ġtener": 7252,
      "cture": 7253,
      "åħ¶ä»ĸ": 7254,
      "Ġpermanent": 7255,
      "Ġjuego": 7256,
      "Ġneu": 7257,
      "Ġweitere": 7258,
      "Ġgett": 7259,
      "Ġgetting": 7260,
      "Ġpaid": 7261,
      "Ġpump": 7262,
      "Ġpair": 7263,
      "Ġjudge": 7264,
      "yl": 7265,
      "Ġrough": 7266,
      "Ġpasado": 7267,
      "Ġestado": 7268,
      "Ġfl": 7269,
      "ĠCl": 7270,
      "ĠClimate": 7271,
      "Ġbal": 7272,
      "Ġbalance": 7273,
      "Ġbin": 7274,
      "Ġband": 7275,
      "ĠbÄ±ra": 7276,
      "Ġcontinent": 7277,
      "åį¡": 7278,
      "ç¬ĳ": 7279,
      "Ġedge": 7280,
      "ä¸ĭè½½": 7281,
      "mework": 7282,
      "Ġframework": 7283,
      "lavery": 7284,
      "Ġsupplies": 7285,
      "Ġtip": 7286,
      "Ġvalid": 7287,
      "Ġapparently": 7288,
      "Ġricht": 7289,
      "richt": 7290,
      "rong": 7291,
      "Ġwrong": 7292,
      "ientra": 7293,
      "Ġmientra": 7294,
      "èŃ¦": 7295,
      "ĠoldukÃ§": 7296,
      "Ġindependence": 7297,
      "udience": 7298,
      "ĠseÃ±": 7299,
      "ĠUSA": 7300,
      "Ġmerc": 7301,
      "Ġpoly": 7302,
      "ĠbÃ¼tÃ¼n": 7303,
      "Ġgender": 7304,
      "ayÄ±n": 7305,
      "ĠYoung": 7306,
      "è¡Ģ": 7307,
      "Ġ45": 7308,
      "ĠSeit": 7309,
      "Ġbiz": 7310,
      "ĠgehÃ¶r": 7311,
      "åĽ¾çīĩ": 7312,
      "ç¼ĸ": 7313,
      "That": 7314,
      "Ġdiffer": 7315,
      "æ¸©": 7316,
      "Ġletz": 7317,
      "éĤĦ": 7318,
      "è¼": 7319,
      "Ġcast": 7320,
      "iotic": 7321,
      "Ġantibiotic": 7322,
      "ili": 7323,
      "ileri": 7324,
      "å±ħ": 7325,
      "Ġbad": 7326,
      "road": 7327,
      "Ġolmad": 7328,
      "Ùİ": 7329,
      "athe": 7330,
      "Ġcolum": 7331,
      "Ġcolumn": 7332,
      "ĠpÃºblico": 7333,
      "preme": 7334,
      "control": 7335,
      "ĠDisease": 7336,
      "Ġkids": 7337,
      "ĠGold": 7338,
      "è¯Ń": 7339,
      "08": 7340,
      "ĠÂ·": 7341,
      "Ġvalor": 7342,
      "Ä±dÄ±r": 7343,
      "ĠÃ¼zerinden": 7344,
      "ĠÃ¼zerine": 7345,
      "Ġcry": 7346,
      "Ġdrought": 7347,
      "Ġdamag": 7348,
      "Ġdiscrimination": 7349,
      "phere": 7350,
      "èĹ": 7351,
      "Ġsituations": 7352,
      "Ġdepartment": 7353,
      "ĠÃ§ev": 7354,
      "åĽ´": 7355,
      "å·´": 7356,
      "åį´": 7357,
      "tur": 7358,
      "ĠoluÅŁtur": 7359,
      "uÅŁtur": 7360,
      "Ġeben": 7361,
      "Ã¤ng": 7362,
      "Ġsalud": 7363,
      "ĠThose": 7364,
      "æ±½": 7365,
      "Ġopposition": 7366,
      "Ġcand": 7367,
      "Ġcandid": 7368,
      "Ġcab": 7369,
      "Ġmodified": 7370,
      "Ġpick": 7371,
      "gesch": 7372,
      "abilecek": 7373,
      "Ġ1992": 7374,
      "Ġ1993": 7375,
      "Ġ1991": 7376,
      "udden": 7377,
      "ĠJud": 7378,
      "ĠJes": 7379,
      "ĠJesus": 7380,
      "Ġmercado": 7381,
      "use": 7382,
      "Be": 7383,
      "Becaus": 7384,
      "fe": 7385,
      "Ġwife": 7386,
      "fÃ¼": 7387,
      "fÃ¼g": 7388,
      "Ġplease": 7389,
      "Ġheight": 7390,
      "Ġcreature": 7391,
      "ĠNature": 7392,
      "Ġsmoke": 7393,
      "Ġsmok": 7394,
      "IR": 7395,
      "rich": 7396,
      "ç¶²": 7397,
      "thodox": 7398,
      "ĠMethod": 7399,
      "udio": 7400,
      "ĠYear": 7401,
      "ecution": 7402,
      "Ġjun": 7403,
      "ierte": 7404,
      "Ġdramatic": 7405,
      "åįĬ": 7406,
      "ĠMaterial": 7407,
      "Ã¼nÃ¼": 7408,
      "ĠyaÅŁam": 7409,
      "Ġ2017": 7410,
      "Ġ2018": 7411,
      "Ġ2016": 7412,
      "Ġ2015": 7413,
      "Ġ2014": 7414,
      "37": 7415,
      "Ġexplic": 7416,
      "Ġpal": 7417,
      "Ġabs": 7418,
      "Ġabsol": 7419,
      "Ġabsolute": 7420,
      "Ġabsor": 7421,
      "Ġabuse": 7422,
      "äºĴ": 7423,
      "novation": 7424,
      "Ġallerg": 7425,
      "indeki": 7426,
      "cripture": 7427,
      "Ġmixture": 7428,
      "ĠDivision": 7429,
      "what": 7430,
      "Ġsomewhat": 7431,
      "atically": 7432,
      "stellung": 7433,
      "elle": 7434,
      "Ġtit": 7435,
      "Ġtitle": 7436,
      "Ġtal": 7437,
      "Ġtur": 7438,
      "Ġrecur": 7439,
      "Ġwait": 7440,
      "Ġled": 7441,
      "Ġclim": 7442,
      "Ġdim": 7443,
      "Ġvolunt": 7444,
      "ĠBay": 7445,
      "ube": 7446,
      "åľŁ": 7447,
      "ĠgÃ¶rÃ¼l": 7448,
      "ĠEach": 7449,
      "ĠEastern": 7450,
      "Ġduy": 7451,
      "Ġreserv": 7452,
      "ĠespaÃ±": 7453,
      "tended": 7454,
      "Ġextract": 7455,
      "Ġpull": 7456,
      "Ġpan": 7457,
      "Ġpanel": 7458,
      "aban": 7459,
      "Ġsan": 7460,
      "Ġsport": 7461,
      "Ġsudden": 7462,
      "van": 7463,
      "ylvan": 7464,
      "ylvania": 7465,
      "va": 7466,
      "ĠgÃ¶rev": 7467,
      "ä»ħ": 7468,
      "34": 7469,
      "emb": 7470,
      "embly": 7471,
      "ĠWoch": 7472,
      "ĠStrateg": 7473,
      "Ġfeedback": 7474,
      "Ġestr": 7475,
      "äº¿": 7476,
      "Ġstrain": 7477,
      "iÄŁimiz": 7478,
      "çŁŃ": 7479,
      "ĠSte": 7480,
      "å¸Į": 7481,
      "å¸ĮæľĽ": 7482,
      "Ġvolume": 7483,
      "Ġscen": 7484,
      "Ġtransition": 7485,
      "lash": 7486,
      "ĠmÃ¡xim": 7487,
      "Ã³xim": 7488,
      "ĠprÃ³xim": 7489,
      "Ġterci": 7490,
      "Ġzweit": 7491,
      "Ġtour": 7492,
      "Ġcolour": 7493,
      "Ġearthqu": 7494,
      "ĠserÃ¡": 7495,
      "Ġyol": 7496,
      "hol": 7497,
      "Ġyellow": 7498,
      "Ä±ÄŁÄ±nda": 7499,
      "Ġmerkez": 7500,
      "ildir": 7501,
      "ĠdeÄŁildir": 7502,
      "Ġteachers": 7503,
      "ĠlÃŃne": 7504,
      "ĠBoard": 7505,
      "Ġlocations": 7506,
      "Ġvolcan": 7507,
      "Ġaccompl": 7508,
      "gar": 7509,
      "Ġnar": 7510,
      "Ġnarrow": 7511,
      "rupt": 7512,
      "icago": 7513,
      "ĠChicago": 7514,
      "ĠChange": 7515,
      "Ġperhaps": 7516,
      "Ġforward": 7517,
      "Ġproperly": 7518,
      "hapter": 7519,
      "Ġshap": 7520,
      "Ġsac": 7521,
      "OL": 7522,
      "OT": 7523,
      "ĠMill": 7524,
      "ç§¯": 7525,
      "Ġsmooth": 7526,
      "astro": 7527,
      "ishop": 7528,
      "Ġuzun": 7529,
      "ĠMountain": 7530,
      "Ġace": 7531,
      "Ġod": 7532,
      "ody": 7533,
      "griff": 7534,
      "HE": 7535,
      "ĠTHE": 7536,
      "Ġcaracter": 7537,
      "æĺ¥": 7538,
      "å½ķ": 7539,
      "Ġsmaller": 7540,
      "éĿ©": 7541,
      "65": 7542,
      "ocument": 7543,
      "Ġindicates": 7544,
      "Ġstehen": 7545,
      "æ±½è½¦": 7546,
      "Ġjug": 7547,
      "Ġcircu": 7548,
      "Ġcircuit": 7549,
      "ĠwÃ¼r": 7550,
      "erek": 7551,
      "Ġnerve": 7552,
      "Ġspent": 7553,
      "Ġcurriculum": 7554,
      "otherap": 7555,
      "Ġpassage": 7556,
      "Ġreserve": 7557,
      "çĬ¶": 7558,
      "Ġerhalten": 7559,
      "Ġbill": 7560,
      "Ġverschieden": 7561,
      "sten": 7562,
      "Ġbiology": 7563,
      "Ġworship": 7564,
      "ĠsonuÃ§": 7565,
      "æĶ¿çŃĸ": 7566,
      "Ġliver": 7567,
      "leg": 7568,
      "yle": 7569,
      "Ġstyle": 7570,
      "Ġelev": 7571,
      "ĠAnother": 7572,
      "Another": 7573,
      "DA": 7574,
      "Ä±rÄ±m": 7575,
      "å¥ĩ": 7576,
      "åŁİå¸Ĥ": 7577,
      "ambridge": 7578,
      "Ġepide": 7579,
      "ĠCongress": 7580,
      "Ġhydrogen": 7581,
      "rogen": 7582,
      "åĲĹ": 7583,
      "å¿Ĺ": 7584,
      "ç½Ĺ": 7585,
      "å¥ĸ": 7586,
      "ĠNatural": 7587,
      "Ġratio": 7588,
      "Ġtekn": 7589,
      "Ġteknoloj": 7590,
      "Ġinvestment": 7591,
      "Ph": 7592,
      "Ġqual": 7593,
      "ĠItal": 7594,
      "ĠItalian": 7595,
      "ĠGlobal": 7596,
      "æĹ¥æľ¬": 7597,
      "omen": 7598,
      "ĠWomen": 7599,
      "enomen": 7600,
      "Ġphenomen": 7601,
      "Ġneeds": 7602,
      "Ġrot": 7603,
      "åŃ¦ä¹ł": 7604,
      "ĠLake": 7605,
      "grund": 7606,
      "Ġkilled": 7607,
      "ĠKunden": 7608,
      "ĠUK": 7609,
      "åı¤": 7610,
      "æīĭæľº": 7611,
      "key": 7612,
      "ĠGeorgia": 7613,
      "Ġphone": 7614,
      "ĠPublish": 7615,
      "ĠespaÃ±ol": 7616,
      "Ġbahis": 7617,
      "ingdom": 7618,
      "æīĢæľī": 7619,
      "åŃ¦çĶŁ": 7620,
      "ĠOrganization": 7621,
      "æĶ¯æĮģ": 7622,
      "Ġservicios": 7623,
      "Ġconstru": 7624,
      "ĠDirector": 7625,
      "ereich": 7626,
      "éĵ¶": 7627,
      "ĠRadi": 7628,
      "agen": 7629,
      "ĠPrevention": 7630,
      "ĠHospital": 7631,
      "nde": 7632,
      "Ġaffected": 7633,
      "Ġdefined": 7634,
      "07": 7635,
      "04": 7636,
      "06": 7637,
      "03": 7638,
      "Ġ185": 7639,
      "Ġdiferentes": 7640,
      "Ġprocesses": 7641,
      "Ġclothing": 7642,
      "Ġbietet": 7643,
      "ĠClub": 7644,
      "med": 7645,
      "Ġreleased": 7646,
      "Ġrelease": 7647,
      "åħħ": 7648,
      "ĠCor": 7649,
      "ĠCha": 7650,
      "44": 7651,
      "aÅŁtÄ±r": 7652,
      "iyaret": 7653,
      "theless": 7654,
      "Ġaccompan": 7655,
      "Ġgobierno": 7656,
      "Ġtercih": 7657,
      "Ġparameter": 7658,
      "Ġdiameter": 7659,
      "Ġimmune": 7660,
      "Ġnarr": 7661,
      "mayÄ±": 7662,
      "ĠKar": 7663,
      "Ġkil": 7664,
      "No": 7665,
      "éĥ½æĺ¯": 7666,
      "Ġtrip": 7667,
      "Ġpp": 7668,
      "Ġcomput": 7669,
      "Ġterms": 7670,
      "Ġexternal": 7671,
      "Ġfreed": 7672,
      "Ġfreedom": 7673,
      "phone": 7674,
      "aign": 7675,
      "Ġcampaign": 7676,
      "Ġignor": 7677,
      "ĠdolayÄ±": 7678,
      "çļ®": 7679,
      "vin": 7680,
      "Ġabsorb": 7681,
      "Ġperceive": 7682,
      "Ġarbeit": 7683,
      "Ġadministration": 7684,
      "èĥ½å¤Ł": 7685,
      "Ġflat": 7686,
      "åģľ": 7687,
      "åģĩ": 7688,
      "Ġdiagnos": 7689,
      "Ġdiagnosis": 7690,
      "Ġorganis": 7691,
      "ĠInvest": 7692,
      "ĠCamp": 7693,
      "ĠClass": 7694,
      "Ġcategory": 7695,
      "Ġtheory": 7696,
      "IDS": 7697,
      "Ġestaba": 7698,
      "body": 7699,
      "bit": 7700,
      "Ġorbit": 7701,
      "Ġimper": 7702,
      "31": 7703,
      "02": 7704,
      "2010": 7705,
      "istance": 7706,
      "Ġziyaret": 7707,
      "åĲ¬": 7708,
      "Ġclust": 7709,
      "å¯Į": 7710,
      "ĠiÃ§eris": 7711,
      "ĠiÃ§erisinde": 7712,
      "ĠClin": 7713,
      "Ġconducted": 7714,
      "ãĢĤâĢĿ": 7715,
      "32": 7716,
      "Ġguard": 7717,
      "Ġhistorian": 7718,
      "ĠkÃ¶": 7719,
      "ĠrelaciÃ³n": 7720,
      "Ġrelacion": 7721,
      "è¿ĺæĺ¯": 7722,
      "Ġexcessive": 7723,
      "Ġpersist": 7724,
      "ĠpersÃ¶n": 7725,
      "istry": 7726,
      "Ġchemistry": 7727,
      "åĸĦ": 7728,
      "Ġartific": 7729,
      "Ġartificial": 7730,
      "Ġcommitte": 7731,
      "Ġsurrounding": 7732,
      "Ġload": 7733,
      "è¿ľ": 7734,
      "Ġwichtig": 7735,
      "Ġhoy": 7736,
      "ived": 7737,
      "Ġderived": 7738,
      "udd": 7739,
      "ĠBudd": 7740,
      "Ġproposed": 7741,
      "RE": 7742,
      "ĠÄ°n": 7743,
      "ĠÄ°l": 7744,
      "åĩ»": 7745,
      "Ġprofit": 7746,
      "nÄ±n": 7747,
      "Ġethn": 7748,
      "Ġethnic": 7749,
      "iciones": 7750,
      "Ġcondiciones": 7751,
      "ĠPrince": 7752,
      "ceiving": 7753,
      "Ġdoubt": 7754,
      "Ġven": 7755,
      "å¾ħ": 7756,
      "asÄ±l": 7757,
      "ĠnasÄ±l": 7758,
      "Ä±lan": 7759,
      "Ä±lmasÄ±": 7760,
      "ĠSan": 7761,
      "ĠStra": 7762,
      "ĠSpr": 7763,
      "prof": 7764,
      "availability": 7765,
      "gov": 7766,
      "Ġekonom": 7767,
      "ĠalÄ±n": 7768,
      "ĠyakÄ±n": 7769,
      "ĠunterstÃ¼tz": 7770,
      "ĠyapÄ±lan": 7771,
      "RI": 7772,
      "Ġmobil": 7773,
      "mitted": 7774,
      "mittel": 7775,
      "äº²": 7776,
      "äº«": 7777,
      "äºĳ": 7778,
      "é«": 7779,
      "é«Ķ": 7780,
      "Â«": 7781,
      "Ġgemacht": 7782,
      "ĠaraÅŁtÄ±r": 7783,
      "Ġdied": 7784,
      "ĠConvention": 7785,
      "ĠCont": 7786,
      "ploy": 7787,
      "employ": 7788,
      "ĠbaÄŁlÄ±": 7789,
      "press": 7790,
      "ĠsituaciÃ³n": 7791,
      "Ġverwend": 7792,
      "åĸľæ¬¢": 7793,
      "Ġsiguiente": 7794,
      "ruption": 7795,
      "Ġprescrib": 7796,
      "Ġpreserve": 7797,
      "Ġsorun": 7798,
      "ĠProtection": 7799,
      "Ġjustice": 7800,
      "æ¦": 7801,
      "æ¾": 7802,
      "ä¸¾": 7803,
      "æĽ¾": 7804,
      "ĠPrim": 7805,
      "Ġvote": 7806,
      "èĢĮä¸Ķ": 7807,
      "æŃ¢": 7808,
      "Ġexport": 7809,
      "Ġextension": 7810,
      "Ġexclusive": 7811,
      "Ġwarning": 7812,
      "Ġrad": 7813,
      "Ã¼rlich": 7814,
      "atÃ¼rlich": 7815,
      "ĠnatÃ¼rlich": 7816,
      "ä¹Łæĺ¯": 7817,
      "å¯Ĩ": 7818,
      "esterol": 7819,
      "olesterol": 7820,
      "Ġcholesterol": 7821,
      "Ġresol": 7822,
      "Ġdefense": 7823,
      "aron": 7824,
      "ä¸Ńå¿ĥ": 7825,
      "schaften": 7826,
      "ĠCommunity": 7827,
      "ĠÄ°st": 7828,
      "éĢĤ": 7829,
      "å±Ĥ": 7830,
      "å±ŀ": 7831,
      "åĿĩ": 7832,
      "ST": 7833,
      "Note": 7834,
      "Ġblind": 7835,
      "ĠTestament": 7836,
      "ĠFurthermore": 7837,
      "çºª": 7838,
      "Ġkarar": 7839,
      "vers": 7840,
      "rovers": 7841,
      "Ġcontrovers": 7842,
      "ivers": 7843,
      "nivers": 7844,
      "ĠÃľnivers": 7845,
      "Ġnunca": 7846,
      "Ġvoc": 7847,
      "Ġvard": 7848,
      "ĠvardÄ±r": 7849,
      "Ġincreasingly": 7850,
      "Ġclosely": 7851,
      "Ġvac": 7852,
      "lacak": 7853,
      "Ġinclu": 7854,
      "Ġarrived": 7855,
      "ulated": 7856,
      "Ġesper": 7857,
      "Ġesto": 7858,
      "ĠParliament": 7859,
      "Ġallowed": 7860,
      "Ġbone": 7861,
      "Ġdisput": 7862,
      "AP": 7863,
      "uciones": 7864,
      "Ġfamilia": 7865,
      "Ġtelef": 7866,
      "ball": 7867,
      "Ġdeb": 7868,
      "Ġdebate": 7869,
      "Ġverb": 7870,
      "trieb": 7871,
      "çķ¥": 7872,
      "ä¸¥": 7873,
      "Ġuniversity": 7874,
      "top": 7875,
      "ĠMac": 7876,
      "immer": 7877,
      "ĠGeschicht": 7878,
      "These": 7879,
      "ĠUse": 7880,
      "sehen": 7881,
      "Ġdecided": 7882,
      "88": 7883,
      "Ġearliest": 7884,
      "ĠBer": 7885,
      "ĠBerlin": 7886,
      "Ġdeclin": 7887,
      "ĠLearning": 7888,
      "ĠAdministration": 7889,
      "ĠIch": 7890,
      "çĩ": 7891,
      "Ġvast": 7892,
      "During": 7893,
      "ĠMitarbeit": 7894,
      "ĠAncak": 7895,
      "Ġcert": 7896,
      "Ġcertific": 7897,
      "Ġintended": 7898,
      "Ġejemplo": 7899,
      "Ġinfect": 7900,
      "stic": 7901,
      "åįı": 7902,
      "gest": 7903,
      "Ġbiggest": 7904,
      "ĠCommittee": 7905,
      "Ã¤ll": 7906,
      "ĠTwo": 7907,
      "Ġsubse": 7908,
      "Ġsubsequ": 7909,
      "ĠUnder": 7910,
      "Ġexpress": 7911,
      "Ġshock": 7912,
      "Ġhunt": 7913,
      "Ġhop": 7914,
      "ĠpolÃŃtic": 7915,
      "grad": 7916,
      "Ġforma": 7917,
      "Ġcouncil": 7918,
      "Ġmyster": 7919,
      "Ġunterschied": 7920,
      "Ġanterior": 7921,
      "ĠTher": 7922,
      "Ġmagnitude": 7923,
      "ĠÃ§eÅŁit": 7924,
      "éĥ¨åĪĨ": 7925,
      "ĠSometimes": 7926,
      "Ġshot": 7927,
      "Ġrobot": 7928,
      "ä¸ĵä¸ļ": 7929,
      "ĠJahren": 7930,
      "äºī": 7931,
      "ĠÃ§Ã¶zÃ¼m": 7932,
      "Ġcer": 7933,
      "bet": 7934,
      "ĠkiÅŁiler": 7935,
      "Ġchrom": 7936,
      "Ġlatest": 7937,
      "while": 7938,
      "Ġ1950": 7939,
      "Ġexplo": 7940,
      "Ġexplan": 7941,
      "Ġpermission": 7942,
      "ĠyÃ¶netim": 7943,
      "Ġraise": 7944,
      "grade": 7945,
      "Ġcontemporary": 7946,
      "Ġhear": 7947,
      "Ġheute": 7948,
      "Ġsettled": 7949,
      "ĠkÄ±s": 7950,
      "Ġvalley": 7951,
      "Ġmachen": 7952,
      "Ġmachines": 7953,
      "sential": 7954,
      "Ġessential": 7955,
      "Ġoutbreak": 7956,
      "Ġabsence": 7957,
      "ĠHome": 7958,
      "è¡£": 7959,
      "Ġcambio": 7960,
      "igenous": 7961,
      "Ä±lar": 7962,
      "ĠmÃ¼ÅŁter": 7963,
      "Ġmarch": 7964,
      "åıĳçİ°": 7965,
      "orial": 7966,
      "Ġshop": 7967,
      "æŁĲ": 7968,
      "ATION": 7969,
      "Ġgrat": 7970,
      "Ġdevlet": 7971,
      "Ġnacional": 7972,
      "ĠNacional": 7973,
      "Ġnive": 7974,
      "Ġnivel": 7975,
      "Ġmagnetic": 7976,
      "Ġliberal": 7977,
      "æī¿": 7978,
      "åİ¿": 7979,
      "åĪĿ": 7980,
      "2012": 7981,
      "Ġefforts": 7982,
      "Ġ:": 7983,
      "ĠJews": 7984,
      "Ġactividade": 7985,
      "Ġsubstantial": 7986,
      "Ġefecto": 7987,
      "Â©": 7988,
      "Ġmethods": 7989,
      "Ġmess": 7990,
      "Ġmessage": 7991,
      "Ġaquel": 7992,
      "Ġwebs": 7993,
      "Ġwebsite": 7994,
      "Ġvirtually": 7995,
      "Ġmetab": 7996,
      "Ġmetabol": 7997,
      "ĠConf": 7998,
      "ĠTreat": 7999,
      "Ġtelefon": 8000,
      "Ġindividuals": 8001,
      "ĠExpl": 8002,
      "Figure": 8003,
      "Ġreact": 8004,
      "certain": 8005,
      "xiet": 8006,
      "xic": 8007,
      "esticide": 8008,
      "Ġhaft": 8009,
      "ĠCollection": 8010,
      "uestra": 8011,
      "Ġellos": 8012,
      "Ġdedicated": 8013,
      "ĠschÃ¶n": 8014,
      "èĪ¬": 8015,
      "Ġengineering": 8016,
      "Ġrank": 8017,
      "æł¹æį®": 8018,
      "vas": 8019,
      "Ġlayer": 8020,
      "Ġcoming": 8021,
      "Ġcomercial": 8022,
      "Ġexisting": 8023,
      "ĠâĢ¦": 8024,
      "ervices": 8025,
      "ĠServices": 8026,
      "uÃŁer": 8027,
      "uÃŁerdem": 8028,
      "dir": 8029,
      "Ġrespir": 8030,
      "Ġrespuest": 8031,
      "iyas": 8032,
      "iyon": 8033,
      "Ġhon": 8034,
      "Ġhonor": 8035,
      "istor": 8036,
      "ĠHistor": 8037,
      "ores": 8038,
      "grees": 8039,
      "Ġdegrees": 8040,
      "Ġhomes": 8041,
      "Ġgod": 8042,
      "éĨ": 8043,
      "ç»Ĩ": 8044,
      "ç»Ī": 8045,
      "ĠStudy": 8046,
      "Ġlargely": 8047,
      "Ġmonument": 8048,
      "innen": 8049,
      "âĢĶâĢĶ": 8050,
      "uesto": 8051,
      "Ġreli": 8052,
      "æĵį": 8053,
      "ĠdiseÃ±o": 8054,
      "porter": 8055,
      "åı²": 8056,
      "æ´²": 8057,
      "Ġcertainly": 8058,
      "Ġeffectively": 8059,
      "åĿļ": 8060,
      "äººæ°ĳ": 8061,
      "ï¼ļâĢľ": 8062,
      "unci": 8063,
      "Ġkilometer": 8064,
      "Ġdiagnostic": 8065,
      "ÃŃstic": 8066,
      "Ġerk": 8067,
      "Ġera": 8068,
      "Ġfrag": 8069,
      "Ġhair": 8070,
      "Ġgrew": 8071,
      "Ġexposed": 8072,
      "47": 8073,
      "ĠhÄ±z": 8074,
      "åľ¨çº¿": 8075,
      "è»": 8076,
      "ulner": 8077,
      "Ġvulner": 8078,
      "Ġvulnerable": 8079,
      "Ġvot": 8080,
      "Ġcapable": 8081,
      "Ġperception": 8082,
      "lÃ¤r": 8083,
      "ĠerklÃ¤r": 8084,
      "Ġkayn": 8085,
      "åĪ°äºĨ": 8086,
      "Ġkommen": 8087,
      "lerinden": 8088,
      "lerden": 8089,
      "lerine": 8090,
      "46": 8091,
      "Ġidentification": 8092,
      "Ġpassed": 8093,
      "Ġentirely": 8094,
      "greg": 8095,
      "Ġeinmal": 8096,
      "Ġcatch": 8097,
      "Ġmob": 8098,
      "Ġmobile": 8099,
      "Ġmirror": 8100,
      "Ġvital": 8101,
      "ĠfÃ¼hr": 8102,
      "Ġbenefits": 8103,
      "Ġthinking": 8104,
      "Ġinteresting": 8105,
      "Ġcircul": 8106,
      "æŀĲ": 8107,
      "ĠÄ°stan": 8108,
      "ĠÄ°stanb": 8109,
      "ĠÄ°stanbul": 8110,
      "graphy": 8111,
      "çĶ¨æĪ·": 8112,
      "Ġgoes": 8113,
      "Ġdarauf": 8114,
      "lÄ±ÄŁ": 8115,
      "Ġcomunic": 8116,
      "compaÃ±": 8117,
      "Ġtank": 8118,
      "ĠAddition": 8119,
      "Ġneut": 8120,
      "Ġneutral": 8121,
      "fÃ¼ll": 8122,
      "âĢº": 8123,
      "Ã¼kÃ¼m": 8124,
      "éľĢæ±Ĥ": 8125,
      "è®¡åĪĴ": 8126,
      "Ġguid": 8127,
      "Ġdedi": 8128,
      "igue": 8129,
      "ueb": 8130,
      "Ġtrig": 8131,
      "Ġtrigger": 8132,
      "Ġreducing": 8133,
      "Ã¼rÃ¼": 8134,
      "Most": 8135,
      "More": 8136,
      "oÄŁlu": 8137,
      "Ġkol": 8138,
      "Ġkolay": 8139,
      "Ġpartnership": 8140,
      "ä¸įåĲĮ": 8141,
      "Ġarmy": 8142,
      "ĠFall": 8143,
      "Ġourselves": 8144,
      "ural": 8145,
      "Ġrural": 8146,
      "usiness": 8147,
      "Ġemple": 8148,
      "ĠAtlantic": 8149,
      "ĠPriv": 8150,
      "ä»»ä½ķ": 8151,
      "Ġpregnant": 8152,
      "Ġpray": 8153,
      "Ġpric": 8154,
      "Ġprices": 8155,
      "Ġbile": 8156,
      "post": 8157,
      "larÄ±na": 8158,
      "Ġregional": 8159,
      "Ġservicio": 8160,
      "kehr": 8161,
      "roke": 8162,
      "Ġstroke": 8163,
      "ĠNutz": 8164,
      "overeign": 8165,
      "Ġshell": 8166,
      "èį¯": 8167,
      "vant": 8168,
      "ç«¯": 8169,
      "Ġsino": 8170,
      "Ġsah": 8171,
      "åı¦": 8172,
      "Ġformer": 8173,
      "ĠMartin": 8174,
      "spond": 8175,
      "Ġcorrespond": 8176,
      "Ġ2019": 8177,
      "Ġconfidence": 8178,
      "Ġstim": 8179,
      "Ġstimul": 8180,
      "lerimiz": 8181,
      "Ġminimiz": 8182,
      "Ġpharm": 8183,
      "htt": 8184,
      "http": 8185,
      "Ġswe": 8186,
      "Ġsatellite": 8187,
      "77": 8188,
      "ĠAngeb": 8189,
      "Ġinnov": 8190,
      "Ġrespiratory": 8191,
      "iyoruz": 8192,
      "ĠAnt": 8193,
      "Ġdesire": 8194,
      "laub": 8195,
      "IM": 8196,
      "ĠRome": 8197,
      "bild": 8198,
      "hor": 8199,
      "hora": 8200,
      "Ġahora": 8201,
      "Ġkendi": 8202,
      "Ġalan": 8203,
      "åĲĪä½ľ": 8204,
      "Ġmoon": 8205,
      "John": 8206,
      "tico": 8207,
      "Ġinjury": 8208,
      "Ġinjuries": 8209,
      "Ã¡gin": 8210,
      "ĠpÃ¡gin": 8211,
      "ĠÃ¼y": 8212,
      "ension": 8213,
      "Ġdimension": 8214,
      "ctive": 8215,
      "idas": 8216,
      "das": 8217,
      "Ġtodas": 8218,
      "mesini": 8219,
      "umption": 8220,
      "ĠParis": 8221,
      "Ġmagaz": 8222,
      "Ġprovince": 8223,
      "Ġdispon": 8224,
      "ĠRel": 8225,
      "Ġshr": 8226,
      "ĠWohn": 8227,
      "ĠbaÅŁlay": 8228,
      "Ġaut": 8229,
      "Ġautor": 8230,
      "Ġautonom": 8231,
      "Ġmism": 8232,
      "çķ¶": 8233,
      "ĠJu": 8234,
      "ĠJugend": 8235,
      "Ġdetermined": 8236,
      "Ä±ÅŁtÄ±r": 8237,
      "Ã¡cil": 8238,
      "ĠfÃ¡cil": 8239,
      "Ġrenewable": 8240,
      "Ġestable": 8241,
      "igur": 8242,
      "Ġconfigur": 8243,
      "Ġarrival": 8244,
      "Ġproporcion": 8245,
      "ĠMinister": 8246,
      "ĠPor": 8247,
      "ĠPlant": 8248,
      "Ġremote": 8249,
      "Ġremoval": 8250,
      "76": 8251,
      "åĬŁèĥ½": 8252,
      "åªĴ": 8253,
      "åįĥ": 8254,
      "å¸®": 8255,
      "ĠKore": 8256,
      "Ġmarine": 8257,
      "Ġnine": 8258,
      "itial": 8259,
      "Ġinitial": 8260,
      "Ġevil": 8261,
      "Ġschools": 8262,
      "Ġhum": 8263,
      "Ġagricultural": 8264,
      "Ġbulunan": 8265,
      "åĪĨæŀĲ": 8266,
      "Ġanalog": 8267,
      "Ġstrategy": 8268,
      "Ġnations": 8269,
      "ä¹ħ": 8270,
      "ĠSw": 8271,
      "Ġcompleted": 8272,
      "Ġsumm": 8273,
      "mad": 8274,
      "dad": 8275,
      "Ġverdad": 8276,
      "idd": 8277,
      "iddle": 8278,
      "ĠMiddle": 8279,
      "iday": 8280,
      "Ġholiday": 8281,
      "ĠFriday": 8282,
      "roid": 8283,
      "èī¯": 8284,
      "æ¶Īè´¹": 8285,
      "lÃ¼k": 8286,
      "ç¬¬äºĮ": 8287,
      "æ¯Ķè¾ĥ": 8288,
      "ĠGrand": 8289,
      "ĠBereich": 8290,
      "deki": 8291,
      "Ġconference": 8292,
      "ĠConference": 8293,
      "Ġnegot": 8294,
      "Ä±klarÄ±": 8295,
      "Ġradical": 8296,
      "Ġnecesit": 8297,
      "Ä±ca": 8298,
      "atÄ±rÄ±m": 8299,
      "Ġsaving": 8300,
      "Ġentwick": 8301,
      "Ġze": 8302,
      "Ġzor": 8303,
      "ike": 8304,
      "Ġgracias": 8305,
      "Ġanticip": 8306,
      "Ġharmful": 8307,
      "ĠPortug": 8308,
      "schein": 8309,
      "Ġshows": 8310,
      "Ġfeatures": 8311,
      "Ġfinished": 8312,
      "Ġanlam": 8313,
      "ĠStad": 8314,
      "ĠStadt": 8315,
      "Ġpet": 8316,
      "Ġautomatically": 8317,
      "Ġdeposit": 8318,
      "Ġrep": 8319,
      "Ġrepair": 8320,
      "Ġreceiving": 8321,
      "Ġdik": 8322,
      "Ġdikk": 8323,
      "Ġdikkat": 8324,
      "ĠSee": 8325,
      "éĽ»": 8326,
      "ç»Ħç»": 8327,
      "ç»Ħç»ĩ": 8328,
      "meler": 8329,
      "ries": 8330,
      "Ġang": 8331,
      "Ġiz": 8332,
      "ĠÃ¶r": 8333,
      "Ã¶rper": 8334,
      "Ġot": 8335,
      "Ġsubsequent": 8336,
      "He": 8337,
      "sche": 8338,
      "schlus": 8339,
      "Ġgene": 8340,
      "ä»·æł¼": 8341,
      "Ġtim": 8342,
      "Ġotros": 8343,
      "ana": 8344,
      "Ġflowers": 8345,
      "è´¢": 8346,
      "è´Ł": 8347,
      "èĤī": 8348,
      "ĠKingdom": 8349,
      "Ġearthquake": 8350,
      "Ġarray": 8351,
      "Ġtool": 8352,
      "Ġtools": 8353,
      "acaktÄ±r": 8354,
      "æĹı": 8355,
      "rÃ¡": 8356,
      "Ġprompt": 8357,
      "hÃ¤lt": 8358,
      "æŃ¦": 8359,
      "Ġpolice": 8360,
      "Ġble": 8361,
      "Ġbleib": 8362,
      "gestell": 8363,
      "ges": 8364,
      "son": 8365,
      "ĠJohnson": 8366,
      "Ġways": 8367,
      "Ġbirds": 8368,
      "Ġseems": 8369,
      "Ġheard": 8370,
      "Ġfrequent": 8371,
      "ĠSchw": 8372,
      "polit": 8373,
      "Ġprovin": 8374,
      "ĠMary": 8375,
      "Ġsecondary": 8376,
      "åī¯": 8377,
      "æ²³": 8378,
      "Ø§": 8379,
      "è´§": 8380,
      "å·®": 8381,
      "Ġfelt": 8382,
      "Ġliteracy": 8383,
      "Ġflag": 8384,
      "éĤ£ä¹Ī": 8385,
      "ĠTrain": 8386,
      "ĠWood": 8387,
      "éķ·": 8388,
      "Ġcardi": 8389,
      "redi": 8390,
      "redient": 8391,
      "divers": 8392,
      "diversity": 8393,
      "Ġbiodiversity": 8394,
      "ply": 8395,
      "Ġvary": 8396,
      "Ġcorner": 8397,
      "Ġconven": 8398,
      "Ġyapmak": 8399,
      "Ġalter": 8400,
      "Ġhardware": 8401,
      "æį¢": 8402,
      "ĠbulunduÄŁ": 8403,
      "åĮħæĭ": 8404,
      "åĮħæĭ¬": 8405,
      "çĭ¬": 8406,
      "born": 8407,
      "çĻ»": 8408,
      "ĠLie": 8409,
      "iÅŁim": 8410,
      "ĠMicha": 8411,
      "ĠMichael": 8412,
      "Ġplain": 8413,
      "Ġdepression": 8414,
      "Ġunlike": 8415,
      "Ġdiscovery": 8416,
      "Ġjudg": 8417,
      "Ġtoxic": 8418,
      "ĠyÃ¼ks": 8419,
      "ĠyÃ¼ksek": 8420,
      "Ġviele": 8421,
      "ĠDo": 8422,
      "Ġproceso": 8423,
      "Ġneuen": 8424,
      "ĠalgÃºn": 8425,
      "ĠÃºn": 8426,
      "95": 8427,
      "Ġ75": 8428,
      "aÅŁkan": 8429,
      "ĠPat": 8430,
      "ĠPatient": 8431,
      "ĠMÃ¶glichkeit": 8432,
      "Ġschn": 8433,
      "Ġschnell": 8434,
      "ĠWildlife": 8435,
      "Ġconcentration": 8436,
      "ĠSur": 8437,
      "ĠSurve": 8438,
      "Ġobserve": 8439,
      "ĠErfahr": 8440,
      "fahren": 8441,
      "nitive": 8442,
      "æĹħæ¸¸": 8443,
      "Ġevolved": 8444,
      "Ġabund": 8445,
      "ä»£è¡¨": 8446,
      "Ġur": 8447,
      "Ġdistinction": 8448,
      "Ġstudied": 8449,
      "Ġlegislation": 8450,
      "Ġexhibition": 8451,
      "manÄ±z": 8452,
      "anÄ±z": 8453,
      "Ġroof": 8454,
      "Im": 8455,
      "è®²": 8456,
      "é²": 8457,
      "Ġadecu": 8458,
      "Ġsoul": 8459,
      "Ġdinero": 8460,
      "Ġdivided": 8461,
      "Publ": 8462,
      "ĠKontak": 8463,
      "ĠCoast": 8464,
      "ĠÃ¡": 8465,
      "alax": 8466,
      "Ġgalax": 8467,
      "ĠProdukt": 8468,
      "ĠProduk": 8469,
      "Ġdiverse": 8470,
      "Ġdivers": 8471,
      "Ġdiversity": 8472,
      "ĠCons": 8473,
      "ĠConservation": 8474,
      "Ġagencies": 8475,
      "Ġsubsequently": 8476,
      "çĵ": 8477,
      "Ġsold": 8478,
      "å³": 8479,
      "Ġtropical": 8480,
      "Ġpunto": 8481,
      "ĠSecretary": 8482,
      "Ġdatabase": 8483,
      "æĪĲä¸º": 8484,
      "ä½ľä¸º": 8485,
      "imientos": 8486,
      "ĠLat": 8487,
      "ĠLatin": 8488,
      "ĠLink": 8489,
      "æľ¨": 8490,
      "ĠSha": 8491,
      "haus": 8492,
      "ç½ĳç»": 8493,
      "ç½ĳç»ľ": 8494,
      "äººåĳĺ": 8495,
      "Ġinteract": 8496,
      "Ã¡fic": 8497,
      "Ġrail": 8498,
      "Ġrailroad": 8499,
      "Ġfolgend": 8500,
      "door": 8501,
      "Ġmainly": 8502,
      "fully": 8503,
      "ĠhÄ±zlÄ±": 8504,
      "Ġemissions": 8505,
      "Ġ%": 8506,
      "Ġstone": 8507,
      "icial": 8508,
      "Ġjudicial": 8509,
      "Ġdraft": 8510,
      "itation": 8511,
      "angu": 8512,
      "anguage": 8513,
      "ĠLanguage": 8514,
      "Ġincome": 8515,
      "Ġnecesario": 8516,
      "Ã¼rlÃ¼ÄŁ": 8517,
      "Ġexplanation": 8518,
      "Ġjur": 8519,
      "ĠÃľniversites": 8520,
      "lÃ¤": 8521,
      "ĠProblem": 8522,
      "CO": 8523,
      "ĠBoth": 8524,
      "verse": 8525,
      "Ġbabies": 8526,
      "Ġstick": 8527,
      "ĠbÄ±rak": 8528,
      "iology": 8529,
      "brauch": 8530,
      "Ġrestor": 8531,
      "Ġdiet": 8532,
      "Ġdies": 8533,
      "Ġdiesem": 8534,
      "Ġdieser": 8535,
      "Ġprofess": 8536,
      "Ġprofessor": 8537,
      "Ġimages": 8538,
      "ender": 8539,
      "bert": 8540,
      "commod": 8541,
      "Ġaccommod": 8542,
      "ueblo": 8543,
      "ĠÃ¼retim": 8544,
      "æ³¢": 8545,
      "Ġned": 8546,
      "Ġneden": 8547,
      "Ġnedeniyle": 8548,
      "Ġshowed": 8549,
      "ĠThen": 8550,
      "ĠvehÃŃcul": 8551,
      "stract": 8552,
      "Ġsyndrome": 8553,
      "arter": 8554,
      "Ġquarter": 8555,
      "Ġmeter": 8556,
      "utter": 8557,
      "Ġquot": 8558,
      "Ġmein": 8559,
      "inary": 8560,
      "Ġcausing": 8561,
      "Ġtesting": 8562,
      "conÃ³": 8563,
      "ĠeconÃ³": 8564,
      "ĠeconÃ³m": 8565,
      "Ġdescribe": 8566,
      "Ġraised": 8567,
      "ĠsÄ±k": 8568,
      "åķĬ": 8569,
      "è»Ĭ": 8570,
      "Ġsimult": 8571,
      "ĠWenn": 8572,
      "ĠAcademy": 8573,
      "Ġtwenty": 8574,
      "Ġpathogen": 8575,
      "Ġcriter": 8576,
      "Ġcriteria": 8577,
      "Ġtransmit": 8578,
      "Ġdiye": 8579,
      "Ġsignificance": 8580,
      "Ġ400": 8581,
      "è«": 8582,
      "Ġitem": 8583,
      "eme": 8584,
      "ĠTem": 8585,
      "çīĽ": 8586,
      "Phone": 8587,
      "Photo": 8588,
      "ĠBefore": 8589,
      "Ġsegund": 8590,
      "çĽ´æİ¥": 8591,
      "athered": 8592,
      "åħŃ": 8593,
      "gangen": 8594,
      "Ġyapar": 8595,
      "éĶĻ": 8596,
      "ĠCambridge": 8597,
      "Ġmeasurements": 8598,
      "Ġmeasured": 8599,
      "é¦Ļæ¸¯": 8600,
      "Ġgift": 8601,
      "ivenes": 8602,
      "Ġeffectivenes": 8603,
      "Ġdriven": 8604,
      "Ġconstitut": 8605,
      "Ã¼d": 8606,
      "Ġmucho": 8607,
      "vasive": 8608,
      "vasion": 8609,
      "lagen": 8610,
      "Ġturb": 8611,
      "Ġton": 8612,
      "Health": 8613,
      "Ġprograms": 8614,
      "cape": 8615,
      "Ġflexible": 8616,
      "ĠSchul": 8617,
      "ðŁ": 8618,
      "Ã¶rder": 8619,
      "holder": 8620,
      "ĠÃ¼Ã§": 8621,
      "Ġhelpful": 8622,
      "Now": 8623,
      "Ä°N": 8624,
      "ony": 8625,
      "Ġpunish": 8626,
      "Ġperformed": 8627,
      "Ġacknowled": 8628,
      "ĠPhilade": 8629,
      "ĠPhilipp": 8630,
      "ĠÃ¶l": 8631,
      "Ġinterface": 8632,
      "ĠpodrÃ¡": 8633,
      "ĠpodrÃŃa": 8634,
      "gnitive": 8635,
      "Ġcognitive": 8636,
      "Ġshoot": 8637,
      "Ġcarefully": 8638,
      "ĠPlay": 8639,
      "ĠMad": 8640,
      "ĠMag": 8641,
      "ĠMc": 8642,
      "Ġadequate": 8643,
      "Ðµ": 8644,
      "Ð°": 8645,
      "Ġinteres": 8646,
      "Ġfiles": 8647,
      "Ġaliment": 8648,
      "laÅŁtÄ±r": 8649,
      "Ġparall": 8650,
      "Ġparallel": 8651,
      "lere": 8652,
      "izon": 8653,
      "Ġhorizon": 8654,
      "Ġpsychological": 8655,
      "Ġnada": 8656,
      "Ġspecified": 8657,
      "Ġmeant": 8658,
      "Ġclub": 8659,
      "ĠBy": 8660,
      "Ġclar": 8661,
      "Ġlar": 8662,
      "Ġlargo": 8663,
      "Ġfaster": 8664,
      "å¯¦": 8665,
      "Ġtwelve": 8666,
      "Ġultimately": 8667,
      "Ġmodific": 8668,
      "Ġmodul": 8669,
      "å¤®": 8670,
      "å¤«": 8671,
      "Ã½": 8672,
      "ĠColor": 8673,
      "ĠColorado": 8674,
      "trodu": 8675,
      "pet": 8676,
      "pez": 8677,
      "Ġempez": 8678,
      "ç´¢": 8679,
      "ç´§": 8680,
      "æ¬§": 8681,
      "Ġgather": 8682,
      "ians": 8683,
      "èµĦæºĲ": 8684,
      "Ġthreaten": 8685,
      "Ġsweet": 8686,
      "Ġcombined": 8687,
      "ession": 8688,
      "Ġsession": 8689,
      "Ġscan": 8690,
      "ĠBuild": 8691,
      "æłĩåĩĨ": 8692,
      "Ġcomprom": 8693,
      "55": 8694,
      "Ġforced": 8695,
      "Ġhoch": 8696,
      "Ġhang": 8697,
      "Ġsuit": 8698,
      "Ġsuitable": 8699,
      "De": 8700,
      "æ¤": 8701,
      "quarter": 8702,
      "ĠiPhone": 8703,
      "Ġpeak": 8704,
      "Ġkaynak": 8705,
      "è¯»": 8706,
      "Ġentry": 8707,
      "ĠtravÃ©s": 8708,
      "edia": 8709,
      "ĠEncyclopedia": 8710,
      "ipedia": 8711,
      "ikipedia": 8712,
      "ĠTur": 8713,
      "bur": 8714,
      "Ġexecutive": 8715,
      "Ġincludes": 8716,
      "Ġadults": 8717,
      "Ġreproductive": 8718,
      "Ġboundaries": 8719,
      "æĶ¹éĿ©": 8720,
      "here": 8721,
      "ewhere": 8722,
      "å¯¹äºİ": 8723,
      "ĠpÃºblic": 8724,
      "min": 8725,
      "Ġinflamm": 8726,
      "cluso": 8727,
      "Ġpossibilities": 8728,
      "ĠolacaktÄ±r": 8729,
      "Ġjew": 8730,
      "Ġsand": 8731,
      "Ġretain": 8732,
      "éĢ²": 8733,
      "éľ²": 8734,
      "ä»ĺ": 8735,
      "ä»¤": 8736,
      "èĥ½åĬĽ": 8737,
      "ald": 8738,
      "Ġmerely": 8739,
      "Ġphra": 8740,
      "Ġfrente": 8741,
      "ĠRegion": 8742,
      "Ġaband": 8743,
      "Ġabandon": 8744,
      "band": 8745,
      "usband": 8746,
      "Ġhusband": 8747,
      "ç³»åĪĹ": 8748,
      "Ġtasar": 8749,
      "ĠÃ¼zere": 8750,
      "Ġmentioned": 8751,
      "å®¢æĪ·": 8752,
      "ĠEconomic": 8753,
      "å¯Ł": 8754,
      "Ġstruggle": 8755,
      "Ġobra": 8756,
      "å·¥ç¨ĭ": 8757,
      "Ġargu": 8758,
      "Bu": 8759,
      "Ġpleasure": 8760,
      "Ġdisponible": 8761,
      "Ġvolun": 8762,
      "Ġvolunte": 8763,
      "unft": 8764,
      "ĠMont": 8765,
      "Ġkommt": 8766,
      "ividad": 8767,
      "ĠaraÃ§": 8768,
      "larÄ±ndan": 8769,
      "Ã¤d": 8770,
      "æĽ´å¤ļ": 8771,
      "çĶ»": 8772,
      "Ġworse": 8773,
      "Ġantes": 8774,
      "ç©¿": 8775,
      "æĭ¿": 8776,
      "Ġdeutsch": 8777,
      "ĠBew": 8778,
      "ĠCooper": 8779,
      "Ġemphas": 8780,
      "ĠfrÃ¼h": 8781,
      "åĨĻ": 8782,
      "ĠHaw": 8783,
      "ĠModer": 8784,
      "ĠMor": 8785,
      "ĠMo": 8786,
      "ĠJustice": 8787,
      "çłģ": 8788,
      "ĠnÃ¤ch": 8789,
      "ĠJackson": 8790,
      "ĠRecord": 8791,
      "ä»ĭç»": 8792,
      "ä»ĭç»į": 8793,
      "ä»Ĭå¹´": 8794,
      "Ã©dic": 8795,
      "åĲ¦": 8796,
      "Ġofficers": 8797,
      "ĠPolit": 8798,
      "Ġaunque": 8799,
      "Ġmechanical": 8800,
      "ĠRecht": 8801,
      "ĠsayÄ±": 8802,
      "å®³": 8803,
      "Ġkle": 8804,
      "Ġklein": 8805,
      "ĠColomb": 8806,
      "Ġreached": 8807,
      "Ġsacr": 8808,
      "Ġsacrific": 8809,
      "Ġersten": 8810,
      "è½¯": 8811,
      "æ¹ĸ": 8812,
      "Ġserving": 8813,
      "rie": 8814,
      "Ġpromis": 8815,
      "Ġengines": 8816,
      "Ġengage": 8817,
      "crete": 8818,
      "ĠAmaz": 8819,
      "ĠAmazon": 8820,
      "ĠAmong": 8821,
      "Ġsong": 8822,
      "éĢĢ": 8823,
      "Ġworkshop": 8824,
      "é¸": 8825,
      "Ġexamine": 8826,
      "ĠEstados": 8827,
      "ĠArizon": 8828,
      "Ġaplic": 8829,
      "Ġgradually": 8830,
      "Ġchalleng": 8831,
      "ĠsÄ±nÄ±": 8832,
      "Ind": 8833,
      "Ġord": 8834,
      "UL": 8835,
      "lot": 8836,
      "éĹ»": 8837,
      "éĹľ": 8838,
      "ĠIN": 8839,
      "Ġpreval": 8840,
      "Ġpreced": 8841,
      "ĠGood": 8842,
      "ĠHot": 8843,
      "ĠHotel": 8844,
      "eln": 8845,
      "malÄ±dÄ±r": 8846,
      "ormal": 8847,
      "normal": 8848,
      "Ġabnormal": 8849,
      "malar": 8850,
      "Ġdecor": 8851,
      "Ġkonn": 8852,
      "Ġkonnte": 8853,
      "Ġletzten": 8854,
      "è¡Įä¸ļ": 8855,
      "ardÄ±ndan": 8856,
      "Ġesp": 8857,
      "ĠyÃ¶nelik": 8858,
      "punk": 8859,
      "ĠkaÃ§": 8860,
      "vrup": 8861,
      "èıľ": 8862,
      "Ġepidem": 8863,
      "Ġauto": 8864,
      "ĠSub": 8865,
      "Ġpalab": 8866,
      "Ġpalabra": 8867,
      "Ġanxiet": 8868,
      "rÄ±ca": 8869,
      "Ġreconoc": 8870,
      "Ġhij": 8871,
      "Ġseguir": 8872,
      "alÄ±": 8873,
      "Ġaccomplish": 8874,
      "Ġdemonstrated": 8875,
      "Ġmusical": 8876,
      "ĠwÃ¼rde": 8877,
      "ĠErgebnis": 8878,
      "ĠardÄ±ndan": 8879,
      "Ġsilver": 8880,
      "ĠSam": 8881,
      "ĠsÃ¶yle": 8882,
      "ĠbÃ¶yle": 8883,
      "ativa": 8884,
      "Ä±ldÄ±": 8885,
      "portun": 8886,
      "Ġoportun": 8887,
      "Ġtun": 8888,
      "ĠInf": 8889,
      "Ġpron": 8890,
      "Ġpronoun": 8891,
      "Ġimplications": 8892,
      "cide": 8893,
      "Ġdecide": 8894,
      "larla": 8895,
      "åī§": 8896,
      "ĠForm": 8897,
      "ĠVerfÃ¼g": 8898,
      "Ġsimulation": 8899,
      "weight": 8900,
      "Ġrom": 8901,
      "Ġgelen": 8902,
      "effer": 8903,
      "efferson": 8904,
      "åĩı": 8905,
      "medi": 8906,
      "Ġestar": 8907,
      "Ġestas": 8908,
      "ĠCas": 8909,
      "ĠCasino": 8910,
      "llino": 8911,
      "ĠIllino": 8912,
      "çĶŁäº§": 8913,
      "ierra": 8914,
      "fford": 8915,
      "çĦ¡": 8916,
      "Ġgall": 8917,
      "Los": 8918,
      "ĠelectrÃ³n": 8919,
      "Ġebenfall": 8920,
      "hn": 8921,
      "dget": 8922,
      "Ġbudget": 8923,
      "ĠUp": 8924,
      "Ġexcit": 8925,
      "ĠpequeÃ±": 8926,
      "Ġgenerated": 8927,
      "å¦Ī": 8928,
      "Ġjump": 8929,
      "ĠyÃ¼zde": 8930,
      "ĠEntwicklung": 8931,
      "äº¤æĺĵ": 8932,
      "rÃ¤": 8933,
      "dr": 8934,
      "ĠBur": 8935,
      "ĠOur": 8936,
      "åħįè´¹": 8937,
      "åħ´": 8938,
      "ĠZiel": 8939,
      "Ġlik": 8940,
      "Ġ.": 8941,
      "Ġ..": 8942,
      "Ġ...": 8943,
      "Ġgram": 8944,
      "program": 8945,
      "Ġvelo": 8946,
      "Ġveloc": 8947,
      "Ġ36": 8948,
      "Ġunless": 8949,
      "ĠAuto": 8950,
      "Ġsociet": 8951,
      "èĸ": 8952,
      "Ġbrauch": 8953,
      "Ġuser": 8954,
      "Ġwohl": 8955,
      "ileceÄŁ": 8956,
      "ĠMoreover": 8957,
      "itter": 8958,
      "ĠTwitter": 8959,
      "Ġconstit": 8960,
      "åĪļ": 8961,
      "è®¤ä¸º": 8962,
      "Ġstation": 8963,
      "Ġconsiderable": 8964,
      "Ġhorse": 8965,
      "Ġdescribes": 8966,
      "ĠÃģ": 8967,
      "Ġeleg": 8968,
      "ĠGroÃŁ": 8969,
      "ĠPla": 8970,
      "Ġrestrict": 8971,
      "ĠEnt": 8972,
      "Ġpercentage": 8973,
      "Ġprediction": 8974,
      "Ġelim": 8975,
      "Ġelimin": 8976,
      "Ġcalci": 8977,
      "Ġcalcium": 8978,
      "Ġrefused": 8979,
      "pecÃŃfic": 8980,
      "Ġargue": 8981,
      "çĸĹ": 8982,
      "å¥Ĺ": 8983,
      "çľĭåĪ°": 8984,
      "Ġprogress": 8985,
      "Ġprogressive": 8986,
      "ĠAgency": 8987,
      "pf": 8988,
      "ĠDef": 8989,
      "yright": 8990,
      "opyright": 8991,
      "ches": 8992,
      "ales": 8993,
      "å²ģ": 8994,
      "Ġstore": 8995,
      "è£¡": 8996,
      "Â¡": 8997,
      "éķĩ": 8998,
      "ĠProjekt": 8999,
      "Ã¶ffentlich": 9000,
      "faces": 9001,
      "Ġsurfaces": 9002,
      "Ġmanage": 9003,
      "habitants": 9004,
      "ç²ī": 9005,
      "masÄ±nÄ±": 9006,
      "orm": 9007,
      "stre": 9008,
      "stream": 9009,
      "QuÃ©": 9010,
      "Ġgente": 9011,
      "Ġboost": 9012,
      "Ã¤hl": 9013,
      "Ã©c": 9014,
      "Ã©cn": 9015,
      "ĠtÃ©cn": 9016,
      "Ġtec": 9017,
      "Ġtecn": 9018,
      "ĠtecnologÃŃa": 9019,
      "Ġproved": 9020,
      "Ġproj": 9021,
      "Ġkingdom": 9022,
      "ĠAir": 9023,
      "Ġuncertain": 9024,
      "Ġdream": 9025,
      "æĭĽ": 9026,
      "èĽ": 9027,
      "ĠMichig": 9028,
      "igung": 9029,
      "igt": 9030,
      "tÄ±": 9031,
      "pot": 9032,
      "ĠaÃ§Ä±": 9033,
      "Ġchair": 9034,
      "ĠTop": 9035,
      "Ã¼hl": 9036,
      "ierten": 9037,
      "Ġdil": 9038,
      "Ġdav": 9039,
      "Ġemotional": 9040,
      "igual": 9041,
      "Ġigual": 9042,
      "iti": 9043,
      "itiative": 9044,
      "èµ·æĿ¥": 9045,
      "Ġtube": 9046,
      "ĠModel": 9047,
      "Ġfinden": 9048,
      "Ġwarming": 9049,
      "äº§ä¸ļ": 9050,
      "Ġturned": 9051,
      "Ġbreed": 9052,
      "ĠItaly": 9053,
      "Ġpesticide": 9054,
      "asÄ±nÄ±n": 9055,
      "Ä±yoruz": 9056,
      "Ġothers": 9057,
      "ä»Ģéº": 9058,
      "ĠÃ§oÄŁ": 9059,
      "orough": 9060,
      "Ġthorough": 9061,
      "ĠThough": 9062,
      "Ġsettlement": 9063,
      "ĠDigital": 9064,
      "First": 9065,
      "Ġmater": 9066,
      "ĠteÅŁ": 9067,
      "Ġpreserved": 9068,
      "Ġdestac": 9069,
      "éĽĨåĽ¢": 9070,
      "åĽłæŃ¤": 9071,
      "upreme": 9072,
      "mart": 9073,
      "ĠmÃº": 9074,
      "Ġnokt": 9075,
      "Ġconclud": 9076,
      "IG": 9077,
      "ict": 9078,
      "ĠVict": 9079,
      "Ġstrict": 9080,
      "ĠVictor": 9081,
      "Ġdict": 9082,
      "lage": 9083,
      "æī¹": 9084,
      "Ġzeigt": 9085,
      "theast": 9086,
      "outheast": 9087,
      "Ġimmigrants": 9088,
      "Ġtransplant": 9089,
      "åł´": 9090,
      "79": 9091,
      "2017": 9092,
      "2011": 9093,
      "2018": 9094,
      "2013": 9095,
      "itis": 9096,
      "ativo": 9097,
      "è³ĩ": 9098,
      "ĠmÃ©dic": 9099,
      "Âº": 9100,
      "III": 9101,
      "ĠmayorÃŃa": 9102,
      "Ġfellow": 9103,
      "Ġeines": 9104,
      "Ġtransmitted": 9105,
      "Ġtranspar": 9106,
      "Ġroutine": 9107,
      "Ġkit": 9108,
      "ĠAndroid": 9109,
      "ĠAndre": 9110,
      "fficient": 9111,
      "æľºæŀĦ": 9112,
      "ĠÅŁeh": 9113,
      "voc": 9114,
      "Ġcolabor": 9115,
      "Ġelabor": 9116,
      "Ġemployment": 9117,
      "Ġhorizontal": 9118,
      "Ġpainting": 9119,
      "Wir": 9120,
      "Ġprimera": 9121,
      "bilirsiniz": 9122,
      "åİĨåı²": 9123,
      "ĠWhy": 9124,
      "ĠWhere": 9125,
      "Ġautism": 9126,
      "ĠMain": 9127,
      "è¿Ļç§į": 9128,
      "akt": 9129,
      "akes": 9130,
      "ĠaÅŁaÄŁÄ±": 9131,
      "Ġtechniques": 9132,
      "Ġslowly": 9133,
      "ĠNavy": 9134,
      "Ã¼lt": 9135,
      "æ²Ļ": 9136,
      "æ²Ĵ": 9137,
      "ĠBible": 9138,
      "åºĶè¯¥": 9139,
      "èĪª": 9140,
      "Ġcovered": 9141,
      "Ġoccurr": 9142,
      "Or": 9143,
      "fr": 9144,
      "Ġdisfr": 9145,
      "Ġdisfrut": 9146,
      "ĠPlease": 9147,
      "TÃ¼rk": 9148,
      "TÃ¼rkiye": 9149,
      "Se": 9150,
      "See": 9151,
      "ĠHere": 9152,
      "IP": 9153,
      "Ġlecture": 9154,
      "Ġpuntos": 9155,
      "Ġecological": 9156,
      "Ġgl": 9157,
      "ĠChris": 9158,
      "oint": 9159,
      "ĠFoto": 9160,
      "66": 9161,
      "èĨ": 9162,
      "æĶ»": 9163,
      "ĠRob": 9164,
      "Ġreci": 9165,
      "Ġtercer": 9166,
      "Ġgerne": 9167,
      "Ġaccurately": 9168,
      "Ġconventional": 9169,
      "Ġgerade": 9170,
      "under": 9171,
      "Ġlivestock": 9172,
      "hang": 9173,
      "Ġherhang": 9174,
      "Ġacept": 9175,
      "zept": 9176,
      "äºĨä¸Ģ": 9177,
      "celer": 9178,
      "Ġacceler": 9179,
      "ĠOce": 9180,
      "ĠOcean": 9181,
      "ece": 9182,
      "Ġparece": 9183,
      "ĠGreece": 9184,
      "Ġempt": 9185,
      "Ã¤re": 9186,
      "ĠwÃ¤re": 9187,
      "Ġwire": 9188,
      "ĠÃ¶ÄŁre": 9189,
      "Ġappeal": 9190,
      "ĠPal": 9191,
      "ĠGovern": 9192,
      "ura": 9193,
      "health": 9194,
      "malarÄ±": 9195,
      "ammal": 9196,
      "Ġmammal": 9197,
      "ĠâĨĳ": 9198,
      "Ġextin": 9199,
      "ç²¾ç¥ŀ": 9200,
      "Ġconcrete": 9201,
      "ĠViet": 9202,
      "ĠVietn": 9203,
      "Ġcaught": 9204,
      "venue": 9205,
      "Ġcamer": 9206,
      "Ġsensor": 9207,
      "Ġeinz": 9208,
      "ĠSpecial": 9209,
      "Ġzero": 9210,
      "åħ«": 9211,
      "Ġfashion": 9212,
      "ĠPrinci": 9213,
      "ĠsektÃ¶r": 9214,
      "athem": 9215,
      "athemat": 9216,
      "athematical": 9217,
      "ĠHistorical": 9218,
      "Ġprem": 9219,
      "illa": 9220,
      "Ã¤hlen": 9221,
      "Ġmodo": 9222,
      "ĠArchive": 9223,
      "ĠText": 9224,
      "Ġindicated": 9225,
      "uh": 9226,
      "ĠTransport": 9227,
      "ĠZahl": 9228,
      "Ġzahl": 9229,
      "ĠMÃ¼d": 9230,
      "Ġagua": 9231,
      "apon": 9232,
      "Ġweapon": 9233,
      "ga": 9234,
      "Ġreduces": 9235,
      "emember": 9236,
      "ĠPalest": 9237,
      "ĠSurvey": 9238,
      "ĠcaracterÃŃstic": 9239,
      "ĠSteph": 9240,
      "Ġgenes": 9241,
      "Ġgenel": 9242,
      "Ġihn": 9243,
      "Ġlifest": 9244,
      "Ġlifestyle": 9245,
      "Ġfavour": 9246,
      "ĠBaÅŁkan": 9247,
      "ĠBild": 9248,
      "Ġinteractive": 9249,
      "Ġcub": 9250,
      "Ad": 9251,
      "Ġdisting": 9252,
      "Ġdistingu": 9253,
      "Ġdistinguish": 9254,
      "Ġdistinguished": 9255,
      "Ġaccomplished": 9256,
      "alitÃ¤t": 9257,
      "ĠQualitÃ¤t": 9258,
      "ĠQue": 9259,
      "Ġmale": 9260,
      "take": 9261,
      "äº®": 9262,
      "Ġoyn": 9263,
      "Ġbuen": 9264,
      "Before": 9265,
      "ĠMÃ¼dÃ¼rlÃ¼ÄŁ": 9266,
      "Ġlabour": 9267,
      "Ġcomplement": 9268,
      "Ġheavi": 9269,
      "Ġnavi": 9270,
      "Ġnarrative": 9271,
      "ĠSon": 9272,
      "Ġoccupied": 9273,
      "Ġaccompanied": 9274,
      "Ġsucceed": 9275,
      "Ġrespecto": 9276,
      "Ġsheet": 9277,
      "Ġrecruit": 9278,
      "åĲ¸": 9279,
      "Ġthirty": 9280,
      "Ġdavon": 9281,
      "Ġunserer": 9282,
      "Ġevit": 9283,
      "Ġobjects": 9284,
      "Ġbond": 9285,
      "ĠFil": 9286,
      "forcement": 9287,
      "Ġapproval": 9288,
      "ĠRoy": 9289,
      "ĠRoyal": 9290,
      "ĠHebre": 9291,
      "ĠHebrew": 9292,
      "ramient": 9293,
      "Ġorient": 9294,
      "ientes": 9295,
      "Ġherramient": 9296,
      "Ġcontinues": 9297,
      "andom": 9298,
      "Ġrandom": 9299,
      "Ġrh": 9300,
      "Ġrub": 9301,
      "vail": 9302,
      "Ġelectro": 9303,
      "oured": 9304,
      "ĠTimes": 9305,
      "ĠConnect": 9306,
      "Ġhur": 9307,
      "ĠCur": 9308,
      "Ġsegunda": 9309,
      "Ġvideos": 9310,
      "åıĳå¸ĥ": 9311,
      "ĠLeague": 9312,
      "Ġcalories": 9313,
      "urance": 9314,
      "Ġguidance": 9315,
      "è´Łè´£": 9316,
      "è´£ä»»": 9317,
      "ĠEstado": 9318,
      "iter": 9319,
      "æıĲåįĩ": 9320,
      "çĶ¢": 9321,
      "çĶ³": 9322,
      "çĶļ": 9323,
      "çĶļèĩ³": 9324,
      "Ġdrill": 9325,
      "Ġrecommendations": 9326,
      "Ġrecommended": 9327,
      "prove": 9328,
      "Ġgrave": 9329,
      "Ġsuccessfully": 9330,
      "rat": 9331,
      "Ġhybr": 9332,
      "ĠMas": 9333,
      "Ġ65": 9334,
      "è§£åĨ³": 9335,
      "ander": 9336,
      "ischer": 9337,
      "Ġconsistent": 9338,
      "ĠDurch": 9339,
      "æ¼«": 9340,
      "ĠMadr": 9341,
      "ĠMadrid": 9342,
      "Ġendanger": 9343,
      "rado": 9344,
      "Ġstret": 9345,
      "Ġstretch": 9346,
      "Ġestrateg": 9347,
      "aur": 9348,
      "Ġrestaur": 9349,
      "ara": 9350,
      "Para": 9351,
      "Ġsistema": 9352,
      "ta": 9353,
      "ato": 9354,
      "tood": 9355,
      "aul": 9356,
      "ĠPaul": 9357,
      "Ġpul": 9358,
      "ja": 9359,
      "ata": 9360,
      "ĠData": 9361,
      "Ġsa": 9362,
      "Ġsaat": 9363,
      "Ġsacred": 9364,
      "Ġsaved": 9365,
      "Ġpil": 9366,
      "Ġpilot": 9367,
      "Ġveril": 9368,
      "Ġpotato": 9369,
      "ĠEspaÃ±a": 9370,
      "ĠÃ¶ff": 9371,
      "è®¾å¤ĩ": 9372,
      "åĪ»": 9373,
      "ç§»": 9374,
      "Ġbek": 9375,
      "Ġbekann": 9376,
      "Ġwheel": 9377,
      "western": 9378,
      "ĠViel": 9379,
      "Ġspar": 9380,
      "Ġdrugs": 9381,
      "åħ¶ä¸Ń": 9382,
      "Ġancak": 9383,
      "Ġconnected": 9384,
      "Ġslavery": 9385,
      "ĠBak": 9386,
      "phy": 9387,
      "Ã¤tzlich": 9388,
      "å¨ģ": 9389,
      "Ġvarieties": 9390,
      "idden": 9391,
      "Ġtratamiento": 9392,
[...]
