{
  "version": "1.0",
  "truncation": null,
  "padding": null,
  "added_tokens": [
    {
      "id": 0,
      "content": "<|endoftext|>",
      "single_word": false,
      "lstrip": false,
      "rstrip": false,
      "normalized": false,
      "special": true
    },
    {
      "id": 1,
      "content": "<|padding|>",
      "single_word": false,
      "lstrip": false,
      "rstrip": false,
      "normalized": false,
      "special": true
    }
  ],
  "normalizer": {
    "type": "NFC"
  },
  "pre_tokenizer": {
    "type": "ByteLevel",
    "add_prefix_space": false,
    "trim_offsets": true,
    "use_regex": true
  },
  "post_processor": {
    "type": "ByteLevel",
    "add_prefix_space": true,
    "trim_offsets": false,
    "use_regex": true
  },
  "decoder": {
    "type": "ByteLevel",
    "add_prefix_space": true,
    "trim_offsets": true,
    "use_regex": true
  },
  "model": {
    "type": "BPE",
    "dropout": null,
    "unk_token": null,
    "continuing_subword_prefix": null,
    "end_of_word_suffix": null,
    "fuse_unk": false,
    "byte_fallback": false,
    "ignore_merges": false,
    "vocab": {
      "<|endoftext|>": 0,
      "<|padding|>": 1,
      "!": 2,
      "\"": 3,
      "#": 4,
      "$": 5,
      "%": 6,
      "&": 7,
      "'": 8,
      "(": 9,
      ")": 10,
      "*": 11,
      "+": 12,
      ",": 13,
      "-": 14,
      ".": 15,
      "/": 16,
      "0": 17,
      "1": 18,
      "2": 19,
      "3": 20,
      "4": 21,
      "5": 22,
      "6": 23,
      "7": 24,
      "8": 25,
      "9": 26,
      ":": 27,
      ";": 28,
      "<": 29,
      "=": 30,
      ">": 31,
      "?": 32,
      "@": 33,
      "A": 34,
      "B": 35,
      "C": 36,
      "D": 37,
      "E": 38,
      "F": 39,
      "G": 40,
      "H": 41,
      "I": 42,
      "J": 43,
      "K": 44,
      "L": 45,
      "M": 46,
      "N": 47,
      "O": 48,
      "P": 49,
      "Q": 50,
      "R": 51,
      "S": 52,
      "T": 53,
      "U": 54,
      "V": 55,
      "W": 56,
      "X": 57,
      "Y": 58,
      "Z": 59,
      "[": 60,
      "\\": 61,
      "]": 62,
      "^": 63,
      "_": 64,
      "`": 65,
      "a": 66,
      "b": 67,
      "c": 68,
      "d": 69,
      "e": 70,
      "f": 71,
      "g": 72,
      "h": 73,
      "i": 74,
      "j": 75,
      "k": 76,
      "l": 77,
      "m": 78,
      "n": 79,
      "o": 80,
      "p": 81,
      "q": 82,
      "r": 83,
      "s": 84,
      "t": 85,
      "u": 86,
      "v": 87,
      "w": 88,
      "x": 89,
      "y": 90,
      "z": 91,
      "{": 92,
      "|": 93,
      "}": 94,
      "~": 95,
      "¡": 96,
      "¢": 97,
      "£": 98,
      "¤": 99,
      "¥": 100,
      "¦": 101,
      "§": 102,
      "¨": 103,
      "©": 104,
      "ª": 105,
      "«": 106,
      "¬": 107,
      "®": 108,
      "¯": 109,
      "°": 110,
      "±": 111,
      "²": 112,
      "³": 113,
      "´": 114,
      "µ": 115,
      "¶": 116,
      "·": 117,
      "¸": 118,
      "¹": 119,
      "º": 120,
      "»": 121,
      "¼": 122,
      "½": 123,
      "¾": 124,
      "¿": 125,
      "Â": 126,
      "Ã": 127,
      "Ä": 128,
      "Å": 129,
      "Æ": 130,
      "Ç": 131,
      "È": 132,
      "É": 133,
      "Ê": 134,
      "Ë": 135,
      "Ì": 136,
      "Í": 137,
      "Î": 138,
      "Ï": 139,
      "Ð": 140,
      "Ñ": 141,
      "Ò": 142,
      "Ó": 143,
      "Ô": 144,
      "Õ": 145,
      "Ö": 146,
      "×": 147,
      "Ø": 148,
      "Ù": 149,
      "Ú": 150,
      "Û": 151,
      "Ü": 152,
      "Ý": 153,
      "Þ": 154,
      "ß": 155,
      "à": 156,
      "á": 157,
      "â": 158,
      "ã": 159,
      "ä": 160,
      "å": 161,
      "æ": 162,
      "ç": 163,
      "è": 164,
      "é": 165,
      "ê": 166,
      "ë": 167,
      "ì": 168,
      "í": 169,
      "î": 170,
      "ï": 171,
      "ð": 172,
      "ó": 173,
      "ĉ": 174,
      "Ċ": 175,
      "Ġ": 176,
      "Ģ": 177,
      "ģ": 178,
      "Ĥ": 179,
      "ĥ": 180,
      "Ħ": 181,
      "ħ": 182,
      "Ĩ": 183,
      "ĩ": 184,
      "Ī": 185,
      "ī": 186,
      "Ĭ": 187,
      "ĭ": 188,
      "Į": 189,
      "į": 190,
      "İ": 191,
      "ı": 192,
      "Ĳ": 193,
      "ĳ": 194,
      "Ĵ": 195,
      "ĵ": 196,
      "Ķ": 197,
      "ķ": 198,
      "ĸ": 199,
      "Ĺ": 200,
      "ĺ": 201,
      "Ļ": 202,
      "ļ": 203,
      "Ľ": 204,
      "ľ": 205,
      "Ŀ": 206,
      "ŀ": 207,
      "Ł": 208,
      "ł": 209,
      "Ń": 210,
      "th": 211,
      "in": 212,
      "the": 213,
      "Ä±": 214,
      "an": 215,
      "en": 216,
      "on": 217,
      "er": 218,
      "Ġthe": 219,
      "ing": 220,
      "ch": 221,
      "or": 222,
      "ar": 223,
      "and": 224,
      "âĢ": 225,
      "of": 226,
      "al": 227,
      "at": 228,
      "un": 229,
      "es": 230,
      "Ġof": 231,
      "Ġw": 232,
      "Ã¼": 233,
      "ion": 234,
      "ed": 235,
      "is": 236,
      "as": 237,
      "Ġb": 238,
      "ent": 239,
      "re": 240,
      "ation": 241,
      "Ġd": 242,
      "ro": 243,
      "Ġand": 244,
      "Ġp": 245,
      "Ġs": 246,
      "Ġf": 247,
      "Th": 248,
      "ï¼": 249,
      "ÅŁ": 250,
      "Ġin": 251,
      "ur": 252,
      "to": 253,
      "Ġto": 254,
      "it": 255,
      "ic": 256,
      "Ġc": 257,
      "qu": 258,
      "Ġh": 259,
      "ä¸": 260,
      "Ġde": 261,
      "us": 262,
      "Ġfor": 263,
      "Ġcon": 264,
      "ï¼Į": 265,
      "ad": 266,
      "ac": 267,
      "that": 268,
      "ÄŁ": 269,
      "os": 270,
      "ĠS": 271,
      "Ġco": 272,
      "ab": 273,
      "il": 274,
      "Ġpro": 275,
      "Ġm": 276,
      "ir": 277,
      "Ġwh": 278,
      "ĠA": 279,
      "ver": 280,
      "ve": 281,
      "und": 282,
      "id": 283,
      "ãĢ": 284,
      "am": 285,
      "im": 286,
      "ow": 287,
      "ļĦ": 288,
      "Ã¶": 289,
      "Ġbe": 290,
      "Ġa": 291,
      "Ã§": 292,
      "Ã³": 293,
      "le": 294,
      "çļĦ": 295,
      "âĢĻ": 296,
      "ig": 297,
      "ĠC": 298,
      "el": 299,
      "ol": 300,
      "ul": 301,
      "Ġcom": 302,
      "00": 303,
      "The": 304,
      "ĠM": 305,
      "tr": 306,
      "ther": 307,
      "ex": 308,
      "ĠB": 309,
      "Ġl": 310,
      "all": 311,
      "Ġn": 312,
      "Ġthat": 313,
      "ut": 314,
      "ĠI": 315,
      "Ġg": 316,
      "ĠP": 317,
      "res": 318,
      "ment": 319,
      "om": 320,
      "Ġ(": 321,
      "Ġre": 322,
      "ich": 323,
      "äº": 324,
      "ay": 325,
      "ith": 326,
      "Ġwith": 327,
      "igh": 328,
      "ĠD": 329,
      "19": 330,
      "Ä±n": 331,
      "ter": 332,
      "um": 333,
      "em": 334,
      "rom": 335,
      "Ġfrom": 336,
      "ĠE": 337,
      "Ġis": 338,
      "Ġth": 339,
      "ĠH": 340,
      "ec": 341,
      "Ġno": 342,
      "ÃŃ": 343,
      "Ã¤": 344,
      "Ã¡": 345,
      "ak": 346,
      "âĢľ": 347,
      "âĢĿ": 348,
      "if": 349,
      "ĠF": 350,
      "ĠG": 351,
      "ill": 352,
      "ãĢĤ": 353,
      "ĠW": 354,
      "ag": 355,
      "Ġy": 356,
      "ly": 357,
      "ĠR": 358,
      "iz": 359,
      "ĠIn": 360,
      "Ġwas": 361,
      "ĠT": 362,
      "Ġex": 363,
      "Ġla": 364,
      "ĠL": 365,
      "Ġqu": 366,
      "Ġon": 367,
      "ect": 368,
      "ä»": 369,
      "our": 370,
      "Ġby": 371,
      "Ã³n": 372,
      "Ġwhich": 373,
      "ĠThe": 374,
      "ĠN": 375,
      "est": 376,
      "Ġk": 377,
      "Ġv": 378,
      "iv": 379,
      "od": 380,
      "ive": 381,
      "ave": 382,
      "Ġhave": 383,
      "20": 384,
      "ity": 385,
      "æľ": 386,
      "ist": 387,
      "Ġthis": 388,
      "Ġ1": 389,
      "Ġt": 390,
      "ĠK": 391,
      "Ġas": 392,
      "Ġar": 393,
      "Ġare": 394,
      "Ġque": 395,
      "Ã©": 396,
      "Ġun": 397,
      "ung": 398,
      "end": 399,
      "Ġdi": 400,
      "ĠJ": 401,
      "op": 402,
      "ap": 403,
      "out": 404,
      "ell": 405,
      "uc": 406,
      "ud": 407,
      "ug": 408,
      "ugh": 409,
      "enc": 410,
      "oc": 411,
      "ain": 412,
      "Ġnot": 413,
      "et": 414,
      "ally": 415,
      "Ġpar": 416,
      "ĠU": 417,
      "åı": 418,
      "ib": 419,
      "iÃ³n": 420,
      "up": 421,
      "ers": 422,
      "act": 423,
      "Ġst": 424,
      "ight": 425,
      "ant": 426,
      "Ġund": 427,
      "ind": 428,
      "å¤": 429,
      "200": 430,
      "ies": 431,
      "åħ": 432,
      "Ġcomp": 433,
      "st": 434,
      "ĠO": 435,
      "Ġan": 436,
      "Ġcan": 437,
      "uld": 438,
      "ub": 439,
      "uch": 440,
      "ure": 441,
      "Ġit": 442,
      "ä½": 443,
      "Ġwill": 444,
      "ach": 445,
      "Ġres": 446,
      "other": 447,
      "able": 448,
      "for": 449,
      "Ġor": 450,
      "Ġal": 451,
      "Ġtr": 452,
      "'s": 453,
      "ess": 454,
      "Ġr": 455,
      "ĠV": 456,
      "ĠTh": 457,
      "ik": 458,
      "Ġch": 459,
      "Ġe": 460,
      "Ġein": 461,
      "Ġen": 462,
      "Ġexp": 463,
      "Ġ19": 464,
      "Ġim": 465,
      "Ġsh": 466,
      "Ġimp": 467,
      "Ġdis": 468,
      "tion": 469,
      "Ġab": 470,
      "Ġabout": 471,
      "Ġel": 472,
      "ew": 473,
      "Ġlos": 474,
      "ä¹": 475,
      "Ġstud": 476,
      "ard": 477,
      "duc": 478,
      "Ġ\"": 479,
      "201": 480,
      "Ġve": 481,
      "Ġat": 482,
      "Ġus": 483,
      "Ġwor": 484,
      "form": 485,
      "è¿": 486,
      "Ġyo": 487,
      "Ġyou": 488,
      "Ġyour": 489,
      "Ġle": 490,
      "ould": 491,
      "âĢĵ": 492,
      "ition": 493,
      "Ä°": 494,
      "ical": 495,
      "æĺ": 496,
      "æĺ¯": 497,
      "å®": 498,
      "åľ": 499,
      "ial": 500,
      "ip": 501,
      "ild": 502,
      "ate": 503,
      "ort": 504,
      "ãĢģ": 505,
      "ish": 506,
      "aciÃ³n": 507,
      "anc": 508,
      "ang": 509,
      "og": 510,
      "olog": 511,
      "Ġall": 512,
      "Ġz": 513,
      "Ã¼r": 514,
      "Ġpr": 515,
      "Ġj": 516,
      "Ġbut": 517,
      "Ġbir": 518,
      "ob": 519,
      "ous": 520,
      "over": 521,
      "ot": 522,
      "Ġother": 523,
      "ĠUn": 524,
      "ult": 525,
      "ost": 526,
      "Ġver": 527,
      "åĪ": 528,
      "Ġev": 529,
      "av": 530,
      "ated": 531,
      "Ġ2": 532,
      "ff": 533,
      "port": 534,
      "ack": 535,
      "åĲ": 536,
      "Ġpart": 537,
      "ä¸Ģ": 538,
      "Ġsp": 539,
      "Ġse": 540,
      "Ġdie": 541,
      "age": 542,
      "çĶ": 543,
      "æĪ": 544,
      "ä¼": 545,
      "ĠâĢľ": 546,
      "Ġproduc": 547,
      "Ã±": 548,
      "Ġrec": 549,
      "ood": 550,
      "ound": 551,
      "Ġac": 552,
      "ĠY": 553,
      "åľ¨": 554,
      "ign": 555,
      "ĠCh": 556,
      "ah": 557,
      "vel": 558,
      "velop": 559,
      "ence": 560,
      "Ġhas": 561,
      "ome": 562,
      "ber": 563,
      "ject": 564,
      "Ġtheir": 565,
      "ong": 566,
      "rough": 567,
      "Ġwer": 568,
      "Ġwere": 569,
      "Ġwould": 570,
      "ffect": 571,
      "Ġacc": 572,
      "ok": 573,
      "Ġwork": 574,
      "Ġdes": 575,
      "Ġder": 576,
      "Ġad": 577,
      "own": 578,
      "Ġwe": 579,
      "Ġol": 580,
      "ek": 581,
      "Ġcomm": 582,
      "ient": 583,
      "ia": 584,
      "Ġthrough": 585,
      "âĢĶ": 586,
      "Ġchild": 587,
      "ine": 588,
      "ie": 589,
      "Ġhe": 590,
      "emp": 591,
      "Ġcont": 592,
      "Ã¼n": 593,
      "Ġout": 594,
      "ast": 595,
      "Ġsome": 596,
      "ust": 597,
      "å°": 598,
      "ĠAn": 599,
      "aus": 600,
      "||": 601,
      "Ġpl": 602,
      "ific": 603,
      "Ġhis": 604,
      "Ġest": 605,
      "Ġspec": 606,
      "Ġes": 607,
      "Ġshould": 608,
      "Ġals": 609,
      "Ġalso": 610,
      "æĸ": 611,
      "Ġthan": 612,
      "Ġman": 613,
      "Ġ200": 614,
      "Ġinc": 615,
      "az": 616,
      "æľī": 617,
      "Ġpres": 618,
      "Ġtim": 619,
      "Ġ3": 620,
      "lar": 621,
      "Ġpara": 622,
      "tern": 623,
      "ĠSt": 624,
      "Ġhigh": 625,
      "Ġmor": 626,
      "Ġmore": 627,
      "åĬ": 628,
      "Ġper": 629,
      "Ġcould": 630,
      "ance": 631,
      "ough": 632,
      "ook": 633,
      "Ġnew": 634,
      "Ġwho": 635,
      "äºĨ": 636,
      "ĠThis": 637,
      "äºº": 638,
      "Ġne": 639,
      "Ġimport": 640,
      "iff": 641,
      "Ġdiff": 642,
      "uf": 643,
      "ç»": 644,
      "aÅŁ": 645,
      "Ġdevelop": 646,
      "ä¸į": 647,
      "æĹ": 648,
      "ÃŁ": 649,
      "stem": 650,
      "ystem": 651,
      "irst": 652,
      "Ġfirst": 653,
      "reat": 654,
      "Ġpre": 655,
      "Ã¶n": 656,
      ").": 657,
      "ans": 658,
      "Ġtrans": 659,
      "åĽ": 660,
      "ations": 661,
      "Ġmay": 662,
      "ople": 663,
      "Ġop": 664,
      "Ä±nd": 665,
      "lec": 666,
      "Ġap": 667,
      "Ġapp": 668,
      "Ġgro": 669,
      "Ġdo": 670,
      "Ġ18": 671,
      "ĠZ": 672,
      "iver": 673,
      "ep": 674,
      "ide": 675,
      "Ġact": 676,
      "Ġup": 677,
      "iÅŁ": 678,
      "Ġob": 679,
      "ĠÃ§": 680,
      "ass": 681,
      "Ä±r": 682,
      "Ä±ÅŁ": 683,
      "formation": 684,
      "Ġover": 685,
      "Ġmost": 686,
      "å¹": 687,
      "è®": 688,
      "lich": 689,
      "icht": 690,
      "amp": 691,
      "Ġcons": 692,
      "ond": 693,
      "ord": 694,
      "è¯": 695,
      "ution": 696,
      "eople": 697,
      "Ġpeople": 698,
      "Ġcl": 699,
      "Ġincl": 700,
      "Ġinclud": 701,
      "Ġzu": 702,
      "ear": 703,
      "Ġyear": 704,
      "earch": 705,
      "Ġresearch": 706,
      "ge": 707,
      "gr": 708,
      "Ġme": 709,
      "ace": 710,
      "Ġonly": 711,
      "å¤§": 712,
      "art": 713,
      "åį": 714,
      "Ãº": 715,
      "truc": 716,
      "Ġlik": 717,
      "æĿ": 718,
      "Ġ201": 719,
      "Ġcol": 720,
      "gram": 721,
      "ary": 722,
      "ĠEn": 723,
      "Ġchang": 724,
      "Ġinto": 725,
      "Ġresult": 726,
      "Ġlas": 727,
      "af": 728,
      "Ġhad": 729,
      "Ġsup": 730,
      "ible": 731,
      "ress": 732,
      "Ġjust": 733,
      "Ä±nÄ±": 734,
      "Ġauf": 735,
      "ities": 736,
      "ten": 737,
      "Ġsuch": 738,
      "ater": 739,
      "Ġwater": 740,
      "ative": 741,
      "ier": 742,
      "ler": 743,
      "erv": 744,
      "Ġprov": 745,
      "Ġprogram": 746,
      "lic": 747,
      "ublic": 748,
      "ious": 749,
      "Ġone": 750,
      "Ä±k": 751,
      "Ġtime": 752,
      "Ġcoun": 753,
      "ĠfÃ¼r": 754,
      "Ä±l": 755,
      "Ġwhen": 756,
      "Ġdel": 757,
      "low": 758,
      "Ġhow": 759,
      "Ġsystem": 760,
      "åŃ": 761,
      "ä¸Ń": 762,
      "å¸": 763,
      "Ġits": 764,
      "ular": 765,
      "Ġwhat": 766,
      "rop": 767,
      "ational": 768,
      "ual": 769,
      "æī": 770,
      "aj": 771,
      "Ġtw": 772,
      "Ġtwo": 773,
      "000": 774,
      "Ġinter": 775,
      "Ġeffect": 776,
      "å¼": 777,
      "Ġpor": 778,
      "ĥ½": 779,
      "Ġgr": 780,
      "hr": 781,
      "Ġtak": 782,
      "Ġmak": 783,
      "ÃŃa": 784,
      "Ġpers": 785,
      "Ġperson": 786,
      "å¾": 787,
      "Ġimportant": 788,
      "Ġro": 789,
      "ail": 790,
      "ĠUniver": 791,
      "ĠIt": 792,
      "Ġbec": 793,
      "Ġbecaus": 794,
      "éĢ": 795,
      "éĩ": 796,
      "ado": 797,
      "ile": 798,
      "abil": 799,
      "In": 800,
      "å·": 801,
      "Ġkn": 802,
      "Ġknow": 803,
      "æĪĳ": 804,
      "Ġ4": 805,
      "ection": 806,
      "Ġam": 807,
      "Ġuna": 808,
      "Ġgroup": 809,
      "iÃ§": 810,
      "ĠiÃ§": 811,
      "å¥": 812,
      "idad": 813,
      "Ġnicht": 814,
      "ĠâĢĵ": 815,
      "Ġ199": 816,
      "ĠPro": 817,
      "rit": 818,
      "cess": 819,
      "rec": 820,
      "Ġdirec": 821,
      "inc": 822,
      "ark": 823,
      "te": 824,
      "Ġlevel": 825,
      "Ġgen": 826,
      "educ": 827,
      "Ġte": 828,
      "Ġdiffer": 829,
      "ĠAl": 830,
      "Ġdur": 831,
      "ame": 832,
      "ue": 833,
      "Ġmany": 834,
      "Ġreg": 835,
      "ove": 836,
      "Ġso": 837,
      "oun": 838,
      "ount": 839,
      "Ġbeen": 840,
      "ens": 841,
      "Ġprob": 842,
      "Ġprocess": 843,
      "Ġform": 844,
      "ian": 845,
      "Ġwell": 846,
      "ere": 847,
      "Ġwhere": 848,
      "ĠWh": 849,
      "Ġ-": 850,
      "Ġ5": 851,
      "Ġif": 852,
      "ĠÃ": 853,
      "Ġsub": 854,
      "Ġproble": 855,
      "Ġbu": 856,
      "Ġincre": 857,
      "Ġincreas": 858,
      "ĠNew": 859,
      "ident": 860,
      "Ġmod": 861,
      "ollow": 862,
      "è¡": 863,
      "èĢ": 864,
      "Ġmuch": 865,
      "ates": 866,
      "Ġneed": 867,
      "Ġresp": 868,
      "Ġcaus": 869,
      "Ġstr": 870,
      "Ġsch": 871,
      "Ġadd": 872,
      "Ġind": 873,
      "ely": 874,
      "iy": 875,
      "io": 876,
      "iel": 877,
      "ory": 878,
      "Ġfound": 879,
      "Ġever": 880,
      "larÄ±": 881,
      "Ä±ÄŁ": 882,
      "Ä±nda": 883,
      "Ġrel": 884,
      "lish": 885,
      "åĽ½": 886,
      "Ġpol": 887,
      "Ġpos": 888,
      "Ġour": 889,
      "ä¿": 890,
      "Ġcar": 891,
      "Ġvon": 892,
      "èµ": 893,
      "Ġstudent": 894,
      "Ġdifferent": 895,
      "ĴĮ": 896,
      "åĴĮ": 897,
      "land": 898,
      "ä¸Ĭ": 899,
      "åĩ": 900,
      "Ġprop": 901,
      "åº": 902,
      "Ġthey": 903,
      "Ġag": 904,
      "Ġgener": 905,
      "ĠAr": 906,
      "ĠAm": 907,
      "ĠAmer": 908,
      "ĠAmeric": 909,
      "Ġcountr": 910,
      "Ġused": 911,
      "Ġuse": 912,
      "å¹´": 913,
      "åĨ": 914,
      "å¯": 915,
      "),": 916,
      "Ġrep": 917,
      "we": 918,
      "ween": 919,
      "tween": 920,
      "Ġbetween": 921,
      "Ġinformation": 922,
      "Ġhab": 923,
      "Ġhel": 924,
      "Ġhelp": 925,
      "çĽ": 926,
      "Ġ10": 927,
      "Ä±m": 928,
      "omm": 929,
      "Ġproblem": 930,
      "ann": 931,
      "ĠgÃ¶": 932,
      "Ġden": 933,
      "ology": 934,
      "ose": 935,
      "Ġthose": 936,
      "Ġagain": 937,
      "Ġlong": 938,
      "Ġknown": 939,
      "fter": 940,
      "Ġafter": 941,
      "Ġfollow": 942,
      "ourc": 943,
      "è§": 944,
      "uth": 945,
      "isch": 946,
      "ĠSch": 947,
      "ov": 948,
      "ions": 949,
      "Ġyears": 950,
      "Ġnum": 951,
      "Ġnumber": 952,
      "åĮ": 953,
      "Ġelec": 954,
      "Ġconc": 955,
      "Ġdisc": 956,
      "overn": 957,
      "overnment": 958,
      "aterial": 959,
      "Ġpartic": 960,
      "ick": 961,
      "alth": 962,
      "Ġhealth": 963,
      "ĠRe": 964,
      "Ġsc": 965,
      "Ġcommun": 966,
      "les": 967,
      "Ġent": 968,
      "Ġexamp": 969,
      "Ġsupport": 970,
      "Ġold": 971,
      "old": 972,
      "de": 973,
      "Ġprof": 974,
      "ĠÃ¼": 975,
      "ä»¥": 976,
      "ism": 977,
      "Ġwhile": 978,
      "Ä±z": 979,
      "ons": 980,
      "ays": 981,
      "ĠiÃ§in": 982,
      "Ġactiv": 983,
      "æĬ": 984,
      "çī": 985,
      "Ġyap": 986,
      "åĪ°": 987,
      "ĠâĢ": 988,
      "Ġo": 989,
      "Ġeach": 990,
      "ept": 991,
      "ful": 992,
      "ä¾": 993,
      "ĠÃ¼ber": 994,
      "Ġany": 995,
      "ath": 996,
      "Ã¡s": 997,
      "ĠmÃ¡s": 998,
      "è¿Ļ": 999,
      "ä¸ª": 1000,
      "Ġdec": 1001,
      "Ġph": 1002,
      "Ġgreat": 1003,
      "æĿ¥": 1004,
      "Ġpublic": 1005,
      "aÄŁ": 1006,
      "å¿": 1007,
      "Ġtech": 1008,
      "Ġtechn": 1009,
      "Ġlif": 1010,
      "Ġdesign": 1011,
      "Ġrequ": 1012,
      "Ġreport": 1013,
      "æĹ¶": 1014,
      "Ġdr": 1015,
      "Ġmit": 1016,
      "ern": 1017,
      "Ġrespons": 1018,
      "sch": 1019,
      "ied": 1020,
      "ä¸º": 1021,
      "åĩº": 1022,
      "ustr": 1023,
      "Ġsign": 1024,
      "ink": 1025,
      "Ġright": 1026,
      "iÄŁ": 1027,
      "ervic": 1028,
      "å½": 1029,
      "å±": 1030,
      "ually": 1031,
      "Ġpresent": 1032,
      "vent": 1033,
      "ä¼ļ": 1034,
      "Ġcall": 1035,
      "ada": 1036,
      "æķ": 1037,
      "Ġshow": 1038,
      "Ġsu": 1039,
      "atur": 1040,
      "Ġgrow": 1041,
      "Ġworl": 1042,
      "Ġworld": 1043,
      "Ġlike": 1044,
      "ĠFr": 1045,
      "è´": 1046,
      "è¦": 1047,
      "è¦ģ": 1048,
      "ower": 1049,
      "Ġref": 1050,
      "Ġrem": 1051,
      "çĶŁ": 1052,
      "çĶ¨": 1053,
      "Ġchildr": 1054,
      "Ġchildren": 1055,
      "Ġsich": 1056,
      "ember": 1057,
      "emb": 1058,
      "Ġbecause": 1059,
      "larÄ±n": 1060,
      "se": 1061,
      "Ġthese": 1062,
      "one": 1063,
      "ite": 1064,
      "ience": 1065,
      "istory": 1066,
      "Ġ6": 1067,
      "Ġbuild": 1068,
      "Ġthough": 1069,
      "è¡Į": 1070,
      "Ġ20": 1071,
      "den": 1072,
      "Ġwerden": 1073,
      "æŃ": 1074,
      "æĶ": 1075,
      "ï¼ļ": 1076,
      "ert": 1077,
      "Ġart": 1078,
      "Ġaround": 1079,
      "Ġher": 1080,
      "Ġparticular": 1081,
      "term": 1082,
      "ext": 1083,
      "ature": 1084,
      "ĠSp": 1085,
      "Ġdem": 1086,
      "Ġvar": 1087,
      "Ġemp": 1088,
      "olution": 1089,
      "Ġplant": 1090,
      "ire": 1091,
      "Ġpower": 1092,
      "Ġclass": 1093,
      "Ġhum": 1094,
      "Ġhuman": 1095,
      "iew": 1096,
      "Ġcontr": 1097,
      "Ġreduc": 1098,
      "ĠÅŁ": 1099,
      "Ġbl": 1100,
      "Ġevery": 1101,
      "âĢ¦": 1102,
      "éĿ": 1103,
      "éĹ": 1104,
      "éĻ": 1105,
      "ĠFor": 1106,
      "Ġprovid": 1107,
      "rol": 1108,
      "Ġcontrol": 1109,
      "Ġloc": 1110,
      "ward": 1111,
      "ments": 1112,
      "Ġbefor": 1113,
      "Ġcent": 1114,
      "ocial": 1115,
      "oci": 1116,
      "Ġoc": 1117,
      "Ġocc": 1118,
      "oth": 1119,
      "Ġboth": 1120,
      "èĥ½": 1121,
      "èĩ": 1122,
      "æĢ": 1123,
      "ase": 1124,
      "èĩª": 1125,
      "Ġwir": 1126,
      "Ġequ": 1127,
      "Ġear": 1128,
      "gan": 1129,
      "Ġorgan": 1130,
      "ament": 1131,
      "amil": 1132,
      "Ġfamil": 1133,
      "ĠSie": 1134,
      "Ġduring": 1135,
      "tom": 1136,
      "yp": 1137,
      "Ġtyp": 1138,
      "Ġstudy": 1139,
      "Ġthere": 1140,
      "ros": 1141,
      "Ġbr": 1142,
      "Ġgovernment": 1143,
      "Wh": 1144,
      "ĠÄ°": 1145,
      "Ġwrit": 1146,
      "çľ": 1147,
      "ç§": 1148,
      "Ġcomo": 1149,
      "Ġpop": 1150,
      "Ġist": 1151,
      "Ġtreat": 1152,
      "ree": 1153,
      "Ġthree": 1154,
      "Ġthink": 1155,
      "ool": 1156,
      "Ġschool": 1157,
      "åľ°": 1158,
      "åı¯": 1159,
      "10": 1160,
      "å®¶": 1161,
      "æł": 1162,
      "unc": 1163,
      "unction": 1164,
      "man": 1165,
      "æĪĲ": 1166,
      "Ġeven": 1167,
      "çİ": 1168,
      "åİ": 1169,
      "Ġdas": 1170,
      "Ġteach": 1171,
      "Ġcomple": 1172,
      "ĠOn": 1173,
      "Ġfind": 1174,
      "Ġfact": 1175,
      "Ġproject": 1176,
      "ors": 1177,
      "å°±": 1178,
      "ĠÃ¶": 1179,
      "ield": 1180,
      "encia": 1181,
      "ade": 1182,
      "Ġmade": 1183,
      "ological": 1184,
      "omp": 1185,
      "Ġesp": 1186,
      "Ġstate": 1187,
      "lect": 1188,
      "Ġvery": 1189,
      "row": 1190,
      "åĳ": 1191,
      "å¯¹": 1192,
      "Ġwar": 1193,
      "Ġfr": 1194,
      "Ġway": 1195,
      "uz": 1196,
      "truct": 1197,
      "Ġconsid": 1198,
      "Ġmake": 1199,
      "econd": 1200,
      "Ġexample": 1201,
      "__": 1202,
      "Ġsignific": 1203,
      "ä½ľ": 1204,
      "ically": 1205,
      "ice": 1206,
      "Ġplace": 1207,
      "Ġauch": 1208,
      "Ġet": 1209,
      "Ġget": 1210,
      "Ġoff": 1211,
      "åĵ": 1212,
      "acion": 1213,
      "ĠThere": 1214,
      "erg": 1215,
      "Ġenerg": 1216,
      "onom": 1217,
      "econom": 1218,
      "Ġ15": 1219,
      "Ġown": 1220,
      "Ġdown": 1221,
      "roduc": 1222,
      "stit": 1223,
      "eit": 1224,
      "eb": 1225,
      "Ġnow": 1226,
      "ĠStates": 1227,
      "aw": 1228,
      "ather": 1229,
      "Ġbecome": 1230,
      "å¤ļ": 1231,
      "Ġback": 1232,
      "Ġagainst": 1233,
      "ull": 1234,
      "Ġpopul": 1235,
      "Ġinf": 1236,
      "elf": 1237,
      "Ġlead": 1238,
      "Ġconsider": 1239,
      "Ġcap": 1240,
      "ever": 1241,
      "Ġsever": 1242,
      "Ġappear": 1243,
      "Ġscient": 1244,
      "ified": 1245,
      "Ġrepres": 1246,
      "owever": 1247,
      "Ġbefore": 1248,
      "ĠAmerican": 1249,
      "Ġlife": 1250,
      "ating": 1251,
      "è½": 1252,
      "Ġtemp": 1253,
      "uccess": 1254,
      "Ġappro": 1255,
      "asÄ±": 1256,
      "Ä±ÄŁÄ±": 1257,
      "urn": 1258,
      "Ġgood": 1259,
      "Ġblood": 1260,
      "Ġfood": 1261,
      "Ġindiv": 1262,
      "Ġindivid": 1263,
      "Ġindividual": 1264,
      "ĠUnivers": 1265,
      "ĠUniversity": 1266,
      "Ġlook": 1267,
      "æ°": 1268,
      "æĸ°": 1269,
      "ĠâĢĺ": 1270,
      "åıĳ": 1271,
      "Ġallow": 1272,
      "ä»ĸ": 1273,
      "Ã¡n": 1274,
      "Ġespec": 1275,
      "aid": 1276,
      "Ġsaid": 1277,
      "Ġsur": 1278,
      "Ġsame": 1279,
      "Ġconf": 1280,
      "çº": 1281,
      "hn": 1282,
      "ublish": 1283,
      "stitution": 1284,
      "tos": 1285,
      "ank": 1286,
      "uk": 1287,
      "ock": 1288,
      "aph": 1289,
      "app": 1290,
      "ph": 1291,
      "pl": 1292,
      "æĸ¹": 1293,
      "Ġ7": 1294,
      "Ġer": 1295,
      "Ġeduc": 1296,
      "ĠQ": 1297,
      "æµ": 1298,
      "ĠHe": 1299,
      "Åŀ": 1300,
      "éģ": 1301,
      "æĥ": 1302,
      "æ²": 1303,
      "æ³": 1304,
      "æİ": 1305,
      "Ġsol": 1306,
      "ĠÂ": 1307,
      "This": 1308,
      "Ġmaterial": 1309,
      "å¥½": 1310,
      "Ġanother": 1311,
      "Ġdevelopment": 1312,
      "Ġinv": 1313,
      "iss": 1314,
      "ission": 1315,
      "Ġobject": 1316,
      "Ġlo": 1317,
      "ix": 1318,
      "Ġword": 1319,
      "Ġindustr": 1320,
      "Ġread": 1321,
      "aft": 1322,
      "int": 1323,
      "oint": 1324,
      "Ġpoint": 1325,
      "Ġcontin": 1326,
      "ĠTr": 1327,
      "Ġ8": 1328,
      "Ġ&": 1329,
      "Ġ9": 1330,
      "eh": 1331,
      "ise": 1332,
      "Ġvis": 1333,
      "Ġnatur": 1334,
      "Ġprovide": 1335,
      "Ġwithout": 1336,
      "que": 1337,
      "Ġaddition": 1338,
      "ä¸ļ": 1339,
      "ä¸ĭ": 1340,
      "acter": 1341,
      "Ġpract": 1342,
      "Ġprim": 1343,
      "Ġenc": 1344,
      "truction": 1345,
      "ailable": 1346,
      "vailable": 1347,
      "Ġearly": 1348,
      "Ã¼k": 1349,
      "Ã¼z": 1350,
      "Ġdesc": 1351,
      "Ġile": 1352,
      "Ġelectr": 1353,
      "Ġorganiz": 1354,
      "Ġcommon": 1355,
      "å°ı": 1356,
      "Ġcre": 1357,
      "åī": 1358,
      "hip": 1359,
      "ĠNational": 1360,
      "ternational": 1361,
      "Ġspecies": 1362,
      "mall": 1363,
      "Ġsmall": 1364,
      "ä¹Ł": 1365,
      "ĠbaÅŁ": 1366,
      "Ġbas": 1367,
      "Ġbook": 1368,
      "æĹ¥": 1369,
      "Ġamong": 1370,
      "Ġ17": 1371,
      "Ã¤n": 1372,
      "Ġtest": 1373,
      "ĠAnd": 1374,
      "åŃ¦": 1375,
      "åŃĲ": 1376,
      "illion": 1377,
      "æ¯": 1378,
      "ork": 1379,
      "æŀ": 1380,
      "Ġdef": 1381,
      "Ġ[": 1382,
      "Ġend": 1383,
      "inde": 1384,
      "Ġrepresent": 1385,
      "å¦": 1386,
      "ĠâĢŀ": 1387,
      "ĠCon": 1388,
      "ness": 1389,
      "Ġhowever": 1390,
      "amb": 1391,
      "ER": 1392,
      "Ġspecific": 1393,
      "ç½": 1394,
      "ĠEx": 1395,
      "Ġatt": 1396,
      "Ġeconom": 1397,
      "Ä±ndan": 1398,
      "Ġterm": 1399,
      "Ġem": 1400,
      "å·¥": 1401,
      "Ġservic": 1402,
      "Ġcalled": 1403,
      "Ġthem": 1404,
      "Ġimm": 1405,
      "ĠÃ§ok": 1406,
      "Ġreal": 1407,
      "Ġstudents": 1408,
      "Ġass": 1409,
      "Ã¼ÅŁ": 1410,
      "çĲ": 1411,
      "çĲĨ": 1412,
      "view": 1413,
      "Ġview": 1414,
      "Ġcontain": 1415,
      "Ġremain": 1416,
      "ertain": 1417,
      "Ġcr": 1418,
      "Ġcor": 1419,
      "urr": 1420,
      "urrent": 1421,
      "Ġassoci": 1422,
      "ĠInd": 1423,
      "dition": 1424,
      "Ġcondition": 1425,
      "ives": 1426,
      "ax": 1427,
      "Ġlar": 1428,
      "Ġlarge": 1429,
      "Ġlarg": 1430,
      "Ã¶r": 1431,
      "ĠUnit": 1432,
      "Ġsocial": 1433,
      "Ġprevent": 1434,
      "ability": 1435,
      "Ġstart": 1436,
      "Ġstill": 1437,
      "Ġwom": 1438,
      "ility": 1439,
      "ages": 1440,
      "åĪĨ": 1441,
      "Ġresourc": 1442,
      "Ġlikely": 1443,
      "çŃ": 1444,
      "ately": 1445,
      "Ġstand": 1446,
      "vir": 1447,
      "viron": 1448,
      "vironment": 1449,
      "Ġenvironment": 1450,
      "ohn": 1451,
      "Ġquest": 1452,
      "Ġmust": 1453,
      "Ġless": 1454,
      "uy": 1455,
      "uÄŁ": 1456,
      "ĠolduÄŁ": 1457,
      "der": 1458,
      "Ġorder": 1459,
      "Ġexper": 1460,
      "Ġant": 1461,
      "Ġexc": 1462,
      "Ġfl": 1463,
      "Ġexpl": 1464,
      "ĠEng": 1465,
      "ince": 1466,
      "Ġbel": 1467,
      "Ġbelie": 1468,
      "Ġperc": 1469,
      "Ġpercent": 1470,
      "Ġperform": 1471,
      "Ġevent": 1472,
      "Ġdirect": 1473,
      "é¢": 1474,
      "éĿ¢": 1475,
      "Ġpat": 1476,
      "Ġpatient": 1477,
      "ĠJohn": 1478,
      "though": 1479,
      "ahr": 1480,
      "ien": 1481,
      "Ġdoc": 1482,
      "ĠUnited": 1483,
      "Ġod": 1484,
      "Ġoder": 1485,
      "Ġhistory": 1486,
      "Ġbecame": 1487,
      "ĠComm": 1488,
      "Ġadv": 1489,
      "lik": 1490,
      "Ġ12": 1491,
      "urop": 1492,
      "ĠEurop": 1493,
      "ues": 1494,
      "uÅŁ": 1495,
      "Ġcurrent": 1496,
      "Ġrecord": 1497,
      "Ġsim": 1498,
      "Ġson": 1499,
      "ĠHowever": 1500,
      "éĥ½": 1501,
      "ios": 1502,
      "istr": 1503,
      "ä»¬": 1504,
      "ĠHealth": 1505,
      "çİ°": 1506,
      "Ġcell": 1507,
      "åĢ": 1508,
      "Ġprinc": 1509,
      "Ġprincip": 1510,
      "Ġbod": 1511,
      "Ġbody": 1512,
      "ey": 1513,
      "Ġenergy": 1514,
      "itt": 1515,
      "oy": 1516,
      "ando": 1517,
      "ency": 1518,
      "ido": 1519,
      "ially": 1520,
      "Ġespecially": 1521,
      "Ġ16": 1522,
      "ww": 1523,
      "ences": 1524,
      "Ġdoes": 1525,
      "Ġcour": 1526,
      "åħ¬": 1527,
      "æ¬": 1528,
      "æĦ": 1529,
      "ĠIf": 1530,
      "Ġdies": 1531,
      "ĠÃ¶n": 1532,
      "lam": 1533,
      "lection": 1534,
      "gen": 1535,
      "Ġexist": 1536,
      "la": 1537,
      ".\"": 1538,
      "leri": 1539,
      "thod": 1540,
      "Ġmethod": 1541,
      "æĭ": 1542,
      "ck": 1543,
      "Ġland": 1544,
      "Ġpass": 1545,
      "Ġinterest": 1546,
      "ados": 1547,
      "ĠSh": 1548,
      "ç«": 1549,
      "åīį": 1550,
      "line": 1551,
      "Ġgo": 1552,
      "Ġunder": 1553,
      "Ġ198": 1554,
      "Ġdat": 1555,
      "Ġdata": 1556,
      "Ġparticip": 1557,
      "stitut": 1558,
      "ra": 1559,
      "pr": 1560,
      "ĠOr": 1561,
      "Ġstandard": 1562,
      "Ġeine": 1563,
      "Ġtreatment": 1564,
      "Ġplan": 1565,
      "Ġunders": 1566,
      "å¤©": 1567,
      "ĠPr": 1568,
      "æ¸": 1569,
      "å¼Ģ": 1570,
      "mak": 1571,
      "arak": 1572,
      "Ġolarak": 1573,
      "Ġlear": 1574,
      "Ġlearn": 1575,
      "ĠAs": 1576,
      "æĮ": 1577,
      "Ġincluding": 1578,
      "å¿ĥ": 1579,
      "ç½ĳ": 1580,
      "ungen": 1581,
      "Ġyoung": 1582,
      "ĠEnglish": 1583,
      "ablish": 1584,
      "Ġestablish": 1585,
      "Ġide": 1586,
      "Ġed": 1587,
      "Ġident": 1588,
      "Ġnec": 1589,
      "Ġnor": 1590,
      "Ġsecond": 1591,
      "Ġris": 1592,
      "Ġrisk": 1593,
      "icult": 1594,
      "Ġdifficult": 1595,
      "Ġamount": 1596,
      "Ġchar": 1597,
      "Ġcharacter": 1598,
      "Ġsimp": 1599,
      "æ³ķ": 1600,
      "çŃī": 1601,
      "ef": 1602,
      "Ġsubject": 1603,
      "Ġhand": 1604,
      "Ġhim": 1605,
      "Ġdescr": 1606,
      "Ġdescrib": 1607,
      "ize": 1608,
      "åĲİ": 1609,
      "Ġcult": 1610,
      "Ġmodel": 1611,
      "è¾": 1612,
      "å¾Ĺ": 1613,
      "Ġusually": 1614,
      "Ġusing": 1615,
      "ĠGr": 1616,
      "ĠYork": 1617,
      "work": 1618,
      "Ġwomen": 1619,
      "ce": 1620,
      "Ġcentur": 1621,
      "é«": 1622,
      "é«ĺ": 1623,
      "éĺ": 1624,
      "çľĭ": 1625,
      "éĽ": 1626,
      "18": 1627,
      "æľ¬": 1628,
      "lerin": 1629,
      "Ġtod": 1630,
      "Ġwird": 1631,
      "read": 1632,
      "Ġinvest": 1633,
      "Ġinvol": 1634,
      "Ġnatural": 1635,
      "Ġfunction": 1636,
      "50": 1637,
      "è¿ĩ": 1638,
      "Ġplay": 1639,
      "äºİ": 1640,
      "Ġvari": 1641,
      "orn": 1642,
      "ĠÃĸ": 1643,
      "ä½ł": 1644,
      "Ġlang": 1645,
      "Ã¼m": 1646,
      "åŁ": 1647,
      "Ġtechnology": 1648,
      "Ġspecial": 1649,
      "12": 1650,
      "ajor": 1651,
      "Ġmajor": 1652,
      "Ġmark": 1653,
      "Ġmon": 1654,
      "Ġmonth": 1655,
      "æĻ": 1656,
      "Ġimpro": 1657,
      "Ġsourc": 1658,
      "å¸Ĥ": 1659,
      "Ġdep": 1660,
      "Ġposs": 1661,
      "Ġpossible": 1662,
      "Ġda": 1663,
      "Ġval": 1664,
      "Ġvol": 1665,
      "Ġ$": 1666,
      "Ġdiscover": 1667,
      "Ġcas": 1668,
      "Ġcourse": 1669,
      "ven": 1670,
      "Ã¼ck": 1671,
      "Ġday": 1672,
      "ĠAc": 1673,
      "ĠAd": 1674,
      "'t": 1675,
      "Ġ'": 1676,
      "iyor": 1677,
      "Ġaus": 1678,
      "ä¹ĭ": 1679,
      "ĠEr": 1680,
      "ĠBut": 1681,
      "Ġsignificant": 1682,
      "Ġ30": 1683,
      "com": 1684,
      "åĬ¨": 1685,
      "åħ¨": 1686,
      "åĬĽ": 1687,
      "fr": 1688,
      "Ġscience": 1689,
      "Ġbest": 1690,
      "ters": 1691,
      "ists": 1692,
      "Ġmed": 1693,
      "Ġcertain": 1694,
      "å¦Ĥ": 1695,
      "Ġlocal": 1696,
      "lÄ±": 1697,
      "Ġpopulation": 1698,
      "Ġabove": 1699,
      "Ġavailable": 1700,
      "èĢĮ": 1701,
      "Ġvarious": 1702,
      "ĠÃľ": 1703,
      "ĠÃĩ": 1704,
      "Ġfew": 1705,
      "Ġseveral": 1706,
      "åĵģ": 1707,
      "Ġunderst": 1708,
      "Ġunderstand": 1709,
      "ont": 1710,
      "ç¾": 1711,
      "ç¾İ": 1712,
      "çĤ": 1713,
      "ugg": 1714,
      "uggest": 1715,
      "Ġleg": 1716,
      "æ±": 1717,
      "Ġele": 1718,
      "ĠDie": 1719,
      "Ġlight": 1720,
      "Ġcommunity": 1721,
      "æ´": 1722,
      "æĽ": 1723,
      "è¿Ľ": 1724,
      "ĠkÃ¶n": 1725,
      "ĠkÃ¶nn": 1726,
      "ciÃ³n": 1727,
      "ĠVer": 1728,
      "åģ": 1729,
      "Ġmain": 1730,
      "Ġphy": 1731,
      "Ġmodern": 1732,
      "Ġrequir": 1733,
      "Ġrequire": 1734,
      "Ġdist": 1735,
      "Ġdass": 1736,
      "ociet": 1737,
      "raph": 1738,
      "ograph": 1739,
      "Ã©n": 1740,
      "Ġturn": 1741,
      "eck": 1742,
      "ĠiÅŁ": 1743,
      "Ġ0": 1744,
      "Ġi": 1745,
      "Ġil": 1746,
      "ĠâĢĶ": 1747,
      "30": 1748,
      "ional": 1749,
      "Ġnach": 1750,
      "iend": 1751,
      "Ġdid": 1752,
      "uthor": 1753,
      "outh": 1754,
      "Ġdise": 1755,
      "Ġdisease": 1756,
      "Ġname": 1757,
      "ision": 1758,
      "Ġdeterm": 1759,
      "Ġlater": 1760,
      "uck": 1761,
      "Ġprofess": 1762,
      "Ġlangu": 1763,
      "Ġlanguage": 1764,
      "Ġmeans": 1765,
      "ians": 1766,
      "li": 1767,
      "Ġexperience": 1768,
      "Ġ14": 1769,
      "éģĵ": 1770,
      "èĢħ": 1771,
      "æĥħ": 1772,
      "aciones": 1773,
      "agn": 1774,
      "thing": 1775,
      "ĠX": 1776,
      "Ġsomething": 1777,
      "åĲĮ": 1778,
      "ç»ı": 1779,
      "ffic": 1780,
      "way": 1781,
      "ings": 1782,
      "Ġthings": 1783,
      "ĠAfr": 1784,
      "Ġphys": 1785,
      "Ġnecess": 1786,
      "Ġtake": 1787,
      "Ġground": 1788,
      "ument": 1789,
      "Ġcu": 1790,
      "Ġapproach": 1791,
      "èĤ": 1792,
      "Ġwant": 1793,
      "æľĢ": 1794,
      "ium": 1795,
      "Ä±y": 1796,
      "ou": 1797,
      "ĠYou": 1798,
      "è¯´": 1799,
      "çĶµ": 1800,
      "Ġstudies": 1801,
      "iÃ©n": 1802,
      "ambiÃ©n": 1803,
      "æĢ§": 1804,
      "ittle": 1805,
      "Ġlittle": 1806,
      "ved": 1807,
      "iod": 1808,
      "Ġperiod": 1809,
      "ential": 1810,
      "Ġich": 1811,
      "éĤ": 1812,
      "Ġset": 1813,
      "Ġlast": 1814,
      "ĠUS": 1815,
      "Ġ100": 1816,
      "idence": 1817,
      "Ġevidence": 1818,
      "ĠÃ§Ä±k": 1819,
      "Ä±nÄ±n": 1820,
      "Ġcountries": 1821,
      "Ġcountry": 1822,
      "Ġmove": 1823,
      "Ġsimil": 1824,
      "Ġapplic": 1825,
      "Ġdev": 1826,
      "Ġdistr": 1827,
      "tra": 1828,
      "ized": 1829,
      "æīĢ": 1830,
      "Ġlaw": 1831,
      "ways": 1832,
      "Ġsays": 1833,
      "ĠGod": 1834,
      "iento": 1835,
      "åĬł": 1836,
      "Ġfield": 1837,
      "iÄŁi": 1838,
      "irm": 1839,
      "Ġconcern": 1840,
      "AR": 1841,
      "igen": 1842,
      "Ġsind": 1843,
      "Ġser": 1844,
      "Ġsince": 1845,
      "Ġoper": 1846,
      "Ġpolit": 1847,
      "æľº": 1848,
      "Ġshort": 1849,
      "Ġsuggest": 1850,
      "æı": 1851,
      "æıĲ": 1852,
      "ä½ĵ": 1853,
      "ics": 1854,
      "ict": 1855,
      "ica": 1856,
      "ez": 1857,
      "Ġfe": 1858,
      "Ġ11": 1859,
      "Ġstrong": 1860,
      "Ġalways": 1861,
      "ĠChr": 1862,
      "ĠChrist": 1863,
      "Ġprot": 1864,
      "Ġprotect": 1865,
      "Ġaccess": 1866,
      "Ġaccord": 1867,
      "Ġaccount": 1868,
      "åĮĸ": 1869,
      "mp": 1870,
      "mptom": 1871,
      "Ġgel": 1872,
      "Ġgib": 1873,
      "Ġcost": 1874,
      "Ġ13": 1875,
      "Ġoften": 1876,
      "Ġsuccess": 1877,
      "Ġfamily": 1878,
      "ĠCol": 1879,
      "æĸĩ": 1880,
      "ange": 1881,
      "ĠThey": 1882,
      "ret": 1883,
      "ief": 1884,
      "Ġmus": 1885,
      "Ġmight": 1886,
      "Ġmillion": 1887,
      "ĠAb": 1888,
      "ĠSc": 1889,
      "ĠMar": 1890,
      "Ġsay": 1891,
      "çĤ¹": 1892,
      "ently": 1893,
      "ischen": 1894,
      "enn": 1895,
      "Ġihr": 1896,
      "Ġsupp": 1897,
      "//": 1898,
      "://": 1899,
      "Ġscientists": 1900,
      "Ġnear": 1901,
      "are": 1902,
      "ware": 1903,
      "There": 1904,
      "Ġdah": 1905,
      "gricult": 1906,
      "Ġum": 1907,
      "ior": 1908,
      "pect": 1909,
      "ures": 1910,
      "urch": 1911,
      "ilm": 1912,
      "Ġmil": 1913,
      "mal": 1914,
      "Ġnormal": 1915,
      "An": 1916,
      "yn": 1917,
      "Ġeducation": 1918,
      "Ġpublish": 1919,
      "å®ŀ": 1920,
      "å®ļ": 1921,
      "acak": 1922,
      "Ġkull": 1923,
      "Ġkullan": 1924,
      "fort": 1925,
      "ox": 1926,
      "ivers": 1927,
      "abor": 1928,
      "Ġ197": 1929,
      "Ġcover": 1930,
      "Ġnever": 1931,
      "Ġext": 1932,
      "åĲĪ": 1933,
      "ĠScience": 1934,
      "Ġsimilar": 1935,
      "Ġorig": 1936,
      "Ġorigin": 1937,
      "Ġmin": 1938,
      "Ġfin": 1939,
      "gin": 1940,
      "Ġbegin": 1941,
      "Ġbeing": 1942,
      "Ġalong": 1943,
      "Ġlow": 1944,
      "ĠyapÄ±l": 1945,
      "Ġacros": 1946,
      "Ġwie": 1947,
      "Ġpolitical": 1948,
      "éĥ": 1949,
      "éĥ¨": 1950,
      "éķ": 1951,
      "ä¸»": 1952,
      "Ġdurch": 1953,
      "Ġkann": 1954,
      "Ġpopular": 1955,
      "Ġauthor": 1956,
      "Ġ|": 1957,
      "11": 1958,
      "éķ¿": 1959,
      "Ġzum": 1960,
      "Ġhere": 1961,
      "Ġhat": 1962,
      "Ġhome": 1963,
      "è¿ĺ": 1964,
      "è·": 1965,
      "ĠEl": 1966,
      "amente": 1967,
      "masÄ±": 1968,
      "Ġimprove": 1969,
      "Ġvisit": 1970,
      "ital": 1971,
      "Ä±na": 1972,
      "å¾Ī": 1973,
      "iven": 1974,
      "Ġgiven": 1975,
      "Ġge": 1976,
      "ĠgeÃ§": 1977,
      "Ġposition": 1978,
      "off": 1979,
      "æĽ´": 1980,
      "Ġartic": 1981,
      "ĠdeÄŁ": 1982,
      "lem": 1983,
      "arm": 1984,
      "åľº": 1985,
      "Ġtimes": 1986,
      "å¥³": 1987,
      "ĠComp": 1988,
      "Ġcentury": 1989,
      "æľĪ": 1990,
      "Ġimpact": 1991,
      "Ġbul": 1992,
      "ĠThes": 1993,
      "ĠThese": 1994,
      "Ġshe": 1995,
      "ĠWe": 1996,
      "Ġchange": 1997,
      "anz": 1998,
      "Ä±nÄ±z": 1999,
      "iving": 2000,
      "Ġdocument": 2001,
      "rem": 2002,
      "Ġextrem": 2003,
      "Ġhapp": 2004,
      "Ġblack": 2005,
      "Ġsus": 2006,
      "Ġdiscus": 2007,
      "fficient": 2008,
      "Ġhous": 2009,
      "eng": 2010,
      "ength": 2011,
      "www": 2012,
      "Ġinclude": 2013,
      "åı¯ä»¥": 2014,
      "Ġaddress": 2015,
      "ression": 2016,
      "åº¦": 2017,
      "Ġonline": 2018,
      "Ġdepend": 2019,
      "Ġgeneral": 2020,
      "ĠSchool": 2021,
      "Ġgl": 2022,
      "Ġglob": 2023,
      "Ġactivities": 2024,
      "Ġbre": 2025,
      "erc": 2026,
      "é¡": 2027,
      "Ġmeas": 2028,
      "Ġconduc": 2029,
      "Ġanim": 2030,
      "Ġanimal": 2031,
      "iment": 2032,
      "Ġexperiment": 2033,
      "imate": 2034,
      "Ġclimate": 2035,
      "vers": 2036,
      "vious": 2037,
      "Ġlink": 2038,
      "äº§": 2039,
      "Ġfollowing": 2040,
      "ini": 2041,
      "ines": 2042,
      "tructure": 2043,
      "Ġmehr": 2044,
      "Ġbrain": 2045,
      "beit": 2046,
      "omb": 2047,
      "Ġquestion": 2048,
      "Ġquestions": 2049,
      "Ġnational": 2050,
      "Ġih": 2051,
      "Ġdays": 2052,
      "adition": 2053,
      "Ġtradition": 2054,
      "å§": 2055,
      "Ġleast": 2056,
      "istor": 2057,
      "Ġhistor": 2058,
      "ĠEurope": 2059,
      "Ġfour": 2060,
      "Ġexpect": 2061,
      "air": 2062,
      "abilir": 2063,
      "ash": 2064,
      "ĠPh": 2065,
      "ico": 2066,
      "lo": 2067,
      "Ġtext": 2068,
      "Ġnext": 2069,
      "äºĭ": 2070,
      "æīĭ": 2071,
      "Ġolan": 2072,
      "Ġ50": 2073,
      "åķ": 2074,
      "åĿ": 2075,
      "ä¿Ŀ": 2076,
      "å±ķ": 2077,
      "Ġcase": 2078,
      "Ã±os": 2079,
      "Ġcontrib": 2080,
      "èī": 2081,
      "ore": 2082,
      "ĠNor": 2083,
      "ĠNorth": 2084,
      "ste": 2085,
      "Ġcomput": 2086,
      "Ġsens": 2087,
      "Ġsit": 2088,
      "Ġsie": 2089,
      "ociety": 2090,
      "tegr": 2091,
      "gether": 2092,
      "Ġlist": 2093,
      "Ġlim": 2094,
      "Ġlimit": 2095,
      "ä¸İ": 2096,
      ".âĢĿ": 2097,
      "agement": 2098,
      "Ġphysical": 2099,
      "ç®": 2100,
      "ĠCent": 2101,
      "Ġconsum": 2102,
      "eler": 2103,
      "uel": 2104,
      "Ġattack": 2105,
      "Ġdaha": 2106,
      "Ġplac": 2107,
      "face": 2108,
      "Ġsurface": 2109,
      "ĠgÃ¶r": 2110,
      "Ġeinem": 2111,
      "Ġproduct": 2112,
      "Ġproduction": 2113,
      "par": 2114,
      "Ġscientific": 2115,
      "iniz": 2116,
      "Ġret": 2117,
      "Ġreturn": 2118,
      "iler": 2119,
      "éļ": 2120,
      "Ġaffect": 2121,
      "è½¦": 2122,
      "ourn": 2123,
      "Ãºn": 2124,
      "AN": 2125,
      "éĩį": 2126,
      "Ġcontinu": 2127,
      "Ġcare": 2128,
      "å»": 2129,
      "å»º": 2130,
      "round": 2131,
      "Ġheart": 2132,
      "Ġindic": 2133,
      "led": 2134,
      "ledge": 2135,
      "Ġknowledge": 2136,
      "Ġequip": 2137,
      "Ġgu": 2138,
      "éĹ´": 2139,
      "ĠPl": 2140,
      "ĠAll": 2141,
      "Ã¼l": 2142,
      "çķ": 2143,
      "çĻ": 2144,
      "Ġger": 2145,
      "Ġgerek": 2146,
      "ĠgÃ¼n": 2147,
      "Ġweek": 2148,
      "ç¬": 2149,
      "ç¬¬": 2150,
      "æ¯Ķ": 2151,
      "Ġtoday": 2152,
      "Ġspace": 2153,
      "Ġcomb": 2154,
      "Ġpot": 2155,
      "Ġpotential": 2156,
      "Ġpu": 2157,
      "Ġpued": 2158,
      "åİ»": 2159,
      "éĢļ": 2160,
      "embers": 2161,
      "ry": 2162,
      "lÄ±k": 2163,
      "æĥ³": 2164,
      "çĿ": 2165,
      "çĿĢ": 2166,
      "è¶": 2167,
      "ibility": 2168,
      "Ġlib": 2169,
      "Ġlower": 2170,
      "urther": 2171,
      "Ġexplain": 2172,
      "ĠProgram": 2173,
      "éĤ£": 2174,
      "é£": 2175,
      "Ġprom": 2176,
      "Ġsk": 2177,
      "cul": 2178,
      "ably": 2179,
      "Ġprobably": 2180,
      "ables": 2181,
      "ffort": 2182,
      "Ġeffort": 2183,
      "ĠStud": 2184,
      "Ġfree": 2185,
      "éĩĳ": 2186,
      "å¤ĸ": 2187,
      "Ġeffective": 2188,
      "æĦı": 2189,
      "Ġenough": 2190,
      "Ġactivity": 2191,
      "ality": 2192,
      "Ġquality": 2193,
      "ĠBrit": 2194,
      "ĠBritish": 2195,
      "Ġcrit": 2196,
      "itive": 2197,
      "ç¤": 2198,
      "çĦ": 2199,
      "çĦ¶": 2200,
      "ç¨": 2201,
      "Ġvalue": 2202,
      "ĠSouth": 2203,
      "Ġentre": 2204,
      "Ġcreat": 2205,
      "obre": 2206,
      "Ġsobre": 2207,
      "____": 2208,
      "Ġactually": 2209,
      "let": 2210,
      "Ã¼rk": 2211,
      "ĠTÃ¼rk": 2212,
      "Ġter": 2213,
      "Ġpod": 2214,
      "Ġdrug": 2215,
      "Ġprec": 2216,
      "Ġprepar": 2217,
      "Ġprevious": 2218,
      "etwork": 2219,
      "keit": 2220,
      "Ġassociated": 2221,
      "ON": 2222,
      "IN": 2223,
      "EN": 2224,
      "atory": 2225,
      "tions": 2226,
      "Ġcuando": 2227,
      "Ġcamp": 2228,
      "Ã±o": 2229,
      "ante": 2230,
      "Ä±yor": 2231,
      "ador": 2232,
      "Ġhead": 2233,
      "Ġrad": 2234,
      "æ¬¡": 2235,
      "èī²": 2236,
      "Ġesc": 2237,
      "ä¿¡": 2238,
      "abaj": 2239,
      "Ġtrabaj": 2240,
      "éĩĮ": 2241,
      "éĩı": 2242,
      "åħ¶": 2243,
      ",\"": 2244,
      "Ġitself": 2245,
      "Ġcle": 2246,
      "Ġclear": 2247,
      "15": 2248,
      "Ġfriend": 2249,
      "Ġdefin": 2250,
      "Ġtar": 2251,
      "ĠtambiÃ©n": 2252,
      "Ġtien": 2253,
      "less": 2254,
      "ungs": 2255,
      "Ġins": 2256,
      "Ġpriv": 2257,
      "Ġentire": 2258,
      "Ġrefer": 2259,
      "èµ·": 2260,
      "èµĦ": 2261,
      "Ã¼hr": 2262,
      "Ġfurther": 2263,
      "Ġfre": 2264,
      "Ġfrequ": 2265,
      "ĠInstitut": 2266,
      "è¡¨": 2267,
      "ev": 2268,
      "ymptom": 2269,
      "Ġoccur": 2270,
      "esearch": 2271,
      "ĠResearch": 2272,
      "AS": 2273,
      "ES": 2274,
      "amos": 2275,
      "Ġ196": 2276,
      "Ġmov": 2277,
      "Ġmembers": 2278,
      "å°Ĩ": 2279,
      "Ġoffic": 2280,
      "Ġinfection": 2281,
      "ä¸Ģä¸ª": 2282,
      "br": 2283,
      "ĠBr": 2284,
      "æ°´": 2285,
      "Ġalread": 2286,
      "Ġ2012": 2287,
      "Ġ2010": 2288,
      "Ġ2011": 2289,
      "16": 2290,
      "Ġflow": 2291,
      "æĺİ": 2292,
      "æĪĳä»¬": 2293,
      "ĠÃ¼z": 2294,
      "Ġeas": 2295,
      "Ġpropert": 2296,
      "Ġemb": 2297,
      "tract": 2298,
      "ived": 2299,
      "ĠkÃ¶nnen": 2300,
      "Ġbeh": 2301,
      "Ġbehav": 2302,
      "Ġbehavior": 2303,
      "oph": 2304,
      "enef": 2305,
      "Ġbenef": 2306,
      "ves": 2307,
      "elves": 2308,
      "thern": 2309,
      "ither": 2310,
      "Ġeither": 2311,
      "iendo": 2312,
      "Ġpost": 2313,
      "Ġuy": 2314,
      "ateg": 2315,
      "Ġdeath": 2316,
      "Ġmult": 2317,
      "æŀľ": 2318,
      "Ġfeel": 2319,
      "17": 2320,
      "èģ": 2321,
      "lement": 2322,
      "ĠJew": 2323,
      "Ġrespect": 2324,
      "aÃ±": 2325,
      "its": 2326,
      "Ġzur": 2327,
      "ization": 2328,
      "fer": 2329,
      "Ġnoch": 2330,
      "Ġmeasure": 2331,
      "Ġrelig": 2332,
      "Ġinvestig": 2333,
      "Ġinfl": 2334,
      "Ġinflu": 2335,
      "ants": 2336,
      "Ġkon": 2337,
      "ournal": 2338,
      "Ã¤t": 2339,
      "att": 2340,
      "ld": 2341,
      "orld": 2342,
      "ĠWorld": 2343,
      "çĽ¸": 2344,
      "Ġsitu": 2345,
      "ä½Ĩ": 2346,
      "Ġrecog": 2347,
      "Ġmanagement": 2348,
      "rect": 2349,
      "Ġrelations": 2350,
      "Ġrelationship": 2351,
      "æ°ĳ": 2352,
      "artment": 2353,
      "epartment": 2354,
      "graph": 2355,
      "Ġpolic": 2356,
      "Ġnecessary": 2357,
      "ommend": 2358,
      "Ġrecommend": 2359,
      "men": 2360,
      "Ġfac": 2361,
      "çĽ®": 2362,
      "åĽł": 2363,
      "Ġcanc": 2364,
      "Ġcancer": 2365,
      "Ġproc": 2366,
      "å¹³": 2367,
      "åħ³": 2368,
      "oto": 2369,
      "Ġweb": 2370,
      "Ġgrowth": 2371,
      "Ġtemper": 2372,
      "Ġtemperature": 2373,
      "Ġrather": 2374,
      "Ġrange": 2375,
      "resident": 2376,
      "inistr": 2377,
      "åĨħ": 2378,
      "ĠyÄ±l": 2379,
      "ayÄ±": 2380,
      "Ġtrain": 2381,
      "Ġpain": 2382,
      "tain": 2383,
      "Ġmaintain": 2384,
      "Ġvor": 2385,
      "Ġparent": 2386,
      "ece": 2387,
      "Ġsec": 2388,
      "Ġsee": 2389,
      "Ġsepar": 2390,
      "Ġresearchers": 2391,
      "Ġalg": 2392,
      "Ġinvolved": 2393,
      "Ġmar": 2394,
      "Ġstrateg": 2395,
      "Ġcollect": 2396,
      "Ġfull": 2397,
      "14": 2398,
      "13": 2399,
      "Ġskill": 2400,
      "Ġhav": 2401,
      "Ġhay": 2402,
      "Ġhac": 2403,
      "ï¼ģ": 2404,
      "ï¼ī": 2405,
      "ï¼Ī": 2406,
      "ï¼Ł": 2407,
      "ä¸ī": 2408,
      "Ġneg": 2409,
      "ministr": 2410,
      "Ġgibi": 2411,
      "Ġmedical": 2412,
      "imiento": 2413,
      "Ł¥": 2414,
      "ida": 2415,
      "au": 2416,
      "ma": 2417,
      "ird": 2418,
      "Ġwhite": 2419,
      "å½ĵ": 2420,
      "alk": 2421,
      "atter": 2422,
      "ister": 2423,
      "Ġtogether": 2424,
      "schaft": 2425,
      "ç´": 2426,
      "Ġ25": 2427,
      "amin": 2428,
      "Ã¢": 2429,
      "Ãľ": 2430,
      "éľ": 2431,
      "Ġmarket": 2432,
      "Ġbecom": 2433,
      "Ġimplement": 2434,
      "åĬ¡": 2435,
      "Ġpattern": 2436,
      "ĠTe": 2437,
      "Ġconcept": 2438,
      "Ġaccept": 2439,
      "eptember": 2440,
      "Ġemerg": 2441,
      "Ġmy": 2442,
      "Ġcreate": 2443,
      "Ġcreated": 2444,
      "Ġphoto": 2445,
      "Ġ194": 2446,
      "è°": 2447,
      "ĠestÃ¡": 2448,
      "Ġrecogn": 2449,
      "Un": 2450,
      "lev": 2451,
      "Ġopen": 2452,
      "Ġvir": 2453,
      "ator": 2454,
      "Ġthroughout": 2455,
      "geb": 2456,
      "ĠÃ¶z": 2457,
      "Ġdistrib": 2458,
      "OR": 2459,
      "ĠyaÅŁ": 2460,
      "ĠWhen": 2461,
      "ĠWhat": 2462,
      "etz": 2463,
      "get": 2464,
      "leg": 2465,
      "Ġeng": 2466,
      "Ġengine": 2467,
      "Ġmet": 2468,
      "æ²¡": 2469,
      "Ġability": 2470,
      "iness": 2471,
      "usiness": 2472,
      "iones": 2473,
      "ention": 2474,
      "Ä±mÄ±z": 2475,
      "Ġdisp": 2476,
      "per": 2477,
      "ake": 2478,
      "ĠPart": 2479,
      "Ġlabor": 2480,
      "Ġmo": 2481,
      "Ġmoment": 2482,
      "ç®¡": 2483,
      "Ġways": 2484,
      "Ġpractice": 2485,
      "amiento": 2486,
      "imiz": 2487,
      "Ġlet": 2488,
      "Ġlef": 2489,
      "Ġleft": 2490,
      "Ġobs": 2491,
      "Ġobserv": 2492,
      "ario": 2493,
      "Ġattemp": 2494,
      "ether": 2495,
      "Ġwhether": 2496,
      "èĪ": 2497,
      "çĪ": 2498,
      "ĠAustr": 2499,
      "Ġsaf": 2500,
      "Ġtaraf": 2501,
      "Ġtarget": 2502,
      "ĠtarafÄ±ndan": 2503,
      "Ġarticle": 2504,
      "epend": 2505,
      "Ġindepend": 2506,
      "eep": 2507,
      "Ġkeep": 2508,
      "Ġcause": 2509,
      "ification": 2510,
      "Ã¤hr": 2511,
      "iemp": 2512,
      "erman": 2513,
      "ĠGerman": 2514,
      "ute": 2515,
      "he": 2516,
      "uture": 2517,
      "Ġfuture": 2518,
      "Ġcal": 2519,
      "ural": 2520,
      "urg": 2521,
      "Ġdiagn": 2522,
      "åģļ": 2523,
      "Ġbased": 2524,
      "Ġdraw": 2525,
      "å½±": 2526,
      "ä½į": 2527,
      "What": 2528,
      "ances": 2529,
      "Ġcapital": 2530,
      "Ġrock": 2531,
      "ternet": 2532,
      "ĠIs": 2533,
      "Ġmedic": 2534,
      "Ġfarm": 2535,
      "Ġfund": 2536,
      "En": 2537,
      "iet": 2538,
      "åĮº": 2539,
      "Ġreach": 2540,
      "Ġmach": 2541,
      "Ġpast": 2542,
      "uev": 2543,
      "Ġnuev": 2544,
      "Ġkey": 2545,
      "Ġadult": 2546,
      "âĢ¢": 2547,
      "On": 2548,
      "ner": 2549,
      "mer": 2550,
      "vention": 2551,
      "Ġnur": 2552,
      "çī¹": 2553,
      "mitt": 2554,
      "Ġopport": 2555,
      "åħ¥": 2556,
      "ĠLe": 2557,
      "ĠQu": 2558,
      "ify": 2559,
      "Ġnetwork": 2560,
      "cr": 2561,
      "crip": 2562,
      "Ġcame": 2563,
      "iert": 2564,
      "Ġalready": 2565,
      "tÄ±r": 2566,
      "och": 2567,
      "atch": 2568,
      "esch": 2569,
      "ators": 2570,
      "Ġbusiness": 2571,
      "Ġrelated": 2572,
      "Ġrelative": 2573,
      "Ġnature": 2574,
      "iye": 2575,
      "Ġable": 2576,
      "æŃ¤": 2577,
      "æŃ£": 2578,
      "ton": 2579,
      "Ġsymptom": 2580,
      "ĠTÃ¼rkiye": 2581,
      "ias": 2582,
      "Ġstates": 2583,
      "Ġbegan": 2584,
      "ĠState": 2585,
      "Ġchanges": 2586,
      "ocus": 2587,
      "Ġfocus": 2588,
      "Ġliving": 2589,
      "ä¹Ī": 2590,
      "ieved": 2591,
      "ĠJahr": 2592,
      "Ġdest": 2593,
      "Ġearth": 2594,
      "utsch": 2595,
      "ekt": 2596,
      "ĠÅŁek": 2597,
      "Ġhard": 2598,
      "etim": 2599,
      "ometim": 2600,
      "Ġ24": 2601,
      "åĪ¶": 2602,
      "Ġsonra": 2603,
      "iter": 2604,
      "Ġliter": 2605,
      "èĬ": 2606,
      "åıĬ": 2607,
      "Ġseg": 2608,
      "ÄŁr": 2609,
      "ĠgÃ¶re": 2610,
      "èĩªå·": 2611,
      "ounc": 2612,
      "kt": 2613,
      "Ġattention": 2614,
      "Ġsuccessful": 2615,
      "æĹł": 2616,
      "Ġeinen": 2617,
      "lease": 2618,
      "Ġcomplex": 2619,
      "ç¨ĭ": 2620,
      "Ġeste": 2621,
      "Ġteam": 2622,
      "Ġwithin": 2623,
      "Ġdam": 2624,
      "Ġgenerally": 2625,
      "åķĨ": 2626,
      "ĠWith": 2627,
      "heit": 2628,
      "ç©": 2629,
      "çī©": 2630,
      "wh": 2631,
      "Ġaccording": 2632,
      "Ġrun": 2633,
      "Ġhaben": 2634,
      "ĠWeb": 2635,
      "Ġoccurr": 2636,
      "ountain": 2637,
      "å·¥ä½ľ": 2638,
      "troduc": 2639,
      "Ġreally": 2640,
      "Ġreas": 2641,
      "Ġreason": 2642,
      "Ã¼y": 2643,
      "Ã¼yÃ¼k": 2644,
      "å®ī": 2645,
      "Ġinform": 2646,
      "Ġglobal": 2647,
      "ĠPol": 2648,
      "æĦŁ": 2649,
      "199": 2650,
      "Ġfish": 2651,
      "eceÄŁ": 2652,
      "Ġthreat": 2653,
      "ĠAmerica": 2654,
      "ĠDr": 2655,
      "ĠDepartment": 2656,
      "å¢": 2657,
      "Ġopportun": 2658,
      "ĠInternet": 2659,
      "Ġeiner": 2660,
      "Ġpresident": 2661,
      "glich": 2662,
      "Ã¶glich": 2663,
      "ina": 2664,
      "èĢģ": 2665,
      "ometimes": 2666,
      "Ġdiscuss": 2667,
      "Ġcells": 2668,
      "æ¶": 2669,
      "æį": 2670,
      "æľŁ": 2671,
      "Ġhaving": 2672,
      "Ġrest": 2673,
      "Ġidentify": 2674,
      "ĠReg": 2675,
      "Ġneu": 2676,
      "åĲį": 2677,
      "fect": 2678,
      "Ġmean": 2679,
      "Ġmej": 2680,
      "Ġmejor": 2681,
      "èĩªå·±": 2682,
      "Ġstor": 2683,
      "ische": 2684,
      "ivil": 2685,
      "é¦": 2686,
      "Ġadministr": 2687,
      "Ġbro": 2688,
      "ĠZeit": 2689,
      "ĠServic": 2690,
      "Ġprote": 2691,
      "uary": 2692,
      "äºĽ": 2693,
      "åĳĺ": 2694,
      "æģ": 2695,
      "Ġcontact": 2696,
      "Ġspe": 2697,
      "Ġhour": 2698,
      "oft": 2699,
      "oftware": 2700,
      "ĠProf": 2701,
      "iforn": 2702,
      "ifornia": 2703,
      "ift": 2704,
      "Ġ2009": 2705,
      "Ġspread": 2706,
      "Ġcorrect": 2707,
      "Ġstory": 2708,
      "ï¼Ľ": 2709,
      "Ġofficial": 2710,
      "Ġcollection": 2711,
      "Ġfeatur": 2712,
      "æ´»": 2713,
      "alt": 2714,
      "ĠÃ§al": 2715,
      "ĠÃ§alÄ±ÅŁ": 2716,
      "mÄ±ÅŁ": 2717,
      "Ġchem": 2718,
      "Ġchemical": 2719,
      "Ġseem": 2720,
      "emos": 2721,
      "è£": 2722,
      "Ġmaking": 2723,
      "Ġuns": 2724,
      "Ġrev": 2725,
      "Ġreview": 2726,
      "å·²": 2727,
      "åħ¬åı": 2728,
      "åħ¬åı¸": 2729,
      "å¸¸": 2730,
      "ugust": 2731,
      "ley": 2732,
      "Ġline": 2733,
      "Ġreligious": 2734,
      "ĠyÃ¶n": 2735,
      "Ġexperi": 2736,
      "ĠDe": 2737,
      "Ġbelow": 2738,
      "len": 2739,
      "ĠBe": 2740,
      "ĠBu": 2741,
      "ĠSe": 2742,
      "ĠSome": 2743,
      "da": 2744,
      "aff": 2745,
      "Ġmultip": 2746,
      "action": 2747,
      "ä¸ŃåĽ½": 2748,
      "åĪ©": 2749,
      "èĲ": 2750,
      "Ġsite": 2751,
      "stead": 2752,
      "ning": 2753,
      "Ġregion": 2754,
      "Ġregard": 2755,
      "å¹¶": 2756,
      "Ġpositive": 2757,
      "auf": 2758,
      "ĠMan": 2759,
      "ipp": 2760,
      "top": 2761,
      "å¼ı": 2762,
      "most": 2763,
      "Ġalmost": 2764,
      "Ġlog": 2765,
      "ale": 2766,
      "me": 2767,
      "ique": 2768,
      "ĠAfter": 2769,
      "Ġpap": 2770,
      "Ġthen": 2771,
      "Ġeconomic": 2772,
      "larÄ±nÄ±": 2773,
      "Ġdiv": 2774,
      "Ġdon": 2775,
      "Ġnon": 2776,
      "ĠdÃ¼ÅŁ": 2777,
      "ĠAfrica": 2778,
      "è¢": 2779,
      "è¢«": 2780,
      "ativ": 2781,
      "Ġbelieve": 2782,
      "lex": 2783,
      "oh": 2784,
      "Ġthought": 2785,
      "ĠÅŁekild": 2786,
      "Ġwind": 2787,
      "Ġobtain": 2788,
      "Ġbeginning": 2789,
      "Ġuyg": 2790,
      "Ġshown": 2791,
      "Ġ40": 2792,
      "ife": 2793,
      "ĠgroÃŁ": 2794,
      "Ġintroduc": 2795,
      "ĠAugust": 2796,
      "Die": 2797,
      "Ġaway": 2798,
      "atic": 2799,
      "red": 2800,
      "Ġstep": 2801,
      "ger": 2802,
      "eral": 2803,
      "Ġanal": 2804,
      "Ġanaly": 2805,
      "Ġprofessional": 2806,
      "Ġ=": 2807,
      "åĸ": 2808,
      "å£": 2809,
      "Ġnu": 2810,
      "ĠChina": 2811,
      "æķĻ": 2812,
      "Ġresources": 2813,
      "ĠEs": 2814,
      "ĠEin": 2815,
      "selves": 2816,
      "Ġthemselves": 2817,
      "Ġunter": 2818,
      "Ġkind": 2819,
      "inden": 2820,
      "Ġremov": 2821,
      "Ġkur": 2822,
      "Ġsize": 2823,
      "Ġfactors": 2824,
      "ç§į": 2825,
      "Ġ--": 2826,
      "ival": 2827,
      "AT": 2828,
      "Ġthird": 2829,
      "isc": 2830,
      "tock": 2831,
      "Ġtype": 2832,
      "Ġill": 2833,
      "uer": 2834,
      "aya": 2835,
      "Ġ2008": 2836,
      "Ġsex": 2837,
      "ĠsaÄŁ": 2838,
      "xim": 2839,
      "Ġbei": 2840,
      "ri": 2841,
      "ropri": 2842,
      "Ġappropri": 2843,
      "Ã¤r": 2844,
      "Ġrece": 2845,
      "Ġreceived": 2846,
      "not": 2847,
      "Ġcannot": 2848,
      "Ġsuff": 2849,
      "Ġtodo": 2850,
      "dÄ±r": 2851,
      "ĠAt": 2852,
      "tim": 2853,
      "elt": 2854,
      "ĠAuf": 2855,
      "Ġactual": 2856,
      "Ġcir": 2857,
      "Ġcirc": 2858,
      "reen": 2859,
      "loy": 2860,
      "Ġemploy": 2861,
      "Al": 2862,
      "Ġarm": 2863,
      "Ġarr": 2864,
      "Ġarch": 2865,
      "be": 2866,
      "Ġmilit": 2867,
      "Ġmilitary": 2868,
      "ç¥": 2869,
      "ç³": 2870,
      "ç³»": 2871,
      "Ġtransport": 2872,
      "Ġaction": 2873,
      "ĠChurch": 2874,
      "ĠgerÃ§": 2875,
      "aÃ§": 2876,
      "ĠgerÃ§ek": 2877,
      "ump": 2878,
      "Ġserious": 2879,
      "ĠEduc": 2880,
      "ĠAmericans": 2881,
      "Ġmuy": 2882,
      "Ġspeak": 2883,
      "Ġconduct": 2884,
      "issions": 2885,
      "Ġquick": 2886,
      "Ġdue": 2887,
      "Ġdom": 2888,
      "fore": 2889,
      "ford": 2890,
      "Ġtherefore": 2891,
      "Ġcome": 2892,
      "Ġcombin": 2893,
      "ĠDeutsch": 2894,
      "ĠEngland": 2895,
      "Ġkar": 2896,
      "ĠkarÅŁ": 2897,
      "leÅŁ": 2898,
      "ĠÅŀ": 2899,
      "é»": 2900,
      "Ġbreak": 2901,
      "Ġkad": 2902,
      "Ġkadar": 2903,
      "Ġpublished": 2904,
      "Ġwritten": 2905,
      "Ġzam": 2906,
      "Ġserv": 2907,
      "ily": 2908,
      "ensch": 2909,
      "Ġsimple": 2910,
      "åºĶ": 2911,
      "éĶ": 2912,
      "You": 2913,
      "ĠInternational": 2914,
      "ĠChristian": 2915,
      "org": 2916,
      "Ġcolor": 2917,
      "Ġolm": 2918,
      "Ġfinanc": 2919,
      "æķ°": 2920,
      "åı°": 2921,
      "Ã¼t": 2922,
      "Ġproblems": 2923,
      "Ġcivil": 2924,
      "ĠPresident": 2925,
      "Ġ/": 2926,
      "Ġir": 2927,
      "iqu": 2928,
      "esi": 2929,
      "çīĩ": 2930,
      "Ġcultural": 2931,
      "Ġcity": 2932,
      "ĠSpiel": 2933,
      "Ġviel": 2934,
      "Ġnuest": 2935,
      "Ġnutr": 2936,
      "Ġdesde": 2937,
      "ĠAp": 2938,
      "ĠApp": 2939,
      "Ġcontent": 2940,
      "verage": 2941,
      "For": 2942,
      "Ġarg": 2943,
      "reg": 2944,
      "è·¯": 2945,
      "Ġpersonal": 2946,
      "Ġmen": 2947,
      "Ġwhose": 2948,
      "Ġpo": 2949,
      "Ġpero": 2950,
      "Ġdispl": 2951,
      "Ġassess": 2952,
      "Ġbulun": 2953,
      "stant": 2954,
      "Ġacross": 2955,
      "Ġprotection": 2956,
      "Ġlevels": 2957,
      "Ġblock": 2958,
      "Ġonce": 2959,
      "ĠWhile": 2960,
      "æĶ¿": 2961,
      "ä½¿": 2962,
      "º«": 2963,
      "èº«": 2964,
      "Ġmeet": 2965,
      "Ġmovement": 2966,
      "ĠGen": 2967,
      "ĠGeneral": 2968,
      "æľį": 2969,
      "Ġgreen": 2970,
      "Ġreflect": 2971,
      "rown": 2972,
      "Ġnam": 2973,
      "Ġregular": 2974,
      "Ġregul": 2975,
      "æĪĸ": 2976,
      "igital": 2977,
      "Ġpur": 2978,
      "Ġpurp": 2979,
      "mente": 2980,
      "Ġsett": 2981,
      "Ġcheck": 2982,
      "Ġdrink": 2983,
      "Ġclose": 2984,
      "etic": 2985,
      "Ġvariet": 2986,
      "Ġupon": 2987,
      "Ġput": 2988,
      "çł": 2989,
      "çŁ¥": 2990,
      "Ġexerc": 2991,
      "acaÄŁ": 2992,
      "Ġpress": 2993,
      "Ġpressure": 2994,
      "ĠWar": 2995,
      "Ġcommunic": 2996,
      "Ġcommunities": 2997,
      "çľŁ": 2998,
      "go": 2999,
      "gress": 3000,
      "Ġprogress": 3001,
      "Ã¶y": 3002,
      "æİ¥": 3003,
      "Ġsein": 3004,
      "ush": 3005,
      "ĠAus": 3006,
      "ĠMus": 3007,
      "Ġlearning": 3008,
      "Ġunivers": 3009,
      "agen": 3010,
      "ufact": 3011,
      "Ġmanufact": 3012,
      "Ġcompan": 3013,
      "Ġintegr": 3014,
      "Ġcapac": 3015,
      "acc": 3016,
      "ĠWash": 3017,
      "ĠInformation": 3018,
      "ieren": 3019,
      "Ġgeh": 3020,
      "Ġculture": 3021,
      "Ġfinal": 3022,
      "imin": 3023,
      "lin": 3024,
      "El": 3025,
      "light": 3026,
      "lus": 3027,
      "Ã¶l": 3028,
      "Ã¶z": 3029,
      "Ġconserv": 3030,
      "Ġcases": 3031,
      "Ġcontinue": 3032,
      "æµ·": 3033,
      "éħ": 3034,
      "Ġrespond": 3035,
      "è®¾": 3036,
      "åŁº": 3037,
      "Ã¤ch": 3038,
      "ĠDevelop": 3039,
      "25": 3040,
      "ĠCons": 3041,
      "Ġeasily": 3042,
      "Ġmass": 3043,
      "lass": 3044,
      "Ġexpos": 3045,
      "Ġvide": 3046,
      "Ġbenefits": 3047,
      "Ġmolec": 3048,
      "éĹ®": 3049,
      "è¨": 3050,
      "asÄ±nda": 3051,
      "ĠIndian": 3052,
      "Ġdisord": 3053,
      "ĠThat": 3054,
      "Ġincrease": 3055,
      "Ġencour": 3056,
      "ĠRep": 3057,
      "arÄ±": 3058,
      "Ġcompar": 3059,
      "éľĢ": 3060,
      "Ġcomplet": 3061,
      "Ġcomplete": 3062,
      "ington": 3063,
      "ĠWashington": 3064,
      "ote": 3065,
      "Ġot": 3066,
      "Ġec": 3067,
      "ne": 3068,
      "ige": 3069,
      "ze": 3070,
      "anÄ±": 3071,
      "Ġwenn": 3072,
      "Ġapproxim": 3073,
      "ismo": 3074,
      "Ġbelir": 3075,
      "Ġphotograph": 3076,
      "Ġmakes": 3077,
      "Ġchurch": 3078,
      "ĠIsra": 3079,
      "ĠaÃ§": 3080,
      "ĠaÃ§Ä±k": 3081,
      "Ġsimply": 3082,
      "ecek": 3083,
      "zeit": 3084,
      "Ġ2007": 3085,
      "onstr": 3086,
      "Ġdemonstr": 3087,
      "alifornia": 3088,
      "ĠCalifornia": 3089,
      "Ġgive": 3090,
      "osph": 3091,
      "Ġconditions": 3092,
      "Ġfall": 3093,
      "ä»İ": 3094,
      "ä»£": 3095,
      "è§£": 3096,
      "AL": 3097,
      "osition": 3098,
      "los": 3099,
      "Ġtodos": 3100,
      "Ġnos": 3101,
      "éĹ¨": 3102,
      "ederal": 3103,
      "ustain": 3104,
      "Ġcual": 3105,
      "Ġtre": 3106,
      "ĠApr": 3107,
      "ĠApril": 3108,
      "Ġsource": 3109,
      "Ġopp": 3110,
      "Ġsurv": 3111,
      "æ¸¸": 3112,
      "Ġcop": 3113,
      "ĠHistory": 3114,
      "äº¤": 3115,
      "iÃ³": 3116,
      "ih": 3117,
      "utz": 3118,
      "Ä±ÄŁÄ±nÄ±": 3119,
      "ause": 3120,
      "ecause": 3121,
      "acy": 3122,
      "Ġwhy": 3123,
      "Ġhold": 3124,
      "Ġoriginal": 3125,
      "é¢ĺ": 3126,
      "ender": 3127,
      "Ġpaper": 3128,
      "Ġtrave": 3129,
      "uestra": 3130,
      "å¥¹": 3131,
      "Ġ2013": 3132,
      "ĠJewish": 3133,
      "undred": 3134,
      "ummer": 3135,
      "Ġhumans": 3136,
      "Ġexpress": 3137,
      "Ġfront": 3138,
      "Ġprotein": 3139,
      "ĠTrans": 3140,
      "itud": 3141,
      "ugar": 3142,
      "Ġhal": 3143,
      "Ġhalf": 3144,
      "acional": 3145,
      "attle": 3146,
      "Ġareas": 3147,
      "Ġcalcul": 3148,
      "ãĢĬ": 3149,
      "ĠII": 3150,
      "Ġdoct": 3151,
      "ĠoluÅŁ": 3152,
      "ĠAlthough": 3153,
      "Ġalthough": 3154,
      "Ġtiemp": 3155,
      "åŁİ": 3156,
      "It": 3157,
      "IV": 3158,
      "Ġchall": 3159,
      "Ġchalleng": 3160,
      "If": 3161,
      "ID": 3162,
      "æ·": 3163,
      "iÄŁini": 3164,
      "ĠWill": 3165,
      "igkeit": 3166,
      "Ġtaken": 3167,
      "ä»¶": 3168,
      "pital": 3169,
      "ospital": 3170,
      "tic": 3171,
      "til": 3172,
      "Ġuntil": 3173,
      "ĠIsland": 3174,
      "Ġweiter": 3175,
      "æ²¡æľī": 3176,
      "Ġmagn": 3177,
      "æł·": 3178,
      "Ġsouth": 3179,
      "çĲĥ": 3180,
      "éĴ": 3181,
      "Ġage": 3182,
      "Ġbehind": 3183,
      "ĠAustral": 3184,
      "æĬĢ": 3185,
      "Ġweight": 3186,
      "Ġwords": 3187,
      "Ġesta": 3188,
      "Ġpurpose": 3189,
      "wer": 3190,
      "åĽŀ": 3191,
      "Ġdetermin": 3192,
      "Ġdetermine": 3193,
      "ĠPress": 3194,
      "ongress": 3195,
      "æīĵ": 3196,
      "åıª": 3197,
      "èĭ": 3198,
      "ãĢĭ": 3199,
      "åĭ": 3200,
      "ç²": 3201,
      "Ġair": 3202,
      "We": 3203,
      "now": 3204,
      "ç¤º": 3205,
      "ç¤¾": 3206,
      "Ġpatients": 3207,
      "çº¿": 3208,
      "ĠÂ¿": 3209,
      "ĠEnvironment": 3210,
      "ĠdÃ¶n": 3211,
      "ample": 3212,
      "ercial": 3213,
      "Ġinternational": 3214,
      "ito": 3215,
      "Ġdamage": 3216,
      "Ġactive": 3217,
      "Ġlive": 3218,
      "Ġlives": 3219,
      "Ġsurve": 3220,
      "ontrol": 3221,
      "æį®": 3222,
      "ĠCenter": 3223,
      "Ġpuede": 3224,
      "hib": 3225,
      "Ġarea": 3226,
      "Ġflu": 3227,
      "çĽ´": 3228,
      "Ġprior": 3229,
      "terior": 3230,
      "chn": 3231,
      "ĠTechn": 3232,
      "Ġconn": 3233,
      "Ġconnect": 3234,
      "Ġconnection": 3235,
      "Ġfundament": 3236,
      "Ġheld": 3237,
      "aster": 3238,
      "adas": 3239,
      "Ġsurround": 3240,
      "Ġthous": 3241,
      "Ġthousand": 3242,
      "ouse": 3243,
      "æĶ¾": 3244,
      "æĶ¶": 3245,
      "inin": 3246,
      "ino": 3247,
      "Ġdone": 3248,
      "Ġclos": 3249,
      "Ġdeveloped": 3250,
      "Ġoil": 3251,
      "Ġotros": 3252,
      "Ġrealiz": 3253,
      "Ġmatter": 3254,
      "ilir": 3255,
      "ĠOrgan": 3256,
      "Ġillustr": 3257,
      "è§Ĩ": 3258,
      "book": 3259,
      "Ġcarb": 3260,
      "Ġcarbon": 3261,
      "Ġhigher": 3262,
      "æĬ¥": 3263,
      "Ġpe": 3264,
      "entr": 3265,
      "Ġconcentr": 3266,
      "ente": 3267,
      "ĠOne": 3268,
      "ĠGe": 3269,
      "yr": 3270,
      "ÃŃcul": 3271,
      "ĠSeptember": 3272,
      "Ġcomputer": 3273,
      "Ġstat": 3274,
      "Ġprint": 3275,
      "ĠRepublic": 3276,
      "cient": 3277,
      "Ġalgun": 3278,
      "æĮģ": 3279,
      "Ġimage": 3280,
      "ĠOnline": 3281,
      "IC": 3282,
      "ĠAfric": 3283,
      "ĠJul": 3284,
      "ĠJap": 3285,
      "ĠJapan": 3286,
      "inter": 3287,
      "ins": 3288,
      "Ġveget": 3289,
      "NA": 3290,
      "Ġnorth": 3291,
      "arth": 3292,
      "ĠEarth": 3293,
      "Ġparticularly": 3294,
      "Ġsyn": 3295,
      "Ġsix": 3296,
      "Ġsometimes": 3297,
      "Ġside": 3298,
      "Ġself": 3299,
      "self": 3300,
      "Ġhimself": 3301,
      "Ã©s": 3302,
      "ĠBl": 3303,
      "ĠAct": 3304,
      "Ġtalk": 3305,
      "24": 3306,
      "Ġzaman": 3307,
      "Ġbuilding": 3308,
      "Ġtemperatur": 3309,
      "idd": 3310,
      "iddle": 3311,
      "ĠCount": 3312,
      "Ġfail": 3313,
      "é©": 3314,
      "Ġhundred": 3315,
      "Ġcommand": 3316,
      "Ġdemand": 3317,
      "Ġneces": 3318,
      "Ġut": 3319,
      "Ġutil": 3320,
      "Ġess": 3321,
      "Ġessential": 3322,
      "èĩ³": 3323,
      "Ġporque": 3324,
      "åİŁ": 3325,
      "Ġtypes": 3326,
      "Ġevolution": 3327,
      "Ġprivate": 3328,
      "Ġresults": 3329,
      "iyet": 3330,
      "iyle": 3331,
      "ett": 3332,
      "adÄ±r": 3333,
      "Ġprimer": 3334,
      "Ġprimary": 3335,
      "Ġsuper": 3336,
      "ecember": 3337,
      "äºĮ": 3338,
      "Ġ21": 3339,
      "IS": 3340,
      "æ¡": 3341,
      "22": 3342,
      "rought": 3343,
      "ones": 3344,
      "å¼º": 3345,
      "Ã¤nd": 3346,
      "Ġrecent": 3347,
      "Ġrole": 3348,
      "ĠIsrael": 3349,
      "ĠJournal": 3350,
      "Ġcommercial": 3351,
      "ling": 3352,
      "ahl": 3353,
      "Ġdifference": 3354,
      "ĠÃ¶ÄŁr": 3355,
      "Ġvirus": 3356,
      "Ġstructure": 3357,
      "Ġaccomp": 3358,
      "istem": 3359,
      "Ġsistem": 3360,
      "ison": 3361,
      "é£İ": 3362,
      "urb": 3363,
      "Ġnumb": 3364,
      "Ġnumbers": 3365,
      "åħĥ": 3366,
      "Ġha": 3367,
      "ĠLa": 3368,
      "encias": 3369,
      "Ġidea": 3370,
      "ĠÃ¶nem": 3371,
      "lÃ¼": 3372,
      "60": 3373,
      "Ġhabit": 3374,
      "Ġextra": 3375,
      "Ġenvironmental": 3376,
      "Ġdifferences": 3377,
      "Ġvacc": 3378,
      "Ġsent": 3379,
      "Ġsal": 3380,
      "Ġstop": 3381,
      "Ġsection": 3382,
      "å°ĳ": 3383,
      "ç§ĳ": 3384,
      "Ġapproximately": 3385,
      "ĠÃ¼zer": 3386,
      "Ġdoctor": 3387,
      "Ġattempt": 3388,
      "Ġselect": 3389,
      "Ä±s": 3390,
      "Ġcount": 3391,
      "ta": 3392,
      "Ġhasta": 3393,
      "ape": 3394,
      "iente": 3395,
      "ĠCar": 3396,
      "ĠCan": 3397,
      "ĠCanada": 3398,
      "ĠPar": 3399,
      "trieved": 3400,
      "ĠRetrieved": 3401,
      "unu": 3402,
      "ĠolduÄŁunu": 3403,
      "Ġseries": 3404,
      "Ġeffects": 3405,
      "Ġwild": 3406,
      "osoph": 3407,
      "ilosoph": 3408,
      "Ġphilosoph": 3409,
      "Ġbil": 3410,
      "Ġbilg": 3411,
      "fahr": 3412,
      "ĠEst": 3413,
      "ĠaÃ±os": 3414,
      "Ġdecision": 3415,
      "Ġhor": 3416,
      "Ġreserv": 3417,
      "aps": 3418,
      "ĠAss": 3419,
      "ĠAssoci": 3420,
      "ĠRiver": 3421,
      "Ġtarih": 3422,
      "Ġsw": 3423,
      "atives": 3424,
      "Ġexercise": 3425,
      "ĠJun": 3426,
      "Ġsun": 3427,
      "vert": 3428,
      "Ġdet": 3429,
      "Ġdetail": 3430,
      "Ġdetect": 3431,
      "tter": 3432,
      "Ġbetter": 3433,
      "iction": 3434,
      "Ġpred": 3435,
      "Ġdistinc": 3436,
      "Ġtechniqu": 3437,
      "ĠbÃ¼yÃ¼k": 3438,
      "Ġdurante": 3439,
      "Ġdurum": 3440,
      ",âĢĿ": 3441,
      "Ġshall": 3442,
      "Ġaltern": 3443,
      "è®¡": 3444,
      "Ġinfluence": 3445,
      "Ġvalues": 3446,
      "laÅŁ": 3447,
      "lard": 3448,
      "Ġell": 3449,
      "ehmen": 3450,
      "åĲĦ": 3451,
      "oard": 3452,
      "istics": 3453,
      "istic": 3454,
      "Ġconsist": 3455,
      "Ġassist": 3456,
      "Ġresist": 3457,
      "çĶ±": 3458,
      "Ġplanet": 3459,
      "Ġfeet": 3460,
      "Ġyet": 3461,
      "æ¨": 3462,
      "æİ¨": 3463,
      "21": 3464,
      "Ġstress": 3465,
      "Ġsystems": 3466,
      "Ġimages": 3467,
      "ĠArbeit": 3468,
      "Ġtend": 3469,
      "Ġextend": 3470,
      "Ġten": 3471,
      "Ġtax": 3472,
      "ieb": 3473,
      "ieve": 3474,
      "inn": 3475,
      "ents": 3476,
      "80": 3477,
      "40": 3478,
      "Ġjob": 3479,
      "Ġfamilies": 3480,
      "Ġkill": 3481,
      "Ġaber": 3482,
      "Ġabs": 3483,
      "eld": 3484,
      "met": 3485,
      "izmet": 3486,
      "ivity": 3487,
      "æľįåĬ¡": 3488,
      "æ°Ķ": 3489,
      "--": 3490,
      "----": 3491,
      "ĠOther": 3492,
      "åıĳå±ķ": 3493,
      "Ġempres": 3494,
      "Ġ60": 3495,
      "Ġjournal": 3496,
      "Ġrequired": 3497,
      "Ġgenetic": 3498,
      "ebr": 3499,
      "ebruary": 3500,
      "anuary": 3501,
      "ĠJanuary": 3502,
      "Ġsymptoms": 3503,
      "ebilir": 3504,
      "Ġemissions": 3505,
      "Ġzwe": 3506,
      "ĠgerÃ§ekleÅŁ": 3507,
      "ides": 3508,
      "Ġpoor": 3509,
      "ĠEnerg": 3510,
      "Ġidentified": 3511,
      "Ġfive": 3512,
      "Ġfire": 3513,
      "Ġfilm": 3514,
      "ĠdeÄŁiÅŁ": 3515,
      "Ġcentr": 3516,
      "Ġcentral": 3517,
      "ope": 3518,
      "Ġdesp": 3519,
      "æº": 3520,
      "æºĲ": 3521,
      "Ġperm": 3522,
      "Ġ.": 3523,
      "Ġfederal": 3524,
      "ĠInstitute": 3525,
      "Ġaverage": 3526,
      "crib": 3527,
      "Ġmind": 3528,
      "piel": 3529,
      "Ġav": 3530,
      "Ġx": 3531,
      "Ġers": 3532,
      "çģ": 3533,
      "æµģ": 3534,
      "Ġoffer": 3535,
      "Ġestim": 3536,
      "Ġtoward": 3537,
      "Ġdistribution": 3538,
      "ĠMay": 3539,
      "Ġpay": 3540,
      "day": 3541,
      "Ġwhole": 3542,
      "ucle": 3543,
      "Ġnucle": 3544,
      "å¿«": 3545,
      "lege": 3546,
      "ĠCollege": 3547,
      "Ä±yla": 3548,
      "irect": 3549,
      "ule": 3550,
      "ama": 3551,
      "ream": 3552,
      "åĲĳ": 3553,
      "æł¼": 3554,
      "Ġgroups": 3555,
      "Ġsehr": 3556,
      "lick": 3557,
      "Ġask": 3558,
      "Ġbuil": 3559,
      "Ġbuilt": 3560,
      "Ġsources": 3561,
      "Ġperformance": 3562,
      "arily": 3563,
      "ĠRob": 3564,
      "Ġwur": 3565,
      "Ġwurde": 3566,
      "Ġincreased": 3567,
      "Ġsociety": 3568,
      "æ±Ĥ": 3569,
      "Ġann": 3570,
      "Ġagree": 3571,
      "Ġskin": 3572,
      "Ġâ": 3573,
      "Ġtrue": 3574,
      "mek": 3575,
      "Ġhyp": 3576,
      "pro": 3577,
      "ä¹Ĳ": 3578,
      "ices": 3579,
      "Ġexpert": 3580,
      "ĠChild": 3581,
      "Ġoccup": 3582,
      "Ġleav": 3583,
      "Ġheav": 3584,
      "Ġfacil": 3585,
      "Ġelement": 3586,
      "Ġprefer": 3587,
      "ĠMarch": 3588,
      "Ġgibt": 3589,
      "Ġdoub": 3590,
      "eption": 3591,
      "burg": 3592,
      "ä¸¤": 3593,
      "Ġinst": 3594,
      "Ġsound": 3595,
      "aki": 3596,
      "Ä±ndaki": 3597,
      "æ¯ı": 3598,
      "Ġgas": 3599,
      "Ġconstruction": 3600,
      "lichen": 3601,
      "ĠIndia": 3602,
      "Ġimag": 3603,
      "Ġrecently": 3604,
      "idades": 3605,
      "Ġcarry": 3606,
      "tober": 3607,
      "ctober": 3608,
      "ĠOctober": 3609,
      "èģĶ": 3610,
      "ieÃŁ": 3611,
      "ç«Ļ": 3612,
      "ç«ĭ": 3613,
      "Ġdeliver": 3614,
      "Ġgoing": 3615,
      "Ãĸ": 3616,
      "æĤ": 3617,
      "ä»»": 3618,
      "Ġhizmet": 3619,
      "ĠRobert": 3620,
      "Ġcho": 3621,
      "oid": 3622,
      "Ġavoid": 3623,
      "ĠTo": 3624,
      "åĮĹ": 3625,
      "estern": 3626,
      "Ġincreasing": 3627,
      "uring": 3628,
      "Ġetc": 3629,
      "enz": 3630,
      "ommen": 3631,
      "23": 3632,
      "Ã¤l": 3633,
      "åı£": 3634,
      "oney": 3635,
      "Ġmoney": 3636,
      "utom": 3637,
      "Ġutiliz": 3638,
      "uego": 3639,
      "Ġ2006": 3640,
      "Ġ2000": 3641,
      "Ġtypically": 3642,
      "Ġrate": 3643,
      "Ġelements": 3644,
      "Ġcontext": 3645,
      "ĠNo": 3646,
      "liche": 3647,
      "Ġmeasures": 3648,
      "çĤº": 3649,
      "Ġcompet": 3650,
      "Ġplann": 3651,
      "Ġbroad": 3652,
      "ç¦": 3653,
      "haps": 3654,
      "Ġperhaps": 3655,
      "Ġperfect": 3656,
      "Ġplants": 3657,
      "schied": 3658,
      "éĹ®é¢ĺ": 3659,
      "æģ¯": 3660,
      "Ġscreen": 3661,
      "ĠSystem": 3662,
      "Ġterrit": 3663,
      "Ġanalys": 3664,
      "Ġanalysis": 3665,
      "arch": 3666,
      "Ġsearch": 3667,
      "ĠPark": 3668,
      "ç±": 3669,
      "çĥ": 3670,
      "èĥ": 3671,
      "çĸ": 3672,
      "ç¼": 3673,
      "æ¼": 3674,
      "OS": 3675,
      "Ġappropriate": 3676,
      "arr": 3677,
      "tadÄ±r": 3678,
      "maktadÄ±r": 3679,
      "reich": 3680,
      "ç©º": 3681,
      "Â»": 3682,
      "Ġ23": 3683,
      "Ġprovides": 3684,
      "Ġprovided": 3685,
      "Ġmill": 3686,
      "iele": 3687,
      "ieder": 3688,
      "Ġwieder": 3689,
      "Ġcritical": 3690,
      "ĠRom": 3691,
      "Ġfirm": 3692,
      "Ġpractices": 3693,
      "è®©": 3694,
      "eki": 3695,
      "ç¥ŀ": 3696,
      "Ġfuel": 3697,
      "Ġpolicy": 3698,
      "ym": 3699,
      "Ġconsidered": 3700,
      "ĠCongress": 3701,
      "Ġhacer": 3702,
      "Ġuygul": 3703,
      "ken": 3704,
      "ĠestÃ¡n": 3705,
      "mosph": 3706,
      "Ġvariety": 3707,
      "yc": 3708,
      "Ġfuer": 3709,
      "umb": 3710,
      "gricultural": 3711,
      "chieve": 3712,
      "Ġtransfer": 3713,
      "Ġdistrict": 3714,
      "Ġpredict": 3715,
      "Ġbacter": 3716,
      "Ġkend": 3717,
      "enden": 3718,
      "ensive": 3719,
      "Ġuseful": 3720,
      "å¢ŀ": 3721,
      "Ġmedia": 3722,
      "Ġelect": 3723,
      "Ġpath": 3724,
      "ores": 3725,
      "ende": 3726,
      "eg": 3727,
      "Ġtiene": 3728,
      "Ġconflic": 3729,
      "Ġconfirm": 3730,
      "éĻ¢": 3731,
      "Ġlocated": 3732,
      "When": 3733,
      "ĠÃ¶nemli": 3734,
      "éĽĨ": 3735,
      "Ġox": 3736,
      "Ġquite": 3737,
      "Ġunser": 3738,
      "Ġanimals": 3739,
      "Ġatmosph": 3740,
      "Ġinstruction": 3741,
      "Ġgrad": 3742,
      "Ġgegen": 3743,
      "Ch": 3744,
      "ç²¾": 3745,
      "åĽ¾": 3746,
      "Ġtiempo": 3747,
      "ĠHow": 3748,
      "Ġ22": 3749,
      "Ġneigh": 3750,
      "ĠArt": 3751,
      "éĵ": 3752,
      "éĸ": 3753,
      "Ġohn": 3754,
      "Ġeducational": 3755,
      "ales": 3756,
      "ĠdoÄŁr": 3757,
      "ili": 3758,
      "Ġkal": 3759,
      "ĠIhr": 3760,
      "Ġremember": 3761,
      "Ġvida": 3762,
      "Ġelectric": 3763,
      "Ġreasons": 3764,
      "Ã³m": 3765,
      "Ġclean": 3766,
      "ana": 3767,
      "ĠAfrican": 3768,
      "Ġtan": 3769,
      "lan": 3770,
      "lay": 3771,
      "igure": 3772,
      "oot": 3773,
      "Ġmot": 3774,
      "Ġlot": 3775,
      "éª": 3776,
      "Ġshare": 3777,
      "Ġtip": 3778,
      "Ġdiet": 3779,
      "Ġdivers": 3780,
      "igr": 3781,
      "ried": 3782,
      "ibr": 3783,
      "ĠDecember": 3784,
      "åŀ": 3785,
      "åŀĭ": 3786,
      "éĿŀ": 3787,
      "æ»": 3788,
      "ĠiÅŁlem": 3789,
      "Ġideas": 3790,
      "Ġlength": 3791,
      "Ġresponsible": 3792,
      "ime": 3793,
      "æķ´": 3794,
      "å¤´": 3795,
      "Ġslow": 3796,
      "å¯¼": 3797,
      "ĠBlack": 3798,
      "Ġinstall": 3799,
      "Ġvers": 3800,
      "als": 3801,
      "Ġcuent": 3802,
      "ĠWilli": 3803,
      "ĠWilliam": 3804,
      "Ġ2005": 3805,
      "tens": 3806,
      "Ġextens": 3807,
      "Ġsafet": 3808,
      "Ġvideo": 3809,
      "unda": 3810,
      "ĠNove": 3811,
      "ĠNovem": 3812,
      "ĠNovember": 3813,
      "Ġlove": 3814,
      "Ġreduce": 3815,
      "Ġlleg": 3816,
      "Ġlay": 3817,
      "æĬĬ": 3818,
      "æĬķ": 3819,
      "Ġindustry": 3820,
      "æľ¯": 3821,
      "ories": 3822,
      "encies": 3823,
      "Ġresident": 3824,
      "ĠkiÅŁ": 3825,
      "Ġservices": 3826,
      "Ġservice": 3827,
      "Ġancient": 3828,
      "Ġtek": 3829,
      "verse": 3830,
      "Ġpict": 3831,
      "Ġpage": 3832,
      "uments": 3833,
      "ÃŃas": 3834,
      "ĠCont": 3835,
      "Ġbelieved": 3836,
      "Ġreceive": 3837,
      "ĠÅŁey": 3838,
      "ĠFl": 3839,
      "æ³¨": 3840,
      "å¨": 3841,
      "Ġey": 3842,
      "Ġek": 3843,
      "ya": 3844,
      "Ġveya": 3845,
      "yd": 3846,
      "Ġhyd": 3847,
      "por": 3848,
      "orpor": 3849,
      "Ġincorpor": 3850,
      "çĪ±": 3851,
      "Ġimportance": 3852,
      "Ġlargest": 3853,
      "Ġreproduc": 3854,
      "ivo": 3855,
      "ership": 3856,
      "aÄŁÄ±": 3857,
      "itÃ¤t": 3858,
      "è®°": 3859,
      "å±±": 3860,
      "Ġnearly": 3861,
      "ĠRec": 3862,
      "æĶ¹": 3863,
      "Ġ+": 3864,
      "Ġexhib": 3865,
      "Ġexamin": 3866,
      "Ġexact": 3867,
      "èĦ": 3868,
      "Ġexposure": 3869,
      "Ġsexual": 3870,
      "berg": 3871,
      "Ġquickly": 3872,
      "Ġproduce": 3873,
      "'d": 3874,
      "ĠSociety": 3875,
      "UR": 3876,
      "Ä±c": 3877,
      "Ä±sÄ±": 3878,
      "ĠAcc": 3879,
      "ĠAccord": 3880,
      "è¿ĳ": 3881,
      "Ġwww": 3882,
      "miÅŁ": 3883,
      "ĠgeliÅŁ": 3884,
      "Ġradi": 3885,
      "Ġunderstanding": 3886,
      "Ġbrought": 3887,
      "Ġmonths": 3888,
      "ellow": 3889,
      "ĠMark": 3890,
      "Ġdigital": 3891,
      "ĠHigh": 3892,
      "idos": 3893,
      "idge": 3894,
      "Ġothers": 3895,
      "els": 3896,
      "Ġnegative": 3897,
      "ĠGreat": 3898,
      "Ġsoil": 3899,
      "Ġcarried": 3900,
      "Ġexamples": 3901,
      "Ġthus": 3902,
      "Ġradio": 3903,
      "Ġtell": 3904,
      "èĻ": 3905,
      "èĬ±": 3906,
      "eph": 3907,
      "equ": 3908,
      "Ġconsequ": 3909,
      "¥¿": 3910,
      "è¥¿": 3911,
      "ĠEuropean": 3912,
      "ĠHer": 3913,
      "Ġnothing": 3914,
      "Ġanything": 3915,
      "Ġeverything": 3916,
      "Ġincludes": 3917,
      "Ġincluded": 3918,
      "Ġnight": 3919,
      "Ġvict": 3920,
      "ĠEducation": 3921,
      "itor": 3922,
      "Ġmonitor": 3923,
      "ustom": 3924,
      "rup": 3925,
      "ĠSup": 3926,
      "ĠBaÅŁ": 3927,
      "ieg": 3928,
      "lebr": 3929,
      "ä¼ģ": 3930,
      "ä¼ģä¸ļ": 3931,
      "Ġhar": 3932,
      "Ġhom": 3933,
      "ĠJune": 3934,
      "Ġillness": 3935,
      "Ġmother": 3936,
      "griculture": 3937,
      "ĠCounty": 3938,
      "arbeit": 3939,
      "Ġhier": 3940,
      "Ġhospital": 3941,
      "uciÃ³n": 3942,
      "ä¾Ľ": 3943,
      "ĠEd": 3944,
      "ä»ĸä»¬": 3945,
      "elebr": 3946,
      "Ġcelebr": 3947,
      "ein": 3948,
      "ĠgÃ¼": 3949,
      "åĮħ": 3950,
      "Ġcourt": 3951,
      "Ġrights": 3952,
      "Ġsafety": 3953,
      "ĠJuly": 3954,
      "Ġworking": 3955,
      "Ġteachers": 3956,
      "æĮĩ": 3957,
      "Ġstrength": 3958,
      "ä»·": 3959,
      "ä»Ĭ": 3960,
      "ä»Ģ": 3961,
      "ä»Ģä¹Ī": 3962,
      "Â·": 3963,
      "èĢĥ": 3964,
      "çĹ": 3965,
      "ç¡": 3966,
      "åıĹ": 3967,
      "Ġsoll": 3968,
      "Ġred": 3969,
      "ĠFirst": 3970,
      "ĠRus": 3971,
      "emÃ¡s": 3972,
      "ä½ķ": 3973,
      "Ġhappen": 3974,
      "ĠWork": 3975,
      "ask": 3976,
      "rel": 3977,
      "iempre": 3978,
      "ĠFebruary": 3979,
      "Ġ193": 3980,
      "Ġdol": 3981,
      "Ġdann": 3982,
      "ĠdÃ¼z": 3983,
      "Ġdar": 3984,
      "Ġdif": 3985,
      "ternal": 3986,
      "Ġnorthern": 3987,
      "ĠmÃ¼": 3988,
      "Ġsecur": 3989,
      "Ġsecurity": 3990,
      "leich": 3991,
      "Ġpas": 3992,
      "IT": 3993,
      "ĠdÃ¼ÅŁÃ¼n": 3994,
      "Ġcompletely": 3995,
      "jo": 3996,
      "just": 3997,
      "Ġinteract": 3998,
      "Ġproducts": 3999,
      "atz": 4000,
      "ä¸ĸ": 4001,
      "ä¸ľ": 4002,
      "ä¸ĩ": 4003,
      "å®Į": 4004,
      "èį": 4005,
      "Ġsustain": 4006,
      "unt": 4007,
      "ott": 4008,
      "Ġtu": 4009,
      "uÃŁ": 4010,
      "Ġmusic": 4011,
      "tt": 4012,
      "ttp": 4013,
      "Ġhttp": 4014,
      "Ġint": 4015,
      "tal": 4016,
      "Ġtotal": 4017,
      "tica": 4018,
      "tur": 4019,
      "cht": 4020,
      "chen": 4021,
      "etzt": 4022,
      "ellen": 4023,
      "Ġsupply": 4024,
      "EL": 4025,
      "La": 4026,
      "éŁ": 4027,
      "Ġlab": 4028,
      "aba": 4029,
      "Ġlack": 4030,
      "Ġlugar": 4031,
      "Ġllev": 4032,
      "unk": 4033,
      "iciÃ³n": 4034,
      "Ġdevices": 4035,
      "arios": 4036,
      "Ġfar": 4037,
      "Ġespecial": 4038,
      "Ġcyc": 4039,
      "St": 4040,
      "Ġdisplay": 4041,
      "Ġsolution": 4042,
      "Ġ27": 4043,
      "Ġfeed": 4044,
      "Ġsites": 4045,
      "ges": 4046,
      "ĠRes": 4047,
      "æĢ»": 4048,
      "ĠyÃ¼z": 4049,
      "Ġboy": 4050,
      "adem": 4051,
      "Ġindustrial": 4052,
      "load": 4053,
      "æĶ¯": 4054,
      "ä¸ĵ": 4055,
      "ç»ĵ": 4056,
      "ymb": 4057,
      "ymbol": 4058,
      "Ġparents": 4059,
      "ury": 4060,
      "ĠEmp": 4061,
      "Ġtem": 4062,
      "Ġjud": 4063,
      "larÄ±nÄ±n": 4064,
      "Ġ28": 4065,
      "Ġ26": 4066,
      "sp": 4067,
      "çº§": 4068,
      "Ġbasic": 4069,
      "ä¼ł": 4070,
      "çłĶ": 4071,
      "Ġmem": 4072,
      "Ġmemory": 4073,
      "ordin": 4074,
      "Ġhours": 4075,
      "Ġ195": 4076,
      "Ġcualqu": 4077,
      "Ġcualquier": 4078,
      "ED": 4079,
      "Ġwood": 4080,
      "èª": 4081,
      "åĶ": 4082,
      "apt": 4083,
      "Ġadapt": 4084,
      "Ġadop": 4085,
      "æ·±": 4086,
      "Ġtask": 4087,
      "ĠbÃ¶l": 4088,
      "åįģ": 4089,
      "çķĮ": 4090,
      "Ex": 4091,
      "Ġsense": 4092,
      "ĠolduÄŁu": 4093,
      "ehold": 4094,
      "Ġhousehold": 4095,
      "æłĩ": 4096,
      "Ġrepl": 4097,
      "lu": 4098,
      "ĠGu": 4099,
      "ĠGesch": 4100,
      "Ġsuffer": 4101,
      "Ġmech": 4102,
      "Ġmechan": 4103,
      "Ġdirectly": 4104,
      "lerini": 4105,
      "sh": 4106,
      "Ġbase": 4107,
      "çĻ½": 4108,
      "è°ĥ": 4109,
      "åĥ": 4110,
      "æŁ¥": 4111,
      "è´¹": 4112,
      "rew": 4113,
      "æĪ¿": 4114,
      "æĪĺ": 4115,
      "æĪ·": 4116,
      "ĠÂ«": 4117,
      "ĠIm": 4118,
      "imm": 4119,
      "Ġdescrip": 4120,
      "æ£": 4121,
      "æĹ¶éĹ´": 4122,
      "Ġwalk": 4123,
      "Ġpreg": 4124,
      "çı": 4125,
      "Ġequipment": 4126,
      "Ġbring": 4127,
      "Ġdiagnos": 4128,
      "Ġdos": 4129,
      "Ġdond": 4130,
      "Ġdonde": 4131,
      "ASA": 4132,
      "Ġmechanism": 4133,
      "ĠÃ©": 4134,
      "åįķ": 4135,
      "Ġvisual": 4136,
      "ense": 4137,
      "avor": 4138,
      "Ġfavor": 4139,
      "ET": 4140,
      "Ã¤h": 4141,
      "é¡¹": 4142,
      "Ġspr": 4143,
      "éĢł": 4144,
      "åł": 4145,
      "uro": 4146,
      "ches": 4147,
      "ych": 4148,
      "sych": 4149,
      "Ġpsych": 4150,
      "Ġcompany": 4151,
      "Ġcompanies": 4152,
      "Ġconvert": 4153,
      "ĠAssociation": 4154,
      "ĠyÃ¼k": 4155,
      "Ġhem": 4156,
      "Ġharm": 4157,
      "æīį": 4158,
      "ãĢĮ": 4159,
      "ãĢį": 4160,
      "åĨį": 4161,
      "ames": 4162,
      "ĠJames": 4163,
      "ĠRuss": 4164,
      "Ġeventually": 4165,
      "Ġsecret": 4166,
      "pret": 4167,
      "Ġinterpret": 4168,
      "Ġacid": 4169,
      "ĠBaÅŁk": 4170,
      "lud": 4171,
      "Ġsurpr": 4172,
      "Ġganz": 4173,
      "ross": 4174,
      "Ġcross": 4175,
      "Ġcustom": 4176,
      "Ġ2004": 4177,
      "Ġhistorical": 4178,
      "Ġtro": 4179,
      "Ġilg": 4180,
      "Ġilgili": 4181,
      "Ġcoll": 4182,
      "Ġcollabor": 4183,
      "Ġcolon": 4184,
      "erson": 4185,
      "Ġforce": 4186,
      "å¦Ĥæŀľ": 4187,
      "Â¿": 4188,
      "Â°": 4189,
      "Ġfue": 4190,
      "Ġtravel": 4191,
      "æ¸ħ": 4192,
      "AC": 4193,
      "Ġcut": 4194,
      "Ġimmun": 4195,
      "è¿Ĳ": 4196,
      "Ãĩ": 4197,
      "urs": 4198,
      "ets": 4199,
      "ats": 4200,
      "Ġcada": 4201,
      "Ġcit": 4202,
      "Ġcitiz": 4203,
      "Ġtraining": 4204,
      "wn": 4205,
      "Ġtown": 4206,
      "Ġtop": 4207,
      "itte": 4208,
      "ĠHIV": 4209,
      "Ġversion": 4210,
      "æ¥": 4211,
      "Ġsah": 4212,
      "Ġsahip": 4213,
      "ĠFre": 4214,
      "ĠFamil": 4215,
      "Ġfrequently": 4216,
      "ÃŃn": 4217,
      "è§Ħ": 4218,
      "åĦ": 4219,
      "å¤Ħ": 4220,
      "ĠArch": 4221,
      "abet": 4222,
      "Ġdiabet": 4223,
      "ĠImp": 4224,
      "Ġtechnolog": 4225,
      "æĺĵ": 4226,
      "Ġmal": 4227,
      "dom": 4228,
      "ĠNASA": 4229,
      "Ġdiseas": 4230,
      "Ġmiles": 4231,
      "ĠAcadem": 4232,
      "Ġacadem": 4233,
      "Ġsure": 4234,
      "ĠÅŁekilde": 4235,
      "like": 4236,
      "Ġenter": 4237,
      "ĠGovernment": 4238,
      "Ġvi": 4239,
      "Ġviol": 4240,
      "tructures": 4241,
      "Ġconstruct": 4242,
      "Ġsoftware": 4243,
      "ĠgÃ¼ven": 4244,
      "Ġej": 4245,
      "Ġep": 4246,
      "70": 4247,
      "å¸ĥ": 4248,
      "èİ": 4249,
      "Ã¼h": 4250,
      "ĠGreen": 4251,
      "åĪĽ": 4252,
      "åĽĽ": 4253,
      "Ġcitizens": 4254,
      "craft": 4255,
      "ĠProject": 4256,
      "Ġya": 4257,
      "Ġyer": 4258,
      "Ä±lar": 4259,
      "Ġdeclar": 4260,
      "amm": 4261,
      "ĠFranc": 4262,
      "Ġihn": 4263,
      "athe": 4264,
      "athem": 4265,
      "athemat": 4266,
      "Ġship": 4267,
      "Ġfil": 4268,
      "Ġrunning": 4269,
      "æĴ": 4270,
      "ĠAustralia": 4271,
      "Ġeval": 4272,
      "Ġevalu": 4273,
      "hal": 4274,
      "ke": 4275,
      "Ġfinancial": 4276,
      "Ġmix": 4277,
      "):": 4278,
      "yright": 4279,
      "Ġvirt": 4280,
      "æŃ¥": 4281,
      "Ġcateg": 4282,
      "Ġgrand": 4283,
      "æľĥ": 4284,
      "hood": 4285,
      "Ġtanto": 4286,
      "ecto": 4287,
      "Ã¶glichkeit": 4288,
      "Ġdefinition": 4289,
      "Ġcoast": 4290,
      "Ġpicture": 4291,
      "Ġdirection": 4292,
      "Ġrecover": 4293,
      "èµ°": 4294,
      "Ġiy": 4295,
      "Ġuz": 4296,
      "Ġik": 4297,
      "Ġbrother": 4298,
      "Ġgew": 4299,
      "Ġdestro": 4300,
      "Ġliterature": 4301,
      "ras": 4302,
      "ĠkonuÅŁ": 4303,
      "åħĪ": 4304,
      "æ¶Ī": 4305,
      "å¸Ī": 4306,
      "æķĪ": 4307,
      "ĠinformaciÃ³n": 4308,
      "Ġmeaning": 4309,
      "Ġpopulations": 4310,
      "Ġapplications": 4311,
      "Ġapplication": 4312,
      "onic": 4313,
      "Ġ80": 4314,
      "å®¢": 4315,
      "dem": 4316,
      "Ġautom": 4317,
      "ĠsÃ¼": 4318,
      "Ġestablished": 4319,
      "ç»Ļ": 4320,
      "æŁ": 4321,
      "example": 4322,
      "æĵ": 4323,
      "Ġmultiple": 4324,
      "å®¹": 4325,
      "Ġtaking": 4326,
      "Ġdeb": 4327,
      "Ġdeep": 4328,
      "leep": 4329,
      "Ġsleep": 4330,
      "Ġsin": 4331,
      "ĠOb": 4332,
      "å²": 4333,
      "è²": 4334,
      "Ġinside": 4335,
      "90": 4336,
      "çĭ": 4337,
      "eign": 4338,
      "Ġproced": 4339,
      "ĠMed": 4340,
      "ased": 4341,
      "based": 4342,
      "And": 4343,
      "siniz": 4344,
      "abilirsiniz": 4345,
      "Ġsurvey": 4346,
      "ä¸ĸçķĮ": 4347,
      "ĠsÃ¶y": 4348,
      "Ġsat": 4349,
      "èĤ²": 4350,
      "Ġbreast": 4351,
      "åĻ": 4352,
      "åĻ¨": 4353,
      "è´¨": 4354,
      "Ġprimarily": 4355,
      "ĠAdministr": 4356,
      "itude": 4357,
      "Ġadditional": 4358,
      "Ġtraditional": 4359,
      "oÄŁ": 4360,
      "ference": 4361,
      "uthors": 4362,
      "èĳ": 4363,
      "ĠChines": 4364,
      "Ġperspect": 4365,
      "itamin": 4366,
      "Ġcontamin": 4367,
      "uit": 4368,
      "itz": 4369,
      "Ġtry": 4370,
      "Ġreact": 4371,
      "Ġunique": 4372,
      "æĸ¯": 4373,
      "æĸĻ": 4374,
      "éĢĻ": 4375,
      "éĢī": 4376,
      "ĠkullanÄ±l": 4377,
      "Ġhaz": 4378,
      "Ġyaz": 4379,
      "'re": 4380,
      "val": 4381,
      "è¿Ľè¡Į": 4382,
      "ought": 4383,
      "ĠÃ¶nce": 4384,
      "Ġlarger": 4385,
      "Ġsold": 4386,
      "ĠarasÄ±nda": 4387,
      "Ġhouse": 4388,
      "abe": 4389,
      "Ġterr": 4390,
      "Ġsummer": 4391,
      "ĠRoman": 4392,
      "å°±æĺ¯": 4393,
      "inal": 4394,
      "ĠPublic": 4395,
      "ĠWest": 4396,
      "fall": 4397,
      "ft": 4398,
      "Ġreported": 4399,
      "aut": 4400,
      "But": 4401,
      "ecut": 4402,
      "Ġbacteria": 4403,
      "ĠNach": 4404,
      "ĠeÄŁ": 4405,
      "Ġwarm": 4406,
      "å¸Ĥåľº": 4407,
      "Ġfoot": 4408,
      "adores": 4409,
      "Ġcaused": 4410,
      "Ġcauses": 4411,
      "Ġcard": 4412,
      "Ġmaterials": 4413,
      "ouncil": 4414,
      "ĠCouncil": 4415,
      "Ġsl": 4416,
      "ĠUnion": 4417,
      "ework": 4418,
      "Ġpowerful": 4419,
      "Ġ2003": 4420,
      "Ġ2001": 4421,
      "Ġ2002": 4422,
      "Ġago": 4423,
      "Ġbird": 4424,
      "Ġverd": 4425,
      "åħī": 4426,
      "How": 4427,
      "ĠiÃ§inde": 4428,
      "Ġsuppl": 4429,
      "Ġconoc": 4430,
      "ocr": 4431,
      "Ġgraph": 4432,
      "Ġ190": 4433,
      "Ġweather": 4434,
      "Ġfather": 4435,
      "Ġgreater": 4436,
      "ĠCommun": 4437,
      "unun": 4438,
      "å¸¦": 4439,
      "--------": 4440,
      "Ġinfect": 4441,
      "Ġneighb": 4442,
      "è±": 4443,
      "ç®¡çĲĨ": 4444,
      "Ġcharacteristics": 4445,
      "ĠDav": 4446,
      "ĠDavid": 4447,
      "ider": 4448,
      "ĠDevelopment": 4449,
      "Ġcamb": 4450,
      "Ġimmer": 4451,
      "erve": 4452,
      "Ġreve": 4453,
      "ero": 4454,
      "ĠSo": 4455,
      "Ġrap": 4456,
      "Ġrapid": 4457,
      "æ¬¾": 4458,
      "26": 4459,
      "28": 4460,
      "27": 4461,
      "29": 4462,
      "ĠbaÄŁ": 4463,
      "Ġbi": 4464,
      "Ġbillion": 4465,
      "Ġinstead": 4466,
      "ION": 4467,
      "II": 4468,
      "ĠCommission": 4469,
      "èĬĤ": 4470,
      "Ġtrade": 4471,
      "éº": 4472,
      "Ġrul": 4473,
      "ĠBook": 4474,
      "ç¶": 4475,
      "çŁ": 4476,
      "æıĲä¾Ľ": 4477,
      "Ġpropos": 4478,
      "Ġkid": 4479,
      "é©¬": 4480,
      "Ġexperienc": 4481,
      "ively": 4482,
      "Ġtree": 4483,
      "gree": 4484,
      "ades": 4485,
      "Ġcorres": 4486,
      "Ġcorresp": 4487,
      "Ġcorrespond": 4488,
      "ĠResourc": 4489,
      "Ġfruit": 4490,
      "Although": 4491,
      "Ġnuestro": 4492,
      "Ġresponse": 4493,
      "ech": 4494,
      "Ġspeech": 4495,
      "Ġspeed": 4496,
      "Ġeasy": 4497,
      "åĪ«": 4498,
      "Ġtechnique": 4499,
      "Ġopportunity": 4500,
      "ĠsÃ¼re": 4501,
      "uge": 4502,
      "Ġstrugg": 4503,
      "Ġscale": 4504,
      "Ġcla": 4505,
      "Ġclaim": 4506,
      "Ġpeace": 4507,
      "ĠInter": 4508,
      "room": 4509,
      "Ġclassroom": 4510,
      "Ġlate": 4511,
      "weise": 4512,
      "ĠMod": 4513,
      "é¦ĸ": 4514,
      "æ®": 4515,
      "unch": 4516,
      "Ġmember": 4517,
      "Ġoptim": 4518,
      "Ġvitamin": 4519,
      "Ġcontract": 4520,
      "Ġalternative": 4521,
      "ĠMany": 4522,
      "ä½¿çĶ¨": 4523,
      "Ġarticles": 4524,
      "Ġshar": 4525,
      "enciÃ³n": 4526,
      "åĥı": 4527,
      "water": 4528,
      "side": 4529,
      "Ġoutside": 4530,
      "Ġproduced": 4531,
      "anger": 4532,
      "Ġdanger": 4533,
      "Ġlonger": 4534,
      "Ġwurden": 4535,
      "Ġbirth": 4536,
      "Ġlanguages": 4537,
      "Ġkay": 4538,
      "æĻĤ": 4539,
      "Ĥ¬": 4540,
      "Ġquant": 4541,
      "æ¡Ī": 4542,
      "Ġdevice": 4543,
      "ĠHis": 4544,
      "ĠStr": 4545,
      "Ġinstr": 4546,
      "Ġinstrument": 4547,
      "Ġargument": 4548,
      "Ġconsult": 4549,
      "æĬĢæľ¯": 4550,
      "Ġhost": 4551,
      "osten": 4552,
      "Ġdocuments": 4553,
      "ç»Ł": 4554,
      "åħ±": 4555,
      "rogen": 4556,
      "fÃ¼hr": 4557,
      "Ġ29": 4558,
      "Ġconclud": 4559,
      "Ġneeds": 4560,
      "Ġneeded": 4561,
      "Ġcontemp": 4562,
      "Ġjed": 4563,
      "ĠOff": 4564,
      "ĠOp": 4565,
      "orm": 4566,
      "Ġsm": 4567,
      "Ġsmok": 4568,
      "Ġtook": 4569,
      "Ġwinter": 4570,
      "Ġcollege": 4571,
      "Ġamb": 4572,
      "by": 4573,
      "Ġsymbol": 4574,
      "Ã¼rÃ¼n": 4575,
      "ĠHouse": 4576,
      "ibrary": 4577,
      "Ġul": 4578,
      "ĠulaÅŁ": 4579,
      "Ġconclus": 4580,
      "Ġnuestra": 4581,
      "ĠFrank": 4582,
      "urric": 4583,
      "Ġmusc": 4584,
      "Ġrelev": 4585,
      "Ġrelatively": 4586,
      "ĠÃº": 4587,
      "Ġbig": 4588,
      "Ġburn": 4589,
      "Ġdiseases": 4590,
      "Ġeth": 4591,
      "put": 4592,
      "entially": 4593,
      "ä¾Ĩ": 4594,
      "force": 4595,
      "ĠOffice": 4596,
      "Ġvom": 4597,
      "Ġmiddle": 4598,
      "try": 4599,
      "ll": 4600,
      "ĠÃºl": 4601,
      "ĠÃºltim": 4602,
      "Ġopportunities": 4603,
      "ĠoluÅŁtur": 4604,
      "Ġdestroy": 4605,
      "yon": 4606,
      "asyon": 4607,
      "Ġilk": 4608,
      "Ġroom": 4609,
      "isions": 4610,
      "ised": 4611,
      "Ġatmosphere": 4612,
      "ostenlos": 4613,
      "life": 4614,
      "alar": 4615,
      "åĦ¿": 4616,
      "Ġshape": 4617,
      "Ġassign": 4618,
      "ĠWestern": 4619,
      "ĠNe": 4620,
      "che": 4621,
      "ane": 4622,
      "ĠhazÄ±r": 4623,
      "ĠControl": 4624,
      "ç±»": 4625,
      "akt": 4626,
      "Ġ90": 4627,
      "Ġetw": 4628,
      "Ġetk": 4629,
      "wick": 4630,
      "çħ": 4631,
      "çħ§": 4632,
      "uto": 4633,
      "Ġregions": 4634,
      "While": 4635,
      "Ġsituation": 4636,
      "Ġmismo": 4637,
      "Ġbien": 4638,
      "Ġface": 4639,
      "Ġproperty": 4640,
      "ĠVol": 4641,
      "ternehmen": 4642,
      "ĠPre": 4643,
      "å½¢": 4644,
      "å½©": 4645,
      "ynam": 4646,
      "è½¬": 4647,
      "uyor": 4648,
      "æ¢": 4649,
      "Ġdecades": 4650,
      "ĠSocial": 4651,
      "Ġlines": 4652,
      "åħ·": 4653,
      "ography": 4654,
      "Ġdeveloping": 4655,
      "ologists": 4656,
      "ĠProfess": 4657,
      "ĠPhil": 4658,
      "Ġminim": 4659,
      "ĠDNA": 4660,
      "Ġskills": 4661,
      "Ġaccur": 4662,
      "Ġroot": 4663,
      "Ġoppos": 4664,
      "Ġgir": 4665,
      "ĠÃ§ek": 4666,
      "reek": 4667,
      "ĠGreek": 4668,
      "Ġconstant": 4669,
      "ichtig": 4670,
      "Ġcapacity": 4671,
      "Ġmention": 4672,
      "inister": 4673,
      "ĠYour": 4674,
      "ura": 4675,
      "ĠÃ¼rÃ¼n": 4676,
      "Ġotro": 4677,
      "åĮ»": 4678,
      "Ġextremely": 4679,
      "Ġbis": 4680,
      "Ġbank": 4681,
      "Ġdemocr": 4682,
      "ĠseÃ§": 4683,
      "Ġoffice": 4684,
      "æł¡": 4685,
      "Ġstream": 4686,
      "Ã¼tz": 4687,
      "ulation": 4688,
      "Ġannual": 4689,
      "Ġvia": 4690,
      "çµ": 4691,
      "èĲ¥": 4692,
      "éł": 4693,
      "Ġdesigned": 4694,
      "ĠâĢ¦": 4695,
      "Ã©r": 4696,
      "Ġentr": 4697,
      "Ġemail": 4698,
      "Ġejemp": 4699,
      "joy": 4700,
      "Ġenjoy": 4701,
      "arse": 4702,
      "Ġrevolution": 4703,
      "Ġiyi": 4704,
      "isi": 4705,
      "Ġsurger": 4706,
      "è¾¾": 4707,
      "ĠMost": 4708,
      "tir": 4709,
      "ĠColumb": 4710,
      "Ġdecre": 4711,
      "Ġdecid": 4712,
      "ekted": 4713,
      "ektedir": 4714,
      "Ġproperties": 4715,
      "ster": 4716,
      "ĠgÃ¶ster": 4717,
      "ĠgÃ¶z": 4718,
      "ship": 4719,
      "ohol": 4720,
      "cohol": 4721,
      "Ġalcohol": 4722,
      "Ġchoose": 4723,
      "Ġchoice": 4724,
      "Ġtruth": 4725,
      "Ġborn": 4726,
      "Ġestimated": 4727,
      "Ġaspect": 4728,
      "ĠLand": 4729,
      "Ġmajority": 4730,
      "Ġcareful": 4731,
      "aint": 4732,
      "Ġgain": 4733,
      "Ġ70": 4734,
      "bar": 4735,
      "Ġfark": 4736,
      "ĠfarklÄ±": 4737,
      "mark": 4738,
      "Ġreading": 4739,
      "Ġimproved": 4740,
      "ĠIslam": 4741,
      "åıĺ": 4742,
      "åıĪ": 4743,
      "åıĸ": 4744,
      "åıĭ": 4745,
      "çīĪ": 4746,
      "çīĮ": 4747,
      "Ġspir": 4748,
      "Ġspirit": 4749,
      "Ġguid": 4750,
      "Ġdiese": 4751,
      "Ġdomin": 4752,
      "Ġdevam": 4753,
      "Ġbasis": 4754,
      "ĠÃ¶zell": 4755,
      "Ġdrop": 4756,
      "Ġcrop": 4757,
      "Ġvolum": 4758,
      "Ġihre": 4759,
      "\".": 4760,
      "ĠNatur": 4761,
      "ĠCommitte": 4762,
      "exico": 4763,
      "ç»Ħ": 4764,
      "ĠKind": 4765,
      "èĮ": 4766,
      "Ġstatus": 4767,
      "Ġquien": 4768,
      "Ġsav": 4769,
      "lied": 4770,
      "Ġapplied": 4771,
      "Ġaccident": 4772,
      "axim": 4773,
      "Ġohne": 4774,
      "eÅŁ": 4775,
      "ĠFrance": 4776,
      "ĠLond": 4777,
      "ĠLondon": 4778,
      "Ġroad": 4779,
      "Ġfeatures": 4780,
      "Ġtakes": 4781,
      "åĳĬ": 4782,
      "åįĹ": 4783,
      "Ġcompon": 4784,
      "Ġcomponents": 4785,
      "Ġdark": 4786,
      "ata": 4787,
      "atr": 4788,
      "ĠArm": 4789,
      "Ġpresence": 4790,
      "Ġreference": 4791,
      "Ġperman": 4792,
      "Ġhope": 4793,
      "Ġhak": 4794,
      "Ġminut": 4795,
      "å±Ģ": 4796,
      "Ġbirlik": 4797,
      "Ġbirlikte": 4798,
      "Ġobvious": 4799,
      "Ġcoordin": 4800,
      "Ġpreserv": 4801,
      "Ġreferred": 4802,
      "è®¤": 4803,
      "ĠNot": 4804,
      "å¹¿": 4805,
      "Ġrates": 4806,
      "Ġriver": 4807,
      "Ġrule": 4808,
      "arrol": 4809,
      "Ġdesarrol": 4810,
      "ĠMensch": 4811,
      "mey": 4812,
      "ney": 4813,
      "Ġpregn": 4814,
      "ram": 4815,
      "Ġtiss": 4816,
      "Ġtissue": 4817,
      "ĠShe": 4818,
      "Ġaccomplish": 4819,
      "æħ": 4820,
      "è£ħ": 4821,
      "è¶ħ": 4822,
      "è¶Ĭ": 4823,
      "ierung": 4824,
      "åĳ¨": 4825,
      "è§Ĥ": 4826,
      "ĠSpec": 4827,
      "Äģ": 4828,
      "Ġcomun": 4829,
      "Ġseparate": 4830,
      "abilities": 4831,
      "aged": 4832,
      "æ²»": 4833,
      "Ġsiempre": 4834,
      "Ġwindow": 4835,
      "ground": 4836,
      "Ġbackground": 4837,
      "çĶ·": 4838,
      "Ġsect": 4839,
      "Ġsor": 4840,
      "EC": 4841,
      "sues": 4842,
      "Ġissues": 4843,
      "Ġterms": 4844,
      "eln": 4845,
      "ĠManagement": 4846,
      "åĬŀ": 4847,
      "å¤ª": 4848,
      "ental": 4849,
      "Ġacqu": 4850,
      "Ġcurrently": 4851,
      "Ġdistance": 4852,
      "Ġinstance": 4853,
      "Ġsomeone": 4854,
      "Ġstaff": 4855,
      "Ġwoman": 4856,
      "Ġschon": 4857,
      "é¢Ĩ": 4858,
      "ĠtÃ¼m": 4859,
      "swer": 4860,
      "Ġanswer": 4861,
      "Ġoy": 4862,
      "å§Ķ": 4863,
      "å§ĭ": 4864,
      "Ã¤ft": 4865,
      "Ġlaunch": 4866,
      "lim": 4867,
      "ĠMuslim": 4868,
      "lad": 4869,
      "Ġcenter": 4870,
      "her": 4871,
      "Ġnumer": 4872,
      "Ġnumerous": 4873,
      "Ġrestr": 4874,
      "lectr": 4875,
      "tras": 4876,
      "tronom": 4877,
      "åĢĭ": 4878,
      "æĲ": 4879,
      "è¯Ŀ": 4880,
      "Ġseven": 4881,
      "acht": 4882,
      "ĠEnt": 4883,
      "Ġ#": 4884,
      "Ġdifer": 4885,
      "duk": 4886,
      "ĠProduk": 4887,
      "Ġmental": 4888,
      "Ġmir": 4889,
      "Ġevents": 4890,
      "éľĢè¦ģ": 4891,
      "Ġgrowing": 4892,
      "Ġfindings": 4893,
      "ĠFrau": 4894,
      "ĠFren": 4895,
      "ĠFrench": 4896,
      "ĠBaÅŁkanÄ±": 4897,
      "ĠiÃ§er": 4898,
      "!!": 4899,
      "ĠAng": 4900,
      "ĠChar": 4901,
      "war": 4902,
      "Ġreligion": 4903,
      "ĠEm": 4904,
      "Ġtelev": 4905,
      "Ġorganism": 4906,
      "uh": 4907,
      "uff": 4908,
      "Ġnuclear": 4909,
      "arÃ¡": 4910,
      "æľª": 4911,
      "å·²ç»ı": 4912,
      "Ġlegis": 4913,
      "Ġlegisl": 4914,
      "Ġlegal": 4915,
      "Ġregional": 4916,
      "Ġnuestros": 4917,
      "åľĭ": 4918,
      "çİĭ": 4919,
      "'ll": 4920,
      "Ġachieve": 4921,
      "Ã¶ÃŁ": 4922,
      "Ġotras": 4923,
      "Ġcircul": 4924,
      "Ġearl": 4925,
      "Ġearlier": 4926,
      "US": 4927,
      "With": 4928,
      "Ġsea": 4929,
      "halten": 4930,
      "Ġbar": 4931,
      "èµĽ": 4932,
      "Ġleave": 4933,
      "Ġcook": 4934,
      "Ġok": 4935,
      "uj": 4936,
      "ij": 4937,
      "eleri": 4938,
      "Ġbuildings": 4939,
      "Ġmerc": 4940,
      "Ġmic": 4941,
      "Ġmicro": 4942,
      "ä¾¿": 4943,
      "Ġbur": 4944,
      "Ġlargely": 4945,
      "è¶³": 4946,
      "ĠJust": 4947,
      "Ġeight": 4948,
      "âĢĺ": 4949,
      "Ġpodr": 4950,
      "unden": 4951,
      "åĬŁ": 4952,
      "Ġdecisions": 4953,
      "å¤ĩ": 4954,
      "Ġrelease": 4955,
      "acaktÄ±r": 4956,
      "Ġgut": 4957,
      "çľģ": 4958,
      "çľ¼": 4959,
      "è§ģ": 4960,
      "mas": 4961,
      "èĳĹ": 4962,
      "ĠHol": 4963,
      "ç¡®": 4964,
      "ĠPerson": 4965,
      "Ġpaint": 4966,
      "Ãºb": 4967,
      "Ãºblic": 4968,
      "Ġcomplic": 4969,
      "Ġexplic": 4970,
      "Ġsow": 4971,
      "Ġsowie": 4972,
      "Ġbenefit": 4973,
      "Ġschools": 4974,
      "çĻ¾": 4975,
      "Ġdog": 4976,
      "ĠdÃŃa": 4977,
      "Ġwall": 4978,
      "Ġwide": 4979,
      "Ġwatch": 4980,
      "Ġmut": 4981,
      "Ġcontribut": 4982,
      "leased": 4983,
      "Ġreleased": 4984,
      "Ġrequirements": 4985,
      "ĠTechnology": 4986,
      "Ġtrib": 4987,
      "Ġtrack": 4988,
      "Ġcontribution": 4989,
      "Ġsugar": 4990,
      "Ġminutes": 4991,
      "Ġresistance": 4992,
      "iger": 4993,
      "Ġdoesn": 4994,
      "related": 4995,
      "ĠAg": 4996,
      "volution": 4997,
      "ilen": 4998,
      "maya": 4999,
      "Ġadopt": 5000,
      "Ġconv": 5001,
      "roph": 5002,
      "Ġradiation": 5003,
      "Ġshows": 5004,
      "Ġprograms": 5005,
      "very": 5006,
      "ty": 5007,
      "rote": 5008,
      "Ġwrote": 5009,
      "ĠFrom": 5010,
      "äº¬": 5011,
      "éĺŁ": 5012,
      "ĠÃ¼ret": 5013,
      "Ġimmed": 5014,
      "Ġimmedi": 5015,
      "Ġimmediately": 5016,
      "Ġimmigr": 5017,
      "Ġmigr": 5018,
      "AM": 5019,
      "Ġelimin": 5020,
      "Ġtechnologies": 5021,
      "Ġhighly": 5022,
      "ĠkarÅŁÄ±l": 5023,
      "Ġjoint": 5024,
      "Ġappoint": 5025,
      "Ġmess": 5026,
      "Ġmountain": 5027,
      "Ġmaxim": 5028,
      "Ġmission": 5029,
      "ces": 5030,
      "Ġforces": 5031,
      "åĩł": 5032,
      "åĩĨ": 5033,
      "å¼ķ": 5034,
      "Ġactions": 5035,
      "Ġdegree": 5036,
      "Ġsolar": 5037,
      "è³": 5038,
      "Ġeffic": 5039,
      "ux": 5040,
      "Ġ:": 5041,
      "Ġmineral": 5042,
      "Ġexperiences": 5043,
      "quare": 5044,
      "æĳ": 5045,
      "amples": 5046,
      "Ġremove": 5047,
      "ĠCharles": 5048,
      "æ¨¡": 5049,
      "fach": 5050,
      "Ġeinfach": 5051,
      "una": 5052,
      "larda": 5053,
      "åĽ¢": 5054,
      "ĠBritain": 5055,
      "Ġrain": 5056,
      "nov": 5057,
      "ĠUN": 5058,
      "ĠUm": 5059,
      "ynÄ±": 5060,
      "Ġadvant": 5061,
      "è¿Ļä¸ª": 5062,
      "Ġadvanc": 5063,
      "åĢĻ": 5064,
      "nown": 5065,
      "known": 5066,
      "Ġflood": 5067,
      "yl": 5068,
      "èĤ¡": 5069,
      "Ġolmak": 5070,
      "resh": 5071,
      "urban": 5072,
      "Ġurban": 5073,
      "cription": 5074,
      "Ġtransform": 5075,
      "ä¿¡æģ¯": 5076,
      "Ġlocation": 5077,
      "indeki": 5078,
      "Ġice": 5079,
      "Ġincome": 5080,
      "Ġexpand": 5081,
      "ĠMedic": 5082,
      "igu": 5083,
      "Ġadded": 5084,
      "Ġcomes": 5085,
      "èŃ": 5086,
      "èħ": 5087,
      "ä¼ĺ": 5088,
      "uÄŁu": 5089,
      "çĹħ": 5090,
      "Ġalle": 5091,
      "ĠQue": 5092,
      "eben": 5093,
      "Ġconflict": 5094,
      "Ġamp": 5095,
      "ĠChinese": 5096,
      "Ġstar": 5097,
      "Ġbelief": 5098,
      "100": 5099,
      "rap": 5100,
      "Ġtrees": 5101,
      "Ġtreated": 5102,
      "å¢ĥ": 5103,
      "ĠMedicine": 5104,
      "Ġni": 5105,
      "Ġmund": 5106,
      "Ġmundo": 5107,
      "ĠCo": 5108,
      "åºĹ": 5109,
      "Ġcode": 5110,
      "ture": 5111,
      "ista": 5112,
      "yrÄ±c": 5113,
      "Ä±cÄ±": 5114,
      "Ġaplic": 5115,
      "Ġimplic": 5116,
      "ÃŃs": 5117,
      "aÃŃs": 5118,
      "ĠpaÃŃs": 5119,
      "Ġport": 5120,
      "Ġsteh": 5121,
      "outhern": 5122,
      "éŁ³": 5123,
      "Ġtut": 5124,
      "é£Ł": 5125,
      "overty": 5126,
      "ĠMore": 5127,
      "orge": 5128,
      "ĠGeorge": 5129,
      "ĠMich": 5130,
      "ĠCivil": 5131,
      "ĠCom": 5132,
      "å£«": 5133,
      "mektedir": 5134,
      "ĠDeutschland": 5135,
      "Ġnation": 5136,
      "ĠMe": 5137,
      "ĠMexico": 5138,
      "ĠService": 5139,
      "ene": 5140,
      "________": 5141,
      "uÃ©s": 5142,
      "ĠdespuÃ©s": 5143,
      "avÃ©s": 5144,
      "ĠtravÃ©s": 5145,
      "Ġprice": 5146,
      "Ġseen": 5147,
      "Ġwriting": 5148,
      "Ġsem": 5149,
      "Ġelectricity": 5150,
      "ĠBecause": 5151,
      "umm": 5152,
      "Ġrequires": 5153,
      "Ġfem": 5154,
      "Ġfemale": 5155,
      "Ġfunc": 5156,
      "Ġpersonas": 5157,
      "isiÃ³n": 5158,
      "Ġhot": 5159,
      "ottom": 5160,
      "äº§åĵģ": 5161,
      "ĠpolÃŃ": 5162,
      "Ġpoll": 5163,
      "Ġpollution": 5164,
      "Ġexpression": 5165,
      "Ġpossess": 5166,
      "Ġpossib": 5167,
      "ĠGro": 5168,
      "ĠGroup": 5169,
      "Ġdiabetes": 5170,
      "Ä±lÄ±": 5171,
      "Ġreform": 5172,
      "ĠdeÄŁil": 5173,
      "Ġfrequency": 5174,
      "Ġshift": 5175,
      "log": 5176,
      "ç©¶": 5177,
      "çłĶç©¶": 5178,
      "Ġreplace": 5179,
      "ä½ı": 5180,
      "ä½İ": 5181,
      "Ġjetzt": 5182,
      "ĠMedical": 5183,
      "Ġgives": 5184,
      "Qu": 5185,
      "Ġdu": 5186,
      "Ġtechniques": 5187,
      "ara": 5188,
      "Ġsubstant": 5189,
      "è®º": 5190,
      "Ġmi": 5191,
      "Ġsi": 5192,
      "Ġsing": 5193,
      "Ġsingle": 5194,
      "ĠsÃ¶z": 5195,
      "Ġsil": 5196,
      "ĠUnd": 5197,
      "ĠUnter": 5198,
      "è¯¥": 5199,
      "Ġvez": 5200,
      "oz": 5201,
      "itect": 5202,
      "Ġarchitect": 5203,
      "Ġinsect": 5204,
      "ä¹¦": 5205,
      "ĠÃľber": 5206,
      "å¼ł": 5207,
      "After": 5208,
      "éħį": 5209,
      "ĠdeÄŁer": 5210,
      "Ġforeign": 5211,
      "aves": 5212,
      "antes": 5213,
      "head": 5214,
      "eme": 5215,
      "Ġdiesem": 5216,
      "Ġdieser": 5217,
      "Ġproper": 5218,
      "Ġindividuals": 5219,
      "Ġresponsibility": 5220,
      "Ġpossibility": 5221,
      "Ġpeque": 5222,
      "unque": 5223,
      "ald": 5224,
      "Ġcorpor": 5225,
      "åĤ": 5226,
      "Ġgovern": 5227,
      "Ġnutrient": 5228,
      "Ġnutrition": 5229,
      "house": 5230,
      "Ġgrup": 5231,
      "ĠasÃŃ": 5232,
      "where": 5233,
      "which": 5234,
      "AD": 5235,
      "Ġpack": 5236,
      "Ġcontrast": 5237,
      "åı¯èĥ½": 5238,
      "Ġ1990": 5239,
      "wischen": 5240,
      "Ġzwischen": 5241,
      "Ġreveal": 5242,
      "æľĽ": 5243,
      "back": 5244,
      "Ġdiscussion": 5245,
      "aten": 5246,
      "Ġwhom": 5247,
      "ĠPeople": 5248,
      "ĠThom": 5249,
      "ĠThomas": 5250,
      "Ġstudied": 5251,
      "Ġhealthy": 5252,
      "éĢŁ": 5253,
      "éĻĲ": 5254,
      "Ġmessage": 5255,
      "Ġbodies": 5256,
      "aries": 5257,
      "olar": 5258,
      "Ġscholar": 5259,
      "ike": 5260,
      "ĠFederal": 5261,
      "Ġfailure": 5262,
      "Ġexecut": 5263,
      "Ġpurch": 5264,
      "Ġcur": 5265,
      "icip": 5266,
      "unicip": 5267,
      "Ġfacilities": 5268,
      "Ġnovel": 5269,
      "Ġattach": 5270,
      "Ġattend": 5271,
      "ĠkÄ±s": 5272,
      "Ġcontinues": 5273,
      "Ġdescribed": 5274,
      "ished": 5275,
      "Ġconvers": 5276,
      "Ġexcess": 5277,
      "æĺŁ": 5278,
      "Ġefficient": 5279,
      "Ġeg": 5280,
      "Ġegg": 5281,
      "Ġviolence": 5282,
      "ĠMuse": 5283,
      "ĠMuseum": 5284,
      "unuz": 5285,
      "Ġmotiv": 5286,
      "ĠDas": 5287,
      "Ġeconomy": 5288,
      "Ġaircraft": 5289,
      "Ġthing": 5290,
      "Ġhace": 5291,
      "Ġexclus": 5292,
      "Ġsufficient": 5293,
      "Ġrequest": 5294,
      "aily": 5295,
      "Ġdaily": 5296,
      "ĠWater": 5297,
      "ĠWind": 5298,
      "ĠWindow": 5299,
      "Ġ186": 5300,
      "icos": 5301,
      "Ġfeature": 5302,
      "Ġtrial": 5303,
      "Ġobj": 5304,
      "Ġcoup": 5305,
      "upp": 5306,
      "æł¹": 5307,
      "æ¹": 5308,
      "æļ": 5309,
      "Ġsumm": 5310,
      "ĠSpace": 5311,
      "acebook": 5312,
      "icial": 5313,
      "Ġassemb": 5314,
      "Ġassum": 5315,
      "å®ĥ": 5316,
      "æĿĥ": 5317,
      "åĲĥ": 5318,
      "æ¼Ķ": 5319,
      "åĬ©": 5320,
      "ĠIS": 5321,
      "ĠISB": 5322,
      "ĠISBN": 5323,
      "ĠIr": 5324,
      "Ġbelong": 5325,
      "Ġgame": 5326,
      "Ġsector": 5327,
      "ĠFlor": 5328,
      "ĠFlorida": 5329,
      "èĲ½": 5330,
      "ĠquÃ©": 5331,
      "Ġinvolves": 5332,
      "Ġinvolve": 5333,
      "stell": 5334,
      "stances": 5335,
      "é¦Ļ": 5336,
      "Ġett": 5337,
      "Ġalt": 5338,
      "erst": 5339,
      "urt": 5340,
      "ĠAnt": 5341,
      "Ã¤lt": 5342,
      "ypt": 5343,
      "gypt": 5344,
      "ĠEgypt": 5345,
      "lant": 5346,
      "ĠAtlant": 5347,
      "ilmiÅŁ": 5348,
      "ĠiliÅŁ": 5349,
      "ilmesi": 5350,
      "mesi": 5351,
      "Ġannounc": 5352,
      "wise": 5353,
      "Ġblue": 5354,
      "Ġwebs": 5355,
      "Ġwebsite": 5356,
      "grad": 5357,
      "Ġfast": 5358,
      "Ġgold": 5359,
      "Ġgesch": 5360,
      "Ġgef": 5361,
      "çİĩ": 5362,
      "çİ¯": 5363,
      "athol": 5364,
      "ĠCathol": 5365,
      "oles": 5366,
      "ientes": 5367,
      "UN": 5368,
      "idir": 5369,
      "ĠWir": 5370,
      "Ġwid": 5371,
      "Ġwidely": 5372,
      "Ġindependent": 5373,
      "onn": 5374,
      "name": 5375,
      "ĠVir": 5376,
      "ĠVirgin": 5377,
      "Ä±mÄ±": 5378,
      "Ġpolicies": 5379,
      "æĴŃ": 5380,
      "Ġestud": 5381,
      "Ġagencies": 5382,
      "ught": 5383,
      "aught": 5384,
      "Ġbiological": 5385,
      "ĠDes": 5386,
      "ĠDesign": 5387,
      "éĺ²": 5388,
      "çĥŃ": 5389,
      "Ġplaces": 5390,
      "ites": 5391,
      "ĠdiÄŁ": 5392,
      "Ġdiy": 5393,
      "Ġgave": 5394,
      "ĠLibrary": 5395,
      "Ġattract": 5396,
      "Ġtempor": 5397,
      "Ġbreath": 5398,
      "æķĻèĤ²": 5399,
      "Ġorganizations": 5400,
      "Ġorganization": 5401,
      "ĠVirginia": 5402,
      "then": 5403,
      "Ġsuperior": 5404,
      "entes": 5405,
      "Ġdiferentes": 5406,
      "Ġwent": 5407,
      "éĻħ": 5408,
      "ĠLaw": 5409,
      "Ġdatab": 5410,
      "Ġdatabase": 5411,
      "ĠCity": 5412,
      "ĠpÃºblic": 5413,
      "ĠDirect": 5414,
      "Ġmethods": 5415,
      "Ġemergency": 5416,
      "iency": 5417,
      "Ġefficiency": 5418,
      "ĠÃ§oc": 5419,
      "ĠÃ§ocuk": 5420,
      "åįİ": 5421,
      "Ġviele": 5422,
      "è¾ĥ": 5423,
      "Ġlibr": 5424,
      "ancy": 5425,
      "Ġpregnancy": 5426,
      "Ã¡c": 5427,
      "ĠEven": 5428,
      "Ġdepression": 5429,
      "Ġinstitution": 5430,
      "å¿ħ": 5431,
      "ç®Ĺ": 5432,
      "Ġfresh": 5433,
      "Ġabsol": 5434,
      "ĠConstitution": 5435,
      "itch": 5436,
      "ĠCour": 5437,
      "ologist": 5438,
      "ĠWhite": 5439,
      "ĠDuring": 5440,
      "Ġderech": 5441,
      "Ġeye": 5442,
      "éªĮ": 5443,
      "Ġfight": 5444,
      "ĠEuro": 5445,
      "åı·": 5446,
      "Ġconservation": 5447,
      "Ġcommunication": 5448,
      "Ġsevere": 5449,
      "iÃŁ": 5450,
      "Ġbecomes": 5451,
      "stand": 5452,
      "å¹²": 5453,
      "iyat": 5454,
      "ĠConserv": 5455,
      "ĠGl": 5456,
      "è§ī": 5457,
      "Ġadvantage": 5458,
      "Ġliqu": 5459,
      "Ġliquid": 5460,
      "Ġheat": 5461,
      "ĠademÃ¡s": 5462,
      "sue": 5463,
      "Ġissue": 5464,
      "ĠVor": 5465,
      "èĭ±": 5466,
      "Ġspiel": 5467,
      "Ġvision": 5468,
      "Ġbab": 5469,
      "Ġmathemat": 5470,
      "Ã¤uf": 5471,
      "anÄ±n": 5472,
      "Ġuses": 5473,
      "Ġserve": 5474,
      "ammen": 5475,
      "usammen": 5476,
      "Ġneue": 5477,
      "é¥": 5478,
      "Ġparticles": 5479,
      "Ġmotor": 5480,
      "Ġapply": 5481,
      "æĸ½": 5482,
      "Ġmedicine": 5483,
      "ĠStand": 5484,
      "ĠStandard": 5485,
      "pir": 5486,
      "Ġinspir": 5487,
      "ĠFrancisc": 5488,
      "Ġste": 5489,
      "Ġsafe": 5490,
      "Ġoce": 5491,
      "ete": 5492,
      "Ġgran": 5493,
      "iern": 5494,
      "obiern": 5495,
      "obile": 5496,
      "ĠGlob": 5497,
      "ĠMon": 5498,
      "Ġblog": 5499,
      "Ġ1999": 5500,
      "99": 5501,
      "ĠCourt": 5502,
      "Ġantib": 5503,
      "ĠÃ¼l": 5504,
      "ving": 5505,
      "vest": 5506,
      "çŁ¥éģĵ": 5507,
      "Ġinstruments": 5508,
      "ĠEast": 5509,
      "Ġmorning": 5510,
      "Ġdangerous": 5511,
      "EM": 5512,
      "OM": 5513,
      "Ġfile": 5514,
      "æĹ¶åĢĻ": 5515,
      "ä¸Ķ": 5516,
      "äºĶ": 5517,
      "One": 5518,
      "oll": 5519,
      "ĠCl": 5520,
      "ĠTw": 5521,
      "unto": 5522,
      "èı": 5523,
      "æĪı": 5524,
      "æ¸¸æĪı": 5525,
      "åĢ¼": 5526,
      "Ġconsequences": 5527,
      "**": 5528,
      "åŃĺ": 5529,
      "Ġwildlife": 5530,
      "Ġstructures": 5531,
      "Ġtransl": 5532,
      "Ġcuenta": 5533,
      "ientras": 5534,
      "ĠsÃ¼r": 5535,
      "Ġduy": 5536,
      "Ġglass": 5537,
      "Ġboard": 5538,
      "Ġplans": 5539,
      "Ġtherap": 5540,
      "Ġtherapy": 5541,
      "Ġfigure": 5542,
      "è¯ģ": 5543,
      "ĠGermany": 5544,
      "astic": 5545,
      "Ġhakk": 5546,
      "Ġexcept": 5547,
      "http": 5548,
      "éĢļè¿ĩ": 5549,
      "Ġbottom": 5550,
      "uthern": 5551,
      "Ġsouthern": 5552,
      "ĠNorthern": 5553,
      "ĠOf": 5554,
      "ĠzurÃ¼ck": 5555,
      "Ġsaw": 5556,
      "ĠKr": 5557,
      "Ar": 5558,
      "35": 5559,
      "36": 5560,
      "45": 5561,
      "Ġcompared": 5562,
      "ĠÃ¶zellik": 5563,
      "Ġworks": 5564,
      "Ġworkers": 5565,
      "ombre": 5566,
      "Ġlimited": 5567,
      ");": 5568,
      "ited": 5569,
      "æ®µ": 5570,
      "Ġcool": 5571,
      "åĽłä¸º": 5572,
      "æĢĿ": 5573,
      "Ġfair": 5574,
      "ĠhiÃ§": 5575,
      "mÄ±ÅŁtÄ±r": 5576,
      "Ġeyes": 5577,
      "change": 5578,
      "Ġrecognized": 5579,
      "New": 5580,
      "Ã¶ch": 5581,
      "Ġaqu": 5582,
      "Ġsequ": 5583,
      "Ġocean": 5584,
      "iar": 5585,
      "Ġfamiliar": 5586,
      "abei": 5587,
      "Ġbeaut": 5588,
      "iÄŁiniz": 5589,
      "ĠLou": 5590,
      "Ġoutput": 5591,
      "Ġintend": 5592,
      "year": 5593,
      "Ġreplac": 5594,
      "Ġtold": 5595,
      "ĠOld": 5596,
      "trib": 5597,
      "ĠTex": 5598,
      "ĠTexas": 5599,
      "ĠArab": 5600,
      "atÄ±l": 5601,
      "ohl": 5602,
      "Pro": 5603,
      "ĠkarÅŁÄ±": 5604,
      "dÄ±": 5605,
      "dÃ¼r": 5606,
      "Ġcold": 5607,
      "Ġotra": 5608,
      "As": 5609,
      "son": 5610,
      "lieÃŁ": 5611,
      "Ġefforts": 5612,
      "Ġprices": 5613,
      "Ġprison": 5614,
      "Ġyak": 5615,
      "ĠHistor": 5616,
      "Ġgirl": 5617,
      "Ġbek": 5618,
      "Ġpictures": 5619,
      "Ġguide": 5620,
      "Ġengineer": 5621,
      "ĠdiÄŁer": 5622,
      "apter": 5623,
      "Ġdirector": 5624,
      "Ġdivid": 5625,
      "Ġnecessarily": 5626,
      "olg": 5627,
      "folg": 5628,
      "iences": 5629,
      "Ġrout": 5630,
      "ĠCr": 5631,
      "Ġseek": 5632,
      "Ġoccas": 5633,
      "Ġchief": 5634,
      "Ġbrief": 5635,
      "lara": 5636,
      "Ġrob": 5637,
      "elb": 5638,
      "elbst": 5639,
      "Ġselbst": 5640,
      "elik": 5641,
      "Ġprinciples": 5642,
      "ĠIndustr": 5643,
      "ientos": 5644,
      "é¢ĳ": 5645,
      "è§Ĩé¢ĳ": 5646,
      "æİĴ": 5647,
      "oj": 5648,
      "oloj": 5649,
      "do": 5650,
      "ĠUnternehmen": 5651,
      "Ġejemplo": 5652,
      "Ã³lo": 5653,
      "Ġpermit": 5654,
      "Ġspend": 5655,
      "Ġparticipants": 5656,
      "ĠVal": 5657,
      "Ġmuj": 5658,
      "Ġterc": 5659,
      "oviet": 5660,
      "Ġexplor": 5661,
      "Ġcenturies": 5662,
      "Ġparte": 5663,
      "ä¹ł": 5664,
      "Ġrise": 5665,
      "ĠGeorg": 5666,
      "aria": 5667,
      "ĠCatholic": 5668,
      "Ġoperations": 5669,
      "Ġstories": 5670,
      "Ġpotentially": 5671,
      "Ġeveryone": 5672,
      "Ġalone": 5673,
      "erk": 5674,
      "erkez": 5675,
      "aÅŁtÄ±r": 5676,
      "éĻ¤": 5677,
      "Ġassessment": 5678,
      "Ġharvest": 5679,
      "Ġprofessor": 5680,
      "Ã¤tz": 5681,
      "zeug": 5682,
      "Ġseems": 5683,
      "imens": 5684,
      "heim": 5685,
      "ca": 5686,
      "era": 5687,
      "Ġmanera": 5688,
      "ç»ıæµ": 5689,
      "ç»ıæµİ": 5690,
      "iveness": 5691,
      "ĠMart": 5692,
      "çĶŁæ´»": 5693,
      "aron": 5694,
      "çİ©": 5695,
      "Ġetwas": 5696,
      "Ġattrib": 5697,
      "ĠAccording": 5698,
      "Ġwestern": 5699,
      "Ġupper": 5700,
      "ĠLouis": 5701,
      "Ġvisible": 5702,
      "Ġtechnical": 5703,
      "Ġsiz": 5704,
      "ously": 5705,
      "Ġlived": 5706,
      "Ġbaby": 5707,
      "ĠIhn": 5708,
      "Ġtrabajo": 5709,
      "Ġunc": 5710,
      "å£°": 5711,
      "Ġkidney": 5712,
      "Ġkids": 5713,
      "Ġequival": 5714,
      "Ã¼tÃ¼n": 5715,
      "Ġrich": 5716,
      "Ġworth": 5717,
      "Ġeigen": 5718,
      "å·ŀ": 5719,
      "Ġtransm": 5720,
      "Ġadm": 5721,
      "Ġadjust": 5722,
      "Ġnorm": 5723,
      "ĠmÃ¶glich": 5724,
      "Ġnames": 5725,
      "Ġnamed": 5726,
      "æĤ¨": 5727,
      "Ġtele": 5728,
      "Ġfear": 5729,
      "èĩ´": 5730,
      "onder": 5731,
      "Ġwonder": 5732,
      "åıį": 5733,
      "Ġgleich": 5734,
      "ĠgÃ¶rÃ¼n": 5735,
      "ĠolmasÄ±": 5736,
      "Ġvegetables": 5737,
      "Ġplaced": 5738,
      "åĮĹäº¬": 5739,
      "Ġcharge": 5740,
      "ĠaÃ±o": 5741,
      "Ġestos": 5742,
      "æŀĹ": 5743,
      "ughter": 5744,
      "Ġlaboratory": 5745,
      "ĠSince": 5746,
      "Ġkein": 5747,
      "Ġkaz": 5748,
      "Ġcontribute": 5749,
      "iyoruz": 5750,
      "iÄŁimiz": 5751,
      "ese": 5752,
      "These": 5753,
      "ĠJapanese": 5754,
      "çļ": 5755,
      "Ġcontinued": 5756,
      "Ġphysic": 5757,
      "with": 5758,
      "mith": 5759,
      "aith": 5760,
      "Ġfaith": 5761,
      "ĠMenschen": 5762,
      "Ġpueden": 5763,
      "è®®": 5764,
      "halt": 5765,
      "Ġauthority": 5766,
      "åĨ³": 5767,
      "åĨĽ": 5768,
      "ĠdÃ¶nem": 5769,
      "Ġextract": 5770,
      "Ġexam": 5771,
      "Ġremark": 5772,
      "gesch": 5773,
      "Ġinclus": 5774,
      "Ġkonus": 5775,
      "Ġinnov": 5776,
      "ĠgÃ¼Ã§": 5777,
      "ĠLabor": 5778,
      "Ġdabei": 5779,
      "uÅŁtur": 5780,
      "Ġtra": 5781,
      "Ġtraffic": 5782,
      "time": 5783,
      "aje": 5784,
      "ode": 5785,
      "ĠTod": 5786,
      "Ġsoon": 5787,
      "Ġleaves": 5788,
      "çĻ¼": 5789,
      "æŀĦ": 5790,
      "ĠStudents": 5791,
      "olved": 5792,
      "è¡¨ç¤º": 5793,
      "Ġyourself": 5794,
      "rolog": 5795,
      "ogle": 5796,
      "oogle": 5797,
      "ĠGoogle": 5798,
      "co": 5799,
      "ato": 5800,
      "To": 5801,
      "Ġpromote": 5802,
      "ĠhabÃŃa": 5803,
      "ierte": 5804,
      "Ġcommonly": 5805,
      "Ġerr": 5806,
      "Ġcompr": 5807,
      "ĠChildr": 5808,
      "ĠÃ¼lk": 5809,
      "198": 5810,
      "78": 5811,
      "lend": 5812,
      "çģ«": 5813,
      "ancia": 5814,
      "Ġelev": 5815,
      "Ġexpected": 5816,
      "mitted": 5817,
      "Ġcounter": 5818,
      "çª": 5819,
      "Ġmachine": 5820,
      "Ã³mo": 5821,
      "Ġra": 5822,
      "Ġraised": 5823,
      "otos": 5824,
      "riage": 5825,
      "Ġmarriage": 5826,
      "Ġencon": 5827,
      "Ġencontr": 5828,
      "Ġencu": 5829,
      "åħļ": 5830,
      "åįļ": 5831,
      "åħĭ": 5832,
      "Ġcos": 5833,
      "Ġprocedure": 5834,
      "Ġprocedures": 5835,
      "'ve": 5836,
      "ĠSmith": 5837,
      "ĠReport": 5838,
      "Ġincreases": 5839,
      "lÄ±ÄŁÄ±": 5840,
      "ĠHand": 5841,
      "Ġeating": 5842,
      "ĠÃ§Ã¶z": 5843,
      "æİ§": 5844,
      "ĠInc": 5845,
      "éĿŀå¸¸": 5846,
      "Ġlibrary": 5847,
      "æīĢä»¥": 5848,
      "Ġletter": 5849,
      "Ġverschied": 5850,
      "ä¿®": 5851,
      "ç½®": 5852,
      "Ġsuc": 5853,
      "Ġ500": 5854,
      "field": 5855,
      "è¾¹": 5856,
      "Ġstrategies": 5857,
      "ardÄ±m": 5858,
      "Ġfluid": 5859,
      "âĤ¬": 5860,
      "ÃŃan": 5861,
      "Ġhan": 5862,
      "éļ¾": 5863,
      "Ġinsan": 5864,
      "aces": 5865,
      "ĠHar": 5866,
      "Ġmayor": 5867,
      "Ġopin": 5868,
      "Ġoptions": 5869,
      "åıĤ": 5870,
      "Ġclosely": 5871,
      "azla": 5872,
      "Ġfazla": 5873,
      "Ġhabe": 5874,
      "amous": 5875,
      "Ġfamous": 5876,
      "Ġcab": 5877,
      "acific": 5878,
      "ĠPacific": 5879,
      "ç¥¨": 5880,
      "Ġteaching": 5881,
      "ĠTherefore": 5882,
      "åŃ©": 5883,
      "åŃĹ": 5884,
      "unktion": 5885,
      "ĠQual": 5886,
      "ĠiliÅŁk": 5887,
      "Ġmouth": 5888,
      "Amer": 5889,
      "Americ": 5890,
      "PA": 5891,
      "Ġrules": 5892,
      "è¯·": 5893,
      "è¯ķ": 5894,
      "Ã¼nde": 5895,
      "ueb": 5896,
      "Ġverb": 5897,
      "All": 5898,
      "traÃŁ": 5899,
      "ographic": 5900,
      "ĠUr": 5901,
      "è·Ł": 5902,
      "ype": 5903,
      "lands": 5904,
      "è½½": 5905,
      "Ġintens": 5906,
      "Ġbeautif": 5907,
      "Ġexistence": 5908,
      "Ġotherwise": 5909,
      "ileri": 5910,
      "æ´»åĬ¨": 5911,
      "ĠSciences": 5912,
      "ĠScient": 5913,
      "ĠFound": 5914,
      "ĠFoundation": 5915,
      "Ġcompound": 5916,
      "Ġbound": 5917,
      "Ġparts": 5918,
      "ys": 5919,
      "ĠPhys": 5920,
      "ks": 5921,
      "Ġbooks": 5922,
      "ecret": 5923,
      "Ġ1998": 5924,
      "ĠsÃ³lo": 5925,
      "Ġsquare": 5926,
      "Ġsab": 5927,
      "Ġsac": 5928,
      "otion": 5929,
      "Ġemotion": 5930,
      "ole": 5931,
      "Ġmomento": 5932,
      "board": 5933,
      "Ġround": 5934,
      "Ġproces": 5935,
      "Ġ<": 5936,
      "ĠÃĸz": 5937,
      "Ġideal": 5938,
      "ayan": 5939,
      "ayÄ±n": 5940,
      "ĠÃ¶ÄŁrenc": 5941,
      "Ġdownload": 5942,
      "Ġcommitte": 5943,
      "Ġnative": 5944,
      "Ġresource": 5945,
      "å°Ķ": 5946,
      "ewh": 5947,
      "omewh": 5948,
      "éĿĴ": 5949,
      "Ġunsere": 5950,
      "ereits": 5951,
      "Ġwealth": 5952,
      "ĠÃ¼zere": 5953,
      "é¾": 5954,
      "ĠtaÅŁ": 5955,
      "ĠEsp": 5956,
      "ĠEspaÃ±": 5957,
      "ĠdÃ¼n": 5958,
      "Ġexternal": 5959,
      "Ġfinally": 5960,
      "ycl": 5961,
      "yclop": 5962,
      "Ġsample": 5963,
      "iversity": 5964,
      "ogen": 5965,
      "Ġsurvival": 5966,
      "Ġdiscip": 5967,
      "Ġtable": 5968,
      "reib": 5969,
      "Ġfollowed": 5970,
      "lerde": 5971,
      "Ġgreenhouse": 5972,
      "ĠdÃ¼zen": 5973,
      "Ġgiving": 5974,
      "ĠReview": 5975,
      "Ġinterview": 5976,
      "Ġexchange": 5977,
      "Ġimpos": 5978,
      "ĠLos": 5979,
      "è¨Ģ": 5980,
      "å¾·": 5981,
      "Ġtodas": 5982,
      "Ġbereits": 5983,
      "Ġteacher": 5984,
      "Ġresolution": 5985,
      "Ġmujer": 5986,
      "ĠJews": 5987,
      "ots": 5988,
      "Ġgot": 5989,
      "ĠgÃ¼z": 5990,
      "uesto": 5991,
      "ĠdÃŃas": 5992,
      "any": 5993,
      "ĠCompany": 5994,
      "ĠSan": 5995,
      "Ġswitch": 5996,
      "Ġmillones": 5997,
      "Ã©c": 5998,
      "col": 5999,
      "Ġwrite": 6000,
      "ĠdoÄŁ": 6001,
      "Ã¼ÄŁ": 6002,
      "Ġakt": 6003,
      "ĠeÄŁit": 6004,
      "æĬ¤": 6005,
      "é¤": 6006,
      "ç¾¤": 6007,
      "Ġfundamental": 6008,
      "ibil": 6009,
      "Ġbiet": 6010,
      "Ġmeasur": 6011,
      "Ġclin": 6012,
      "Ġclinical": 6013,
      "uerdo": 6014,
      "Ġdir": 6015,
      "akes": 6016,
      "Ġbak": 6017,
      "Ġbattle": 6018,
      "Ġbo": 6019,
      "Ġbit": 6020,
      "Ġgest": 6021,
      "Ġgard": 6022,
      "Ġges": 6023,
      "Ġgather": 6024,
      "Ġcities": 6025,
      "Ġcat": 6026,
      "Ġsev": 6027,
      "ĠDer": 6028,
      "IL": 6029,
      "ĠBel": 6030,
      "Ġforest": 6031,
      "Ġpurpos": 6032,
      "Ġbirds": 6033,
      "larÄ±nda": 6034,
      "ĠhakkÄ±nda": 6035,
      "Ġseas": 6036,
      "Ġseason": 6037,
      "Ġproviding": 6038,
      "wide": 6039,
      "ĠPsych": 6040,
      "75": 6041,
      "Ġflight": 6042,
      "organ": 6043,
      "Ġeastern": 6044,
      "Ġeasier": 6045,
      "use": 6046,
      "Ġbus": 6047,
      "æĺ¾": 6048,
      "Ġreaction": 6049,
      "Ġthick": 6050,
      "Ac": 6051,
      "Ġtroop": 6052,
      "oper": 6053,
      "Ġcooper": 6054,
      "ĠgiriÅŁ": 6055,
      "ternacional": 6056,
      "Ġabsor": 6057,
      "othe": 6058,
      "Ġhypothe": 6059,
      "500": 6060,
      "Ġvictim": 6061,
      "Ġequal": 6062,
      "èģĮ": 6063,
      "Ġrelevant": 6064,
      "Ġmagnetic": 6065,
      "yond": 6066,
      "Ġbeyond": 6067,
      "Ġren": 6068,
      "Ġrenew": 6069,
      "ben": 6070,
      "omen": 6071,
      "Ġsolid": 6072,
      "Ġsolo": 6073,
      "ç±³": 6074,
      "Ġservicios": 6075,
      "ĠRich": 6076,
      "ĠRichard": 6077,
      "istry": 6078,
      "Ġdiscovered": 6079,
      "ĠbaÅŁk": 6080,
      "ologÃŃa": 6081,
      "ĠeÄŁitim": 6082,
      "obil": 6083,
      "Ġguard": 6084,
      "å¼Ģå§ĭ": 6085,
      "æĢİ": 6086,
      "æĢģ": 6087,
      "æŀģ": 6088,
      "Ġpractical": 6089,
      "Ġ*": 6090,
      "ç¤¾ä¼ļ": 6091,
      "åĽ½å®¶": 6092,
      "å¹³åı°": 6093,
      "Ġvaccine": 6094,
      "trieb": 6095,
      "Ġchapter": 6096,
      "ĠEnergy": 6097,
      "Ġmillions": 6098,
      "è©": 6099,
      "jury": 6100,
      "ĠRevolution": 6101,
      "born": 6102,
      "ç»Ń": 6103,
      "blem": 6104,
      "ĠProblem": 6105,
      "OL": 6106,
      "åĬ¿": 6107,
      "fl": 6108,
      "liÄŁi": 6109,
      "æĻ¯": 6110,
      "Ġstage": 6111,
      "Ġgoals": 6112,
      "Ġ>": 6113,
      "Ġtypical": 6114,
      "Ġuygun": 6115,
      "ĠniÃ±os": 6116,
      "Ġstarted": 6117,
      "ĠIh": 6118,
      "ĠIhre": 6119,
      "Ġletters": 6120,
      "Ġpropor": 6121,
      "Ã¼yor": 6122,
      "Ġign": 6123,
      "Ġplease": 6124,
      "åĨµ": 6125,
      "æĥħåĨµ": 6126,
      "ventional": 6127,
      "Ġtroub": 6128,
      "Ġtub": 6129,
      "åĽ½éĻħ": 6130,
      "ague": 6131,
      "iece": 6132,
      "Ġpiece": 6133,
      "adece": 6134,
      "za": 6135,
      "iva": 6136,
      "åĴ": 6137,
      "å©": 6138,
      "å¡": 6139,
      "æĿ¡": 6140,
      "è±¡": 6141,
      "æ»¡": 6142,
      "ĠEc": 6143,
      "ĠEconom": 6144,
      "Ġemph": 6145,
      "Ġemphas": 6146,
      "Ġbehavi": 6147,
      "Ġknew": 6148,
      "æĭī": 6149,
      "ĠÃ§alÄ±ÅŁmal": 6150,
      "å®īåħ¨": 6151,
      "Ġclearly": 6152,
      "Ġclick": 6153,
      "Ġstorage": 6154,
      "lerinin": 6155,
      "Ġera": 6156,
      "ĠGrund": 6157,
      "Ġstorm": 6158,
      "dr": 6159,
      "abr": 6160,
      "åĳ½": 6161,
      "ĠCarol": 6162,
      "ĠCarolina": 6163,
      "çĬ": 6164,
      "ç¢": 6165,
      "ĠChildren": 6166,
      "Ġllam": 6167,
      "ĠkatÄ±l": 6168,
      "Ġplastic": 6169,
      "ĠgÃ¶rÃ¼ÅŁ": 6170,
      "Ġslight": 6171,
      "Ġtwent": 6172,
      "å¾®": 6173,
      "ç§°": 6174,
      "æ²¹": 6175,
      "Ġtransmission": 6176,
      "Ġapproved": 6177,
      "Ġpoc": 6178,
      "Ġpoco": 6179,
      "ĠVers": 6180,
      "Ġscr": 6181,
      "ĠCentr": 6182,
      "ĠCentral": 6183,
      "gest": 6184,
      "Ġdomest": 6185,
      "opyright": 6186,
      "Ġgar": 6187,
      "Ġ1980": 6188,
      "33": 6189,
      "Ġcircum": 6190,
      "Ġcircumstances": 6191,
      "ĠValley": 6192,
      "Ġhuge": 6193,
      "Ġveh": 6194,
      "Ġvehic": 6195,
      "ĠHum": 6196,
      "ĠHuman": 6197,
      "ç³»ç»Ł": 6198,
      "ĠAv": 6199,
      "Ġvill": 6200,
      "Ġfill": 6201,
      "Ġdich": 6202,
      "Ġmich": 6203,
      "Ġprincipal": 6204,
      "åĸľ": 6205,
      "Ġextent": 6206,
      "erek": 6207,
      "Ġdestek": 6208,
      "laub": 6209,
      "Ġdamit": 6210,
      "Ġolduk": 6211,
      "é¡¹çĽ®": 6212,
      "Ġarrived": 6213,
      "Ġheavy": 6214,
      "Ġdry": 6215,
      "yle": 6216,
      "Ġstyle": 6217,
      "Ġstay": 6218,
      "Ġdisapp": 6219,
      "Ġdepartment": 6220,
      "èİ·": 6221,
      "ahmen": 6222,
      "é¢Ħ": 6223,
      "Ġ1997": 6224,
      "idas": 6225,
      "ination": 6226,
      "Ġhazard": 6227,
      "Ġfix": 6228,
      "ĠAccess": 6229,
      "ä¼Ĺ": 6230,
      "Ġmilk": 6231,
      "Ġencoun": 6232,
      "Ġpreviously": 6233,
      "Ġkap": 6234,
      "Ġasked": 6235,
      "Ġprofes": 6236,
      "Ġprofesional": 6237,
      "ĠPer": 6238,
      "Ã¶yle": 6239,
      "Ġadults": 6240,
      "Ġcycle": 6241,
      "uv": 6242,
      "Ġexactly": 6243,
      "ivos": 6244,
      "Ġgoal": 6245,
      "deki": 6246,
      "iverse": 6247,
      "Ġuniverse": 6248,
      "Ġyapt": 6249,
      "ĠUhr": 6250,
      "ĠaÃ§Ä±klam": 6251,
      "come": 6252,
      "Some": 6253,
      "Ġdomestic": 6254,
      "urricul": 6255,
      "çĮ": 6256,
      "çº¦": 6257,
      "åŁŁ": 6258,
      "ucht": 6259,
      "Ġgett": 6260,
      "Ġgetting": 6261,
      "ĠArmy": 6262,
      "ciones": 6263,
      "ĠPlan": 6264,
      "Ġdollar": 6265,
      "iden": 6266,
      "ING": 6267,
      "Ġtener": 6268,
      "Ġspiritual": 6269,
      "alarÄ±": 6270,
      "Ġanti": 6271,
      "Ġlooking": 6272,
      "Ġoption": 6273,
      "ption": 6274,
      "Ġconsumption": 6275,
      "Ġmotion": 6276,
      "Ġdespite": 6277,
      "éģİ": 6278,
      "Ġhatte": 6279,
      "Ġsurgery": 6280,
      "éĩĩ": 6281,
      "Ad": 6282,
      "Ġrestrict": 6283,
      "ĠSoviet": 6284,
      "åħį": 6285,
      "Ġtercih": 6286,
      "Ġmiss": 6287,
      "ĠMiss": 6288,
      "fortun": 6289,
      "fortunately": 6290,
      "Ġcomfort": 6291,
      "ĠDies": 6292,
      "ĠDem": 6293,
      "ĠDemocr": 6294,
      "Ġsomewh": 6295,
      "ĠsÄ±r": 6296,
      "Ġcombination": 6297,
      "Ġkonusunda": 6298,
      "Ġ..": 6299,
      "Ġ...": 6300,
      "bilir": 6301,
      "ĠLord": 6302,
      "Ġphase": 6303,
      "anda": 6304,
      "lectual": 6305,
      "Ġdesarrollo": 6306,
      "ĠBy": 6307,
      "ĠBar": 6308,
      "lig": 6309,
      "Ġoblig": 6310,
      "Ġbaj": 6311,
      "lichkeit": 6312,
      "Ġfactor": 6313,
      "assen": 6314,
      "Ġlassen": 6315,
      "tocol": 6316,
      "Ġiz": 6317,
      "eller": 6318,
      "icher": 6319,
      "Ġleading": 6320,
      "Ġzwei": 6321,
      "di": 6322,
      "ĠJah": 6323,
      "zeich": 6324,
      "Ġtemperatures": 6325,
      "å¾Īå¤ļ": 6326,
      "äºļ": 6327,
      "part": 6328,
      "osystem": 6329,
      "Ġecosystem": 6330,
      "åįĩ": 6331,
      "åį³": 6332,
      "Ġsigu": 6333,
      "Ġolder": 6334,
      "ander": 6335,
      "Ġpoder": 6336,
      "wood": 6337,
      "Ġdatos": 6338,
      "ĠNow": 6339,
      "DA": 6340,
      "ĠRussian": 6341,
      "trag": 6342,
      "ago": 6343,
      "Äŀ": 6344,
      "earning": 6345,
      "eter": 6346,
      "Ġhydrogen": 6347,
      "Ġgeneration": 6348,
      "udget": 6349,
      "ĠâĤ¬": 6350,
      "ĠâĨ": 6351,
      "ENT": 6352,
      "Ġexpensive": 6353,
      "Ġmarried": 6354,
      "ç½ĳç«Ļ": 6355,
      "las": 6356,
      "arian": 6357,
      "éħĴ": 6358,
      "ĠMit": 6359,
      "å¾Ģ": 6360,
      "ibilidad": 6361,
      "Ġquier": 6362,
      "ieron": 6363,
      "Ġdistinct": 6364,
      "Ġcam": 6365,
      "Ġtam": 6366,
      "Ġtamam": 6367,
      "Ġerst": 6368,
      "Ġersten": 6369,
      "Ġreduction": 6370,
      "Ġweak": 6371,
      "udad": 6372,
      "iudad": 6373,
      "Ġciudad": 6374,
      "Ġtool": 6375,
      "Ġtools": 6376,
      "Ġyol": 6377,
      "ĠyÃ¼ks": 6378,
      "ĠyÃ¼ksek": 6379,
      "ĠIhnen": 6380,
      "Ġnormally": 6381,
      "wend": 6382,
      "Ġelectronic": 6383,
      "Ġelectrical": 6384,
      "ç¾İåĽ½": 6385,
      "å¤į": 6386,
      "cho": 6387,
      "Ġhecho": 6388,
      "ommun": 6389,
      "Ġwife": 6390,
      "ĠLife": 6391,
      "uda": 6392,
      "Ġful": 6393,
      "Ġfully": 6394,
      "æ¥Ń": 6395,
      "ht": 6396,
      "htm": 6397,
      "Ġexception": 6398,
      "Ġintell": 6399,
      "Ġintellig": 6400,
      "Ġang": 6401,
      "Ã¤ng": 6402,
      "ĠÃ§eÅŁ": 6403,
      "è´£": 6404,
      "Ġjedoch": 6405,
      "Ġpolice": 6406,
      "Ġwel": 6407,
      "Ġfacilit": 6408,
      "ĠRight": 6409,
      "Ġaut": 6410,
      "Ġsadece": 6411,
      "Acc": 6412,
      "Accord": 6413,
      "Ġsatell": 6414,
      "Ġsatis": 6415,
      "Ġsatisf": 6416,
      "obierno": 6417,
      "Ä±ÄŁÄ±mÄ±z": 6418,
      "ĠÄ°ÅŁ": 6419,
      "ault": 6420,
      "Ġcreation": 6421,
      "However": 6422,
      "ĠAlex": 6423,
      "æĹħ": 6424,
      "æĹ©": 6425,
      "Ġ35": 6426,
      "rastructure": 6427,
      "Ġdisorders": 6428,
      "Ġdisorder": 6429,
      "ĠBer": 6430,
      "ĠBerlin": 6431,
      "ĠBank": 6432,
      "Ġcaso": 6433,
      "Ġcasino": 6434,
      "Ġbeautiful": 6435,
      "Ġsignificantly": 6436,
      "å¤±": 6437,
      "Ġoriginally": 6438,
      "istrict": 6439,
      "Ġregistr": 6440,
      "Ġfabr": 6441,
      "Ġexperiencia": 6442,
      "ĠOnce": 6443,
      "Ġsucce": 6444,
      "halb": 6445,
      "Ġoperating": 6446,
      "Ġworldwide": 6447,
      "Ġstock": 6448,
      "Ġprohib": 6449,
      "Ġgames": 6450,
      "izaciÃ³n": 6451,
      "Ġsegu": 6452,
      "Ġeat": 6453,
      "ĠThus": 6454,
      "sten": 6455,
      "ymph": 6456,
      "iyorum": 6457,
      "éļı": 6458,
      "Ġbes": 6459,
      "Ġwelche": 6460,
      "Ġestimates": 6461,
      "Ġinterior": 6462,
      "oxide": 6463,
      "Ġbox": 6464,
      "ĠDo": 6465,
      "ä»¥åıĬ": 6466,
      "ebilirsiniz": 6467,
      "Ä±rÄ±m": 6468,
      "ĠeÅŁ": 6469,
      "Ġiki": 6470,
      "åĢĳ": 6471,
      "urriculum": 6472,
      "Ġposible": 6473,
      "ĠItal": 6474,
      "å»ºè®¾": 6475,
      "Ã¼ber": 6476,
      "Ã¼mÃ¼z": 6477,
      "ĠAgency": 6478,
      "isto": 6479,
      "Ġmis": 6480,
      "ising": 6481,
      "tood": 6482,
      "Ġunderstood": 6483,
      "ody": 6484,
      "Ġesto": 6485,
      "38": 6486,
      "Ġwave": 6487,
      "å®ĺ": 6488,
      "Ġspok": 6489,
      "Ġdrugs": 6490,
      "Ġinvolving": 6491,
      "Ġgarden": 6492,
      "ĠsegÃºn": 6493,
      "estival": 6494,
      "ourney": 6495,
      "ora": 6496,
      "hora": 6497,
      "ĠPort": 6498,
      "Ã¤s": 6499,
      "ĠschÃ¶n": 6500,
      "Ġoyun": 6501,
      "Ġmenos": 6502,
      "ĠJos": 6503,
      "ĠJoseph": 6504,
      "Ġhighest": 6505,
      "çº¢": 6506,
      "Ġhappens": 6507,
      "ius": 6508,
      "Ġchanged": 6509,
      "icas": 6510,
      "asc": 6511,
      "ĠRead": 6512,
      "Ġzamanda": 6513,
      "ondern": 6514,
      "Ġsondern": 6515,
      "ĠPeter": 6516,
      "è®¾è®¡": 6517,
      "Ġencuent": 6518,
      "alog": 6519,
      "ki": 6520,
      "Ph": 6521,
      "èĮĥ": 6522,
      "ĠTest": 6523,
      "uest": 6524,
      "ĠÃ¼zerinde": 6525,
      "Ġdescription": 6526,
      "Ġproportion": 6527,
      "48": 6528,
      "éĶĢ": 6529,
      "Ġmanufactur": 6530,
      "æ¿": 6531,
      "Ġstandards": 6532,
      "Ġstatement": 6533,
      "åĭķ": 6534,
      "æ©": 6535,
      "Ġmanner": 6536,
      "alÄ±": 6537,
      "azÄ±": 6538,
      "ç¦ı": 6539,
      "ç¦»": 6540,
      "Ġtipo": 6541,
      "Ġdig": 6542,
      "ĠdÄ±ÅŁ": 6543,
      "ĠExp": 6544,
      "Other": 6545,
      "ĠyardÄ±m": 6546,
      "Ġtit": 6547,
      "ç¬¬ä¸Ģ": 6548,
      "Ġcomment": 6549,
      "ĠFahr": 6550,
      "ĠFacebook": 6551,
      "nis": 6552,
      "Ġzusammen": 6553,
      "iber": 6554,
      "Ġindex": 6555,
      "Ġtienen": 6556,
      "Ġtoo": 6557,
      "Ġmad": 6558,
      "bre": 6559,
      "break": 6560,
      "ĠJahre": 6561,
      "AP": 6562,
      "ĠyaklaÅŁ": 6563,
      "ĠpaylaÅŁ": 6564,
      "Ġoverall": 6565,
      "Ġfat": 6566,
      "é¾Ļ": 6567,
      "Ġ1996": 6568,
      "uits": 6569,
      "ĠcÃ³mo": 6570,
      "ĠAustralian": 6571,
      "Ġagency": 6572,
      "Ġsequence": 6573,
      "Ġkurul": 6574,
      "OT": 6575,
      "Ġtheory": 6576,
      "Ġterritory": 6577,
      "ĠTeach": 6578,
      "Ġminor": 6579,
      "nowledge": 6580,
      "ĠScott": 6581,
      "Ġrecognize": 6582,
      "esinde": 6583,
      "ĠLaboratory": 6584,
      "Ġpoints": 6585,
      "è¿ŀ": 6586,
      "Ġreality": 6587,
      "ĠÃ¶zel": 6588,
      "Ġregister": 6589,
      "illa": 6590,
      "Ġbroken": 6591,
      "Ġneither": 6592,
      "Ġphotos": 6593,
      "Ġinfrastructure": 6594,
      "Ġcaptur": 6595,
      "Ġspring": 6596,
      "Ġdynam": 6597,
      "Ġdin": 6598,
      "Ġhighlight": 6599,
      "Ġweeks": 6600,
      "icherheit": 6601,
      "ĠSw": 6602,
      "ĠlÃŃ": 6603,
      "liament": 6604,
      "Ã¤hrend": 6605,
      "Ġchoices": 6606,
      "Ġimproving": 6607,
      "iodiversity": 6608,
      "Ġsamples": 6609,
      "Ġbin": 6610,
      "Ġdispos": 6611,
      "Ġleaders": 6612,
      "Ġleadership": 6613,
      "lÃ¼ÄŁ": 6614,
      "ÄŁret": 6615,
      "Ġ1995": 6616,
      "Ġflex": 6617,
      "itness": 6618,
      "Ġcopyright": 6619,
      "Ġadequ": 6620,
      "ĠTeil": 6621,
      "Ġlaws": 6622,
      "anish": 6623,
      "ĠSpanish": 6624,
      "Ġcontains": 6625,
      "vil": 6626,
      "ville": 6627,
      "Ġraise": 6628,
      "Ġ1970": 6629,
      "éĴ±": 6630,
      "Ġdate": 6631,
      "ectos": 6632,
      "Ġproductos": 6633,
      "Ġerk": 6634,
      "çĽ®åīį": 6635,
      "ĠMethod": 6636,
      "Ġslightly": 6637,
      "Ã¤ÃŁ": 6638,
      "è¿Ļæł·": 6639,
      "èŀ": 6640,
      "èŀį": 6641,
      "Ġdioxide": 6642,
      "ĠgÃ¶rev": 6643,
      "çŃĸ": 6644,
      "ĠSpr": 6645,
      "æķ°æį®": 6646,
      "Ġ300": 6647,
      "Ġgeht": 6648,
      "Ġdisappear": 6649,
      "Ġservicio": 6650,
      "ĠkadÄ±n": 6651,
      "Ġdaughter": 6652,
      "ano": 6653,
      "Many": 6654,
      "Ġay": 6655,
      "Ġayud": 6656,
      "Ġoxy": 6657,
      "Ġoxygen": 6658,
      "Ġmism": 6659,
      "Ġmes": 6660,
      "Ġmag": 6661,
      "Ġmatch": 6662,
      "Ġmid": 6663,
      "Ġmunicip": 6664,
      "iatr": 6665,
      "Ġdidn": 6666,
      "ĠBir": 6667,
      "Ġgrass": 6668,
      "Ġapart": 6669,
      "ä¾Ŀ": 6670,
      "Ġinflam": 6671,
      "Ġalgo": 6672,
      "Ġetmek": 6673,
      "éĩįè¦ģ": 6674,
      "Ġappar": 6675,
      "æī¾": 6676,
      "ette": 6677,
      "ĠbaÅŁlad": 6678,
      "Ġvent": 6679,
      "Ġnaturally": 6680,
      "ä¾ĭ": 6681,
      "Ġrecib": 6682,
      "ä¹°": 6683,
      "Ġforma": 6684,
      "ĠTemp": 6685,
      "æĶ¿åº": 6686,
      "æĶ¿åºľ": 6687,
      "ĠEntwick": 6688,
      "mann": 6689,
      "ĠSecret": 6690,
      "Ġconstitution": 6691,
      "aul": 6692,
      "ĠPaul": 6693,
      "åºķ": 6694,
      "ãĢĲ": 6695,
      "ãĢĳ": 6696,
      "Ġded": 6697,
      "Ġdedic": 6698,
      "âĢ¦âĢ¦": 6699,
      "æ±Ł": 6700,
      "Ġprovinc": 6701,
      "ĠWild": 6702,
      "ĠWildlife": 6703,
      "ĠBild": 6704,
      "è§Ĵ": 6705,
      "çĨ": 6706,
      "eli": 6707,
      "elle": 6708,
      "Ġyield": 6709,
      "æĬķèµĦ": 6710,
      "ĠEngine": 6711,
      "Ġextinc": 6712,
      "ĠAir": 6713,
      "Ġtrying": 6714,
      "Ġchance": 6715,
      "Ġdoctors": 6716,
      "umn": 6717,
      "Ġcolumn": 6718,
      "ĠSee": 6719,
      "Ġtreatments": 6720,
      "Ġcomponent": 6721,
      "Ġbuen": 6722,
      "Ġsmaller": 6723,
      "Ġintent": 6724,
      "Ġencourage": 6725,
      "amework": 6726,
      "Ġorganic": 6727,
      "åĶ®": 6728,
      "Ġdecrease": 6729,
      "larÄ±na": 6730,
      "ĠdeÄŁerlend": 6731,
      "Ġsupplement": 6732,
      "Ġwr": 6733,
      "Ġwrong": 6734,
      "Ġflo": 6735,
      "Ġbright": 6736,
      "é»ĳ": 6737,
      "é»Ħ": 6738,
      "Ġeast": 6739,
      "Ġframework": 6740,
      "Ġcamera": 6741,
      "ç¿": 6742,
      "ST": 6743,
      "åĪĻ": 6744,
      "Ġdecline": 6745,
      "ĠbÃ¶lÃ¼m": 6746,
      "more": 6747,
      "med": 6748,
      "Ġunits": 6749,
      "ä»½": 6750,
      "éĻ©": 6751,
      "itation": 6752,
      "ĠCanad": 6753,
      "ĠCanadian": 6754,
      "ç´ł": 6755,
      "Ġbulund": 6756,
      "Ġmale": 6757,
      "ĠmÃ¶ch": 6758,
      "Ġadvance": 6759,
      "Ġadvice": 6760,
      "Ġadvoc": 6761,
      "ĠAsia": 6762,
      "Ġfarmers": 6763,
      "entlich": 6764,
      "rupt": 6765,
      "Ġjo": 6766,
      "Ġjoin": 6767,
      "ĠProduc": 6768,
      "æĻº": 6769,
      "tico": 6770,
      "ĠMont": 6771,
      "wort": 6772,
      "Ġreduced": 6773,
      "Ġcontrolled": 6774,
      "stÃ¼tz": 6775,
      "å°į": 6776,
      "Ġremains": 6777,
      "iform": 6778,
      "æĸ¹éĿ¢": 6779,
      "hensive": 6780,
      "rehensive": 6781,
      "Ġcomprehensive": 6782,
      "ictionary": 6783,
      "Ġfuncion": 6784,
      "ession": 6785,
      "å¾Į": 6786,
      "ĠWomen": 6787,
      "Ġobjects": 6788,
      "åģ¥": 6789,
      "Ġbomb": 6790,
      "åĳ³": 6791,
      "Ġvillage": 6792,
      "Ġessentially": 6793,
      "ronic": 6794,
      "Ġchronic": 6795,
      "åŃ¸": 6796,
      "Ġhaber": 6797,
      "lung": 6798,
      "Ġoperation": 6799,
      "Ġassistance": 6800,
      "lere": 6801,
      "Ġ31": 6802,
      "Ġled": 6803,
      "Ġles": 6804,
      "ĠJes": 6805,
      "ĠJesus": 6806,
      "Ġprocesses": 6807,
      "uÃ§": 6808,
      "ĠIndians": 6809,
      "Ġharek": 6810,
      "rosoft": 6811,
      "No": 6812,
      "æĩ": 6813,
      "ĠMiddle": 6814,
      "Ġpoverty": 6815,
      "Ġspecifically": 6816,
      "Ġsido": 6817,
      "Ġsend": 6818,
      "ĠToday": 6819,
      "stein": 6820,
      "min": 6821,
      "Ġauthorities": 6822,
      "Ġcomparison": 6823,
      "Ġpurposes": 6824,
      "è®¸": 6825,
      "Ġmanufacturing": 6826,
      "Ġlands": 6827,
      "Ġkazan": 6828,
      "ises": 6829,
      "Ġdrive": 6830,
      "Ġextensive": 6831,
      "Ġlandsc": 6832,
      "Ġlandscape": 6833,
      "IR": 6834,
      "Tr": 6835,
      "Pr": 6836,
      "Ġrace": 6837,
      "Ġrare": 6838,
      "Ġrural": 6839,
      "Ġmuscle": 6840,
      "ĠFood": 6841,
      "ĠgÃ¼zel": 6842,
      "Ġembar": 6843,
      "Ġembargo": 6844,
      "Ġhear": 6845,
      "Ġdiagnosis": 6846,
      "ĠDis": 6847,
      "HE": 6848,
      "He": 6849,
      "ee": 6850,
      "See": 6851,
      "sche": 6852,
      "eÄŁ": 6853,
      "ource": 6854,
      "æĸŃ": 6855,
      "ĠRussia": 6856,
      "Ġgrant": 6857,
      "Ġgarant": 6858,
      "asÄ±l": 6859,
      "ĠnasÄ±l": 6860,
      "istas": 6861,
      "masÄ±nÄ±": 6862,
      "Ġsustainable": 6863,
      "ĠOver": 6864,
      "Ġbord": 6865,
      "Ġfrag": 6866,
      "Ġfruits": 6867,
      "Ġtopl": 6868,
      "Ãºmer": 6869,
      "ĠProt": 6870,
      "ĠProv": 6871,
      "lerinde": 6872,
      "ispiel": 6873,
      "Ġcolour": 6874,
      "shop": 6875,
      "Ġprev": 6876,
      "Ġrapidly": 6877,
      "Ġball": 6878,
      "ĠEmpire": 6879,
      "ĠBay": 6880,
      "sequ": 6881,
      "Ġsubsequ": 6882,
      "ĠUse": 6883,
      "iedad": 6884,
      "01": 6885,
      "Ġconsists": 6886,
      "æĿĳ": 6887,
      "49": 6888,
      "Ġ189": 6889,
      "39": 6890,
      "Ġ188": 6891,
      "vironments": 6892,
      "Ġoffers": 6893,
      "Ġvolume": 6894,
      "reet": 6895,
      "ĠStreet": 6896,
      "Ġauthors": 6897,
      "imp": 6898,
      "ĠUp": 6899,
      "ĠWelt": 6900,
      "åıĮ": 6901,
      "ĠIII": 6902,
      "onÃ³m": 6903,
      "ĠeconÃ³m": 6904,
      "æ¬¢": 6905,
      "ĠÂ»": 6906,
      "Ġchildhood": 6907,
      "æĢİä¹Ī": 6908,
      "enschaft": 6909,
      "Ġkil": 6910,
      "Ġellos": 6911,
      "Ġdivision": 6912,
      "Ġtelevision": 6913,
      "ivision": 6914,
      "Ġopinion": 6915,
      "includ": 6916,
      "Ġiron": 6917,
      "drom": 6918,
      "Ġsyndrom": 6919,
      "Ġsynthe": 6920,
      "From": 6921,
      "Ġpush": 6922,
      "ĠDef": 6923,
      "Ġmaximum": 6924,
      "lardan": 6925,
      "ĠCor": 6926,
      "05": 6927,
      "æ½": 6928,
      "Ġcosts": 6929,
      "Ġexplore": 6930,
      "Ġcomposition": 6931,
      "æµĭ": 6932,
      "Ġplanning": 6933,
      "Ġthousands": 6934,
      "ĠÃ¼st": 6935,
      "Ġtaught": 6936,
      "Ġselection": 6937,
      "Ġcomprom": 6938,
      "Ġcompos": 6939,
      "ĠcompaÃ±": 6940,
      "ropical": 6941,
      "±ä¹Ĳ": 6942,
      "å¨±ä¹Ĳ": 6943,
      "Ġsport": 6944,
      "Ġsnow": 6945,
      "ĠUSA": 6946,
      "ĠGew": 6947,
      "ĠEnvironmental": 6948,
      "Ġattribut": 6949,
      "Ġsort": 6950,
      "Ġinternet": 6951,
      "ingdom": 6952,
      "ici": 6953,
      "Ġacademic": 6954,
      "Ġsensitive": 6955,
      "èīº": 6956,
      "Ġformer": 6957,
      "ĠespaÃ±": 6958,
      "Ġnuevo": 6959,
      "Ġhair": 6960,
      "ffair": 6961,
      "ç«ł": 6962,
      "Ġperspective": 6963,
      "åŃ©åŃĲ": 6964,
      "Ġviv": 6965,
      "æĮī": 6966,
      "Ġmein": 6967,
      "ĠColumbia": 6968,
      "ä¸įæĺ¯": 6969,
      "çķĻ": 6970,
      "ĠNav": 6971,
      "åĽŃ": 6972,
      "éŃ": 6973,
      "Ġincident": 6974,
      "ĠaynÄ±": 6975,
      "Another": 6976,
      "Ġbecoming": 6977,
      "IM": 6978,
      "cope": 6979,
      "cious": 6980,
      "Ġconscious": 6981,
      "ä¹ī": 6982,
      "Ġforms": 6983,
      "Ã¤d": 6984,
      "ĠAnother": 6985,
      "usion": 6986,
      "Ġoccasion": 6987,
      "Ġcontro": 6988,
      "Ġcontrovers": 6989,
      "ĠÄ°n": 6990,
      "Ġdepart": 6991,
      "Ġanyone": 6992,
      "Ġexcell": 6993,
      "Ġkostenlos": 6994,
      "Ä±ÄŁÄ±nÄ±z": 6995,
      "eine": 6996,
      "Ġkeine": 6997,
      "Ġimmune": 6998,
      "ÃŃst": 6999,
      "è¦ģæ±Ĥ": 7000,
      "Ġreceiving": 7001,
      "Ġfert": 7002,
      "ownload": 7003,
      "udd": 7004,
      "uddh": 7005,
      "ĠBuddh": 7006,
      "mon": 7007,
      "hab": 7008,
      "éĸĭ": 7009,
      "Ġacuerdo": 7010,
      "ĠTop": 7011,
      "Ġcalidad": 7012,
      "abilidad": 7013,
      "abileceÄŁ": 7014,
      "point": 7015,
      "Ġprojects": 7016,
      "Ġben": 7017,
      "Ġobjet": 7018,
      "Ġusers": 7019,
      "ĠCamp": 7020,
      "Ġhabitat": 7021,
      "Ġcand": 7022,
      "Ġcandid": 7023,
      "Ġindicate": 7024,
      "Ġsollte": 7025,
      "cript": 7026,
      "Ġletz": 7027,
      "ĠSecond": 7028,
      "hen": 7029,
      "Ġbill": 7030,
      "Ġbal": 7031,
      "Ġbalance": 7032,
      "ĠalÄ±n": 7033,
      "nÄ±n": 7034,
      "Ġmant": 7035,
      "atÄ±rÄ±m": 7036,
      "Ġfreed": 7037,
      "Ġfreedom": 7038,
      "abul": 7039,
      "ĠMass": 7040,
      "abb": 7041,
      "åĪĹ": 7042,
      "åĪĴ": 7043,
      "Ġexcellent": 7044,
      "cent": 7045,
      "ĠAbout": 7046,
      "Ġwichtig": 7047,
      "å¤§å®¶": 7048,
      "Ġmap": 7049,
      "Ġobjetivo": 7050,
      "Ġ1960": 7051,
      "cak": 7052,
      "cept": 7053,
      "Ġkept": 7054,
      "ball": 7055,
      "bir": 7056,
      "irk": 7057,
      "ĠÅŁirk": 7058,
      "37": 7059,
      "American": 7060,
      "Ġvital": 7061,
      "imientos": 7062,
      "åĺ": 7063,
      "Ġ150": 7064,
      "Ġmicros": 7065,
      "dan": 7066,
      "Ã¼nd": 7067,
      "Ġalan": 7068,
      "Ġexpans": 7069,
      "Ġdoing": 7070,
      "aging": 7071,
      "agram": 7072,
      "çŁ³": 7073,
      "aign": 7074,
      "Ġcampaign": 7075,
      "lerine": 7076,
      "Ġtowards": 7077,
      "ĠSur": 7078,
      "ĠSurve": 7079,
      "æĿİ": 7080,
      "Ġmanif": 7081,
      "Ġmanifest": 7082,
      "astern": 7083,
      "ĠgehÃ¶r": 7084,
      "Ã®": 7085,
      "Ġsalt": 7086,
      "Ġ45": 7087,
      "Ġtrip": 7088,
      "ĠEach": 7089,
      "Ġintel": 7090,
      "Ġintellectual": 7091,
      "well": 7092,
      "Ġelection": 7093,
      "Ġgene": 7094,
      "atform": 7095,
      "Ġplatform": 7096,
      "ĠSouthern": 7097,
      "ĠSuch": 7098,
      "æĿĲ": 7099,
      "34": 7100,
      "ä½Ĩæĺ¯": 7101,
      "Ġchallen": 7102,
      "Ġchallenge": 7103,
      "ĠClimate": 7104,
      "æ©Ł": 7105,
      "åĵį": 7106,
      "å½±åĵį": 7107,
      "Ġoccurs": 7108,
      "ron": 7109,
      "Ġfoto": 7110,
      "65": 7111,
      "ĠSuprem": 7112,
      "Ġallerg": 7113,
      "Ġneutr": 7114,
      "Ġconstr": 7115,
      "Ġbah": 7116,
      "ĠdÃ¼ny": 7117,
      "ĠÂ©": 7118,
      "ĠÂ¡": 7119,
      "Ġtwice": 7120,
      "åª": 7121,
      "igt": 7122,
      "igur": 7123,
      "Ġconfigur": 7124,
      "ains": 7125,
      "Ġhacia": 7126,
      "å®¤": 7127,
      "å®Ŀ": 7128,
      "Ġ%": 7129,
      "Ġ1994": 7130,
      "Ä±lÄ±k": 7131,
      "ĠAlexander": 7132,
      "ĠExpl": 7133,
      "ĠExper": 7134,
      "ery": 7135,
      "çĽĳ": 7136,
      "Ġlatter": 7137,
      "Ġbatter": 7138,
      "Ġtab": 7139,
      "Ġneighbor": 7140,
      "Ġneighborhood": 7141,
      "ĠserÃ¡": 7142,
      "enomen": 7143,
      "Ġphenomen": 7144,
      "Ġphysics": 7145,
      "æ¸¯": 7146,
      "09": 7147,
      "Ġchanging": 7148,
      "Ġult": 7149,
      "Re": 7150,
      "Ġsatellite": 7151,
      "ĠlÃŃne": 7152,
      "Ġlibert": 7153,
      "Ġpodemos": 7154,
      "town": 7155,
      "ĠsaÄŁlÄ±k": 7156,
      "ĠStudies": 7157,
      "ĠFurther": 7158,
      "ĠmÃ¼s": 7159,
      "Ġprett": 7160,
      "è¯Ĩ": 7161,
      "Ġfiyat": 7162,
      "Ġsuspect": 7163,
      "ĠsaÄŁlay": 7164,
      "ĠsaÄŁlam": 7165,
      "iti": 7166,
      "Ġiniti": 7167,
      "Ġdav": 7168,
      "ĠaquÃŃ": 7169,
      "Ġaquell": 7170,
      "ĠVide": 7171,
      "opp": 7172,
      "çĶµå½±": 7173,
      "Ġinfluenc": 7174,
      "Ġmoral": 7175,
      "ektir": 7176,
      "jekt": 7177,
      "Ġcultiv": 7178,
      "é¤Ĳ": 7179,
      "ĠIch": 7180,
      "ula": 7181,
      "æĿ¿": 7182,
      "Ġcast": 7183,
      "key": 7184,
      "ĠsÃ¶yled": 7185,
      "Ġsignal": 7186,
      "Ġloss": 7187,
      "ĠPost": 7188,
      "Ġeditor": 7189,
      "Ġ2020": 7190,
      "åĵª": 7191,
      "èªª": 7192,
      "ĠAllah": 7193,
      "çı¾": 7194,
      "åŃ£": 7195,
      "ãĢĤâĢĿ": 7196,
      "ehir": 7197,
      "Ġgradu": 7198,
      "Research": 7199,
      "ĠUK": 7200,
      "Ã¶ff": 7201,
      "è´Ń": 7202,
      "ĠseÃ±": 7203,
      "Ġintroduction": 7204,
      "Ġvess": 7205,
      "Ġvessels": 7206,
      "nin": 7207,
      "Ġtitle": 7208,
      "Ġerfolg": 7209,
      "Ġaffected": 7210,
      "åĲ§": 7211,
      "Ġmer": 7212,
      "Ġmientras": 7213,
      "Ġdiverse": 7214,
      "Ġdied": 7215,
      "Ġkilled": 7216,
      "Ġdisturb": 7217,
      "08": 7218,
      "Ġworship": 7219,
      "Ġcreating": 7220,
      "Ġbiz": 7221,
      "ĠEvery": 7222,
      "lavery": 7223,
      "ĠAnn": 7224,
      "Ġfoods": 7225,
      "Ġallowed": 7226,
      "Ġallows": 7227,
      "æĭį": 7228,
      "Ġpair": 7229,
      "è¿ĻäºĽ": 7230,
      "ä¸ĢäºĽ": 7231,
      "Ġmovements": 7232,
      "Ġuygulam": 7233,
      "Ġdram": 7234,
      "ĠDay": 7235,
      "ĠDec": 7236,
      "Ġvirtual": 7237,
      "road": 7238,
      "ĠartÃŃcul": 7239,
      "Ġyar": 7240,
      "Ġintroduced": 7241,
      "Ġdefined": 7242,
      "Ġtrad": 7243,
      "Ġtrend": 7244,
      "44": 7245,
      "ĠElectr": 7246,
      "Ġdecade": 7247,
      "Ġfacility": 7248,
      "Ġethn": 7249,
      "ç¯": 7250,
      "Ġuncertain": 7251,
      "æĸ¹å¼ı": 7252,
      "Ġpages": 7253,
      "Ġsuperv": 7254,
      "Ġopposition": 7255,
      "æ£Ģ": 7256,
      "Ġgrade": 7257,
      "ĠConf": 7258,
      "Ġincluy": 7259,
      "Ġpromot": 7260,
      "éĢīæĭ": 7261,
      "Ġlat": 7262,
      "Ġlatest": 7263,
      "Ġolacak": 7264,
      "ĠKur": 7265,
      "Ġur": 7266,
      "Ġrough": 7267,
      "ontakt": 7268,
      "Ġprem": 7269,
      "é«Ķ": 7270,
      "Ġsubs": 7271,
      "larÄ±m": 7272,
      "larÄ±mÄ±z": 7273,
      "Ġdijo": 7274,
      "Ġarrange": 7275,
      "ollen": 7276,
      "Ġreject": 7277,
      "ä»ĭ": 7278,
      "éĢīæĭ©": 7279,
      "Ġgoes": 7280,
      "31": 7281,
      "ĠProfessor": 7282,
      "æł¸": 7283,
      "Ġadoles": 7284,
      "Ġdouble": 7285,
      "ascular": 7286,
      "Â®": 7287,
      "æĻ®": 7288,
      "Ġarmy": 7289,
      "ĠJack": 7290,
      "Ġpp": 7291,
      "Ġobserved": 7292,
      "ĠEv": 7293,
      "Ġopposite": 7294,
      "That": 7295,
      "ĠGroÃŁ": 7296,
      "Ġbesond": 7297,
      "æĸĩåĮĸ": 7298,
      "ĠTHE": 7299,
      "Ġdiversity": 7300,
      "Ġmas": 7301,
      "ĠMil": 7302,
      "ĠNature": 7303,
      "ĠMc": 7304,
      "cience": 7305,
      "ĠdÃ¶nÃ¼ÅŁ": 7306,
      "Ġhands": 7307,
      "ĠEnc": 7308,
      "ĠEncyclop": 7309,
      "æĻļ": 7310,
      "Ġpasado": 7311,
      "resent": 7312,
      "word": 7313,
      "Ġconventional": 7314,
      "Ġdistribut": 7315,
      "xic": 7316,
      "xford": 7317,
      "ĠÃ¼zerine": 7318,
      "ĠÃ¼zerinden": 7319,
      "itis": 7320,
      "Ġpossibly": 7321,
      "Ġtekn": 7322,
      "Ġstore": 7323,
      "æķħ": 7324,
      "Ġcommission": 7325,
      "unca": 7326,
      "32": 7327,
      "Ġprove": 7328,
      "Ġprotocol": 7329,
      "ierten": 7330,
      "Ġagreement": 7331,
      "Ã¼dÃ¼r": 7332,
      "Ġteknoloj": 7333,
      "æ¿Ģ": 7334,
      "Ġeinz": 7335,
      "zen": 7336,
      "orial": 7337,
      "isease": 7338,
      "ä¸»è¦ģ": 7339,
      "åİĨ": 7340,
      "èĪĩ": 7341,
      "åĪĩ": 7342,
      "Ġerhalten": 7343,
      "Ġqual": 7344,
      "ĠpolÃŃtica": 7345,
      "Ġload": 7346,
      "adan": 7347,
      "Ġbad": 7348,
      "çİ°åľ¨": 7349,
      "ĠOce": 7350,
      "ĠÃ¡": 7351,
      "Ġestado": 7352,
      "ĠGeschÃ¤ft": 7353,
      "Ġjourney": 7354,
      "ĠGold": 7355,
      "Ġforward": 7356,
      "omin": 7357,
      "ĠEdward": 7358,
      "åħ»": 7359,
      "æŃ»": 7360,
      "è½»": 7361,
      "Ġmedio": 7362,
      "Ġark": 7363,
      "Ġarkad": 7364,
      "ĠarkadaÅŁ": 7365,
      "Ġdoubt": 7366,
      "Ġrot": 7367,
      "tÄ±": 7368,
      "see": 7369,
      "place": 7370,
      "Ġexisting": 7371,
      "ĠForm": 7372,
      "Ġthinking": 7373,
      "Ġmeeting": 7374,
      "rich": 7375,
      "RE": 7376,
      "ĠnÃºmer": 7377,
      "ĠSex": 7378,
      "Ġviaj": 7379,
      "Ġrepe": 7380,
      "Ġrepeated": 7381,
      "schlieÃŁ": 7382,
      "Ġmaster": 7383,
      "Ġproposed": 7384,
      "Ġoyunc": 7385,
      "å¤Ł": 7386,
      "ĠPower": 7387,
      "Ġcategories": 7388,
      "stream": 7389,
      "ĠÄ°st": 7390,
      "Ġmuscles": 7391,
      "eye": 7392,
      "Ġalgunos": 7393,
      "Ġappears": 7394,
      "Ġappearance": 7395,
      "ases": 7396,
      "ĠyÄ±lÄ±nda": 7397,
      "Ġinteresting": 7398,
      "çıŃ": 7399,
      "ĠhiÃ§bir": 7400,
      "Ġmassive": 7401,
      "Ġwest": 7402,
      "Ġaccurate": 7403,
      "Ġnerv": 7404,
      "ĠCommittee": 7405,
      "ĠOxford": 7406,
      "Ġunknown": 7407,
      "Ġheight": 7408,
      "Ġabuse": 7409,
      "ĠÃ¶r": 7410,
      "åĨľ": 7411,
      "ommt": 7412,
      "Ġkommt": 7413,
      "ĠUs": 7414,
      "ĠGuide": 7415,
      "ĠkÃ¶": 7416,
      "Ġvehicles": 7417,
      "Ġvehicle": 7418,
      "Ġdimens": 7419,
      "masÄ±na": 7420,
      "Ġminimum": 7421,
      "Ġtests": 7422,
      "Ġtesting": 7423,
      "ĠgrÃ¶ÃŁ": 7424,
      "Ġabsorb": 7425,
      "forder": 7426,
      "ĠHere": 7427,
      "html": 7428,
      "ĠMinister": 7429,
      "Ġprinciple": 7430,
      "spec": 7431,
      "spap": 7432,
      "Ġnewspap": 7433,
      "ĠÄ°l": 7434,
      "55": 7435,
      "ĠbazÄ±": 7436,
      "Ġmachen": 7437,
      "çĽĬ": 7438,
      "ĠÃ©l": 7439,
      "ishop": 7440,
      "Ġhistoria": 7441,
      "åĲĮæĹ¶": 7442,
      "bild": 7443,
      "Ġmetal": 7444,
      "Ġtal": 7445,
      "ĠFort": 7446,
      "orte": 7447,
      "Ġexport": 7448,
      "Ġnearby": 7449,
      "çł´": 7450,
      "ç»´": 7451,
      "hand": 7452,
      "Ġyellow": 7453,
      "iology": 7454,
      "éĺ¿": 7455,
      "éĺ³": 7456,
      "ç·": 7457,
      "Ġproperly": 7458,
      "Ġportion": 7459,
      "aters": 7460,
      "Ġwaters": 7461,
      "ĠLat": 7462,
      "ĠLatin": 7463,
      "å¤ľ": 7464,
      "æ¯į": 7465,
      "Ġcircuit": 7466,
      "ĠJahren": 7467,
      "Ġrecyc": 7468,
      "ĠNetwork": 7469,
      "Ġlie": 7470,
      "Ġcompetition": 7471,
      "Ġedition": 7472,
      "Ġitem": 7473,
      "Ġpark": 7474,
      "ĠyaÅŁam": 7475,
      "ĠDaten": 7476,
      "ounce": 7477,
      "ĠOcean": 7478,
      "larla": 7479,
      "ĠAls": 7480,
      "ĠAlso": 7481,
      "Ã¼s": 7482,
      "Ã¼g": 7483,
      "fÃ¼g": 7484,
      "Ã¼nÃ¼": 7485,
      "Ġcontra": 7486,
      "ĠMaterial": 7487,
      "Ġespac": 7488,
      "ĠfÃ¼hr": 7489,
      "é£ŀ": 7490,
      "ĠAk": 7491,
      "Ġpermission": 7492,
      "ĭåıĭ": 7493,
      "æľĭåıĭ": 7494,
      "employ": 7495,
      "Ġstatistics": 7496,
      "ibles": 7497,
      "ulner": 7498,
      "Ġvulner": 7499,
      "Ġlost": 7500,
      "rest": 7501,
      "ilt": 7502,
      "Ġcultures": 7503,
      "Ġbuy": 7504,
      "Ġcloth": 7505,
      "Ġclim": 7506,
      "atically": 7507,
      "Ġhayat": 7508,
      "ĠThrough": 7509,
      "Ġ2017": 7510,
      "Ġ2018": 7511,
      "Ġ2015": 7512,
      "Ġ2016": 7513,
      "Ġ2014": 7514,
      "chieved": 7515,
      "Ġimmediate": 7516,
      "Ġtelef": 7517,
      "Ġperf": 7518,
      "Ġrefuge": 7519,
      "07": 7520,
      "04": 7521,
      "06": 7522,
      "03": 7523,
      "åį¡": 7524,
      "88": 7525,
      "Ġacceler": 7526,
      "ĠInstead": 7527,
      "Ġintended": 7528,
      "icago": 7529,
      "ĠChicago": 7530,
      "Ġswe": 7531,
      "è¯Ħ": 7532,
      "ĠÃĦ": 7533,
      "ĠKon": 7534,
      "æĸ¼": 7535,
      "å¦Ĥä½ķ": 7536,
      "Ġmedications": 7537,
      "ĠAncak": 7538,
      "Ġdecir": 7539,
      "Ġadvanced": 7540,
      "ĠÃºn": 7541,
      "åĳ¢": 7542,
      "ĠGlobal": 7543,
      "ĠNatural": 7544,
      "ĠsÃ¼rec": 7545,
      "Ġapprec": 7546,
      "Ġidentity": 7547,
      "ĠSchw": 7548,
      "ĠTim": 7549,
      "Ġdriving": 7550,
      "Ġkilome": 7551,
      "Ġ1993": 7552,
      "Ġ1992": 7553,
      "Ġ1991": 7554,
      "02": 7555,
      "active": 7556,
      "uestras": 7557,
      "agues": 7558,
      "leagues": 7559,
      "Ġcolleagues": 7560,
      "Ġcommitt": 7561,
      "Ġpoison": 7562,
      "ĠBoard": 7563,
      "ĠâĢ¢": 7564,
      "ãģ": 7565,
      "éĢģ": 7566,
      "Ġmoving": 7567,
      "Ġmoved": 7568,
      "edia": 7569,
      "ĠEncyclopedia": 7570,
      "Ġbreed": 7571,
      "Ġconducted": 7572,
      "ged": 7573,
      "çİ¯å¢ĥ": 7574,
      "Ġmerely": 7575,
      "Ġequivalent": 7576,
      "cop": 7577,
      "Ġmuss": 7578,
      "Ġbesch": 7579,
      "Ġgreatest": 7580,
      "west": 7581,
      "ĠaÅŁ": 7582,
      "iciones": 7583,
      "agon": 7584,
      "Ġhon": 7585,
      "Ġhonor": 7586,
      "con": 7587,
      "è¼": 7588,
      "èĹ": 7589,
      "åº·": 7590,
      "åº§": 7591,
      "ĠMac": 7592,
      "Ġgrav": 7593,
      "Ġabstract": 7594,
      "Ġremoved": 7595,
      "Ġcorn": 7596,
      "å¾ĭ": 7597,
      "åİĭ": 7598,
      "ç®Ģ": 7599,
      "çĽ¸åħ³": 7600,
      "ĠdoÄŁru": 7601,
      "itter": 7602,
      "ĠTwitter": 7603,
      "ĠTwo": 7604,
      "Ġlayer": 7605,
      "Ġoccurred": 7606,
      "ç¶ĵ": 7607,
      "ç§ĳæĬĢ": 7608,
      "å¿µ": 7609,
      "Ġchallenges": 7610,
      "ĠEastern": 7611,
      "tructural": 7612,
      "Ġrail": 7613,
      "quir": 7614,
      "body": 7615,
      "ildi": 7616,
      "iles": 7617,
      "IDS": 7618,
      "ĠgÃ¶n": 7619,
      "ĠgÃ¶nder": 7620,
      "Ġdebate": 7621,
      "Ġbran": 7622,
      "Ġwhe": 7623,
      "ilerin": 7624,
      "igures": 7625,
      "Ġfigures": 7626,
      "Ġeines": 7627,
      "Ġsino": 7628,
      "Ġchemistry": 7629,
      "47": 7630,
      "46": 7631,
      "Ġcapture": 7632,
      "Ġyen": 7633,
      "Ġyeni": 7634,
      "Ġfemales": 7635,
      "According": 7636,
      "Ġvalu": 7637,
      "Ġvaluable": 7638,
      "Ġvalid": 7639,
      "éĻį": 7640,
      "Ġsave": 7641,
      "arten": 7642,
      "Ġsalud": 7643,
      "Ġpick": 7644,
      "Ġpermanent": 7645,
      "ĠÃ¶ÄŁret": 7646,
      "theless": 7647,
      "Ã¼ÅŁter": 7648,
      "Ġcoming": 7649,
      "Ġcomments": 7650,
      "ĠaÃ§Ä±l": 7651,
      "Ġultim": 7652,
      "Ġultimately": 7653,
      "Ġmucho": 7654,
      "Ġmilyon": 7655,
      "iers": 7656,
      "Ġsoldiers": 7657,
      "Ġpal": 7658,
      "ĠGeb": 7659,
      "Ġbahis": 7660,
      "Ġtried": 7661,
      "ĠyapÄ±lan": 7662,
      "Ġsorun": 7663,
      "Ġolabilir": 7664,
      "level": 7665,
      "Ġrepair": 7666,
      "elines": 7667,
      "Ġguidelines": 7668,
      "Ġsubstances": 7669,
      "ĠTeam": 7670,
      "yrÄ±ca": 7671,
      "Ġdik": 7672,
      "Ġdikk": 7673,
      "Ġdikkat": 7674,
      "kr": 7675,
      "Ġbiggest": 7676,
      "ĠWoch": 7677,
      "Ġphone": 7678,
      "ĠDisease": 7679,
      "Ġestimate": 7680,
      "è¯Ń": 7681,
      "nisse": 7682,
      "Ġmedium": 7683,
      "Ġsurprising": 7684,
      "Ä±ÅŁtÄ±r": 7685,
      "Ġdescribe": 7686,
      "éĸĵ": 7687,
      "zahl": 7688,
      "å±ħ": 7689,
      "Ġtransition": 7690,
      "Ġrecognition": 7691,
      "stÃ¤nd": 7692,
      "åį´": 7693,
      "å·´": 7694,
      "åĽ´": 7695,
      "åħ¶ä»ĸ": 7696,
      "ĠâĨĳ": 7697,
      "Ġnav": 7698,
      "ĠProtection": 7699,
      "åįĬ": 7700,
      "Ġcruc": 7701,
      "Ġcred": 7702,
      "Ġcredit": 7703,
      "Ġcris": 7704,
      "Ġcrisis": 7705,
      "Ġcrimin": 7706,
      "äºĴ": 7707,
      "Ġilleg": 7708,
      "Ġpan": 7709,
      "ĠJohnson": 7710,
      "åĵģçīĮ": 7711,
      "Ġfabric": 7712,
      "ai": 7713,
      "imi": 7714,
      "ĠiÃ§eris": 7715,
      "ĠiÃ§erisinde": 7716,
      "Ġsupplies": 7717,
      "ĠMountain": 7718,
      "åŁ¹": 7719,
      "ĠMicha": 7720,
      "ĠMichael": 7721,
      "Ġadminister": 7722,
      "err": 7723,
      "Ã§ok": 7724,
      "ĠbirÃ§ok": 7725,
      "77": 7726,
      "ortality": 7727,
      "Ġincreasingly": 7728,
      "ĠMad": 7729,
      "ĠMill": 7730,
      "ĠMary": 7731,
      "Ġvary": 7732,
      "Ġdefend": 7733,
      "Ġreports": 7734,
      "ç¬ĳ": 7735,
      "ari": 7736,
      "Ġliver": 7737,
      "Ġpurchase": 7738,
      "Ġinvestment": 7739,
      "åĨħå®¹": 7740,
      "Ġaud": 7741,
      "Ġaudience": 7742,
      "é»ŀ": 7743,
      "oss": 7744,
      "ossil": 7745,
      "Ġfossil": 7746,
      "ilik": 7747,
      "Ã¤nger": 7748,
      "ulate": 7749,
      "ĠÃ§ev": 7750,
      "çªģ": 7751,
      "Ġreb": 7752,
      "Ġintelligence": 7753,
      "Ġindependence": 7754,
      "èŃ¦": 7755,
      "Ġshowed": 7756,
      "è®°èĢħ": 7757,
      "Ġmargin": 7758,
      "Ġerror": 7759,
      "Ùİ": 7760,
      "Ġsituations": 7761,
      "ĠAdemÃ¡s": 7762,
      "ĠClass": 7763,
      "ĠCO": 7764,
      "iene": 7765,
      "anÄ±z": 7766,
      "Ġopt": 7767,
      "thodox": 7768,
      "ç¼ĸ": 7769,
      "Ġengineering": 7770,
      "ager": 7771,
      "ĠObama": 7772,
      "Ġuser": 7773,
      "ĠInvest": 7774,
      "Ġahora": 7775,
      "istan": 7776,
      "äº¿": 7777,
      "otic": 7778,
      "æ±½": 7779,
      "Ġdepos": 7780,
      "Ġdepth": 7781,
      "Ġfriends": 7782,
      "Ġpatterns": 7783,
      "Ġfloor": 7784,
      "orr": 7785,
      "Ġautor": 7786,
      "ĠPor": 7787,
      "Ġhol": 7788,
      "è¡Ģ": 7789,
      "Ġastronom": 7790,
      "ej": 7791,
      "Ġdej": 7792,
      "Ġsurvive": 7793,
      "embre": 7794,
      "iest": 7795,
      "Ġpriest": 7796,
      "ĠprÃ¡c": 7797,
      "ĠÂ·": 7798,
      "éĤĦ": 7799,
      "Ġpassed": 7800,
      "Ġencouraged": 7801,
      "Ġvolunt": 7802,
      "Ã©cn": 7803,
      "ĠtÃ©cn": 7804,
      "Ġkarar": 7805,
      "igue": 7806,
      "Ġtrust": 7807,
      "ĠyÃ¶netim": 7808,
      "æ¸©": 7809,
      "Ġband": 7810,
      "erstand": 7811,
      "band": 7812,
      "Ġsand": 7813,
      "Ġbudget": 7814,
      "Ġbed": 7815,
      "ĠbÃ¼tÃ¼n": 7816,
      "Ġthr": 7817,
      "Ġsacr": 7818,
      "Ġsacrific": 7819,
      "ĠPal": 7820,
      "Ġtopics": 7821,
      "ĠKinder": 7822,
      "Ġmathematics": 7823,
      "Ġtissues": 7824,
      "Ġcertainly": 7825,
      "Ġaccuracy": 7826,
      "ĠKar": 7827,
      "arc": 7828,
      "Ġbusc": 7829,
      "Ġindicates": 7830,
      "Ġstim": 7831,
      "Ġstimul": 7832,
      "ä¸ĭè½½": 7833,
      "ĠSpecial": 7834,
      "ä»ħ": 7835,
      "Ġwitness": 7836,
      "Ġobservations": 7837,
      "oÄŁlu": 7838,
      "76": 7839,
      "Ġyok": 7840,
      "Ġmerkez": 7841,
      "Ġarrest": 7842,
      "åģ¥åº·": 7843,
      "Ġkendi": 7844,
      "ecution": 7845,
      "Ġdedi": 7846,
      "Ġcurriculum": 7847,
      "Ġsignals": 7848,
      "Ġexpansion": 7849,
      "ension": 7850,
      "Ġprevention": 7851,
      "Ġschn": 7852,
      "Ġschnell": 7853,
      "Ġstrategy": 7854,
      "åľŁ": 7855,
      "Sch": 7856,
      "Ġslaves": 7857,
      "Ġwaves": 7858,
      "Ġwon": 7859,
      "ony": 7860,
      "ona": 7861,
      "oma": 7862,
      "Con": 7863,
      "Ġdiscovery": 7864,
      "Ġdetermined": 7865,
      "osis": 7866,
      "Ġethnic": 7867,
      "åĲĹ": 7868,
      "iscover": 7869,
      "Ġmyster": 7870,
      "ĠÅŁirket": 7871,
      "Ġbehaviour": 7872,
      "Ġtrat": 7873,
      "Ġhareket": 7874,
      "dÄ±ÄŁÄ±": 7875,
      "Ġmoon": 7876,
      "Ã¼rlich": 7877,
      "atÃ¼rlich": 7878,
      "ĠStad": 7879,
      "ĠStadt": 7880,
      "Ġchann": 7881,
      "ĠVict": 7882,
      "å¸Į": 7883,
      "å¸ĮæľĽ": 7884,
      "ehen": 7885,
      "Ġgem": 7886,
      "Ġstem": 7887,
      "Ġbiology": 7888,
      "ç§¯": 7889,
      "ĠoldukÃ§": 7890,
      "ĠTur": 7891,
      "ĠLake": 7892,
      "RO": 7893,
      "Or": 7894,
      "Ġdescend": 7895,
      "iyas": 7896,
      "Ġuzun": 7897,
      "unkt": 7898,
      "ĠSal": 7899,
      "ĠHospital": 7900,
      "lines": 7901,
      "Ġmachines": 7902,
      "Ġearthqu": 7903,
      "Ġmolecul": 7904,
      "Ġmolecular": 7905,
      "Ġremote": 7906,
      "ĠFall": 7907,
      "Ġeffectively": 7908,
      "éĥ½æĺ¯": 7909,
      "ĠFree": 7910,
      "ç¶²": 7911,
      "ĠDev": 7912,
      "Ġzor": 7913,
      "lerinden": 7914,
      "ĠItalian": 7915,
      "iÄŁinde": 7916,
      "Ġeinmal": 7917,
      "ormal": 7918,
      "normal": 7919,
      "Ġabnormal": 7920,
      "malÄ±": 7921,
      "ahn": 7922,
      "icrosoft": 7923,
      "å¥ĩ": 7924,
      "åĽ¾çīĩ": 7925,
      "Ġinternal": 7926,
      "RI": 7927,
      "otros": 7928,
      "Ġnosotros": 7929,
      "Stud": 7930,
      "Ã¼lt": 7931,
      "ĠgÃ¶rÃ¼l": 7932,
      "elling": 7933,
      "itable": 7934,
      "Ġanlam": 7935,
      "2010": 7936,
      "Ġtenemos": 7937,
      "Ġcomputers": 7938,
      "Ġwollen": 7939,
      "ktÃ¶r": 7940,
      "Ġpolitics": 7941,
      "ĠInf": 7942,
      "fe": 7943,
      "Ġdiye": 7944,
      "ache": 7945,
      "Ġef": 7946,
      "richt": 7947,
      "ĠCap": 7948,
      "ĠBeispiel": 7949,
      "ventions": 7950,
      "Ġdecided": 7951,
      "udden": 7952,
      "Ġsudden": 7953,
      "ĠOur": 7954,
      "Ġsegur": 7955,
      "Ġseguridad": 7956,
      "ĠThen": 7957,
      "Ġearn": 7958,
      "net": 7959,
      "bet": 7960,
      "aret": 7961,
      "Ġbietet": 7962,
      "Ġkayn": 7963,
      "Ġcopy": 7964,
      "medi": 7965,
      "Ġbulunan": 7966,
      "Ġexposed": 7967,
      "encial": 7968,
      "Ġbarr": 7969,
      "ĠProz": 7970,
      "daki": 7971,
      "ĠEnd": 7972,
      "Bu": 7973,
      "æīĢæľī": 7974,
      "Ġarguments": 7975,
      "Ġpump": 7976,
      "Ġagricultural": 7977,
      "Ġveces": 7978,
      "Gr": 7979,
      "gang": 7980,
      "Ġrang": 7981,
      "ĠRock": 7982,
      "lÄ±ÄŁ": 7983,
      "Ġwish": 7984,
      "ĠTreat": 7985,
      "Ġcaracter": 7986,
      "Ġserved": 7987,
      "Ġproy": 7988,
      "Ġproyecto": 7989,
      "ĠGer": 7990,
      "å¿Ĺ": 7991,
      "ç½Ĺ": 7992,
      "Ġinstruct": 7993,
      "Ġbone": 7994,
      "Ġbild": 7995,
      "More": 7996,
      "Ġrecords": 7997,
      "ĠyaptÄ±ÄŁÄ±": 7998,
      "åı¤": 7999,
      "uss": 8000,
      "åħħ": 8001,
      "ĠSam": 8002,
      "Ġentirely": 8003,
      "emeins": 8004,
      "Ġcritic": 8005,
      "ĠIrish": 8006,
      "å¥ĸ": 8007,
      "Ġned": 8008,
      "Ġneden": 8009,
      "Ġcompleted": 8010,
      "Ġsyndrome": 8011,
      "produc": 8012,
      "ĠPrevention": 8013,
      "Ġitems": 8014,
      "Ġextraordin": 8015,
      "Ġdil": 8016,
      "Ġpaid": 8017,
      "æĹ¥æľ¬": 8018,
      "Ġproce": 8019,
      "rech": 8020,
      "sprech": 8021,
      "Ġfeedback": 8022,
      "çŁŃ": 8023,
      "Ġgeb": 8024,
      "Ġpartn": 8025,
      "Ġpartnership": 8026,
      "æĺ¥": 8027,
      "ĠComput": 8028,
      "Ġabsolut": 8029,
      "itting": 8030,
      "itial": 8031,
      "Ġinitial": 8032,
      "ĠÄ°stan": 8033,
      "ĠÄ°stanb": 8034,
      "ĠÄ°stanbul": 8035,
      "Ġcrucial": 8036,
      "ĠMitarbeit": 8037,
      "ienst": 8038,
      "Ġpreval": 8039,
      "Ġdire": 8040,
      "Ġdirekt": 8041,
      "è¿ĺæĺ¯": 8042,
      "ä¹Łæĺ¯": 8043,
      "Ġmobile": 8044,
      "Ã³xim": 8045,
      "ĠprÃ³xim": 8046,
      "aur": 8047,
      "Ġrestaur": 8048,
      "Ġrestor": 8049,
      "Ġtoda": 8050,
      "iyon": 8051,
      "stellung": 8052,
      "ĠLeb": 8053,
      "ĠLebens": 8054,
      "Ġarchitecture": 8055,
      "ĠFin": 8056,
      "Ġdestruction": 8057,
      "ĠsonuÃ§": 8058,
      "Ġderived": 8059,
      "PS": 8060,
      "Ã±a": 8061,
      "ĠPhilosoph": 8062,
      "éĿ©": 8063,
      "gn": 8064,
      "Ġcogn": 8065,
      "Ġcognitive": 8066,
      "Ġelse": 8067,
      "scheid": 8068,
      "ĠAvrup": 8069,
      "å½ķ": 8070,
      "çĬ¶": 8071,
      "van": 8072,
      "ylvan": 8073,
      "ylvania": 8074,
      "Ġexplan": 8075,
      "ĠAdv": 8076,
      "Ġpray": 8077,
      "ipedia": 8078,
      "ikipedia": 8079,
      "Ġscrip": 8080,
      "2012": 8081,
      "igenous": 8082,
      "Los": 8083,
      "Ġpartners": 8084,
      "Ġapparently": 8085,
      "\",": 8086,
      "Ġmoist": 8087,
      "Ġampl": 8088,
      "Ġdrought": 8089,
      "ierra": 8090,
      "éĵ¶": 8091,
      "ĠCamb": 8092,
      "ĠwÃ¤hrend": 8093,
      "ĠyatÄ±rÄ±m": 8094,
      "åĲ¬": 8095,
      "Ġhastal": 8096,
      "ebrew": 8097,
      "Ã¤nder": 8098,
      "Ġcategory": 8099,
      "Ġescape": 8100,
      "Ġprimera": 8101,
      "Ġcomunic": 8102,
      "ecciÃ³n": 8103,
      "Ġeleg": 8104,
      "ĠyakÄ±n": 8105,
      "Ġbekann": 8106,
      "Ġadministration": 8107,
      "ĠSub": 8108,
      "æīĭæľº": 8109,
      "Ġapoy": 8110,
      "ploy": 8111,
      "immer": 8112,
      "ewhere": 8113,
      "Ġprescrib": 8114,
      "Ġrespectively": 8115,
      "ĠJud": 8116,
      "Ġmessages": 8117,
      "olester": 8118,
      "olesterol": 8119,
      "Ġcholesterol": 8120,
      "vol": 8121,
      "Ġcapable": 8122,
      "äº²": 8123,
      "äº«": 8124,
      "äºĳ": 8125,
      "Â«": 8126,
      "Ġevident": 8127,
      "Ġspent": 8128,
      "Ġkonn": 8129,
      "Ġze": 8130,
      "Ġignor": 8131,
      "Ġcontempor": 8132,
      "lor": 8133,
      "ĠDirector": 8134,
      "åŃ¦çĶŁ": 8135,
      "åŃ¦ä¹ł": 8136,
      "ĠYear": 8137,
      "ĠConference": 8138,
      "å¯Į": 8139,
      "lerden": 8140,
      "ĠPublish": 8141,
      "Ġmeasuring": 8142,
      "During": 8143,
      "Ġestaba": 8144,
      "Ġestar": 8145,
      "Ġestable": 8146,
      "Ġestas": 8147,
      "Ġapro": 8148,
      "roid": 8149,
      "Ġid": 8150,
      "bit": 8151,
      "Ġagu": 8152,
      "åģľ": 8153,
      "åģĩ": 8154,
      "è¿ľ": 8155,
      "ĠGeorgia": 8156,
      "Ġmodels": 8157,
      "Ġnews": 8158,
      "ugÃ¼n": 8159,
      "Ġmeasured": 8160,
      "ĠRo": 8161,
      "oud": 8162,
      "Ġcloud": 8163,
      "Ġequipo": 8164,
      "Ġuno": 8165,
      "åĩ»": 8166,
      "Most": 8167,
      "ĠParis": 8168,
      "ysis": 8169,
      "alysis": 8170,
      "ĠDivision": 8171,
      "meye": 8172,
      "ĠAcademy": 8173,
      "yla": 8174,
      "Ġtwenty": 8175,
      "åŁİå¸Ĥ": 8176,
      "Ġsemana": 8177,
      "Ġsecure": 8178,
      "ulture": 8179,
      "Ġfacult": 8180,
      "ereich": 8181,
      "Ġgradually": 8182,
      "Ġparty": 8183,
      "alax": 8184,
      "Ġgalax": 8185,
      "ä¸¾": 8186,
      "Ġhoy": 8187,
      "ĠRoy": 8188,
      "Ġheavily": 8189,
      "ĠnatÃ¼rlich": 8190,
      "cÄ±": 8191,
      "cel": 8192,
      "comp": 8193,
      "ĠyardÄ±mcÄ±": 8194,
      "Ġbeneficial": 8195,
      "century": 8196,
      "iyaret": 8197,
      "Ġcausing": 8198,
      "Ġassump": 8199,
      "roke": 8200,
      "Ġstroke": 8201,
      "ĠIndepend": 8202,
      "Ġtermin": 8203,
      "ä¸Ńå¿ĥ": 8204,
      "ativa": 8205,
      "Ġnecesit": 8206,
      "xiet": 8207,
      "Ġdetails": 8208,
      "ĠÃ§eÅŁit": 8209,
      "Ġsoft": 8210,
      "95": 8211,
      "Ġdream": 8212,
      "Ġrecon": 8213,
      "Ġreconoc": 8214,
      "ocal": 8215,
      "ĠWhy": 8216,
      "åįı": 8217,
      "AB": 8218,
      "fully": 8219,
      "Ġmainly": 8220,
      "Ġperformed": 8221,
      "Ġgelec": 8222,
      "ĠAddition": 8223,
      "Ġstreng": 8224,
      "Ġstrengthen": 8225,
      "ictions": 8226,
      "Ġtopic": 8227,
      "éĢĤ": 8228,
      "å±Ĥ": 8229,
      "å±ŀ": 8230,
      "ĠTrain": 8231,
      "Ãºs": 8232,
      "æ¦": 8233,
      "æ¾": 8234,
      "æĽ¾": 8235,
      "Ġcosas": 8236,
      "Ġextreme": 8237,
      "Be": 8238,
      "By": 8239,
      "ye": 8240,
      "çļ®": 8241,
      "ĠDE": 8242,
      "rimin": 8243,
      "Ġdiscrimin": 8244,
      "ï¼ļâĢľ": 8245,
      "Ġantes": 8246,
      "Ġhomes": 8247,
      "ĠThose": 8248,
      "Ġproceso": 8249,
      "æ±½è½¦": 8250,
      "ĠOrganization": 8251,
      "ulf": 8252,
      "ĠAtlantic": 8253,
      "while": 8254,
      "Ġpeak": 8255,
      "Ġvo": 8256,
      "Ġvoice": 8257,
      "Ġjustice": 8258,
      "aban": 8259,
      "Im": 8260,
      "Ġproj": 8261,
      "jur": 8262,
      "Ġinjur": 8263,
      "Ġclar": 8264,
      "UL": 8265,
      "ĠLearning": 8266,
      "Ġencounter": 8267,
      "åĸĦ": 8268,
      "Ġwaste": 8269,
      "Ġpull": 8270,
      "arte": 8271,
      "å¾ħ": 8272,
      "å¯Ĩ": 8273,
      "asÄ±na": 8274,
      "Ġ185": 8275,
      "ĠCommunity": 8276,
      "Ġuniversity": 8277,
      "Ġshap": 8278,
      "ĠRad": 8279,
      "Ġhunt": 8280,
      "åĪ°äºĨ": 8281,
      "angu": 8282,
      "anguage": 8283,
      "ĠKunden": 8284,
      "ĠKore": 8285,
      "çĩ": 8286,
      "Ġheard": 8287,
      "Ġheute": 8288,
      "ĠIN": 8289,
      "Ġtelefon": 8290,
      "ĠhÄ±z": 8291,
      "manÄ±z": 8292,
      "Sh": 8293,
      "Sp": 8294,
      "last": 8295,
      "lastname": 8296,
      "Ġche": 8297,
      "ĠMartin": 8298,
      "Ġfolg": 8299,
      "âĢĶâĢĶ": 8300,
      "çºª": 8301,
      "Ġreached": 8302,
      "æĶ¿çŃĸ": 8303,
      "Ġcoal": 8304,
      "ä¸¥": 8305,
      "Ġsettlement": 8306,
      "Ġkol": 8307,
      "Ġkolay": 8308,
      "ĠÃ¼Ã§": 8309,
      "ĠChristians": 8310,
      "acias": 8311,
      "Ġtoxic": 8312,
      "Ġrank": 8313,
      "ÃŃsticas": 8314,
      "ĠStrateg": 8315,
      "æĶ¯æĮģ": 8316,
      "Ġpow": 8317,
      "Ġpros": 8318,
      "innen": 8319,
      "çķ¥": 8320,
      "æŃ¢": 8321,
      "lÃ¤r": 8322,
      "ĠerklÃ¤r": 8323,
      "ĠbaÄŁlÄ±": 8324,
      "Ġpersist": 8325,
      "ĠpersÃ¶n": 8326,
      "Ġscientist": 8327,
      "Ġflag": 8328,
      "haus": 8329,
      "èĥ½å¤Ł": 8330,
      "Ġintake": 8331,
      "Ġentry": 8332,
      "wert": 8333,
      "åĿĩ": 8334,
      "ellt": 8335,
      "gestellt": 8336,
      "ĠLeg": 8337,
      "emiz": 8338,
      "Ġejerc": 8339,
      "Ġsan": 8340,
      "Ġmanaged": 8341,
      "Ġdamaged": 8342,
      "Ġengaged": 8343,
      "Ġnokt": 8344,
      "phone": 8345,
      "ĠFrancisco": 8346,
      "Ġbranches": 8347,
      "Ġbranch": 8348,
      "Ġunderg": 8349,
      "ĠsituaciÃ³n": 8350,
      "ameter": 8351,
      "Ġdiameter": 8352,
      "Ġrat": 8353,
      "Ġratio": 8354,
      "ĠUnder": 8355,
      "Ġeffectiveness": 8356,
      "atient": 8357,
      "ĠParliament": 8358,
      "Ġevolved": 8359,
      "Ġmentioned": 8360,
      "Ġremained": 8361,
      "Ġcombined": 8362,
      "Ġverdad": 8363,
      "ĠunterstÃ¼tz": 8364,
      "unft": 8365,
      "è»": 8366,
      "Ã¡gin": 8367,
      "Ġhop": 8368,
      "Ġ1950": 8369,
      "Ġvard": 8370,
      "ĠvardÄ±r": 8371,
      "offee": 8372,
      "âĢŀ": 8373,
      "Ġ75": 8374,
      "Ġpermite": 8375,
      "Ġstret": 8376,
      "Ġstreet": 8377,
      "Ġstretch": 8378,
      "Ġnive": 8379,
      "Ġnivel": 8380,
      "Ġziyaret": 8381,
      "Ġindigenous": 8382,
      "Ġrac": 8383,
      "Ġvac": 8384,
      "Ġseine": 8385,
      "Ġmarine": 8386,
      "ubb": 8387,
      "Ġwound": 8388,
      "Ġpound": 8389,
      "Ġlocations": 8390,
      "Ġturned": 8391,
      "Ġpowers": 8392,
      "ĠFilm": 8393,
      "ĠDistrict": 8394,
      "ĠmÃ¼ss": 8395,
      "ĠmÃ¼ssen": 8396,
      "Ã¶s": 8397,
      "Ab": 8398,
      "About": 8399,
      "Ġcolors": 8400,
      "utr": 8401,
      "utrition": 8402,
      "Ġmeasurements": 8403,
      "arrow": 8404,
      "Ġnarrow": 8405,
      "Ġdecreased": 8406,
      "Ġartific": 8407,
      "Ġartificial": 8408,
      "Ġintervention": 8409,
      "Ġinteraction": 8410,
      "Ġcert": 8411,
      "ĠClub": 8412,
      "äºī": 8413,
      "iatric": 8414,
      "Ġfertil": 8415,
      "Ġformed": 8416,
      "éĨ": 8417,
      "ç»Ĩ": 8418,
      "ç»Ī": 8419,
      "åĪĿ": 8420,
      "ĠVictor": 8421,
      "ired": 8422,
      "Ġacquired": 8423,
      "Ġnacional": 8424,
      "ĠNacional": 8425,
      "Ġsuitable": 8426,
      "æī¿": 8427,
      "Ġworse": 8428,
      "Ġborder": 8429,
      "ischer": 8430,
      "Ġnarr": 8431,
      "ĠWindows": 8432,
      "tirm": 8433,
      "ĠwÃ¼r": 8434,
      "Ġbehaviors": 8435,
      "Ġoutbreak": 8436,
      "Ġtranspar": 8437,
      "issen": 8438,
      "Ġfol": 8439,
      "Ġfelt": 8440,
      "down": 8441,
      "Ġabund": 8442,
      "Ġaband": 8443,
      "Ġabandon": 8444,
      "andom": 8445,
      "Ġrandom": 8446,
      "Ġfinden": 8447,
      "ĠAdministration": 8448,
      "Ġinjury": 8449,
      "Ġinput": 8450,
      "Ġmeant": 8451,
      "éĥ¨åĪĨ": 8452,
      "Ġsistema": 8453,
      "Ġcarr": 8454,
      "embr": 8455,
      "Ġadvert": 8456,
      "Ġvariables": 8457,
      "ĠsÄ±k": 8458,
      "Ġsn": 8459,
      "Ġaspects": 8460,
      "Ġstone": 8461,
      "Ġcovered": 8462,
      "OC": 8463,
      "Comp": 8464,
      "grund": 8465,
      "Ġekonom": 8466,
      "Ġ2019": 8467,
      "åİ¿": 8468,
      "åı²": 8469,
      "ĠÃ¶nc": 8470,
      "äººæ°ĳ": 8471,
      "inary": 8472,
      "Ġcontemporary": 8473,
      "èĢĮä¸Ķ": 8474,
      "Ä±lan": 8475,
      "Ġcatch": 8476,
      "è¡£": 8477,
      "ĠTimes": 8478,
      "Ġextr": 8479,
      "IG": 8480,
      "ĠPrinc": 8481,
      "ĠMississ": 8482,
      "ĠMississipp": 8483,
      "Ġdoctr": 8484,
      "Ġaunque": 8485,
      "ĠBeh": 8486,
      "Para": 8487,
      "gre": 8488,
      "grees": 8489,
      "Ġdegrees": 8490,
      "issenschaft": 8491,
      "Ġrom": 8492,
      "lock": 8493,
      "ueblo": 8494,
      "Ġgenes": 8495,
      "ociedad": 8496,
      "Ġdedicated": 8497,
      "Ġord": 8498,
      "Ġordinary": 8499,
      "ued": 8500,
      "Ġdivided": 8501,
      "Ġprueb": 8502,
      "Ġpron": 8503,
      "oon": 8504,
      "Ġbridge": 8505,
      "ridge": 8506,
      "ĠCambridge": 8507,
      "Ġolur": 8508,
      "Ġtur": 8509,
      "Now": 8510,
      "luss": 8511,
      "draw": 8512,
      "Ġpregunt": 8513,
      "Ġber": 8514,
      "Ġbile": 8515,
      "Ġpromp": 8516,
      "ĠMal": 8517,
      "prof": 8518,
      "Ġcertific": 8519,
      "åıĳçİ°": 8520,
      "Â©": 8521,
      "Ġunterschied": 8522,
      "Figure": 8523,
      "Ġdeutsch": 8524,
      "Ġmercado": 8525,
      "ensus": 8526,
      "Das": 8527,
      "ĠConvention": 8528,
      "æ´²": 8529,
      "Ä°N": 8530,
      "ĠAN": 8531,
      "Es": 8532,
      "ĠBereich": 8533,
      "Ġgod": 8534,
      "Ġsecondary": 8535,
      "ĠRel": 8536,
      "ĠAngel": 8537,
      "åľ¨çº¿": 8538,
      "unn": 8539,
      "Ġpun": 8540,
      "Ġpunish": 8541,
      "Ġgrown": 8542,
      "erb": 8543,
      "ä¸įåĲĮ": 8544,
      "Ġchrom": 8545,
      "66": 8546,
      "Ġdigest": 8547,
      "Ġremind": 8548,
      "èĪ¬": 8549,
      "Ġactividades": 8550,
      "æŁĲ": 8551,
      "upt": 8552,
      "aupt": 8553,
      "cret": 8554,
      "ĠÃ¼cret": 8555,
      "Ġlec": 8556,
      "Ġvuel": 8557,
      "ĠMin": 8558,
      "At": 8559,
      "Ġort": 8560,
      "Ġortaya": 8561,
      "Ġargued": 8562,
      "ĠMÃ¶glichkeit": 8563,
      "ulated": 8564,
      "Ġabsolute": 8565,
      "Ġnations": 8566,
      "Ġsuggests": 8567,
      "Ġ400": 8568,
      "Ġreactions": 8569,
      "olf": 8570,
      "Ġpet": 8571,
      "ĠLink": 8572,
      "ĠSpain": 8573,
      "ained": 8574,
      "ĠRoyal": 8575,
      "Ġcommit": 8576,
      "ä¸ĵä¸ļ": 8577,
      "IA": 8578,
      "LE": 8579,
      "orough": 8580,
      "Ġthorough": 8581,
      "Ġkabul": 8582,
      "Ġkm": 8583,
      "Ġdetailed": 8584,
      "eces": 8585,
      "ieces": 8586,
      "Ġpieces": 8587,
      "ĠFurthermore": 8588,
      "Ġnun": 8589,
      "itudes": 8590,
      "Ġprotest": 8591,
      "Ġhydro": 8592,
      "Ġsubstantial": 8593,
      "Ġanticip": 8594,
      "ĠPolit": 8595,
      "aÃŁ": 8596,
      "Ġvariable": 8597,
      "Ġarbeit": 8598,
      "åĸľæ¬¢": 8599,
      "Ġmedi": 8600,
      "Ġcub": 8601,
      "Ġgracias": 8602,
      "Ġdecide": 8603,
      "antwort": 8604,
      "ĠZusammen": 8605,
      "Ġayuda": 8606,
      "ĠÃ§Ã¶zÃ¼m": 8607,
      "usband": 8608,
      "Ġhusband": 8609,
      "Ġfaster": 8610,
      "Ġiht": 8611,
      "Ġihtiy": 8612,
      "Ġanterior": 8613,
      "Ġdisfr": 8614,
      "Ġsomewhat": 8615,
      "Ġtank": 8616,
      "abilecek": 8617,
      "åı¦": 8618,
      "Ġleaving": 8619,
      "erne": 8620,
      "ĠaraÅŁtÄ±r": 8621,
      "Ġnombre": 8622,
      "Ġkomp": 8623,
      "Ġkle": 8624,
      "Ġklein": 8625,
      "Ġble": 8626,
      "Ġbleib": 8627,
      "lements": 8628,
      "ATION": 8629,
      "Ä±klarÄ±": 8630,
      "kÃ¼": 8631,
      "Ã¼nkÃ¼": 8632,
      "Ġofficials": 8633,
      "Ġpartner": 8634,
      "ĠGeschicht": 8635,
      "DF": 8636,
      "Ġmodified": 8637,
      "ĠWenn": 8638,
      "Ġdramatic": 8639,
      "ga": 8640,
      "Ġentwick": 8641,
      "Ġfiles": 8642,
      "Ġinflamm": 8643,
      "ĠPap": 8644,
      "Ġliberal": 8645,
      "ĠdolayÄ±": 8646,
      "Ġwarming": 8647,
      "ĠRecht": 8648,
      "lying": 8649,
      "æĵį": 8650,
      "ĠChristmas": 8651,
      "Ġemotional": 8652,
      "ĠpÃ¡gin": 8653,
      "Ġpul": 8654,
      "Ġprepared": 8655,
      "Ġexperienced": 8656,
      "Ġgrew": 8657,
      "Ġmetab": 8658,
      "Ġmetabol": 8659,
      "ĠOl": 8660,
      "Ã³g": 8661,
      "olÃ³g": 8662,
      "ĠKingdom": 8663,
      "Ġultimate": 8664,
      "Ġlearned": 8665,
      "ĠÃ¶dem": 8666,
      "Ġrelacion": 8667,
      "Ġeben": 8668,
      "Ġeing": 8669,
      "Ġagents": 8670,
      "Ġaggress": 8671,
      "Ġinstitutions": 8672,
      "kehr": 8673,
      "vi": 8674,
      "Ġedilen": 8675,
      "Ġdent": 8676,
      "Ġdentro": 8677,
      "Ġcarefully": 8678,
      "Ġnedeniyle": 8679,
      "Ġcouple": 8680,
      "Ġvast": 8681,
      "Ġhoriz": 8682,
      "Ġhorse": 8683,
      "from": 8684,
      "Ġcriter": 8685,
      "Ġconstitut": 8686,
      "ĠmÃ¼ÅŁter": 8687,
      "ehm": 8688,
      "ĠdeÄŁild": 8689,
      "ĠBuild": 8690,
      "Ġmusical": 8691,
      "QuÃ©": 8692,
      "Ġstick": 8693,
      "Ġstation": 8694,
      "throp": 8695,
      "79": 8696,
      "ĠPero": 8697,
      "èį¯": 8698,
      "Ġunless": 8699,
      "Ġagua": 8700,
      "Ġjug": 8701,
      "Ġjuego": 8702,
      "Ġluego": 8703,
      "ĠMassach": 8704,
      "Ġpregnant": 8705,
      "ç«¯": 8706,
      "Ġfrequent": 8707,
      "Ġclient": 8708,
      "Ã¼c": 8709,
      "Ġgelen": 8710,
      "ĠWohn": 8711,
      "John": 8712,
      "æŀĲ": 8713,
      "Ġcharged": 8714,
      "Ġmediante": 8715,
      "Ġhombre": 8716,
      "Ġing": 8717,
      "Ġingred": 8718,
      "Ġingredient": 8719,
      "Ġtec": 8720,
      "Ġtecn": 8721,
      "Ġkontrol": 8722,
      "Ġreducing": 8723,
      "ĠItaly": 8724,
      "larÄ±ndan": 8725,
      "Ġcheap": 8726,
      "Ġgemacht": 8727,
      "ÄŁraf": 8728,
      "ĠyÃ¼zde": 8729,
      "otherap": 8730,
      "ĠTestament": 8731,
      "åįĥ": 8732,
      "alle": 8733,
      "Ġparalle": 8734,
      "Ġparallel": 8735,
      "Ġdescribes": 8736,
      "Ġmagaz": 8737,
      "çĶ¨æĪ·": 8738,
      "Ġdens": 8739,
      "Ġdensity": 8740,
      "Ġdisaster": 8741,
      "Ġpharm": 8742,
      "Ġphosph": 8743,
      "Ġrecept": 8744,
      "ĠBak": 8745,
      "Ã¼kÃ¼m": 8746,
      "Ã§Ã¼k": 8747,
      "Ã¼Ã§Ã¼k": 8748,
      "lÃ¼k": 8749,
      "éĽ»": 8750,
      "ĠOper": 8751,
      "ĠOut": 8752,
      "ĠOk": 8753,
      "ĠRights": 8754,
      "Ġfamilia": 8755,
      "åĿļ": 8756,
      "Note": 8757,
      "Ġvote": 8758,
      "Ġdisting": 8759,
      "Ġdistingu": 8760,
      "Ġdistinguish": 8761,
      "Ġourselves": 8762,
      "Ġharmful": 8763,
      "Ġoldu": 8764,
      "Ġvulnerable": 8765,
      "Ġvirtually": 8766,
      "malÄ±dÄ±r": 8767,
      "Ġoport": 8768,
      "Ġoportun": 8769,
      "åĲĪä½ľ": 8770,
      "ĠÃ¶l": 8771,
      "ä¹ħ": 8772,
      "å¸®": 8773,
      "awai": 8774,
      "ĠdiseÃ±o": 8775,
      "Ġmolecules": 8776,
      "Ġrecommended": 8777,
      "Ġregulations": 8778,
      "Ġconcentration": 8779,
      "ĠtÃ¼r": 8780,
      "afÃ¼r": 8781,
      "ĠdafÃ¼r": 8782,
      "ĠteÅŁ": 8783,
      "Ġprogramm": 8784,
      "ĠPhilipp": 8785,
      "Ġappreci": 8786,
      "Ġbelieves": 8787,
      "tschaft": 8788,
      "Ġpretty": 8789,
      "Ġdarauf": 8790,
      "Ġlegislation": 8791,
      "Ġdepict": 8792,
      "Ġunserer": 8793,
      "Ġancak": 8794,
      "è´¢": 8795,
      "è´Ł": 8796,
      "orum": 8797,
      "ĠColor": 8798,
      "ĠServices": 8799,
      "Ġpresented": 8800,
      "Ġqued": 8801,
      "Ġsiguiente": 8802,
      "urance": 8803,
      "Ġinsurance": 8804,
      "Ġelectro": 8805,
      "ĠBew": 8806,
      "Ġmostly": 8807,
      "adÄ±ÄŁÄ±": 8808,
      "umber": 8809,
      "ĠQualitÃ¤t": 8810,
      "ticas": 8811,
      "ĠalgÃºn": 8812,
      "Ġroute": 8813,
      "ĠProzent": 8814,
      "çĵ": 8815,
      "Ġphysician": 8816,
      "egu": 8817,
      "Ġconsegu": 8818,
      "Ġabsence": 8819,
      "Ġautonom": 8820,
      "Ġ36": 8821,
      "Ġcomercial": 8822,
      "ĠStudy": 8823,
      "Ġwire": 8824,
      "æł¹æį®": 8825,
      "Ġcambio": 8826,
      "ĠBefore": 8827,
      "Ġconfer": 8828,
      "Ġconference": 8829,
      "izing": 8830,
      "Ġfields": 8831,
      "Ġurg": 8832,
      "Ġphilosophy": 8833,
      "Ġunderlying": 8834,
      "çķ¶": 8835,
      "Ġearli": 8836,
      "Ġearliest": 8837,
      "ĠColorado": 8838,
      "èĤī": 8839,
      "isten": 8840,
      "Ġdetection": 8841,
      "Ġorient": 8842,
      "ĠArg": 8843,
      "ĠArgent": 8844,
      "ĠArgentina": 8845,
      "Ġpoem": 8846,
      "ĠihtiyaÃ§": 8847,
      "Ġinvas": 8848,
      "ultural": 8849,
      "Ġresemb": 8850,
      "ĠJackson": 8851,
      "Ġdoch": 8852,
      "ĠAngeb": 8853,
      "geben": 8854,
      "Ġfinished": 8855,
      "Ġerh": 8856,
      "æĹı": 8857,
      "Ġconfidence": 8858,
      "Ġsurrounding": 8859,
      "Ġdefense": 8860,
      "ĠCollection": 8861,
      "eth": 8862,
      "Ġteeth": 8863,
      "Ġdomain": 8864,
      "æĪĲä¸º": 8865,
      "è´§": 8866,
      "Ø§": 8867,
      "ountry": 8868,
      "ĠMassachus": 8869,
      "ĠMassachusett": 8870,
      "Ġregarding": 8871,
      "Ã¤hl": 8872,
      "Ã¼hl": 8873,
      "lagen": 8874,
      "Ġsetting": 8875,
      "ĠCommon": 8876,
      "Ġsteps": 8877,
      "ĠErfahr": 8878,
      "Ġpel": 8879,
      "ĠpelÃŃcul": 8880,
      "Ġpens": 8881,
      "Ġlabel": 8882,
      "çļĦäºº": 8883,
      "æ²³": 8884,
      "IP": 8885,
      "è«": 8886,
      "Ġespacio": 8887,
      "Ġgift": 8888,
      "Ġhorm": 8889,
      "CH": 8890,
      "Fr": 8891,
      "Ġsignificance": 8892,
      "ĠCoast": 8893,
      "Ġhoras": 8894,
      "iyors": 8895,
      "Ġstrict": 8896,
      "eness": 8897,
      "wareness": 8898,
      "Ġconnected": 8899,
      "right": 8900,
      "Ã³r": 8901,
      "stance": 8902,
      "Ġsubstance": 8903,
      "Ġhelpful": 8904,
      "Ġcriteria": 8905,
      "acaÄŁÄ±": 8906,
      "é²": 8907,
      "è®²": 8908,
      "Ġobserve": 8909,
      "lerimiz": 8910,
      "Ġagre": 8911,
      "raq": 8912,
      "Ġpunto": 8913,
      "Ġpil": 8914,
      "èī¯": 8915,
      "åī¯": 8916,
      "Ġdisfrut": 8917,
      "åĬŁèĥ½": 8918,
      "aking": 8919,
      "Ġresid": 8920,
      "Ġexplanation": 8921,
      "Ġvalley": 8922,
      "schluss": 8923,
      "åªĴ": 8924,
      "å·®": 8925,
      "æŃ¦": 8926,
      "Ġtropical": 8927,
      "Ġsubm": 8928,
      "ilecek": 8929,
      "ham": 8930,
      "trucciÃ³n": 8931,
      "ithm": 8932,
      "Ġinjuries": 8933,
      "ĠGes": 8934,
      "Ġtroops": 8935,
      "ĠWood": 8936,
      "Ġconsistent": 8937,
      "xiety": 8938,
      "eff": 8939,
      "ĠJeff": 8940,
      "ĠJefferson": 8941,
      "ĠEÄŁ": 8942,
      "yst": 8943,
      "Ġcryst": 8944,
      "ĠRome": 8945,
      "ĠHome": 8946,
      "ĠBrown": 8947,
      "Ġbrown": 8948,
      "graf": 8949,
      "ä»»ä½ķ": 8950,
      "Ġpurchased": 8951,
      "ĠBoth": 8952,
      "ĠbaÅŁlay": 8953,
      "è®¡åĪĴ": 8954,
      "ips": 8955,
      "Ġworkshop": 8956,
      "Ġorbit": 8957,
      "ancer": 8958,
      "ĠCancer": 8959,
      "Ġinsight": 8960,
      "ĠgerÃ§ekleÅŁtir": 8961,
      "asino": 8962,
      "ĠCasino": 8963,
      "Ġjunto": 8964,
      "weg": 8965,
      "Ġdinero": 8966,
      "ä½ľä¸º": 8967,
      "Ġrespir": 8968,
      "Ġrespecto": 8969,
      "Ġrespuest": 8970,
      "Ġrespiratory": 8971,
      "ĠwÃ¼rde": 8972,
      "itos": 8973,
      "wards": 8974,
      "Ġfasc": 8975,
      "Wir": 8976,
      "éľĢæ±Ĥ": 8977,
      "ĠGrand": 8978,
      "ĠProjekt": 8979,
      "Ġvolun": 8980,
      "Ġvolunte": 8981,
      "Ġconstit": 8982,
      "Ġconj": 8983,
      "Ġcond": 8984,
      "Ġcondiciones": 8985,
      "Ġdieses": 8986,
      "Ġidentification": 8987,
      "uros": 8988,
      "Ġturb": 8989,
      "Ġtum": 8990,
      "Ġadequate": 8991,
      "Ġsong": 8992,
      "azÃ³n": 8993,
      "ç»Ħç»": 8994,
      "ç»Ħç»ĩ": 8995,
      "Ġreturned": 8996,
      "Ġmuse": 8997,
      "Ġmuseum": 8998,
      "Ġvot": 8999,
      "ĠHot": 9000,
      "ĠHotel": 9001,
      "Ã¤re": 9002,
      "reas": 9003,
      "Ġexercises": 9004,
      "rows": 9005,
      "Ġslowly": 9006,
      "Ã½": 9007,
      "ika": 9008,
      "ellik": 9009,
      "ellikle": 9010,
      "overeign": 9011,
      "Ġcomenz": 9012,
      "åħŃ": 9013,
      "ç¬¬äºĮ": 9014,
      "ĠSeite": 9015,
      "Ġconsiderable": 9016,
      "ĠSecretary": 9017,
      "éķ·": 9018,
      "ĠyÃ¶nelik": 9019,
      "Ġkommen": 9020,
      "Ġki": 9021,
      "Phone": 9022,
      "ĠaraÃ§": 9023,
      "ĠkaÃ§": 9024,
      "Ġello": 9025,
      "Ġgrat": 9026,
      "æį¢": 9027,
      "Ġdefect": 9028,
      "Ġrecht": 9029,
      "ompaÃ±": 9030,
      "ĠacompaÃ±": 9031,
      "Ġfunctions": 9032,
      "tomach": 9033,
      "æ¯Ķè¾ĥ": 9034,
      "Ġestablec": 9035,
      "åĪĨæŀĲ": 9036,
      "ĠCal": 9037,
      "Ġgerne": 9038,
      "maz": 9039,
      "Ġsigns": 9040,
      "Ġobtained": 9041,
      "Ġcalc": 9042,
      "Ġcalcium": 9043,
      "Ð°": 9044,
      "Ðµ": 9045,
      "Ġautomatically": 9046,
      "Ġdramatically": 9047,
      "çĻ»": 9048,
      "venue": 9049,
      "Ġconven": 9050,
      "UT": 9051,
      "æľ¨": 9052,
      "ĠIraq": 9053,
      "Ġlieg": 9054,
      "Ġexamine": 9055,
      "ĠEspaÃ±a": 9056,
      "Ġyapmak": 9057,
      "Ġpalab": 9058,
      "Ġepid": 9059,
      "Ġepidem": 9060,
      "Ġalter": 9061,
      "Ġelectron": 9062,
      "çĭ¬": 9063,
      "lauf": 9064,
      "Ġmarch": 9065,
      "Ġcounty": 9066,
      "Ġsag": 9067,
      "ç½ĳç»": 9068,
      "ç½ĳç»ľ": 9069,
      "Ġnada": 9070,
      "Ġconclusion": 9071,
      "ĠVerfÃ¼g": 9072,
      "æ¶Īè´¹": 9073,
      "Ġgeeign": 9074,
      "Ġthreaten": 9075,
      "Ġnecesario": 9076,
      "Ġsteht": 9077,
      "å³": 9078,
      "åĮħæĭ": 9079,
      "åĮħæĭ¬": 9080,
      "ĠResources": 9081,
      "Ġclasses": 9082,
      "Ġperception": 9083,
      "Ġradical": 9084,
      "imos": 9085,
      "Ġkonnte": 9086,
      "Ġunit": 9087,
      "Ġkit": 9088,
      "Ġnit": 9089,
      "Ġnitrogen": 9090,
      "Ġnunca": 9091,
      "Ġkam": 9092,
      "Ġkaps": 9093,
      "Ġkapsam": 9094,
      "Ġmaps": 9095,
      "ä»·æł¼": 9096,
      "Ġmathematical": 9097,
      "ĠvehÃŃcul": 9098,
      "Ġcamin": 9099,
      "teroid": 9100,
      "ĠBund": 9101,
      "ĠBundes": 9102,
      "Ġletzten": 9103,
      "theast": 9104,
      "Ġready": 9105,
      "Ġgenerated": 9106,
      "Ġsides": 9107,
      "Ġstomach": 9108,
      "igung": 9109,
      "ĠArtic": 9110,
      "ticos": 9111,
      "Ġencuentra": 9112,
      "ĠMÃ¼dÃ¼r": 9113,
      "æ³¢": 9114,
      "iting": 9115,
      "dir": 9116,
      "dÃ¼ÄŁ": 9117,
      "Ġdrinking": 9118,
      "è¯»": 9119,
      "Ġroof": 9120,
      "Ġflowers": 9121,
      "ĠData": 9122,
      "åķĬ": 9123,
      "Ġdestac": 9124,
      "anced": 9125,
      "Ġsubsequent": 9126,
      "Ġyeniden": 9127,
      "Ġinterface": 9128,
      "Ġprospect": 9129,
      "å¯¦": 9130,
      "Ġterror": 9131,
      "tor": 9132,
      "äºĨä¸Ģ": 9133,
      "urricane": 9134,
      "Ġhardware": 9135,
      "Ġhorizont": 9136,
      "ĠNutz": 9137,
      "Ġtrig": 9138,
      "Ġtrigger": 9139,
      "ĠNews": 9140,
      "ĠForce": 9141,
      "Ġtras": 9142,
      "Ġadj": 9143,
      "Ġteng": 9144,
      "teil": 9145,
      "äººåĳĺ": 9146,
      "ä»£è¡¨": 9147,
      "éĶĻ": 9148,
      "é¸": 9149,
      "ĠsektÃ¶r": 9150,
      "2000": 9151,
      "éĤ£ä¹Ī": 9152,
      "Ġbabies": 9153,
      "Ġrailroad": 9154,
      "Ġprep": 9155,
      "Ġprepare": 9156,
      "ĠEnde": 9157,
      "Ġpsychological": 9158,
      "Ġrecommendations": 9159,
      "miÅŁtir": 9160,
      "Ġgenau": 9161,
      "avour": 9162,
      "ĠhÄ±zlÄ±": 9163,
      "ĠChange": 9164,
      "Ġatom": 9165,
      "aneously": 9166,
      "fford": 9167,
      "fre": 9168,
      "free": 9169,
      "ĠThree": 9170,
      "è»Ĭ": 9171,
      "Ġquar": 9172,
      "acaÄŁÄ±nÄ±": 9173,
      "çīĽ": 9174,
      "Ã¶rper": 9175,
      "Ġ65": 9176,
      "Ġsucceed": 9177,
      "å¤«": 9178,
      "å¤®": 9179,
      "Ġinfluenz": 9180,
      "Ġgender": 9181,
      "Ġgemeins": 9182,
      "Ġgobierno": 9183,
      "Ġaware": 9184,
      "Ġweap": 9185,
      "Ġweapons": 9186,
      "Because": 9187,
      "Ġdemonstrated": 9188,
      "ĠHaus": 9189,
      "å¯¹äºİ": 9190,
      "ashion": 9191,
      "ĠÎ": 9192,
      "Ġearthquake": 9193,
      "Ġquot": 9194,
      "Ġnegot": 9195,
      "Ġsilver": 9196,
      "Ġanalyz": 9197,
      "Ġsuccessfully": 9198,
      "ĠAssemb": 9199,
      "Ġlifetim": 9200,
      "éĢ²": 9201,
      "Ġmonitoring": 9202,
      "Ġvictory": 9203,
      "bert": 9204,
      "sure": 9205,
      "Ġensure": 9206,
      "ilmektedir": 9207,
      "Ġdefic": 9208,
      "Ġadopted": 9209,
      "une": 9210,
      "leme": 9211,
      "Ġallem": 9212,
      "Ġemployment": 9213,
      "ilities": 9214,
      "ç´§": 9215,
      "ç´¢": 9216,
      "Ã¡nd": 9217,
      "des": 9218,
      "Ġauto": 9219,
      "ĠAuto": 9220,
      "Ġdaz": 9221,
      "Ġdazu": 9222,
      "Ġresol": 9223,
      "Ġkaynak": 9224,
      "ĠConservation": 9225,
      "å®³": 9226,
      "Ġoyn": 9227,
      "ä»ĺ": 9228,
      "weight": 9229,
      "Ġlinks": 9230,
      "ç©¿": 9231,
      "æĭ¿": 9232,
      "èĥ½åĬĽ": 9233,
      "ĠPlay": 9234,
      "åĲ¦": 9235,
      "ĠLeben": 9236,
      "Ġgeben": 9237,
      "Ġgall": 9238,
      "Ġgente": 9239,
      "Ġseguir": 9240,
      "Ġsuf": 9241,
      "Ġanalog": 9242,
      "Ġexpres": 9243,
      "program": 9244,
      "Ġenvironments": 9245,
      "tric": 9246,
      "trateg": 9247,
      "ĠtecnologÃŃa": 9248,
      "Ġmater": 9249,
      "Ġhouses": 9250,
      "Ġstruggle": 9251,
      "yth": 9252,
      "Ġaudio": 9253,
      "Ġfract": 9254,
      "Ġstars": 9255,
      "faces": 9256,
      "Ġsurfaces": 9257,
      "Ġoffered": 9258,
      "çĶ»": 9259,
      "luk": 9260,
      "ĠfÃ¡c": 9261,
      "ĠfÃ¡cil": 9262,
      "Ġliteracy": 9263,
      "Ġseed": 9264,
      "Ġselected": 9265,
      "Ġappeared": 9266,
      "ĠAmaz": 9267,
      "ĠAmazon": 9268,
      "ĠAmong": 9269,
      "ammal": 9270,
      "Ġmammal": 9271,
      "ĠAdam": 9272,
      "gov": 9273,
      "ĠNov": 9274,
      "Ġhang": 9275,
      "hang": 9276,
      "Ġgust": 9277,
      "Ġjur": 9278,
      "Ġrefers": 9279,
      "Ġframe": 9280,
      "Ä±ÄŁÄ±nda": 9281,
      "ĠAntarc": 9282,
      "recht": 9283,
      "Ġjue": 9284,
      "Ġjew": 9285,
      "Ġju": 9286,
      "Ġproyectos": 9287,
      "2017": 9288,
      "2011": 9289,
      "2018": 9290,
      "2013": 9291,
      "Ġneuen": 9292,
      "otics": 9293,
      "ĠScot": 9294,
      "ĠScotland": 9295,
      "Ġdemocracy": 9296,
      "amÄ±z": 9297,
      "Ġfellow": 9298,
      "Ġexperts": 9299,
      "Ġaliment": 9300,
      "fang": 9301,
      "Ġsuppos": 9302,
      "ĠDep": 9303,
      "çĽ´æİ¥": 9304,
      "gew": 9305,
      "rog": 9306,
      "Ġ32": 9307,
      "Ã§e": 9308,
      "ude": 9309,
      "Ġapar": 9310,
      "Ġdeclin": 9311,
      "ĠLanguage": 9312,
      "Ġmechanical": 9313,
      "åĨĻ": 9314,
      "æĹħæ¸¸": 9315,
      "Ġupd": 9316,
      "Ã©d": 9317,
      "ruption": 9318,
      "Ġflash": 9319,
      "Ġdevlet": 9320,
      "Ġminister": 9321,
      "æ¬§": 9322,
      "Ä±da": 9323,
      "Ġbeim": 9324,
      "ðŁ": 9325,
      "å¯Ł": 9326,
      "ĠTV": 9327,
      "ĠText": 9328,
      "print": 9329,
      "ĠOnly": 9330,
      "Ġsociet": 9331,
      "Ġov": 9332,
      "Health": 9333,
      "ĠChapter": 9334,
      "ĠMichig": 9335,
      "ramient": 9336,
      "æ¤": 9337,
      "ä»¤": 9338,
      "unter": 9339,
      "Ġcharacteristic": 9340,
      "Ġediyor": 9341,
      "æĽ´å¤ļ": 9342,
      "Ġslave": 9343,
      "Ġebenfall": 9344,
      "Ġpilot": 9345,
      "ĠThough": 9346,
      "Ġrivers": 9347,
      "ĠDigital": 9348,
      "char": 9349,
      "Ġdischar": 9350,
      "Ġempresa": 9351,
      "Ġempresas": 9352,
      "Ġkat": 9353,
      "éľ²": 9354,
      "----------------": 9355,
      "Ġpues": 9356,
      "ekte": 9357,
      "Ġfilter": 9358,
      "Ġmembr": 9359,
      "Ġpuntos": 9360,
      "ĠGovern": 9361,
      "Ġsettled": 9362,
      "Ġsegund": 9363,
      "ĠnÃ¤ch": 9364,
      "Ġzona": 9365,
      "Ġgluc": 9366,
      "Ġglucose": 9367,
      "uciones": 9368,
      "ĠPolic": 9369,
      "icide": 9370,
      "è¡Įä¸ļ": 9371,
      "ĠSteph": 9372,
      "unde": 9373,
      "ä»Ĭå¹´": 9374,
      "igual": 9375,
      "Ġigual": 9376,
      "ĠfotoÄŁraf": 9377,
      "ĠÃĩÃ¼nkÃ¼": 9378,
      "ĠEstados": 9379,
      "åħ´": 9380,
      "ĠBest": 9381,
      "Ġsimult": 9382,
      "Ġsimpl": 9383,
      "Ġsimultaneously": 9384,
      "bol": 9385,
      "Ġkingdom": 9386,
      "itors": 9387,
      "Ġeggs": 9388,
      "ĠMissour": 9389,
      "ĠiPhone": 9390,
      "Ġvalor": 9391,
      "Ġgez": 9392,
      "Ġformation": 9393,
      "ĠPortug": 9394,
      "AY": 9395,
      "ĠaÄŁ": 9396,
      "Ġworked": 9397,
      "oca": 9398,
      "aum": 9399,
      "Ġbond": 9400,
      "Ġcrime": 9401,
      "Ġcollected": 9402,
      "Ġindicated": 9403,
      "Ġracial": 9404,
      "Ġwet": 9405,
      "III": 9406,
      "Read": 9407,
[...]
