{
  "version": "1.0",
  "truncation": null,
  "padding": null,
  "added_tokens": [
    {
      "id": 0,
      "content": "<|endoftext|>",
      "single_word": false,
      "lstrip": false,
      "rstrip": false,
      "normalized": false,
      "special": true
    },
    {
      "id": 1,
      "content": "<|padding|>",
      "single_word": false,
      "lstrip": false,
      "rstrip": false,
      "normalized": false,
      "special": true
    }
  ],
  "normalizer": {
    "type": "NFC"
  },
  "pre_tokenizer": {
    "type": "ByteLevel",
    "add_prefix_space": false,
    "trim_offsets": true,
    "use_regex": true
  },
  "post_processor": {
    "type": "ByteLevel",
    "add_prefix_space": true,
    "trim_offsets": false,
    "use_regex": true
  },
  "decoder": {
    "type": "ByteLevel",
    "add_prefix_space": true,
    "trim_offsets": true,
    "use_regex": true
  },
  "model": {
    "type": "Unigram",
    "unk_id": null,
    "vocab": [
      [
        "<|endoftext|>",
        0.0
      ],
      [
        "<|padding|>",
        0.0
      ],
      [
        "Ġ",
        -2.3382402854542654
      ],
      [
        ",",
        -3.2857858722659934
      ],
      [
        "Ġthe",
        -3.2894209005790067
      ],
      [
        ".",
        -3.332276137165362
      ],
      [
        "s",
        -3.607706749357561
      ],
      [
        "Ġof",
        -3.774959706106874
      ],
      [
        "a",
        -3.775526956134271
      ],
      [
        "Ġand",
        -3.962490285657648
      ],
      [
        "Ċ",
        -4.006125426065029
      ],
      [
        "Ġto",
        -4.092320446297073
      ],
      [
        "Ġin",
        -4.347118708319073
      ],
      [
        "-",
        -4.556402453900514
      ],
      [
        "t",
        -4.679417756545032
      ],
      [
        "o",
        -4.752844343911846
      ],
      [
        "Ġis",
        -4.842608656071285
      ],
      [
        "n",
        -4.87377659552741
      ],
      [
        "Ġthat",
        -5.048496350993144
      ],
      [
        "i",
        -5.15433501554233
      ],
      [
        "Ġfor",
        -5.172388497854438
      ],
      [
        "(",
        -5.275412751294674
      ],
      [
        "d",
        -5.290369605002894
      ],
      [
        "e",
        -5.344157934445679
      ],
      [
        "Ġare",
        -5.455038218182615
      ],
      [
        "\"",
        -5.4869341175383965
      ],
      [
        "Ġwith",
        -5.496750946243621
      ],
      [
        "Ġbe",
        -5.599971781566897
      ],
      [
        "'",
        -5.6000401643508315
      ],
      [
        ":",
        -5.643229753528692
      ],
      [
        "Ġby",
        -5.649028191976193
      ],
      [
        "Ġor",
        -5.679285017395754
      ],
      [
        "ĠThe",
        -5.743247794638039
      ],
      [
        "Ġwas",
        -5.755429995261483
      ],
      [
        "Ġfrom",
        -5.785745902394682
      ],
      [
        ")",
        -5.790711553213152
      ],
      [
        "ing",
        -5.915091392478191
      ],
      [
        "Ġhave",
        -6.006410826378881
      ],
      [
        "Ġan",
        -6.069195461698358
      ],
      [
        "Ġnot",
        -6.0826934307338
      ],
      [
        "âĢĻ",
        -6.107162352486689
      ],
      [
        "Ġthis",
        -6.107559137036738
      ],
      [
        "The",
        -6.178313301433203
      ],
      [
        "I",
        -6.187458878844096
      ],
      [
        "Ġcan",
        -6.188918202171092
      ],
      [
        "Ġyou",
        -6.23871920402822
      ],
      [
        "A",
        -6.244770550475398
      ],
      [
        "Ġwhich",
        -6.29488425416463
      ],
      [
        "Ġtheir",
        -6.307231137400674
      ],
      [
        "y",
        -6.37512305880726
      ],
      [
        "ly",
        -6.381457267965342
      ],
      [
        ";",
        -6.412002886564226
      ],
      [
        "Ġthey",
        -6.441863355955427
      ],
      [
        "Ġhas",
        -6.448987999009113
      ],
      [
        "Ġwere",
        -6.45430306464845
      ],
      [
        "Ġmore",
        -6.460387935341757
      ],
      [
        "Ġwill",
        -6.4895501183355275
      ],
      [
        "f",
        -6.534773917572508
      ],
      [
        "Ġone",
        -6.548236887338755
      ],
      [
        "r",
        -6.568014404790189
      ],
      [
        "Ġbut",
        -6.580825977350239
      ],
      [
        "Ġhis",
        -6.6321505667158895
      ],
      [
        "Ġall",
        -6.674542743074502
      ],
      [
        "/",
        -6.679126151096037
      ],
      [
        "Ġother",
        -6.6868912307909785
      ],
      [
        "Ġalso",
        -6.706784462425306
      ],
      [
        "he",
        -6.707765431343397
      ],
      [
        "Ġwe",
        -6.729132241560425
      ],
      [
        "1",
        -6.753778390672123
      ],
      [
        "Ġyour",
        -6.756117338818003
      ],
      [
        "Ġabout",
        -6.758238946074531
      ],
      [
        ").",
        -6.803482991985845
      ],
      [
        "Ġwho",
        -6.833621333342284
      ],
      [
        "Ġthan",
        -6.849992703222803
      ],
      [
        "Ġbeen",
        -6.851263442984116
      ],
      [
        "Ġmay",
        -6.856808889374971
      ],
      [
        "ĠIn",
        -6.879391186042957
      ],
      [
        "Ġits",
        -6.88905217439199
      ],
      [
        "Ġhad",
        -6.890876965065896
      ],
      [
        "2",
        -6.899416621108093
      ],
      [
        "?",
        -6.921864597445968
      ],
      [
        "ĠâĢľ",
        -6.941113890679688
      ],
      [
        "S",
        -6.949149114526701
      ],
      [
        "Ġinto",
        -6.966092255960216
      ],
      [
        "m",
        -6.985966720651996
      ],
      [
        "Ġtime",
        -7.010253955857738
      ],
      [
        "Ġwhen",
        -7.018235862650844
      ],
      [
        "Ġwould",
        -7.019657931173473
      ],
      [
        "Ġthese",
        -7.022915171352176
      ],
      [
        "ĠIt",
        -7.048441827163478
      ],
      [
        "Ġsome",
        -7.057247754533943
      ],
      [
        "Ġpeople",
        -7.062319280791915
      ],
      [
        "Ġthere",
        -7.095730299821316
      ],
      [
        "Ġthem",
        -7.09796124491222
      ],
      [
        "Ġmost",
        -7.115524221498761
      ],
      [
        "Ġout",
        -7.116628845607902
      ],
      [
        "|",
        -7.1168510514100145
      ],
      [
        "Ġsuch",
        -7.11952567444496
      ],
      [
        "ĠThis",
        -7.1446234148542285
      ],
      [
        "Ġup",
        -7.1568477017486725
      ],
      [
        "Ġonly",
        -7.165298948010005
      ],
      [
        "Ġuse",
        -7.166098334155121
      ],
      [
        "Ġfirst",
        -7.192696049259752
      ],
      [
        "3",
        -7.213059797873786
      ],
      [
        "Ġtwo",
        -7.225958932111533
      ],
      [
        "Ġused",
        -7.248886009370578
      ],
      [
        "Ġnew",
        -7.251956111110603
      ],
      [
        "Ġover",
        -7.253665185670576
      ],
      [
        "Ġmany",
        -7.255066411899755
      ],
      [
        "Ġour",
        -7.268296029765175
      ],
      [
        "Ġwhat",
        -7.279061943182132
      ],
      [
        "),",
        -7.288561889141514
      ],
      [
        "Ġyears",
        -7.343213665275696
      ],
      [
        "us",
        -7.347454518996139
      ],
      [
        "Ġany",
        -7.384772551424618
      ],
      [
        "Ġhow",
        -7.39070079427626
      ],
      [
        "p",
        -7.393690885045489
      ],
      [
        "c",
        -7.405419962613831
      ],
      [
        "Ġcould",
        -7.428137219172816
      ],
      [
        "l",
        -7.437756199016441
      ],
      [
        "C",
        -7.442993849246946
      ],
      [
        "Ġwater",
        -7.4452506164021965
      ],
      [
        "h",
        -7.446710387891985
      ],
      [
        "Ġbetween",
        -7.448870779858288
      ],
      [
        "Ġthrough",
        -7.45757925191489
      ],
      [
        "Ġshould",
        -7.4629408464219456
      ],
      [
        "In",
        -7.466022624713009
      ],
      [
        "5",
        -7.476029872025507
      ],
      [
        "Ġlike",
        -7.476419720093443
      ],
      [
        "Ġwell",
        -7.477568279988526
      ],
      [
        "Ġsaid",
        -7.492613011966949
      ],
      [
        "4",
        -7.500408042387891
      ],
      [
        "Ġwork",
        -7.528924679649167
      ],
      [
        "Ġwhere",
        -7.537196373434439
      ],
      [
        "âĢĿ",
        -7.5438980338377295
      ],
      [
        "Ġafter",
        -7.588419941626503
      ],
      [
        "Ġmake",
        -7.591431389253618
      ],
      [
        "Ġthose",
        -7.600319994918722
      ],
      [
        "Ġbecause",
        -7.602205489168357
      ],
      [
        "D",
        -7.617856802544489
      ],
      [
        "Ġvery",
        -7.617929020714119
      ],
      [
        "Ġinformation",
        -7.646562006217323
      ],
      [
        "Ġsystem",
        -7.67726081929125
      ],
      [
        "Ġeven",
        -7.682332339994797
      ],
      [
        "Ġworld",
        -7.6962308459284845
      ],
      [
        "Ġeach",
        -7.696505316044137
      ],
      [
        "th",
        -7.70070737519262
      ],
      [
        "Ġway",
        -7.709131399765393
      ],
      [
        "Ġfound",
        -7.710093952071814
      ],
      [
        "Ġher",
        -7.715716618269354
      ],
      [
        "Ġbeing",
        -7.724041707616291
      ],
      [
        "Ġchildren",
        -7.727867114686287
      ],
      [
        "Ġmade",
        -7.72968622205126
      ],
      [
        "Ġmuch",
        -7.736439096996211
      ],
      [
        "Ġduring",
        -7.740476398327489
      ],
      [
        "Ġsame",
        -7.755093074632313
      ],
      [
        "ĠHe",
        -7.762036692946992
      ],
      [
        "Ġlife",
        -7.762756044308727
      ],
      [
        "Ġyear",
        -7.766487661749592
      ],
      [
        "in",
        -7.768232852076018
      ],
      [
        "Ġhigh",
        -7.773216971350415
      ],
      [
        "Ġunder",
        -7.782553413723514
      ],
      [
        "Ġpart",
        -7.784764021786401
      ],
      [
        "U",
        -7.79938628427443
      ],
      [
        "Ġjust",
        -7.800927552516892
      ],
      [
        "T",
        -7.802832170415629
      ],
      [
        "the",
        -7.810886037145252
      ],
      [
        "Ġhelp",
        -7.813797082168005
      ],
      [
        "Ġsee",
        -7.822253564682109
      ],
      [
        "Ġdifferent",
        -7.823956769334357
      ],
      [
        "b",
        -7.825414279767308
      ],
      [
        "Ġneed",
        -7.8264428058556845
      ],
      [
        "Ġboth",
        -7.829393739765026
      ],
      [
        "6",
        -7.837989188071837
      ],
      [
        "Ġun",
        -7.854171764918519
      ],
      [
        "Ġstudy",
        -7.854910185566187
      ],
      [
        "Ġbefore",
        -7.85646231822524
      ],
      [
        "âĢĶ",
        -7.860906921243037
      ],
      [
        "Ġnumber",
        -7.86656425020923
      ],
      [
        "%",
        -7.867467889506107
      ],
      [
        "g",
        -7.868773897464424
      ],
      [
        "||",
        -7.878279108463696
      ],
      [
        "Ġimportant",
        -7.881156763018165
      ],
      [
        "ĠThey",
        -7.884422387952856
      ],
      [
        "Ġstudents",
        -7.886235007231543
      ],
      [
        "ĠNew",
        -7.889263563637845
      ],
      [
        "Ġlong",
        -7.891253641653847
      ],
      [
        "Ġnow",
        -7.8948683963497714
      ],
      [
        "ĠIf",
        -7.9000935411227395
      ],
      [
        "000",
        -7.900599560942339
      ],
      [
        "Ġresearch",
        -7.90548361012786
      ],
      [
        "Ġthree",
        -7.91306595696763
      ],
      [
        "ĠM",
        -7.914527378202996
      ],
      [
        "E",
        -7.92549320181077
      ],
      [
        "Ġdata",
        -7.938081188545215
      ],
      [
        "Ġhealth",
        -7.941196842685791
      ],
      [
        "Ġoften",
        -7.944100489252962
      ],
      [
        "ĠâĢĵ",
        -7.947144373796144
      ],
      [
        "This",
        -7.9505822590253
      ],
      [
        "Ġget",
        -7.957966981732984
      ],
      [
        "able",
        -7.961643885184165
      ],
      [
        "Ġmust",
        -7.973846865315624
      ],
      [
        "ĠFor",
        -7.9879556075952785
      ],
      [
        ".âĢĿ",
        -7.98948165292636
      ],
      [
        "Ġwhile",
        -7.989827203714395
      ],
      [
        "Ġstate",
        -7.99598546628788
      ],
      [
        "Ġusing",
        -7.999620922479741
      ],
      [
        "ĠUniversity",
        -8.000295111472447
      ],
      [
        "ĠAmerican",
        -8.002638146528572
      ],
      [
        "Ġtake",
        -8.003045782114183
      ],
      [
        "Ġown",
        -8.00758822256014
      ],
      [
        "and",
        -8.007695399944181
      ],
      [
        "Ġcalled",
        -8.008602054059818
      ],
      [
        "Ġday",
        -8.011945064503298
      ],
      [
        "Ġgood",
        -8.031108270905507
      ],
      [
        "ĠP",
        -8.031887949673017
      ],
      [
        "8",
        -8.036995881838239
      ],
      [
        "u",
        -8.038571485765676
      ],
      [
        "ĠBut",
        -8.042640012764496
      ],
      [
        "0",
        -8.043458787527511
      ],
      [
        "[",
        -8.044362916990197
      ],
      [
        "Ġknow",
        -8.047550553649419
      ],
      [
        "Ġhim",
        -8.048073338224516
      ],
      [
        "Ġhuman",
        -8.049925364190633
      ],
      [
        "ĠB",
        -8.050918749147929
      ],
      [
        "7",
        -8.060586121100181
      ],
      [
        "Ġsmall",
        -8.063551364013385
      ],
      [
        "Ġincluding",
        -8.063826670474167
      ],
      [
        "Ġexample",
        -8.064007377771004
      ],
      [
        "Ġaround",
        -8.082743541801786
      ],
      [
        "Ġdoes",
        -8.084014913275466
      ],
      [
        "Ġpower",
        -8.095509405994639
      ],
      [
        "Ġlarge",
        -8.095862260385724
      ],
      [
        "Ġknown",
        -8.100285557690867
      ],
      [
        "Ġback",
        -8.11654840567993
      ],
      [
        "&",
        -8.11989104907058
      ],
      [
        "or",
        -8.122098393676358
      ],
      [
        "Ġstill",
        -8.128322360629465
      ],
      [
        "Ġfood",
        -8.128983437078482
      ],
      [
        "ĠUnited",
        -8.140141625020684
      ],
      [
        "Ġmy",
        -8.145938758009244
      ],
      [
        "Ġplace",
        -8.147464497233136
      ],
      [
        "Ġbody",
        -8.14891667308332
      ],
      [
        "Ġschool",
        -8.15311627901788
      ],
      [
        "Ġdid",
        -8.155404477895813
      ],
      [
        "Ġpublic",
        -8.156144197839854
      ],
      [
        "Ġgovernment",
        -8.156596421107484
      ],
      [
        "Ġdown",
        -8.15896956496618
      ],
      [
        "Ġshe",
        -8.16379483833578
      ],
      [
        "!",
        -8.164439876682117
      ],
      [
        "Ġ10",
        -8.16941675684144
      ],
      [
        "]",
        -8.183259413960378
      ],
      [
        "Ġenergy",
        -8.183541621644416
      ],
      [
        "R",
        -8.189098885651779
      ],
      [
        "âĢĵ",
        -8.1894703528181
      ],
      [
        "Ġmight",
        -8.194422334316133
      ],
      [
        "Ġdisease",
        -8.194827589765227
      ],
      [
        "Ġwithin",
        -8.197727967212328
      ],
      [
        "Ġform",
        -8.200248992409707
      ],
      [
        "Ġright",
        -8.201532690463594
      ],
      [
        "Ġchange",
        -8.20207403076347
      ],
      [
        "Ġwithout",
        -8.204433253844302
      ],
      [
        "Ġless",
        -8.207868019567428
      ],
      [
        "Ġanother",
        -8.21197731084415
      ],
      [
        "Ġwomen",
        -8.212585521448496
      ],
      [
        "ĠStates",
        -8.223484130898782
      ],
      [
        "Ġearly",
        -8.23038634269302
      ],
      [
        "L",
        -8.236634917804647
      ],
      [
        "Ġsays",
        -8.239527171527307
      ],
      [
        "Ġinclude",
        -8.240325264365145
      ],
      [
        "Ġdevelopment",
        -8.241853116672699
      ],
      [
        "Ġend",
        -8.244065348072354
      ],
      [
        "ĠWe",
        -8.245112100010255
      ],
      [
        "Ġagainst",
        -8.249706011437848
      ],
      [
        "ĠThese",
        -8.255672045679667
      ],
      [
        "Ġpercent",
        -8.255952047201262
      ],
      [
        "Ġspecies",
        -8.25791278003209
      ],
      [
        "9",
        -8.260556478889606
      ],
      [
        "Ġfind",
        -8.26113541031796
      ],
      [
        "H",
        -8.261380173934628
      ],
      [
        "Ġevery",
        -8.261772765324054
      ],
      [
        "ĠNational",
        -8.26465382211752
      ],
      [
        "Ġprocess",
        -8.26542994185066
      ],
      [
        "ĠAs",
        -8.267488492052134
      ],
      [
        "Ġfew",
        -8.26848979267007
      ],
      [
        "Ġchild",
        -8.27664112954648
      ],
      [
        "Ġgreat",
        -8.277678329474268
      ],
      [
        "Ġcommon",
        -8.283431907621681
      ],
      [
        "Ġhistory",
        -8.286310647545717
      ],
      [
        "Ġgroup",
        -8.298255540820444
      ],
      [
        ",âĢĿ",
        -8.303517942495066
      ],
      [
        "Ġseveral",
        -8.308037384646674
      ],
      [
        "Ġset",
        -8.30924931980445
      ],
      [
        "Ġlast",
        -8.322068464820795
      ],
      [
        "Ġbecome",
        -8.325738366816497
      ],
      [
        "Ġblood",
        -8.326271600513875
      ],
      [
        "Ġper",
        -8.32909981550286
      ],
      [
        "Ġrisk",
        -8.33366929321361
      ],
      [
        "ĠJ",
        -8.343974031655346
      ],
      [
        "âĢľ",
        -8.343983731440328
      ],
      [
        "$",
        -8.355551953463804
      ],
      [
        "Ġprovide",
        -8.357059657108376
      ],
      [
        "Ġsince",
        -8.359030025276688
      ],
      [
        "Ġavailable",
        -8.36089902405952
      ],
      [
        "Ġage",
        -8.362404236742854
      ],
      [
        "Ġorder",
        -8.36478095412786
      ],
      [
        "Ġfamily",
        -8.369278820321362
      ],
      [
        "Ġhere",
        -8.37273355737886
      ],
      [
        "ĠThere",
        -8.374069606857425
      ],
      [
        "ĠAnd",
        -8.380677327176333
      ],
      [
        "Ġcontrol",
        -8.382307653522686
      ],
      [
        "Ġlight",
        -8.388200192277008
      ],
      [
        "Ġname",
        -8.391604191671883
      ],
      [
        "F",
        -8.393386573437235
      ],
      [
        "Ġsupport",
        -8.394705943432516
      ],
      [
        "Ġamong",
        -8.397955610430577
      ],
      [
        "N",
        -8.398129056667205
      ],
      [
        "ĠGod",
        -8.399461031949356
      ],
      [
        "Ġareas",
        -8.401786650960705
      ],
      [
        "Ġpossible",
        -8.404013164984429
      ],
      [
        "Ġcause",
        -8.408595215573868
      ],
      [
        "ĠG",
        -8.41152353415246
      ],
      [
        "Ġpoint",
        -8.415620550913417
      ],
      [
        "Ġhome",
        -8.416247051702586
      ],
      [
        "Ġwant",
        -8.425608635127013
      ],
      [
        "Ġlocal",
        -8.425841739450345
      ],
      [
        "Ġgo",
        -8.428336368616154
      ],
      [
        "Ġcountry",
        -8.429047053234626
      ],
      [
        "Ġnon",
        -8.430386100425574
      ],
      [
        "Ġsocial",
        -8.43134079158702
      ],
      [
        "Ġfollowing",
        -8.434015980618442
      ],
      [
        "Ġpresent",
        -8.442722244667213
      ],
      [
        "Ġbetter",
        -8.448593108054698
      ],
      [
        "ĠTo",
        -8.449859140174485
      ],
      [
        "Ġmeans",
        -8.452013270536124
      ],
      [
        "k",
        -8.45259137217869
      ],
      [
        "Ġbest",
        -8.457128904277745
      ],
      [
        "O",
        -8.462152268218436
      ],
      [
        "Ġcase",
        -8.463148325455506
      ],
      [
        "ĠHowever",
        -8.464463236717348
      ],
      [
        "Ġmillion",
        -8.46534525420045
      ],
      [
        "Ġprogram",
        -8.46559352110754
      ],
      [
        "Ġgiven",
        -8.466151888632075
      ],
      [
        "Ġperson",
        -8.466749259589838
      ],
      [
        "Ġlevel",
        -8.466835361396246
      ],
      [
        "Ġuntil",
        -8.467237419745283
      ],
      [
        "Ġtreatment",
        -8.470918791785191
      ],
      [
        "Ġcome",
        -8.4761714379247
      ],
      [
        "Ġmen",
        -8.479545401835026
      ],
      [
        "Ġ20",
        -8.483783436201229
      ],
      [
        "Ġthink",
        -8.486062315816067
      ],
      [
        "Ġlow",
        -8.488557701416445
      ],
      [
        "Ġland",
        -8.489252920915627
      ],
      [
        "Ġlater",
        -8.491314010908082
      ],
      [
        "Ġlittle",
        -8.494628274992172
      ],
      [
        "Ġfact",
        -8.49750601743998
      ],
      [
        "Ġsecond",
        -8.500509811186637
      ],
      [
        "Ġsay",
        -8.508031753973237
      ],
      [
        "Ġme",
        -8.508271542552125
      ],
      [
        "ers",
        -8.514800503423858
      ],
      [
        "x",
        -8.515659619921594
      ],
      [
        "ĠWhen",
        -8.516723287939545
      ],
      [
        "Ġpopulation",
        -8.51711026164162
      ],
      [
        "Ġfour",
        -8.520023074502484
      ],
      [
        "ĠYou",
        -8.522463092242681
      ],
      [
        "Ġresult",
        -8.525264074600047
      ],
      [
        "Ġnatural",
        -8.525832457702382
      ],
      [
        "v",
        -8.527355172906917
      ],
      [
        "Ġcancer",
        -8.527366936721494
      ],
      [
        "Ġdon",
        -8.52826748212541
      ],
      [
        "Ġcentury",
        -8.530672906531223
      ],
      [
        "Ġcells",
        -8.536097331796428
      ],
      [
        "Ġbook",
        -8.542448129627157
      ],
      [
        "We",
        -8.543085731388981
      ],
      [
        "Ġproblem",
        -8.545119613343973
      ],
      [
        "Ġproblems",
        -8.547206330742963
      ],
      [
        "Ġbased",
        -8.552119250233291
      ],
      [
        "Ġhowever",
        -8.552832296047995
      ],
      [
        "Ġmajor",
        -8.55344617786684
      ],
      [
        "Ġarea",
        -8.559124394013802
      ],
      [
        "Ġoff",
        -8.559679139146814
      ],
      [
        "Ġthings",
        -8.563369468531357
      ],
      [
        "ĠâĢĶ",
        -8.5654760434961
      ],
      [
        "Ġtype",
        -8.56788121429562
      ],
      [
        "w",
        -8.576714794059134
      ],
      [
        "Ġman",
        -8.583159666362974
      ],
      [
        "Ġair",
        -8.58593046022731
      ],
      [
        "Ġcare",
        -8.589526481912262
      ],
      [
        "Ġfar",
        -8.593988767164193
      ],
      [
        "Ġsite",
        -8.599306973954146
      ],
      [
        "Ġusually",
        -8.599607144725226
      ],
      [
        "...",
        -8.600179966737482
      ],
      [
        "Ġcommunity",
        -8.600509658569434
      ],
      [
        "Ġlook",
        -8.601504221903356
      ],
      [
        "=",
        -8.604331450445493
      ],
      [
        "Ġtimes",
        -8.604465503231314
      ],
      [
        "Ġperiod",
        -8.604483721189913
      ],
      [
        "Ġlevels",
        -8.605827360403866
      ],
      [
        "Ġwar",
        -8.607073698768865
      ],
      [
        "Ġabove",
        -8.60743418327129
      ],
      [
        "Ġlaw",
        -8.609550990066573
      ],
      [
        "Ġbecame",
        -8.61773567253518
      ],
      [
        "Ġleast",
        -8.61996875831003
      ],
      [
        "Ġdays",
        -8.623773834698962
      ],
      [
        "Ġeducation",
        -8.625315539306937
      ],
      [
        "Ġlikely",
        -8.626012633653293
      ],
      [
        "Ġcourse",
        -8.628007742366995
      ],
      [
        "Ġgeneral",
        -8.632486498861965
      ],
      [
        "Ġalong",
        -8.63318291926735
      ],
      [
        "Ġleft",
        -8.640162152508292
      ],
      [
        "Ġ--",
        -8.642387732998799
      ],
      [
        "Ġcountries",
        -8.64438714683357
      ],
      [
        "W",
        -8.645416676674822
      ],
      [
        "ĠAmerica",
        -8.649846761064918
      ],
      [
        "Ġincrease",
        -8.650037364266122
      ],
      [
        "ĠWar",
        -8.650913286531384
      ],
      [
        "Ġtest",
        -8.654818936722949
      ],
      [
        "Ġothers",
        -8.655147827538025
      ],
      [
        "For",
        -8.657337305756409
      ],
      [
        "What",
        -8.657970021502452
      ],
      [
        "Ġlanguage",
        -8.65845609358592
      ],
      [
        "Ġresults",
        -8.659317703849435
      ],
      [
        "Ġside",
        -8.66435319258205
      ],
      [
        "Ġnext",
        -8.665554159152059
      ],
      [
        "Ġfree",
        -8.666202839225392
      ],
      [
        "ĠâĢĺ",
        -8.667377295509532
      ],
      [
        "Ġsystems",
        -8.671481203182253
      ],
      [
        "Ġheart",
        -8.671602140130604
      ],
      [
        "Ġscience",
        -8.672297761094597
      ],
      [
        "ĠWorld",
        -8.673763301478358
      ],
      [
        "Ġproject",
        -8.675546358686448
      ],
      [
        "Ġcurrent",
        -8.676267353959474
      ],
      [
        "Ġreport",
        -8.678904997227123
      ],
      [
        "Ġgive",
        -8.681256692212063
      ],
      [
        "ĠYork",
        -8.682384472280143
      ],
      [
        "Ġspace",
        -8.682504647358114
      ],
      [
        "com",
        -8.693134110860049
      ],
      [
        "Ġtoday",
        -8.694305317108856
      ],
      [
        "There",
        -8.694666853108831
      ],
      [
        "Ġnever",
        -8.695475726989446
      ],
      [
        "Ġshow",
        -8.700244770508636
      ],
      [
        "Ġrange",
        -8.701750643962683
      ],
      [
        "Ġcity",
        -8.704236852469663
      ],
      [
        "Ġmaking",
        -8.710099542357403
      ],
      [
        "Ġhand",
        -8.710587004129724
      ],
      [
        "Ġconditions",
        -8.710653653142403
      ],
      [
        "Ġhigher",
        -8.710657415645954
      ],
      [
        "Ġsimilar",
        -8.711125048673354
      ],
      [
        "Ġstudies",
        -8.71292180308848
      ],
      [
        "Ġkeep",
        -8.713126434591041
      ],
      [
        "Ġdue",
        -8.715649010913587
      ],
      [
        "Ġfuture",
        -8.715663634386992
      ],
      [
        "Ġupon",
        -8.7215282064388
      ],
      [
        "Ġtogether",
        -8.72459027482818
      ],
      [
        "10",
        -8.726536555510723
      ],
      [
        "Ġalways",
        -8.7282392095925
      ],
      [
        "ity",
        -8.729396660631515
      ],
      [
        "Ġold",
        -8.729440956308666
      ],
      [
        "Ġdeath",
        -8.733040802817474
      ],
      [
        "Ġwhether",
        -8.733409961333631
      ],
      [
        "Ġwords",
        -8.734312863064655
      ],
      [
        "man",
        -8.735891619842425
      ],
      [
        "Ġline",
        -8.739718348539391
      ],
      [
        "Ġchanges",
        -8.742865251785078
      ],
      [
        "Ġrole",
        -8.744800646682204
      ],
      [
        "Ġshort",
        -8.745197937364926
      ],
      [
        "Ġcertain",
        -8.745317339406066
      ],
      [
        "Ġaway",
        -8.746051536469286
      ],
      [
        "Ġsomething",
        -8.747746942075235
      ],
      [
        "Ġtechnology",
        -8.748942375744454
      ],
      [
        "Ġsurface",
        -8.750721811946129
      ],
      [
        "Ġvarious",
        -8.75073027678599
      ],
      [
        "Ġbrain",
        -8.750869736303793
      ],
      [
        "M",
        -8.756200516092155
      ],
      [
        "Ġenough",
        -8.756796600877726
      ],
      [
        "Ġput",
        -8.75736363984929
      ],
      [
        "Ġpast",
        -8.759779003167601
      ],
      [
        "Ġresearchers",
        -8.761977735649625
      ],
      [
        "Ġread",
        -8.76293861335648
      ],
      [
        "ĠJohn",
        -8.765208389578893
      ],
      [
        "Ġfurther",
        -8.766553887294513
      ],
      [
        "Ġfull",
        -8.766792325362184
      ],
      [
        "Ġpolitical",
        -8.766919104259651
      ],
      [
        "Ġespecially",
        -8.767148083364123
      ],
      [
        "ve",
        -8.769563153604693
      ],
      [
        "Ġdeveloped",
        -8.771149397904507
      ],
      [
        "B",
        -8.771728606067093
      ],
      [
        "Ġacross",
        -8.772349559021945
      ],
      [
        "ĠState",
        -8.773926421186477
      ],
      [
        "Ġ12",
        -8.775369670703572
      ],
      [
        "Ġlearning",
        -8.777525827650487
      ],
      [
        "Ġyoung",
        -8.77928910273723
      ],
      [
        "Ġgroups",
        -8.779727545084185
      ],
      [
        "Ġeffects",
        -8.779889034196398
      ],
      [
        "Ġmaterial",
        -8.781757301634478
      ],
      [
        "Ġcases",
        -8.782434006197345
      ],
      [
        "Ġhaving",
        -8.783792126469981
      ],
      [
        "ability",
        -8.78526250843422
      ],
      [
        "Ġeither",
        -8.788009101293305
      ],
      [
        "Ġlearn",
        -8.788436106624092
      ],
      [
        "ĠHealth",
        -8.78852893764919
      ],
      [
        "ĠEnglish",
        -8.790178393730919
      ],
      [
        "Ġproduction",
        -8.790739985136772
      ],
      [
        "Ġpatients",
        -8.793212332438918
      ],
      [
        "Ġevidence",
        -8.794238063692532
      ],
      [
        "Ġfield",
        -8.794505713778763
      ],
      [
        "Ġnational",
        -8.79613170373314
      ],
      [
        "of",
        -8.79755343373535
      ],
      [
        "Ġvalue",
        -8.79815875781689
      ],
      [
        "ĠNorth",
        -8.798206278204788
      ],
      [
        "Ġsource",
        -8.798759483888166
      ],
      [
        "Ġrather",
        -8.798884083618985
      ],
      [
        "Ġcame",
        -8.79907110748028
      ],
      [
        "Ġfive",
        -8.799360892722913
      ],
      [
        "Ġworking",
        -8.799431002056007
      ],
      [
        "Ġal",
        -8.800086319966388
      ],
      [
        "ĠWhat",
        -8.800844066750013
      ],
      [
        "www",
        -8.801082797501005
      ],
      [
        "Ġopen",
        -8.802644923121617
      ],
      [
        "ĠEarth",
        -8.803295434676723
      ],
      [
        "Ġ15",
        -8.8045874212515
      ],
      [
        "Ġnear",
        -8.805606580503138
      ],
      [
        "Ġindividual",
        -8.806397798741328
      ],
      [
        "Ġeffect",
        -8.806689495477547
      ],
      [
        "Ġplants",
        -8.807923797489716
      ],
      [
        "ĠK",
        -8.810059257498166
      ],
      [
        "Ġsingle",
        -8.812208185219673
      ],
      [
        "Ġthough",
        -8.812297984302502
      ],
      [
        "Ġseen",
        -8.815371285426686
      ],
      [
        "Ġrate",
        -8.816442222913421
      ],
      [
        "Ġlower",
        -8.816460241542009
      ],
      [
        "Ġplant",
        -8.81738927020456
      ],
      [
        "Ġcreate",
        -8.817545827419115
      ],
      [
        "Ġtaken",
        -8.820056940784305
      ],
      [
        "Ġlead",
        -8.820462337991057
      ],
      [
        "Ġdesign",
        -8.824608918048149
      ],
      [
        "ĠSome",
        -8.825240853687184
      ],
      [
        "ĠSouth",
        -8.82555737279478
      ],
      [
        "Ġresources",
        -8.828693108711613
      ],
      [
        "Ġword",
        -8.830189132196391
      ],
      [
        "Ġspecific",
        -8.834529417739256
      ],
      [
        "Ġwhy",
        -8.834626403595754
      ],
      [
        "Ġexperience",
        -8.835028697908879
      ],
      [
        "Ġalready",
        -8.835284744480834
      ],
      [
        "ĠAn",
        -8.83630561365583
      ],
      [
        "Ġ30",
        -8.83646762009194
      ],
      [
        "Ġmain",
        -8.837477818507486
      ],
      [
        "Ġpublished",
        -8.840926758585265
      ],
      [
        "Ġclimate",
        -8.841294829085456
      ],
      [
        "Ġarticle",
        -8.843756563406842
      ],
      [
        "Ġaccording",
        -8.847093646010388
      ],
      [
        "Ġenvironment",
        -8.848810077175715
      ],
      [
        "://",
        -8.850840263600249
      ],
      [
        "ĠOne",
        -8.85178684850453
      ],
      [
        "Ġreduce",
        -8.85684172218312
      ],
      [
        "ĠSo",
        -8.857279147506683
      ],
      [
        "ĠAt",
        -8.857403798559607
      ],
      [
        "Ġaccess",
        -8.86412006725367
      ],
      [
        "Ġdone",
        -8.864403571145957
      ],
      [
        "Ġbegan",
        -8.865593385545418
      ],
      [
        "ĠMay",
        -8.869578257232556
      ],
      [
        "Ġamount",
        -8.870889039902403
      ],
      [
        "Ġunderstand",
        -8.872250964036748
      ],
      [
        "Ġeconomic",
        -8.872874468540301
      ],
      [
        "Ġgoing",
        -8.873194388864711
      ],
      [
        "Ġparticular",
        -8.873451629039266
      ],
      [
        "Ġview",
        -8.873757664209728
      ],
      [
        "Ġwhite",
        -8.87462664654573
      ],
      [
        "Ġsize",
        -8.874900030509194
      ],
      [
        "ness",
        -8.87666521385854
      ],
      [
        "Ġlive",
        -8.877631848798611
      ],
      [
        "Ġmembers",
        -8.879129485935334
      ],
      [
        "Ġmedical",
        -8.87954971014694
      ],
      [
        "Ġaddition",
        -8.879644646069393
      ],
      [
        "Ġknowledge",
        -8.883397300261205
      ],
      [
        "Ġonce",
        -8.886655121128095
      ],
      [
        "Ġwhole",
        -8.888981541832825
      ],
      [
        "Ġrights",
        -8.892357198456253
      ],
      [
        "ĠDr",
        -8.892643949109747
      ],
      [
        "Ġcost",
        -8.894590177957319
      ],
      [
        "ĠThat",
        -8.894651922518847
      ],
      [
        "Ġphysical",
        -8.894856422441496
      ],
      [
        "Ġactivity",
        -8.895749518196613
      ],
      [
        "Ġgrowth",
        -8.898418479450259
      ],
      [
        "_",
        -8.899019006473354
      ],
      [
        "ll",
        -8.899306601013365
      ],
      [
        "Ġthemselves",
        -8.900226711192923
      ],
      [
        "Ġbuilding",
        -8.900727695726141
      ],
      [
        "Ġbelow",
        -8.901162095917282
      ],
      [
        "Ġ2012",
        -8.901164854178566
      ],
      [
        "Ġagain",
        -8.902044568708007
      ],
      [
        "Ġdevelop",
        -8.902313914674973
      ],
      [
        "Ġquestion",
        -8.902360566732163
      ],
      [
        "Ġactivities",
        -8.903117673627042
      ],
      [
        "Ġitself",
        -8.904192284134327
      ],
      [
        "Ġoil",
        -8.9044997978465
      ],
      [
        "Ġcannot",
        -8.908128878988963
      ],
      [
        "Ġnature",
        -8.911730188959977
      ],
      [
        "Ġhalf",
        -8.912720915200888
      ],
      [
        "Ġreal",
        -8.915832733015868
      ],
      [
        "Ġreally",
        -8.915966175122527
      ],
      [
        "Ġthought",
        -8.916458819363363
      ],
      [
        "Ġneeds",
        -8.91696545314686
      ],
      [
        "Ġalmost",
        -8.917384795308415
      ],
      [
        "Ġtook",
        -8.917793700496771
      ],
      [
        "Ġliving",
        -8.919405391301138
      ],
      [
        "Ġcreated",
        -8.919532882989277
      ],
      [
        "Ġpaper",
        -8.921175295916354
      ],
      [
        "Ġanimals",
        -8.922194294454046
      ],
      [
        "Ġconsidered",
        -8.922902504129665
      ],
      [
        "ĠCenter",
        -8.923253828962622
      ],
      [
        "Ġregion",
        -8.92371503698638
      ],
      [
        "Ġyet",
        -8.923789232059816
      ],
      [
        "Ġblack",
        -8.9241747005711
      ],
      [
        "Ġstates",
        -8.92485225989276
      ],
      [
        "Ġincreased",
        -8.928974239822523
      ],
      [
        "Ġteam",
        -8.932211063325969
      ],
      [
        "Ġhead",
        -8.9334593541922
      ],
      [
        "Ġpotential",
        -8.934753853227944
      ],
      [
        "Ġclass",
        -8.934980950581846
      ],
      [
        "When",
        -8.938758463873727
      ],
      [
        "P",
        -8.940528459443172
      ],
      [
        "Ġ2010",
        -8.942995524358617
      ],
      [
        "Ġkey",
        -8.944591189129412
      ],
      [
        "Ġsignificant",
        -8.94534285716153
      ],
      [
        "Ġsimple",
        -8.948683768767664
      ],
      [
        "Ġscientists",
        -8.94985759157284
      ],
      [
        "ĠOn",
        -8.951100460869299
      ],
      [
        "Ġlot",
        -8.95111427480563
      ],
      [
        "Ġmove",
        -8.953560178201847
      ],
      [
        "Ġsea",
        -8.953762747338171
      ],
      [
        "Ġsymptoms",
        -8.953983215801838
      ],
      [
        "ĠAll",
        -8.954095689522488
      ],
      [
        "Ġassociated",
        -8.956911896077921
      ],
      [
        "Ġpage",
        -8.960000254467737
      ],
      [
        "Ġ2011",
        -8.960046280630792
      ],
      [
        "Ġcell",
        -8.962928408246347
      ],
      [
        "ĠResearch",
        -8.964220895963722
      ],
      [
        "ĠBritish",
        -8.967103985159103
      ],
      [
        "Ġpressure",
        -8.967319708549882
      ],
      [
        "Ġneeded",
        -8.968225124417785
      ],
      [
        "Ġrequired",
        -8.973081726695277
      ],
      [
        "Ġcomputer",
        -8.973516528881229
      ],
      [
        "Ġbelieve",
        -8.976916228436446
      ],
      [
        "Ġgas",
        -8.979301795042254
      ],
      [
        "Ġproduce",
        -8.979431016619733
      ],
      [
        "Ġtypes",
        -8.979717616991513
      ],
      [
        "):",
        -8.980520274442902
      ],
      [
        "Ġrelated",
        -8.982148908271709
      ],
      [
        "Ġproducts",
        -8.983986718450202
      ],
      [
        "Ġstory",
        -8.984528286414081
      ],
      [
        "Ġprovided",
        -8.985087880719858
      ],
      [
        "Ġself",
        -8.986822954275445
      ],
      [
        "Ġglobal",
        -8.989008543505465
      ],
      [
        "Ġmodel",
        -8.989486182554408
      ],
      [
        "Ġmonths",
        -8.989689517630417
      ],
      [
        "based",
        -8.990229341400964
      ],
      [
        "Ġhard",
        -8.99142360831145
      ],
      [
        "Ġtotal",
        -8.991931821694381
      ],
      [
        "Ġquality",
        -8.99245096223737
      ],
      [
        "ĠSt",
        -8.993142112383225
      ],
      [
        "Ġways",
        -8.994846983569756
      ],
      [
        "Ġground",
        -8.996795415194336
      ],
      [
        "ĠHis",
        -8.997097478365855
      ],
      [
        "*",
        -8.997821241769152
      ],
      [
        "Ġrecent",
        -8.998854669803672
      ],
      [
        "ĠInstitute",
        -9.007337292473004
      ],
      [
        "Ġidea",
        -9.010807560413438
      ],
      [
        "Ġstart",
        -9.011473724128429
      ],
      [
        "Ġactually",
        -9.012315757029697
      ],
      [
        "Ġstudent",
        -9.014020518601248
      ],
      [
        "Ġpractice",
        -9.016434398694772
      ],
      [
        "Ġquestions",
        -9.016881418069431
      ],
      [
        "Ġmodern",
        -9.018977044623488
      ],
      [
        "But",
        -9.02156565642525
      ],
      [
        "ĠScience",
        -9.021663272357737
      ],
      [
        "Ġprovides",
        -9.02277442250996
      ],
      [
        "Ġprevent",
        -9.026900852952547
      ],
      [
        "Ġservice",
        -9.02702726582734
      ],
      [
        "Ġ100",
        -9.02785229170651
      ],
      [
        "Ġimpact",
        -9.029914530434976
      ],
      [
        "Ġspecial",
        -9.030501955787866
      ],
      [
        "Ġaverage",
        -9.032156295073287
      ],
      [
        "Ġissue",
        -9.033507464216516
      ],
      [
        "ĠNo",
        -9.03416213233237
      ],
      [
        "ĠDepartment",
        -9.036486977270409
      ],
      [
        "Ġmakes",
        -9.037157897544636
      ],
      [
        "Ġsense",
        -9.037337732599696
      ],
      [
        "Ġissues",
        -9.041306467709886
      ],
      [
        "Ġfunction",
        -9.042040585823258
      ],
      [
        "Ġmaterials",
        -9.04204154765677
      ],
      [
        "Ġprograms",
        -9.043835084985597
      ],
      [
        "Ġclear",
        -9.045565778300654
      ],
      [
        "up",
        -9.047376107796731
      ],
      [
        "Ġenvironmental",
        -9.047591707835233
      ],
      [
        "Ġ11",
        -9.047917375529355
      ],
      [
        "Ġaction",
        -9.050626710030926
      ],
      [
        "Ġnecessary",
        -9.052708001886009
      ],
      [
        "Ġbuilt",
        -9.053649376308565
      ],
      [
        "Ġmatter",
        -9.054462160558716
      ],
      [
        "Ġlist",
        -9.054639296029716
      ],
      [
        "Ġ2009",
        -9.056445924483196
      ],
      [
        "Ġplay",
        -9.058414653580249
      ],
      [
        "Ġtext",
        -9.060770401871563
      ],
      [
        "Ġreported",
        -9.06099101519318
      ],
      [
        "Ġmoney",
        -9.061154915418513
      ],
      [
        "Ġterm",
        -9.06244728055079
      ],
      [
        "ĠBy",
        -9.063201458911095
      ],
      [
        "Ġdoctor",
        -9.063289768459168
      ],
      [
        "Ġsubject",
        -9.064123655735102
      ],
      [
        "Ġpre",
        -9.064492382908009
      ],
      [
        "Ġpost",
        -9.066139295435413
      ],
      [
        "Ġunderstanding",
        -9.067774093122448
      ],
      [
        "Ġservices",
        -9.069555817858838
      ],
      [
        "Ġparents",
        -9.070710372318938
      ],
      [
        "Ġclose",
        -9.071792991499596
      ],
      [
        "Ġever",
        -9.076411313207853
      ],
      [
        "Ġdifficult",
        -9.076663774662483
      ],
      [
        "Ġstructure",
        -9.078150852046802
      ],
      [
        "Ġlate",
        -9.0825572927195
      ],
      [
        "Ġeffective",
        -9.083342207441552
      ],
      [
        "Ġhttp",
        -9.08502102081698
      ],
      [
        "Ġreading",
        -9.08811857972326
      ],
      [
        "Ġthroughout",
        -9.089534497239468
      ],
      [
        "Ġturn",
        -9.090581885604152
      ],
      [
        "Ġ2008",
        -9.09091230130877
      ],
      [
        "Ġweight",
        -9.092700858235885
      ],
      [
        "Ġtrue",
        -9.092802839291004
      ],
      [
        "Ġhours",
        -9.092901347791669
      ],
      [
        "Ġsure",
        -9.095763213685588
      ],
      [
        "Ġmanagement",
        -9.09641585047852
      ],
      [
        "Ġparts",
        -9.097431961737549
      ],
      [
        "Ġimage",
        -9.097800163680567
      ],
      [
        "Ġago",
        -9.098373718202422
      ],
      [
        "Ġshows",
        -9.099478930267292
      ],
      [
        "Ġ50",
        -9.10005486210761
      ],
      [
        "ĠUS",
        -9.100497676792417
      ],
      [
        "Ġoriginal",
        -9.102564378496234
      ],
      [
        "Ġact",
        -9.10264143510055
      ],
      [
        "Ġapproach",
        -9.102790043879397
      ],
      [
        "Ġschools",
        -9.10310034311438
      ],
      [
        "Ġkind",
        -9.10379243108963
      ],
      [
        "Ġgreater",
        -9.104430323666454
      ],
      [
        "Ġfeel",
        -9.104740386521987
      ],
      [
        "Ġlonger",
        -9.106797449030116
      ],
      [
        "Ġskin",
        -9.107182251413024
      ],
      [
        "Ġtop",
        -9.10884424043488
      ],
      [
        "Ġterms",
        -9.110956251580296
      ],
      [
        "+",
        -9.113830561035323
      ],
      [
        "Ġinternational",
        -9.114347741769492
      ],
      [
        "Ġplan",
        -9.114349783807864
      ],
      [
        "Ġloss",
        -9.116670751280555
      ],
      [
        "Ġmethod",
        -9.116847489971205
      ],
      [
        "Ġ18",
        -9.11775125910568
      ],
      [
        "Ġcall",
        -9.119618604374844
      ],
      [
        "Ġcaused",
        -9.120169569409434
      ],
      [
        "Ġtell",
        -9.121079415501498
      ],
      [
        "Ġrun",
        -9.1221042635144
      ],
      [
        "Ġfire",
        -9.122266510476766
      ],
      [
        "org",
        -9.123989099973048
      ],
      [
        "Ġmean",
        -9.124486613100617
      ],
      [
        "ĠAfter",
        -9.12457948452362
      ],
      [
        "Ġsometimes",
        -9.125288865267228
      ],
      [
        "Ġreason",
        -9.125495950985917
      ],
      [
        "12",
        -9.125705179617986
      ],
      [
        "Ġinterest",
        -9.127889928174984
      ],
      [
        "Ġgenerally",
        -9.128885728059156
      ],
      [
        "ĠSchool",
        -9.129325324350065
      ],
      [
        "Ġforce",
        -9.12943519943972
      ],
      [
        "Ġsix",
        -9.13187880390729
      ],
      [
        "Ġfeet",
        -9.132901883444289
      ],
      [
        "Ġposition",
        -9.134434885815304
      ],
      [
        "Ġworks",
        -9.135516966782818
      ],
      [
        "Ġtemperature",
        -9.136074933158486
      ],
      [
        "Ġproduced",
        -9.137829286946044
      ],
      [
        "Ġfish",
        -9.13793874026539
      ],
      [
        "by",
        -9.138557441851235
      ],
      [
        "Ġled",
        -9.139711970844296
      ],
      [
        "Ġanalysis",
        -9.140653722217255
      ],
      [
        "Ġdesigned",
        -9.142123169047304
      ],
      [
        "Ġwritten",
        -9.142443045844898
      ],
      [
        "Ġweek",
        -9.142754234244212
      ],
      [
        "Ġstrong",
        -9.14313491513807
      ],
      [
        "Ġallow",
        -9.14702551715642
      ],
      [
        "Ġindustry",
        -9.152932576333503
      ],
      [
        "Ġfactors",
        -9.153078057179236
      ],
      [
        "Ġscientific",
        -9.15432695929216
      ],
      [
        "ĠCalifornia",
        -9.155060108240066
      ],
      [
        "Ġshown",
        -9.156179877326451
      ],
      [
        "Ġprobably",
        -9.15683474796305
      ],
      [
        "Ġreturn",
        -9.159514759925562
      ],
      [
        "According",
        -9.159754848517032
      ],
      [
        "During",
        -9.163848350473144
      ],
      [
        "Ġsoil",
        -9.164360523947083
      ],
      [
        "Ġtaking",
        -9.16451669402846
      ],
      [
        "Ġsociety",
        -9.168170499305388
      ],
      [
        "Ġheld",
        -9.168489336538997
      ],
      [
        "Ġmilitary",
        -9.16872169241711
      ],
      [
        "Ġtheory",
        -9.170706594672788
      ],
      [
        "ĠEurope",
        -9.171282525275004
      ],
      [
        "Ġmovement",
        -9.17541623708672
      ],
      [
        "Ġseries",
        -9.175532285166556
      ],
      [
        "Ġbusiness",
        -9.175940432071137
      ],
      [
        "Ġstandard",
        -9.17718756523079
      ],
      [
        "Ġestablished",
        -9.177659681154584
      ],
      [
        "ĠRiver",
        -9.178849031573662
      ],
      [
        "Ġthing",
        -9.178937268573907
      ],
      [
        "Ġinvolved",
        -9.181995529955346
      ],
      [
        "Ġcontent",
        -9.183904463461165
      ],
      [
        "Ġbring",
        -9.184773968104508
      ],
      [
        "Ġpolicy",
        -9.184954717966455
      ],
      [
        "Ġpain",
        -9.184966357962894
      ],
      [
        "Ġ2007",
        -9.188374832945808
      ],
      [
        "Ġincluded",
        -9.190184157659615
      ],
      [
        "ĠMarch",
        -9.190222098999271
      ],
      [
        "Ġparticularly",
        -9.190284806300149
      ],
      [
        "Ġred",
        -9.190890160398128
      ],
      [
        "You",
        -9.192080303675136
      ],
      [
        "Ġ25",
        -9.192980001710412
      ],
      [
        "Ġ16",
        -9.19573521201952
      ],
      [
        "Ġevents",
        -9.195791589725022
      ],
      [
        "Ġmind",
        -9.19626697552837
      ],
      [
        "Ġresponse",
        -9.1971463962082
      ],
      [
        "ĠShe",
        -9.198217823024905
      ],
      [
        "Ġsources",
        -9.19892409300627
      ],
      [
        "Ġimprove",
        -9.19911735729155
      ],
      [
        "Ġdetermine",
        -9.200432854439857
      ],
      [
        "Ġonline",
        -9.201014268929145
      ],
      [
        "Ġhouse",
        -9.20201504898095
      ],
      [
        "Ġpoor",
        -9.202737212663587
      ],
      [
        "Ġ14",
        -9.204253944657635
      ],
      [
        "Ġcontact",
        -9.205449581033468
      ],
      [
        "Ġanimal",
        -9.20590928350092
      ],
      [
        "Ġthus",
        -9.205957196908573
      ],
      [
        "Ġoccur",
        -9.20682121817628
      ],
      [
        "ĠJune",
        -9.209033949337718
      ],
      [
        "Ġoutside",
        -9.210147542632397
      ],
      [
        "Ġincludes",
        -9.210300396156097
      ],
      [
        "Ġcomplete",
        -9.21296294657918
      ],
      [
        "ĠPress",
        -9.213274669048143
      ],
      [
        "Ġwhose",
        -9.213328225748691
      ],
      [
        "Ġheat",
        -9.215206029061005
      ],
      [
        "less",
        -9.21739534566306
      ],
      [
        "ĠAct",
        -9.218000999743008
      ],
      [
        "ĠFrench",
        -9.218277910280545
      ],
      [
        "ĠEuropean",
        -9.21862097131378
      ],
      [
        "Ġbasic",
        -9.218780332158836
      ],
      [
        "Ġsimply",
        -9.219655721261152
      ],
      [
        "Ġtraining",
        -9.219856856920286
      ],
      [
        "Ġaffect",
        -9.220193615679056
      ],
      [
        "Ġdeveloping",
        -9.220832686251654
      ],
      [
        "ĠWashington",
        -9.22166246858843
      ],
      [
        "Ġculture",
        -9.223585132549042
      ],
      [
        "Ġvariety",
        -9.223671814944604
      ],
      [
        "Ġbuild",
        -9.225714642353616
      ],
      [
        "Ġcarbon",
        -9.226186072436011
      ],
      [
        "Ġgrow",
        -9.22737102432964
      ],
      [
        "ice",
        -9.227765655045822
      ],
      [
        "ĠHow",
        -9.22777226493308
      ],
      [
        "Ġindividuals",
        -9.2283061567918
      ],
      [
        "age",
        -9.228451046611648
      ],
      [
        "Ġface",
        -9.22908840252952
      ],
      [
        "Ġcolor",
        -9.229387406566168
      ],
      [
        "Ġnormal",
        -9.231884549538227
      ],
      [
        "Ġdamage",
        -9.233352017097774
      ],
      [
        "Ġcondition",
        -9.233520614240724
      ],
      [
        "Ġalthough",
        -9.236089473630216
      ],
      [
        "Ġshare",
        -9.239345492411012
      ],
      [
        "ĠWith",
        -9.239914644773108
      ],
      [
        "Ġskills",
        -9.241550373536692
      ],
      [
        "Ġcomplex",
        -9.24382789030329
      ],
      [
        "Ġadd",
        -9.244533283490869
      ],
      [
        "Ġprotect",
        -9.246172179402262
      ],
      [
        "ĠII",
        -9.247644434276625
      ],
      [
        "Ġ13",
        -9.249128311263652
      ],
      [
        ">",
        -9.24919836660674
      ],
      [
        "Ġpersonal",
        -9.25235616418144
      ],
      [
        "ĠHistory",
        -9.253659574835154
      ],
      [
        "Ġart",
        -9.25465083714168
      ],
      [
        "Ġcomes",
        -9.254684187319103
      ],
      [
        "ĠWest",
        -9.255159753062264
      ],
      [
        "Ġcontinue",
        -9.255169738201998
      ],
      [
        "Ġ19",
        -9.255963185410392
      ],
      [
        "ĠAfrican",
        -9.262527996856036
      ],
      [
        "Ġmarket",
        -9.26314722194473
      ],
      [
        "G",
        -9.263661271219856
      ],
      [
        "âĢ¢",
        -9.263676043481158
      ],
      [
        "Ġforms",
        -9.263701584826098
      ],
      [
        "Ġrest",
        -9.263734150052375
      ],
      [
        "ĠApril",
        -9.26437838360729
      ],
      [
        "On",
        -9.266290096267287
      ],
      [
        "Ġentire",
        -9.266573878145651
      ],
      [
        "ĠInternational",
        -9.267067051553738
      ],
      [
        "Ġetc",
        -9.2677821886209
      ],
      [
        "time",
        -9.27142025588487
      ],
      [
        "Ġthird",
        -9.272081929240034
      ],
      [
        "Ġcompany",
        -9.272321473743435
      ],
      [
        "ĠChina",
        -9.273639019684238
      ],
      [
        "How",
        -9.27404721010448
      ],
      [
        "Ġlarger",
        -9.274117083874476
      ],
      [
        "Ġmiles",
        -9.277799566768945
      ],
      [
        "ĠGerman",
        -9.27903306206195
      ],
      [
        "Ġcauses",
        -9.280365880613603
      ],
      [
        "Ġpopular",
        -9.28057899936329
      ],
      [
        "Ġadded",
        -9.282140846248655
      ],
      [
        "Ġlives",
        -9.282221714434788
      ],
      [
        "Ġauthor",
        -9.284979483322546
      ],
      [
        "Ġaccount",
        -9.28506841759624
      ],
      [
        "ĠJuly",
        -9.286369497022672
      ],
      [
        "Ġtherefore",
        -9.288293094510305
      ],
      [
        "Ġfederal",
        -9.28877687453314
      ],
      [
        "z",
        -9.289838502150772
      ],
      [
        "year",
        -9.290552820184164
      ],
      [
        "for",
        -9.292645716083356
      ],
      [
        "11",
        -9.292700138242065
      ],
      [
        "Ġwent",
        -9.293188089586932
      ],
      [
        "Ġmethods",
        -9.294736510948727
      ],
      [
        "Ġadditional",
        -9.296841414747153
      ],
      [
        "Ġeye",
        -9.29703429997065
      ],
      [
        "Ġbeginning",
        -9.299280290264852
      ],
      [
        "Ġnation",
        -9.300003386085018
      ],
      [
        "ĠMany",
        -9.300069052138388
      ],
      [
        "ĠPresident",
        -9.300435370422658
      ],
      [
        "Ġreceived",
        -9.300458633358245
      ],
      [
        "Ġwriting",
        -9.300512196320131
      ],
      [
        "Ġdeep",
        -9.30082199018066
      ],
      [
        "Ġnumbers",
        -9.300885389423255
      ],
      [
        "Ġprivate",
        -9.30459570209039
      ],
      [
        "Ġnight",
        -9.30498675240665
      ],
      [
        "ĠAfrica",
        -9.306516108155416
      ],
      [
        "ism",
        -9.30781759361453
      ],
      [
        "Ġnearly",
        -9.309833786196354
      ],
      [
        "Ġbig",
        -9.31110979424678
      ],
      [
        "Ġearth",
        -9.31169362499656
      ],
      [
        "Ġinstead",
        -9.31378842515923
      ],
      [
        "Ġmeaning",
        -9.313960954217391
      ],
      [
        "Ġhold",
        -9.314411683197203
      ],
      [
        "Ġrequire",
        -9.316636365772538
      ],
      [
        "Ġco",
        -9.317094293386068
      ],
      [
        "ĠWhile",
        -9.31992175017115
      ],
      [
        "Ġgrowing",
        -9.320302534001174
      ],
      [
        "Ġteachers",
        -9.3209028069462
      ],
      [
        "Ġdoing",
        -9.322085795692566
      ],
      [
        "Ġhealthy",
        -9.324345569359233
      ],
      [
        "Ġbehavior",
        -9.32451789761858
      ],
      [
        "Ġdiet",
        -9.324651097271826
      ],
      [
        "Ġattention",
        -9.32490274205362
      ],
      [
        "Ġprimary",
        -9.327381182523986
      ],
      [
        "Ġshall",
        -9.330369574984596
      ],
      [
        "Ġreligious",
        -9.331485834445946
      ],
      [
        "Ġhimself",
        -9.33155678808492
      ],
      [
        "ĠCounty",
        -9.332603676025082
      ],
      [
        "Ġsection",
        -9.334259944268924
      ],
      [
        "Ġ17",
        -9.337397620627096
      ],
      [
        "ĠIndia",
        -9.338295466043244
      ],
      [
        "Ġappear",
        -9.338437672303856
      ],
      [
        "Ġlove",
        -9.33852578851876
      ],
      [
        "Ġquite",
        -9.340168404783489
      ],
      [
        "Ġtry",
        -9.340401253724227
      ],
      [
        "Ġfall",
        -9.341026171680612
      ],
      [
        "Ġfocus",
        -9.34183225080322
      ],
      [
        "Ġfamilies",
        -9.342076337182265
      ],
      [
        "Ġrise",
        -9.342530909454403
      ],
      [
        "ĠChurch",
        -9.343503513916756
      ],
      [
        "Ġobject",
        -9.34428624427922
      ],
      [
        "ĠEngland",
        -9.34678031525946
      ],
      [
        "Ġcommunities",
        -9.348620982940703
      ],
      [
        "like",
        -9.349106725484363
      ],
      [
        "Ġmusic",
        -9.349973523073311
      ],
      [
        "Ġbrought",
        -9.35030515923774
      ],
      [
        "Ġsafety",
        -9.352828958338138
      ],
      [
        "Ġeasy",
        -9.354059052431545
      ],
      [
        "Ġreceive",
        -9.354721744191703
      ],
      [
        "Ġwide",
        -9.355484387309176
      ],
      [
        "Ġlet",
        -9.355948833281971
      ],
      [
        "Ġperformance",
        -9.358270407250046
      ],
      [
        "Ġbillion",
        -9.359147428460917
      ],
      [
        "Ġappropriate",
        -9.360021543657163
      ],
      [
        "Ġtraditional",
        -9.3603883978292
      ],
      [
        "Ġdirectly",
        -9.360558045751162
      ],
      [
        "Ġsites",
        -9.36155459147558
      ],
      [
        "um",
        -9.36188678451128
      ],
      [
        "Ġseems",
        -9.362065030941958
      ],
      [
        "ĠMost",
        -9.36318425973326
      ],
      [
        "Ġsolar",
        -9.363750119361288
      ],
      [
        "Ġanswer",
        -9.363997802940098
      ],
      [
        "One",
        -9.364262022401585
      ],
      [
        "Ġlargest",
        -9.365723245672342
      ],
      [
        "Ġbooks",
        -9.366528195692164
      ],
      [
        "ĠJanuary",
        -9.366918532267825
      ],
      [
        "Ġteaching",
        -9.36709480250406
      ],
      [
        "Ġrecord",
        -9.367755439020783
      ],
      [
        "Ġdescribed",
        -9.36855763961589
      ],
      [
        "Ġcentral",
        -9.3686478107576
      ],
      [
        "Ġconsider",
        -9.369647758615162
      ],
      [
        "Ġ2006",
        -9.372015264380677
      ],
      [
        "Ġ40",
        -9.37721003891352
      ],
      [
        "Ġfile",
        -9.377258209683044
      ],
      [
        "Ġmass",
        -9.3772962766112
      ],
      [
        "Ġtree",
        -9.377656878019796
      ],
      [
        "Ġflow",
        -9.3789888133482
      ],
      [
        "Ġsound",
        -9.380280261462769
      ],
      [
        "Ġgreen",
        -9.381992646762685
      ],
      [
        "Ġactive",
        -9.38313055207043
      ],
      [
        "Ġinfluence",
        -9.383806985333152
      ],
      [
        "ĠCity",
        -9.384223687295004
      ],
      [
        "Ġaddress",
        -9.386376970234965
      ],
      [
        "Ġlost",
        -9.386668277951497
      ],
      [
        "Ġlength",
        -9.387815604913312
      ],
      [
        "Ġ24",
        -9.387883263622202
      ],
      [
        "ĠV",
        -9.38794732414731
      ],
      [
        "Ġcenter",
        -9.388066175794924
      ],
      [
        "Ġlack",
        -9.388436386528802
      ],
      [
        "ĠKing",
        -9.388629031674656
      ],
      [
        "ĠIndian",
        -9.388929333314758
      ],
      [
        "Ġtrade",
        -9.390146973793788
      ],
      [
        "ĠSeptember",
        -9.390703953711323
      ],
      [
        "Ġlimited",
        -9.39122885868014
      ],
      [
        "Ġhope",
        -9.391615825370373
      ],
      [
        "term",
        -9.391835585112306
      ],
      [
        "Ġcut",
        -9.393794623735996
      ],
      [
        "Ġ21",
        -9.39933808932822
      ],
      [
        "Ġspread",
        -9.400195782569751
      ],
      [
        "Ġefforts",
        -9.4002739387594
      ],
      [
        "Ġask",
        -9.400305395860848
      ],
      [
        "And",
        -9.400875846577469
      ],
      [
        "Ġsoon",
        -9.401251879689166
      ],
      [
        "ĠOctober",
        -9.402680232187874
      ],
      [
        ");",
        -9.403049147572425
      ],
      [
        "ĠAugust",
        -9.40308377636098
      ],
      [
        "Ġfollow",
        -9.403554120713125
      ],
      [
        "Ġdied",
        -9.40734580803772
      ],
      [
        "Ġancient",
        -9.40759337974624
      ],
      [
        "Ġdirect",
        -9.408553754059447
      ],
      [
        "Ġmeet",
        -9.409310241298316
      ],
      [
        "Ġproduct",
        -9.410394874047247
      ],
      [
        "Ġfuel",
        -9.41062622463593
      ],
      [
        "Ġideas",
        -9.411253152284653
      ],
      [
        "Ġrare",
        -9.411985835899907
      ],
      [
        "Ġsummer",
        -9.412398192792253
      ],
      [
        "way",
        -9.412982125189185
      ],
      [
        "Ġinfection",
        -9.413140595614529
      ],
      [
        "Ġdifference",
        -9.41398550494266
      ],
      [
        "By",
        -9.41577036103338
      ],
      [
        "Ġlocated",
        -9.418331921168551
      ],
      [
        "Ġfather",
        -9.418437678190443
      ],
      [
        "Ġimages",
        -9.419033937045045
      ],
      [
        "ĠJewish",
        -9.420517260454355
      ],
      [
        "Ġwind",
        -9.420774382883984
      ],
      [
        "Ġbenefits",
        -9.421374085749877
      ],
      [
        "compared",
        -9.421801609853992
      ],
      [
        "Ġuses",
        -9.422659103408987
      ],
      [
        "Ġpatient",
        -9.423036987524409
      ],
      [
        "Ġnorth",
        -9.423158312478972
      ],
      [
        "âĢ¦",
        -9.423398315074012
      ],
      [
        "Ġprotection",
        -9.425263282279989
      ],
      [
        "Ġreview",
        -9.42571493514212
      ],
      [
        "Ġtrees",
        -9.426324025107713
      ],
      [
        "ĠAlthough",
        -9.427052320810771
      ],
      [
        "Ġanti",
        -9.42753575103863
      ],
      [
        "Ġstarted",
        -9.428695262084224
      ],
      [
        "ĠCanada",
        -9.428719760288809
      ],
      [
        "Ġsupply",
        -9.429956555539595
      ],
      [
        "Ġtools",
        -9.430854838159055
      ],
      [
        "Ġ2000",
        -9.431101841031724
      ],
      [
        "Ġhighly",
        -9.43210083119752
      ],
      [
        "Ġensure",
        -9.43364124469374
      ],
      [
        "Ġborn",
        -9.43378941560116
      ],
      [
        "Ġproperty",
        -9.436191034639636
      ],
      [
        "Ġuseful",
        -9.436843389387414
      ],
      [
        "Ġpoints",
        -9.437256618567524
      ],
      [
        "Ġbehind",
        -9.43750037759083
      ],
      [
        "Ġsun",
        -9.437804597779936
      ],
      [
        "Ġ2005",
        -9.4386649382805
      ],
      [
        "Ġexercise",
        -9.440561362588948
      ],
      [
        "Ġleading",
        -9.442084491161488
      ],
      [
        "Ġserious",
        -9.442270858974446
      ],
      [
        "Retrieved",
        -9.44319562251749
      ],
      [
        "Y",
        -9.44375607144186
      ],
      [
        "Ġnetwork",
        -9.44508104518794
      ],
      [
        "ĠSociety",
        -9.445520741414423
      ],
      [
        "ĠGeneral",
        -9.44557314080966
      ],
      [
        "Ġstop",
        -9.446171273398928
      ],
      [
        "Ġeasily",
        -9.447489531105331
      ],
      [
        "Ġserve",
        -9.447604878708878
      ],
      [
        "Ġtold",
        -9.448492274264945
      ],
      [
        "ation",
        -9.4486514579658
      ],
      [
        "Ġinside",
        -9.4486535534808
      ],
      [
        "ĠDecember",
        -9.44913629730899
      ],
      [
        "Ġdoesn",
        -9.449867855150192
      ],
      [
        "Ġforces",
        -9.449943557226332
      ],
      [
        "Ġrates",
        -9.45074384290458
      ],
      [
        "Ġdeal",
        -9.451034189466217
      ],
      [
        "Ġwrote",
        -9.451067483422792
      ],
      [
        "Ġcontains",
        -9.451246352801988
      ],
      [
        "Ġpay",
        -9.452056333215744
      ],
      [
        "Ġbegin",
        -9.452468686515145
      ],
      [
        "land",
        -9.452640169313858
      ],
      [
        "Ġtoward",
        -9.452994718035866
      ],
      [
        "Ġdrug",
        -9.454089131764722
      ],
      [
        "Ġstep",
        -9.454641139305137
      ],
      [
        "Ġworkers",
        -9.454681790329335
      ],
      [
        "ĠEducation",
        -9.45616700332103
      ],
      [
        "Ġpositive",
        -9.45659912223496
      ],
      [
        "Ġavoid",
        -9.458957582713412
      ],
      [
        "Ġcollection",
        -9.459118533996287
      ],
      [
        "20",
        -9.45919230656554
      ],
      [
        "Ġquickly",
        -9.459427493195069
      ],
      [
        "Ġunique",
        -9.460462510460443
      ],
      [
        "Ġchemical",
        -9.460971960862109
      ],
      [
        "Ġvisit",
        -9.462913905921033
      ],
      [
        "Ġtakes",
        -9.464884922908077
      ],
      [
        "Ġmedia",
        -9.465488275946363
      ],
      [
        "ĠX",
        -9.467492126841274
      ],
      [
        "Ġpurpose",
        -9.46757647518672
      ],
      [
        "Ġsent",
        -9.4684742295411
      ],
      [
        "Ġgetting",
        -9.468680675849834
      ],
      [
        "Ġtown",
        -9.468947049360295
      ],
      [
        "Ġcritical",
        -9.469058570087764
      ],
      [
        "Ġbasis",
        -9.469971480947414
      ],
      [
        "Ġevent",
        -9.47043694455778
      ],
      [
        "Ġapplication",
        -9.470448398339755
      ],
      [
        "Ġcontinued",
        -9.471293122862113
      ],
      [
        "ĠGreat",
        -9.472666855431834
      ],
      [
        "Ġrecently",
        -9.473553663384426
      ],
      [
        "Ġlooking",
        -9.473655972791706
      ],
      [
        "ĠAmericans",
        -9.473805285417455
      ],
      [
        "Ġnothing",
        -9.473967570162948
      ],
      [
        "Ġfollowed",
        -9.474489498104042
      ],
      [
        "Ġpp",
        -9.476207470157208
      ],
      [
        "Ġkids",
        -9.477084281319856
      ],
      [
        "ĠJournal",
        -9.478476147698537
      ],
      [
        "Ġfeatures",
        -9.480612778721358
      ],
      [
        "Ġbirth",
        -9.48135447915778
      ],
      [
        "Ġmember",
        -9.483119753183818
      ],
      [
        "Ġdate",
        -9.485897464265104
      ],
      [
        "Ġsafe",
        -9.48666164099424
      ],
      [
        "Ġattack",
        -9.48789435637318
      ],
      [
        "Ġtests",
        -9.48825989480877
      ],
      [
        "ĠUnion",
        -9.48859688508816
      ],
      [
        "Ġmonth",
        -9.488693080095542
      ],
      [
        "asked",
        -9.488952682154675
      ],
      [
        "Ġmeasure",
        -9.489565537393725
      ],
      [
        "Ġvideo",
        -9.489582804778644
      ],
      [
        "ĠNovember",
        -9.490975462058156
      ],
      [
        "Ġwebsite",
        -9.491713531814694
      ],
      [
        "Ġremains",
        -9.493196430243072
      ],
      [
        "ous",
        -9.497244651789076
      ],
      [
        "Ġspeed",
        -9.497335725882197
      ],
      [
        "Ġsituation",
        -9.497931031257512
      ],
      [
        "Ġdecision",
        -9.500599014354162
      ],
      [
        "Ġmultiple",
        -9.501052499282322
      ],
      [
        "Ġearlier",
        -9.50303783968747
      ],
      [
        "Ġ2013",
        -9.503298116782588
      ],
      [
        "Ġsearch",
        -9.503549377954972
      ],
      [
        "ized",
        -9.503570182577452
      ],
      [
        "Ġsouth",
        -9.504906569373007
      ],
      [
        "Ġsub",
        -9.505601312995006
      ],
      [
        "Ġhumans",
        -9.506998844987812
      ],
      [
        "Ġsaw",
        -9.50703305735
      ],
      [
        "Ġexpected",
        -9.507255318544898
      ],
      [
        "ĠAssociation",
        -9.507580095655362
      ],
      [
        "ĠDo",
        -9.507978644089032
      ],
      [
        "Ġmother",
        -9.509094714542783
      ],
      [
        "Ġsevere",
        -9.510019547256926
      ],
      [
        "Ġcode",
        -9.512436900846112
      ],
      [
        "ĠLondon",
        -9.512737313425284
      ],
      [
        "Ġeffort",
        -9.513371019018322
      ],
      [
        "ĠSan",
        -9.513983066241773
      ],
      [
        "Ġdaily",
        -9.51420064691362
      ],
      [
        "ĠHouse",
        -9.514478613562126
      ],
      [
        "Ġelements",
        -9.514863734691376
      ],
      [
        "ĠEast",
        -9.514914099113351
      ],
      [
        "These",
        -9.51511627339517
      ],
      [
        "ĠCongress",
        -9.515491346235722
      ],
      [
        "K",
        -9.515588207654272
      ],
      [
        "ally",
        -9.51791731720358
      ],
      [
        "Ġstandards",
        -9.518171909252732
      ],
      [
        "ĠFirst",
        -9.518341173507842
      ],
      [
        "Ġweeks",
        -9.519585368531908
      ],
      [
        "ĠMore",
        -9.51988346304801
      ],
      [
        "Ġvalues",
        -9.520086880694654
      ],
      [
        "Ġcompanies",
        -9.520911582838885
      ],
      [
        "Ġmeeting",
        -9.521832126145242
      ],
      [
        "Ġbase",
        -9.523785699228222
      ],
      [
        "Ġfinal",
        -9.524057392552493
      ],
      [
        "Ġsecurity",
        -9.525226525593308
      ],
      [
        "Ġmiddle",
        -9.526574359752804
      ],
      [
        "Ġfront",
        -9.526632899351704
      ],
      [
        "Ġlines",
        -9.528343592544775
      ],
      [
        "Ġincreasing",
        -9.529565701780156
      ],
      [
        "Ġgenetic",
        -9.530070937527483
      ],
      [
        "Ġmemory",
        -9.530448411685198
      ],
      [
        "Ġrule",
        -9.532869182765502
      ],
      [
        "Ġcontain",
        -9.53474472963602
      ],
      [
        "Ġsoftware",
        -9.53498071767006
      ],
      [
        "Ġsomeone",
        -9.535853012000205
      ],
      [
        "Ġversion",
        -9.536077186915724
      ],
      [
        "Ġcosts",
        -9.536145236995226
      ],
      [
        "men",
        -9.536484564433762
      ],
      [
        "Ġinstance",
        -9.53745836561152
      ],
      [
        "Ġweather",
        -9.538580951557352
      ],
      [
        "Ġobjects",
        -9.539386499374258
      ],
      [
        "Ġoffer",
        -9.540486939386186
      ],
      [
        "Ġformed",
        -9.54056219103832
      ],
      [
        "Ġprotein",
        -9.542205134752075
      ],
      [
        "Ġfoods",
        -9.542255776552471
      ],
      [
        "ĠFrom",
        -9.54273871469793
      ],
      [
        "Ġrelationship",
        -9.54378576391448
      ],
      [
        "Ġbirds",
        -9.544004065257766
      ],
      [
        "Ġcar",
        -9.544157528421872
      ],
      [
        "Ġconstruction",
        -9.54468627557976
      ],
      [
        "Ġattempt",
        -9.54541734274212
      ],
      [
        "Ġprojects",
        -9.546464241596066
      ],
      [
        "Ġwaste",
        -9.546711518493392
      ],
      [
        "ĠHIV",
        -9.54745079829326
      ],
      [
        "Ġbenefit",
        -9.54799319007546
      ],
      [
        "Ġexposure",
        -9.548403510694234
      ],
      [
        "Ġolder",
        -9.54852549905664
      ],
      [
        "Ġnamed",
        -9.5496065929231
      ],
      [
        "Ġbeyond",
        -9.549651526040687
      ],
      [
        "Ġgoal",
        -9.549768835467592
      ],
      [
        "Ġseem",
        -9.549839265952272
      ],
      [
        "Ġadults",
        -9.54984562630334
      ],
      [
        "Ġdiscovered",
        -9.550122941577774
      ],
      [
        "Ġallows",
        -9.55015216381178
      ],
      [
        "Ġequal",
        -9.551785978102352
      ],
      [
        "Ġgave",
        -9.552196647998429
      ],
      [
        "Ġessential",
        -9.552526279922873
      ],
      [
        "Ġlegal",
        -9.552545385781338
      ],
      [
        "Ġriver",
        -9.55329115587226
      ],
      [
        "ĠFrance",
        -9.554495459242144
      ],
      [
        "Ġcultural",
        -9.555590475264497
      ],
      [
        "Ġsmaller",
        -9.55574573119094
      ],
      [
        "Ġchurch",
        -9.555994540049303
      ],
      [
        "Ġdrugs",
        -9.558805560137207
      ],
      [
        "Ġremain",
        -9.559043264753926
      ],
      [
        "15",
        -9.559212110379038
      ],
      [
        "ĠWilliam",
        -9.560745322602797
      ],
      [
        "Ġminutes",
        -9.560906153898134
      ],
      [
        "Ġeconomy",
        -9.560979212075418
      ],
      [
        "Ġlaws",
        -9.56112888219772
      ],
      [
        "Ġcold",
        -9.56128664722616
      ],
      [
        "Ġformer",
        -9.561720364596075
      ],
      [
        "Ġhands",
        -9.562363409143966
      ],
      [
        "Ġcurrently",
        -9.563352082580376
      ],
      [
        "ĠFebruary",
        -9.563360614713034
      ],
      [
        "ĠOther",
        -9.56402191587494
      ],
      [
        "Ġdiseases",
        -9.564219708195544
      ],
      [
        "Ġwinter",
        -9.564297118758867
      ],
      [
        "Ġgame",
        -9.565376681503215
      ],
      [
        "ĠCouncil",
        -9.566490872708984
      ],
      [
        "Ġimportance",
        -9.5667029412549
      ],
      [
        "Ġsuccess",
        -9.568638061046212
      ],
      [
        "Ġhistorical",
        -9.568973858984137
      ],
      [
        "Ġperhaps",
        -9.569991341504954
      ],
      [
        "Ġprocesses",
        -9.570845261969655
      ],
      [
        "Ġresponsible",
        -9.571143599413134
      ],
      [
        "Ġwrite",
        -9.57165652815861
      ],
      [
        "Ġreach",
        -9.572459075808071
      ],
      [
        "Ġalone",
        -9.577850284849028
      ],
      [
        "Ġchance",
        -9.577967448727936
      ],
      [
        "Ġdegree",
        -9.58034613290402
      ],
      [
        "Ġ2004",
        -9.58064524305114
      ],
      [
        "ĠChinese",
        -9.582493156126082
      ],
      [
        "Ġrequires",
        -9.582811285501428
      ],
      [
        "Ġseason",
        -9.58285906953328
      ],
      [
        "Ġmaintain",
        -9.583218839823935
      ],
      [
        "day",
        -9.583503483095596
      ],
      [
        "Ġappears",
        -9.583768015526635
      ],
      [
        "Ġallowed",
        -9.58581236470152
      ],
      [
        "Ġstage",
        -9.588590732034248
      ],
      [
        "Ġbad",
        -9.590215472876933
      ],
      [
        "ĠDNA",
        -9.590374608602312
      ],
      [
        "Ġplaces",
        -9.591308565595286
      ],
      [
        "ĠJesus",
        -9.59132401715708
      ],
      [
        "Ġidentify",
        -9.591778628149946
      ],
      [
        "Ġwoman",
        -9.59187373175986
      ],
      [
        "Ġcharacter",
        -9.591941721077406
      ],
      [
        "one",
        -9.594432771174349
      ],
      [
        "Ġgot",
        -9.594525609802288
      ],
      [
        "Ġcover",
        -9.59488132970836
      ],
      [
        "ĠPark",
        -9.594924318439498
      ],
      [
        "Ġanything",
        -9.595444604251965
      ],
      [
        "Ġuser",
        -9.595777344128456
      ],
      [
        "Ġwon",
        -9.595893904772469
      ],
      [
        "Ġdry",
        -9.596394137617011
      ],
      [
        "ĠChristian",
        -9.596425692305038
      ],
      [
        "ĠDay",
        -9.596975179669476
      ],
      [
        "Ġlocation",
        -9.598040148995109
      ],
      [
        "Some",
        -9.598831242154285
      ],
      [
        "Ġrelease",
        -9.599926612365724
      ],
      [
        "Ġequipment",
        -9.600859236963792
      ],
      [
        "Ġnative",
        -9.6016437149008
      ],
      [
        "Ġnuclear",
        -9.602210792645405
      ],
      [
        "Ġtesting",
        -9.602236496450374
      ],
      [
        "Ġteacher",
        -9.604040644049176
      ],
      [
        "Ġtravel",
        -9.604185235065446
      ],
      [
        "Ġlink",
        -9.605058357191911
      ],
      [
        "ĠJews",
        -9.607248049702203
      ],
      [
        "ĠInternet",
        -9.60789287327065
      ],
      [
        "Ġseparate",
        -9.608089141288769
      ],
      [
        "Ġroom",
        -9.608299893079987
      ],
      [
        "Ġcourt",
        -9.60916844967934
      ],
      [
        "Ġcheck",
        -9.609798511722229
      ],
      [
        "Ġscale",
        -9.61418436834477
      ],
      [
        "ĠGermany",
        -9.61471729929814
      ],
      [
        "Ġhundred",
        -9.61498207333906
      ],
      [
        "Ġtend",
        -9.615465271204
      ],
      [
        "ĠRoman",
        -9.615539125749468
      ],
      [
        "ĠGovernment",
        -9.617457633062315
      ],
      [
        "Ġfinancial",
        -9.617657855420411
      ],
      [
        "Ġrelatively",
        -9.619327121589489
      ],
      [
        "Ġorganization",
        -9.61971304584981
      ],
      [
        "Ġoffice",
        -9.620026356769676
      ],
      [
        "Ġjob",
        -9.620849561246509
      ],
      [
        "Ġtechniques",
        -9.621829340867864
      ],
      [
        "Ġdevice",
        -9.623546600103868
      ],
      [
        "Ġweb",
        -9.624447684056946
      ],
      [
        "Ġstatus",
        -9.62453028286724
      ],
      [
        "Ġprevious",
        -9.624543349062469
      ],
      [
        "Ġidentified",
        -9.624906543396367
      ],
      [
        "Ġbreak",
        -9.625104898637584
      ],
      [
        "ĠJames",
        -9.6270068015629
      ],
      [
        "Ġnegative",
        -9.627009351086835
      ],
      [
        "Ġunit",
        -9.62727874289998
      ],
      [
        "Ġsleep",
        -9.62774769215351
      ],
      [
        "Ġ22",
        -9.628256999880776
      ],
      [
        "ĠWeb",
        -9.628297808284415
      ],
      [
        "Ġvirus",
        -9.628454622500016
      ],
      [
        "Ġleave",
        -9.629145891431548
      ],
      [
        "ĠDavid",
        -9.632130906095108
      ],
      [
        "Ġdrive",
        -9.632501490530226
      ],
      [
        "Ġsuccessful",
        -9.632830244930744
      ],
      [
        "Ġcapital",
        -9.634210007614753
      ],
      [
        "Ġstress",
        -9.634607899597386
      ],
      [
        "Ġconcept",
        -9.635860888581105
      ],
      [
        "Ġcommand",
        -9.636284809026506
      ],
      [
        "Â°",
        -9.638254438417912
      ],
      [
        "ĠCollege",
        -9.63930765922961
      ],
      [
        "Ġoccurs",
        -9.640214097607409
      ],
      [
        "ĠDe",
        -9.64045245409203
      ],
      [
        "ĠAustralia",
        -9.641246576591124
      ],
      [
        "ĠYour",
        -9.64270499532224
      ],
      [
        "Ġsolution",
        -9.6457808026123
      ],
      [
        "Ġmajority",
        -9.646821048009754
      ],
      [
        "ities",
        -9.648974563796996
      ],
      [
        "Ġ2003",
        -9.649523474697205
      ],
      [
        "Ġpassed",
        -9.649914635786454
      ],
      [
        "Ġtypically",
        -9.651436390169538
      ],
      [
        "Ġapplications",
        -9.652570722257453
      ],
      [
        "30",
        -9.653836641269963
      ],
      [
        "Ġrace",
        -9.655157926802664
      ],
      [
        "Ġreports",
        -9.656080881531718
      ],
      [
        "J",
        -9.656151512059902
      ],
      [
        "Ġproviding",
        -9.656404707315566
      ],
      [
        "He",
        -9.656411291692208
      ],
      [
        "Ġmeasures",
        -9.65667865207369
      ],
      [
        "ĠService",
        -9.657421317716231
      ],
      [
        "Ġshape",
        -9.658229082256124
      ],
      [
        "Ġforest",
        -9.659072971539397
      ],
      [
        "Ġreduced",
        -9.659712251069111
      ],
      [
        "Ġvolume",
        -9.662120549624673
      ],
      [
        "ĠLord",
        -9.662245061347726
      ],
      [
        "ĠNASA",
        -9.662810772942793
      ],
      [
        "Ġprice",
        -9.663204425808342
      ],
      [
        "Ġ60",
        -9.66322076380483
      ],
      [
        "Ġgives",
        -9.664455270735882
      ],
      [
        "Ġaffected",
        -9.666045842112323
      ],
      [
        "ĠWestern",
        -9.666514706865716
      ],
      [
        "Ġmental",
        -9.666645619845134
      ],
      [
        "Ġdiabetes",
        -9.667008359646372
      ],
      [
        "Ġemissions",
        -9.667458609259574
      ],
      [
        "Ġradiation",
        -9.667554259895198
      ],
      [
        "Ġlayer",
        -9.66794263732681
      ],
      [
        "Ġtowards",
        -9.669068980297416
      ],
      [
        "ĠMr",
        -9.669429357902796
      ],
      [
        "Ġshowed",
        -9.669464539329743
      ],
      [
        "Ġapplied",
        -9.669856560236544
      ],
      [
        "Ġworked",
        -9.670251450223327
      ],
      [
        "Ġbecomes",
        -9.670644650915984
      ],
      [
        "Ġtreat",
        -9.67108056853876
      ],
      [
        "While",
        -9.67151264571878
      ],
      [
        "Ġcommercial",
        -9.67330576272759
      ],
      [
        "Ġbacteria",
        -9.67377100799482
      ],
      [
        "Ġseven",
        -9.675185266791862
      ],
      [
        "Ġplanet",
        -9.67783282865526
      ],
      [
        "Ġpicture",
        -9.67893263639072
      ],
      [
        "ĠRe",
        -9.68179577306683
      ],
      [
        "Ġthinking",
        -9.682382982117051
      ],
      [
        "ĠJapan",
        -9.682942859871297
      ],
      [
        "ĠMuseum",
        -9.683623550059986
      ],
      [
        "Ġmission",
        -9.684465718022365
      ],
      [
        "Ġdifferences",
        -9.68474483456052
      ],
      [
        "Ġstore",
        -9.684963387678906
      ],
      [
        "that",
        -9.685174305703091
      ],
      [
        "Ġincome",
        -9.68531118434824
      ],
      [
        "Ġdistance",
        -9.685548348485645
      ],
      [
        "Ġmid",
        -9.68556899565041
      ],
      [
        "Ġ2001",
        -9.685753491481156
      ],
      [
        "See",
        -9.687658735767688
      ],
      [
        "Ġrecords",
        -9.688683165087712
      ],
      [
        "Ġfindings",
        -9.68935067728153
      ],
      [
        "Ġcities",
        -9.68993768070704
      ],
      [
        "Ġleaves",
        -9.691426929030747
      ],
      [
        "13",
        -9.691532479101571
      ],
      [
        "Ġinteresting",
        -9.691869515946529
      ],
      [
        "Ġnames",
        -9.692278224894856
      ],
      [
        "Ġfemale",
        -9.692688134508051
      ],
      [
        "Ġstaff",
        -9.69410118217418
      ],
      [
        "Ġtable",
        -9.69414306048954
      ],
      [
        "Ġprofessional",
        -9.69494197948986
      ],
      [
        "ĠEven",
        -9.69549509894769
      ],
      [
        "Ġfigure",
        -9.695600103648388
      ],
      [
        "Ġrules",
        -9.695622891854557
      ],
      [
        "Ġsugar",
        -9.696030038210475
      ],
      [
        "Ġtherapy",
        -9.696157315991334
      ],
      [
        "Ġcoming",
        -9.696462272043966
      ],
      [
        "Ġopportunity",
        -9.696557618841805
      ],
      [
        "ĠWater",
        -9.697081124885807
      ],
      [
        "Ġcollege",
        -9.697082424248835
      ],
      [
        "Ġmodels",
        -9.697496781404686
      ],
      [
        "Ġbaby",
        -9.698198913195409
      ],
      [
        "Ġsuggest",
        -9.698509906141506
      ],
      [
        "Ġcombination",
        -9.698677769970418
      ],
      [
        "Ġpowerful",
        -9.69888063501255
      ],
      [
        "Ġten",
        -9.69913041611682
      ],
      [
        "Ġchanged",
        -9.699536846604364
      ],
      [
        "ĠGeorge",
        -9.699750182030918
      ],
      [
        "Ġreference",
        -9.701583456193998
      ],
      [
        "Ġcompletely",
        -9.703187119677215
      ],
      [
        "Ġprogress",
        -9.70488664962378
      ],
      [
        "After",
        -9.705249447362045
      ],
      [
        "ĠChrist",
        -9.70539292794523
      ],
      [
        "#",
        -9.705851072668452
      ],
      [
        "Ġeyes",
        -9.70696790026627
      ],
      [
        "Ġgoes",
        -9.707205994961551
      ],
      [
        "Ġforeign",
        -9.70728526102675
      ],
      [
        "Ġexisting",
        -9.707570618770209
      ],
      [
        "Ġpresence",
        -9.707944377988031
      ],
      [
        "Ġeducational",
        -9.70804604332896
      ],
      [
        "Ġcommonly",
        -9.708827049042236
      ],
      [
        "ĠSince",
        -9.709184948929035
      ],
      [
        "Ġapproximately",
        -9.709796670655908
      ],
      [
        "Ġgene",
        -9.712625739150614
      ],
      [
        "out",
        -9.714569180246285
      ],
      [
        "Ġ23",
        -9.71532868100086
      ],
      [
        "Ġcross",
        -9.716928613786353
      ],
      [
        "Ġacid",
        -9.717018591282931
      ],
      [
        "Ġpresented",
        -9.71712892013125
      ],
      [
        "14",
        -9.71756072614938
      ],
      [
        "ĠTexas",
        -9.717891503801397
      ],
      [
        "Ġ2002",
        -9.717933576707376
      ],
      [
        "Ġcarried",
        -9.718260774821337
      ],
      [
        "Ġdemand",
        -9.719573524386208
      ],
      [
        "ĠBecause",
        -9.722527429312136
      ],
      [
        "Ġeverything",
        -9.723271581944646
      ],
      [
        "Ġobserved",
        -9.723329560266569
      ],
      [
        "Ġcommunication",
        -9.724330770147096
      ],
      [
        "Ġfactor",
        -9.72536721473192
      ],
      [
        "Ġexist",
        -9.725384792249768
      ],
      [
        "ĠSee",
        -9.725548356542449
      ],
      [
        "Ġtool",
        -9.726430567100447
      ],
      [
        "Ġdirection",
        -9.726911446606204
      ],
      [
        "which",
        -9.727470886491709
      ],
      [
        "Ġmap",
        -9.727752654627125
      ],
      [
        "trying",
        -9.728964924331452
      ],
      [
        "ĠGreek",
        -9.730035077228964
      ],
      [
        "Ġprofessor",
        -9.730613399114024
      ],
      [
        "ĠOf",
        -9.730910618827638
      ],
      [
        "Ġclassroom",
        -9.730937109484843
      ],
      [
        "Ġcreating",
        -9.734316096037931
      ],
      [
        "ĠJapanese",
        -9.734377042174678
      ],
      [
        "ISBN",
        -9.734590422491618
      ],
      [
        "Ġwhom",
        -9.735298550300058
      ],
      [
        "Ġtalk",
        -9.73560978913106
      ],
      [
        "Ġrespect",
        -9.736246552228494
      ],
      [
        "Ġcapacity",
        -9.736427996924162
      ],
      [
        "Ġregions",
        -9.736968300358573
      ],
      [
        "Ġlabor",
        -9.737085400711608
      ],
      [
        "ĠAlso",
        -9.73744080812622
      ],
      [
        "Ġdevices",
        -9.738102012844124
      ],
      [
        "Ġregular",
        -9.738797001634657
      ],
      [
        "Ġnor",
        -9.739809776355688
      ],
      [
        "Ġpractices",
        -9.739989103007805
      ],
      [
        "Ġvia",
        -9.7417389991768
      ],
      [
        "Ġkilled",
        -9.742488930546378
      ],
      [
        "ĠLa",
        -9.743344713391574
      ],
      [
        "ĠPaul",
        -9.743618705606394
      ],
      [
        "Ġspring",
        -9.74363909898141
      ],
      [
        "Ġbelieved",
        -9.743690577248248
      ],
      [
        "Ġreasons",
        -9.74555283586086
      ],
      [
        "ĠThus",
        -9.745905999274717
      ],
      [
        "Ġestimated",
        -9.746455304235688
      ],
      [
        "Ġeating",
        -9.7465887093027
      ],
      [
        "Ġusers",
        -9.74663961443471
      ],
      [
        "Ġstay",
        -9.747926858102533
      ],
      [
        "Ġportion",
        -9.748472617240818
      ],
      [
        "ĠIsrael",
        -9.748623364387722
      ],
      [
        "Ġclinical",
        -9.748741707649677
      ],
      [
        "Ġtissue",
        -9.750011101455662
      ],
      [
        "V",
        -9.750126645253946
      ],
      [
        "placed",
        -9.750160888313363
      ],
      [
        "Ġnoted",
        -9.75120101283571
      ],
      [
        "Ġsave",
        -9.752194236533288
      ],
      [
        "Ġexplain",
        -9.75225298965675
      ],
      [
        "Ġsouthern",
        -9.752949480677133
      ],
      [
        "Ġbit",
        -9.753520994821764
      ],
      [
        "Ġtax",
        -9.753679789672608
      ],
      [
        "Ġnews",
        -9.753815848924416
      ],
      [
        "Ġresource",
        -9.754780939939828
      ],
      [
        "Ġeventually",
        -9.75674321465095
      ],
      [
        "ĠMexico",
        -9.7574091873666
      ],
      [
        "Ġparty",
        -9.757650043285194
      ],
      [
        "Ġdark",
        -9.757673278523177
      ],
      [
        "ĠCourt",
        -9.757896722614586
      ],
      [
        "16",
        -9.758151503321278
      ],
      [
        "Ġmoving",
        -9.758893309540785
      ],
      [
        "Ġfruit",
        -9.76021359219085
      ],
      [
        "Ġdiscussion",
        -9.760397645036132
      ],
      [
        "Ġdistribution",
        -9.76053268284164
      ],
      [
        "Ġhighest",
        -9.761289641342346
      ],
      [
        "Ġsuggests",
        -9.761415868575288
      ],
      [
        "line",
        -9.762478953127758
      ],
      [
        "ĠCo",
        -9.762578701439333
      ],
      [
        "ĠTheir",
        -9.762697022372343
      ],
      [
        "Ġmedicine",
        -9.76350186646322
      ],
      [
        "Ġmale",
        -9.76490452715145
      ],
      [
        "Ġfamous",
        -9.765773757087716
      ],
      [
        "Ġdefined",
        -9.76594311702853
      ],
      [
        "Ġrich",
        -9.76605693011006
      ],
      [
        "Ġgeneration",
        -9.766447253193013
      ],
      [
        "Ġchoose",
        -9.768162155022983
      ],
      [
        "Ġtreated",
        -9.768401413913056
      ],
      [
        "Ġnorthern",
        -9.769666364115672
      ],
      [
        "Ġblue",
        -9.77074453057006
      ],
      [
        "Ġdis",
        -9.771486296707131
      ],
      [
        "Ġreleased",
        -9.773031280116792
      ],
      [
        "Ġfilm",
        -9.774241597297674
      ],
      [
        "Ġdead",
        -9.776317732518851
      ],
      [
        "Ġeight",
        -9.776452560185936
      ],
      [
        "Ġroad",
        -9.776567654293856
      ],
      [
        "Ġmoment",
        -9.777732908814189
      ],
      [
        "Ġplans",
        -9.779172940273758
      ],
      [
        "Ġdidn",
        -9.779304391123514
      ],
      [
        "Ġletter",
        -9.779368802578649
      ],
      [
        "With",
        -9.779720836929034
      ],
      [
        "Ġfat",
        -9.779933536985284
      ],
      [
        "ĠUse",
        -9.78139929355823
      ],
      [
        "Ġheavy",
        -9.78325495322254
      ],
      [
        "Ġdisorder",
        -9.784989548601978
      ],
      [
        "Ġdocument",
        -9.785092968095013
      ],
      [
        "ĠPeople",
        -9.785787392929008
      ],
      [
        "Ġannual",
        -9.786131691047204
      ],
      [
        "Ġconducted",
        -9.787637047650133
      ],
      [
        "Ġsample",
        -9.78819718506156
      ],
      [
        "Ġfast",
        -9.788707647578068
      ],
      [
        "Ġclean",
        -9.78886360098516
      ],
      [
        "Ġstyle",
        -9.789198271279984
      ],
      [
        "Ġ1990",
        -9.78946306591186
      ],
      [
        "Ġstar",
        -9.789906575644336
      ],
      [
        "Ġking",
        -9.790061569331495
      ],
      [
        "Ġoverall",
        -9.790800181694994
      ],
      [
        "Ġcampaign",
        -9.790808956117356
      ],
      [
        "Ġorganizations",
        -9.791403717061511
      ],
      [
        "Ġfriends",
        -9.792002395634556
      ],
      [
        "ĠHere",
        -9.792779019591364
      ],
      [
        "Ġpiece",
        -9.793494048524126
      ],
      [
        "Ġreligion",
        -9.793832963207745
      ],
      [
        "Ġelse",
        -9.793835634798786
      ],
      [
        "Ġfully",
        -9.794129066787727
      ],
      [
        "Ġimmediately",
        -9.795555576284729
      ],
      [
        "Ġupper",
        -9.795665929372394
      ],
      [
        "Ġdecades",
        -9.797276562278626
      ],
      [
        "Ġtitle",
        -9.797767410940343
      ],
      [
        "Ġsign",
        -9.797844845868635
      ],
      [
        "All",
        -9.79808943104304
      ],
      [
        "Ġpattern",
        -9.798692066187265
      ],
      [
        "ĠEach",
        -9.798830592107086
      ],
      [
        "Ġpromote",
        -9.800269170401725
      ],
      [
        "Ġatmosphere",
        -9.80060466412532
      ],
      [
        "Ġintroduced",
        -9.801018721445525
      ],
      [
        "ary",
        -9.801055649774646
      ],
      [
        "ĠIsland",
        -9.801427906730956
      ],
      [
        "moved",
        -9.802684530565411
      ],
      [
        "Ġrunning",
        -9.803516287324008
      ],
      [
        "Ġfreedom",
        -9.803532802366725
      ],
      [
        "Ġstories",
        -9.805336742256731
      ],
      [
        "Ġcontext",
        -9.805399105940497
      ],
      [
        "Ġindependent",
        -9.805534251816132
      ],
      [
        "Ġphase",
        -9.806261790244006
      ],
      [
        "Ġactual",
        -9.806750753043922
      ],
      [
        "Ġproperties",
        -9.806752685151633
      ],
      [
        "Ġpatterns",
        -9.806954623877932
      ],
      [
        "ĠHuman",
        -9.807688889229524
      ],
      [
        "Ġpresident",
        -9.80906085839653
      ],
      [
        "ĠMedicine",
        -9.80920248094558
      ],
      [
        "ĠRobert",
        -9.80994477009709
      ],
      [
        "Ġenter",
        -9.810027997284765
      ],
      [
        "Ġturned",
        -9.810216192785552
      ],
      [
        "Ġofficial",
        -9.810287608363543
      ],
      [
        "Ġdetails",
        -9.810494428375089
      ],
      [
        "aid",
        -9.812097654102727
      ],
      [
        "ĠProgram",
        -9.813390202463962
      ],
      [
        "Ġcarry",
        -9.814441649197851
      ],
      [
        "Ġclaim",
        -9.814919970876709
      ],
      [
        "Ġ28",
        -9.815312948848147
      ],
      [
        "Ġlived",
        -9.81565969340592
      ],
      [
        "ĠSea",
        -9.815825859496671
      ],
      [
        "Ġpopulations",
        -9.816635320044057
      ],
      [
        "ĠBlack",
        -9.81686200390076
      ],
      [
        "Ġpath",
        -9.817041564511332
      ],
      [
        "Ġleaders",
        -9.817079407662726
      ],
      [
        "Ġbreast",
        -9.817660506211483
      ],
      [
        "Ġchoice",
        -9.81873871808894
      ],
      [
        "25",
        -9.820113619549629
      ],
      [
        "Ġdirector",
        -9.820282353655337
      ],
      [
        "Ġwild",
        -9.82161904350038
      ],
      [
        "Ġgiving",
        -9.821864240420837
      ],
      [
        "ĠSpace",
        -9.82204866364244
      ],
      [
        "ĠMedical",
        -9.82275170594891
      ],
      [
        "Ġproper",
        -9.823354547789949
      ],
      [
        "Ġspeak",
        -9.823530688240217
      ],
      [
        "ĠArmy",
        -9.823748408292824
      ],
      [
        "Ġguide",
        -9.82394401868021
      ],
      [
        "Ġplanning",
        -9.824436726945798
      ],
      [
        "Ġoperations",
        -9.825524160790684
      ],
      [
        "From",
        -9.826597106167052
      ],
      [
        "Ġmachine",
        -9.82700316089099
      ],
      [
        "Ġsquare",
        -9.828146874660172
      ],
      [
        "ĠChildren",
        -9.828218534995225
      ],
      [
        "Ġfoot",
        -9.828313305307306
      ],
      [
        "Ġtarget",
        -9.829457703060738
      ],
      [
        "Ġwrong",
        -9.829510278968106
      ],
      [
        "Ġcivil",
        -9.829627522527405
      ],
      [
        "Ġperform",
        -9.83141707588146
      ],
      [
        "Ġocean",
        -9.83176975538716
      ],
      [
        "Ġpeace",
        -9.831982889583973
      ],
      [
        "Ġrock",
        -9.832250251638126
      ],
      [
        "Ġfunctions",
        -9.83316076889714
      ],
      [
        "Ġbottom",
        -9.833182909023302
      ],
      [
        "Ġclearly",
        -9.834077321262445
      ],
      [
        "Ġalternative",
        -9.83462469679857
      ],
      [
        "Ġsurvey",
        -9.835344053440938
      ],
      [
        "served",
        -9.835442216181944
      ],
      [
        "Ġconservation",
        -9.836186359775123
      ],
      [
        "Ġcorrect",
        -9.836701695073812
      ],
      [
        "Ġlearned",
        -9.837140871077755
      ],
      [
        "Ġeveryone",
        -9.837437189505382
      ],
      [
        "Ġmilk",
        -9.837546069943096
      ],
      [
        "Ġplease",
        -9.838496148155224
      ],
      [
        "Ġremove",
        -9.838554210195491
      ],
      [
        "Ġsignal",
        -9.83866473469581
      ],
      [
        "Ġslow",
        -9.83958627665734
      ],
      [
        "@",
        -9.84041396776546
      ],
      [
        "Ġvision",
        -9.840697532581352
      ],
      [
        "Ġhelps",
        -9.841404124217094
      ],
      [
        "ĠSpanish",
        -9.843022072763413
      ],
      [
        "Ġbone",
        -9.84332434910635
      ],
      [
        "ĠDevelopment",
        -9.843699013096275
      ],
      [
        "Ġliterature",
        -9.843730465366315
      ],
      [
        "Ġexamples",
        -9.84450516643756
      ],
      [
        "Ġadult",
        -9.844677756585856
      ],
      [
        "Ġ26",
        -9.844821016035183
      ],
      [
        "That",
        -9.84504554569712
      ],
      [
        "Ġ1999",
        -9.846179231749185
      ],
      [
        "ĠNow",
        -9.846783191717906
      ],
      [
        "ĠPublic",
        -9.84682908021799
      ],
      [
        "Ġchapter",
        -9.847045077294515
      ],
      [
        "Ġtechnologies",
        -9.847446579563837
      ],
      [
        "Ġproposed",
        -9.84805054530132
      ],
      [
        "Ġsort",
        -9.848680635145657
      ],
      [
        "Ġcovered",
        -9.849157839187718
      ],
      [
        "Ġconsumption",
        -9.849219610140366
      ],
      [
        "Ġevolution",
        -9.849271339933068
      ],
      [
        "Ġfields",
        -9.850630974762836
      ],
      [
        "Ġcreation",
        -9.851743903135478
      ],
      [
        "Ġsigns",
        -9.851932412487562
      ],
      [
        "Ġfrequently",
        -9.8521459147019
      ],
      [
        "Ġbalance",
        -9.852158292846411
      ],
      [
        "Ġcontrast",
        -9.852308080329031
      ],
      [
        "Ġgold",
        -9.8534374656769
      ],
      [
        "Ġwidely",
        -9.853797547973093
      ],
      [
        "Ġdigital",
        -9.854290974842854
      ],
      [
        "ĠProject",
        -9.854311142832202
      ],
      [
        "supported",
        -9.85514662130425
      ],
      [
        "Ġmouth",
        -9.855459545205964
      ],
      [
        "Q",
        -9.85549863457343
      ],
      [
        "Ġincreases",
        -9.856709182535884
      ],
      [
        "Ġoffers",
        -9.85780097414812
      ],
      [
        "ĠEnergy",
        -9.859381591151744
      ],
      [
        "Ġthousand",
        -9.860522548063546
      ],
      [
        "Ġdisplay",
        -9.860582992431825
      ],
      [
        "ĠThomas",
        -9.860684586574846
      ],
      [
        "Ġgain",
        -9.861375313818083
      ],
      [
        "Ġactions",
        -9.861396442256297
      ],
      [
        "ĠLibrary",
        -9.861448736422714
      ],
      [
        "Ġremained",
        -9.862022306215888
      ],
      [
        "Ġfear",
        -9.862462954129438
      ],
      [
        "Ġpass",
        -9.862969605719014
      ],
      [
        "Ġforward",
        -9.863885048197147
      ],
      [
        "Ġinternal",
        -9.86418451487975
      ],
      [
        "Ġreached",
        -9.86419454855537
      ],
      [
        "Ġresistance",
        -9.86467339738082
      ],
      [
        "Ġelectricity",
        -9.864739299250758
      ],
      [
        "ĠHigh",
        -9.865769680897175
      ],
      [
        "Ġblock",
        -9.866340948448634
      ],
      [
        "Ġperformed",
        -9.866355180807169
      ],
      [
        "Ġextremely",
        -9.867152887326949
      ],
      [
        "<",
        -9.867458754895278
      ],
      [
        "Ġdegrees",
        -9.867766395040023
      ],
      [
        "They",
        -9.868530068685988
      ],
      [
        "with",
        -9.869164256127842
      ],
      [
        "over",
        -9.870888219809007
      ],
      [
        "ĠWhite",
        -9.871507609444963
      ],
      [
        "Ġapply",
        -9.871938601589184
      ],
      [
        "Ġ27",
        -9.872587974464707
      ],
      [
        "Ġgenes",
        -9.874306300146989
      ],
      [
        "Ġnumerous",
        -9.874666933164844
      ],
      [
        "Ġfailure",
        -9.874889146288536
      ],
      [
        "Ġisland",
        -9.874986983549835
      ],
      [
        "Ġremember",
        -9.87548030997844
      ],
      [
        "Ġtruth",
        -9.875799032476838
      ],
      [
        "Ġreduction",
        -9.876131531903477
      ],
      [
        "Ġauthority",
        -9.87663211255474
      ],
      [
        "Ġsend",
        -9.876837464920271
      ],
      [
        "Ġmessage",
        -9.877055484326096
      ],
      [
        "ĠPacific",
        -9.877334510337706
      ],
      [
        "Although",
        -9.877417930586864
      ],
      [
        "Ġstructures",
        -9.87810437504356
      ],
      [
        "Ġbattle",
        -9.878178968160256
      ],
      [
        "are",
        -9.878372509835405
      ],
      [
        "Ġorganic",
        -9.879274662029172
      ],
      [
        "ĠOur",
        -9.87981153913914
      ],
      [
        "Ġcharge",
        -9.88073856514464
      ],
      [
        "Ġseek",
        -9.88108399648632
      ],
      [
        "Ġarmy",
        -9.881108667177424
      ],
      [
        "Ġdetermined",
        -9.881627035719925
      ],
      [
        "Ġhuge",
        -9.881763952036088
      ],
      [
        "referred",
        -9.883275519466771
      ],
      [
        "Ġtask",
        -9.883913536251168
      ],
      [
        "ĠInformation",
        -9.884028201533017
      ],
      [
        "Ġrequirements",
        -9.88472971390796
      ],
      [
        "New",
        -9.884959473385631
      ],
      [
        "Ġradio",
        -9.88710533493702
      ],
      [
        "ĠNot",
        -9.88712046119276
      ],
      [
        "Ġcoast",
        -9.888117363942802
      ],
      [
        "Ġunits",
        -9.888881702753698
      ],
      [
        "ĠAsia",
        -9.88902717277813
      ],
      [
        "Ġchief",
        -9.889249293800152
      ],
      [
        "Ġnote",
        -9.88964894101028
      ],
      [
        "Ġchallenge",
        -9.889676316604245
      ],
      [
        "Ġstrength",
        -9.889694932238712
      ],
      [
        "Ġoccurred",
        -9.889966798695433
      ],
      [
        "Ġwest",
        -9.890654075575794
      ],
      [
        "18",
        -9.891018680505251
      ],
      [
        "Ġurban",
        -9.89108833904593
      ],
      [
        "related",
        -9.892391609173629
      ],
      [
        "Ġinitial",
        -9.892513061416528
      ],
      [
        "Ġcomponents",
        -9.892863554208066
      ],
      [
        "Ġspeech",
        -9.893386931038595
      ],
      [
        "Ġstatement",
        -9.894313767048368
      ],
      [
        "kept",
        -9.894427351955835
      ],
      [
        "Ġbodies",
        -9.894665309608287
      ],
      [
        "Ġimmune",
        -9.895837462742032
      ],
      [
        "Ġcredit",
        -9.896934777176572
      ],
      [
        "ĠLaw",
        -9.897397392991104
      ],
      [
        "Ġtemperatures",
        -9.898193377365136
      ],
      [
        "Ġadvance",
        -9.898515168121628
      ],
      [
        "Using",
        -9.89861060120617
      ],
      [
        "Ġoperation",
        -9.898997553547613
      ],
      [
        "ĠSystem",
        -9.899059326891404
      ],
      [
        "Ġnotes",
        -9.899822501917225
      ],
      [
        "Ġarticles",
        -9.900488454745137
      ],
      [
        "Ġcontribute",
        -9.90143184583117
      ],
      [
        "removed",
        -9.901441989290593
      ],
      [
        "Ġsignificantly",
        -9.90204326923156
      ],
      [
        "ĠOffice",
        -9.90213820323198
      ],
      [
        "Ġdie",
        -9.90235160852833
      ],
      [
        "Ġfinding",
        -9.903359385160424
      ],
      [
        "Ġpolicies",
        -9.903999184568054
      ],
      [
        "Ġdiscuss",
        -9.904755994970555
      ],
      [
        "Ġsteps",
        -9.904848070153347
      ],
      [
        "Ġopinion",
        -9.90499752604487
      ],
      [
        "ĠCatholic",
        -9.906035228744068
      ],
      [
        "Ġsexual",
        -9.906771264106052
      ],
      [
        "Ġwood",
        -9.907513765786211
      ],
      [
        "Ġfine",
        -9.907650967257462
      ],
      [
        "Ġfight",
        -9.90939137630632
      ],
      [
        "Ġcitizens",
        -9.90942064791062
      ],
      [
        "ated",
        -9.909466584573636
      ],
      [
        "ĠVirginia",
        -9.911016476101969
      ],
      [
        "Ġcycle",
        -9.912024551222393
      ],
      [
        "Ġconcern",
        -9.912478796321569
      ],
      [
        "Ġitems",
        -9.912799336497867
      ],
      [
        "Ġachieve",
        -9.91285920501788
      ],
      [
        "Ġstem",
        -9.912998061226022
      ],
      [
        "Ġbroad",
        -9.914838997733536
      ],
      [
        "Ġresulting",
        -9.915534249810186
      ],
      [
        "ĠFoundation",
        -9.915672482957188
      ],
      [
        "Ġsurgery",
        -9.915686822297095
      ],
      [
        "Ġindustrial",
        -9.915750800043469
      ],
      [
        "Ġpages",
        -9.917297135833026
      ],
      [
        "Ġvote",
        -9.917327550119817
      ],
      [
        "Ġrelative",
        -9.9174906462236
      ],
      [
        "ĠBe",
        -9.91765327068918
      ],
      [
        "Ġbuildings",
        -9.91883953613739
      ],
      [
        "Ġassessment",
        -9.92134529860147
      ],
      [
        "Ġspent",
        -9.92158055906909
      ],
      [
        "Ġdraw",
        -9.921921272321256
      ],
      [
        "Many",
        -9.922104482890235
      ],
      [
        "more",
        -9.923829084305634
      ],
      [
        "Ġencourage",
        -9.92442507446986
      ],
      [
        "Ġwall",
        -9.924928457802691
      ],
      [
        "Ġwarm",
        -9.925081145747884
      ],
      [
        "Ġfeed",
        -9.92588813470588
      ],
      [
        "Ġindicate",
        -9.926704371571889
      ],
      [
        "Ġboard",
        -9.928454037319216
      ],
      [
        "Ġ1998",
        -9.928704247308756
      ],
      [
        "Ġconflict",
        -9.928727793695703
      ],
      [
        "Ġviolence",
        -9.929318539866244
      ],
      [
        "old",
        -9.92955050348574
      ],
      [
        "Ġofficials",
        -9.929745631672548
      ],
      [
        "returned",
        -9.92981083925406
      ],
      [
        "Ġextensive",
        -9.929893553680897
      ],
      [
        "Ġpersons",
        -9.930458343830429
      ],
      [
        "Ġpreviously",
        -9.93062856813052
      ],
      [
        "Ġmeat",
        -9.931227785453109
      ],
      [
        "Other",
        -9.931557898546304
      ],
      [
        "Ġdebate",
        -9.93301268566452
      ],
      [
        "Ġfirm",
        -9.93367617094177
      ],
      [
        "Ġhappen",
        -9.933769912789932
      ],
      [
        "thousands",
        -9.934207249545969
      ],
      [
        "Ġeast",
        -9.934324723843304
      ],
      [
        "Ġopportunities",
        -9.934627549347846
      ],
      [
        "American",
        -9.934973129170062
      ],
      [
        "Â©",
        -9.936064714951886
      ],
      [
        "Ġhelped",
        -9.936771243654324
      ],
      [
        "Ġenjoy",
        -9.937541008238316
      ],
      [
        "Most",
        -9.93883549258048
      ],
      [
        "17",
        -9.939138776825912
      ],
      [
        "Ġbecoming",
        -9.939213962769424
      ],
      [
        "Ġmanner",
        -9.94001614391478
      ],
      [
        "looked",
        -9.94036766539162
      ],
      [
        "Ġmetal",
        -9.940380940612137
      ],
      [
        "Ġprior",
        -9.940665585132091
      ],
      [
        "Ġexpect",
        -9.94071201857954
      ],
      [
        "Ġrepresent",
        -9.94092184093354
      ],
      [
        "ĠLake",
        -9.941020378097887
      ],
      [
        "Ġhour",
        -9.942176493313925
      ],
      [
        "Ġprinciples",
        -9.942393393950464
      ],
      [
        "Ġoutput",
        -9.9433020541342
      ],
      [
        "ĠLatin",
        -9.943494978883868
      ],
      [
        "Ġcharacteristics",
        -9.94466393764183
      ],
      [
        "Ġfaith",
        -9.94524381046987
      ],
      [
        "ĠBritain",
        -9.94536084853952
      ],
      [
        "Ġstrategies",
        -9.945884982634352
      ],
      [
        "ĠCentral",
        -9.9460379599897
      ],
      [
        "Ġauthors",
        -9.946470984360388
      ],
      [
        "Ġstand",
        -9.946780013538389
      ],
      [
        "Ġexistence",
        -9.947026173288412
      ],
      [
        "Ġwanted",
        -9.947950026304705
      ],
      [
        "Ġexplore",
        -9.94881701276074
      ],
      [
        "Ġorigin",
        -9.94884128490992
      ],
      [
        "Ġalcohol",
        -9.948982974985274
      ],
      [
        "Ġclasses",
        -9.949405988990607
      ],
      [
        "Ġsurrounding",
        -9.949556617635997
      ],
      [
        "19",
        -9.950633808596622
      ],
      [
        "Ġhear",
        -9.95134578977561
      ],
      [
        "Ġaspects",
        -9.952368346885947
      ],
      [
        "Ġinstitutions",
        -9.952590156168116
      ],
      [
        "Ġmotion",
        -9.95287050459178
      ],
      [
        "ĠAir",
        -9.953244887453558
      ],
      [
        "Ġfit",
        -9.953328994905128
      ],
      [
        "Ġintended",
        -9.953442724219997
      ],
      [
        "ley",
        -9.953639461374484
      ],
      [
        "Ġoxygen",
        -9.953940745391629
      ],
      [
        "More",
        -9.9542589522717
      ],
      [
        "Ġwestern",
        -9.954365079290396
      ],
      [
        "ĠCivil",
        -9.95483237772198
      ],
      [
        "Ġ80",
        -9.95581295397835
      ],
      [
        "ĠSun",
        -9.956759723630729
      ],
      [
        "Ġconnection",
        -9.956938863402716
      ],
      [
        "Ġextent",
        -9.957612510019496
      ],
      [
        "Ġkm",
        -9.958027587200156
      ],
      [
        "Ġacademic",
        -9.959471421196696
      ],
      [
        "Ġbackground",
        -9.960860625105626
      ],
      [
        "Ġdecided",
        -9.961654831353371
      ],
      [
        "Ġvoice",
        -9.961678849377694
      ],
      [
        "Ġexpression",
        -9.961889432275246
      ],
      [
        "Ġcompleted",
        -9.9622738515143
      ],
      [
        "Ġsaying",
        -9.963056233559035
      ],
      [
        "Ġvaccine",
        -9.963642736394991
      ],
      [
        "Ġexposed",
        -9.964292482418037
      ],
      [
        "Ġdog",
        -9.964293161687351
      ],
      [
        "Ġdescribe",
        -9.96460523261713
      ],
      [
        "ĠRed",
        -9.964802396223506
      ],
      [
        "Ġadvanced",
        -9.96535866740202
      ],
      [
        "Ġmoral",
        -9.965448370785111
      ],
      [
        "Ġextra",
        -9.965991487298345
      ],
      [
        "ĠCharles",
        -9.967128723366285
      ],
      [
        "Ġanyone",
        -9.967231213736316
      ],
      [
        "Ġfarmers",
        -9.967657725037183
      ],
      [
        "Ġreality",
        -9.967793230991596
      ],
      [
        "Ġhabitat",
        -9.968299268448748
      ],
      [
        "Ġmulti",
        -9.968322615373593
      ],
      [
        "ĠUK",
        -9.969005484200563
      ],
      [
        "Ġtechnique",
        -9.969596290724336
      ],
      [
        "No",
        -9.969968188179111
      ],
      [
        "Ġforced",
        -9.970283551121089
      ],
      [
        "Ġiron",
        -9.971331480824912
      ],
      [
        "Ġheard",
        -9.971332383417694
      ],
      [
        "Ġhair",
        -9.972509545058497
      ],
      [
        "Ġlargely",
        -9.973091907575874
      ],
      [
        "Ġcent",
        -9.973534851677067
      ],
      [
        "Ġcoal",
        -9.973732714691083
      ],
      [
        "Ġraise",
        -9.974835041586894
      ],
      [
        "Ġexcept",
        -9.975494503997888
      ],
      [
        "Ġrecommended",
        -9.9755467280623
      ],
      [
        "Ġliquid",
        -9.977775814700005
      ],
      [
        "Ġprimarily",
        -9.978219493215851
      ],
      [
        "Ġtechnical",
        -9.979515331586514
      ],
      [
        "Ġsetting",
        -9.979814552192128
      ],
      [
        "Ġchanging",
        -9.979955413220267
      ],
      [
        "Ġobvious",
        -9.98004261512543
      ],
      [
        "Ġreflect",
        -9.980741942526787
      ],
      [
        "Ġdecline",
        -9.982070579293872
      ],
      [
        "Ġabuse",
        -9.98373444059177
      ],
      [
        "Ġ200",
        -9.984158803534056
      ],
      [
        "Ġdisorders",
        -9.984444358488163
      ],
      [
        "Ġrefer",
        -9.985197820964274
      ],
      [
        "Ġlimit",
        -9.98533375155767
      ],
      [
        "exactly",
        -9.98556160023128
      ],
      [
        "Ġinterested",
        -9.986023225615208
      ],
      [
        "Ġhost",
        -9.9863497123363
      ],
      [
        "appeared",
        -9.987047312706558
      ],
      [
        "Ġstars",
        -9.98738649481948
      ],
      [
        "Ġextreme",
        -9.987676152246175
      ],
      [
        "Ġemail",
        -9.98962584441272
      ],
      [
        "off",
        -9.990002788389727
      ],
      [
        "Ġdepression",
        -9.990631958724071
      ],
      [
        "Ġstation",
        -9.992151875323724
      ],
      [
        "ĠLife",
        -9.99245140186768
      ],
      [
        "Ġbill",
        -9.993322270312095
      ],
      [
        "Ġrecorded",
        -9.993405287840478
      ],
      [
        "side",
        -9.993604675321698
      ],
      [
        "ĠCommission",
        -9.993659712241593
      ],
      [
        "Ġmet",
        -9.994855612816863
      ],
      [
        "Ġagricultural",
        -9.99574219475466
      ],
      [
        "Ġfeature",
        -9.996117650504733
      ],
      [
        "ĠEnvironmental",
        -9.996675912431822
      ],
      [
        "Ġ90",
        -9.996824661055564
      ],
      [
        "Ġdefinition",
        -9.997441634384336
      ],
      [
        "Ġwife",
        -9.99770181300354
      ],
      [
        "Ġaim",
        -9.998201618934209
      ],
      [
        "ĠBook",
        -9.998548316870002
      ],
      [
        "00",
        -9.998905696335347
      ],
      [
        "Ġcore",
        -9.999009416901464
      ],
      [
        "Ġbird",
        -9.999087076597789
      ],
      [
        "Ġstarting",
        -9.999471498074682
      ],
      [
        "Ġbiological",
        -9.999818201948573
      ],
      [
        "Ġfinally",
        -10.000933388624858
      ],
      [
        "Ġengineering",
        -10.001739230832056
      ],
      [
        "ĠGreen",
        -10.00216614538697
      ],
      [
        "Ġoffered",
        -10.0023468256439
      ],
      [
        "Ġbrief",
        -10.002511920779584
      ],
      [
        "Ġlinks",
        -10.003975826864888
      ],
      [
        "Ġhit",
        -10.004620549395645
      ],
      [
        "Ġformation",
        -10.005196311164502
      ],
      [
        "Ġdecisions",
        -10.0056145310311
      ],
      [
        "Ġstorage",
        -10.006288801518826
      ],
      [
        "Ġmuscle",
        -10.006478998331216
      ],
      [
        "Ġ1997",
        -10.006551808229249
      ],
      [
        "Ġcausing",
        -10.006643484339396
      ],
      [
        "Ġdecrease",
        -10.007069915792638
      ],
      [
        "Ġfacilities",
        -10.007375609136124
      ],
      [
        "Ġheight",
        -10.00746605607358
      ],
      [
        "Ġobtain",
        -10.007945604661588
      ],
      [
        "ists",
        -10.009383378236334
      ],
      [
        "Ġsex",
        -10.010510058667688
      ],
      [
        "ĠOr",
        -10.011746923186744
      ],
      [
        "Ġ29",
        -10.011819093235545
      ],
      [
        "Ġteach",
        -10.012057293971951
      ],
      [
        "j",
        -10.012683998485407
      ],
      [
        "Ġcombined",
        -10.013648849554489
      ],
      [
        "Ġsolid",
        -10.013860732992775
      ],
      [
        "ĠBay",
        -10.014888246913817
      ],
      [
        "Ġdouble",
        -10.015609548375249
      ],
      [
        "Ġadvantage",
        -10.015638607053408
      ],
      [
        "Ġraised",
        -10.016481950236198
      ],
      [
        "Ġregarding",
        -10.016760869766602
      ],
      [
        "led",
        -10.016983662496513
      ],
      [
        "Ġnations",
        -10.018059863659715
      ],
      [
        "Ġreaction",
        -10.019205150309466
      ],
      [
        "Ġpurposes",
        -10.019537956092655
      ],
      [
        "Ġfresh",
        -10.020189422900875
      ],
      [
        "ĠTechnology",
        -10.02041145804024
      ],
      [
        "Ġvisual",
        -10.020832881307625
      ],
      [
        "Ġgreatest",
        -10.021535316560628
      ],
      [
        "Ġcouple",
        -10.021538362296068
      ],
      [
        "Ġcenturies",
        -10.02199004980487
      ],
      [
        "divided",
        -10.02203848956382
      ],
      [
        "Ġcareer",
        -10.022160199926327
      ],
      [
        "Ġleader",
        -10.023890114650955
      ],
      [
        "Ġship",
        -10.02436780911238
      ],
      [
        "from",
        -10.024998412116028
      ],
      [
        "Ġexchange",
        -10.025049535164984
      ],
      [
        "Ġcamera",
        -10.025107962190084
      ],
      [
        "Ġexperts",
        -10.025442331801452
      ],
      [
        "Ġdomestic",
        -10.02597299789001
      ],
      [
        "Ġexperiment",
        -10.026067767760663
      ],
      [
        "be",
        -10.026592966945383
      ],
      [
        "Ġpolice",
        -10.02757818273969
      ],
      [
        "Ġideal",
        -10.027765696601362
      ],
      [
        "ĠFlorida",
        -10.028844751577592
      ],
      [
        "Ġparticipants",
        -10.028948228324293
      ],
      [
        "ĠCommittee",
        -10.029592551532131
      ],
      [
        "Ġsuggested",
        -10.03004560181719
      ],
      [
        "Ġrequest",
        -10.030106945771196
      ],
      [
        "Ġprocedure",
        -10.030609981409745
      ],
      [
        "Ġpollution",
        -10.031222837590873
      ],
      [
        "Ġgoals",
        -10.031615388346433
      ],
      [
        "Ġdetailed",
        -10.03239283239738
      ],
      [
        "Ġtrial",
        -10.03423518421834
      ],
      [
        "ĠFederal",
        -10.03475251234572
      ],
      [
        "Ġroot",
        -10.034939048993358
      ],
      [
        "Ġhousehold",
        -10.034980326933146
      ],
      [
        "ĠCompany",
        -10.035203409088538
      ],
      [
        "ĠMiddle",
        -10.035904788159476
      ],
      [
        "Ġagencies",
        -10.03645505788558
      ],
      [
        "Ġyourself",
        -10.036594543288896
      ],
      [
        "Ġkill",
        -10.038625596703564
      ],
      [
        "Ġready",
        -10.038767096573912
      ],
      [
        "Ġconcerns",
        -10.03942045341548
      ],
      [
        "Ġparticles",
        -10.04011565540084
      ],
      [
        "Ġmentioned",
        -10.040144502239729
      ],
      [
        "Ġchallenges",
        -10.040605083170712
      ],
      [
        "Ġwarming",
        -10.040788600313665
      ],
      [
        "Ġimproved",
        -10.041245422487268
      ],
      [
        "Ġpractical",
        -10.041349297259371
      ],
      [
        "Ġoptions",
        -10.043418038794384
      ],
      [
        "Ġreducing",
        -10.043583009913323
      ],
      [
        "Ġoperating",
        -10.043799617003591
      ],
      [
        "Ġvast",
        -10.04434146181286
      ],
      [
        "Ġyield",
        -10.045024205953906
      ],
      [
        "Ġfundamental",
        -10.045242809741614
      ],
      [
        "Now",
        -10.04571311689426
      ],
      [
        "Ġconnected",
        -10.046850226946802
      ],
      [
        "Ġdangerous",
        -10.047202576397526
      ],
      [
        "Ġprices",
        -10.047317923635326
      ],
      [
        "Ġillness",
        -10.04830303275848
      ],
      [
        "Ġotherwise",
        -10.048493294032465
      ],
      [
        "Ġ70",
        -10.048864461986351
      ],
      [
        "Ġjoint",
        -10.049850268591785
      ],
      [
        "Ġcollected",
        -10.049906019246444
      ],
      [
        "Ġtradition",
        -10.05027808246228
      ],
      [
        "Ġmorning",
        -10.051228013741303
      ],
      [
        "Ġtopic",
        -10.051609479778978
      ],
      [
        "ĠCanadian",
        -10.052784511843583
      ],
      [
        "Ġglass",
        -10.052995496998047
      ],
      [
        "played",
        -10.05400717478402
      ],
      [
        "Ġlibrary",
        -10.055386713586064
      ],
      [
        "Ġinfections",
        -10.055393385077986
      ],
      [
        "Ġjournal",
        -10.05623501034271
      ],
      [
        "ĠSocial",
        -10.057041940591091
      ],
      [
        "50",
        -10.0574922806904
      ],
      [
        "Ġprepared",
        -10.058051321196798
      ],
      [
        "Ġconstant",
        -10.058820457168268
      ],
      [
        "Ġdiagnosis",
        -10.059550987785544
      ],
      [
        "Ġfrequency",
        -10.059906772914168
      ],
      [
        "Ġround",
        -10.059937943607675
      ],
      [
        "easier",
        -10.060154611646556
      ],
      [
        "500",
        -10.061226628695096
      ],
      [
        "ĠHenry",
        -10.061334999227594
      ],
      [
        "Ġrecognize",
        -10.0616927509742
      ],
      [
        "Ġstudied",
        -10.061728368333265
      ],
      [
        "ĠOld",
        -10.062044376278507
      ],
      [
        "ĠFood",
        -10.062540418117567
      ],
      [
        "Ġsamples",
        -10.063044166257574
      ],
      [
        "Ġuniverse",
        -10.064107713760656
      ],
      [
        "Therefore",
        -10.06419129791728
      ],
      [
        "Ġmarriage",
        -10.064406926411408
      ],
      [
        "Ġprinciple",
        -10.065109604581298
      ],
      [
        "22",
        -10.065222501221292
      ],
      [
        "Ġ1980",
        -10.06568205880122
      ],
      [
        "Ġtrack",
        -10.065937546055729
      ],
      [
        "Ġhospital",
        -10.066508942023129
      ],
      [
        "Ġlinked",
        -10.066536039547325
      ],
      [
        "Ġelement",
        -10.06710940253526
      ],
      [
        "ĠWhy",
        -10.067247548732691
      ],
      [
        "Ġrecognized",
        -10.067440504275003
      ],
      [
        "Ġdepartment",
        -10.068065441805624
      ],
      [
        "Ġrecommend",
        -10.06999320948082
      ],
      [
        "ĠBible",
        -10.070498985397014
      ],
      [
        "24",
        -10.070887870034976
      ],
      [
        "Ġchronic",
        -10.071179456238918
      ],
      [
        "Ġplastic",
        -10.07158023189191
      ],
      [
        "Ġemergency",
        -10.071717603190244
      ],
      [
        "However",
        -10.072072587928586
      ],
      [
        "Ġdatabase",
        -10.072984837423895
      ],
      [
        "ĠMary",
        -10.074108896007496
      ],
      [
        "Ġamounts",
        -10.074260939948728
      ],
      [
        "ĠRights",
        -10.075251704972755
      ],
      [
        "Ġstruggle",
        -10.076829805971164
      ],
      [
        "Ġspirit",
        -10.077523361501544
      ],
      [
        "ĠRussian",
        -10.078044038236694
      ],
      [
        "Ġcontinues",
        -10.079420309223837
      ],
      [
        "Ġchemicals",
        -10.08002362118821
      ],
      [
        "Ġsnow",
        -10.080359814736903
      ],
      [
        "Ġobtained",
        -10.081059792424844
      ],
      [
        "Ġdiscovery",
        -10.081236129252462
      ],
      [
        "ĠTwo",
        -10.081256145483197
      ],
      [
        "Ġ1996",
        -10.081268629316122
      ],
      [
        "ĠSoviet",
        -10.081780775666546
      ],
      [
        "Ġelectrical",
        -10.08188681332047
      ],
      [
        "Ġagree",
        -10.082890118088866
      ],
      [
        "Ġworth",
        -10.083713109544068
      ],
      [
        "Ġgarden",
        -10.083756070589072
      ],
      [
        "Ġenable",
        -10.084839331945089
      ],
      [
        "Ġcontaining",
        -10.085134341077696
      ],
      [
        "Ġvitamin",
        -10.086066340475826
      ],
      [
        "ment",
        -10.08607632431361
      ],
      [
        "capable",
        -10.086556370178965
      ],
      [
        "Ġeggs",
        -10.086873572624729
      ],
      [
        "Ġlatter",
        -10.087192490519849
      ],
      [
        "Ġmeasured",
        -10.087400831458028
      ],
      [
        "Ġmis",
        -10.088240059340125
      ],
      [
        "Ġflight",
        -10.088393793969828
      ],
      [
        "Ġlanguages",
        -10.088896524339251
      ],
      [
        "Ġfarm",
        -10.089095235372668
      ],
      [
        "Ġregional",
        -10.089120618789412
      ],
      [
        "Ġsyndrome",
        -10.09015211920312
      ],
      [
        "Ġspend",
        -10.090354981507833
      ],
      [
        "ĠNews",
        -10.09087160870368
      ],
      [
        "Ġrapidly",
        -10.090892495519512
      ],
      [
        "Ġdocuments",
        -10.090936310681755
      ],
      [
        "Ġbegins",
        -10.091082329409089
      ],
      [
        "Ġfelt",
        -10.091979899967496
      ],
      [
        "tried",
        -10.092939518507135
      ],
      [
        "Ġsalt",
        -10.094416720583792
      ],
      [
        "water",
        -10.094633190774095
      ],
      [
        "Ġaware",
        -10.095840109895136
      ],
      [
        "Ġpoverty",
        -10.0964963583145
      ],
      [
        "Ġengine",
        -10.09650112194026
      ],
      [
        "Ġlose",
        -10.096552448202472
      ],
      [
        "Ġgrade",
        -10.097067088660925
      ],
      [
        "Ġefficiency",
        -10.097665816531032
      ],
      [
        "Ġinjury",
        -10.098519492583009
      ],
      [
        "Our",
        -10.09880061722784
      ],
      [
        "Ġexternal",
        -10.099169599120996
      ],
      [
        "Ġstone",
        -10.09949188068512
      ],
      [
        "Ġdrinking",
        -10.100179510460285
      ],
      [
        "ĠMars",
        -10.10050470496945
      ],
      [
        "listed",
        -10.100687913346684
      ],
      [
        "Ġ1995",
        -10.100703468961596
      ],
      [
        "Ġdistrict",
        -10.10198741125864
      ],
      [
        "21",
        -10.102333906830136
      ],
      [
        "Ġsoldiers",
        -10.102986174566086
      ],
      [
        "ĠGroup",
        -10.103110481717982
      ],
      [
        "Ġformat",
        -10.103136834508785
      ],
      [
        "Ġtroops",
        -10.103548833013502
      ],
      [
        "Ġbuy",
        -10.10385888105558
      ],
      [
        "X",
        -10.104020751334527
      ],
      [
        "Ġconcerned",
        -10.10462022368641
      ],
      [
        "Ġselected",
        -10.10507202856816
      ],
      [
        "Ġhearing",
        -10.105323879610989
      ],
      [
        "Ġthreat",
        -10.105808666604837
      ],
      [
        "not",
        -10.105853635722973
      ],
      [
        "Ġperfect",
        -10.105867214423675
      ],
      [
        "Ġmountain",
        -10.105912795998242
      ],
      [
        "Ġfunding",
        -10.106455354404217
      ],
      [
        "ĠSmith",
        -10.106643384501735
      ],
      [
        "Ġyouth",
        -10.10715476395246
      ],
      [
        "knew",
        -10.107928980615904
      ],
      [
        "Ġletters",
        -10.109116721513564
      ],
      [
        "ĠSuch",
        -10.110901515443526
      ],
      [
        "Ġslightly",
        -10.110956958640008
      ],
      [
        "unless",
        -10.111319219736544
      ],
      [
        "Here",
        -10.112723945806344
      ],
      [
        "Â·",
        -10.11289904103804
      ],
      [
        "Ġgenerate",
        -10.11355771975976
      ],
      [
        "Ġargument",
        -10.113667489743174
      ],
      [
        "focused",
        -10.113857283226713
      ],
      [
        "derived",
        -10.114295376977989
      ],
      [
        "Ġtypical",
        -10.115396057639552
      ],
      [
        "ĠMy",
        -10.116160239555532
      ],
      [
        "ĠWomen",
        -10.116745289819573
      ],
      [
        "such",
        -10.116913118142602
      ],
      [
        "Ġtaught",
        -10.117103562441702
      ],
      [
        "Ġselection",
        -10.11748157400104
      ],
      [
        "opened",
        -10.117725617521408
      ],
      [
        "Ġresponsibility",
        -10.117803407478004
      ],
      [
        "ĠNature",
        -10.118276410255328
      ],
      [
        "Ġclosely",
        -10.118384040818745
      ],
      [
        "Ġrespond",
        -10.118658600069296
      ],
      [
        "Ġdefine",
        -10.119206897560725
      ],
      [
        "Ġmoon",
        -10.11929685769973
      ],
      [
        "Ġrural",
        -10.120607367610583
      ],
      [
        "Ġwalk",
        -10.120794216496726
      ],
      [
        "Ġflu",
        -10.120966487102756
      ],
      [
        "Ġpassage",
        -10.121494060736635
      ],
      [
        "Ġclaims",
        -10.122509348550746
      ],
      [
        "Ġsequence",
        -10.12254504443026
      ],
      [
        "Ġpress",
        -10.124949339891987
      ],
      [
        "founded",
        -10.125183729775074
      ],
      [
        "Ġtested",
        -10.125901909148643
      ],
      [
        "ĠCarolina",
        -10.126046386809312
      ],
      [
        "Ġinvolves",
        -10.126195251625155
      ],
      [
        "adopted",
        -10.126447924844566
      ],
      [
        "example",
        -10.128226402285948
      ],
      [
        "Ġcopy",
        -10.128749417633596
      ],
      [
        "Ġelectric",
        -10.129047616081149
      ],
      [
        "mainly",
        -10.129750319749984
      ],
      [
        "Ġpanel",
        -10.130455581383664
      ],
      [
        "Ġstrategy",
        -10.130934757024576
      ],
      [
        "certainly",
        -10.13116191506605
      ],
      [
        "Ġclick",
        -10.13156936185658
      ],
      [
        "wise",
        -10.13184604299834
      ],
      [
        "Ġpieces",
        -10.131955110593488
      ],
      [
        "Ġexplained",
        -10.13215880019916
      ],
      [
        "ĠSouthern",
        -10.132325049651614
      ],
      [
        "Ġexplanation",
        -10.132615018154263
      ],
      [
        "Ġcomponent",
        -10.134205811255114
      ],
      [
        "inches",
        -10.136283765202602
      ],
      [
        "Ġdecade",
        -10.136339983482625
      ],
      [
        "specifically",
        -10.136496250084049
      ],
      [
        "Ġappearance",
        -10.136837880099812
      ],
      [
        "Ġexamine",
        -10.13730646027446
      ],
      [
        "ĠJoseph",
        -10.137833542606888
      ],
      [
        "Ġestablish",
        -10.137914339347024
      ],
      [
        "Ġprocessing",
        -10.138064573640971
      ],
      [
        "ĠControl",
        -10.138230686595588
      ],
      [
        "Ġmarine",
        -10.138325353274611
      ],
      [
        "Ġoperate",
        -10.13846121135312
      ],
      [
        "Ġkinds",
        -10.139070987084756
      ],
      [
        "Ġadministration",
        -10.139747207159164
      ],
      [
        "Ġbeautiful",
        -10.139851130051364
      ],
      [
        "Ġrapid",
        -10.139934778091108
      ],
      [
        "Ġcrops",
        -10.14002221882635
      ],
      [
        "ĠBoth",
        -10.141228243378798
      ],
      [
        "Ġsubjects",
        -10.141724449990416
      ],
      [
        "ĠPeter",
        -10.141866037411296
      ],
      [
        "filled",
        -10.141910374973715
      ],
      [
        "Ġexperiences",
        -10.142104521862493
      ],
      [
        "Ġrelevant",
        -10.142155739382424
      ],
      [
        "Ġhomes",
        -10.142609876702794
      ],
      [
        "Ġbox",
        -10.143562176933663
      ],
      [
        "Ġfluid",
        -10.143576120678436
      ],
      [
        "Ġaccept",
        -10.143953704912285
      ],
      [
        "Among",
        -10.143986627234233
      ],
      [
        "Ġaircraft",
        -10.144900971230488
      ],
      [
        "Ġexperienced",
        -10.14590185788236
      ],
      [
        "Ġfriend",
        -10.146479323756733
      ],
      [
        "Ġstock",
        -10.147114280415003
      ],
      [
        "Instead",
        -10.147238956275082
      ],
      [
        "100",
        -10.147562893720217
      ],
      [
        "Ġcorn",
        -10.147743746708302
      ],
      [
        "ill",
        -10.148019731946214
      ],
      [
        "Ġedition",
        -10.149054170697228
      ],
      [
        "Ġtransport",
        -10.149242931209203
      ],
      [
        "Ġfiles",
        -10.149339510841346
      ],
      [
        "Ġfloor",
        -10.150078746764606
      ],
      [
        "Ġwave",
        -10.150684664416907
      ],
      [
        "Ġeffectively",
        -10.151163099657552
      ],
      [
        "Ġprincipal",
        -10.151399734780398
      ],
      [
        "Ġgames",
        -10.152024076213804
      ],
      [
        "Ġnovel",
        -10.152224295063911
      ],
      [
        "Ġefficient",
        -10.152800253254613
      ],
      [
        "Ġhappens",
        -10.153110703436637
      ],
      [
        "ĠEgypt",
        -10.153201539653455
      ],
      [
        "Ġcontrolled",
        -10.155089985744867
      ],
      [
        "Ġaccepted",
        -10.15509921108188
      ],
      [
        "Ġoriginally",
        -10.155253562546074
      ],
      [
        "Ġlatest",
        -10.1556839188251
      ],
      [
        "Ġmonitoring",
        -10.155999224109763
      ],
      [
        "Ġpark",
        -10.156059861882342
      ],
      [
        "01",
        -10.15628205711936
      ],
      [
        "Ġresidents",
        -10.157634268082514
      ],
      [
        "Ġ1970",
        -10.157645592046556
      ],
      [
        "Ġvisible",
        -10.157807036440955
      ],
      [
        "Ġconduct",
        -10.157911990598691
      ],
      [
        "Ġdrawing",
        -10.158528918485423
      ],
      [
        "ĠStudies",
        -10.158647341101776
      ],
      [
        "Ġproperly",
        -10.158808958691496
      ],
      [
        "Ġonto",
        -10.158855489540592
      ],
      [
        "depending",
        -10.159437426478105
      ],
      [
        "ĠCan",
        -10.159631371314823
      ],
      [
        "Ġyellow",
        -10.159867801151536
      ],
      [
        "Ġsold",
        -10.159985195394478
      ],
      [
        "Ġdespite",
        -10.160584600292424
      ],
      [
        "ĠArt",
        -10.16062786808918
      ],
      [
        "but",
        -10.162064270632928
      ],
      [
        "Ġforests",
        -10.162935032619846
      ],
      [
        "Despite",
        -10.16396950392492
      ],
      [
        "Ġ31",
        -10.164250838219642
      ],
      [
        "ĠStudents",
        -10.164839937674095
      ],
      [
        "ĠOnce",
        -10.165776592440698
      ],
      [
        "Ġteeth",
        -10.16579663323543
      ],
      [
        "Ġregard",
        -10.165800800750477
      ],
      [
        "Ġmanage",
        -10.165938772144726
      ],
      [
        "free",
        -10.16663209299977
      ],
      [
        "Ġpaid",
        -10.166791389306486
      ],
      [
        "Ġmassive",
        -10.16689806253804
      ],
      [
        "ĠCO",
        -10.167102278875658
      ],
      [
        "ĠRussia",
        -10.167396702972146
      ],
      [
        "Ġdesire",
        -10.167596223442311
      ],
      [
        "Ġdoubt",
        -10.167788594412889
      ],
      [
        "married",
        -10.167890094019697
      ],
      [
        "all",
        -10.168114667796548
      ],
      [
        "Ġmaximum",
        -10.169966566336562
      ],
      [
        "Ġdepth",
        -10.170168913761923
      ],
      [
        "Ġshift",
        -10.170301972501612
      ],
      [
        "Ġscreen",
        -10.170308579990447
      ],
      [
        "Ġjobs",
        -10.170756413677564
      ],
      [
        "Ġlaboratory",
        -10.171835477670705
      ],
      [
        "Ġhappened",
        -10.171889925282285
      ],
      [
        "Ġfollows",
        -10.172120560507508
      ],
      [
        "gov",
        -10.172421075986252
      ],
      [
        "Ġdetail",
        -10.172641117203044
      ],
      [
        "called",
        -10.172709533178663
      ],
      [
        "ĠUN",
        -10.172992598144845
      ],
      [
        "Ġincreasingly",
        -10.173181567467632
      ],
      [
        "showing",
        -10.173330421499903
      ],
      [
        "keeping",
        -10.1742283142456
      ],
      [
        "Ġsurvive",
        -10.174316208725983
      ],
      [
        "Ġelectronic",
        -10.17459856512944
      ],
      [
        "ĠRepublic",
        -10.174651869960815
      ],
      [
        "wood",
        -10.175114017053492
      ],
      [
        "Ġrelationships",
        -10.175514001665634
      ],
      [
        "Ġgirls",
        -10.176497097309996
      ],
      [
        "Ġcount",
        -10.176593049661191
      ],
      [
        "Ġmeant",
        -10.178442490058368
      ],
      [
        "ĠStreet",
        -10.178833645704051
      ],
      [
        "Ġconcepts",
        -10.17951070501071
      ],
      [
        "Ġratio",
        -10.179836126392887
      ],
      [
        "Ġopening",
        -10.180643806661491
      ],
      [
        "discussed",
        -10.181354804999003
      ],
      [
        "Ġfun",
        -10.181823696749902
      ],
      [
        "Ġvehicle",
        -10.182656847316744
      ],
      [
        "Ġentirely",
        -10.18329608774938
      ],
      [
        "Ġsector",
        -10.185590929314932
      ],
      [
        "Ġconsequences",
        -10.185704959444516
      ],
      [
        "Ġmotor",
        -10.186300406140612
      ],
      [
        "Ġindeed",
        -10.186664956906274
      ],
      [
        "level",
        -10.186764733228973
      ],
      [
        "Ġliver",
        -10.187272447620604
      ],
      [
        "Ġparent",
        -10.188728535466671
      ],
      [
        "Ġcolleagues",
        -10.188742583929445
      ],
      [
        "Ġstated",
        -10.188882938160772
      ],
      [
        "ĠRichard",
        -10.189271216773546
      ],
      [
        "ĠProfessor",
        -10.189442002473893
      ],
      [
        "mostly",
        -10.18949515631396
      ],
      [
        "Ġcamp",
        -10.190397397323132
      ],
      [
        "Ġcounty",
        -10.1904498525207
      ],
      [
        "Ġadvice",
        -10.191327647329418
      ],
      [
        "Ġjustice",
        -10.19207369176368
      ],
      [
        "Ġpair",
        -10.192193005916394
      ],
      [
        "Ġsustainable",
        -10.193538533050582
      ],
      [
        "Ġexplains",
        -10.193775562370094
      ],
      [
        "ĠSecond",
        -10.194141374700038
      ],
      [
        "Ġemotional",
        -10.194440171251602
      ],
      [
        "Note",
        -10.194611544283836
      ],
      [
        "Ġoption",
        -10.194772446271887
      ],
      [
        "ĠForce",
        -10.195486989386708
      ],
      [
        "Ġleaving",
        -10.195730204888916
      ],
      [
        "Ġdistinct",
        -10.195825490402896
      ],
      [
        "Ġprotected",
        -10.195844591556934
      ],
      [
        "Ġagriculture",
        -10.195975830842784
      ],
      [
        "Ġagency",
        -10.19613329747754
      ],
      [
        "Ġcrime",
        -10.19625107956405
      ],
      [
        "Ġnerve",
        -10.197300710416195
      ],
      [
        "ĠConstitution",
        -10.197847553899678
      ],
      [
        "contained",
        -10.197942097179526
      ],
      [
        "ĠRome",
        -10.198070796315582
      ],
      [
        "Ġpregnancy",
        -10.198338216767391
      ],
      [
        "Ġfailed",
        -10.19928159318562
      ],
      [
        "ĠNations",
        -10.199822884540929
      ],
      [
        "Another",
        -10.200166401568426
      ],
      [
        "Ġcomparison",
        -10.200264949784964
      ],
      [
        "ĠInc",
        -10.201115791007933
      ],
      [
        "employed",
        -10.20116060658308
      ],
      [
        "Ġinterests",
        -10.201233819334712
      ],
      [
        "scale",
        -10.20124638117377
      ],
      [
        "Ġexperiments",
        -10.201400947884602
      ],
      [
        "ended",
        -10.201772119015066
      ],
      [
        "Ġprevention",
        -10.201867075007268
      ],
      [
        "Dr",
        -10.201937656527033
      ],
      [
        "field",
        -10.20226939678331
      ],
      [
        "Ġeastern",
        -10.20325788659848
      ],
      [
        "Ġtransfer",
        -10.20389124518634
      ],
      [
        "Ġaccurate",
        -10.203905605985677
      ],
      [
        "Ġsurprise",
        -10.204014700611188
      ],
      [
        "Ġbelief",
        -10.20448400987384
      ],
      [
        "Ġrain",
        -10.205395260090532
      ],
      [
        "ĠReport",
        -10.2057164110138
      ],
      [
        "Ġseeds",
        -10.206321547913795
      ],
      [
        "Ġlesson",
        -10.20643366806348
      ],
      [
        "Ġfeeling",
        -10.206466209633057
      ],
      [
        "23",
        -10.207406863668243
      ],
      [
        "Ġvillage",
        -10.208161306456304
      ],
      [
        "Ġattacks",
        -10.208240276257504
      ],
      [
        "ĠToday",
        -10.208274206186784
      ],
      [
        "Ġimpossible",
        -10.20880187620465
      ],
      [
        "Ġfossil",
        -10.211410659527033
      ],
      [
        "Ġmonitor",
        -10.21171212860523
      ],
      [
        "Ġcomprehensive",
        -10.212435538414294
      ],
      [
        "Ġassistance",
        -10.212479807930308
      ],
      [
        "Ġpure",
        -10.21270499008691
      ],
      [
        "Ġfaster",
        -10.213876003502971
      ],
      [
        "allowing",
        -10.214153254220523
      ],
      [
        "Ġrisks",
        -10.21427374281751
      ],
      [
        "Why",
        -10.214276329389278
      ],
      [
        "Ġunknown",
        -10.21549440752866
      ],
      [
        "Ġdepend",
        -10.216008864686795
      ],
      [
        "Ġcrisis",
        -10.216617812358637
      ],
      [
        "ling",
        -10.21694834980032
      ],
      [
        "Ġdrop",
        -10.21862494245599
      ],
      [
        "ĠChicago",
        -10.218672156347155
      ],
      [
        "ĠCancer",
        -10.219669918956267
      ],
      [
        "Ġshared",
        -10.219795445465625
      ],
      [
        "Ġvegetables",
        -10.220586695998083
      ],
      [
        "Ġexcellent",
        -10.220818723976889
      ],
      [
        "Ġdemonstrate",
        -10.221189469615254
      ],
      [
        "Ġremaining",
        -10.22162075580595
      ],
      [
        "ear",
        -10.221841669902332
      ],
      [
        "Ġarms",
        -10.222063700751487
      ],
      [
        "Ġseed",
        -10.22266590241686
      ],
      [
        "Ġlooks",
        -10.223096019365988
      ],
      [
        "Ġtwenty",
        -10.22309930073502
      ],
      [
        "Ġpossibly",
        -10.22351098403178
      ],
      [
        "Ġgrown",
        -10.223605676211214
      ],
      [
        "Ġsufficient",
        -10.22400697052369
      ],
      [
        "Ġprove",
        -10.224137794033185
      ],
      [
        "ĠStudy",
        -10.22519465110094
      ],
      [
        "Ġhelping",
        -10.225461191126705
      ],
      [
        "ring",
        -10.225467896410969
      ],
      [
        "ĠBoard",
        -10.225585278141326
      ],
      [
        "Ġorbit",
        -10.225824005013898
      ],
      [
        "ĠColumbia",
        -10.226389935100755
      ],
      [
        "Ġprint",
        -10.226764969783636
      ],
      [
        "Ġwildlife",
        -10.227976705337522
      ],
      [
        "Ġidentity",
        -10.229078306118318
      ],
      [
        "Ġintroduction",
        -10.229562873357352
      ],
      [
        "Ġdescription",
        -10.229875158177816
      ],
      [
        "Ġpresentation",
        -10.230767047517505
      ],
      [
        "red",
        -10.231500288410109
      ],
      [
        "Ġnormally",
        -10.23150486214393
      ],
      [
        "Ġextend",
        -10.231656898777802
      ],
      [
        "Ġawareness",
        -10.231763478131272
      ],
      [
        "Ġparties",
        -10.231831419426248
      ],
      [
        "Ġdrink",
        -10.23313570483614
      ],
      [
        "ĠAcademy",
        -10.233223034517238
      ],
      [
        "Ġvital",
        -10.23393995740217
      ],
      [
        "Ġcrop",
        -10.234059886334594
      ],
      [
        "ĠBrown",
        -10.234102150869694
      ],
      [
        "Ġorganized",
        -10.234196423799562
      ],
      [
        "destroyed",
        -10.234424250703626
      ],
      [
        "Ġ1994",
        -10.234685005124629
      ],
      [
        "Ġperspective",
        -10.23478290005542
      ],
      [
        "ĠManagement",
        -10.235002437417494
      ],
      [
        "Ġcharacters",
        -10.235873837981538
      ],
      [
        "Ġviews",
        -10.236135601820456
      ],
      [
        "ful",
        -10.236238327059334
      ],
      [
        "Ġinput",
        -10.236301519685988
      ],
      [
        "ĠTimes",
        -10.236599615350896
      ],
      [
        "Ġdescribes",
        -10.236948090583857
      ],
      [
        "Ġpurchase",
        -10.237729661099848
      ],
      [
        "Ġdose",
        -10.238946790627866
      ],
      [
        "Ġfigures",
        -10.238948415853606
      ],
      [
        "Ġlay",
        -10.239349168430964
      ],
      [
        "Ġagreement",
        -10.239382267239089
      ],
      [
        "Ġpeak",
        -10.239533241374373
      ],
      [
        "Ġcalls",
        -10.239946223251636
      ],
      [
        "ĠMichael",
        -10.24001144228476
      ],
      [
        "Ġprocedures",
        -10.240266055382625
      ],
      [
        "joined",
        -10.24048925087067
      ],
      [
        "Ġconclusion",
        -10.240622110354472
      ],
      [
        "Ġphilosophy",
        -10.241211856571343
      ],
      [
        "ĠTHE",
        -10.241358005616078
      ],
      [
        "Ġrepresents",
        -10.242442516656332
      ],
      [
        "ĠNatural",
        -10.24325934205626
      ],
      [
        "Ġcentre",
        -10.24355016339288
      ],
      [
        "Ġproteins",
        -10.24385919303751
      ],
      [
        "Ġdogs",
        -10.244882396046496
      ],
      [
        "q",
        -10.245008406851907
      ],
      [
        "Ġauthorities",
        -10.245106963156031
      ],
      [
        "Ġconcentration",
        -10.245394212378867
      ],
      [
        "Ġpossibility",
        -10.245931410716606
      ],
      [
        "Ġsmoke",
        -10.24701935558111
      ],
      [
        "Ġnotice",
        -10.247304053992064
      ],
      [
        "Last",
        -10.24841375926258
      ],
      [
        "Ġunderstood",
        -10.248849884201984
      ],
      [
        "Ġphoto",
        -10.248983002680053
      ],
      [
        "Ġwalls",
        -10.249353891221023
      ],
      [
        "Ġnine",
        -10.249588941819871
      ],
      [
        "ĠValley",
        -10.249667009089904
      ],
      [
        "Ġexpressed",
        -10.25020110982614
      ],
      [
        "ĠAustralian",
        -10.251473944271028
      ],
      [
        "ĠDisease",
        -10.252378587099717
      ],
      [
        "Ġmarked",
        -10.252552949329129
      ],
      [
        "Ġrepeated",
        -10.252636379705368
      ],
      [
        "Ġrepresented",
        -10.25295254660206
      ],
      [
        "Ġpainting",
        -10.253060018806702
      ],
      [
        "elected",
        -10.253331563200168
      ],
      [
        "Ġdeaths",
        -10.254144004082134
      ],
      [
        "Ġvary",
        -10.254148450674952
      ],
      [
        "Ġequivalent",
        -10.25416790995915
      ],
      [
        "Ġleads",
        -10.254400393542618
      ],
      [
        "Ġseat",
        -10.254754257604084
      ],
      [
        "Ġperiods",
        -10.25476669964522
      ],
      [
        "Ġstorm",
        -10.255208505200631
      ],
      [
        "Ġinfected",
        -10.255286049255274
      ],
      [
        "Ġapproaches",
        -10.25600453431166
      ],
      [
        "Ġhole",
        -10.256099018923564
      ],
      [
        "Ġworse",
        -10.2564645746051
      ],
      [
        "Ġpotentially",
        -10.256542203162075
      ],
      [
        "Ġextended",
        -10.256656430050684
      ],
      [
        "Ġ35",
        -10.257520271004696
      ],
      [
        "Ġminimum",
        -10.259707138027649
      ],
      [
        "Ġmedications",
        -10.259900826456889
      ],
      [
        "Ġfail",
        -10.259944135051285
      ],
      [
        "Ġproducing",
        -10.260210998983544
      ],
      [
        "Ġcommittee",
        -10.260460899581169
      ],
      [
        "Ġclosed",
        -10.260677134087825
      ],
      [
        "ship",
        -10.261555522181135
      ],
      [
        "Ġ1960",
        -10.261586974933444
      ],
      [
        "ance",
        -10.261721267335124
      ],
      [
        "Ġconventional",
        -10.261870836152411
      ],
      [
        "Ġsurvival",
        -10.262115154921538
      ],
      [
        "ĠOver",
        -10.262508191889484
      ],
      [
        "Ġflowers",
        -10.263239746683698
      ],
      [
        "Ġsubstance",
        -10.26333712149295
      ],
      [
        "ĠFree",
        -10.263597697015571
      ],
      [
        "Ġimplementation",
        -10.26374457383132
      ],
      [
        "Ġthin",
        -10.264348833841762
      ],
      [
        "Ġgender",
        -10.265115028767092
      ],
      [
        "Ġphone",
        -10.265152041082
      ],
      [
        "40",
        -10.26523451203158
      ],
      [
        "Ġconference",
        -10.26523927345939
      ],
      [
        "Ġtraffic",
        -10.265730816722623
      ],
      [
        "Ġstream",
        -10.266372314925462
      ],
      [
        "Ġmagnetic",
        -10.26710726158158
      ],
      [
        "Ġexpensive",
        -10.267827268848675
      ],
      [
        "Ġwealth",
        -10.268243622906702
      ],
      [
        "Ġwindow",
        -10.2688138972155
      ],
      [
        "shaped",
        -10.269086696434483
      ],
      [
        "Ġtransmission",
        -10.270691839610038
      ],
      [
        "Ġevaluation",
        -10.271107826665236
      ],
      [
        "Ġborder",
        -10.27126154462788
      ],
      [
        "Ġworldwide",
        -10.273567637751016
      ],
      [
        "Ġtiny",
        -10.27367886854952
      ],
      [
        "Ġkidney",
        -10.273844023529508
      ],
      [
        "ĠNorthern",
        -10.27412710414159
      ],
      [
        "Since",
        -10.27446749389812
      ],
      [
        "arrived",
        -10.274471136584566
      ],
      [
        "Ġcomposition",
        -10.274870205564325
      ],
      [
        "Ġcool",
        -10.275330728229983
      ],
      [
        "Ġspiritual",
        -10.276127100299856
      ],
      [
        "Ġfell",
        -10.276565566379649
      ],
      [
        "twice",
        -10.276827420507406
      ],
      [
        "Ġtrip",
        -10.277582302781566
      ],
      [
        "ĠUn",
        -10.278144334843091
      ],
      [
        "Ġrevealed",
        -10.27829200348648
      ],
      [
        "Ġvaluable",
        -10.278662615122576
      ],
      [
        "Ġwish",
        -10.27886446205656
      ],
      [
        "Ġdiversity",
        -10.279241484108748
      ],
      [
        "Ġcomments",
        -10.279527450930782
      ],
      [
        "Ġsolutions",
        -10.279952246004571
      ],
      [
        "?\"",
        -10.280096634796813
      ],
      [
        "Ġbank",
        -10.280858702768516
      ],
      [
        "ĠItaly",
        -10.281802875549396
      ],
      [
        "Ġfamiliar",
        -10.28190423314529
      ],
      [
        "ization",
        -10.282376129620658
      ],
      [
        "Ġedge",
        -10.28261491521674
      ],
      [
        "Ġbudget",
        -10.282986957724344
      ],
      [
        "Ġestimates",
        -10.283005173074203
      ],
      [
        "Ġerror",
        -10.283344354452051
      ],
      [
        "ĠGuide",
        -10.284321481974374
      ],
      [
        "ĠOF",
        -10.284607052276096
      ],
      [
        "Ġjoin",
        -10.285031541055789
      ],
      [
        "Ġsoft",
        -10.285171423952209
      ],
      [
        "necessarily",
        -10.285357490132489
      ],
      [
        "Ġbridge",
        -10.285375074580656
      ],
      [
        "html",
        -10.28542552560906
      ],
      [
        "Ġlandscape",
        -10.28563133369684
      ],
      [
        "Ġroutine",
        -10.285684676989886
      ],
      [
        "ĠIII",
        -10.286615682444117
      ],
      [
        "Ġdaughter",
        -10.286953244287425
      ],
      [
        "ĠReview",
        -10.287772917671036
      ],
      [
        "Ġmuseum",
        -10.288157366455144
      ],
      [
        "Ġdecide",
        -10.288631726360148
      ],
      [
        "ĠAnother",
        -10.288850219369984
      ],
      [
        "Ġdust",
        -10.28988775159606
      ],
      [
        "Ġstring",
        -10.289914923864746
      ],
      [
        "Ġsecret",
        -10.290675612712755
      ],
      [
        "Ġprepare",
        -10.29150321507447
      ],
      [
        "Ġstroke",
        -10.291665675560443
      ],
      [
        "Ġmillions",
        -10.291844695782189
      ],
      [
        "Ġgets",
        -10.292520063063336
      ],
      [
        "Finally",
        -10.293276553232786
      ],
      [
        "Ġdebt",
        -10.293860229350466
      ],
      [
        "ĠAbout",
        -10.294960531727096
      ],
      [
        "Ġmath",
        -10.295965677030788
      ],
      [
        "ĠYet",
        -10.296637422760334
      ],
      [
        "Ġinvestment",
        -10.296655646327068
      ],
      [
        "Ġmicro",
        -10.296850359432058
      ],
      [
        "ray",
        -10.29692053493962
      ],
      [
        "Ġflat",
        -10.29778834026886
      ],
      [
        "ĠData",
        -10.298148703244175
      ],
      [
        "ĠSpain",
        -10.298172094188551
      ],
      [
        "Ġpermanent",
        -10.29880597341842
      ],
      [
        "Ġmention",
        -10.299000442354023
      ],
      [
        "Ġsecondary",
        -10.299187850318598
      ],
      [
        "Figure",
        -10.299435538859656
      ],
      [
        "Ġbrother",
        -10.29945537075036
      ],
      [
        "Ġsky",
        -10.29956592409808
      ],
      [
        "ĠMD",
        -10.301158002520188
      ],
      [
        "Ġobservations",
        -10.30236833703284
      ],
      [
        "ĠMan",
        -10.303111267624672
      ],
      [
        "Ġlegislation",
        -10.303429103925383
      ],
      [
        "ĠOnly",
        -10.30405500790912
      ],
      [
        "Ġsuffer",
        -10.30461593934182
      ],
      [
        "Ġflood",
        -10.30474464484019
      ],
      [
        "Ġexhibit",
        -10.30492875640903
      ],
      [
        "ĠResources",
        -10.305573009298948
      ],
      [
        "Ġmaster",
        -10.306853548846425
      ],
      [
        "Ġfair",
        -10.307525896396424
      ],
      [
        "Ġindex",
        -10.307554938731492
      ],
      [
        "27",
        -10.307973631290162
      ],
      [
        "Ġopposite",
        -10.30823425332536
      ],
      [
        "Ġremote",
        -10.308599998494282
      ],
      [
        "consists",
        -10.309471316774689
      ],
      [
        "Ġinterpretation",
        -10.30961169094637
      ],
      [
        "Ġgovernments",
        -10.310774732146507
      ],
      [
        "ĠParty",
        -10.310782394205368
      ],
      [
        "Ġhouses",
        -10.310924914438669
      ],
      [
        "approved",
        -10.311064463973583
      ],
      [
        "Ġ300",
        -10.311628502032251
      ],
      [
        "grew",
        -10.311901538011844
      ],
      [
        "Ġgreenhouse",
        -10.312703366381268
      ],
      [
        "ĠGlobal",
        -10.312865715794658
      ],
      [
        "Ġwatch",
        -10.312978829897906
      ],
      [
        "26",
        -10.313034893654333
      ],
      [
        "ĠAgency",
        -10.313500542324114
      ],
      [
        "Ġtopics",
        -10.313941476638282
      ],
      [
        "ĠLike",
        -10.315142549998306
      ],
      [
        "Ġmolecules",
        -10.315855653870194
      ],
      [
        "Ġcomputers",
        -10.316408929441227
      ],
      [
        "Ġinterview",
        -10.316479037134409
      ],
      [
        "Ġdioxide",
        -10.316853211097728
      ],
      [
        "Ġrelations",
        -10.317025728577342
      ],
      [
        "Ġargue",
        -10.317397084642888
      ],
      [
        "Ġsides",
        -10.318209879862712
      ],
      [
        "claimed",
        -10.318285672581384
      ],
      [
        "Ġhandle",
        -10.318708121584786
      ],
      [
        "Ġguidelines",
        -10.318849382750754
      ],
      [
        "ĠDivision",
        -10.31992481127094
      ],
      [
        "Ġdiffer",
        -10.3201476600423
      ],
      [
        "Ġimpacts",
        -10.320181981741968
      ],
      [
        "Ġelection",
        -10.320674774917777
      ],
      [
        "neither",
        -10.320710739706623
      ],
      [
        "Ġpercentage",
        -10.320879672786267
      ],
      [
        "Ġreplace",
        -10.321229540558692
      ],
      [
        "Ġleadership",
        -10.321706165754238
      ],
      [
        "ĠRoyal",
        -10.32190734583303
      ],
      [
        "Ġfill",
        -10.322277529776049
      ],
      [
        "Ġdetect",
        -10.322368833648754
      ],
      [
        "Ġnone",
        -10.322744006769986
      ],
      [
        "Ġterritory",
        -10.323380891020587
      ],
      [
        "Ġphysics",
        -10.323397012037583
      ],
      [
        "ĠDon",
        -10.324074688141607
      ],
      [
        "ĠAl",
        -10.32423481058166
      ],
      [
        "Ġorganisms",
        -10.324552838238407
      ],
      [
        "Ġmedium",
        -10.325036892641862
      ],
      [
        "Ġsupplies",
        -10.32511090663771
      ],
      [
        "Ġsuffering",
        -10.325671416289016
      ],
      [
        "Ġformal",
        -10.325803675548055
      ],
      [
        "Ġcapture",
        -10.325882411619254
      ],
      [
        "appointed",
        -10.32725244810749
      ],
      [
        "Ġfacts",
        -10.327507867154932
      ],
      [
        "ĠEastern",
        -10.32769820956735
      ],
      [
        "Ġmechanism",
        -10.329545709537914
      ],
      [
        "Ġuniversal",
        -10.33005518298699
      ],
      [
        "Ġnarrow",
        -10.330551535067356
      ],
      [
        "entered",
        -10.330882395007658
      ],
      [
        "Ġpictures",
        -10.330932433769837
      ],
      [
        "ĠIndians",
        -10.330952066879886
      ],
      [
        "Ġcurriculum",
        -10.333141134678806
      ],
      [
        "Ġwear",
        -10.333352510263488
      ],
      [
        "Ġsatellite",
        -10.333440546482102
      ],
      [
        "Ġpublication",
        -10.333461257491146
      ],
      [
        "ĠAtlantic",
        -10.334486663302554
      ],
      [
        "Ġsecure",
        -10.33500223701694
      ],
      [
        "Ġimmediate",
        -10.335094152260764
      ],
      [
        "Ġlab",
        -10.335399233656018
      ],
      [
        "Ġresolution",
        -10.335409110832364
      ],
      [
        "Ġentry",
        -10.33554646924237
      ],
      [
        "Ġcircumstances",
        -10.33568374956928
      ],
      [
        "ĠEmpire",
        -10.335767687860928
      ],
      [
        "Ġsounds",
        -10.335979041277565
      ],
      [
        "Ġvessels",
        -10.33651537869666
      ],
      [
        "Ġinstruction",
        -10.336750819675936
      ],
      [
        "Ġwaves",
        -10.336870325866368
      ],
      [
        "ĠHer",
        -10.336999064430012
      ],
      [
        "Ġassist",
        -10.337037941631388
      ],
      [
        "Ġinstrument",
        -10.337095102285224
      ],
      [
        "Ġbear",
        -10.337352215172462
      ],
      [
        "Ġbio",
        -10.337375636887112
      ],
      [
        "fewer",
        -10.338600554400363
      ],
      [
        "Ġparticipate",
        -10.339436843924195
      ],
      [
        "Ġachieved",
        -10.339466016707542
      ],
      [
        "Ġgenerated",
        -10.339678798091986
      ],
      [
        "Ġdoor",
        -10.339816776060688
      ],
      [
        "Ġ1992",
        -10.340044639667768
      ],
      [
        "Ġhorse",
        -10.340431420952395
      ],
      [
        "Ġassume",
        -10.34044924877804
      ],
      [
        "Ġgap",
        -10.340611135804163
      ],
      [
        "ĠNative",
        -10.341343417315397
      ],
      [
        "Ġsituations",
        -10.341489899479686
      ],
      [
        "ĠMartin",
        -10.341987179604535
      ],
      [
        "ĠOhio",
        -10.342420814031204
      ],
      [
        "Ġunusual",
        -10.343006592863608
      ],
      [
        "ĠThose",
        -10.343613683698235
      ],
      [
        "ĠParis",
        -10.343716300521905
      ],
      [
        "Ġstored",
        -10.343885614445162
      ],
      [
        "ĠSciences",
        -10.344167244256044
      ],
      [
        "Ġfly",
        -10.34452844827696
      ],
      [
        "Ġplaying",
        -10.345002218784158
      ],
      [
        "Ġaudience",
        -10.345004332313051
      ],
      [
        "Ġmaps",
        -10.34530839488236
      ],
      [
        "Ġenemy",
        -10.34547126498058
      ],
      [
        "Ġball",
        -10.346770567579805
      ],
      [
        "Ġ1993",
        -10.347456039458484
      ],
      [
        "Ġcoastal",
        -10.347594278143676
      ],
      [
        "Ġsentence",
        -10.347738257179056
      ],
      [
        "ĠLand",
        -10.347794576548887
      ],
      [
        "replaced",
        -10.348300619302265
      ],
      [
        "28",
        -10.348314852093743
      ],
      [
        "Ġdefense",
        -10.348553203981863
      ],
      [
        "Ġtreatments",
        -10.35106233089423
      ],
      [
        "05",
        -10.351733386309586
      ],
      [
        "ĠHome",
        -10.351941526042149
      ],
      [
        "Ġlimits",
        -10.351985142687782
      ],
      [
        "Ġbroken",
        -10.352277833494185
      ],
      [
        "somewhat",
        -10.352696909082194
      ],
      [
        "ĠIreland",
        -10.353964163081786
      ],
      [
        "ĠAdministration",
        -10.354892743985822
      ],
      [
        "%)",
        -10.355037421876384
      ],
      [
        "Ġselect",
        -10.355153977117684
      ],
      [
        "Ġcompetition",
        -10.355816066743971
      ],
      [
        "Ġzone",
        -10.356203995397362
      ],
      [
        "der",
        -10.35646900583239
      ],
      [
        "Ġrecovery",
        -10.35659776768942
      ],
      [
        "Ġpretty",
        -10.357117191031836
      ],
      [
        "ened",
        -10.357624541575229
      ],
      [
        "Ġwonder",
        -10.35809496928337
      ],
      [
        "ĠLe",
        -10.358728610250578
      ],
      [
        "Ġchildhood",
        -10.359274186257425
      ],
      [
        "Ġnaturally",
        -10.359745972963491
      ],
      [
        "ĠHoly",
        -10.3604987384522
      ],
      [
        "Ġinter",
        -10.361688633881636
      ],
      [
        "ĠBank",
        -10.362289222042769
      ],
      [
        "Ġgone",
        -10.362768264075871
      ],
      [
        "Ġpromise",
        -10.362783779228938
      ],
      [
        "Ġhonor",
        -10.363006991228788
      ],
      [
        "ordered",
        -10.363573670685703
      ],
      [
        "Ġframework",
        -10.365119667857396
      ],
      [
        "Ġslowly",
        -10.365144000666357
      ],
      [
        "http",
        -10.365266445915951
      ],
      [
        "long",
        -10.36562649508522
      ],
      [
        "ĠEl",
        -10.365819010600378
      ],
      [
        "resulted",
        -10.365993756113395
      ],
      [
        "Ġbright",
        -10.365998446923925
      ],
      [
        "Ġbrown",
        -10.367281160636
      ],
      [
        "Ġsit",
        -10.368544839286622
      ],
      [
        "back",
        -10.368762811112113
      ],
      [
        "managed",
        -10.368844401001542
      ],
      [
        "Ġroots",
        -10.3696813910219
      ],
      [
        "Ġmovements",
        -10.370129218574762
      ],
      [
        "Ġdivision",
        -10.370989306700414
      ],
      [
        ":||",
        -10.371061289824397
      ],
      [
        "Ġconsistent",
        -10.371148401495196
      ],
      [
        "Ġtoxic",
        -10.371472994762549
      ],
      [
        "Ġuniversity",
        -10.37207014504942
      ],
      [
        "adding",
        -10.37233218051892
      ],
      [
        "signed",
        -10.37268077349807
      ],
      [
        "diagnosed",
        -10.373451319908687
      ],
      [
        "Ġcompare",
        -10.373554427875684
      ],
      [
        "Ġdensity",
        -10.373848293102176
      ],
      [
        "ĠUSA",
        -10.374063832091911
      ],
      [
        "Ġattached",
        -10.374693380129305
      ],
      [
        "Ġsensitive",
        -10.374796313706836
      ],
      [
        "trained",
        -10.375153378161546
      ],
      [
        "ĠAre",
        -10.375368352133188
      ],
      [
        "Ġpeer",
        -10.375448580186324
      ],
      [
        "Ġships",
        -10.37586140612156
      ],
      [
        "Ġinfrastructure",
        -10.375997188418156
      ],
      [
        "Ġtaste",
        -10.376853943692428
      ],
      [
        "Ġinstruments",
        -10.378590038578311
      ],
      [
        "Ġestimate",
        -10.378619910912269
      ],
      [
        "ĠDistrict",
        -10.378936977098355
      ],
      [
        "ĠItalian",
        -10.379069143540672
      ],
      [
        "Ġtransportation",
        -10.379338002067204
      ],
      [
        "Ġshot",
        -10.379568264646968
      ],
      [
        "ĠKingdom",
        -10.380278113420925
      ],
      [
        "Ġtrouble",
        -10.380938592795006
      ],
      [
        "Ġwarning",
        -10.381193489668528
      ],
      [
        "Ġ500",
        -10.381344777558189
      ],
      [
        "Ġtalking",
        -10.381886707352198
      ],
      [
        "Ġoral",
        -10.382255385268184
      ],
      [
        "Ġfalse",
        -10.38233384360881
      ],
      [
        "Ġenhance",
        -10.383210476820976
      ],
      [
        "29",
        -10.384778002516404
      ],
      [
        "Ġexists",
        -10.385297574261504
      ],
      [
        "Ġindicates",
        -10.385447162005702
      ],
      [
        "ĠOcean",
        -10.386352199249488
      ],
      [
        "Ġannounced",
        -10.38683306581863
      ],
      [
        "Ġmark",
        -10.38771434020705
      ],
      [
        "Ġdifficulty",
        -10.388220200320797
      ],
      [
        "Ġachievement",
        -10.38837093259145
      ],
      [
        "Ġfixed",
        -10.388385972549116
      ],
      [
        "launched",
        -10.389226408711009
      ],
      [
        "Ġvehicles",
        -10.389552400170198
      ],
      [
        "Ġroute",
        -10.3905844043071
      ],
      [
        "Sometimes",
        -10.39185042861533
      ],
      [
        "Ġhelpful",
        -10.392037857604548
      ],
      [
        "Ġsuccessfully",
        -10.393265959810911
      ],
      [
        "Ġrelation",
        -10.393357785696908
      ],
      [
        "seemed",
        -10.39371476934135
      ],
      [
        "Ġintellectual",
        -10.393723621599634
      ],
      [
        "Ġfruits",
        -10.394003730593449
      ],
      [
        "Ġsupposed",
        -10.394208343288412
      ],
      [
        "Ġcognitive",
        -10.394988080272894
      ],
      [
        "Ġdiverse",
        -10.395366587188986
      ],
      [
        "Ġfever",
        -10.39546436685646
      ],
      [
        "Ġarchitecture",
        -10.395496420909849
      ],
      [
        "declared",
        -10.395560882557682
      ],
      [
        "Ġpick",
        -10.395614156301724
      ],
      [
        "ĠLong",
        -10.395703575413863
      ],
      [
        "Ġpreparation",
        -10.396213440874934
      ],
      [
        "Ġexamination",
        -10.39665694650166
      ],
      [
        "Ġconnect",
        -10.397404716104983
      ],
      [
        "Ġyounger",
        -10.397994339156073
      ],
      [
        "Ġpilot",
        -10.3981367531783
      ],
      [
        "Ġbones",
        -10.398746760913507
      ],
      [
        "ĠPost",
        -10.40006340757735
      ],
      [
        "Ġvariable",
        -10.400854708215212
      ],
      [
        "including",
        -10.4008991829578
      ],
      [
        "Ġchain",
        -10.40103953555986
      ],
      [
        "Ġregulations",
        -10.401758946805542
      ],
      [
        "02",
        -10.402030738709072
      ],
      [
        "Ġsignals",
        -10.402549766443512
      ],
      [
        "Ġcarefully",
        -10.40302941696845
      ],
      [
        "Ġhistoric",
        -10.404501825864516
      ],
      [
        "Ġdriving",
        -10.404892698452864
      ],
      [
        "Ġintake",
        -10.404986975098913
      ],
      [
        "ĠUnder",
        -10.405088746742903
      ],
      [
        "Ġnearby",
        -10.405480859601871
      ],
      [
        "well",
        -10.405893445410634
      ],
      [
        "Ġrising",
        -10.405992527825708
      ],
      [
        "Ġchosen",
        -10.406999589816252
      ],
      [
        "Ġmixed",
        -10.407570460448303
      ],
      [
        "Ġfighting",
        -10.407808447248808
      ],
      [
        "Ġnoise",
        -10.407947982962089
      ],
      [
        "Ġexpansion",
        -10.408341115408405
      ],
      [
        "Ġserver",
        -10.408650438193286
      ],
      [
        "rely",
        -10.40899234439605
      ],
      [
        "ĠLearning",
        -10.40924122709346
      ],
      [
        "Ġarm",
        -10.41008247460828
      ],
      [
        "Ġcloud",
        -10.410168270548562
      ],
      [
        "Ġparallel",
        -10.411284782490414
      ],
      [
        "Ġfoundation",
        -10.411544361351568
      ],
      [
        "merely",
        -10.411765128991217
      ],
      [
        "greatly",
        -10.412010783600495
      ],
      [
        "Ġlocations",
        -10.412586728397244
      ],
      [
        "Ġ1991",
        -10.413049759417138
      ],
      [
        "Ġdestruction",
        -10.413706285588551
      ],
      [
        "Ġreaders",
        -10.41418076546402
      ],
      [
        "agreed",
        -10.414973157163637
      ],
      [
        "ĠForest",
        -10.415241526200036
      ],
      [
        "Ġ45",
        -10.415328217481193
      ],
      [
        "ĠEncyclopedia",
        -10.415694180983904
      ],
      [
        "unable",
        -10.416401449352476
      ],
      [
        "Ġdrought",
        -10.416541611175752
      ],
      [
        "Ġapart",
        -10.416571575312048
      ],
      [
        "ĠMark",
        -10.417206161528345
      ],
      [
        "Ġstraight",
        -10.417677206784138
      ],
      [
        "Ġemployment",
        -10.417873325146108
      ],
      [
        "ĠSurvey",
        -10.41873966759896
      ],
      [
        "Ġescape",
        -10.418868251265977
      ],
      [
        "ĠPower",
        -10.419475607682047
      ],
      [
        "Ġsolve",
        -10.41968422788956
      ],
      [
        "ĠLaboratory",
        -10.419759664863308
      ],
      [
        "dedicated",
        -10.420096158705883
      ],
      [
        "My",
        -10.42049201332913
      ],
      [
        "owned",
        -10.420493254386198
      ],
      [
        "Ġpredict",
        -10.421117493819471
      ],
      [
        "Ġformula",
        -10.421549233414412
      ],
      [
        "directed",
        -10.421707914018643
      ],
      [
        "Ġinner",
        -10.421730908849405
      ],
      [
        "Ġfunds",
        -10.421757312469786
      ],
      [
        "Ġspot",
        -10.42461462605412
      ],
      [
        "ĠServices",
        -10.424693444375402
      ],
      [
        "Ġtelevision",
        -10.424858922108177
      ],
      [
        "ised",
        -10.425071417481927
      ],
      [
        "ultimately",
        -10.425128814459631
      ],
      [
        "Ġtube",
        -10.425168794169386
      ],
      [
        "Ġintelligence",
        -10.42591338643478
      ],
      [
        "Ġcollect",
        -10.426113843289144
      ],
      [
        "Ġofficers",
        -10.426420973177434
      ],
      [
        "use",
        -10.426564163092811
      ],
      [
        "Ġdrawn",
        -10.426682032480697
      ],
      [
        "Ġgoods",
        -10.426782323216688
      ],
      [
        "Ġevil",
        -10.426970009263815
      ],
      [
        "holding",
        -10.42706508545268
      ],
      [
        "composed",
        -10.427776738886996
      ],
      [
        "Ġwhatever",
        -10.427790847097972
      ],
      [
        "ĠGood",
        -10.428071860815075
      ],
      [
        "Ġjourney",
        -10.428778123932847
      ],
      [
        "ĠLouis",
        -10.429042738136188
      ],
      [
        "Ġhousing",
        -10.42926376466265
      ],
      [
        "Ġhydrogen",
        -10.429609354250408
      ],
      [
        "Ġethnic",
        -10.429726112988527
      ],
      [
        "ĠHill",
        -10.43061667696205
      ],
      [
        "ĠTime",
        -10.430929630191464
      ],
      [
        "ĠLincoln",
        -10.431577139266318
      ],
      [
        "Ġlung",
        -10.431593608871628
      ],
      [
        "issued",
        -10.432318497111808
      ],
      [
        "Ġbiology",
        -10.432435022210678
      ],
      [
        "Ġpolitics",
        -10.43246364716369
      ],
      [
        "Ġtrain",
        -10.43315497528906
      ],
      [
        "Ġsymbol",
        -10.433294219809635
      ],
      [
        "Ġaccounts",
        -10.434816460302011
      ],
      [
        "Ġinsects",
        -10.434928242518565
      ],
      [
        "Ġtrials",
        -10.436220285728355
      ],
      [
        "Ġmobile",
        -10.436433179155564
      ],
      [
        "ĠHall",
        -10.437025442565195
      ],
      [
        "Ġquick",
        -10.437162605620568
      ],
      [
        "ĠJust",
        -10.437178190263474
      ],
      [
        "ĠAsian",
        -10.4375209601419
      ],
      [
        "Ġdeliver",
        -10.43761173708976
      ],
      [
        "Ġwidespread",
        -10.438481372884777
      ],
      [
        "Ġfacility",
        -10.439817214209077
      ],
      [
        "Ġstudying",
        -10.44020989275932
      ],
      [
        "Ġsenior",
        -10.440230831033611
      ],
      [
        "maintained",
        -10.440512560024665
      ],
      [
        "Ġfeeding",
        -10.44057986357984
      ],
      [
        "Ġspeaking",
        -10.442018826028956
      ],
      [
        "Ġmuscles",
        -10.442205866228951
      ],
      [
        "Ġstages",
        -10.444747000044488
      ],
      [
        "Ġcars",
        -10.445107654160442
      ],
      [
        "Because",
        -10.4451895549582
      ],
      [
        "Ġweapons",
        -10.44528726490442
      ],
      [
        "Ġsharing",
        -10.44587184269506
      ],
      [
        "ĠIrish",
        -10.446071147389924
      ],
      [
        "breeding",
        -10.446114354580123
      ],
      [
        "known",
        -10.44636986423587
      ],
      [
        "Ġzero",
        -10.44650785648869
      ],
      [
        "Ġwriter",
        -10.446586212828972
      ],
      [
        "Ġmode",
        -10.446973059931285
      ],
      [
        "Ġdollars",
        -10.446984978518268
      ],
      [
        "Ġtranslation",
        -10.447517187929442
      ],
      [
        "cited",
        -10.448039749316749
      ],
      [
        "Ġlies",
        -10.44815482090852
      ],
      [
        "Ġrandom",
        -10.448463958835523
      ],
      [
        "Ġmedication",
        -10.4490891599046
      ],
      [
        "Ġconsiderable",
        -10.449193081304506
      ],
      [
        "Ġminor",
        -10.449314340389233
      ],
      [
        "Ġtouch",
        -10.44991637139956
      ],
      [
        "ĠFamily",
        -10.450136875137613
      ],
      [
        "Ġassociation",
        -10.4504419782056
      ],
      [
        "Ġinvolving",
        -10.450650793888595
      ],
      [
        "Ġtrace",
        -10.45067280214874
      ],
      [
        "sought",
        -10.45100904164631
      ],
      [
        "Ġsets",
        -10.451166167029868
      ],
      [
        "Ġplatform",
        -10.452046291339812
      ],
      [
        "Ġpounds",
        -10.452491232318671
      ],
      [
        "Ġsilver",
        -10.452515336695487
      ],
      [
        "opposed",
        -10.453766247859171
      ],
      [
        "Ġlaunch",
        -10.454043623654185
      ],
      [
        "ĠOxford",
        -10.45428998952464
      ],
      [
        "Ġreader",
        -10.454692498969344
      ],
      [
        "ties",
        -10.454695330758993
      ],
      [
        "Ġdemonstrated",
        -10.455479704335746
      ],
      [
        "Ġproduces",
        -10.455699463727177
      ],
      [
        "Ġcloser",
        -10.455863629683805
      ],
      [
        "Ġstrike",
        -10.456172411700512
      ],
      [
        "Ġnutrients",
        -10.456278252813352
      ],
      [
        "Ġpermit",
        -10.456408406647814
      ],
      [
        "truly",
        -10.457124665228031
      ],
      [
        "Ġcat",
        -10.457131873921565
      ],
      [
        "funded",
        -10.457537316175555
      ],
      [
        "Ġexact",
        -10.458217301509467
      ],
      [
        "Ġband",
        -10.459055400575746
      ],
      [
        "Ġcup",
        -10.4596762116118
      ],
      [
        "Ġsharp",
        -10.460113873073205
      ],
      [
        "Ġarray",
        -10.460173900033617
      ],
      [
        "ch",
        -10.460242936102922
      ],
      [
        "making",
        -10.460405241298222
      ],
      [
        "Ġstanding",
        -10.460712339553686
      ],
      [
        "Ġindependence",
        -10.46073007819023
      ],
      [
        "Ġframe",
        -10.46120551368072
      ],
      [
        "planned",
        -10.461223455731052
      ],
      [
        "Ġmice",
        -10.4612911107062
      ],
      [
        "Ġconsumers",
        -10.46201729284157
      ],
      [
        "Ġparticipation",
        -10.462710898178226
      ],
      [
        "Ġfourth",
        -10.462725198770157
      ],
      [
        "Ġ32",
        -10.464317841626864
      ],
      [
        "ĠSaint",
        -10.464405097570465
      ],
      [
        "Ġimplement",
        -10.465188817000168
      ],
      [
        "Ġcard",
        -10.465281588589814
      ],
      [
        "Ġrivers",
        -10.465356742375343
      ],
      [
        "ĠBoston",
        -10.465428114751004
      ],
      [
        "Ġload",
        -10.465516423127005
      ],
      [
        "printed",
        -10.466322999040557
      ],
      [
        "ĠAge",
        -10.466394138014229
      ],
      [
        "Ġcolors",
        -10.46717471613962
      ],
      [
        "ĠClimate",
        -10.467231814262384
      ],
      [
        "Ġintervention",
        -10.467485727070398
      ],
      [
        "Ġcrew",
        -10.468013406032531
      ],
      [
        "Ġengage",
        -10.468413872036686
      ],
      [
        "ĠGeorgia",
        -10.468818735634803
      ],
      [
        "Ġregularly",
        -10.469068137340878
      ],
      [
        "Ġmaintenance",
        -10.469691189935231
      ],
      [
        "Ġpro",
        -10.470004670556028
      ],
      [
        "Ġexpress",
        -10.470033998053866
      ],
      [
        "Ġflag",
        -10.470532742363597
      ],
      [
        "Ġcutting",
        -10.471042121780824
      ],
      [
        "May",
        -10.471170101143436
      ],
      [
        "Ġfilter",
        -10.471432832427435
      ],
      [
        "Ġroof",
        -10.472051931303437
      ],
      [
        "Ġ1950",
        -10.47269111802052
      ],
      [
        "deed",
        -10.472913867926076
      ],
      [
        "Ġharm",
        -10.473455767456926
      ],
      [
        "Ġobesity",
        -10.474436569815328
      ],
      [
        "ĠPlan",
        -10.474726821752371
      ],
      [
        "Ġlessons",
        -10.475133742290234
      ],
      [
        "ĠConservation",
        -10.475970249958737
      ],
      [
        "Ġserving",
        -10.476581034116402
      ],
      [
        "Ġlands",
        -10.476674823145862
      ],
      [
        "Ġtasks",
        -10.477031828824538
      ],
      [
        "ĠMake",
        -10.47773700552592
      ],
      [
        "Ġcholesterol",
        -10.478523615486049
      ],
      [
        "Ġgiant",
        -10.47914624222768
      ],
      [
        "Ġstands",
        -10.479255484244932
      ],
      [
        "Ġinvolve",
        -10.480025380075077
      ],
      [
        "Ġconstructed",
        -10.480093472059789
      ],
      [
        "Ġexpand",
        -10.480289517303529
      ],
      [
        "Ġimprovement",
        -10.480517004119244
      ],
      [
        "Ġhusband",
        -10.480829272351668
      ],
      [
        "Ġimproving",
        -10.481831359209574
      ],
      [
        "Ġevaluate",
        -10.48205379395383
      ],
      [
        "ter",
        -10.483109160644071
      ],
      [
        "committed",
        -10.483389432913652
      ],
      [
        "Ġmathematics",
        -10.48347749951036
      ],
      [
        "ĠVol",
        -10.483536470946987
      ],
      [
        "how",
        -10.48403357345821
      ],
      [
        "Ġpermission",
        -10.484142421927055
      ],
      [
        "Ġstrongly",
        -10.48420510622616
      ],
      [
        "Ġmagazine",
        -10.484528007068423
      ],
      [
        "receiving",
        -10.484734081497118
      ],
      [
        "Ġscreening",
        -10.484773000352108
      ],
      [
        "Ġfrequent",
        -10.484878966546932
      ],
      [
        "indicated",
        -10.48590160277441
      ],
      [
        "Ġphrase",
        -10.486044730111413
      ],
      [
        "ĠPart",
        -10.48665124576624
      ],
      [
        "ĠArab",
        -10.48714248872566
      ],
      [
        "ĠDirector",
        -10.487432379750262
      ],
      [
        "ĠHospital",
        -10.48756343329027
      ],
      [
        "Ġinteraction",
        -10.488130966893294
      ],
      [
        "Ġmodified",
        -10.488280428635248
      ],
      [
        "ĠJohnson",
        -10.488803980829816
      ],
      [
        "Ġscene",
        -10.488861523391195
      ],
      [
        "Ġsmoking",
        -10.489200899631545
      ],
      [
        "Ġaspect",
        -10.489365960551288
      ],
      [
        "First",
        -10.489791402809136
      ],
      [
        "Ġislands",
        -10.490092085602791
      ],
      [
        "ĠMuslim",
        -10.49020478799193
      ],
      [
        "Ġscientist",
        -10.490304061737534
      ],
      [
        "Ġrecognition",
        -10.490861025758257
      ],
      [
        "ĠPennsylvania",
        -10.491426453162926
      ],
      [
        "Ġproved",
        -10.491427393434323
      ],
      [
        "Ġweak",
        -10.49232542410392
      ],
      [
        "Ġanswers",
        -10.492717825434502
      ],
      [
        "Ġsuitable",
        -10.49297650795972
      ],
      [
        "Ġcommitment",
        -10.493204063000968
      ],
      [
        "ĠGulf",
        -10.493375587649176
      ],
      [
        "Ġstable",
        -10.493707307930494
      ],
      [
        "Ġha",
        -10.493996785094314
      ],
      [
        "Ġsell",
        -10.494338526469486
      ],
      [
        "Ġdanger",
        -10.494475541782297
      ],
      [
        "Ġcalcium",
        -10.495196939129478
      ],
      [
        "Ġboys",
        -10.495331757994128
      ],
      [
        "Ġrocks",
        -10.495635909054911
      ],
      [
        "Ġprominent",
        -10.495899887058876
      ],
      [
        "Ġsteel",
        -10.49601561554143
      ],
      [
        "ĠRevolution",
        -10.496274990222975
      ],
      [
        "ĠChange",
        -10.496539569508462
      ],
      [
        "Ġcaptured",
        -10.496766113206274
      ],
      [
        "Ġpartner",
        -10.49723317366932
      ],
      [
        "reserved",
        -10.4974584664544
      ],
      [
        "Ġstomach",
        -10.497710524839675
      ],
      [
        "Ġoutbreak",
        -10.49833184577415
      ],
      [
        "ĠPage",
        -10.498471845830045
      ],
      [
        "Ġdisaster",
        -10.498582485123096
      ],
      [
        "spending",
        -10.49914229627318
      ],
      [
        "Ġadvocate",
        -10.49957161878194
      ],
      [
        "roughly",
        -10.500025392153436
      ],
      [
        "ĠBill",
        -10.500029237896667
      ],
      [
        "Ġfishing",
        -10.500057310517086
      ],
      [
        "ĠEarly",
        -10.500133184188574
      ],
      [
        "Ġadequate",
        -10.500295454567771
      ],
      [
        "Ġmeasurements",
        -10.500668085372812
      ],
      [
        "Ġacres",
        -10.500964895827638
      ],
      [
        "Ġmanufacturing",
        -10.501126440047202
      ],
      [
        "ĠLet",
        -10.50132804491288
      ],
      [
        "Ġcopyright",
        -10.50184026834302
      ],
      [
        "Ġrevolution",
        -10.501852577695969
      ],
      [
        "Ġplus",
        -10.501945225009887
      ],
      [
        "Ġtrust",
        -10.502227955977284
      ],
      [
        "Ġsports",
        -10.502559411486864
      ],
      [
        "Ġsubsequent",
        -10.502648505789738
      ],
      [
        "can",
        -10.502743040472598
      ],
      [
        "ĠSecurity",
        -10.50288840829577
      ],
      [
        "ries",
        -10.504311632045813
      ],
      [
        "Ġinjuries",
        -10.505647043726908
      ],
      [
        "century",
        -10.506604503268235
      ],
      [
        "Ġmoderate",
        -10.506651583601045
      ],
      [
        "Of",
        -10.506990589899132
      ],
      [
        "08",
        -10.50759198617745
      ],
      [
        "ĠEPA",
        -10.507603546792256
      ],
      [
        "Ġtips",
        -10.507604615337792
      ],
      [
        "Ġphysician",
        -10.508924843911013
      ],
      [
        "ĠChild",
        -10.509240410751554
      ],
      [
        "Ġthick",
        -10.510310005744952
      ],
      [
        "Ġcounter",
        -10.510315873924156
      ],
      [
        "fairly",
        -10.51057532251053
      ],
      [
        "work",
        -10.51067567169973
      ],
      [
        "ĠGoogle",
        -10.511061410047448
      ],
      [
        "Ġlake",
        -10.51112500143479
      ],
      [
        "Ġvictims",
        -10.511332005128995
      ],
      [
        "Ġcolumn",
        -10.511614229938878
      ],
      [
        "Ġchoices",
        -10.51193048203087
      ],
      [
        "Ġsoul",
        -10.5122730557961
      ],
      [
        "Ġmeters",
        -10.512318683164064
      ],
      [
        "finished",
        -10.513034868375
      ],
      [
        ")|",
        -10.513701494001229
      ],
      [
        "confirmed",
        -10.51409093375047
      ],
      [
        "Ġcrucial",
        -10.514666496726646
      ],
      [
        "ĠLanguage",
        -10.514692850786856
      ],
      [
        "assigned",
        -10.514972147061036
      ],
      [
        "Unfortunately",
        -10.51532802603893
      ],
      [
        "About",
        -10.515993419584762
      ],
      [
        "03",
        -10.516172623609288
      ],
      [
        "04",
        -10.516360121406631
      ],
      [
        "Ġcriminal",
        -10.51656330730463
      ],
      [
        "Ġscheme",
        -10.516935447266777
      ],
      [
        "Ġincident",
        -10.51717405517904
      ],
      [
        "armed",
        -10.517600606995842
      ],
      [
        "Ġobjective",
        -10.517876054180409
      ],
      [
        "Ġ(\"",
        -10.518552584709973
      ],
      [
        "Ġ150",
        -10.518987132416587
      ],
      [
        "Ġstrain",
        -10.519386131826128
      ],
      [
        "Ġpreserve",
        -10.519507063236553
      ],
      [
        "Ġagents",
        -10.51951391201961
      ],
      [
[...]
