{
  "version": "1.0",
  "truncation": null,
  "padding": null,
  "added_tokens": [
    {
      "id": 0,
      "content": "<|endoftext|>",
      "single_word": false,
      "lstrip": false,
      "rstrip": false,
      "normalized": false,
      "special": true
    },
    {
      "id": 1,
      "content": "<|padding|>",
      "single_word": false,
      "lstrip": false,
      "rstrip": false,
      "normalized": false,
      "special": true
    }
  ],
  "normalizer": {
    "type": "NFC"
  },
  "pre_tokenizer": {
    "type": "ByteLevel",
    "add_prefix_space": false,
    "trim_offsets": true,
    "use_regex": true
  },
  "post_processor": {
    "type": "ByteLevel",
    "add_prefix_space": true,
    "trim_offsets": false,
    "use_regex": true
  },
  "decoder": {
    "type": "ByteLevel",
    "add_prefix_space": true,
    "trim_offsets": true,
    "use_regex": true
  },
  "model": {
    "type": "Unigram",
    "unk_id": null,
    "vocab": [
      [
        "<|endoftext|>",
        -1.0
      ],
      [
        "<|padding|>",
        -1.0
      ],
      [
        "Ġ",
        -1.0
      ],
      [
        "e",
        -1.0
      ],
      [
        "a",
        -1.0
      ],
      [
        "t",
        -1.0
      ],
      [
        "n",
        -1.0
      ],
      [
        "i",
        -1.0
      ],
      [
        "o",
        -1.0
      ],
      [
        "r",
        -1.0
      ],
      [
        "s",
        -1.0
      ],
      [
        "l",
        -1.0
      ],
      [
        "d",
        -1.0
      ],
      [
        "h",
        -1.0
      ],
      [
        "c",
        -1.0
      ],
      [
        "u",
        -1.0
      ],
      [
        "m",
        -1.0
      ],
      [
        "p",
        -1.0
      ],
      [
        "g",
        -1.0
      ],
      [
        "f",
        -1.0
      ],
      [
        "y",
        -1.0
      ],
      [
        "b",
        -1.0
      ],
      [
        ".",
        -1.0
      ],
      [
        ",",
        -1.0
      ],
      [
        "w",
        -1.0
      ],
      [
        "v",
        -1.0
      ],
      [
        "k",
        -1.0
      ],
      [
        "Ã",
        -1.0
      ],
      [
        "Ċ",
        -1.0
      ],
      [
        "å",
        -1.0
      ],
      [
        "Ä",
        -1.0
      ],
      [
        "±",
        -1.0
      ],
      [
        "æ",
        -1.0
      ],
      [
        "Ģ",
        -1.0
      ],
      [
        "A",
        -1.0
      ],
      [
        "S",
        -1.0
      ],
      [
        "z",
        -1.0
      ],
      [
        "¼",
        -1.0
      ],
      [
        "T",
        -1.0
      ],
      [
        "-",
        -1.0
      ],
      [
        "ç",
        -1.0
      ],
      [
        "ä",
        -1.0
      ],
      [
        "0",
        -1.0
      ],
      [
        "1",
        -1.0
      ],
      [
        "Ł",
        -1.0
      ],
      [
        "I",
        -1.0
      ],
      [
        "C",
        -1.0
      ],
      [
        "è",
        -1.0
      ],
      [
        "â",
        -1.0
      ],
      [
        "M",
        -1.0
      ],
      [
        "E",
        -1.0
      ],
      [
        "B",
        -1.0
      ],
      [
        "P",
        -1.0
      ],
      [
        "D",
        -1.0
      ],
      [
        "2",
        -1.0
      ],
      [
        "x",
        -1.0
      ],
      [
        "q",
        -1.0
      ],
      [
        "ľ",
        -1.0
      ],
      [
        "R",
        -1.0
      ],
      [
        "º",
        -1.0
      ],
      [
        "¸",
        -1.0
      ],
      [
        "H",
        -1.0
      ],
      [
        "é",
        -1.0
      ],
      [
        "Į",
        -1.0
      ],
      [
        "N",
        -1.0
      ],
      [
        "L",
        -1.0
      ],
      [
        "F",
        -1.0
      ],
      [
        ")",
        -1.0
      ],
      [
        "(",
        -1.0
      ],
      [
        "W",
        -1.0
      ],
      [
        "G",
        -1.0
      ],
      [
        "§",
        -1.0
      ],
      [
        "¶",
        -1.0
      ],
      [
        "j",
        -1.0
      ],
      [
        "Å",
        -1.0
      ],
      [
        ":",
        -1.0
      ],
      [
        "9",
        -1.0
      ],
      [
        "ļ",
        -1.0
      ],
      [
        "³",
        -1.0
      ],
      [
        "Ļ",
        -1.0
      ],
      [
        "O",
        -1.0
      ],
      [
        "\"",
        -1.0
      ],
      [
        "¤",
        -1.0
      ],
      [
        "Ń",
        -1.0
      ],
      [
        "ï",
        -1.0
      ],
      [
        "¡",
        -1.0
      ],
      [
        "»",
        -1.0
      ],
      [
        "3",
        -1.0
      ],
      [
        "Ħ",
        -1.0
      ],
      [
        "°",
        -1.0
      ],
      [
        "5",
        -1.0
      ],
      [
        "Ī",
        -1.0
      ],
      [
        "K",
        -1.0
      ],
      [
        "'",
        -1.0
      ],
      [
        "Ŀ",
        -1.0
      ],
      [
        "½",
        -1.0
      ],
      [
        "U",
        -1.0
      ],
      [
        "8",
        -1.0
      ],
      [
        "4",
        -1.0
      ],
      [
        "ģ",
        -1.0
      ],
      [
        "¯",
        -1.0
      ],
      [
        "Ĥ",
        -1.0
      ],
      [
        "ī",
        -1.0
      ],
      [
        "ı",
        -1.0
      ],
      [
        "¿",
        -1.0
      ],
      [
        "į",
        -1.0
      ],
      [
        "6",
        -1.0
      ],
      [
        "¹",
        -1.0
      ],
      [
        "®",
        -1.0
      ],
      [
        "Ķ",
        -1.0
      ],
      [
        "ħ",
        -1.0
      ],
      [
        "V",
        -1.0
      ],
      [
        "J",
        -1.0
      ],
      [
        "7",
        -1.0
      ],
      [
        "¥",
        -1.0
      ],
      [
        "ĩ",
        -1.0
      ],
      [
        "¨",
        -1.0
      ],
      [
        "Ľ",
        -1.0
      ],
      [
        "ã",
        -1.0
      ],
      [
        "Ĳ",
        -1.0
      ],
      [
        "©",
        -1.0
      ],
      [
        "ĺ",
        -1.0
      ],
      [
        "Ĭ",
        -1.0
      ],
      [
        "İ",
        -1.0
      ],
      [
        "Ĩ",
        -1.0
      ],
      [
        "ĭ",
        -1.0
      ],
      [
        "ĸ",
        -1.0
      ],
      [
        "|",
        -1.0
      ],
      [
        "ĳ",
        -1.0
      ],
      [
        "¾",
        -1.0
      ],
      [
        "ĵ",
        -1.0
      ],
      [
        "Ĺ",
        -1.0
      ],
      [
        "ĥ",
        -1.0
      ],
      [
        "´",
        -1.0
      ],
      [
        "¦",
        -1.0
      ],
      [
        "/",
        -1.0
      ],
      [
        "·",
        -1.0
      ],
      [
        ";",
        -1.0
      ],
      [
        "Y",
        -1.0
      ],
      [
        "ķ",
        -1.0
      ],
      [
        "¢",
        -1.0
      ],
      [
        "ł",
        -1.0
      ],
      [
        "ŀ",
        -1.0
      ],
      [
        "¬",
        -1.0
      ],
      [
        "?",
        -1.0
      ],
      [
        "ª",
        -1.0
      ],
      [
        "«",
        -1.0
      ],
      [
        "£",
        -1.0
      ],
      [
        "²",
        -1.0
      ],
      [
        "µ",
        -1.0
      ],
      [
        "Ĵ",
        -1.0
      ],
      [
        "Z",
        -1.0
      ],
      [
        "Â",
        -1.0
      ],
      [
        "!",
        -1.0
      ],
      [
        "%",
        -1.0
      ],
      [
        "Q",
        -1.0
      ],
      [
        "X",
        -1.0
      ],
      [
        "[",
        -1.0
      ],
      [
        "]",
        -1.0
      ],
      [
        "_",
        -1.0
      ],
      [
        "&",
        -1.0
      ],
      [
        "=",
        -1.0
      ],
      [
        "$",
        -1.0
      ],
      [
        "*",
        -1.0
      ],
      [
        "+",
        -1.0
      ],
      [
        ">",
        -1.0
      ],
      [
        "Ð",
        -1.0
      ],
      [
        "Ù",
        -1.0
      ],
      [
        "Î",
        -1.0
      ],
      [
        "#",
        -1.0
      ],
      [
        "@",
        -1.0
      ],
      [
        "<",
        -1.0
      ],
      [
        "~",
        -1.0
      ],
      [
        "Ø",
        -1.0
      ],
      [
        "Ñ",
        -1.0
      ],
      [
        "á",
        -1.0
      ],
      [
        "Ï",
        -1.0
      ],
      [
        "à",
        -1.0
      ],
      [
        "×",
        -1.0
      ],
      [
        "`",
        -1.0
      ],
      [
        "^",
        -1.0
      ],
      [
        "\\",
        -1.0
      ],
      [
        "ð",
        -1.0
      ],
      [
        "É",
        -1.0
      ],
      [
        "Ê",
        -1.0
      ],
      [
        "Ë",
        -1.0
      ],
      [
        "Ö",
        -1.0
      ],
      [
        "ì",
        -1.0
      ],
      [
        "}",
        -1.0
      ],
      [
        "ë",
        -1.0
      ],
      [
        "Õ",
        -1.0
      ],
      [
        "{",
        -1.0
      ],
      [
        "Ì",
        -1.0
      ],
      [
        "ê",
        -1.0
      ],
      [
        "Ç",
        -1.0
      ],
      [
        "Û",
        -1.0
      ],
      [
        "í",
        -1.0
      ],
      [
        "Æ",
        -1.0
      ],
      [
        "Ô",
        -1.0
      ],
      [
        "È",
        -1.0
      ],
      [
        "Ú",
        -1.0
      ],
      [
        "Þ",
        -1.0
      ],
      [
        "Ü",
        -1.0
      ],
      [
        "Ò",
        -1.0
      ],
      [
        "Í",
        -1.0
      ],
      [
        "Ó",
        -1.0
      ],
      [
        "Ý",
        -1.0
      ],
      [
        "ß",
        -1.0
      ],
      [
        "ĉ",
        -1.0
      ],
      [
        "ó",
        -1.0
      ],
      [
        "î",
        -1.0
      ],
      [
        "ġ",
        -1.0
      ],
      [
        "ğ",
        -1.0
      ],
      [
        "Ğ",
        -1.0
      ],
      [
        "ĝ",
        -1.0
      ],
      [
        "Ĝ",
        -1.0
      ],
      [
        "ě",
        -1.0
      ],
      [
        "Ě",
        -1.0
      ],
      [
        "ę",
        -1.0
      ],
      [
        "Ę",
        -1.0
      ],
      [
        "ė",
        -1.0
      ],
      [
        "Ė",
        -1.0
      ],
      [
        "ĕ",
        -1.0
      ],
      [
        "Ĕ",
        -1.0
      ],
      [
        "ē",
        -1.0
      ],
      [
        "Ē",
        -1.0
      ],
      [
        "đ",
        -1.0
      ],
      [
        "Đ",
        -1.0
      ],
      [
        "ď",
        -1.0
      ],
      [
        "Ď",
        -1.0
      ],
      [
        "č",
        -1.0
      ],
      [
        "Č",
        -1.0
      ],
      [
        "ċ",
        -1.0
      ],
      [
        "Ĉ",
        -1.0
      ],
      [
        "ć",
        -1.0
      ],
      [
        "Ć",
        -1.0
      ],
      [
        "ą",
        -1.0
      ],
      [
        "Ą",
        -1.0
      ],
      [
        "ă",
        -1.0
      ],
      [
        "Ă",
        -1.0
      ],
      [
        "ā",
        -1.0
      ],
      [
        "Ā",
        -1.0
      ],
      [
        "ÿ",
        -1.0
      ],
      [
        "þ",
        -1.0
      ],
      [
        "ý",
        -1.0
      ],
      [
        "ü",
        -1.0
      ],
      [
        "û",
        -1.0
      ],
      [
        "ú",
        -1.0
      ],
      [
        "ù",
        -1.0
      ],
      [
        "ø",
        -1.0
      ],
      [
        "÷",
        -1.0
      ],
      [
        "ö",
        -1.0
      ],
      [
        "õ",
        -1.0
      ],
      [
        "ô",
        -1.0
      ],
      [
        "ò",
        -1.0
      ],
      [
        "ñ",
        -1.0
      ],
      [
        "Á",
        -1.0
      ],
      [
        "À",
        -1.0
      ],
      [
        "ä¸",
        -1.0
      ],
      [
        "çļĦ",
        -1.0
      ],
      [
        "çļ",
        -1.0
      ],
      [
        "äº",
        -1.0
      ],
      [
        "æľ",
        -1.0
      ],
      [
        "åı",
        -1.0
      ],
      [
        "ä»",
        -1.0
      ],
      [
        "er",
        -1.0
      ],
      [
        "çļĦå",
        -1.0
      ],
      [
        "å¤",
        -1.0
      ],
      [
        "åħ",
        -1.0
      ],
      [
        "ä¸Ģ",
        -1.0
      ],
      [
        "en",
        -1.0
      ],
      [
        "æĺ¯",
        -1.0
      ],
      [
        "å®",
        -1.0
      ],
      [
        "åľ",
        -1.0
      ],
      [
        "çļĦæ",
        -1.0
      ],
      [
        "åĪ",
        -1.0
      ],
      [
        "æĺ",
        -1.0
      ],
      [
        "è¿",
        -1.0
      ],
      [
        "ä½",
        -1.0
      ],
      [
        "åĲ",
        -1.0
      ],
      [
        "åľ¨",
        -1.0
      ],
      [
        "æĪ",
        -1.0
      ],
      [
        "ä¸į",
        -1.0
      ],
      [
        "çĶ",
        -1.0
      ],
      [
        "æľī",
        -1.0
      ],
      [
        "å°",
        -1.0
      ],
      [
        "äºĨ",
        -1.0
      ],
      [
        "äºº",
        -1.0
      ],
      [
        "in",
        -1.0
      ],
      [
        "an",
        -1.0
      ],
      [
        "ä¹",
        -1.0
      ],
      [
        "åĬ",
        -1.0
      ],
      [
        "te",
        -1.0
      ],
      [
        "ar",
        -1.0
      ],
      [
        "æĸ",
        -1.0
      ],
      [
        "åĽ",
        -1.0
      ],
      [
        "Ä±",
        -1.0
      ],
      [
        "le",
        -1.0
      ],
      [
        "ç»",
        -1.0
      ],
      [
        "å¤§",
        -1.0
      ],
      [
        "ch",
        -1.0
      ],
      [
        "çļĦç",
        -1.0
      ],
      [
        "ä¸Ń",
        -1.0
      ],
      [
        "la",
        -1.0
      ],
      [
        "çļĦè",
        -1.0
      ],
      [
        "åį",
        -1.0
      ],
      [
        "ä¼",
        -1.0
      ],
      [
        "æĹ",
        -1.0
      ],
      [
        "åŃ",
        -1.0
      ],
      [
        "re",
        -1.0
      ],
      [
        "è®",
        -1.0
      ],
      [
        "æī",
        -1.0
      ],
      [
        "es",
        -1.0
      ],
      [
        "è¯",
        -1.0
      ],
      [
        "ra",
        -1.0
      ],
      [
        "å¹",
        -1.0
      ],
      [
        "æĿ",
        -1.0
      ],
      [
        "æĪĳ",
        -1.0
      ],
      [
        "å¾",
        -1.0
      ],
      [
        "å¸",
        -1.0
      ],
      [
        "st",
        -1.0
      ],
      [
        "ri",
        -1.0
      ],
      [
        "ä¸Ĭ",
        -1.0
      ],
      [
        "åĴĮ",
        -1.0
      ],
      [
        "éĢ",
        -1.0
      ],
      [
        "ti",
        -1.0
      ],
      [
        "on",
        -1.0
      ],
      [
        "å¥",
        -1.0
      ],
      [
        "al",
        -1.0
      ],
      [
        "å·",
        -1.0
      ],
      [
        "éĩ",
        -1.0
      ],
      [
        "å¼",
        -1.0
      ],
      [
        "ä»¥",
        -1.0
      ],
      [
        "ng",
        -1.0
      ],
      [
        "de",
        -1.0
      ],
      [
        "è¦ģ",
        -1.0
      ],
      [
        "ä¸º",
        -1.0
      ],
      [
        "åº",
        -1.0
      ],
      [
        "el",
        -1.0
      ],
      [
        "è¡",
        -1.0
      ],
      [
        "li",
        -1.0
      ],
      [
        "èĢ",
        -1.0
      ],
      [
        "nd",
        -1.0
      ],
      [
        "åĪ°",
        -1.0
      ],
      [
        "at",
        -1.0
      ],
      [
        "åĩ",
        -1.0
      ],
      [
        "åĽ½",
        -1.0
      ],
      [
        "ä¸ª",
        -1.0
      ],
      [
        "¯å",
        -1.0
      ],
      [
        "è¿Ļ",
        -1.0
      ],
      [
        "or",
        -1.0
      ],
      [
        "çļĦé",
        -1.0
      ],
      [
        "īå",
        -1.0
      ],
      [
        "çĽ",
        -1.0
      ],
      [
        "åĨ",
        -1.0
      ],
      [
        "å¯",
        -1.0
      ],
      [
        "çĶŁ",
        -1.0
      ],
      [
        "un",
        -1.0
      ],
      [
        "is",
        -1.0
      ],
      [
        "èĥ½",
        -1.0
      ],
      [
        "çĶ¨",
        -1.0
      ],
      [
        "Įå",
        -1.0
      ],
      [
        "ta",
        -1.0
      ],
      [
        "ä¼ļ",
        -1.0
      ],
      [
        "åĮ",
        -1.0
      ],
      [
        "ge",
        -1.0
      ],
      [
        "åı¯",
        -1.0
      ],
      [
        "ne",
        -1.0
      ],
      [
        "çī",
        -1.0
      ],
      [
        "åĩº",
        -1.0
      ],
      [
        "æķ",
        -1.0
      ],
      [
        "èµ",
        -1.0
      ],
      [
        "æĬ",
        -1.0
      ],
      [
        "ma",
        -1.0
      ],
      [
        "åĴ",
        -1.0
      ],
      [
        "è§",
        -1.0
      ],
      [
        "¨æ",
        -1.0
      ],
      [
        "Īĳ",
        -1.0
      ],
      [
        "æĿ¥",
        -1.0
      ],
      [
        "è¦",
        -1.0
      ],
      [
        "me",
        -1.0
      ],
      [
        "å°±",
        -1.0
      ],
      [
        "å®¶",
        -1.0
      ],
      [
        "nt",
        -1.0
      ],
      [
        "it",
        -1.0
      ],
      [
        "as",
        -1.0
      ],
      [
        "æĹ¶",
        -1.0
      ],
      [
        "è¡Į",
        -1.0
      ],
      [
        "æĢ",
        -1.0
      ],
      [
        "èĥ",
        -1.0
      ],
      [
        "il",
        -1.0
      ],
      [
        "se",
        -1.0
      ],
      [
        "å±",
        -1.0
      ],
      [
        "å¿",
        -1.0
      ],
      [
        "¬å",
        -1.0
      ],
      [
        "æĶ",
        -1.0
      ],
      [
        "çİ",
        -1.0
      ],
      [
        "ä»ĸ",
        -1.0
      ],
      [
        "´å",
        -1.0
      ],
      [
        "æĪĲ",
        -1.0
      ],
      [
        "éĥ",
        -1.0
      ],
      [
        "è´",
        -1.0
      ],
      [
        "åıĳ",
        -1.0
      ],
      [
        "å¤ļ",
        -1.0
      ],
      [
        "ä¸Ģä¸",
        -1.0
      ],
      [
        "ic",
        -1.0
      ],
      [
        "ä¸ĭ",
        -1.0
      ],
      [
        "ä½ľ",
        -1.0
      ],
      [
        "ä¹Ł",
        -1.0
      ],
      [
        "åľ°",
        -1.0
      ],
      [
        "he",
        -1.0
      ],
      [
        "¨ç",
        -1.0
      ],
      [
        "ni",
        -1.0
      ],
      [
        "å½",
        -1.0
      ],
      [
        "æł",
        -1.0
      ],
      [
        "çľ",
        -1.0
      ],
      [
        "Ńå",
        -1.0
      ],
      [
        "ä¸ļ",
        -1.0
      ],
      [
        "æŃ",
        -1.0
      ],
      [
        "ie",
        -1.0
      ],
      [
        "ei",
        -1.0
      ],
      [
        "Łæ",
        -1.0
      ],
      [
        "å¹´",
        -1.0
      ],
      [
        "ro",
        -1.0
      ],
      [
        "éĻ",
        -1.0
      ],
      [
        "éĿ",
        -1.0
      ],
      [
        "ä¸Ģä¸ª",
        -1.0
      ],
      [
        "èĩ",
        -1.0
      ],
      [
        "et",
        -1.0
      ],
      [
        "Īå",
        -1.0
      ],
      [
        "ç§",
        -1.0
      ],
      [
        "å¯¹",
        -1.0
      ],
      [
        "åı¯ä»¥",
        -1.0
      ],
      [
        "åİ",
        -1.0
      ],
      [
        "èĩª",
        -1.0
      ],
      [
        "na",
        -1.0
      ],
      [
        "sch",
        -1.0
      ],
      [
        "ĠS",
        -1.0
      ],
      [
        "éĹ",
        -1.0
      ],
      [
        "æ°",
        -1.0
      ],
      [
        "ung",
        -1.0
      ],
      [
        "Ã¼",
        -1.0
      ],
      [
        "¸ª",
        -1.0
      ],
      [
        "±å",
        -1.0
      ],
      [
        "³å",
        -1.0
      ],
      [
        "æİ",
        -1.0
      ],
      [
        "ä»¬",
        -1.0
      ],
      [
        "çļĦä¸",
        -1.0
      ],
      [
        "æĸ°",
        -1.0
      ],
      [
        "åŃ¦",
        -1.0
      ],
      [
        "æĥ",
        -1.0
      ],
      [
        "ter",
        -1.0
      ],
      [
        "éģ",
        -1.0
      ],
      [
        "åĳ",
        -1.0
      ],
      [
        "æĸ¹",
        -1.0
      ],
      [
        "å°ı",
        -1.0
      ],
      [
        "ä¿",
        -1.0
      ],
      [
        "çº",
        -1.0
      ],
      [
        "ns",
        -1.0
      ],
      [
        "si",
        -1.0
      ],
      [
        "æ³",
        -1.0
      ],
      [
        "am",
        -1.0
      ],
      [
        "åħ¬",
        -1.0
      ],
      [
        "di",
        -1.0
      ],
      [
        "æ²",
        -1.0
      ],
      [
        "å·¥",
        -1.0
      ],
      [
        "åŃĲ",
        -1.0
      ],
      [
        "ĭæ",
        -1.0
      ],
      [
        "ha",
        -1.0
      ],
      [
        "å¥½",
        -1.0
      ],
      [
        "ll",
        -1.0
      ],
      [
        "ler",
        -1.0
      ],
      [
        "æĪĳä»¬",
        -1.0
      ],
      [
        "åħ¨",
        -1.0
      ],
      [
        "be",
        -1.0
      ],
      [
        "éĥ½",
        -1.0
      ],
      [
        "åĵ",
        -1.0
      ],
      [
        "åı¯ä»",
        -1.0
      ],
      [
        "é«ĺ",
        -1.0
      ],
      [
        "Ģä¸",
        -1.0
      ],
      [
        "sc",
        -1.0
      ],
      [
        "åĲİ",
        -1.0
      ],
      [
        "äºİ",
        -1.0
      ],
      [
        "åĪĨ",
        -1.0
      ],
      [
        "æŀ",
        -1.0
      ],
      [
        "æµ",
        -1.0
      ],
      [
        "åħ¬åı¸",
        -1.0
      ],
      [
        "æĺ¯ä¸",
        -1.0
      ],
      [
        "ĸå",
        -1.0
      ],
      [
        "lar",
        -1.0
      ],
      [
        "éĿ¢",
        -1.0
      ],
      [
        "çĲĨ",
        -1.0
      ],
      [
        "¡å",
        -1.0
      ],
      [
        "åĬ¨",
        -1.0
      ],
      [
        "æĭ",
        -1.0
      ],
      [
        "ol",
        -1.0
      ],
      [
        "è¿ĩ",
        -1.0
      ],
      [
        "çĲ",
        -1.0
      ],
      [
        "os",
        -1.0
      ],
      [
        "da",
        -1.0
      ],
      [
        "tr",
        -1.0
      ],
      [
        "eri",
        -1.0
      ],
      [
        "rt",
        -1.0
      ],
      [
        "èĩªå·±",
        -1.0
      ],
      [
        "ä½ł",
        -1.0
      ],
      [
        "Ĺå",
        -1.0
      ],
      [
        "æ¯",
        -1.0
      ],
      [
        "å¸Ĥ",
        -1.0
      ],
      [
        "æľ¬",
        -1.0
      ],
      [
        "å¼Ģ",
        -1.0
      ],
      [
        "è½",
        -1.0
      ],
      [
        "å¾Ĺ",
        -1.0
      ],
      [
        "åĬĽ",
        -1.0
      ],
      [
        "che",
        -1.0
      ],
      [
        "åī",
        -1.0
      ],
      [
        "ä¹ĭ",
        -1.0
      ],
      [
        "çİ°",
        -1.0
      ],
      [
        "æĪĳä»",
        -1.0
      ],
      [
        "Ä±n",
        -1.0
      ],
      [
        "é¢",
        -1.0
      ],
      [
        "ur",
        -1.0
      ],
      [
        "ä¾",
        -1.0
      ],
      [
        "å¤©",
        -1.0
      ],
      [
        "ac",
        -1.0
      ],
      [
        "å¿ĥ",
        -1.0
      ],
      [
        "æĦ",
        -1.0
      ],
      [
        "½ľ",
        -1.0
      ],
      [
        "mi",
        -1.0
      ],
      [
        "çŃ",
        -1.0
      ],
      [
        "us",
        -1.0
      ],
      [
        "çľĭ",
        -1.0
      ],
      [
        "io",
        -1.0
      ],
      [
        "ir",
        -1.0
      ],
      [
        "ä¸ŃåĽ½",
        -1.0
      ],
      [
        "¤ļ",
        -1.0
      ],
      [
        "ten",
        -1.0
      ],
      [
        "to",
        -1.0
      ],
      [
        "å¦",
        -1.0
      ],
      [
        "ion",
        -1.0
      ],
      [
        "ad",
        -1.0
      ],
      [
        "åĢ",
        -1.0
      ],
      [
        "¹Ł",
        -1.0
      ],
      [
        "æľĢ",
        -1.0
      ],
      [
        "ä¸»",
        -1.0
      ],
      [
        "è¿Ľ",
        -1.0
      ],
      [
        "ç»ı",
        -1.0
      ],
      [
        "ç½",
        -1.0
      ],
      [
        "åīį",
        -1.0
      ],
      [
        "ç«",
        -1.0
      ],
      [
        "ent",
        -1.0
      ],
      [
        "¸ļ",
        -1.0
      ],
      [
        "em",
        -1.0
      ],
      [
        "rs",
        -1.0
      ],
      [
        "å·¥ä½ľ",
        -1.0
      ],
      [
        "æľº",
        -1.0
      ],
      [
        "æ³ķ",
        -1.0
      ],
      [
        "èĢĮ",
        -1.0
      ],
      [
        "çŃī",
        -1.0
      ],
      [
        "¯ä»¥",
        -1.0
      ],
      [
        "æĮ",
        -1.0
      ],
      [
        "nde",
        -1.0
      ],
      [
        "ed",
        -1.0
      ],
      [
        "åĲĪ",
        -1.0
      ],
      [
        "éĥ¨",
        -1.0
      ],
      [
        "åĵģ",
        -1.0
      ],
      [
        "sa",
        -1.0
      ],
      [
        "æ¬",
        -1.0
      ],
      [
        "åĲĮ",
        -1.0
      ],
      [
        "å®ļ",
        -1.0
      ],
      [
        "åħ¬åı",
        -1.0
      ],
      [
        "ss",
        -1.0
      ],
      [
        "ç¾İ",
        -1.0
      ],
      [
        "è¾",
        -1.0
      ],
      [
        "¯ä¸",
        -1.0
      ],
      [
        "ing",
        -1.0
      ],
      [
        "ĠA",
        -1.0
      ],
      [
        "æ¸",
        -1.0
      ],
      [
        "çļĦäº",
        -1.0
      ],
      [
        "éĽ",
        -1.0
      ],
      [
        "Įç",
        -1.0
      ],
      [
        "Ħä¸",
        -1.0
      ],
      [
        "ä½ĵ",
        -1.0
      ],
      [
        "çĤ",
        -1.0
      ],
      [
        "īç",
        -1.0
      ],
      [
        "é«",
        -1.0
      ],
      [
        "èĩªå·",
        -1.0
      ],
      [
        "ste",
        -1.0
      ],
      [
        "åŁ",
        -1.0
      ],
      [
        "éĺ",
        -1.0
      ],
      [
        "tion",
        -1.0
      ],
      [
        "ĠB",
        -1.0
      ],
      [
        "å®ŀ",
        -1.0
      ],
      [
        "åĬł",
        -1.0
      ],
      [
        "åĮĸ",
        -1.0
      ],
      [
        "æĢ§",
        -1.0
      ],
      [
        "ç¾",
        -1.0
      ],
      [
        "æĥħ",
        -1.0
      ],
      [
        "ĠM",
        -1.0
      ],
      [
        "æīĢ",
        -1.0
      ],
      [
        "äºĭ",
        -1.0
      ],
      [
        "å¾Ī",
        -1.0
      ],
      [
        "æĻ",
        -1.0
      ],
      [
        "å¦Ĥ",
        -1.0
      ],
      [
        "ca",
        -1.0
      ],
      [
        "ec",
        -1.0
      ],
      [
        "ĺæ",
        -1.0
      ],
      [
        "äº§",
        -1.0
      ],
      [
        "èĢħ",
        -1.0
      ],
      [
        "è¯´",
        -1.0
      ],
      [
        "æ²¡æľī",
        -1.0
      ],
      [
        "Ġs",
        -1.0
      ],
      [
        "åģ",
        -1.0
      ],
      [
        "Ĭæ",
        -1.0
      ],
      [
        "ç½ĳ",
        -1.0
      ],
      [
        "ÅŁ",
        -1.0
      ],
      [
        "lo",
        -1.0
      ],
      [
        "Ĩä¸",
        -1.0
      ],
      [
        "ä¸ŃåĽ",
        -1.0
      ],
      [
        "æīĭ",
        -1.0
      ],
      [
        "è¿ĺ",
        -1.0
      ],
      [
        "ve",
        -1.0
      ],
      [
        "æ´",
        -1.0
      ],
      [
        "éĩį",
        -1.0
      ],
      [
        "°ç",
        -1.0
      ],
      [
        "ä¸İ",
        -1.0
      ],
      [
        "and",
        -1.0
      ],
      [
        "ŃĲ",
        -1.0
      ],
      [
        "éģĵ",
        -1.0
      ],
      [
        "èĤ",
        -1.0
      ],
      [
        "æ±",
        -1.0
      ],
      [
        "ia",
        -1.0
      ],
      [
        "ers",
        -1.0
      ],
      [
        "ĪĨ",
        -1.0
      ],
      [
        "å¥³",
        -1.0
      ],
      [
        "im",
        -1.0
      ],
      [
        "æĽ",
        -1.0
      ],
      [
        "åº¦",
        -1.0
      ],
      [
        "Įä¸",
        -1.0
      ],
      [
        "æĹ¥",
        -1.0
      ],
      [
        "å·¥ä½",
        -1.0
      ],
      [
        "ĸç",
        -1.0
      ],
      [
        "au",
        -1.0
      ],
      [
        "åħ¶",
        -1.0
      ],
      [
        "Ġa",
        -1.0
      ],
      [
        "larÄ±",
        -1.0
      ],
      [
        "ke",
        -1.0
      ],
      [
        "æıĲ",
        -1.0
      ],
      [
        "ĠK",
        -1.0
      ],
      [
        "è¿Ļä¸",
        -1.0
      ],
      [
        "çĦ¶",
        -1.0
      ],
      [
        "ka",
        -1.0
      ],
      [
        "æĸĩ",
        -1.0
      ],
      [
        "è·",
        -1.0
      ],
      [
        "ru",
        -1.0
      ],
      [
        "åľº",
        -1.0
      ],
      [
        "ĠP",
        -1.0
      ],
      [
        "----------------",
        -1.0
      ],
      [
        "åİ»",
        -1.0
      ],
      [
        "äºĨä¸",
        -1.0
      ],
      [
        "gen",
        -1.0
      ],
      [
        "éĤ",
        -1.0
      ],
      [
        "å±ķ",
        -1.0
      ],
      [
        "ak",
        -1.0
      ],
      [
        "æı",
        -1.0
      ],
      [
        "çĿĢ",
        -1.0
      ],
      [
        "æĽ´",
        -1.0
      ],
      [
        "éĢļ",
        -1.0
      ],
      [
        "arÄ±",
        -1.0
      ],
      [
        "åħ³",
        -1.0
      ],
      [
        "å°Ĩ",
        -1.0
      ],
      [
        "hi",
        -1.0
      ],
      [
        "åıĬ",
        -1.0
      ],
      [
        "ab",
        -1.0
      ],
      [
        "co",
        -1.0
      ],
      [
        "ati",
        -1.0
      ],
      [
        "ba",
        -1.0
      ],
      [
        "èµ·",
        -1.0
      ],
      [
        "---------------",
        -1.0
      ],
      [
        "çĶµ",
        -1.0
      ],
      [
        "ºçļĦ",
        -1.0
      ],
      [
        "om",
        -1.0
      ],
      [
        "å¤ĸ",
        -1.0
      ],
      [
        "éķ¿",
        -1.0
      ],
      [
        "å°±æĺ¯",
        -1.0
      ],
      [
        "åħ¥",
        -1.0
      ],
      [
        "éĩĳ",
        -1.0
      ],
      [
        "ļçļĦ",
        -1.0
      ],
      [
        "ç®",
        -1.0
      ],
      [
        "é¡",
        -1.0
      ],
      [
        "ungs",
        -1.0
      ],
      [
        "æ²¡æľ",
        -1.0
      ],
      [
        "ich",
        -1.0
      ],
      [
        "èī",
        -1.0
      ],
      [
        "ul",
        -1.0
      ],
      [
        "çĤ¹",
        -1.0
      ],
      [
        "ts",
        -1.0
      ],
      [
        "å»º",
        -1.0
      ],
      [
        "pe",
        -1.0
      ],
      [
        "ini",
        -1.0
      ],
      [
        "İç",
        -1.0
      ],
      [
        "éķ",
        -1.0
      ],
      [
        "ç¨",
        -1.0
      ],
      [
        "--------------",
        -1.0
      ],
      [
        "ä½Ĩ",
        -1.0
      ],
      [
        "éĤ£",
        -1.0
      ],
      [
        "è¶",
        -1.0
      ],
      [
        "åıĳå±ķ",
        -1.0
      ],
      [
        "tio",
        -1.0
      ],
      [
        "çĻ",
        -1.0
      ],
      [
        "rÄ±",
        -1.0
      ],
      [
        "ä¿Ŀ",
        -1.0
      ],
      [
        "tu",
        -1.0
      ],
      [
        "leri",
        -1.0
      ],
      [
        "id",
        -1.0
      ],
      [
        "åĨħ",
        -1.0
      ],
      [
        "ģä¸",
        -1.0
      ],
      [
        "ig",
        -1.0
      ],
      [
        "ngs",
        -1.0
      ],
      [
        "nte",
        -1.0
      ],
      [
        "Ã¤",
        -1.0
      ],
      [
        "èµĦ",
        -1.0
      ],
      [
        "¾ç",
        -1.0
      ],
      [
        "rin",
        -1.0
      ],
      [
        "æ°´",
        -1.0
      ],
      [
        "éĩĮ",
        -1.0
      ],
      [
        "bi",
        -1.0
      ],
      [
        "rd",
        -1.0
      ],
      [
        "çĽ¸",
        -1.0
      ],
      [
        "æĦı",
        -1.0
      ],
      [
        "łç",
        -1.0
      ],
      [
        "æĥ³",
        -1.0
      ],
      [
        "äºĽ",
        -1.0
      ],
      [
        "åĽł",
        -1.0
      ],
      [
        "çķ",
        -1.0
      ],
      [
        "-------------",
        -1.0
      ],
      [
        "Ļä¸",
        -1.0
      ],
      [
        "ä½į",
        -1.0
      ],
      [
        "åĪ¶",
        -1.0
      ],
      [
        "çĦ",
        -1.0
      ],
      [
        "ä¸ī",
        -1.0
      ],
      [
        "éĹ´",
        -1.0
      ],
      [
        "ĠT",
        -1.0
      ],
      [
        "ä¼ģä¸ļ",
        -1.0
      ],
      [
        "æ¯Ķ",
        -1.0
      ],
      [
        "çĿ",
        -1.0
      ],
      [
        "ŁçļĦ",
        -1.0
      ],
      [
        "åĬ¡",
        -1.0
      ],
      [
        "ce",
        -1.0
      ],
      [
        "å¹³",
        -1.0
      ],
      [
        "¥ä½ľ",
        -1.0
      ],
      [
        "èģ",
        -1.0
      ],
      [
        "æĺ¯ä¸Ģ",
        -1.0
      ],
      [
        "åı¸",
        -1.0
      ],
      [
        "ver",
        -1.0
      ],
      [
        "ere",
        -1.0
      ],
      [
        "æ²¡",
        -1.0
      ],
      [
        "īä¸",
        -1.0
      ],
      [
        "éĩı",
        -1.0
      ],
      [
        "æŀľ",
        -1.0
      ],
      [
        "æ¬¡",
        -1.0
      ],
      [
        "å»",
        -1.0
      ],
      [
        "ĠC",
        -1.0
      ],
      [
        "èī²",
        -1.0
      ],
      [
        "è¡¨",
        -1.0
      ],
      [
        "ä¿¡",
        -1.0
      ],
      [
        "ation",
        -1.0
      ],
      [
        "ĭä¸",
        -1.0
      ],
      [
        "um",
        -1.0
      ],
      [
        "iz",
        -1.0
      ],
      [
        "æŃ£",
        -1.0
      ],
      [
        "den",
        -1.0
      ],
      [
        "ot",
        -1.0
      ],
      [
        "½è",
        -1.0
      ],
      [
        "pa",
        -1.0
      ],
      [
        "------------",
        -1.0
      ],
      [
        "no",
        -1.0
      ],
      [
        "end",
        -1.0
      ],
      [
        "æĺİ",
        -1.0
      ],
      [
        "å®ī",
        -1.0
      ],
      [
        "ĠG",
        -1.0
      ],
      [
        "ä»ĸä»¬",
        -1.0
      ],
      [
        "çĽ®",
        -1.0
      ],
      [
        "è¢«",
        -1.0
      ],
      [
        "ä¹Ī",
        -1.0
      ],
      [
        "¨çļĦ",
        -1.0
      ],
      [
        "tt",
        -1.0
      ],
      [
        "æľŁ",
        -1.0
      ],
      [
        "ci",
        -1.0
      ],
      [
        "do",
        -1.0
      ],
      [
        "th",
        -1.0
      ],
      [
        "å½ĵ",
        -1.0
      ],
      [
        "æ°ĳ",
        -1.0
      ],
      [
        "è¿Ľè¡Į",
        -1.0
      ],
      [
        "lan",
        -1.0
      ],
      [
        "çŁ",
        -1.0
      ],
      [
        "é£",
        -1.0
      ],
      [
        "der",
        -1.0
      ],
      [
        "ya",
        -1.0
      ],
      [
        "çī¹",
        -1.0
      ],
      [
        "ºä¸",
        -1.0
      ],
      [
        "ist",
        -1.0
      ],
      [
        "éļ",
        -1.0
      ],
      [
        "çī©",
        -1.0
      ],
      [
        "ag",
        -1.0
      ],
      [
        "æľīä¸",
        -1.0
      ],
      [
        "å°±æĺ",
        -1.0
      ],
      [
        "nge",
        -1.0
      ],
      [
        "ÄŁ",
        -1.0
      ],
      [
        "åĮº",
        -1.0
      ],
      [
        "¨ä¸",
        -1.0
      ],
      [
        "................",
        -1.0
      ],
      [
        "ç¤",
        -1.0
      ],
      [
        "ek",
        -1.0
      ],
      [
        "èº«",
        -1.0
      ],
      [
        "åĪ©",
        -1.0
      ],
      [
        "è½¦",
        -1.0
      ],
      [
        "rm",
        -1.0
      ],
      [
        "è®¾",
        -1.0
      ],
      [
        "men",
        -1.0
      ],
      [
        "å½±",
        -1.0
      ],
      [
        "åķ",
        -1.0
      ],
      [
        "Ġd",
        -1.0
      ],
      [
        "¾Ī",
        -1.0
      ],
      [
        "¡æľī",
        -1.0
      ],
      [
        "åĲį",
        -1.0
      ],
      [
        "¥ä¸",
        -1.0
      ],
      [
        "èĪ",
        -1.0
      ],
      [
        "ç®¡",
        -1.0
      ],
      [
        "å¸¸",
        -1.0
      ],
      [
        "æķĻ",
        -1.0
      ],
      [
        "-----------",
        -1.0
      ],
      [
        "ç³»",
        -1.0
      ],
      [
        "ay",
        -1.0
      ],
      [
        "ç§į",
        -1.0
      ],
      [
        "ens",
        -1.0
      ],
      [
        "ik",
        -1.0
      ],
      [
        "æľįåĬ¡",
        -1.0
      ],
      [
        "ç¨ĭ",
        -1.0
      ],
      [
        "Ã¶",
        -1.0
      ],
      [
        "Ģ§",
        -1.0
      ],
      [
        "lu",
        -1.0
      ],
      [
        "ut",
        -1.0
      ],
      [
        "nÄ±",
        -1.0
      ],
      [
        "...............",
        -1.0
      ],
      [
        "åıĳå±",
        -1.0
      ],
      [
        "¬ä¸",
        -1.0
      ],
      [
        "å§",
        -1.0
      ],
      [
        "å·²",
        -1.0
      ],
      [
        "¶ä¸",
        -1.0
      ],
      [
        "å¼ı",
        -1.0
      ],
      [
        "Ä±nÄ±",
        -1.0
      ],
      [
        "åģļ",
        -1.0
      ],
      [
        "åı°",
        -1.0
      ],
      [
        "ç´",
        -1.0
      ],
      [
        "åĿ",
        -1.0
      ],
      [
        "ä»Ģä¹Ī",
        -1.0
      ],
      [
        "ç¬",
        -1.0
      ],
      [
        "åºĶ",
        -1.0
      ],
      [
        "åĳĺ",
        -1.0
      ],
      [
        "åıª",
        -1.0
      ],
      [
        "Ģħ",
        -1.0
      ],
      [
        "ĠD",
        -1.0
      ],
      [
        "ho",
        -1.0
      ],
      [
        "äºĨä¸Ģ",
        -1.0
      ],
      [
        "ea",
        -1.0
      ],
      [
        "ĠH",
        -1.0
      ],
      [
        "Ġp",
        -1.0
      ],
      [
        "rl",
        -1.0
      ],
      [
        "æĦŁ",
        -1.0
      ],
      [
        "ze",
        -1.0
      ],
      [
        "ç©",
        -1.0
      ],
      [
        "æĹł",
        -1.0
      ],
      [
        "½ĳ",
        -1.0
      ],
      [
        "æ´»",
        -1.0
      ],
      [
        "gs",
        -1.0
      ],
      [
        "fe",
        -1.0
      ],
      [
        "å¸Ĥåľº",
        -1.0
      ],
      [
        "sta",
        -1.0
      ],
      [
        "½çļĦ",
        -1.0
      ],
      [
        "tra",
        -1.0
      ],
      [
        "----------",
        -1.0
      ],
      [
        "æĶ¿",
        -1.0
      ],
      [
        "çĪ",
        -1.0
      ],
      [
        "èĢģ",
        -1.0
      ],
      [
        "..............",
        -1.0
      ],
      [
        "ara",
        -1.0
      ],
      [
        "ä½¿",
        -1.0
      ],
      [
        "å¦Ĥæŀľ",
        -1.0
      ],
      [
        "è¿Ļä¸ª",
        -1.0
      ],
      [
        "Ġb",
        -1.0
      ],
      [
        "çļĦä¸Ģ",
        -1.0
      ],
      [
        "est",
        -1.0
      ],
      [
        "ä»İ",
        -1.0
      ],
      [
        "¸İ",
        -1.0
      ],
      [
        "ä¼ģä¸",
        -1.0
      ],
      [
        "ä»ĸä»",
        -1.0
      ],
      [
        "è°",
        -1.0
      ],
      [
        "ĳçļĦ",
        -1.0
      ],
      [
        "å·±",
        -1.0
      ],
      [
        "Ī¶",
        -1.0
      ],
      [
        "Ġk",
        -1.0
      ],
      [
        "èĩªå·±çļĦ",
        -1.0
      ],
      [
        "å¹¶",
        -1.0
      ],
      [
        "mo",
        -1.0
      ],
      [
        "erin",
        -1.0
      ],
      [
        "éĹ®é¢ĺ",
        -1.0
      ],
      [
        "æľį",
        -1.0
      ],
      [
        "ine",
        -1.0
      ],
      [
        "pr",
        -1.0
      ],
      [
        "ren",
        -1.0
      ],
      [
        "çļĦäºº",
        -1.0
      ],
      [
        "æĪĸ",
        -1.0
      ],
      [
        "ell",
        -1.0
      ],
      [
        "§çļĦ",
        -1.0
      ],
      [
        "łä¸",
        -1.0
      ],
      [
        "°çļĦ",
        -1.0
      ],
      [
        "æİ¥",
        -1.0
      ],
      [
        "ç¬¬",
        -1.0
      ],
      [
        "ä¸įæĺ¯",
        -1.0
      ],
      [
        "len",
        -1.0
      ],
      [
        "lle",
        -1.0
      ],
      [
        "ele",
        -1.0
      ],
      [
        "ä»£",
        -1.0
      ],
      [
        "ck",
        -1.0
      ],
      [
        "ĠE",
        -1.0
      ],
      [
        "larÄ±n",
        -1.0
      ],
      [
        "éľĢè¦ģ",
        -1.0
      ],
      [
        "rÃ",
        -1.0
      ],
      [
        "Ĥ£",
        -1.0
      ],
      [
        "ĭé",
        -1.0
      ],
      [
        "è£",
        -1.0
      ],
      [
        "äº¤",
        -1.0
      ],
      [
        "éľ",
        -1.0
      ],
      [
        "ĸĩ",
        -1.0
      ],
      [
        "Ĺç",
        -1.0
      ],
      [
        "ier",
        -1.0
      ],
      [
        "atio",
        -1.0
      ],
      [
        "åķĨ",
        -1.0
      ],
      [
        "åı¯èĥ½",
        -1.0
      ],
      [
        "ap",
        -1.0
      ],
      [
        "ga",
        -1.0
      ],
      [
        "ert",
        -1.0
      ],
      [
        "ber",
        -1.0
      ],
      [
        "Ġm",
        -1.0
      ],
      [
        "ç®¡çĲĨ",
        -1.0
      ],
      [
        "ä½¿çĶ¨",
        -1.0
      ],
      [
        "æķ°",
        -1.0
      ],
      [
        "èĬ",
        -1.0
      ],
      [
        "eb",
        -1.0
      ],
      [
        "è¿Ľè¡",
        -1.0
      ],
      [
        "---------",
        -1.0
      ],
      [
        "±æĺ¯",
        -1.0
      ],
      [
        "ĠF",
        -1.0
      ],
      [
        "è¢",
        -1.0
      ],
      [
        "ĠR",
        -1.0
      ],
      [
        "sp",
        -1.0
      ],
      [
        "eit",
        -1.0
      ],
      [
        "Ġt",
        -1.0
      ],
      [
        "kt",
        -1.0
      ],
      [
        "ran",
        -1.0
      ],
      [
        "Ä±r",
        -1.0
      ],
      [
        "¯ä¸Ģ",
        -1.0
      ],
      [
        "æł·",
        -1.0
      ],
      [
        "æĬĢ",
        -1.0
      ],
      [
        "æ¶",
        -1.0
      ],
      [
        "ĮçļĦ",
        -1.0
      ],
      [
        "æµ·",
        -1.0
      ],
      [
        "çŁ¥",
        -1.0
      ],
      [
        "æį",
        -1.0
      ],
      [
        "lt",
        -1.0
      ],
      [
        "Ġe",
        -1.0
      ],
      [
        "Ġc",
        -1.0
      ],
      [
        "............",
        -1.0
      ],
      [
        "ki",
        -1.0
      ],
      [
        "çļĦæĹ",
        -1.0
      ],
      [
        "çīĩ",
        -1.0
      ],
      [
        "æģ",
        -1.0
      ],
      [
        "çļĦåħ",
        -1.0
      ],
      [
        "ç¬¬ä¸",
        -1.0
      ],
      [
        "Ģļ",
        -1.0
      ],
      [
        "°ä¸",
        -1.0
      ],
      [
        "æŁ",
        -1.0
      ],
      [
        "æĹ¶éĹ´",
        -1.0
      ],
      [
        "æīĵ",
        -1.0
      ],
      [
        "æľįåĬ",
        -1.0
      ],
      [
        "op",
        -1.0
      ],
      [
        "åľ¨ä¸",
        -1.0
      ],
      [
        "åŁº",
        -1.0
      ],
      [
        "ºäº",
        -1.0
      ],
      [
        "çľŁ",
        -1.0
      ],
      [
        "po",
        -1.0
      ],
      [
        "ah",
        -1.0
      ],
      [
        "ģçļĦ",
        -1.0
      ],
      [
        "çļĦåı",
        -1.0
      ],
      [
        "sche",
        -1.0
      ],
      [
        "è§£",
        -1.0
      ],
      [
        "å·²ç»ı",
        -1.0
      ],
      [
        "æıĲä¾Ľ",
        -1.0
      ],
      [
        "ate",
        -1.0
      ],
      [
        "å°ĳ",
        -1.0
      ],
      [
        "åĲĦ",
        -1.0
      ],
      [
        "ä¸įæĺ",
        -1.0
      ],
      [
        "«ç",
        -1.0
      ],
      [
        "Ķµ",
        -1.0
      ],
      [
        "rn",
        -1.0
      ],
      [
        "å¢",
        -1.0
      ],
      [
        "å¥¹",
        -1.0
      ],
      [
        "çº¿",
        -1.0
      ],
      [
        "ç¥",
        -1.0
      ],
      [
        "åĽŀ",
        -1.0
      ],
      [
        "era",
        -1.0
      ],
      [
        "her",
        -1.0
      ],
      [
        "ç³",
        -1.0
      ],
      [
        "eg",
        -1.0
      ],
      [
        "ä»Ģä¹",
        -1.0
      ],
      [
        "æĮģ",
        -1.0
      ],
      [
        "´çļĦ",
        -1.0
      ],
      [
        "è·¯",
        -1.0
      ],
      [
        "rÄ",
        -1.0
      ],
      [
        "äº§åĵģ",
        -1.0
      ],
      [
        "å¸Ĥåľ",
        -1.0
      ],
      [
        "--------",
        -1.0
      ],
      [
        "çļĦå¤",
        -1.0
      ],
      [
        "ile",
        -1.0
      ],
      [
        "ala",
        -1.0
      ],
      [
        "arÄ±n",
        -1.0
      ],
      [
        "cht",
        -1.0
      ],
      [
        "éľĢ",
        -1.0
      ],
      [
        "ili",
        -1.0
      ],
      [
        "ind",
        -1.0
      ],
      [
        "nc",
        -1.0
      ],
      [
        "kl",
        -1.0
      ],
      [
        "°äº",
        -1.0
      ],
      [
        "ä»¶",
        -1.0
      ],
      [
        "èĲ",
        -1.0
      ],
      [
        "so",
        -1.0
      ],
      [
        "...........",
        -1.0
      ],
      [
        "åĲĳ",
        -1.0
      ],
      [
        "hen",
        -1.0
      ],
      [
        "ĸçļĦ",
        -1.0
      ],
      [
        "ĠL",
        -1.0
      ],
      [
        "è®¡",
        -1.0
      ],
      [
        "æĬĢæľ¯",
        -1.0
      ],
      [
        "lerin",
        -1.0
      ],
      [
        "ļä¸",
        -1.0
      ],
      [
        "dÄ±",
        -1.0
      ],
      [
        "é»",
        -1.0
      ],
      [
        "ä»»",
        -1.0
      ],
      [
        "æŃ¤",
        -1.0
      ],
      [
        "å¦Ĥæŀ",
        -1.0
      ],
      [
        "éĹ®",
        -1.0
      ],
      [
        "é¦",
        -1.0
      ],
      [
        "bil",
        -1.0
      ],
      [
        "åĽłä¸º",
        -1.0
      ],
      [
        "ant",
        -1.0
      ],
      [
        "è®©",
        -1.0
      ],
      [
        "sen",
        -1.0
      ],
      [
        "çļĦæľ",
        -1.0
      ],
      [
        "ä¸¤",
        -1.0
      ],
      [
        "±çļĦ",
        -1.0
      ],
      [
        "åı£",
        -1.0
      ],
      [
        "®ç",
        -1.0
      ],
      [
        "çĽ´",
        -1.0
      ],
      [
        "įæĺ¯",
        -1.0
      ],
      [
        "çł",
        -1.0
      ],
      [
        "ko",
        -1.0
      ],
      [
        "åıĹ",
        -1.0
      ],
      [
        "chen",
        -1.0
      ],
      [
        "è§Ĩ",
        -1.0
      ],
      [
        "éĹ¨",
        -1.0
      ],
      [
        "vi",
        -1.0
      ],
      [
        "gi",
        -1.0
      ],
      [
        "éĢļè¿ĩ",
        -1.0
      ],
      [
        "éĹ®é¢",
        -1.0
      ],
      [
        "çĶ±",
        -1.0
      ],
      [
        "įé",
        -1.0
      ],
      [
        "ach",
        -1.0
      ],
      [
        "·çļĦ",
        -1.0
      ],
      [
        "ç§ĳ",
        -1.0
      ],
      [
        "ama",
        -1.0
      ],
      [
        "æĶ¾",
        -1.0
      ],
      [
        "Łä¸",
        -1.0
      ],
      [
        "ä¸ĸçķĮ",
        -1.0
      ],
      [
        "åĸ",
        -1.0
      ],
      [
        "ĭçļĦ",
        -1.0
      ],
      [
        "man",
        -1.0
      ],
      [
        "è¨",
        -1.0
      ],
      [
        "çİ°åľ",
        -1.0
      ],
      [
        "ou",
        -1.0
      ],
      [
        "éľĢè¦",
        -1.0
      ],
      [
        "åĽ½å®¶",
        -1.0
      ],
      [
        "æµģ",
        -1.0
      ],
      [
        "èº",
        -1.0
      ],
      [
        "è¥¿",
        -1.0
      ],
      [
        "rg",
        -1.0
      ],
      [
        "éĻ¢",
        -1.0
      ],
      [
        "ĳä¸",
        -1.0
      ],
      [
        "ç¬¬ä¸Ģ",
        -1.0
      ],
      [
        "..........",
        -1.0
      ],
      [
        "äººçļĦ",
        -1.0
      ],
      [
        "ä½¿çĶ",
        -1.0
      ],
      [
        "å¼º",
        -1.0
      ],
      [
        "¥çļĦ",
        -1.0
      ],
      [
        "æľīäº",
        -1.0
      ],
      [
        "å¾Īå¤",
        -1.0
      ],
      [
        "ali",
        -1.0
      ],
      [
        "oc",
        -1.0
      ],
      [
        "æ¸¸",
        -1.0
      ],
      [
        "åı¯èĥ",
        -1.0
      ],
      [
        "str",
        -1.0
      ],
      [
        "________________",
        -1.0
      ],
      [
        "ç®¡çĲ",
        -1.0
      ],
      [
        "æĶ¶",
        -1.0
      ],
      [
        "res",
        -1.0
      ],
      [
        "°äºĨ",
        -1.0
      ],
      [
        "æ·",
        -1.0
      ],
      [
        "we",
        -1.0
      ],
      [
        "¿¡",
        -1.0
      ],
      [
        "å£",
        -1.0
      ],
      [
        "ĳé",
        -1.0
      ],
      [
        "é¢ĺ",
        -1.0
      ],
      [
        "-------",
        -1.0
      ],
      [
        "Ĩä¸Ģ",
        -1.0
      ],
      [
        "çĶŁæ´»",
        -1.0
      ],
      [
        "ai",
        -1.0
      ],
      [
        "åİŁ",
        -1.0
      ],
      [
        "ht",
        -1.0
      ],
      [
        "éħ",
        -1.0
      ],
      [
        "ene",
        -1.0
      ],
      [
        "cha",
        -1.0
      ],
      [
        "éĶ",
        -1.0
      ],
      [
        "å®Į",
        -1.0
      ],
      [
        "ŃçļĦ",
        -1.0
      ],
      [
        "ä¼ģ",
        -1.0
      ],
      [
        "ons",
        -1.0
      ],
      [
        "rk",
        -1.0
      ],
      [
        "lin",
        -1.0
      ],
      [
        "ld",
        -1.0
      ],
      [
        "æľīä¸Ģ",
        -1.0
      ],
      [
        "su",
        -1.0
      ],
      [
        "èĭ",
        -1.0
      ],
      [
        "¹Ī",
        -1.0
      ],
      [
        "¼ı",
        -1.0
      ],
      [
        "art",
        -1.0
      ],
      [
        "ç«ĭ",
        -1.0
      ],
      [
        "ĺİ",
        -1.0
      ],
      [
        "æ±Ĥ",
        -1.0
      ],
      [
        "è¡Įä¸",
        -1.0
      ],
      [
        "all",
        -1.0
      ],
      [
        "ern",
        -1.0
      ],
      [
        "æł¼",
        -1.0
      ],
      [
        "çļĦæĹ¶",
        -1.0
      ],
      [
        "å¾Īå¤ļ",
        -1.0
      ],
      [
        "Ġg",
        -1.0
      ],
      [
        "sh",
        -1.0
      ],
      [
        "äºĮ",
        -1.0
      ],
      [
        "ein",
        -1.0
      ],
      [
        "çļĦçĶ",
        -1.0
      ],
      [
        "hr",
        -1.0
      ],
      [
        "pi",
        -1.0
      ],
      [
        "çĲĥ",
        -1.0
      ],
      [
        "ari",
        -1.0
      ],
      [
        "lÄ±",
        -1.0
      ],
      [
        "nl",
        -1.0
      ],
      [
        "įè¦ģ",
        -1.0
      ],
      [
        "æĬĬ",
        -1.0
      ],
      [
        "æľ¯",
        -1.0
      ],
      [
        "va",
        -1.0
      ],
      [
        "æĹ¶éĹ",
        -1.0
      ],
      [
        "¥åı",
        -1.0
      ],
      [
        "og",
        -1.0
      ],
      [
        "æĬĢæľ",
        -1.0
      ],
      [
        "åįģ",
        -1.0
      ],
      [
        "sse",
        -1.0
      ],
      [
        "İä¸",
        -1.0
      ],
      [
        "å·²ç»",
        -1.0
      ],
      [
        "å¤´",
        -1.0
      ],
      [
        "nn",
        -1.0
      ],
      [
        "æİ¨",
        -1.0
      ],
      [
        "rei",
        -1.0
      ],
      [
        "åħĪ",
        -1.0
      ],
      [
        ".........",
        -1.0
      ],
      [
        "sti",
        -1.0
      ],
      [
        "æıĲä¾",
        -1.0
      ],
      [
        "åĭ",
        -1.0
      ],
      [
        "åŁİ",
        -1.0
      ],
      [
        "ç²",
        -1.0
      ],
      [
        "Ä±z",
        -1.0
      ],
      [
        "od",
        -1.0
      ],
      [
        "nda",
        -1.0
      ],
      [
        "īåħ",
        -1.0
      ],
      [
        "ç»Ļ",
        -1.0
      ],
      [
        "æīĢä»¥",
        -1.0
      ],
      [
        "æĹ¶åĢĻ",
        -1.0
      ],
      [
        "ç¤º",
        -1.0
      ],
      [
        "å¤§å®¶",
        -1.0
      ],
      [
        "eme",
        -1.0
      ],
      [
        "å¤§çļĦ",
        -1.0
      ],
      [
        "éĢł",
        -1.0
      ],
      [
        "ä¹Łæĺ¯",
        -1.0
      ],
      [
        "éĽĨ",
        -1.0
      ],
      [
        "åĽłä¸",
        -1.0
      ],
      [
        "çģ",
        -1.0
      ],
      [
        "é£İ",
        -1.0
      ],
      [
        "rÄ±n",
        -1.0
      ],
      [
        "§į",
        -1.0
      ],
      [
        "åĪ°äºĨ",
        -1.0
      ],
      [
        "ĥçļĦ",
        -1.0
      ],
      [
        "åĽ½å®",
        -1.0
      ],
      [
        "äº§åĵ",
        -1.0
      ],
      [
        "çļĦæĸ",
        -1.0
      ],
      [
        "ä¸ĢäºĽ",
        -1.0
      ],
      [
        "ä¸Ģäº",
        -1.0
      ],
      [
        "ç¤¾",
        -1.0
      ],
      [
        "æ¨",
        -1.0
      ],
      [
        "ana",
        -1.0
      ],
      [
        "įä¸",
        -1.0
      ],
      [
        "çļĦæĹ¶åĢĻ",
        -1.0
      ],
      [
        "ç»ıæµİ",
        -1.0
      ],
      [
        "ľä¸",
        -1.0
      ],
      [
        "isch",
        -1.0
      ],
      [
        "ç»ĵ",
        -1.0
      ],
      [
        "ä»·",
        -1.0
      ],
      [
        "éĥ½æĺ¯",
        -1.0
      ],
      [
        "Ĳä¸",
        -1.0
      ],
      [
        "ºäºĨ",
        -1.0
      ],
      [
        "du",
        -1.0
      ],
      [
        "ä¿¡æģ¯",
        -1.0
      ],
      [
        "æ¡",
        -1.0
      ],
      [
        "çŁ¥éģĵ",
        -1.0
      ],
      [
        "fi",
        -1.0
      ],
      [
        "çłĶç©¶",
        -1.0
      ],
      [
        "Īå¤",
        -1.0
      ],
      [
        "ä»¥åıĬ",
        -1.0
      ],
      [
        "ĬçļĦ",
        -1.0
      ],
      [
        "´ä¸",
        -1.0
      ],
      [
        "____________",
        -1.0
      ],
      [
        "æīį",
        -1.0
      ],
      [
        "éĢļè¿",
        -1.0
      ],
      [
        "å¿«",
        -1.0
      ],
      [
        "åĨį",
        -1.0
      ],
      [
        "å»ºè®",
        -1.0
      ],
      [
        "æ¯ı",
        -1.0
      ],
      [
        "ite",
        -1.0
      ],
      [
        "ä¸ľ",
        -1.0
      ],
      [
        "ger",
        -1.0
      ],
      [
        "Ħä¸Ģ",
        -1.0
      ],
      [
        "çİ°åľ¨",
        -1.0
      ],
      [
        "éĩįè¦ģ",
        -1.0
      ],
      [
        "Ġi",
        -1.0
      ],
      [
        "ç«Ļ",
        -1.0
      ],
      [
        "ä¸Ģå®",
        -1.0
      ],
      [
        "å®īåħ¨",
        -1.0
      ],
      [
        "éĢĻ",
        -1.0
      ],
      [
        "æľĪ",
        -1.0
      ],
      [
        "æ°Ķ",
        -1.0
      ],
      [
        "įçļĦ",
        -1.0
      ],
      [
        "¹çļĦ",
        -1.0
      ],
      [
        "¶çļĦ",
        -1.0
      ],
      [
        "Ä±l",
        -1.0
      ],
      [
        "æķĻèĤ²",
        -1.0
      ],
      [
        "rat",
        -1.0
      ],
      [
        "Ħäºº",
        -1.0
      ],
      [
        "çĤº",
        -1.0
      ],
      [
        "å±±",
        -1.0
      ],
      [
        "------",
        -1.0
      ],
      [
        "ä»¥ä¸",
        -1.0
      ],
      [
        "per",
        -1.0
      ],
      [
        "ue",
        -1.0
      ],
      [
        "æķ´",
        -1.0
      ],
      [
        "Ma",
        -1.0
      ],
      [
        "tan",
        -1.0
      ],
      [
        "¬çļĦ",
        -1.0
      ],
      [
        "åħī",
        -1.0
      ],
      [
        "ee",
        -1.0
      ],
      [
        "è´¹",
        -1.0
      ],
      [
        "ä¸ĸ",
        -1.0
      ],
      [
        "çļĦå®",
        -1.0
      ],
      [
        "rte",
        -1.0
      ],
      [
        "sin",
        -1.0
      ],
      [
        "æľĥ",
        -1.0
      ],
      [
        "ä»Ģ",
        -1.0
      ],
      [
        "ä¾Ľ",
        -1.0
      ],
      [
        "ç»Ł",
        -1.0
      ],
      [
        "å¤Ħ",
        -1.0
      ],
      [
        "run",
        -1.0
      ],
      [
        "nter",
        -1.0
      ],
      [
        "ıçļĦ",
        -1.0
      ],
      [
        "ĠMa",
        -1.0
      ],
      [
        "ç¤¾ä¼ļ",
        -1.0
      ],
      [
        "å®¢",
        -1.0
      ],
      [
        "ien",
        -1.0
      ],
      [
        "æĬķ",
        -1.0
      ],
      [
        "ÄŁÄ±",
        -1.0
      ],
      [
        "nu",
        -1.0
      ],
      [
        "åįķ",
        -1.0
      ],
      [
        "ngen",
        -1.0
      ],
      [
        "åŀĭ",
        -1.0
      ],
      [
        "éĿŀ",
        -1.0
      ],
      [
        "ç¾İåĽ½",
        -1.0
      ],
      [
        "........",
        -1.0
      ],
      [
        "Ľä¸",
        -1.0
      ],
      [
        "Ã§",
        -1.0
      ],
      [
        "æľīéĻĲåħ¬åı¸",
        -1.0
      ],
      [
        "Ģè¦ģ",
        -1.0
      ],
      [
        "ä¸ĸçķ",
        -1.0
      ],
      [
        "æĬ¥",
        -1.0
      ],
      [
        "ner",
        -1.0
      ],
      [
        "éĿŀå¸¸",
        -1.0
      ],
      [
        "nen",
        -1.0
      ],
      [
        "æĪ¿",
        -1.0
      ],
      [
        "çļĦåĲ",
        -1.0
      ],
      [
        "Ä°",
        -1.0
      ],
      [
        "è§Ĩé¢ĳ",
        -1.0
      ],
      [
        "rr",
        -1.0
      ],
      [
        "ĠN",
        -1.0
      ],
      [
        "nk",
        -1.0
      ],
      [
        "ĠW",
        -1.0
      ],
      [
        "åĪ°äº",
        -1.0
      ],
      [
        "rb",
        -1.0
      ],
      [
        "ina",
        -1.0
      ],
      [
        "tÄ±",
        -1.0
      ],
      [
        "mp",
        -1.0
      ],
      [
        "ä»¥åı",
        -1.0
      ],
      [
        "ä¸ĵ",
        -1.0
      ],
      [
        "ess",
        -1.0
      ],
      [
        "tte",
        -1.0
      ],
      [
        "ä¸ŃçļĦ",
        -1.0
      ],
      [
        "Ġh",
        -1.0
      ],
      [
        "inde",
        -1.0
      ],
      [
        "å¤§å®",
        -1.0
      ],
      [
        "ä¼ł",
        -1.0
      ],
      [
        "gr",
        -1.0
      ],
      [
        "uc",
        -1.0
      ],
      [
        "åĮĹ",
        -1.0
      ],
      [
        "çĥ",
        -1.0
      ],
      [
        "ang",
        -1.0
      ],
      [
        "åĽ¾",
        -1.0
      ],
      [
        "æį®",
        -1.0
      ],
      [
        "æĢ»",
        -1.0
      ],
      [
        "å¥½çļĦ",
        -1.0
      ],
      [
        "īçļĦ",
        -1.0
      ],
      [
        "ç¥ŀ",
        -1.0
      ],
      [
        "åĪĽ",
        -1.0
      ],
      [
        "ä¸ªäºº",
        -1.0
      ],
      [
        "è¿ĺæĺ¯",
        -1.0
      ],
      [
        "ç©º",
        -1.0
      ],
      [
        "ķ°",
        -1.0
      ],
      [
        "é©",
        -1.0
      ],
      [
        "åħ·",
        -1.0
      ],
      [
        "ıä¸",
        -1.0
      ],
      [
        "æĪ·",
        -1.0
      ],
      [
        "åıĺ",
        -1.0
      ],
      [
        "Łæĺ¯",
        -1.0
      ],
      [
        "¥æľ",
        -1.0
      ],
      [
        "çĶŁæ´",
        -1.0
      ],
      [
        "èģĶ",
        -1.0
      ],
      [
        "one",
        -1.0
      ],
      [
        "è¿ĳ",
        -1.0
      ],
      [
        "ä½ľä¸",
        -1.0
      ],
      [
        "ä½Ĩæĺ¯",
        -1.0
      ],
      [
        "æĪĺ",
        -1.0
      ],
      [
        "æĸ¹éĿ¢",
        -1.0
      ],
      [
        "å¹³åı°",
        -1.0
      ],
      [
        "ĠÃ",
        -1.0
      ],
      [
        "ica",
        -1.0
      ],
      [
        "¬ä¸Ģ",
        -1.0
      ],
      [
        "sÄ±",
        -1.0
      ],
      [
        "å¯¼",
        -1.0
      ],
      [
        "ç³»ç»Ł",
        -1.0
      ],
      [
        "éĢī",
        -1.0
      ],
      [
        "__________",
        -1.0
      ],
      [
        "æĪĲä¸",
        -1.0
      ],
      [
        "¿çĶ¨",
        -1.0
      ],
      [
        "æĶ¹",
        -1.0
      ],
      [
        "įåĲ",
        -1.0
      ],
      [
        "åĮħ",
        -1.0
      ],
      [
        "æĮĩ",
        -1.0
      ],
      [
        "ĠV",
        -1.0
      ],
      [
        "ä¹Ĳ",
        -1.0
      ],
      [
        "çº§",
        -1.0
      ],
      [
        "éĴ",
        -1.0
      ],
      [
        "zi",
        -1.0
      ],
      [
        "æ¸¸æĪı",
        -1.0
      ],
      [
        "°åľ",
        -1.0
      ],
      [
        "è´¨",
        -1.0
      ],
      [
        "esi",
        -1.0
      ],
      [
        "za",
        -1.0
      ],
      [
        "tin",
        -1.0
      ],
      [
        "è¿Ļæł·",
        -1.0
      ],
      [
        "ç²¾",
        -1.0
      ],
      [
        "è¿ĻäºĽ",
        -1.0
      ],
      [
        "æĶ¿åºľ",
        -1.0
      ],
      [
        "åıĪ",
        -1.0
      ],
      [
        "è¿Ĳ",
        -1.0
      ],
      [
        "und",
        -1.0
      ],
      [
        "edi",
        -1.0
      ],
      [
        "ä¸»è¦ģ",
        -1.0
      ],
      [
        "bo",
        -1.0
      ],
      [
        "çļĦæĹ¶åĢ",
        -1.0
      ],
      [
        "isc",
        -1.0
      ],
      [
        "å¸Ī",
        -1.0
      ],
      [
        "ĨçļĦ",
        -1.0
      ],
      [
        "æ¸ħ",
        -1.0
      ],
      [
        "ment",
        -1.0
      ],
      [
        "ä½ķ",
        -1.0
      ],
      [
        "é¡¹çĽ®",
        -1.0
      ],
      [
        "rung",
        -1.0
      ],
      [
        "ç¦",
        -1.0
      ],
      [
        "æģ¯",
        -1.0
      ],
      [
        "tl",
        -1.0
      ],
      [
        "çķĮ",
        -1.0
      ],
      [
        "è§Ħ",
        -1.0
      ],
      [
        "åįĹ",
        -1.0
      ],
      [
        "å®¹",
        -1.0
      ],
      [
        "ard",
        -1.0
      ],
      [
        "èĦ",
        -1.0
      ],
      [
        "å¢ŀ",
        -1.0
      ],
      [
        "æ´»åĬ¨",
        -1.0
      ],
      [
        "ä¸įåĲĮ",
        -1.0
      ],
      [
        "èĢĥ",
        -1.0
      ],
      [
        "ä¸ĬçļĦ",
        -1.0
      ],
      [
        "½æĺ¯",
        -1.0
      ],
      [
        "ey",
        -1.0
      ],
      [
        "ä¸įåĲ",
        -1.0
      ],
      [
        "lic",
        -1.0
      ],
      [
        "Ġr",
        -1.0
      ],
      [
        "æ»",
        -1.0
      ],
      [
        "çĸ",
        -1.0
      ],
      [
        "å»ºè®¾",
        -1.0
      ],
      [
        "åŃ¦çĶŁ",
        -1.0
      ],
      [
        "è®°",
        -1.0
      ],
      [
        "åĪ«",
        -1.0
      ],
      [
        "ĠSch",
        -1.0
      ],
      [
        "çĪ±",
        -1.0
      ],
      [
        "çļĦå°",
        -1.0
      ],
      [
        "ºæľ",
        -1.0
      ],
      [
        "çļĦæĺ¯",
        -1.0
      ],
      [
        "Ä±m",
        -1.0
      ],
      [
        "å¸ĥ",
        -1.0
      ],
      [
        "ħçļĦ",
        -1.0
      ],
      [
        "ende",
        -1.0
      ],
      [
        "fa",
        -1.0
      ],
      [
        "nder",
        -1.0
      ],
      [
        "ill",
        -1.0
      ],
      [
        "łçļĦ",
        -1.0
      ],
      [
        "æĺĵ",
        -1.0
      ],
      [
        "ä¾Ĩ",
        -1.0
      ],
      [
        "èĩ³",
        -1.0
      ],
      [
        "»Ħ",
        -1.0
      ],
      [
        "é¡¹",
        -1.0
      ],
      [
        "ä¹Łæĺ",
        -1.0
      ],
      [
        "èĬ±",
        -1.0
      ],
      [
        "æīĢä»",
        -1.0
      ],
      [
        "çĻ½",
        -1.0
      ],
      [
        "ä¸ªäº",
        -1.0
      ],
      [
        "mÄ±",
        -1.0
      ],
      [
        "av",
        -1.0
      ],
      [
        ".......",
        -1.0
      ],
      [
        "å¼Ģå§ĭ",
        -1.0
      ],
      [
        "nst",
        -1.0
      ],
      [
        "çļĦæĺ",
        -1.0
      ],
      [
        "tor",
        -1.0
      ],
      [
        "çłĶ",
        -1.0
      ],
      [
        "tz",
        -1.0
      ],
      [
        "æķĪ",
        -1.0
      ],
      [
        "chi",
        -1.0
      ],
      [
        "æĹ¶åĢ",
        -1.0
      ],
      [
        "lm",
        -1.0
      ],
      [
        "iy",
        -1.0
      ],
      [
        "tel",
        -1.0
      ],
      [
        "ungen",
        -1.0
      ],
      [
        "åĽ½éĻħ",
        -1.0
      ],
      [
        "æº",
        -1.0
      ],
      [
        "iv",
        -1.0
      ],
      [
        "æĥħåĨµ",
        -1.0
      ],
      [
        "æ¼",
        -1.0
      ],
      [
        "wa",
        -1.0
      ],
      [
        "æĤ",
        -1.0
      ],
      [
        "è¦ģæ±Ĥ",
        -1.0
      ],
      [
        "¡çļĦ",
        -1.0
      ],
      [
        "pro",
        -1.0
      ],
      [
        "åĢĭ",
        -1.0
      ],
      [
        "Īé",
        -1.0
      ],
      [
        "éĥ½æĺ",
        -1.0
      ],
      [
        "ĵä¸",
        -1.0
      ],
      [
        "ä»¬çļĦ",
        -1.0
      ],
      [
        "åıĸ",
        -1.0
      ],
      [
        "-----",
        -1.0
      ],
      [
        "hl",
        -1.0
      ],
      [
        "īä¸Ģ",
        -1.0
      ],
      [
        "èĻ",
        -1.0
      ],
      [
        "éĩįè¦",
        -1.0
      ],
      [
        "ische",
        -1.0
      ],
      [
        "è°ĥ",
        -1.0
      ],
      [
        "ç±",
        -1.0
      ],
      [
        "ä»Ĭ",
        -1.0
      ],
      [
        "è¡¨ç¤º",
        -1.0
      ],
      [
        "yo",
        -1.0
      ],
      [
        "ye",
        -1.0
      ],
      [
        "Ä±ÄŁÄ±",
        -1.0
      ],
      [
        "æłĩ",
        -1.0
      ],
      [
        "ç»ıæµ",
        -1.0
      ],
      [
        "å¸¦",
        -1.0
      ],
      [
        "mu",
        -1.0
      ],
      [
        "æŃ¥",
        -1.0
      ],
      [
        "Ģä¹",
        -1.0
      ],
      [
        "èµ°",
        -1.0
      ],
      [
        "ls",
        -1.0
      ],
      [
        "±ä¸",
        -1.0
      ],
      [
        "»çļĦ",
        -1.0
      ],
      [
        "¶ä»",
        -1.0
      ],
      [
        "hu",
        -1.0
      ],
      [
        "pl",
        -1.0
      ],
      [
        "eh",
        -1.0
      ],
      [
        "ä¸Ńå¿ĥ",
        -1.0
      ],
      [
        "æ·±",
        -1.0
      ],
      [
        "çŁ¥éģ",
        -1.0
      ],
      [
        "½ä¸",
        -1.0
      ],
      [
        "çĹ",
        -1.0
      ],
      [
        "ä¿¡æģ",
        -1.0
      ],
      [
        "åıĭ",
        -1.0
      ],
      [
        "Sch",
        -1.0
      ],
      [
        "çłĶç©",
        -1.0
      ],
      [
        "æĸĩåĮĸ",
        -1.0
      ],
      [
        "æ³¨",
        -1.0
      ],
      [
        "å®īåħ",
        -1.0
      ],
      [
        "æĪĲä¸º",
        -1.0
      ],
      [
        "åħ¶ä»ĸ",
        -1.0
      ],
      [
        "ç¾İåĽ",
        -1.0
      ],
      [
        "eu",
        -1.0
      ],
      [
        "oo",
        -1.0
      ],
      [
        "ç»Ħ",
        -1.0
      ],
      [
        "ort",
        -1.0
      ],
      [
        "è®¾è®¡",
        -1.0
      ],
      [
        "Ġde",
        -1.0
      ],
      [
        "ä¸Ģæ¬",
        -1.0
      ],
      [
        "æĬķèµĦ",
        -1.0
      ],
      [
        "èĤ²",
        -1.0
      ],
      [
        "æĶ¯",
        -1.0
      ],
      [
        "ep",
        -1.0
      ],
      [
        "æ¶Ī",
        -1.0
      ],
      [
        "æĻĤ",
        -1.0
      ],
      [
        "å¤ª",
        -1.0
      ],
      [
        "Ĺäº",
        -1.0
      ],
      [
        "İçļĦ",
        -1.0
      ],
      [
        "åĻ¨",
        -1.0
      ],
      [
        "tions",
        -1.0
      ],
      [
        "age",
        -1.0
      ],
      [
        "åħ±",
        -1.0
      ],
      [
        "å½¢",
        -1.0
      ],
      [
        "®çļĦ",
        -1.0
      ],
      [
        "¢çļĦ",
        -1.0
      ],
      [
        "æķĻèĤ",
        -1.0
      ],
      [
        "af",
        -1.0
      ],
      [
        "įèĥ½",
        -1.0
      ],
      [
        "ç¼",
        -1.0
      ],
      [
        "¦ä¸",
        -1.0
      ],
      [
        "èĢĮä¸",
        -1.0
      ],
      [
        "æĸ¯",
        -1.0
      ],
      [
        "ç¡",
        -1.0
      ],
      [
        "åŃ©åŃĲ",
        -1.0
      ],
      [
        "łä¸º",
        -1.0
      ],
      [
        "éĺŁ",
        -1.0
      ],
      [
        "ast",
        -1.0
      ],
      [
        "ļè¿ĩ",
        -1.0
      ],
      [
        "æ´»åĬ",
        -1.0
      ],
      [
        "æł¡",
        -1.0
      ],
      [
        "Īå¤ļ",
        -1.0
      ],
      [
        "________",
        -1.0
      ],
      [
        "æºĲ",
        -1.0
      ],
      [
        "°åľ¨",
        -1.0
      ],
      [
        "æĸ¹å¼ı",
        -1.0
      ],
      [
        "nti",
        -1.0
      ],
      [
        "è¾¾",
        -1.0
      ],
      [
        "eli",
        -1.0
      ],
      [
        "ions",
        -1.0
      ],
      [
        "ster",
        -1.0
      ],
      [
        "ç¤¾ä¼",
        -1.0
      ],
      [
        "mm",
        -1.0
      ],
      [
        "ä¸Ģæ¬¡",
        -1.0
      ],
      [
        "åŀ",
        -1.0
      ],
      [
        "ans",
        -1.0
      ],
      [
        "ndi",
        -1.0
      ],
      [
        "éĵ",
        -1.0
      ],
      [
        "çļĦè¯",
        -1.0
      ],
      [
        "ide",
        -1.0
      ],
      [
        "rie",
        -1.0
      ],
      [
        "è¿Ļäº",
        -1.0
      ],
      [
        "èį",
        -1.0
      ],
      [
        "des",
        -1.0
      ],
      [
        "å¤ĩ",
        -1.0
      ],
      [
        "erung",
        -1.0
      ],
      [
        "ä¸Ģå®ļ",
        -1.0
      ],
      [
        "if",
        -1.0
      ],
      [
        "gu",
        -1.0
      ],
      [
        "eni",
        -1.0
      ],
      [
        "tic",
        -1.0
      ],
      [
        "ĲçļĦ",
        -1.0
      ],
      [
        "è¯¥",
        -1.0
      ],
      [
        "ä¸įèĥ½",
        -1.0
      ],
      [
        "éĿŀå¸",
        -1.0
      ],
      [
        "è¥",
        -1.0
      ],
      [
        "éª",
        -1.0
      ],
      [
        "éĥ¨åĪĨ",
        -1.0
      ],
      [
        "èª",
        -1.0
      ],
      [
        "tes",
        -1.0
      ],
      [
        "å®ĥ",
        -1.0
      ],
      [
        "éĸ",
        -1.0
      ],
      [
        "è§Ĩé¢",
        -1.0
      ],
      [
        "çľĭåĪ°",
        -1.0
      ],
      [
        "fo",
        -1.0
      ],
      [
        "æĹ¥æľ¬",
        -1.0
      ],
      [
        "æķ°æį®",
        -1.0
      ],
      [
        "©çļĦ",
        -1.0
      ],
      [
        "æŁ¥",
        -1.0
      ],
      [
        "ef",
        -1.0
      ],
      [
        "ev",
        -1.0
      ],
      [
        "å¹³åı",
        -1.0
      ],
      [
        "è®¤",
        -1.0
      ],
      [
        "æĸĻ",
        -1.0
      ],
      [
        "sk",
        -1.0
      ],
      [
        "ani",
        -1.0
      ],
      [
        "è£ħ",
        -1.0
      ],
      [
        "åľĭ",
        -1.0
      ],
      [
        "ľĪ",
        -1.0
      ],
      [
        "æ¸¸æĪ",
        -1.0
      ],
      [
        "è¿ĺæĺ",
        -1.0
      ],
      [
        "æĪĳçļĦ",
        -1.0
      ],
      [
        "¨è¿",
        -1.0
      ],
      [
        "......",
        -1.0
      ],
      [
        "è¯Ŀ",
        -1.0
      ],
      [
        "é¢Ĩ",
        -1.0
      ],
      [
        "cher",
        -1.0
      ],
      [
        "erg",
        -1.0
      ],
      [
        "æ²»",
        -1.0
      ],
      [
        "bl",
        -1.0
      ],
      [
        "rma",
        -1.0
      ],
      [
        "ä½Ĩæĺ",
        -1.0
      ],
      [
        "tri",
        -1.0
      ],
      [
        "æīĢæľī",
        -1.0
      ],
      [
        "ser",
        -1.0
      ],
      [
        "nin",
        -1.0
      ],
      [
        "çı",
        -1.0
      ],
      [
        "åĬŁ",
        -1.0
      ],
      [
        "ç³»ç»",
        -1.0
      ],
      [
        "½å¤",
        -1.0
      ],
      [
        "æĸ¹éĿ",
        -1.0
      ],
      [
        "åĽĽ",
        -1.0
      ],
      [
        "ä¸ºä¸",
        -1.0
      ],
      [
        "Łäº",
        -1.0
      ],
      [
        "æ¥",
        -1.0
      ],
      [
        "å±Ģ",
        -1.0
      ],
      [
        "ech",
        -1.0
      ],
      [
        "ĪçļĦ",
        -1.0
      ],
      [
        "è¿Ļæł",
        -1.0
      ],
      [
        "ä»ĸçļĦ",
        -1.0
      ],
      [
        "ĭäº",
        -1.0
      ],
      [
        "erl",
        -1.0
      ],
      [
        "äººåĳĺ",
        -1.0
      ],
      [
        "éŁ",
        -1.0
      ],
      [
        "tung",
        -1.0
      ],
      [
        "éĢīæĭ©",
        -1.0
      ],
      [
        "ass",
        -1.0
      ],
      [
        "è¶ħ",
        -1.0
      ],
      [
        "ç½ĳç«Ļ",
        -1.0
      ],
      [
        "ĽçļĦ",
        -1.0
      ],
      [
        "ĠSt",
        -1.0
      ],
      [
        "çĶŁäº",
        -1.0
      ],
      [
        "Ĩæĺ¯",
        -1.0
      ],
      [
        "nden",
        -1.0
      ],
      [
        "Ļ¢",
        -1.0
      ],
      [
        "unge",
        -1.0
      ],
      [
        "min",
        -1.0
      ],
      [
        "ļäº",
        -1.0
      ],
      [
        "dan",
        -1.0
      ],
      [
        "larÄ±nÄ±",
        -1.0
      ],
      [
        "tur",
        -1.0
      ],
      [
        "ĭæľ",
        -1.0
      ],
      [
        "bu",
        -1.0
      ],
      [
        "æĶ¿åº",
        -1.0
      ],
      [
        "ku",
        -1.0
      ],
      [
        "Ĺä¸",
        -1.0
      ],
      [
        "aÅŁ",
        -1.0
      ],
      [
        "æĺ¯ä»",
        -1.0
      ],
      [
        "ct",
        -1.0
      ],
      [
        "ä¸»è¦",
        -1.0
      ],
      [
        "æĹ¥æľ",
        -1.0
      ],
      [
        "iche",
        -1.0
      ],
      [
        "åĬŀ",
        -1.0
      ],
      [
        "å¹¿",
        -1.0
      ],
      [
        "_______",
        -1.0
      ],
      [
        "tal",
        -1.0
      ],
      [
        "imi",
        -1.0
      ],
      [
        "įåı",
        -1.0
      ],
      [
        "é¡¹çĽ",
        -1.0
      ],
      [
        "åŃ¦çĶ",
        -1.0
      ],
      [
        "ä½ľä¸º",
        -1.0
      ],
      [
        "Ġf",
        -1.0
      ],
      [
        "çĶ·",
        -1.0
      ],
      [
        "ä¹Łä¸į",
        -1.0
      ],
      [
        "lat",
        -1.0
      ],
      [
        "Ħæĺ¯",
        -1.0
      ],
      [
        "è¶Ĭ",
        -1.0
      ],
      [
        "åħĥ",
        -1.0
      ],
      [
        "³äº",
        -1.0
      ],
      [
        "ĺçļĦ",
        -1.0
      ],
      [
        "br",
        -1.0
      ],
      [
        "æĺ¯ä¸Ģä¸ª",
        -1.0
      ],
      [
        "åĳĬ",
        -1.0
      ],
      [
        "ale",
        -1.0
      ],
      [
        "ĩçļĦ",
        -1.0
      ],
      [
        "ç±»",
        -1.0
      ],
      [
        "Ĭä¸",
        -1.0
      ],
      [
        "æĿ¥çļĦ",
        -1.0
      ],
      [
        "å¤§åŃ¦",
        -1.0
      ],
      [
        "ĠSc",
        -1.0
      ],
      [
        "Ġka",
        -1.0
      ],
      [
        "tar",
        -1.0
      ],
      [
        "Ġre",
        -1.0
      ],
      [
        "anÄ±",
        -1.0
      ],
      [
        "lla",
        -1.0
      ],
      [
        "ĠI",
        -1.0
      ],
      [
        "è¯ģ",
        -1.0
      ],
      [
        "åĩł",
        -1.0
      ],
      [
        "æľĭåıĭ",
        -1.0
      ],
      [
        "æ¬¾",
        -1.0
      ],
      [
        "Ģåı",
        -1.0
      ],
      [
        "Įæľ",
        -1.0
      ],
      [
        "³çļĦ",
        -1.0
      ],
      [
        "rla",
        -1.0
      ],
      [
        "çļĦè¿",
        -1.0
      ],
      [
        "æľª",
        -1.0
      ],
      [
        "çīĮ",
        -1.0
      ],
      [
        "å½±åĵį",
        -1.0
      ],
      [
        "St",
        -1.0
      ],
      [
        "çİĭ",
        -1.0
      ],
      [
        "rc",
        -1.0
      ],
      [
        "èĥ½å¤",
        -1.0
      ],
      [
        "Ĳäº",
        -1.0
      ],
      [
        "å¯¹äºİ",
        -1.0
      ],
      [
        "è§Ĥ",
        -1.0
      ],
      [
        "åľ¨çº¿",
        -1.0
      ],
      [
        "åĥı",
        -1.0
      ],
      [
        "èĥ½åĬĽ",
        -1.0
      ],
      [
        "nes",
        -1.0
      ],
      [
        "è¡Įä¸ļ",
        -1.0
      ],
      [
        "çļĦåľ",
        -1.0
      ],
      [
        "èĤ¡",
        -1.0
      ],
      [
        "å¤§åŃ",
        -1.0
      ],
      [
        "ä¹Łä¸",
        -1.0
      ],
      [
        "İåĽ½",
        -1.0
      ],
      [
        "nta",
        -1.0
      ],
      [
        "çĭ",
        -1.0
      ],
      [
        "çļĦæķ",
        -1.0
      ],
      [
        "ä¾¿",
        -1.0
      ],
      [
        "åĽ½éĻ",
        -1.0
      ],
      [
        "å§ĭ",
        -1.0
      ],
      [
        "çĶµå½±",
        -1.0
      ],
      [
        "lich",
        -1.0
      ],
      [
        "å¼Ģå§",
        -1.0
      ],
      [
        "ä¼ĺ",
        -1.0
      ],
      [
        "æĥħåĨ",
        -1.0
      ],
      [
        "èĲ¥",
        -1.0
      ],
      [
        "§ä¸",
        -1.0
      ],
      [
        "are",
        -1.0
      ],
      [
        "åºĹ",
        -1.0
      ],
      [
        "ĩä¸",
        -1.0
      ],
      [
        "åĢĻ",
        -1.0
      ],
      [
        "å¯¹äº",
        -1.0
      ],
      [
        "è¦ģæ±",
        -1.0
      ],
      [
        "ip",
        -1.0
      ],
      [
        "çĽ¸åħ³",
        -1.0
      ],
      [
        "aus",
        -1.0
      ],
      [
        "æīĭæľ",
        -1.0
      ],
      [
        "ken",
        -1.0
      ],
      [
        "Ä±ÅŁ",
        -1.0
      ],
      [
        "aya",
        -1.0
      ],
      [
        "åħ¶ä»",
        -1.0
      ],
      [
        "æīĭæľº",
        -1.0
      ],
      [
        "è§ģ",
        -1.0
      ],
      [
        "įå¤",
        -1.0
      ],
      [
        "ĠBe",
        -1.0
      ],
      [
        "å¼ķ",
        -1.0
      ],
      [
        "ä¹¦",
        -1.0
      ],
      [
        "ona",
        -1.0
      ],
      [
        "ľçļĦ",
        -1.0
      ],
      [
        "æ¨¡",
        -1.0
      ],
      [
        "é¦ĸ",
        -1.0
      ],
      [
        "æ¡Ī",
        -1.0
      ],
      [
        "ä¸Ńå¿",
        -1.0
      ],
      [
        "----",
        -1.0
      ],
      [
        "ĬĬ",
        -1.0
      ],
      [
        "Ģä»¥",
        -1.0
      ],
      [
        "icht",
        -1.0
      ],
      [
        "the",
        -1.0
      ],
      [
        "äººæ°ĳ",
        -1.0
      ],
      [
        "åĲĪä½ľ",
        -1.0
      ],
      [
        "èĬĤ",
        -1.0
      ],
      [
        "åĽ¢",
        -1.0
      ],
      [
        "æĪĲäº",
        -1.0
      ],
      [
        "Ĩäº",
        -1.0
      ],
      [
        "çĽ®åīį",
        -1.0
      ],
      [
        "įäº",
        -1.0
      ],
      [
        "åĦ¿",
        -1.0
      ],
      [
        "éĢŁ",
        -1.0
      ],
      [
        "è¡¨ç¤",
        -1.0
      ],
      [
        "é©¬",
        -1.0
      ],
      [
        "»·",
        -1.0
      ],
      [
        "èµĽ",
        -1.0
      ],
      [
        "ĥä¸",
        -1.0
      ],
      [
        "åĥ",
        -1.0
      ],
      [
        "Ĥº",
        -1.0
      ],
      [
        "æ£",
        -1.0
      ],
      [
        "çħ§",
        -1.0
      ],
      [
        "åıį",
        -1.0
      ],
      [
        "ft",
        -1.0
      ],
      [
        "¦çļĦ",
        -1.0
      ],
      [
        "èİ",
        -1.0
      ],
      [
        "åĩºçİ°",
        -1.0
      ],
      [
        "åĩĨ",
        -1.0
      ],
      [
        "æĸĩåĮ",
        -1.0
      ],
      [
        "Ã¼r",
        -1.0
      ],
      [
        "Łæľ",
        -1.0
      ],
      [
        "ph",
        -1.0
      ],
      [
        "èĥ½å¤Ł",
        -1.0
      ],
      [
        "èĳ",
        -1.0
      ],
      [
        "Įäº",
        -1.0
      ],
      [
        "ob",
        -1.0
      ],
      [
        "åĵģçīĮ",
        -1.0
      ],
      [
        "æł·çļĦ",
        -1.0
      ],
      [
        "ºä»",
        -1.0
      ],
      [
        "ris",
        -1.0
      ],
      [
        "è½¬",
        -1.0
      ],
      [
        "å¦Ĥä½ķ",
        -1.0
      ],
      [
        "tun",
        -1.0
      ],
      [
        "çľ¼",
        -1.0
      ],
      [
        "åĲĥ",
        -1.0
      ],
      [
        "Łİ",
        -1.0
      ],
      [
        "arÄ±nÄ±",
        -1.0
      ],
      [
        "å¹¶ä¸",
        -1.0
      ],
      [
        "è®¾è®",
        -1.0
      ],
      [
        "les",
        -1.0
      ],
      [
        "nis",
        -1.0
      ],
      [
        "åĬ©",
        -1.0
      ],
      [
        "ige",
        -1.0
      ],
      [
        "¿ä¸",
        -1.0
      ],
      [
        "iti",
        -1.0
      ],
      [
        "ete",
        -1.0
      ],
      [
        "ä½ı",
        -1.0
      ],
      [
        "¥åıĬ",
        -1.0
      ],
      [
        "£çļĦ",
        -1.0
      ],
      [
        "åł",
        -1.0
      ],
      [
        "åįİ",
        -1.0
      ],
      [
        "çľģ",
        -1.0
      ],
      [
        "çļĦä½",
        -1.0
      ],
      [
        "æĬķèµ",
        -1.0
      ],
      [
        "Re",
        -1.0
      ],
      [
        "az",
        -1.0
      ],
      [
        "éĺ²",
        -1.0
      ],
      [
        "ula",
        -1.0
      ],
      [
        "çĶ¨æĪ·",
        -1.0
      ],
      [
        "ian",
        -1.0
      ],
      [
        "åĮ»",
        -1.0
      ],
      [
        "las",
        -1.0
      ],
      [
        "éħį",
        -1.0
      ],
      [
        "mer",
        -1.0
      ],
      [
        "éĻĲ",
        -1.0
      ],
      [
        "åĳ¨",
        -1.0
      ],
      [
        "¤¾",
        -1.0
      ],
      [
        "ĠKa",
        -1.0
      ],
      [
        "ĠBa",
        -1.0
      ],
      [
        "æĸ¹å¼",
        -1.0
      ],
      [
        "çļĦå¥",
        -1.0
      ],
      [
        "nla",
        -1.0
      ],
      [
        "ĢçļĦ",
        -1.0
      ],
      [
        "åŁİå¸Ĥ",
        -1.0
      ],
      [
        "han",
        -1.0
      ],
      [
        "åıĳçİ°",
        -1.0
      ],
      [
        ".....",
        -1.0
      ],
      [
        "ĹçļĦ",
        -1.0
      ],
      [
        "åŃ©åŃ",
        -1.0
      ],
      [
        "ç¡®",
        -1.0
      ],
      [
        "ä¸įèĥ",
        -1.0
      ],
      [
        "erun",
        -1.0
      ],
      [
        "åŃ¦ä¹ł",
        -1.0
      ],
      [
        "äººåĳ",
        -1.0
      ],
      [
        "______",
        -1.0
      ],
      [
        "è¶³",
        -1.0
      ],
      [
        "åĲĮæĹ¶",
        -1.0
      ],
      [
        "èµ·æĿ¥",
        -1.0
      ],
      [
        "çļĦç»",
        -1.0
      ],
      [
        "eis",
        -1.0
      ],
      [
        "éĥ¨åĪ",
        -1.0
      ],
      [
        "æīĢæľ",
        -1.0
      ],
      [
        "Ġco",
        -1.0
      ],
      [
        "sm",
        -1.0
      ],
      [
        "æĵ",
        -1.0
      ],
      [
        "åĶ",
        -1.0
      ],
      [
        "ĺæĺ¯",
        -1.0
      ],
      [
        "ä¸ºäº",
        -1.0
      ],
      [
        "ä¸Ķ",
        -1.0
      ],
      [
        "ente",
        -1.0
      ],
      [
        "tro",
        -1.0
      ],
      [
        "ins",
        -1.0
      ],
      [
        "æ®",
        -1.0
      ],
      [
        "å¨",
        -1.0
      ],
      [
        "kle",
        -1.0
      ],
      [
        "ĤçļĦ",
        -1.0
      ],
      [
        "ĭåı",
        -1.0
      ],
      [
        "rle",
        -1.0
      ],
      [
        "Łåı",
        -1.0
      ],
      [
        "Be",
        -1.0
      ],
      [
        "ä¹ĭä¸",
        -1.0
      ],
      [
        "æĴ",
        -1.0
      ],
      [
        "åĨ³",
        -1.0
      ],
      [
        "ada",
        -1.0
      ],
      [
        "æĺ¯ä¸Ģä¸",
        -1.0
      ],
      [
        "ĭåĪ",
        -1.0
      ],
      [
        "ede",
        -1.0
      ],
      [
        "éĻħ",
        -1.0
      ],
      [
        "çĶ¨æĪ",
        -1.0
      ],
      [
        "ä¸ĵä¸ļ",
        -1.0
      ],
      [
        "çİĩ",
        -1.0
      ],
      [
        "ä¸Ģèµ·",
        -1.0
      ],
      [
        "åĮĹäº¬",
        -1.0
      ],
      [
        "ges",
        -1.0
      ],
      [
        "ib",
        -1.0
      ],
      [
        "å¿ħ",
        -1.0
      ],
      [
        "ä¸ĩ",
        -1.0
      ],
      [
        "con",
        -1.0
      ],
      [
        "kla",
        -1.0
      ],
      [
        "çħ",
        -1.0
      ],
      [
        "¨å¤",
        -1.0
      ],
      [
        "çľĭåĪ",
        -1.0
      ],
      [
        "lis",
        -1.0
      ],
      [
        "ita",
        -1.0
      ],
      [
        "èĳĹ",
        -1.0
      ],
      [
        "Ġy",
        -1.0
      ],
      [
        "è®º",
        -1.0
      ],
      [
        "olo",
        -1.0
      ],
      [
        "ªäºº",
        -1.0
      ],
      [
        "ä¸įåı",
        -1.0
      ],
      [
        "äººæ°",
        -1.0
      ],
      [
        "eru",
        -1.0
      ],
      [
        "ºåı",
        -1.0
      ],
      [
        "Ĩåı",
        -1.0
      ],
      [
        "par",
        -1.0
      ],
      [
        "ĠRe",
        -1.0
      ],
      [
        "»è¦ģ",
        -1.0
      ],
      [
        "Ä±mÄ±",
        -1.0
      ],
      [
        "è±",
        -1.0
      ],
      [
        "Ģ»",
        -1.0
      ],
      [
        "è²",
        -1.0
      ],
      [
        "éĢīæĭ",
        -1.0
      ],
      [
        "eti",
        -1.0
      ],
      [
        "erb",
        -1.0
      ],
      [
        "å§Ķ",
        -1.0
      ],
      [
        "ric",
        -1.0
      ],
      [
        "Sc",
        -1.0
      ],
      [
        "ĠO",
        -1.0
      ],
      [
        "ç¶",
        -1.0
      ],
      [
        "çļĦæĪ",
        -1.0
      ],
      [
        "ĠHa",
        -1.0
      ],
      [
        "æľĽ",
        -1.0
      ],
      [
        "æķ°æį",
        -1.0
      ],
      [
        "è¾ĥ",
        -1.0
      ],
      [
        "æĺ¯æľ",
        -1.0
      ],
      [
        "erm",
        -1.0
      ],
      [
        "Ä±nda",
        -1.0
      ],
      [
        "åįĩ",
        -1.0
      ],
      [
        "¨åĪ",
        -1.0
      ],
      [
        "nz",
        -1.0
      ],
      [
        "ä½İ",
        -1.0
      ],
      [
        "ua",
        -1.0
      ],
      [
        "dir",
        -1.0
      ],
      [
        "Ba",
        -1.0
      ],
      [
        "çİ¯",
        -1.0
      ],
      [
        "Ŀŀ",
        -1.0
      ],
      [
        "åĦ",
        -1.0
      ],
      [
        "æĺ¯ä¸į",
        -1.0
      ],
      [
        "ç§ĳæĬĢ",
        -1.0
      ],
      [
        "è®®",
        -1.0
      ],
      [
        "ľĥ",
        -1.0
      ],
      [
        "å£«",
        -1.0
      ],
      [
        "Ģæľī",
        -1.0
      ],
      [
        "ç»Ń",
        -1.0
      ],
      [
        "¥äº",
        -1.0
      ],
      [
        "rec",
        -1.0
      ],
      [
        "æĢİä¹Ī",
        -1.0
      ],
      [
        "ĠGe",
        -1.0
      ],
      [
        "é£Ł",
        -1.0
      ],
      [
        "cu",
        -1.0
      ],
      [
        "gra",
        -1.0
      ],
      [
        "çĶŁäº§",
        -1.0
      ],
      [
        "ese",
        -1.0
      ],
      [
        "Ä±k",
        -1.0
      ],
      [
        "int",
        -1.0
      ],
      [
        "dÄ±r",
        -1.0
      ],
      [
        "çĹħ",
        -1.0
      ],
      [
        "å½©",
        -1.0
      ],
      [
        "å¼ł",
        -1.0
      ],
      [
        "Ã¼n",
        -1.0
      ],
      [
        "ett",
        -1.0
      ],
      [
        "abi",
        -1.0
      ],
      [
        "ä¸Ģç§į",
        -1.0
      ],
      [
        "åľ¨çº",
        -1.0
      ],
      [
        "è¿ĺæľī",
        -1.0
      ],
      [
        "å¢ĥ",
        -1.0
      ],
      [
        "çļĦåĪ",
        -1.0
      ],
      [
        "elle",
        -1.0
      ],
      [
        "for",
        -1.0
      ],
      [
        "ÅŁt",
        -1.0
      ],
      [
        "åĲĪä½",
        -1.0
      ],
      [
        "Ĳåħ¬åı¸",
        -1.0
      ],
      [
        "nf",
        -1.0
      ],
      [
        "åŃĺ",
        -1.0
      ],
      [
        "Łä¸į",
        -1.0
      ],
      [
        "ä½łçļĦ",
        -1.0
      ],
      [
        "uch",
        -1.0
      ],
      [
        "¹äº",
        -1.0
      ],
      [
        "nal",
        -1.0
      ],
      [
        "¹ä¸",
        -1.0
      ],
      [
        "æľīçļĦ",
        -1.0
      ],
      [
        "abil",
        -1.0
      ],
      [
        "¿çļĦ",
        -1.0
      ],
      [
        "æĸ½",
        -1.0
      ],
      [
        "wi",
        -1.0
      ],
      [
        "ĢŁ",
        -1.0
      ],
      [
        "alt",
        -1.0
      ],
      [
        "çİ¯å¢ĥ",
        -1.0
      ],
      [
        "èĥ½åĬ",
        -1.0
      ],
      [
        "ç½ĳç«",
        -1.0
      ],
      [
        "esc",
        -1.0
      ],
      [
        "Co",
        -1.0
      ],
      [
        "ĵçļĦ",
        -1.0
      ],
      [
        "ont",
        -1.0
      ],
      [
        "ä¸įä¼ļ",
        -1.0
      ],
      [
        "¥è¯",
        -1.0
      ],
      [
        "æł¹",
        -1.0
      ],
      [
        "çµ",
        -1.0
      ],
      [
        "¥åħ",
        -1.0
      ],
      [
        "ķçļĦ",
        -1.0
      ],
      [
        "æĢĿ",
        -1.0
      ],
      [
        "éŁ³",
        -1.0
      ],
      [
        "å¤ļçļĦ",
        -1.0
      ],
      [
        "uf",
        -1.0
      ],
      [
        "§ģ",
        -1.0
      ],
      [
        "ub",
        -1.0
      ],
      [
        "Ä±nÄ±z",
        -1.0
      ],
      [
        "Ġin",
        -1.0
      ],
      [
        "ç½ĳç»ľ",
        -1.0
      ],
      [
        "ä¸ºäºĨ",
        -1.0
      ],
      [
        "ä¸Ģä¸ĭ",
        -1.0
      ],
      [
        "åŃ©",
        -1.0
      ],
      [
        "©ä¸",
        -1.0
      ],
      [
        "æİĴ",
        -1.0
      ],
      [
        "niz",
        -1.0
      ],
      [
        "çĻ¾",
        -1.0
      ],
      [
        "Īä¸",
        -1.0
      ],
      [
        "ndo",
        -1.0
      ],
      [
        "ly",
        -1.0
      ],
      [
        "mat",
        -1.0
      ],
      [
        "ks",
        -1.0
      ],
      [
        "rÃ¼",
        -1.0
      ],
      [
        "æŀĹ",
        -1.0
      ],
      [
        "å¸ĮæľĽ",
        -1.0
      ],
      [
        "ER",
        -1.0
      ],
      [
        "Ka",
        -1.0
      ],
      [
        "rde",
        -1.0
      ],
      [
        "åĨĽ",
        -1.0
      ],
      [
        "è¿Ļç§į",
        -1.0
      ],
      [
        "ff",
        -1.0
      ],
      [
        "è§ī",
        -1.0
      ],
      [
        "¯çļĦ",
        -1.0
      ],
      [
        "è¿Ļæĺ¯",
        -1.0
      ],
      [
        "åľ°æĸ¹",
        -1.0
      ],
      [
        "¥ŀ",
        -1.0
      ],
      [
        "ç®Ĺ",
        -1.0
      ],
      [
        "åĻ",
        -1.0
      ],
      [
        "asÄ±",
        -1.0
      ],
      [
        "of",
        -1.0
      ],
      [
        "±äº",
        -1.0
      ],
      [
        "ä¹ł",
        -1.0
      ],
      [
        "æĺŁ",
        -1.0
      ],
      [
        "Ģī",
        -1.0
      ],
      [
        "ov",
        -1.0
      ],
      [
        "é¢ĳ",
        -1.0
      ],
      [
        "å¹²",
        -1.0
      ],
      [
        "èĢĮä¸Ķ",
        -1.0
      ],
      [
        "æĿĥ",
        -1.0
      ],
      [
        "è¿Ļä¸Ģ",
        -1.0
      ],
      [
        "åį³",
        -1.0
      ],
      [
        "Ļæĺ¯",
        -1.0
      ],
      [
        "éĻ¤",
        -1.0
      ],
      [
        "fl",
        -1.0
      ],
      [
        "dr",
        -1.0
      ],
      [
        "ä¸ĢçĽ´",
        -1.0
      ],
      [
        "bili",
        -1.0
      ],
      [
        "qu",
        -1.0
      ],
      [
        "æĽ´å¤",
        -1.0
      ],
      [
        "mas",
        -1.0
      ],
      [
        "éł",
        -1.0
      ],
      [
        "è¯ķ",
        -1.0
      ],
      [
        "rÄ±nÄ±",
        -1.0
      ],
      [
        "Ha",
        -1.0
      ],
      [
        "åħļ",
        -1.0
      ],
      [
        "æľĭåı",
        -1.0
      ],
      [
        "çļĦå¤§",
        -1.0
      ],
      [
        "hn",
        -1.0
      ],
      [
        "æĽ´å¤ļ",
        -1.0
      ],
      [
        "çĥŃ",
        -1.0
      ],
      [
        "ç©¶",
        -1.0
      ],
      [
        "ªä¸",
        -1.0
      ],
      [
        "²çļĦ",
        -1.0
      ],
      [
        "æĶ¯æĮģ",
        -1.0
      ],
      [
        "erd",
        -1.0
      ],
      [
        "ç»ĵæŀ",
        -1.0
      ],
      [
        "oni",
        -1.0
      ],
      [
        "æŀĦ",
        -1.0
      ],
      [
        "Ġv",
        -1.0
      ],
      [
        "å½±åĵ",
        -1.0
      ],
      [
        "æħ",
        -1.0
      ],
      [
        "éļ¾",
        -1.0
      ],
      [
        "Ä±ÄŁ",
        -1.0
      ],
      [
        "æĭī",
        -1.0
      ],
      [
        "åıĤ",
        -1.0
      ],
      [
        "scha",
        -1.0
      ],
      [
        "åĢ¼",
        -1.0
      ],
      [
        "åĽ¾çīĩ",
        -1.0
      ],
      [
        "ç»Ħç»ĩ",
        -1.0
      ],
      [
        "eler",
        -1.0
      ],
      [
        "isi",
        -1.0
      ],
      [
        "å¾·",
        -1.0
      ],
      [
        "éªĮ",
        -1.0
      ],
      [
        "äº¬",
        -1.0
      ],
      [
        "lit",
        -1.0
      ],
      [
        "¹Ĳ",
        -1.0
      ],
      [
        "¡ä¸",
        -1.0
      ],
      [
        "ado",
        -1.0
      ],
      [
        "Įåħ",
        -1.0
      ],
      [
        "èĮ",
        -1.0
      ],
      [
        "æİ§",
        -1.0
      ],
      [
        "çĽ¸åħ",
        -1.0
      ],
      [
        "çĶµå½",
        -1.0
      ],
      [
        "å¦Ĥä½",
        -1.0
      ],
      [
        "å·ŀ",
        -1.0
      ],
      [
        "èŃ",
        -1.0
      ],
      [
        "ĭä¸Ģ",
        -1.0
      ],
      [
        "èĲ½",
        -1.0
      ],
      [
        "å²",
        -1.0
      ],
      [
        "æľīéĻĲ",
        -1.0
      ],
      [
        "æĺ¯åľ¨",
        -1.0
      ],
      [
        "ç½®",
        -1.0
      ],
      [
        "¶ä»ĸ",
        -1.0
      ],
      [
        "è³",
        -1.0
      ],
      [
        "åĮħæĭ¬",
        -1.0
      ],
      [
        "nm",
        -1.0
      ],
      [
        "äºĶ",
        -1.0
      ],
      [
        "yor",
        -1.0
      ],
      [
        "_____",
        -1.0
      ],
      [
        "Ġo",
        -1.0
      ],
      [
        "lam",
        -1.0
      ],
      [
        "äº§ä¸ļ",
        -1.0
      ],
      [
        "emi",
        -1.0
      ],
      [
        "ģäº",
        -1.0
      ],
      [
        "æĢģ",
        -1.0
      ],
      [
        "æ¢",
        -1.0
      ],
      [
        "ĹåĪ°",
        -1.0
      ],
      [
        "iÅŁ",
        -1.0
      ],
      [
        "è¾¹",
        -1.0
      ],
      [
        "ata",
        -1.0
      ],
      [
        "çĽ´æİ¥",
        -1.0
      ],
      [
        "pp",
        -1.0
      ],
      [
        "ä¸ĢæŃ¥",
        -1.0
      ],
      [
        "å°į",
        -1.0
      ],
      [
        "ram",
        -1.0
      ],
      [
        "åĢĳ",
        -1.0
      ],
      [
        "æĪĳåĢĳ",
        -1.0
      ],
      [
        "Ge",
        -1.0
      ],
      [
        "ĻĤ",
        -1.0
      ],
      [
        "ä¹ĭåĲİ",
        -1.0
      ],
      [
        "å·¥ç¨ĭ",
        -1.0
      ],
      [
        "åĬŁèĥ½",
        -1.0
      ],
      [
        "åĵģçī",
        -1.0
      ],
      [
        "tre",
        -1.0
      ],
      [
        "hal",
        -1.0
      ],
      [
        "ok",
        -1.0
      ],
      [
        "çĽ®åī",
        -1.0
      ],
      [
        "çĻ¼",
        -1.0
      ],
      [
        "åĩºçİ",
        -1.0
      ],
      [
        "Ä±la",
        -1.0
      ],
      [
        "è·Ł",
        -1.0
      ],
      [
        "¸çļĦ",
        -1.0
      ],
      [
        "cke",
        -1.0
      ],
      [
        "åħį",
        -1.0
      ],
      [
        "ece",
        -1.0
      ],
      [
        "æĻ¯",
        -1.0
      ],
      [
        "æĺ¯æĪĳ",
        -1.0
      ],
      [
        "ras",
        -1.0
      ],
      [
        "åĨħå®¹",
        -1.0
      ],
      [
        "pla",
        -1.0
      ],
      [
        "ud",
        -1.0
      ],
      [
        "åŃ¦ä¹",
        -1.0
      ],
      [
        "Pa",
        -1.0
      ],
      [
        "Ĥä¸",
        -1.0
      ],
      [
        "æ¯Ķè¾ĥ",
        -1.0
      ],
      [
        "yl",
        -1.0
      ],
      [
        "»ä¸",
        -1.0
      ],
      [
        "½äº",
        -1.0
      ],
      [
        "èħ",
        -1.0
      ],
      [
        "iÄŁi",
        -1.0
      ],
      [
        "alar",
        -1.0
      ],
      [
        "ations",
        -1.0
      ],
      [
        "å¾Ģ",
        -1.0
      ],
      [
        "å¤į",
        -1.0
      ],
      [
        "nne",
        -1.0
      ],
      [
        "æĺ¯åĲ",
        -1.0
      ],
      [
        "æĪı",
        -1.0
      ],
      [
        "....",
        -1.0
      ],
      [
        "ame",
        -1.0
      ],
      [
        "åŃĹ",
        -1.0
      ],
      [
        "ori",
        -1.0
      ],
      [
        "æľīåħ",
        -1.0
      ],
      [
        "00",
        -1.0
      ],
      [
        "ä¿®",
        -1.0
      ],
      [
        "Ĳä¸º",
        -1.0
      ],
      [
        "æĸ°çļĦ",
        -1.0
      ],
      [
        "erk",
        -1.0
      ],
      [
        "½æľ",
        -1.0
      ],
      [
        "erte",
        -1.0
      ],
      [
        "nÄ±z",
        -1.0
      ],
      [
        "ron",
        -1.0
      ],
      [
        "ĭåĪ°",
        -1.0
      ],
      [
        "å®ŀçİ°",
        -1.0
      ],
      [
        "lli",
        -1.0
      ],
      [
        "sto",
        -1.0
      ],
      [
        "¼ĺ",
        -1.0
      ],
      [
        "çļĦè¡",
        -1.0
      ],
      [
        "go",
        -1.0
      ],
      [
        "åħĭ",
        -1.0
      ],
      [
        "çİ©",
        -1.0
      ],
      [
        "å¾®",
        -1.0
      ],
      [
        "çļĦä¼",
        -1.0
      ],
      [
        "½¢",
        -1.0
      ],
      [
        "ä¼Ĺ",
        -1.0
      ],
      [
        "ore",
        -1.0
      ],
      [
        "æ¼Ķ",
        -1.0
      ],
      [
        "çģ«",
        -1.0
      ],
      [
        "çīĪ",
        -1.0
      ],
      [
        "çļĦéĩ",
        -1.0
      ],
      [
        "çļĦæī",
        -1.0
      ],
      [
        "èĭ±",
        -1.0
      ],
      [
        "Ä±mÄ±z",
        -1.0
      ],
      [
        "åĲĮæĹ",
        -1.0
      ],
      [
        "æĿ¡",
        -1.0
      ],
      [
        "©åŃĲ",
        -1.0
      ],
      [
        "mb",
        -1.0
      ],
      [
        "ç¾İå¥",
        -1.0
      ],
      [
        "ä¸ĵä¸",
        -1.0
      ],
      [
        "åĮĹäº",
        -1.0
      ],
      [
        "æĬ¤",
        -1.0
      ],
      [
        "è¯·",
        -1.0
      ],
      [
        "åıĳçİ",
        -1.0
      ],
      [
        "éģİ",
        -1.0
      ],
      [
        "ui",
        -1.0
      ],
      [
        "san",
        -1.0
      ],
      [
        "ĸä¸",
        -1.0
      ],
      [
        "ben",
        -1.0
      ],
      [
        "èĩ´",
        -1.0
      ],
      [
        "Ä±nd",
        -1.0
      ],
      [
        "ä¸Ģèµ",
        -1.0
      ],
      [
        "çļĦåĬ",
        -1.0
      ],
      [
        "¨åĪĨ",
        -1.0
      ],
      [
        "gel",
        -1.0
      ],
      [
        "æ¶Īè´¹",
        -1.0
      ],
      [
        "lerini",
        -1.0
      ],
      [
        "åŁİå¸",
        -1.0
      ],
      [
        "è¦ģçļĦ",
        -1.0
      ],
      [
        "Ġn",
        -1.0
      ],
      [
        "fer",
        -1.0
      ],
      [
        "ntr",
        -1.0
      ],
      [
        "èµ·æĿ",
        -1.0
      ],
      [
        "Pr",
        -1.0
      ],
      [
        "ekt",
        -1.0
      ],
      [
        "ĠPa",
        -1.0
      ],
      [
        "ria",
        -1.0
      ],
      [
        "ug",
        -1.0
      ],
      [
        "éĿĴ",
        -1.0
      ],
      [
        "æĸ¹æ³ķ",
        -1.0
      ],
      [
        "ä¸ĢçĽ",
        -1.0
      ],
      [
        "Ġge",
        -1.0
      ],
      [
        "ost",
        -1.0
      ],
      [
        "chu",
        -1.0
      ],
      [
        "Ľäº",
        -1.0
      ],
      [
        "æµİ",
        -1.0
      ],
      [
        "æĶ¿çŃĸ",
        -1.0
      ],
      [
        "åıªæĺ¯",
        -1.0
      ],
      [
        "è¿ĺæľ",
        -1.0
      ],
      [
        "æ®µ",
        -1.0
      ],
      [
        "Ã¶r",
        -1.0
      ],
      [
        "åįļ",
        -1.0
      ],
      [
        "Ġl",
        -1.0
      ],
      [
        "«ä¸",
        -1.0
      ],
      [
        "é¦Ļ",
        -1.0
      ],
      [
        "å°Ķ",
        -1.0
      ],
      [
        "---",
        -1.0
      ],
      [
        "å®ĮæĪĲ",
        -1.0
      ],
      [
        "éº",
        -1.0
      ],
      [
        "äºļ",
        -1.0
      ],
      [
        "ºä¸Ģ",
        -1.0
      ],
      [
        "mal",
        -1.0
      ],
      [
        "ade",
        -1.0
      ],
      [
        "ä¸Ģç§",
        -1.0
      ],
      [
        "çľŁçļĦ",
        -1.0
      ],
      [
        "oli",
        -1.0
      ],
      [
        "å¹´çļĦ",
        -1.0
      ],
      [
        "åĬ¿",
        -1.0
      ],
      [
        "çļĦå°ı",
        -1.0
      ],
      [
        "æĺ¯æĪ",
        -1.0
      ],
      [
        "åĨµ",
        -1.0
      ],
      [
        "sl",
        -1.0
      ],
      [
        "æĺ¯åľ",
        -1.0
      ],
      [
        "land",
        -1.0
      ],
      [
        "ĠPr",
        -1.0
      ],
      [
        "è¿Ľä¸ĢæŃ¥",
        -1.0
      ],
      [
        "rf",
        -1.0
      ],
      [
        "ĻçļĦ",
        -1.0
      ],
      [
        "«çļĦ",
        -1.0
      ],
      [
        "Ļä¸Ģ",
        -1.0
      ],
      [
        "çļĦå·",
        -1.0
      ],
      [
        "äº§ä¸",
        -1.0
      ],
      [
        "æĿĳ",
        -1.0
      ],
      [
        "ĠSa",
        -1.0
      ],
      [
        "ä¸ĢèĪ¬",
        -1.0
      ],
      [
        "lung",
        -1.0
      ],
      [
        "ºåħ",
        -1.0
      ],
      [
        "æŀģ",
        -1.0
      ],
      [
        "up",
        -1.0
      ],
      [
        "¤ª",
        -1.0
      ],
      [
        "¥æľ¬",
        -1.0
      ],
      [
        "eo",
        -1.0
      ],
      [
        "éĿ¢çļĦ",
        -1.0
      ],
      [
        "ero",
        -1.0
      ],
      [
        "ä»£è¡¨",
        -1.0
      ],
      [
        "¼ķ",
        -1.0
      ],
      [
        "ex",
        -1.0
      ],
      [
        "åıĳçĶŁ",
        -1.0
      ],
      [
        "ä¸ĢåĢĭ",
        -1.0
      ],
      [
        "åħ·æľī",
        -1.0
      ],
      [
        "ä¸įä¼",
        -1.0
      ],
      [
        "çļĦåĽ",
        -1.0
      ],
      [
        "åı·",
        -1.0
      ],
      [
        "çļĦåľ°",
        -1.0
      ],
      [
        "æĲ",
        -1.0
      ],
      [
        "İäº",
        -1.0
      ],
      [
        "å¨±ä¹Ĳ",
        -1.0
      ],
      [
        "æĪĳä»¬çļĦ",
        -1.0
      ],
      [
        "log",
        -1.0
      ],
      [
        "pre",
        -1.0
      ],
      [
        "mar",
        -1.0
      ],
      [
        "çļĦäºĭ",
        -1.0
      ],
      [
        "çļĦåŃ",
        -1.0
      ],
      [
        "æ¥Ń",
        -1.0
      ],
      [
        "ä¸įè¦ģ",
        -1.0
      ],
      [
        "ç§ĳæĬ",
        -1.0
      ],
      [
        "rme",
        -1.0
      ],
      [
        "eite",
        -1.0
      ],
      [
        "ds",
        -1.0
      ],
      [
        "èµĦæºĲ",
        -1.0
      ],
      [
        "æıĲé«ĺ",
        -1.0
      ],
      [
        "ķä¸",
        -1.0
      ],
      [
        "äº¤æĺĵ",
        -1.0
      ],
      [
        "rti",
        -1.0
      ],
      [
        "Sa",
        -1.0
      ],
      [
        "iler",
        -1.0
      ],
      [
        "ĨåĪ",
        -1.0
      ],
      [
        "ºåľ",
        -1.0
      ],
      [
        "å¤±",
        -1.0
      ],
      [
        "chl",
        -1.0
      ],
      [
        "¯ä¸į",
        -1.0
      ],
      [
        "ä¸ļçļĦ",
        -1.0
      ],
      [
        "éĥ¨éĹ¨",
        -1.0
      ],
      [
        "sÄ±n",
        -1.0
      ],
      [
        "ew",
        -1.0
      ],
      [
        "arl",
        -1.0
      ],
      [
        "åĪĹ",
        -1.0
      ],
      [
        "çļĦçĶŁ",
        -1.0
      ],
      [
        "iniz",
        -1.0
      ],
      [
        "har",
        -1.0
      ],
      [
        "åĪĽæĸ°",
        -1.0
      ],
      [
        "īå¤",
        -1.0
      ],
      [
        "æĪĸèĢħ",
        -1.0
      ],
      [
        "Ã¡",
        -1.0
      ],
      [
        "£äº",
        -1.0
      ],
      [
        "æĢİä¹",
        -1.0
      ],
      [
        "ä»»ä½ķ",
        -1.0
      ],
      [
        "Łèĥ½",
        -1.0
      ],
      [
        "æ»¡",
        -1.0
      ],
      [
        "çļĦä»",
        -1.0
      ],
      [
        "åĳ½",
        -1.0
      ],
      [
        "åŃ¸",
        -1.0
      ],
      [
        "¶ä¸į",
        -1.0
      ],
      [
        "ç¾İå¥³",
        -1.0
      ],
      [
        "tis",
        -1.0
      ],
      [
        "lei",
        -1.0
      ],
      [
        "¶ä¸Ń",
        -1.0
      ],
      [
        "aca",
        -1.0
      ],
      [
        "tir",
        -1.0
      ],
      [
        "åģ¥åº·",
        -1.0
      ],
      [
        "lun",
        -1.0
      ],
      [
        "éľĢæ±Ĥ",
        -1.0
      ],
      [
        "Ġma",
        -1.0
      ],
      [
        "å®ĺ",
        -1.0
      ],
      [
        "èģĮ",
        -1.0
      ],
      [
        "ç½ĳç»",
        -1.0
      ],
      [
        "æŃ£åľ¨",
        -1.0
      ],
      [
        "Ä±Å",
        -1.0
      ],
      [
        "è±¡",
        -1.0
      ],
      [
        "¨åħ",
        -1.0
      ],
      [
        "åĤ",
        -1.0
      ],
      [
        "De",
        -1.0
      ],
      [
        "æī¾",
        -1.0
      ],
      [
        "ow",
        -1.0
      ],
      [
        "Ã©",
        -1.0
      ],
      [
        "¨æľ",
        -1.0
      ],
      [
        "åºľ",
        -1.0
      ],
      [
        "Me",
        -1.0
      ],
      [
        "ege",
        -1.0
      ],
      [
        "ä¸Ģæł·",
        -1.0
      ],
      [
        "ena",
        -1.0
      ],
      [
        "esch",
        -1.0
      ],
      [
        "åĸľ",
        -1.0
      ],
      [
        "ĺä¸",
        -1.0
      ],
      [
        "¶å®",
        -1.0
      ],
      [
        "æĴŃ",
        -1.0
      ],
      [
        "rst",
        -1.0
      ],
      [
        "nb",
        -1.0
      ],
      [
        "è¿ŀ",
        -1.0
      ],
      [
        "ĠMe",
        -1.0
      ],
      [
        "hei",
        -1.0
      ],
      [
        "äºĨè§£",
        -1.0
      ],
      [
        "åĪĻ",
        -1.0
      ],
      [
        "åľ°æĸ",
        -1.0
      ],
      [
        "åŃ¦æł¡",
        -1.0
      ],
      [
        "çİ¯å¢",
        -1.0
      ],
      [
        "ĳäº",
        -1.0
      ],
      [
        "åĩºäº",
        -1.0
      ],
      [
        "mes",
        -1.0
      ],
      [
        "¾çļĦ",
        -1.0
      ],
      [
        "åŁºæľ¬",
        -1.0
      ],
      [
        "ä»·æł¼",
        -1.0
      ],
      [
        "ry",
        -1.0
      ],
      [
        "orm",
        -1.0
      ],
      [
        "ĠCo",
        -1.0
      ],
      [
        "å¾Į",
        -1.0
      ],
      [
        "rsch",
        -1.0
      ],
      [
        "ä¹°",
        -1.0
      ],
      [
        "ĭä¸Ń",
        -1.0
      ],
      [
        "è¨Ģ",
        -1.0
      ],
      [
        "æĺ¾",
        -1.0
      ],
      [
        "fr",
        -1.0
      ],
      [
        "³ä¸",
        -1.0
      ],
      [
        "æľºæŀĦ",
        -1.0
      ],
      [
        "½åĬĽ",
        -1.0
      ],
      [
        "åħ¨åĽ½",
        -1.0
      ],
      [
        "è¯Ĩ",
        -1.0
      ],
      [
        "aÅ",
        -1.0
      ],
      [
        "oll",
        -1.0
      ],
      [
        "Ġu",
        -1.0
      ],
      [
        "ħå®",
        -1.0
      ],
      [
        "éĩĩ",
        -1.0
      ],
      [
        "rac",
        -1.0
      ],
      [
        "åºĶè¯¥",
        -1.0
      ],
      [
        "cr",
        -1.0
      ],
      [
        "£ä¸",
        -1.0
      ],
      [
        "è¿ĩç¨ĭ",
        -1.0
      ],
      [
        "å¸Įæľ",
        -1.0
      ],
      [
        "iri",
        -1.0
      ],
      [
        "å£°",
        -1.0
      ],
      [
        "è¿Ļç§",
        -1.0
      ],
      [
        "åŁŁ",
        -1.0
      ],
      [
        "Se",
        -1.0
      ],
      [
        "ä¸įæĸ",
        -1.0
      ],
      [
        "å®¢æĪ",
        -1.0
      ],
      [
        "çĶŁçļĦ",
        -1.0
      ],
      [
        "åħ¨çĲĥ",
        -1.0
      ],
      [
        "ç»Ħç»",
        -1.0
      ],
      [
        "çļĦåį",
        -1.0
      ],
      [
        "ive",
        -1.0
      ],
      [
        "¨ä¸Ģ",
        -1.0
      ],
      [
        "ĭæľº",
        -1.0
      ],
      [
        "åľ¨è¿Ļ",
        -1.0
      ],
      [
        "ħäº",
        -1.0
      ],
      [
        "æĳ",
        -1.0
      ],
      [
        "åĭķ",
        -1.0
      ],
      [
        "è®¤ä¸º",
        -1.0
      ],
      [
        "ä¸ĭè½½",
        -1.0
      ],
      [
        "¾ä¸",
        -1.0
      ],
      [
        "åĩºæĿ¥",
        -1.0
      ],
      [
        "Ġsa",
        -1.0
      ],
      [
        "è¿Ļæł·çļĦ",
        -1.0
      ],
      [
        "Ġpr",
        -1.0
      ],
      [
        "ľä¸º",
        -1.0
      ],
      [
        "åĪ°ä¸",
        -1.0
      ],
      [
        "sel",
        -1.0
      ],
      [
        "èĪĩ",
        -1.0
      ],
      [
        "æĢİ",
        -1.0
      ],
      [
        "gl",
        -1.0
      ],
      [
        "rbe",
        -1.0
      ],
      [
        "ral",
        -1.0
      ],
      [
        "iste",
        -1.0
      ],
      [
        "ĭåĲ",
        -1.0
      ],
      [
        "ħä¸",
        -1.0
      ],
      [
        "ker",
        -1.0
      ],
      [
        "Ä±ÄŁÄ±n",
        -1.0
      ],
      [
        "ä¸Ģæł",
        -1.0
      ],
      [
        "éĤ£ä¹Ī",
        -1.0
      ],
      [
        "åĨħå®",
        -1.0
      ],
      [
        "èİ·",
        -1.0
      ],
      [
        "ĠKo",
        -1.0
      ],
      [
        "In",
        -1.0
      ],
      [
        "åħ¶ä¸",
        -1.0
      ],
      [
        "è®¸",
        -1.0
      ],
      [
        "çº¦",
        -1.0
      ],
      [
        "ĠVer",
        -1.0
      ],
      [
        "ä¸įçŁ¥éģĵ",
        -1.0
      ],
      [
        "Ä±y",
        -1.0
      ],
      [
        "çº¢",
        -1.0
      ],
      [
        "ä¸įçŁ¥",
        -1.0
      ],
      [
        "ora",
        -1.0
      ],
      [
        "erini",
        -1.0
      ],
      [
        "çļĦæĬ",
        -1.0
      ],
      [
        "ä»½",
        -1.0
      ],
      [
        "åľ¨ä¸Ģ",
        -1.0
      ],
      [
        "ord",
        -1.0
      ],
      [
        "ä¹ĭåĲ",
        -1.0
      ],
      [
        "æĤ¨",
        -1.0
      ],
      [
        "ebe",
        -1.0
      ],
      [
        "æĪĳåĢ",
        -1.0
      ],
      [
        "åĩºäºĨ",
        -1.0
      ],
      [
        "èĻ½çĦ¶",
        -1.0
      ],
      [
        "¥åĲ",
        -1.0
      ],
      [
        "åıĳçĶ",
        -1.0
      ],
      [
        "ä¸įæĸŃ",
        -1.0
      ],
      [
        "ys",
        -1.0
      ],
      [
        "ç¾¤",
        -1.0
      ],
      [
        "uk",
        -1.0
      ],
      [
        "æıĲåįĩ",
        -1.0
      ],
      [
        "æĶ¯æĮ",
        -1.0
      ],
      [
        "Ver",
        -1.0
      ],
      [
        "åħ¶ä¸Ń",
        -1.0
      ],
      [
        "por",
        -1.0
      ],
      [
        "ä¸Ģå¤",
        -1.0
      ],
      [
        "rim",
        -1.0
      ],
      [
        "ise",
        -1.0
      ],
      [
        "AR",
        -1.0
      ],
      [
        "è®°èĢħ",
        -1.0
      ],
      [
        "ç¬¬äºĮ",
        -1.0
      ],
      [
        "____",
        -1.0
      ],
      [
        "tle",
        -1.0
      ],
      [
        "schen",
        -1.0
      ],
      [
        "İä¹",
        -1.0
      ],
      [
        "Ģå¤§",
        -1.0
      ],
      [
        "åĽ¾çī",
        -1.0
      ],
      [
        "ä¸ĢæŃ",
        -1.0
      ],
      [
        "Ġba",
        -1.0
      ],
      [
        "stra",
        -1.0
      ],
      [
        "ĮæĹ¶",
        -1.0
      ],
      [
        "İå¸Ĥ",
        -1.0
      ],
      [
        "äºĨä¸Ģä¸",
        -1.0
      ],
      [
        "itt",
        -1.0
      ],
      [
        "Ńä¸",
        -1.0
      ],
      [
        "æł¹æį®",
        -1.0
      ],
      [
        "¨åı",
        -1.0
      ],
      [
        "įä¼ļ",
        -1.0
      ],
      [
        "¾åĪ°",
        -1.0
      ],
      [
        "pt",
        -1.0
      ],
      [
        "tiv",
        -1.0
      ],
      [
        "Ġya",
        -1.0
      ],
      [
        "åıªæľī",
        -1.0
      ],
      [
        "...",
        -1.0
      ],
      [
        "Ġse",
        -1.0
      ],
      [
        "éĶĢ",
        -1.0
      ],
      [
        "¯åľ¨",
        -1.0
      ],
      [
        "èŀį",
        -1.0
      ],
      [
        "lem",
        -1.0
      ],
      [
        "·ä¸",
        -1.0
      ],
      [
        "Ca",
        -1.0
      ],
      [
        "å®¢æĪ·",
        -1.0
      ],
      [
        "ies",
        -1.0
      ],
      [
        "çļĦè®",
        -1.0
      ],
      [
        "ĠSe",
        -1.0
      ],
      [
        "nÄ±n",
        -1.0
      ],
      [
        "åĮħæĭ",
        -1.0
      ],
      [
        "err",
        -1.0
      ],
      [
        "ä¹ī",
        -1.0
      ],
      [
        "tat",
        -1.0
      ],
      [
        "åħ»",
        -1.0
      ],
      [
        "äººä¸",
        -1.0
      ],
      [
        "éļı",
        -1.0
      ],
      [
        "æĭį",
        -1.0
      ],
      [
        "çĽ´æİ",
        -1.0
      ],
      [
        "ros",
        -1.0
      ],
      [
        "¢ä¸",
        -1.0
      ],
      [
        "åĪĨæŀĲ",
        -1.0
      ],
      [
        "schaft",
        -1.0
      ],
      [
        "rit",
        -1.0
      ],
      [
        "çļĦçĽ",
        -1.0
      ],
      [
        "ĠVe",
        -1.0
      ],
      [
        "ĠDe",
        -1.0
      ],
      [
        "·äº",
        -1.0
      ],
      [
        "ä¸Ĭä¸",
        -1.0
      ],
      [
        "ami",
        -1.0
      ],
      [
        "del",
        -1.0
      ],
      [
        "Ĩå¤",
        -1.0
      ],
      [
        "æ±Ł",
        -1.0
      ],
      [
        "ç´ł",
        -1.0
      ],
      [
        "å®Ŀ",
        -1.0
      ],
      [
        "æļ",
        -1.0
      ],
      [
        "ÃŃ",
        -1.0
      ],
      [
        "èİ·å¾Ĺ",
        -1.0
      ],
      [
        "sten",
        -1.0
      ],
      [
        "ıå¤",
        -1.0
      ],
      [
        "vo",
        -1.0
      ],
      [
        "ç¦»",
        -1.0
      ],
      [
        "ä¾Ŀ",
        -1.0
      ],
      [
        "çļĦæĸ¹",
        -1.0
      ],
      [
        "çĶļèĩ³",
        -1.0
      ],
      [
        "é¢Ħ",
        -1.0
      ],
      [
        "nce",
        -1.0
      ],
      [
        "å¤Ł",
        -1.0
      ],
      [
        "é»ĳ",
        -1.0
      ],
      [
        "åĬŁèĥ",
        -1.0
      ],
      [
        "din",
        -1.0
      ],
      [
        "ark",
        -1.0
      ],
      [
        "æ¯Ķè¾",
        -1.0
      ],
      [
        "å·¥ç¨",
        -1.0
      ],
      [
        "ç³»åĪĹ",
        -1.0
      ],
      [
        "åĪĩ",
        -1.0
      ],
      [
        "anl",
        -1.0
      ],
      [
        "inin",
        -1.0
      ],
      [
        "®ä¸",
        -1.0
      ],
      [
        "éħĴ",
        -1.0
      ],
      [
        "lie",
        -1.0
      ],
      [
        "¶äº",
        -1.0
      ],
      [
        "çĶ±äºİ",
        -1.0
      ],
      [
        "æľĢå¤",
        -1.0
      ],
      [
        "æĸŃ",
        -1.0
      ],
      [
        "æĹħ",
        -1.0
      ],
      [
        "å®¤",
        -1.0
      ],
      [
        "erle",
        -1.0
      ],
      [
        "tÄ±r",
        -1.0
      ],
      [
        "åĪĴ",
        -1.0
      ],
      [
        "att",
        -1.0
      ],
      [
        "ez",
        -1.0
      ],
      [
        "å°ıè¯´",
        -1.0
      ],
      [
        "½æľī",
        -1.0
      ],
      [
        "rini",
        -1.0
      ],
      [
        "æ²¹",
        -1.0
      ],
      [
        "çļĦåĨ",
        -1.0
      ],
      [
        "ane",
        -1.0
      ],
      [
        "įåĪ",
        -1.0
      ],
      [
        "ģåĪ",
        -1.0
      ],
      [
        "hin",
        -1.0
      ],
      [
        "iÄŁ",
        -1.0
      ],
      [
        "æĿ¿",
        -1.0
      ],
      [
        "ºå¤",
        -1.0
      ],
      [
        "AN",
        -1.0
      ],
      [
        "éĽĨåĽ¢",
        -1.0
      ],
      [
        "åĵį",
        -1.0
      ],
      [
        "Ħå¤§",
        -1.0
      ],
      [
        "ble",
        -1.0
      ],
      [
        "åŃĺåľ¨",
        -1.0
      ],
      [
        "ĢĿ",
        -1.0
      ],
      [
        "Ä±Ä",
        -1.0
      ],
      [
        "©äº",
        -1.0
      ],
      [
        "ç¬¬äº",
        -1.0
      ],
      [
        "ĺåľ¨",
        -1.0
      ],
      [
        "eich",
        -1.0
      ],
      [
        "ä½ľçĶ¨",
        -1.0
      ],
      [
        "èı",
        -1.0
      ],
      [
        "çª",
        -1.0
      ],
      [
        "klar",
        -1.0
      ],
      [
        "ä¼ļè®",
        -1.0
      ],
      [
        "æĿİ",
        -1.0
      ],
      [
        "Ģ¼",
        -1.0
      ],
      [
        "ust",
        -1.0
      ],
      [
        "æĹ©",
        -1.0
      ],
      [
        "åºķ",
        -1.0
      ],
      [
        "å®ŀçİ",
        -1.0
      ],
      [
        "¥äºĨ",
        -1.0
      ],
      [
        "wer",
        -1.0
      ],
      [
        "ĳçĶ",
        -1.0
      ],
      [
        "mme",
        -1.0
      ],
      [
        "ä¸¤ä¸ª",
        -1.0
      ],
      [
        "äºĴèģĶç½ĳ",
        -1.0
      ],
      [
        "è´Ń",
        -1.0
      ],
      [
        "çļĦæĶ",
        -1.0
      ],
      [
        "ola",
        -1.0
      ],
      [
        "è´£",
        -1.0
      ],
      [
        "å¢ŀåĬł",
        -1.0
      ],
      [
        "ä»Ĭå¤©",
        -1.0
      ],
      [
        "çĽĳ",
        -1.0
      ],
      [
        "çļĦå¿",
        -1.0
      ],
      [
        "·æĿ¥",
        -1.0
      ],
      [
        "akt",
        -1.0
      ],
      [
        "æĻº",
        -1.0
      ],
      [
        "å°±ä¸",
        -1.0
      ],
      [
        "ä¸įè¦",
        -1.0
      ],
      [
        "ĠU",
        -1.0
      ],
      [
        "ºåĪ",
        -1.0
      ],
      [
        "ssi",
        -1.0
      ],
      [
        "åį´",
        -1.0
      ],
      [
        "çŃĸ",
        -1.0
      ],
      [
        "Ã³",
        -1.0
      ],
      [
        "tem",
        -1.0
      ],
      [
        "è´¨éĩı",
        -1.0
      ],
      [
        "å¼Ģå±ķ",
        -1.0
      ],
      [
        "¶åħ",
        -1.0
      ],
      [
        "ret",
        -1.0
      ],
      [
        "ĮæĹ",
        -1.0
      ],
      [
        "lte",
        -1.0
      ],
      [
        "èĩªçĦ¶",
        -1.0
      ],
      [
        "åĸľæ¬¢",
        -1.0
      ],
      [
        "kti",
        -1.0
      ],
      [
        "çļĦæĥħ",
        -1.0
      ],
      [
        "è§£åĨ³",
        -1.0
      ],
      [
        "è®¾å¤ĩ",
        -1.0
      ],
      [
        "ºæī",
        -1.0
      ],
      [
        "ç¥¨",
        -1.0
      ],
      [
        "åį¡",
        -1.0
      ],
      [
        "æľīäºº",
        -1.0
      ],
      [
        "çļĦéĹ®é¢ĺ",
        -1.0
      ],
      [
        "aÄŁÄ±",
        -1.0
      ],
      [
        "éĸĭ",
        -1.0
      ],
      [
        "æĿĲ",
        -1.0
      ],
      [
        "anla",
        -1.0
      ],
      [
        "ç²¾ç¥ŀ",
        -1.0
      ],
      [
        "aÄŁ",
        -1.0
      ],
      [
        "ç»´",
        -1.0
      ],
      [
        "ann",
        -1.0
      ],
      [
        "ä¸ĢåĢ",
        -1.0
      ],
      [
        "Ģä¸ĭ",
        -1.0
      ],
      [
        "è§īå¾Ĺ",
        -1.0
      ],
      [
        "æ¶Īè´",
        -1.0
      ],
      [
        "è¿Ľåħ¥",
        -1.0
      ],
      [
        "kler",
        -1.0
      ],
      [
        "alÄ±",
        -1.0
      ],
      [
        "ĠZ",
        -1.0
      ],
      [
        "æĸ¹æ³",
        -1.0
      ],
      [
        "æĪĲåĬŁ",
        -1.0
      ],
      [
        "éĻ©",
        -1.0
      ],
      [
        "ä¸ĢèĪ",
        -1.0
      ],
      [
        "æłĩåĩĨ",
        -1.0
      ],
      [
        "åħ³ç³»",
        -1.0
      ],
      [
        "īäºº",
        -1.0
      ],
      [
        "Ġan",
        -1.0
      ],
      [
        "åģ¥",
        -1.0
      ],
      [
        "ĪĴ",
        -1.0
      ],
      [
        "çī¹åĪ",
        -1.0
      ],
      [
        "æĶ¿çŃ",
        -1.0
      ],
      [
        "mÄ±z",
        -1.0
      ],
      [
        "zu",
        -1.0
      ],
      [
        "rge",
        -1.0
      ],
      [
        "åıĮ",
        -1.0
      ],
      [
        "é¥",
        -1.0
      ],
      [
        "å®ĮæĪ",
        -1.0
      ],
      [
        "ĮæĪĲ",
        -1.0
      ],
      [
        "ĳçĶŁ",
        -1.0
      ],
      [
        "tei",
        -1.0
      ],
      [
        "Ġbe",
        -1.0
      ],
      [
        "imiz",
        -1.0
      ],
      [
        "ura",
        -1.0
      ],
      [
        "ae",
        -1.0
      ],
      [
        "įè¿",
        -1.0
      ],
      [
        "ç¦ı",
        -1.0
      ],
      [
        "å¤ĦçĲĨ",
        -1.0
      ],
      [
        "å¾ĹåĪ°",
        -1.0
      ],
      [
        "çļĦéĩį",
        -1.0
      ],
      [
        "rungs",
        -1.0
      ],
      [
        "è®¡åĪĴ",
        -1.0
      ],
      [
        "å®ļçļĦ",
        -1.0
      ],
      [
        "nsch",
        -1.0
      ],
      [
        "äºĭæĥħ",
        -1.0
      ],
      [
        "¼çļĦ",
        -1.0
      ],
      [
        "çı¾",
        -1.0
      ],
      [
        "ä¸ĭè½",
        -1.0
      ],
      [
        "ĦçļĦ",
        -1.0
      ],
      [
        "ela",
        -1.0
      ],
      [
        "ä¸įåı¯",
        -1.0
      ],
      [
        "ĥŃ",
        -1.0
      ],
      [
        "çļĦåİ",
        -1.0
      ],
      [
        "é»Ħ",
        -1.0
      ],
      [
        "zen",
        -1.0
      ],
      [
        "met",
        -1.0
      ],
      [
        "ms",
        -1.0
      ],
      [
        "mel",
        -1.0
      ],
      [
        "ç¨ĭåº",
        -1.0
      ],
      [
        "ä¸ļåĬ¡",
        -1.0
      ],
      [
        "eren",
        -1.0
      ],
      [
        "ĶçļĦ",
        -1.0
      ],
      [
        "nan",
        -1.0
      ],
      [
        "äºĨè§",
        -1.0
      ],
      [
        "miz",
        -1.0
      ],
      [
        "çĶ¨çļĦ",
        -1.0
      ],
      [
        "ors",
        -1.0
      ],
      [
        "ä»Ĭå¹´",
        -1.0
      ],
      [
        "ĺæľī",
        -1.0
      ],
      [
        "rad",
        -1.0
      ],
      [
        "éĢģ",
        -1.0
      ],
      [
        "ild",
        -1.0
      ],
      [
        "éĴ±",
        -1.0
      ],
      [
        "æľĢå¤§",
        -1.0
      ],
      [
        "åħ·æľ",
        -1.0
      ],
      [
        "åĳ³",
        -1.0
      ],
      [
        "åŁºç¡Ģ",
        -1.0
      ],
      [
        "éĩĳèŀį",
        -1.0
      ],
      [
        "aa",
        -1.0
      ],
      [
        "åĨľ",
        -1.0
      ],
      [
        "åĲ§",
        -1.0
      ],
      [
        "ä»£è¡",
        -1.0
      ],
      [
        "ato",
        -1.0
      ],
      [
        "ä¸įå¤",
        -1.0
      ],
      [
        "ĠMi",
        -1.0
      ],
      [
        "æĻºèĥ½",
        -1.0
      ],
      [
        "è§Ĵ",
        -1.0
      ],
      [
        "åįĬ",
        -1.0
      ],
      [
        "æ¹",
        -1.0
      ],
      [
        "ªæĺ¯",
        -1.0
      ],
      [
        "ç§°",
        -1.0
      ],
      [
        "´å¤ļ",
        -1.0
      ],
      [
        "ä¸įè¿ĩ",
        -1.0
      ],
      [
        "ä»»ä½",
        -1.0
      ],
      [
        "ller",
        -1.0
      ],
      [
        "ĠCa",
        -1.0
      ],
      [
        "izi",
        -1.0
      ],
      [
        "å¼Ģåıĳ",
        -1.0
      ],
      [
        "iss",
        -1.0
      ],
      [
        "ome",
        -1.0
      ],
      [
        "¨åĬ",
        -1.0
      ],
      [
        "Ġdi",
        -1.0
      ],
      [
        "ºå®",
        -1.0
      ],
      [
        "åĽŃ",
        -1.0
      ],
      [
        "ial",
        -1.0
      ],
      [
        "dÄ±ÄŁÄ±",
        -1.0
      ],
      [
        "åĪĽæĸ",
        -1.0
      ],
      [
        "éĵ¶è¡Į",
        -1.0
      ],
      [
        "åľ¨äº",
        -1.0
      ],
      [
        "å¹¶ä¸į",
        -1.0
      ],
      [
        "åİĨ",
        -1.0
      ],
      [
        "åħ¶å®",
        -1.0
      ],
      [
        "EN",
        -1.0
      ],
      [
        "éĻ¤äºĨ",
        -1.0
      ],
      [
        "æĺ¯åĲ¦",
        -1.0
      ],
      [
        "ierung",
        -1.0
      ],
      [
        "enc",
        -1.0
      ],
      [
        "ç¢",
        -1.0
      ],
      [
        "å¨±ä¹",
        -1.0
      ],
      [
        "ªæľī",
        -1.0
      ],
      [
        "Ko",
        -1.0
      ],
      [
        "Ĭå¤©",
        -1.0
      ],
      [
        "pu",
        -1.0
      ],
      [
        "ä¸įçŁ¥éģ",
        -1.0
      ],
      [
        "klarÄ±",
        -1.0
      ],
      [
        "çĶ¨äº",
        -1.0
      ],
      [
        "äº¤æĺ",
        -1.0
      ],
      [
        "ä¸įè¿",
        -1.0
      ],
      [
        "æ±½è½¦",
        -1.0
      ],
      [
        "åºĶçĶ¨",
        -1.0
      ],
      [
        "endi",
        -1.0
      ],
      [
        "æĪĸèĢ",
        -1.0
      ],
      [
        "¯åı",
        -1.0
      ],
      [
        "±ä¹",
        -1.0
      ],
      [
        "èµĦæº",
        -1.0
      ],
      [
        "Ġha",
        -1.0
      ],
      [
        "éĥ¨éĹ",
        -1.0
      ],
      [
        "įå°",
        -1.0
      ],
      [
        "æĪĲäºĨ",
        -1.0
      ],
      [
        "åıĳå¸ĥ",
        -1.0
      ],
      [
        "æıĲé«",
        -1.0
      ],
      [
        "Ĩåħ",
        -1.0
      ],
      [
        "æŃ£åľ",
        -1.0
      ],
      [
        "Ve",
        -1.0
      ],
      [
        "ĭåĲİ",
        -1.0
      ],
      [
        "ħĭ",
        -1.0
      ],
      [
        "äºĴ",
        -1.0
      ],
      [
        "ect",
        -1.0
      ],
      [
        "åħħ",
        -1.0
      ],
      [
        "ĢåĪ",
        -1.0
      ],
      [
        "IN",
        -1.0
      ],
      [
        "Mi",
        -1.0
      ],
      [
        "nat",
        -1.0
      ],
      [
        "Ã¼l",
        -1.0
      ],
      [
        "īæĭ",
        -1.0
      ],
      [
        "kar",
        -1.0
      ],
      [
        "çĽĬ",
        -1.0
      ],
      [
        "å¤ļäº",
        -1.0
      ],
      [
        "ĠIn",
        -1.0
      ],
      [
        "adÄ±",
        -1.0
      ],
      [
        "net",
        -1.0
      ],
      [
        "éĤ£ä¹",
        -1.0
      ],
      [
        "chte",
        -1.0
      ],
      [
        "ote",
        -1.0
      ],
      [
        "çķĻ",
        -1.0
      ],
      [
        "å¾ĹåĪ",
        -1.0
      ],
      [
        "å¿ħé¡»",
        -1.0
      ],
      [
        "åħ¨åĽ",
        -1.0
      ],
      [
        "¯äº",
        -1.0
      ],
      [
        "etr",
        -1.0
      ],
      [
        "schaf",
        -1.0
      ],
      [
        "An",
        -1.0
      ],
      [
        "çŁ³",
        -1.0
      ],
      [
        "Ġpa",
        -1.0
      ],
      [
        "eng",
        -1.0
      ],
      [
        "¨åľ",
        -1.0
      ],
      [
        "æĮī",
        -1.0
      ],
      [
        "åºĶè¯",
        -1.0
      ],
      [
        "alarÄ±",
        -1.0
      ],
      [
        "¸ĩ",
        -1.0
      ],
      [
        "Ã¤n",
        -1.0
      ],
      [
        "aci",
        -1.0
      ],
      [
        "éĩįè¦ģçļĦ",
        -1.0
      ],
      [
        "ida",
        -1.0
      ],
      [
        "åģ¥åº",
        -1.0
      ],
      [
        "ŀçļĦ",
        -1.0
      ],
      [
        "éľĢæ±",
        -1.0
      ],
      [
        "İåħ",
        -1.0
      ],
      [
        "anc",
        -1.0
      ],
      [
        "åĶ®",
        -1.0
      ],
      [
        "Ġta",
        -1.0
      ],
      [
        "lme",
        -1.0
      ],
      [
        "è¿Ľåħ",
        -1.0
      ],
      [
        "èĮĥ",
        -1.0
      ],
      [
        "æľºæŀ",
        -1.0
      ],
      [
        "è½»",
        -1.0
      ],
      [
        "ä¹ĭåīį",
        -1.0
      ],
      [
        "è®¤ä¸",
        -1.0
      ],
      [
        "æİ§åĪ¶",
        -1.0
      ],
      [
        "iÃ",
        -1.0
      ],
      [
        "La",
        -1.0
      ],
      [
        "æĪĳä¸",
        -1.0
      ],
      [
        "åŃ¦æł",
        -1.0
      ],
      [
        "åĵª",
        -1.0
      ],
      [
        "ĠLa",
        -1.0
      ],
      [
        "ilm",
        -1.0
      ],
      [
        "åĽ½åĨħ",
        -1.0
      ],
      [
        "Ch",
        -1.0
      ],
      [
        "è½½",
        -1.0
      ],
      [
        "kte",
        -1.0
      ],
      [
        "ä»·æł",
        -1.0
      ],
      [
        "ty",
        -1.0
      ],
      [
        "lec",
        -1.0
      ],
      [
        "½ä¸į",
        -1.0
      ],
      [
        "ä¸¤ä¸",
        -1.0
      ],
      [
        "Te",
        -1.0
      ],
      [
        "Ľåħ",
        -1.0
      ],
      [
        "æĶ¹éĿ©",
        -1.0
      ],
      [
        "åŁºæľ",
        -1.0
      ],
      [
        "æĻ®",
        -1.0
      ],
      [
        "¨éĩ",
        -1.0
      ],
      [
        "ode",
        -1.0
      ],
      [
        "sb",
        -1.0
      ],
      [
        "ano",
        -1.0
      ],
      [
        "çĬ",
        -1.0
      ],
      [
        "é¦Ļæ¸¯",
        -1.0
      ],
      [
        "åľ°åĮº",
        -1.0
      ],
      [
        "tell",
        -1.0
      ],
      [
        "ĩäº",
        -1.0
      ],
      [
        "olog",
        -1.0
      ],
      [
        "è¶ĬæĿ¥è¶Ĭ",
        -1.0
      ],
      [
        "å®¹æĺĵ",
        -1.0
      ],
      [
        "Mo",
        -1.0
      ],
      [
        "iel",
        -1.0
      ],
      [
        "ģåħ",
        -1.0
      ],
      [
        "è¯Ń",
        -1.0
      ],
      [
        "Ä±nÄ±n",
        -1.0
      ],
      [
        "è©",
        -1.0
      ],
      [
        "ton",
        -1.0
      ],
      [
        "çļĦå·¥",
        -1.0
      ],
      [
        "åĩºæĿ",
        -1.0
      ],
      [
        "æµĭ",
        -1.0
      ],
      [
        "enti",
        -1.0
      ],
      [
        "ä¸Ģåı",
        -1.0
      ],
      [
        "åħįè´¹",
        -1.0
      ],
      [
        "ici",
        -1.0
      ],
      [
        "è¿ĩç¨",
        -1.0
      ],
      [
        "å¼Ģåı",
        -1.0
      ],
      [
        "let",
        -1.0
      ],
      [
        "çļĦéĢ",
        -1.0
      ],
      [
        "ĠAn",
        -1.0
      ],
      [
        "ç»§ç»Ń",
        -1.0
      ],
      [
        "´æĺ¯",
        -1.0
      ],
      [
        "å±ħ",
        -1.0
      ],
      [
        "ä¸Ĭæµ·",
        -1.0
      ],
      [
        "æŃ»",
        -1.0
      ],
      [
        "°æĸ",
        -1.0
      ],
      [
        "åħ¨çĲ",
        -1.0
      ],
      [
        "vers",
        -1.0
      ],
      [
        "è¿Ļä¹",
        -1.0
      ],
      [
        "¯åħ",
        -1.0
      ],
      [
        "cal",
        -1.0
      ],
      [
        "æ£Ģ",
        -1.0
      ],
      [
        "è¯Ħ",
        -1.0
      ],
      [
        "é¾",
        -1.0
      ],
      [
        "ione",
        -1.0
      ],
      [
        "æĸ¼",
        -1.0
      ],
      [
        "çĶ±äº",
        -1.0
      ],
      [
        "ģå¤",
        -1.0
      ],
      [
        "rch",
        -1.0
      ],
      [
        "ä¸Ńå¤",
        -1.0
      ],
      [
        "æ¬¢",
        -1.0
      ],
      [
        "è¿ĻéĩĮ",
        -1.0
      ],
      [
        "çī¹åĪ«",
        -1.0
      ],
      [
        "rp",
        -1.0
      ],
      [
        "nlar",
        -1.0
      ],
      [
        "ire",
        -1.0
      ],
      [
        "com",
        -1.0
      ],
      [
        "æľīäºĽ",
        -1.0
      ],
      [
        "nun",
        -1.0
      ],
      [
        "ling",
        -1.0
      ],
      [
        "åıªæľ",
        -1.0
      ],
      [
        "enb",
        -1.0
      ],
      [
        "ç³»åĪ",
        -1.0
      ],
      [
        "èīº",
        -1.0
      ],
      [
        "æĹħæ¸¸",
        -1.0
      ],
      [
        "èªª",
        -1.0
      ],
      [
        "æł¸",
        -1.0
      ],
      [
        "ģæľ",
        -1.0
      ],
      [
        "tsch",
        -1.0
      ],
      [
        "æķħ",
        -1.0
      ],
      [
        "åĪ©çĶ¨",
        -1.0
      ],
      [
        "é¾Ļ",
        -1.0
      ],
      [
        "įä»",
        -1.0
      ],
      [
        "rdi",
        -1.0
      ],
      [
        "ç¶ĵ",
        -1.0
      ],
      [
        "ĠMo",
        -1.0
      ],
      [
        "ä¸įçŁ",
        -1.0
      ],
      [
        "chn",
        -1.0
      ],
      [
        "asse",
        -1.0
      ],
      [
        "å·´",
        -1.0
      ],
      [
        "ºæĿ",
        -1.0
      ],
      [
        "ä¸ĢåĪ",
        -1.0
      ],
      [
        "æľªæĿ¥",
        -1.0
      ],
      [
        "oi",
        -1.0
      ],
      [
        "rÃ¤",
        -1.0
      ],
      [
        "éĺ¿",
        -1.0
      ],
      [
        "rke",
        -1.0
      ],
      [
        "½åı",
        -1.0
      ],
      [
        "inte",
        -1.0
      ],
      [
        "ä¿Ŀå",
        -1.0
      ],
      [
        "ande",
        -1.0
      ],
      [
        "tungs",
        -1.0
      ],
      [
        "lik",
        -1.0
      ],
      [
        "ç§¯",
        -1.0
      ],
      [
        "æ©Ł",
        -1.0
      ],
      [
        "lma",
        -1.0
      ],
      [
        "ĠTe",
        -1.0
      ],
      [
        "åİĭ",
        -1.0
      ],
      [
        "ters",
        -1.0
      ],
      [
        "åįı",
        -1.0
      ],
      [
        "åº·",
        -1.0
      ],
      [
        "ĸ½",
        -1.0
      ],
      [
        "ĠCh",
        -1.0
      ],
      [
        "çļĦåıĳ",
        -1.0
      ],
      [
        "ç§ĳåŃ¦",
        -1.0
      ],
      [
        "å®Įåħ¨",
        -1.0
      ],
      [
        "åįķä½į",
        -1.0
      ],
      [
        "æıĲåį",
        -1.0
      ],
      [
        "çļĦå·¥ä½ľ",
        -1.0
      ],
      [
        "chs",
        -1.0
      ],
      [
        "æ¨¡å¼ı",
        -1.0
      ],
      [
        "tie",
        -1.0
      ],
      [
        "erst",
        -1.0
      ],
      [
        "ä½ľçĶ",
        -1.0
      ],
      [
        "īåı",
        -1.0
      ],
      [
        "Ĳåħ",
        -1.0
      ],
      [
        "è®°èĢ",
        -1.0
      ],
      [
        "æ¸¯",
        -1.0
      ],
      [
        "äº²",
        -1.0
      ],
      [
        "çļĦå¹",
        -1.0
      ],
      [
        "ÅŁÄ±",
        -1.0
      ],
      [
        "ç»Ī",
        -1.0
      ],
      [
        "aba",
        -1.0
      ],
      [
        "çļĦä¸į",
        -1.0
      ],
      [
        "ºæĿ¥",
        -1.0
      ],
      [
        "rau",
        -1.0
      ],
      [
        "Ĩä»",
        -1.0
      ],
      [
        "çļĦéĩįè¦ģ",
        -1.0
      ],
      [
        "å®¶çļĦ",
        -1.0
      ],
      [
        "ä¸įå°",
        -1.0
      ],
      [
        "fen",
        -1.0
      ],
      [
        "port",
        -1.0
      ],
      [
        "asi",
        -1.0
      ],
      [
        "form",
        -1.0
      ],
      [
        "»åĪ",
        -1.0
      ],
      [
        "ä¸įåĲĮçļĦ",
        -1.0
      ],
      [
        "æ³¨æĦı",
        -1.0
      ],
      [
        "åĽ½åĨ",
        -1.0
      ],
      [
        "æł¹æį",
        -1.0
      ],
      [
        "çĦ¶åĲİ",
        -1.0
      ],
      [
        "è¿ľ",
        -1.0
      ],
      [
        "llen",
        -1.0
      ],
      [
        "erf",
        -1.0
      ],
      [
        "enta",
        -1.0
      ],
      [
        "åĪĨæŀ",
        -1.0
      ],
      [
        "å»ºç«ĭ",
        -1.0
      ],
      [
        "ĠTa",
        -1.0
      ],
      [
        "chaft",
        -1.0
      ],
      [
        "hre",
        -1.0
      ],
      [
        "Pro",
        -1.0
      ],
      [
        "eÅŁ",
        -1.0
      ],
      [
        "ä¸¾",
        -1.0
      ],
      [
        "masÄ±",
        -1.0
      ],
      [
        "sion",
        -1.0
      ],
      [
        "ebi",
        -1.0
      ],
      [
        "åİĨåı²",
        -1.0
      ],
      [
        "Ġme",
        -1.0
      ],
      [
        "liche",
        -1.0
      ],
      [
        "æ²Ĵæľī",
        -1.0
      ],
      [
        "eta",
        -1.0
      ],
      [
        "tm",
        -1.0
      ],
      [
        "¨å®",
        -1.0
      ],
      [
        "ä»ħ",
        -1.0
      ],
      [
        "æľīæķĪ",
        -1.0
      ],
      [
        "éĢĤ",
        -1.0
      ],
      [
        "pen",
        -1.0
      ],
      [
        "ml",
        -1.0
      ],
      [
        "æ¯į",
        -1.0
      ],
      [
        "hs",
        -1.0
      ],
      [
        "ĭå®",
        -1.0
      ],
      [
        "aft",
        -1.0
      ],
      [
        "¹åĪ",
        -1.0
      ],
      [
        "teri",
        -1.0
      ],
      [
        "ssen",
        -1.0
      ],
      [
        "¼Ĺ",
        -1.0
      ],
      [
        "son",
        -1.0
      ],
      [
        "¶åı",
        -1.0
      ],
      [
        "ä»ĭç»į",
        -1.0
      ],
      [
        "iÅ",
        -1.0
      ],
      [
        "çļĦéĹ",
        -1.0
      ],
      [
        "å¸Į",
        -1.0
      ],
      [
        "å°ıè¯",
        -1.0
      ],
      [
        "é¢ĨåŁŁ",
        -1.0
      ],
      [
        "auf",
        -1.0
      ],
      [
        "ä»Ĭå¤",
        -1.0
      ],
      [
        "å¼Ģå±",
        -1.0
      ],
      [
        "çļĦåľ°æĸ¹",
        -1.0
      ],
      [
        "Ta",
        -1.0
      ],
      [
        "nse",
        -1.0
      ],
      [
        "çł´",
        -1.0
      ],
      [
        "åı¤",
        -1.0
      ],
      [
        "èĢģå¸",
        -1.0
      ],
      [
        "è®¡åĪ",
        -1.0
      ],
      [
        "åŃ£",
        -1.0
      ],
      [
        "å¡",
        -1.0
      ],
      [
        "å¤ľ",
        -1.0
      ],
      [
        "éĤĦ",
        -1.0
      ],
      [
        "ç»ĵæŀľ",
        -1.0
      ],
      [
        "å¥³äºº",
        -1.0
      ],
      [
        "æĺİæĺ",
        -1.0
      ],
      [
        "·æľī",
        -1.0
      ],
      [
        "åĲĹ",
        -1.0
      ],
      [
        "rea",
        -1.0
      ],
      [
        "ħļ",
        -1.0
      ],
      [
        "åĲ¬",
        -1.0
      ],
      [
        "åĩºçļĦ",
        -1.0
      ],
      [
        "äººæī",
        -1.0
      ],
      [
        "åľŁ",
        -1.0
      ],
      [
        "èİ·å¾",
        -1.0
      ],
      [
        "schl",
        -1.0
      ],
      [
        "ting",
        -1.0
      ],
      [
        "Ä±zÄ±",
        -1.0
      ],
      [
        "lama",
        -1.0
      ],
      [
        "ick",
        -1.0
      ],
      [
        "éĺ³",
        -1.0
      ],
      [
        "ļåı",
        -1.0
      ],
      [
        "ä»¥ä¸Ĭ",
        -1.0
      ],
      [
        "æĺ¯å¤",
        -1.0
      ],
      [
        "bar",
        -1.0
      ],
      [
        "çĶļèĩ",
        -1.0
      ],
      [
        "Ģĳ",
        -1.0
      ],
      [
        "Ħæĸ¹",
        -1.0
      ],
      [
        "ä¸ļåĬ",
        -1.0
      ],
      [
        "å¥ĩ",
        -1.0
      ],
      [
        "éĽĨåĽ",
        -1.0
      ],
      [
        "æķĪæŀľ",
        -1.0
      ],
      [
        "erungs",
        -1.0
      ],
      [
        "°ä¸Ģ",
        -1.0
      ],
      [
        "é¢Ĩå¯¼",
        -1.0
      ],
      [
        "è¡Ģ",
        -1.0
      ],
      [
        "æ¶Īè´¹èĢħ",
        -1.0
      ],
      [
        "erde",
        -1.0
      ],
      [
        "tig",
        -1.0
      ],
      [
        "æķħäºĭ",
        -1.0
      ],
      [
        "tern",
        -1.0
      ],
      [
        "åĲĦç§į",
        -1.0
      ],
      [
        "Ķä¸",
        -1.0
      ],
      [
        "ĠJ",
        -1.0
      ],
      [
        "Ġte",
        -1.0
      ],
      [
        "unde",
        -1.0
      ],
      [
        "ä¸Ģä»",
        -1.0
      ],
      [
        "ıĤ",
        -1.0
      ],
      [
        "æľīæķ",
        -1.0
      ],
      [
        "åħ¨éĿ¢",
        -1.0
      ],
      [
        "å¯Ĩ",
        -1.0
      ],
      [
        "ºæľ¬",
        -1.0
      ],
      [
        "äº«",
        -1.0
      ],
      [
        "rsc",
        -1.0
      ],
      [
        "inge",
        -1.0
      ],
      [
        "åĽ½çļĦ",
        -1.0
      ],
      [
        "¼Ķ",
        -1.0
      ],
      [
        "æī¿",
        -1.0
      ],
      [
        "¨æĸ",
        -1.0
      ],
      [
        "åŃĺåľ",
        -1.0
      ],
      [
        "è§īå¾",
        -1.0
      ],
      [
        "å¿µ",
        -1.0
      ],
      [
        "___",
        -1.0
      ],
      [
        "eÄŁi",
        -1.0
      ],
      [
        "Ľæĸ°",
        -1.0
      ],
      [
        "äºĨä¸Ģä¸ª",
        -1.0
      ],
      [
        "ŁåĪ",
        -1.0
      ],
      [
        "lard",
        -1.0
      ],
      [
        "å©",
        -1.0
      ],
      [
        "ĳåı",
        -1.0
      ],
      [
        "its",
        -1.0
      ],
      [
        "ç§ĳåŃ",
        -1.0
      ],
      [
        "ĭäºĨ",
        -1.0
      ],
      [
        "è§£åĨ",
        -1.0
      ],
      [
        "èĢģå¸Ī",
        -1.0
      ],
      [
        "los",
        -1.0
      ],
      [
        "ĭå¤",
        -1.0
      ],
      [
        "--",
        -1.0
      ],
      [
        "stell",
        -1.0
      ],
      [
        "eleri",
        -1.0
      ],
      [
        "æľĢåĲİ",
        -1.0
      ],
      [
        "ä¿ĿæĬ¤",
        -1.0
      ],
      [
        "larÄ±mÄ±",
        -1.0
      ],
      [
        "çļĦè¯Ŀ",
        -1.0
      ],
      [
        "è®¾å¤",
        -1.0
      ],
      [
        "åľ¨åħ",
        -1.0
      ],
      [
        "å¯Į",
        -1.0
      ],
      [
        "æ¿Ģ",
        -1.0
      ],
      [
        "Ĩåľ",
        -1.0
      ],
      [
        "Łåľ",
        -1.0
      ],
      [
        "car",
        -1.0
      ],
      [
        "çļĦä¸»",
        -1.0
      ],
      [
        "åĩ»",
        -1.0
      ],
      [
        "yÄ±",
        -1.0
      ],
      [
        "schu",
        -1.0
      ],
      [
        "oma",
        -1.0
      ],
      [
        "çļĦçī",
        -1.0
      ],
      [
        "å¢ŀåĬ",
        -1.0
      ],
      [
        "ure",
        -1.0
      ],
      [
        "dor",
        -1.0
      ],
      [
        "ase",
        -1.0
      ],
      [
        "äººä»",
        -1.0
      ],
      [
        "äºĳ",
        -1.0
      ],
      [
        "Ä±rÄ±",
        -1.0
      ],
      [
        "stan",
        -1.0
      ],
      [
        "ç»Ĩ",
        -1.0
      ],
      [
        "åı²",
        -1.0
      ],
      [
        "kon",
        -1.0
      ],
      [
        "ä¸Ńå¤®",
        -1.0
      ],
      [
        "ä¹Łæľ",
        -1.0
      ],
      [
        "haft",
        -1.0
      ],
      [
        "èĩªçĦ",
        -1.0
      ],
      [
        "å±Ĥ",
        -1.0
      ],
      [
        "¥åĪ",
        -1.0
      ],
      [
        "é«Ķ",
        -1.0
      ],
      [
        "ĠTr",
        -1.0
      ],
      [
        "sy",
        -1.0
      ],
      [
        "æĭ©",
        -1.0
      ],
      [
        "åħ³äºİ",
        -1.0
      ],
      [
        "åİŁåĽł",
        -1.0
      ],
      [
        "ĳæľ",
        -1.0
      ],
      [
        "è´¨éĩ",
        -1.0
      ],
      [
        "æĪĲåĬ",
        -1.0
      ],
      [
        "ven",
        -1.0
      ],
      [
        "kr",
        -1.0
      ],
      [
        "åĳ¢",
        -1.0
      ],
      [
        "ä¸Ģä½",
        -1.0
      ],
      [
        "æĦŁè§ī",
        -1.0
      ],
      [
        "åıĳå¸",
        -1.0
      ],
      [
        "¨éĿ¢",
        -1.0
      ],
      [
        "iert",
        -1.0
      ],
      [
        "±æľ",
        -1.0
      ],
      [
        "ÃŁ",
        -1.0
      ],
      [
        "ico",
        -1.0
      ],
      [
        "é¤",
        -1.0
      ],
      [
        "ack",
        -1.0
      ],
      [
        "è´Łè´£",
        -1.0
      ],
      [
        "åĽ½äº",
        -1.0
      ],
      [
        "æĽ´åĬł",
        -1.0
      ],
      [
        "åĸľæ¬",
        -1.0
      ],
      [
        "åĪ°çļĦ",
        -1.0
      ],
      [
        "¬åħ",
        -1.0
      ],
      [
        "çļĦåıĳå±ķ",
        -1.0
      ],
      [
        "ä¸ĢçĤ¹",
        -1.0
      ],
      [
        "éĻį",
        -1.0
      ],
      [
        "èīºæľ¯",
        -1.0
      ],
      [
        "çļĦæĢ",
        -1.0
      ],
      [
        "çĨ",
        -1.0
      ],
      [
        "uss",
        -1.0
      ],
      [
        "°ä»",
        -1.0
      ],
      [
        "æ¿",
        -1.0
      ],
      [
        "æłĩåĩ",
        -1.0
      ],
      [
        "æľīåħ³",
        -1.0
      ],
      [
        "åıĹåĪ°",
        -1.0
      ],
      [
        "tÃ¼",
        -1.0
      ],
      [
        "oto",
        -1.0
      ],
      [
        "åħ¶å®ŀ",
        -1.0
      ],
      [
        "hte",
        -1.0
      ],
      [
        "įåı¯",
        -1.0
      ],
      [
        "åĴĮä¸",
        -1.0
      ],
      [
        "ä¹ĭä¸Ģ",
        -1.0
      ],
      [
        "och",
        -1.0
      ],
      [
        "ç²¾ç¥",
        -1.0
      ],
      [
        "rda",
        -1.0
      ],
      [
        "LE",
        -1.0
      ],
      [
        "çļĦæĸ°",
        -1.0
      ],
      [
        "rse",
        -1.0
      ],
      [
        "£åľ¨",
        -1.0
      ],
      [
        "enst",
        -1.0
      ],
      [
        "çĮ",
        -1.0
      ],
      [
        "Ã¤t",
        -1.0
      ],
      [
        "nsc",
        -1.0
      ],
      [
        "..",
        -1.0
      ],
      [
        "¥è¿",
        -1.0
      ],
      [
        "Tr",
        -1.0
      ],
      [
        "æĢ§çļĦ",
        -1.0
      ],
      [
        "ain",
        -1.0
      ],
      [
        "åħ³äº",
        -1.0
      ],
      [
        "æīįèĥ½",
        -1.0
      ],
      [
        "Ĳé«ĺ",
        -1.0
      ],
      [
        "æıĲåĩº",
        -1.0
      ],
      [
        "uer",
        -1.0
      ],
      [
        "nic",
        -1.0
      ],
      [
        "åħ³ç³",
        -1.0
      ],
      [
        "ebil",
        -1.0
      ],
      [
        "asÄ±n",
        -1.0
      ],
      [
        "èŃ¦",
        -1.0
      ],
      [
        "ĠHe",
        -1.0
      ],
      [
        "Łæľī",
        -1.0
      ],
      [
        "gan",
        -1.0
      ],
      [
        "çıŃ",
        -1.0
      ],
      [
        "cl",
        -1.0
      ],
      [
        "larÄ±mÄ±z",
        -1.0
      ],
      [
        "lÃ¼",
        -1.0
      ],
      [
        "arla",
        -1.0
      ],
      [
        "äºĭæĥ",
        -1.0
      ],
      [
        "iona",
        -1.0
      ],
      [
        "å¾ĭ",
        -1.0
      ],
      [
        "¸ä¸",
        -1.0
      ],
      [
        "stel",
        -1.0
      ],
      [
        "abili",
        -1.0
      ],
      [
        "éĢ²",
        -1.0
      ],
      [
        "æ°´å¹³",
        -1.0
      ],
      [
        "ril",
        -1.0
      ],
      [
        "éĤ£ä¸",
        -1.0
      ],
      [
        "rop",
        -1.0
      ],
      [
        "ä¸Ĭæµ",
        -1.0
      ],
      [
        "larÄ±m",
        -1.0
      ],
      [
        "å¤ĦçĲ",
        -1.0
      ],
      [
        "zl",
        -1.0
      ],
      [
        "ä¹Łæľī",
        -1.0
      ],
      [
        "abe",
        -1.0
      ],
      [
        "tas",
        -1.0
      ],
      [
        "emen",
        -1.0
      ],
      [
        "ä¸ľè¥¿",
        -1.0
      ],
      [
        "ted",
        -1.0
      ],
      [
        "å½¢æĪĲ",
        -1.0
      ],
      [
        "Ħå°ı",
        -1.0
      ],
      [
        "LA",
        -1.0
      ],
      [
        "èŀ",
        -1.0
      ],
      [
        "çĽ®çļĦ",
        -1.0
      ],
      [
        "mÄ±ÅŁ",
        -1.0
      ],
      [
        "çļĦè´",
        -1.0
      ],
      [
        "nar",
        -1.0
      ],
      [
        "uz",
        -1.0
      ],
      [
        "lb",
        -1.0
      ],
      [
        "nle",
        -1.0
      ],
      [
        "æĿĲæĸĻ",
        -1.0
      ],
      [
        "rten",
        -1.0
      ],
      [
        "ä»ĭ",
        -1.0
      ],
      [
        "å¸¦æĿ¥",
        -1.0
      ],
      [
        "ä»Ĭå¹",
        -1.0
      ],
      [
        "¥æľī",
        -1.0
      ],
      [
        "åĮ»éĻ¢",
        -1.0
      ],
      [
        "è¿ĩç¨ĭä¸Ń",
        -1.0
      ],
      [
        "ayÄ±",
        -1.0
      ],
      [
        "Ľæĸ",
        -1.0
      ],
      [
        "çļĦæĥħåĨµ",
        -1.0
      ],
      [
        "åºĶçĶ",
        -1.0
      ],
      [
        "ä¸¥",
        -1.0
      ],
      [
        "este",
        -1.0
      ],
      [
        "æľĭ",
        -1.0
      ],
      [
        "esin",
        -1.0
      ],
      [
        "ilme",
        -1.0
      ],
      [
        "å°±åı¯ä»¥",
        -1.0
      ],
      [
        "tter",
        -1.0
      ],
      [
        "éĽ»",
        -1.0
      ],
      [
        "ļäºĨ",
        -1.0
      ],
      [
        "ersch",
        -1.0
      ],
      [
        "sun",
        -1.0
      ],
      [
        "åŁºç¡",
        -1.0
      ],
      [
        "å¢ŀéķ¿",
        -1.0
      ],
      [
        "iza",
        -1.0
      ],
      [
        "éĻ¤äº",
        -1.0
      ],
      [
        "īĪ",
        -1.0
      ],
      [
        "kÄ±",
        -1.0
      ],
      [
        "¯į",
        -1.0
      ],
      [
        "åĽłæŃ¤",
        -1.0
      ],
      [
        "éĩĳèŀ",
        -1.0
      ],
      [
        "ogra",
        -1.0
      ],
      [
        "æĹ¶ä»£",
        -1.0
      ],
      [
        "ima",
        -1.0
      ],
      [
        "hm",
        -1.0
      ],
      [
        "çªģ",
        -1.0
      ],
      [
        "İæľ",
        -1.0
      ],
      [
        "æĻºèĥ",
        -1.0
      ],
      [
        "äºī",
        -1.0
      ],
      [
        "æľīå¤",
        -1.0
      ],
      [
        "eceÄŁi",
        -1.0
      ],
      [
        "dis",
        -1.0
      ],
      [
        "Ĺı",
        -1.0
      ],
      [
        "¶åĲ",
        -1.0
      ],
      [
        "İå¤",
        -1.0
      ],
      [
        "åŃĲçļĦ",
        -1.0
      ],
      [
        "åŁºéĩĳ",
        -1.0
      ],
      [
        "bs",
        -1.0
      ],
      [
        "adi",
        -1.0
      ],
      [
        "æľĢæĸ°",
        -1.0
      ],
      [
        "å®¹æĺ",
        -1.0
      ],
      [
        "±åı",
        -1.0
      ],
      [
        "erv",
        -1.0
      ],
      [
        "åĿĩ",
        -1.0
      ],
      [
        "çļĦæ°",
        -1.0
      ],
      [
        "ä¸ªæľ",
        -1.0
      ],
      [
        "idi",
        -1.0
      ],
      [
        "ç¿",
        -1.0
      ],
      [
        "æĺ¯åħ",
        -1.0
      ],
      [
        "Ar",
        -1.0
      ],
      [
        "éĵ¶è¡",
        -1.0
      ],
      [
        "å®¶åºŃ",
        -1.0
      ],
      [
        "He",
        -1.0
      ],
      [
        "åľ°åĮ",
        -1.0
      ],
      [
        "²ä¸",
        -1.0
      ],
      [
        "que",
        -1.0
      ],
      [
        "å¿Ĺ",
        -1.0
      ],
      [
        "kleri",
        -1.0
      ],
      [
        "Di",
        -1.0
      ],
      [
        "rati",
        -1.0
      ],
      [
        "éĸĵ",
        -1.0
      ],
      [
        "°æľ",
        -1.0
      ],
      [
        "æĹ¶ä»",
        -1.0
      ],
      [
        "ĠÃ§",
        -1.0
      ],
      [
        "æ©",
        -1.0
      ],
      [
        "æ´²",
        -1.0
      ],
      [
        "æ±½è½",
        -1.0
      ],
      [
        "åŃ¦éĻ¢",
        -1.0
      ],
      [
        "åĪĿ",
        -1.0
      ],
      [
        "èģĶç½ĳ",
        -1.0
      ],
      [
        "eic",
        -1.0
      ],
      [
        "ja",
        -1.0
      ],
      [
        "bel",
        -1.0
      ],
      [
        "kin",
        -1.0
      ],
      [
        "ç±³",
        -1.0
      ],
      [
        "éĢłæĪĲ",
        -1.0
      ],
      [
        "çļĦå·¥ä½",
        -1.0
      ],
      [
        "arÄ±mÄ±",
        -1.0
      ],
      [
        "åľ¨å¤",
        -1.0
      ],
      [
        "ä¾ĭ",
        -1.0
      ],
      [
        "Ĭäº",
        -1.0
      ],
      [
        "å®¶åº",
        -1.0
      ],
      [
        "ĠAu",
        -1.0
      ],
      [
        "åĮĸçļĦ",
        -1.0
      ],
      [
        "tÃ¤",
        -1.0
      ],
      [
        "laÅŁ",
        -1.0
      ],
      [
        "cho",
        -1.0
      ],
      [
        "ĭä»",
        -1.0
      ],
      [
        "åĽ´",
        -1.0
      ],
      [
        "ç¬ĳ",
        -1.0
      ],
      [
        "é£ŀ",
        -1.0
      ],
      [
        "ose",
        -1.0
      ],
      [
        "éĥ½æľ",
        -1.0
      ],
      [
        "Ġko",
        -1.0
      ],
      [
        "ä¼łç»Ł",
        -1.0
      ],
      [
        "inter",
        -1.0
      ],
      [
        "eÄŁ",
        -1.0
      ],
      [
        "éĵ¶",
        -1.0
      ],
      [
        "nit",
        -1.0
      ],
      [
        "åıªè¦ģ",
        -1.0
      ],
      [
        "arÄ±m",
        -1.0
      ],
      [
        "¤ä¸º",
        -1.0
      ],
      [
        "ĸäº",
        -1.0
      ],
      [
        "åĪ¶åº¦",
        -1.0
      ],
      [
        "gung",
        -1.0
      ],
      [
        "rom",
        -1.0
      ],
      [
        "Ä±lar",
        -1.0
      ],
      [
        "´äº",
        -1.0
      ],
      [
        "ĸèĢħ",
        -1.0
      ],
      [
        "eye",
        -1.0
      ],
      [
        "åĲĮçļĦ",
        -1.0
      ],
      [
        "iÄŁin",
        -1.0
      ],
      [
        "å±ŀ",
        -1.0
      ],
      [
        "chaf",
        -1.0
      ],
      [
        "æĽ¾",
        -1.0
      ],
      [
        "īä»",
        -1.0
      ],
      [
        "ä½ľçļĦ",
        -1.0
      ],
      [
        "rum",
        -1.0
      ],
      [
        "els",
        -1.0
      ],
      [
        "įåħ",
        -1.0
      ],
      [
        "é»ŀ",
        -1.0
      ],
      [
        "mon",
        -1.0
      ],
      [
        "schi",
        -1.0
      ],
      [
        "ond",
        -1.0
      ],
      [
        "ä¹ĭåī",
        -1.0
      ],
      [
        "¹ħ",
        -1.0
      ],
      [
        "ä¹ĭéĹ´",
        -1.0
      ],
      [
        "åŁ¹",
        -1.0
      ],
      [
        "tze",
        -1.0
      ],
      [
        "å¿ħé¡",
        -1.0
      ],
      [
        "çĦ¶åĲ",
        -1.0
      ],
      [
        "è¡£",
        -1.0
      ],
      [
        "è¾¾åĪ°",
        -1.0
      ],
      [
        "ä»ĸä»¬çļĦ",
        -1.0
      ],
      [
        "å®³",
        -1.0
      ],
      [
        "æİ§åĪ",
        -1.0
      ],
      [
        "ä¸įåĪ",
        -1.0
      ],
      [
        "æĺ¯çĶ",
        -1.0
      ],
      [
        "åĪ©çĶ",
        -1.0
      ],
      [
        "è´Ł",
        -1.0
      ],
      [
        "æĹłæ³ķ",
        -1.0
      ],
      [
        "æ¸©",
        -1.0
      ],
      [
        "çĬ¶",
        -1.0
      ],
      [
        "å¯¦",
        -1.0
      ],
      [
        "èµĦéĩĳ",
        -1.0
      ],
      [
        "Al",
        -1.0
      ],
      [
        "red",
        -1.0
      ],
      [
        "rre",
        -1.0
      ],
      [
        "¥å¤",
        -1.0
      ],
      [
        "ino",
        -1.0
      ],
      [
        "ĠLe",
        -1.0
      ],
      [
        "æĸ¹æ¡Ī",
        -1.0
      ],
      [
        "åħįè´",
        -1.0
      ],
      [
        "éĶĢåĶ®",
        -1.0
      ],
      [
        "Ã¼c",
        -1.0
      ],
      [
        "ĠNa",
        -1.0
      ],
      [
        "ä¸įä»ħ",
        -1.0
      ],
      [
        "åıĤåĬł",
        -1.0
      ],
      [
        "»ä¹",
        -1.0
      ],
      [
        "sis",
        -1.0
      ],
      [
        "ahr",
        -1.0
      ],
      [
        "å¤§å¤",
        -1.0
      ],
      [
        "éĥ½ä¸į",
        -1.0
      ],
      [
        "æĩ",
        -1.0
      ],
      [
        "sit",
        -1.0
      ],
      [
        "rh",
        -1.0
      ],
      [
        "ĲäºĨ",
        -1.0
      ],
      [
        "ema",
        -1.0
      ],
      [
        "ä¸įä»",
        -1.0
      ],
      [
        "æĶ¹éĿ",
        -1.0
      ],
      [
        "çļĦåľ°æĸ",
        -1.0
      ],
      [
        "½åľ¨",
        -1.0
      ],
      [
        "iyo",
        -1.0
      ],
      [
        "é¦Ļæ¸",
        -1.0
      ],
      [
        "rv",
        -1.0
      ],
      [
        "rag",
        -1.0
      ],
      [
        "haf",
        -1.0
      ],
      [
        "çļĦæł",
        -1.0
      ],
      [
        "gun",
        -1.0
      ],
      [
        "med",
        -1.0
      ],
      [
        "è´§",
        -1.0
      ],
      [
        "pie",
        -1.0
      ],
      [
        "rem",
        -1.0
      ],
      [
        "æľīä¸Ģä¸ª",
        -1.0
      ],
      [
        "å¾ħ",
        -1.0
      ],
      [
        "èĪ¬",
        -1.0
      ],
      [
        "mit",
        -1.0
      ],
      [
        "çļĦçľ",
        -1.0
      ],
      [
        "äººåı",
        -1.0
      ],
      [
        "åĲ¦",
        -1.0
      ],
      [
        "nh",
        -1.0
      ],
      [
        "ç«¯",
        -1.0
      ],
      [
        "çķ¥",
        -1.0
      ],
      [
        "ä¼ļè®®",
        -1.0
      ],
      [
        "ĠSp",
        -1.0
      ],
      [
        "Įåı",
        -1.0
      ],
      [
        "ĠGr",
        -1.0
      ],
      [
        "å¸®",
        -1.0
      ],
      [
        "åĸĦ",
        -1.0
      ],
      [
        "leme",
        -1.0
      ],
      [
        "¿åħ",
        -1.0
      ],
      [
        "åģľ",
        -1.0
      ],
      [
        "åħ³æ³¨",
        -1.0
      ],
      [
        "arÄ±mÄ±z",
        -1.0
      ],
      [
        "ĠWe",
        -1.0
      ],
      [
        "æĭ¿",
        -1.0
      ],
      [
        "arte",
        -1.0
      ],
      [
        "ars",
        -1.0
      ],
      [
        "æĿ¥è¯´",
        -1.0
      ],
      [
        "å·®",
        -1.0
      ],
      [
        "ç§¯æŀģ",
        -1.0
      ],
      [
        "Ġca",
        -1.0
      ],
      [
        "Po",
        -1.0
      ],
      [
        "tik",
        -1.0
      ],
      [
        "å¸®åĬ©",
        -1.0
      ],
      [
        "åªĴä½ĵ",
        -1.0
      ],
      [
        "sio",
        -1.0
      ],
      [
        "larÄ±nda",
        -1.0
      ],
      [
        "°è¿",
        -1.0
      ],
      [
        "æŃ¢",
        -1.0
      ],
      [
        "æĺ¯æľī",
        -1.0
      ],
      [
        "ç»§ç»",
        -1.0
      ],
      [
        "åįķä½",
        -1.0
      ],
      [
        "ante",
        -1.0
      ],
      [
        "åĬłå¼º",
        -1.0
      ],
      [
        "æĺ¯åı",
        -1.0
      ],
      [
        "é£İéĻ©",
        -1.0
      ],
      [
        "enk",
        -1.0
      ],
      [
        "è´£ä»»",
        -1.0
      ],
      [
        "åħ¬åı¸çļĦ",
        -1.0
      ],
      [
        "éĥ½æľī",
        -1.0
      ],
      [
        "mos",
        -1.0
      ],
      [
        "įå¾",
        -1.0
      ],
      [
        "¯çĶ",
        -1.0
      ],
      [
        "We",
        -1.0
      ],
      [
        "åº§",
        -1.0
      ],
      [
        "ä¸įä¸",
        -1.0
      ],
      [
        "è¿Ļéĩ",
        -1.0
      ],
      [
        "è¡Įä¸º",
        -1.0
      ],
      [
        "èį¯",
        -1.0
      ],
      [
        "stu",
        -1.0
      ],
      [
        "ĠAl",
        -1.0
      ],
      [
        "è®²",
        -1.0
      ],
      [
        "eits",
        -1.0
      ],
      [
        "è¿Ļä¹Ī",
        -1.0
      ],
      [
        "Li",
        -1.0
      ],
      [
        "rz",
        -1.0
      ],
      [
        "Ġä¸",
        -1.0
      ],
      [
        "çļĦå¿ĥ",
        -1.0
      ],
      [
        "elt",
        -1.0
      ],
      [
        "ĠPro",
        -1.0
      ],
      [
        "å»ºç«",
        -1.0
      ],
      [
        "ç¬¬ä¸ī",
        -1.0
      ],
      [
        "zÄ±",
        -1.0
      ],
      [
        "Le",
        -1.0
      ],
      [
        "ize",
        -1.0
      ],
      [
        "æŁĲ",
        -1.0
      ],
      [
        "Ġve",
        -1.0
      ],
      [
        "ç»ĩ",
        -1.0
      ],
      [
        "çİ°åľº",
        -1.0
      ],
      [
        "åĬĽçļĦ",
        -1.0
      ],
      [
        "eil",
        -1.0
      ],
      [
        "å¥¹çļĦ",
        -1.0
      ],
      [
        "ç½Ĺ",
        -1.0
      ],
      [
        "Na",
        -1.0
      ],
      [
        "åİ¿",
        -1.0
      ],
      [
        "ıäº",
        -1.0
      ],
      [
        "è´¢",
        -1.0
      ],
      [
        "ult",
        -1.0
      ],
      [
        "çļ®",
        -1.0
      ],
      [
        "atu",
        -1.0
      ],
      [
        "éĩĩçĶ¨",
        -1.0
      ],
      [
        "use",
        -1.0
      ],
      [
        "åįĥ",
        -1.0
      ],
      [
        "è®¸å¤ļ",
        -1.0
      ],
      [
        "rans",
        -1.0
      ],
      [
        "iÄ",
        -1.0
      ],
      [
        "ban",
        -1.0
      ],
      [
        "æĹħæ¸",
        -1.0
      ],
      [
        "æĵįä½ľ",
        -1.0
      ],
      [
        "erei",
        -1.0
      ],
      [
        "æĶ¿æ²»",
        -1.0
      ],
      [
        "amm",
        -1.0
      ],
      [
        "nma",
        -1.0
      ],
      [
        "å¥³äº",
        -1.0
      ],
      [
        "aki",
        -1.0
      ],
      [
        "æİ¥åıĹ",
        -1.0
      ],
      [
        "Ä±na",
        -1.0
      ],
      [
        "ndan",
        -1.0
      ],
      [
        "çĽ®æłĩ",
        -1.0
      ],
      [
        "å®Įåħ",
        -1.0
      ],
      [
        "ç©ºéĹ´",
        -1.0
      ],
      [
        "ath",
        -1.0
      ],
      [
        "æľªæĿ",
        -1.0
      ],
      [
        "åģĩ",
        -1.0
      ],
      [
        "äºĴèģĶ",
        -1.0
      ],
      [
        "æ²³",
        -1.0
      ],
      [
        "alis",
        -1.0
      ],
      [
        "çĶµåŃĲ",
        -1.0
      ],
      [
        "æĮģç»Ń",
        -1.0
      ],
      [
        "ıä¸Ģ",
        -1.0
      ],
      [
        "æİ¥åı",
        -1.0
      ],
      [
        "æ¨¡å¼",
        -1.0
      ],
      [
        "åħ´",
        -1.0
      ],
      [
        "yi",
        -1.0
      ],
      [
        "spe",
        -1.0
      ],
      [
        "é¤Ĳ",
        -1.0
      ],
      [
        "spr",
        -1.0
      ],
      [
        "oh",
        -1.0
      ],
      [
        "gh",
        -1.0
      ],
      [
        "³äºº",
        -1.0
      ],
      [
        "ç»¼åĲĪ",
        -1.0
      ],
      [
        "¹åı",
        -1.0
      ],
      [
        "ime",
        -1.0
      ],
      [
        "¤äºĨ",
        -1.0
      ],
      [
        "åĲİçļĦ",
        -1.0
      ],
      [
        "tim",
        -1.0
      ],
      [
        "ä½ľåĵģ",
        -1.0
      ],
      [
        "æĺ¥",
        -1.0
      ],
      [
        "TE",
        -1.0
      ],
      [
        "çŁŃ",
        -1.0
      ],
      [
        "æĭ¥æľī",
        -1.0
      ],
      [
        "may",
        -1.0
      ],
      [
        "Ĩæľ",
        -1.0
      ],
      [
        "¨éĩı",
        -1.0
      ],
      [
        "nsi",
        -1.0
      ],
      [
        "å¥ĸ",
        -1.0
      ],
      [
        "ĠRa",
        -1.0
      ],
      [
        "çļĦæĿ",
        -1.0
      ],
      [
        "ä¸įå°ĳ",
        -1.0
      ],
      [
        "çļĦçİ",
        -1.0
      ],
      [
        "æĺ¯å¾",
        -1.0
      ],
      [
        "isti",
        -1.0
      ],
      [
        "ange",
        -1.0
      ],
      [
        "ES",
        -1.0
      ],
      [
        "ä¸ºä»Ģä¹Ī",
        -1.0
      ],
      [
        "Ġcon",
        -1.0
      ],
      [
        "Ľä¸Ģ",
        -1.0
      ],
      [
        "ĪĻ",
        -1.0
      ],
      [
        "¾äº",
        -1.0
      ],
      [
        "¡äº",
        -1.0
      ],
      [
        "yan",
        -1.0
      ],
      [
        "arda",
        -1.0
      ],
      [
        "ism",
        -1.0
      ],
      [
        "ļäºº",
        -1.0
      ],
      [
        "eck",
        -1.0
      ],
      [
        "ĠY",
        -1.0
      ],
      [
        "RA",
        -1.0
      ],
      [
        "¥ä¸Ĭ",
        -1.0
      ],
      [
        "èĤī",
        -1.0
      ],
      [
        "lÄ±ÄŁÄ±",
        -1.0
      ],
      [
        "æĵį",
        -1.0
      ],
      [
        "ille",
        -1.0
      ],
      [
        "kan",
        -1.0
      ],
      [
        "°èĢħ",
        -1.0
      ],
      [
        "åİĨåı",
        -1.0
      ],
      [
        "ä¸ĭçļĦ",
        -1.0
      ],
      [
        "æĹı",
        -1.0
      ],
      [
        "ĠPo",
        -1.0
      ],
      [
        "éĹ´çļĦ",
        -1.0
      ],
      [
        "å¿ĥçļĦ",
        -1.0
      ],
      [
        "äººéĥ½",
        -1.0
      ],
      [
        "ring",
        -1.0
      ],
      [
        "ŀä¸",
        -1.0
      ],
      [
        "çĶ»",
        -1.0
      ],
      [
        "åĬłå¼",
        -1.0
      ],
      [
        "æľĢåĲ",
        -1.0
      ],
      [
        "ĠHo",
        -1.0
      ],
      [
        "ĠDi",
        -1.0
      ],
      [
        "ļå®",
        -1.0
      ],
      [
        "Sp",
        -1.0
      ],
      [
        "æ³¨æĦ",
        -1.0
      ],
      [
        "éĿ©",
        -1.0
      ],
      [
        "Ġsu",
        -1.0
      ],
      [
        "éĩĮçļĦ",
        -1.0
      ],
      [
        "asa",
        -1.0
      ],
      [
        "çļĦå¼",
        -1.0
      ],
      [
        "åĲ¸",
        -1.0
      ],
      [
        "andÄ±",
        -1.0
      ],
      [
        "çķ¶",
        -1.0
      ],
      [
        "fu",
        -1.0
      ],
      [
        "æĻļ",
        -1.0
      ],
      [
        "lk",
        -1.0
      ],
      [
        "Bi",
        -1.0
      ],
      [
        "ank",
        -1.0
      ],
      [
        "łäº",
        -1.0
      ],
      [
        "hy",
        -1.0
      ],
      [
        "erim",
        -1.0
      ],
      [
        "Łå¤",
        -1.0
      ],
      [
        "ette",
        -1.0
      ],
      [
        "nto",
        -1.0
      ],
      [
        "Ħä¸į",
        -1.0
      ],
      [
        "ä¿ĿæĮģ",
        -1.0
      ],
      [
        "Īäº",
        -1.0
      ],
      [
        "ä½ĵéªĮ",
        -1.0
      ],
      [
        "ľçĶ¨",
        -1.0
      ],
      [
        "åĿļ",
        -1.0
      ],
      [
        "æ²Ĵæľ",
        -1.0
      ],
      [
        "Īæľ",
        -1.0
      ],
      [
        "ĠAr",
        -1.0
      ],
      [
        "iyor",
        -1.0
      ],
      [
        "ç¨ĭä¸Ń",
        -1.0
      ],
      [
        "äººä»¬",
        -1.0
      ],
      [
        "æĦŁè§",
        -1.0
      ],
      [
        "Gr",
        -1.0
      ],
      [
        "ĠBi",
        -1.0
      ],
      [
        "å¢ŀéķ",
        -1.0
      ],
      [
        "ä»ĭç»",
        -1.0
      ],
      [
        "ä¸ĭæĿ¥",
        -1.0
      ],
      [
        "ç»ľ",
        -1.0
      ],
      [
        "So",
        -1.0
      ],
      [
        "leÅŁ",
        -1.0
      ],
      [
        "é¢ĨåŁ",
        -1.0
      ],
      [
        "çļĦéĹ®",
        -1.0
      ],
      [
        "arb",
        -1.0
      ],
      [
        "·å¾Ĺ",
        -1.0
      ],
      [
        "rÄ±m",
        -1.0
      ],
      [
        "omp",
        -1.0
      ],
      [
        "åĲĦç§",
        -1.0
      ],
      [
        "æķħäº",
        -1.0
      ],
      [
        "ä¸įåĪ°",
        -1.0
      ],
      [
        "can",
        -1.0
      ],
      [
        "éķ·",
        -1.0
      ],
      [
        "Įåħ¨",
        -1.0
      ],
      [
        "å¥³åŃ",
        -1.0
      ],
      [
        "¦åı",
        -1.0
      ],
      [
        "äººæīį",
        -1.0
      ],
      [
        "Ģİ",
        -1.0
      ],
      [
        "æ²Ĵ",
        -1.0
      ],
      [
        "ĳåħ",
        -1.0
      ],
      [
        "ç¶²",
        -1.0
      ],
      [
        "sÄ±nÄ±",
        -1.0
      ],
      [
        "īå¾Ĺ",
        -1.0
      ],
      [
        "Au",
        -1.0
      ],
      [
        "éŃ",
        -1.0
      ],
      [
        "æŃ¦",
        -1.0
      ],
      [
        "ä¹ħ",
        -1.0
      ],
      [
        "ºå¤§",
        -1.0
      ],
      [
        "æĿ¥äºĨ",
        -1.0
      ],
      [
        "ç´§",
        -1.0
      ],
      [
        "åıĹåĪ",
        -1.0
      ],
      [
        "ä¸Ģå®¶",
        -1.0
      ],
      [
        "ä¿Ŀéļľ",
        -1.0
      ],
      [
        "å°±åı¯ä»",
        -1.0
      ],
      [
        "çŁ¥è¯Ĩ",
        -1.0
      ],
      [
        "è¼",
        -1.0
      ],
      [
        "Ģåħ",
        -1.0
      ],
      [
        "Ġver",
        -1.0
      ],
      [
        "åĨĻ",
        -1.0
      ],
      [
        "äº§çĶŁ",
        -1.0
      ],
      [
        "chw",
        -1.0
      ],
      [
        "ÅŁa",
        -1.0
      ],
      [
        "è§ĦåĪ",
        -1.0
      ],
      [
        "åıĳå±ķçļĦ",
        -1.0
      ],
      [
        "ktion",
        -1.0
      ],
      [
        "nten",
        -1.0
      ],
      [
        "abl",
        -1.0
      ],
      [
        "īåĪ",
        -1.0
      ],
      [
        "RE",
        -1.0
      ],
      [
        "ĠSo",
        -1.0
      ],
      [
        "rÄ±mÄ±",
        -1.0
      ],
      [
        "éĿ¢ä¸",
        -1.0
      ],
      [
        "æķĪæŀ",
        -1.0
      ],
      [
        "æ³¢",
        -1.0
      ],
      [
        "ıè¯´",
        -1.0
      ],
      [
        "ĭäºº",
        -1.0
      ],
      [
        "¨å¤§",
        -1.0
      ],
      [
        "èĹ",
        -1.0
      ],
      [
        "dung",
        -1.0
      ],
      [
        "ä¿ĿæĬ",
        -1.0
      ],
      [
        "rta",
        -1.0
      ],
      [
        "åĪļ",
        -1.0
      ],
      [
        "åĬªåĬĽ",
        -1.0
      ],
      [
        "åİŁåĽ",
        -1.0
      ],
      [
        "Ra",
        -1.0
      ],
      [
        "larda",
        -1.0
      ],
      [
        "æ¯ıä¸Ģ",
        -1.0
      ],
      [
        "å¤«",
        -1.0
      ],
      [
        "çļĦä¸Ģä¸ª",
        -1.0
      ],
      [
        "åī¯",
        -1.0
      ],
      [
        "çļĦäºĭæĥħ",
        -1.0
      ],
      [
        "¶æĺ¯",
        -1.0
      ],
      [
        "æī¹",
        -1.0
      ],
      [
        "·åı",
        -1.0
      ],
      [
        "å®£",
        -1.0
      ],
      [
        "Ĺå¤",
        -1.0
      ],
      [
        "ffe",
        -1.0
      ],
      [
        "erh",
        -1.0
      ],
      [
        "Ä±lÄ±",
        -1.0
      ],
      [
        "icher",
        -1.0
      ],
      [
        "ä¸ĢæĹ",
        -1.0
      ],
      [
        "inden",
        -1.0
      ],
      [
        "ä¸Ģå®ļè¦ģ",
        -1.0
      ],
      [
        "åŁ¹è®Ń",
        -1.0
      ],
      [
        "arr",
        -1.0
      ],
      [
        "Ġun",
        -1.0
      ],
      [
        "è¿ĲåĬ¨",
        -1.0
      ],
      [
        "ä»ĺ",
        -1.0
      ],
      [
        "è¡ĮçļĦ",
        -1.0
      ],
      [
        "éĤ£äºĽ",
        -1.0
      ],
      [
        "ä¸ĢçĤ",
        -1.0
      ],
      [
        "çļĦæĹ¶éĹ´",
        -1.0
      ],
      [
        "å®ŀéĻħ",
        -1.0
      ],
      [
        "Ho",
        -1.0
      ],
      [
        "ºåľ¨",
        -1.0
      ],
      [
        "ä»·åĢ¼",
        -1.0
      ],
      [
        "įè¿ĩ",
        -1.0
      ],
      [
        "Ã¢",
        -1.0
      ],
      [
        "aÃ",
        -1.0
      ],
      [
        "ĸ¼",
        -1.0
      ],
      [
        "Ä±kla",
        -1.0
      ],
      [
        "lay",
        -1.0
      ],
      [
        "İåı",
        -1.0
      ],
      [
        "ika",
        -1.0
      ],
      [
        "arÄ±nda",
        -1.0
      ],
      [
        "¿äº",
        -1.0
      ],
      [
        "å°½",
        -1.0
      ],
      [
        "ppe",
        -1.0
      ],
      [
        "åį°",
        -1.0
      ],
      [
        "aÄ",
        -1.0
      ],
      [
        "ä¸ĢåĲ",
        -1.0
      ],
      [
        "mis",
        -1.0
      ],
      [
        "berg",
        -1.0
      ],
      [
        "¹ī",
        -1.0
      ],
      [
        "įä¸Ģ",
        -1.0
      ],
      [
        "tsc",
        -1.0
      ],
      [
        "å¾Ĺä¸",
        -1.0
      ],
      [
        "è¡¨çİ°",
        -1.0
      ],
      [
        "Ä±ÄŁÄ±nÄ±",
        -1.0
      ],
      [
        "enz",
        -1.0
      ],
      [
        "å½ķ",
        -1.0
      ],
      [
        "¥åľ",
        -1.0
      ],
      [
        "çľŁæŃ£",
        -1.0
      ],
      [
        "Bo",
        -1.0
      ],
      [
        "ono",
        -1.0
      ],
      [
        "åħ±åĲĮ",
        -1.0
      ],
      [
        "©å®",
        -1.0
      ],
      [
        "unt",
        -1.0
      ],
      [
        "Ä±yor",
        -1.0
      ],
      [
        "die",
        -1.0
      ],
      [
        "ä¸Ģå¹",
        -1.0
      ],
      [
        "ischen",
        -1.0
      ],
      [
        "ĠFa",
        -1.0
      ],
      [
        "æĥ³è¦ģ",
        -1.0
      ],
      [
        "éĩįçĤ¹",
        -1.0
      ],
      [
        "Fa",
        -1.0
      ],
      [
        "æĪĳåĽ½",
        -1.0
      ],
      [
        "acaÄŁÄ±",
        -1.0
      ],
      [
        "çļĦæĸ¹å¼ı",
        -1.0
      ],
      [
        "eld",
        -1.0
      ],
      [
        "itte",
        -1.0
      ],
      [
        "keit",
        -1.0
      ],
      [
        "Łå°",
        -1.0
      ],
      [
        "»äºĨ",
        -1.0
      ],
      [
        "æĽ´åĬ",
        -1.0
      ],
      [
        "Įå¤",
        -1.0
      ],
      [
        "èīºæľ",
        -1.0
      ],
      [
        "ç®Ģ",
        -1.0
      ],
      [
        "ç·",
        -1.0
      ],
      [
        "able",
        -1.0
      ],
      [
        "ĩåı",
        -1.0
      ],
      [
        "ÄŁini",
        -1.0
      ],
      [
        "Įå®",
        -1.0
      ],
      [
        "ĮåĲ",
        -1.0
      ],
      [
        "ç»ıèĲ¥",
        -1.0
      ],
      [
        "lerim",
        -1.0
      ],
      [
        "Ġbi",
        -1.0
      ],
      [
        "å¯Ł",
        -1.0
      ],
      [
        "çĶ¢",
        -1.0
      ],
      [
        "nze",
        -1.0
      ],
      [
        "æĿ¥è¯",
        -1.0
      ],
      [
        "å»ºçŃĳ",
        -1.0
      ],
      [
        "arm",
        -1.0
      ],
      [
        "ºæĪ",
        -1.0
      ],
      [
        "cia",
        -1.0
      ],
      [
        "Si",
        -1.0
      ],
      [
        "çļĦæľĢ",
        -1.0
      ],
      [
        "æľĢå¤§çļĦ",
        -1.0
      ],
      [
        "ĭæĿ¥",
        -1.0
      ],
      [
        "mak",
        -1.0
      ],
      [
        "çļĦçĶŁæ´»",
        -1.0
      ],
      [
        "anti",
        -1.0
      ],
      [
        "rne",
        -1.0
      ],
      [
        "¥çľĭ",
        -1.0
      ],
      [
        "rot",
        -1.0
      ],
      [
        "tla",
        -1.0
      ],
      [
        "åĨ³å®ļ",
        -1.0
      ],
      [
        "oa",
        -1.0
      ],
      [
        "çļĦå¥³",
        -1.0
      ],
      [
        "ĠBo",
        -1.0
      ],
      [
        "onen",
        -1.0
      ],
      [
        "è´Łè´",
        -1.0
      ],
      [
        "åıĤä¸İ",
        -1.0
      ],
      [
        "atÄ±",
        -1.0
      ],
      [
        "anda",
        -1.0
      ],
      [
        "Ġal",
        -1.0
      ],
      [
        "æĽ´å¤ļçļĦ",
        -1.0
      ],
      [
        "æ°´å¹",
        -1.0
      ],
      [
        "ä¼¼",
        -1.0
      ],
      [
        "lag",
        -1.0
      ],
      [
        "æĺ¾ç¤º",
        -1.0
      ],
      [
        "chr",
        -1.0
      ],
      [
        "å½¢æĪ",
        -1.0
      ],
      [
        "īæľ",
        -1.0
      ],
      [
        "Ġen",
        -1.0
      ],
      [
        "rech",
        -1.0
      ],
      [
        "įåĪ°",
        -1.0
      ],
      [
        "ogr",
        -1.0
      ],
      [
        "onal",
        -1.0
      ],
      [
        "our",
        -1.0
      ],
      [
        "ä½łä»",
        -1.0
      ],
      [
        "dÄ±ÄŁ",
        -1.0
      ],
      [
        "Ġpro",
        -1.0
      ],
      [
        "wei",
        -1.0
      ],
      [
        "æ½",
        -1.0
      ],
      [
        "sat",
        -1.0
      ],
      [
        "Įæĺ¯",
        -1.0
      ],
      [
        "¶åĲİ",
        -1.0
      ],
      [
        "åīįçļĦ",
        -1.0
      ],
      [
        "lerde",
        -1.0
      ],
      [
        "igen",
        -1.0
      ],
      [
        "ceÄŁi",
        -1.0
      ],
      [
        "gn",
        -1.0
      ],
      [
        "æľ¨",
        -1.0
      ],
      [
        "ĠLi",
        -1.0
      ],
      [
        "æıĲåĩ",
        -1.0
      ],
      [
        "æį¢",
        -1.0
      ],
      [
        "ĠWa",
        -1.0
      ],
      [
        "çļĦé«ĺ",
        -1.0
      ],
      [
        "spi",
        -1.0
      ],
      [
        "æīįèĥ",
        -1.0
      ],
      [
        "åı¦ä¸Ģ",
        -1.0
      ],
      [
        "ĭåīį",
        -1.0
      ],
      [
        "ĠBr",
        -1.0
      ],
      [
        "ä½łä»¬",
        -1.0
      ],
      [
        "ologi",
        -1.0
      ],
      [
        "³åħ",
        -1.0
      ],
      [
        "è¯¾",
        -1.0
      ],
      [
        "æİ¨è¿Ľ",
        -1.0
      ],
      [
        "MA",
        -1.0
      ],
      [
        "çļĦæĪĲ",
        -1.0
      ],
      [
        "AL",
        -1.0
      ],
      [
        "èī²çļĦ",
        -1.0
      ],
      [
        "ç´¢",
        -1.0
      ],
      [
        "Ġw",
        -1.0
      ],
      [
        "sini",
        -1.0
      ],
      [
        "ľäº",
        -1.0
      ],
      [
        "Ĺ©",
        -1.0
      ],
      [
        "´æľ",
        -1.0
      ],
      [
        "åł´",
        -1.0
      ],
      [
        "åı¦",
        -1.0
      ],
      [
        "è¦ģä¸",
        -1.0
      ],
      [
        "æĿĲæĸ",
        -1.0
      ],
      [
        "ses",
        -1.0
      ],
      [
        "aka",
        -1.0
      ],
      [
        "tha",
        -1.0
      ],
      [
        "æĺ¯å¾Ī",
        -1.0
      ],
      [
        "bes",
        -1.0
      ],
      [
        "ĠSi",
        -1.0
      ],
      [
        "èī¯",
        -1.0
      ],
      [
        "nung",
        -1.0
      ],
      [
        "sf",
        -1.0
      ],
      [
        "amp",
        -1.0
      ],
      [
        "åľ°ä¸",
        -1.0
      ],
      [
        "åħŃ",
        -1.0
      ],
      [
        "nos",
        -1.0
      ],
      [
        "¶å°",
        -1.0
      ],
      [
        "įäºĨ",
        -1.0
      ],
      [
        "åŃ¦éĻ",
        -1.0
      ],
      [
        "¨äºĨ",
        -1.0
      ],
      [
        "å¸¦æĿ",
        -1.0
      ],
      [
        "rap",
        -1.0
      ],
      [
        "Ã³n",
        -1.0
      ],
      [
        "°å®",
        -1.0
      ],
      [
        "éħĴåºĹ",
        -1.0
      ],
      [
        "ear",
        -1.0
      ],
      [
        "lde",
        -1.0
      ],
      [
        "¹åħ",
        -1.0
      ],
      [
        "ps",
        -1.0
      ],
      [
        "ĺäº",
        -1.0
      ],
      [
        "īäºĨ",
        -1.0
      ],
      [
        "tler",
        -1.0
      ],
      [
        "¥è¯´",
        -1.0
      ],
      [
        "Ģåį",
        -1.0
      ],
      [
        "Ġmi",
        -1.0
      ],
      [
        "åħ§",
        -1.0
      ],
      [
        "æ³ķå¾ĭ",
        -1.0
      ],
      [
        "åĩºåı",
        -1.0
      ],
      [
        "01",
        -1.0
      ],
      [
        "til",
        -1.0
      ],
      [
        "je",
        -1.0
      ],
      [
        "ierte",
        -1.0
      ],
      [
        "ä»¤",
        -1.0
      ],
      [
        "ole",
        -1.0
      ],
      [
        "Ĩä¸Ń",
        -1.0
      ],
      [
        "Sta",
        -1.0
      ],
      [
        "åĩĨå¤ĩ",
        -1.0
      ],
      [
        "Łå®",
        -1.0
      ],
      [
        "å¥Ĺ",
        -1.0
      ],
      [
        "åħ³æ³",
        -1.0
      ],
      [
        "åķĨåĵģ",
        -1.0
      ],
      [
        "çĭ¬",
        -1.0
      ],
      [
        "æ±½",
        -1.0
      ],
      [
        "æĭĽ",
        -1.0
      ],
      [
        "åĽłæŃ",
        -1.0
      ],
      [
        "ä¼łç»",
        -1.0
      ],
      [
        "enl",
        -1.0
      ],
      [
        "ä¹Łåı¯ä»¥",
        -1.0
      ],
      [
        "åĮ»éĻ",
        -1.0
      ],
      [
        "nci",
        -1.0
      ],
      [
        "çĸĹ",
        -1.0
      ],
      [
        "¨ä¸Ń",
        -1.0
      ],
      [
        "ä¹ĭéĹ",
        -1.0
      ],
      [
        "ä¸Ģä½į",
        -1.0
      ],
      [
        "æľīå¾Īå¤",
        -1.0
      ],
      [
        "å¦Ī",
        -1.0
      ],
      [
        "ºä¹",
        -1.0
      ],
      [
        "alle",
        -1.0
      ],
      [
        "å¿«éĢ",
        -1.0
      ],
      [
        "rimi",
        -1.0
      ],
      [
        "ç»ıè¿ĩ",
        -1.0
      ],
      [
        "æľĢæĸ",
        -1.0
      ],
      [
        "¨åĲ",
        -1.0
      ],
      [
        "Ŀä¸",
        -1.0
      ],
      [
        "ĩä»",
        -1.0
      ],
      [
        "esse",
        -1.0
      ],
      [
        "ºä¼",
        -1.0
      ],
      [
        "Da",
        -1.0
      ],
      [
        "erat",
        -1.0
      ],
      [
        "åĪ»",
        -1.0
      ],
      [
        "mad",
        -1.0
      ],
      [
        "æĺ¯ä»Ģä¹Ī",
        -1.0
      ],
      [
        "kal",
        -1.0
      ],
      [
        "çī¹èī²",
        -1.0
      ],
      [
        "ong",
        -1.0
      ],
      [
        "çĶ·äºº",
        -1.0
      ],
      [
        "éĹľ",
        -1.0
      ],
      [
        "ç«ł",
        -1.0
      ],
      [
        "åŁºéĩ",
        -1.0
      ],
      [
        "è¯»",
        -1.0
      ],
      [
        "å°ĩ",
        -1.0
      ],
      [
        "uri",
        -1.0
      ],
      [
        "èĪª",
        -1.0
      ],
      [
        "rar",
        -1.0
      ],
      [
        "è§Ħå®ļ",
        -1.0
      ],
      [
        "ersc",
        -1.0
      ],
      [
        "ement",
        -1.0
      ],
      [
        "diÄŁi",
        -1.0
      ],
      [
        "åıªè¦",
        -1.0
      ],
      [
        "lerinde",
        -1.0
      ],
      [
        "ä¸ªæľĪ",
        -1.0
      ],
      [
        "ĭæĿ",
        -1.0
      ],
      [
        "ç§»",
        -1.0
      ],
      [
        "mesi",
        -1.0
      ],
      [
        "åĽłçĤº",
        -1.0
      ],
      [
        "Ne",
        -1.0
      ],
      [
        "įå®",
        -1.0
      ],
      [
        "įè´",
        -1.0
      ],
      [
        "¯æľī",
        -1.0
      ],
      [
        "åĩı",
        -1.0
      ],
      [
        "ila",
        -1.0
      ],
      [
        "nds",
        -1.0
      ],
      [
        "hle",
        -1.0
      ],
      [
        "°åħ",
        -1.0
      ],
      [
        "ĠPe",
        -1.0
      ],
      [
        "lend",
        -1.0
      ],
      [
        "èº«ä½ĵ",
        -1.0
      ],
      [
        "tad",
        -1.0
      ],
      [
        "lg",
        -1.0
      ],
      [
        "dos",
        -1.0
      ],
      [
        "¾åľ¨",
        -1.0
      ],
      [
        "è´£ä»",
        -1.0
      ],
      [
        "ç»ĵæŀĦ",
        -1.0
      ],
      [
        "æķ´ä¸ª",
        -1.0
      ],
      [
        "æ¯ĶèµĽ",
        -1.0
      ],
      [
        "Ä±ndan",
        -1.0
      ],
      [
        "bilir",
        -1.0
      ],
      [
        "ä»Ģéº",
        -1.0
      ],
      [
        "æĭ¬",
        -1.0
      ],
      [
        "å®ŀæĸ½",
        -1.0
      ],
      [
        "ä¹Łåı¯",
        -1.0
      ],
      [
        "ä¸»ä¹ī",
        -1.0
      ],
      [
        "çļĦåĩ",
        -1.0
      ],
      [
        "lerimiz",
        -1.0
      ],
      [
        "è¾¾åĪ",
        -1.0
      ],
      [
        "ģæľī",
        -1.0
      ],
      [
        "emo",
        -1.0
      ],
      [
        "ç¯",
        -1.0
      ],
      [
        "sha",
        -1.0
      ],
      [
        "Ä±kl",
        -1.0
      ],
      [
        "iter",
        -1.0
      ],
      [
        "·äºº",
        -1.0
      ],
      [
        "åĪ¶åº",
        -1.0
      ],
      [
        "çļĦèĢ",
        -1.0
      ],
      [
        "åĪĨäº«",
        -1.0
      ],
      [
        "Pe",
        -1.0
      ],
      [
        "çļĦä¸Ń",
        -1.0
      ],
      [
        "ç©¿",
        -1.0
      ],
      [
        "çļĦç§",
        -1.0
      ],
      [
        "ä¸įå¾Ĺ",
        -1.0
      ],
      [
        "Īä»",
        -1.0
      ],
      [
        "åĪĨäº",
        -1.0
      ],
      [
        "ON",
        -1.0
      ],
      [
        "¨äºİ",
        -1.0
      ],
      [
        "æľĢå¥½",
        -1.0
      ],
      [
        "enm",
        -1.0
      ],
      [
        "ĢåĲİ",
        -1.0
      ],
      [
        "æĿ¡ä»¶",
        -1.0
      ],
      [
        "nie",
        -1.0
      ],
      [
        "anlar",
        -1.0
      ],
      [
        "sal",
        -1.0
      ],
      [
        "è¶ħè¿ĩ",
        -1.0
      ],
      [
        "ä¸ºä»Ģä¹",
        -1.0
      ],
      [
        "å¯¼èĩ´",
        -1.0
      ],
      [
        "äº¤æµģ",
        -1.0
      ],
      [
        "ĭåħ",
        -1.0
      ],
      [
        "æĹłæ³",
        -1.0
      ],
      [
        "rsi",
        -1.0
      ],
      [
        "lerimi",
        -1.0
      ],
      [
        "å¤ļäºº",
        -1.0
      ],
      [
        "æľīå¾Ī",
        -1.0
      ],
      [
        "è½¯ä»¶",
        -1.0
      ],
      [
        "ä½ĵç³»",
        -1.0
      ],
      [
        "ĭåį",
        -1.0
      ],
      [
        "mÃ¼",
        -1.0
      ],
      [
        "æĸ°éĹ»",
        -1.0
      ],
      [
        "rab",
        -1.0
      ],
      [
        "åħ«",
        -1.0
      ],
      [
        "Br",
        -1.0
      ],
      [
        "èµĦéĩ",
        -1.0
      ],
      [
        "eiten",
        -1.0
      ],
      [
        "iere",
        -1.0
      ],
      [
        "lÃ¤",
        -1.0
      ],
      [
        "ç»§",
        -1.0
      ],
      [
        "dÃ¼",
        -1.0
      ],
      [
        "mati",
        -1.0
      ],
      [
        "bet",
        -1.0
      ],
      [
        "ings",
        -1.0
      ],
      [
        "tec",
        -1.0
      ],
      [
        "ä¼ļæľī",
        -1.0
      ],
      [
        "dun",
        -1.0
      ],
      [
        "çºª",
        -1.0
      ],
      [
        "½ä¼ļ",
        -1.0
      ],
      [
        "å»ºè®®",
        -1.0
      ],
      [
        "äº¤éĢļ",
        -1.0
      ],
      [
        "ĨåĲ",
        -1.0
      ],
      [
        "·å¾",
        -1.0
      ],
      [
        "iu",
        -1.0
      ],
      [
        "iten",
        -1.0
      ],
      [
        "¥ä¸ĭ",
        -1.0
      ],
      [
        "æĸ¹æ¡",
        -1.0
      ],
      [
        "dia",
        -1.0
      ],
      [
        "å¿«éĢŁ",
        -1.0
      ],
      [
        "æİ¨åĬ¨",
        -1.0
      ],
      [
        "¦ä¸Ģ",
        -1.0
      ],
      [
        "oe",
        -1.0
      ],
      [
        "Wa",
        -1.0
      ],
      [
        "lac",
        -1.0
      ],
      [
        "ä¿Ŀéļ",
        -1.0
      ],
      [
        "rak",
        -1.0
      ],
      [
        "ŁåĽ",
        -1.0
      ],
      [
        "éļıçĿĢ",
        -1.0
      ],
      [
        "¤äºº",
        -1.0
      ],
      [
        "åľ¨å®",
        -1.0
      ],
      [
        "è»",
        -1.0
      ],
      [
        "ªæĿ¥",
        -1.0
      ],
      [
        "mam",
        -1.0
      ],
      [
        "sg",
        -1.0
      ],
      [
        "nlarÄ±",
        -1.0
      ],
      [
        "anz",
        -1.0
      ],
      [
        "ä»»åĬ¡",
        -1.0
      ],
      [
        "ºĴ",
        -1.0
      ],
      [
        "æĬ¥åĳĬ",
        -1.0
      ],
      [
        "ient",
        -1.0
      ],
      [
        "éĶĢåĶ",
        -1.0
      ],
      [
        "zd",
        -1.0
      ],
      [
        "ä½ĵèĤ²",
        -1.0
      ],
      [
        "amÄ±",
        -1.0
      ],
      [
        "çĦ¡",
        -1.0
      ],
      [
        "Ä±klarÄ±",
        -1.0
      ],
      [
        "åıĤåĬ",
        -1.0
      ],
      [
        "èĢħçļĦ",
        -1.0
      ],
      [
        "éĤ£äº",
        -1.0
      ],
      [
        "10",
        -1.0
      ],
      [
        "Ġdes",
        -1.0
      ],
      [
        "è®Ń",
        -1.0
      ],
      [
        "Łåľ¨",
        -1.0
      ],
      [
        "įå¤§",
        -1.0
      ],
      [
        "éľ²",
        -1.0
      ],
      [
        "rsa",
        -1.0
      ],
      [
        "åħĪçĶŁ",
        -1.0
      ],
      [
        "tand",
        -1.0
      ],
      [
        "åı¯æĺ¯",
        -1.0
      ],
      [
        "ç¡®å®",
        -1.0
      ],
      [
        "å¤©ä¸",
        -1.0
      ],
      [
        "pf",
        -1.0
      ],
      [
        "ļåħ",
        -1.0
      ],
      [
        "lad",
        -1.0
      ],
      [
        "ĴçļĦ",
        -1.0
      ],
      [
        "ä¸Ģå¹´",
        -1.0
      ],
      [
        "éģĩ",
        -1.0
      ],
      [
        "eve",
        -1.0
      ],
      [
        "cio",
        -1.0
      ],
      [
        "Ä±klar",
        -1.0
      ],
      [
        "èĥĮ",
        -1.0
      ],
      [
        "rlar",
        -1.0
      ],
      [
        "éĩıçļĦ",
        -1.0
      ],
      [
        "wo",
        -1.0
      ],
      [
        "åįģåĪĨ",
        -1.0
      ],
      [
        "è³ĩ",
        -1.0
      ],
      [
        "ĤĦ",
        -1.0
      ],
      [
        "esa",
        -1.0
      ],
      [
        "łåħ",
        -1.0
      ],
      [
        "åħ¨éĥ¨",
        -1.0
      ],
      [
        "æĮģç»",
        -1.0
      ],
      [
        "æĺ¯åĽłä¸º",
        -1.0
      ],
      [
        "çļĦèµ",
        -1.0
      ],
      [
        "Ġso",
        -1.0
      ],
      [
        "tisch",
        -1.0
      ],
      [
        "ļä¸Ĭ",
        -1.0
      ],
      [
        "ĠDa",
        -1.0
      ],
      [
        "åį«",
        -1.0
      ],
      [
        "ensch",
        -1.0
      ],
      [
        "oru",
        -1.0
      ],
      [
        "ļæľī",
        -1.0
      ],
      [
        "ä¸Ńåľ",
        -1.0
      ],
      [
        "çĶļ",
        -1.0
      ],
      [
        "æľºä¼ļ",
        -1.0
      ],
      [
        "ciÃ³n",
        -1.0
      ],
      [
        "enn",
        -1.0
      ],
      [
        "æł¸å¿ĥ",
        -1.0
      ],
      [
        "ĠGa",
        -1.0
      ],
      [
        "rol",
        -1.0
      ],
      [
        "ä¸Ģä¸ªäº",
        -1.0
      ],
      [
        "çļĦåŁº",
        -1.0
      ],
      [
        "çĻ»",
        -1.0
      ],
      [
        "å°±ä¼ļ",
        -1.0
      ],
      [
        "ç©ºéĹ",
        -1.0
      ],
      [
        "èĻ½",
        -1.0
      ],
      [
        "çļĦé£",
        -1.0
      ],
      [
        "enden",
        -1.0
      ],
      [
        "Ã¼h",
        -1.0
      ],
      [
        "zin",
        -1.0
      ],
      [
        "dl",
        -1.0
      ],
      [
        "é£İéĻ",
        -1.0
      ],
      [
        "åĪ¶éĢł",
        -1.0
      ],
      [
        "İä¸Ģ",
        -1.0
      ],
      [
        "å¸®åĬ",
        -1.0
      ],
      [
        "nger",
        -1.0
      ],
      [
        "æĪĳåĽ",
        -1.0
      ],
      [
        "ock",
        -1.0
      ],
      [
        "åª",
        -1.0
      ],
      [
        "ĩåħ",
        -1.0
      ],
      [
        "rich",
        -1.0
      ],
      [
        "ç§¯æŀ",
        -1.0
      ],
      [
        "Ġpo",
        -1.0
      ],
      [
        "åªĴä½",
        -1.0
      ],
      [
        "rmi",
        -1.0
      ],
      [
        "è®¸å¤",
        -1.0
      ],
      [
        "çļĦèĥ",
        -1.0
      ],
      [
        "æĮīçħ§",
        -1.0
      ],
      [
        "ä¸ĢåĪĩ",
        -1.0
      ],
      [
        "æ¯Ķèµ",
        -1.0
      ],
      [
        "åľ¨ä»",
        -1.0
      ],
      [
        "ç®Ģåįķ",
        -1.0
      ],
      [
        "rer",
        -1.0
      ],
      [
        "´ä»",
        -1.0
      ],
      [
        "ater",
        -1.0
      ],
      [
        "å°±åı¯",
        -1.0
      ],
      [
        "æĶ¶åħ¥",
        -1.0
      ],
      [
        "dar",
        -1.0
      ],
      [
        "bile",
        -1.0
      ],
      [
        "hes",
        -1.0
      ],
      [
        "çļĦäºĭæĥ",
        -1.0
      ],
      [
        "Ĵæľī",
        -1.0
      ],
      [
        "caÄŁÄ±",
        -1.0
      ],
      [
        "ress",
        -1.0
      ],
      [
[...]
