{
  "version": "1.0",
  "truncation": null,
  "padding": null,
  "added_tokens": [
    {
      "id": 0,
      "content": "<|endoftext|>",
      "single_word": false,
      "lstrip": false,
      "rstrip": false,
      "normalized": false,
      "special": true
    },
    {
      "id": 1,
      "content": "<|padding|>",
      "single_word": false,
      "lstrip": false,
      "rstrip": false,
      "normalized": false,
      "special": true
    }
  ],
  "normalizer": {
    "type": "NFC"
  },
  "pre_tokenizer": {
    "type": "ByteLevel",
    "add_prefix_space": false,
    "trim_offsets": true,
    "use_regex": true
  },
  "post_processor": {
    "type": "ByteLevel",
    "add_prefix_space": true,
    "trim_offsets": false,
    "use_regex": true
  },
  "decoder": {
    "type": "ByteLevel",
    "add_prefix_space": true,
    "trim_offsets": true,
    "use_regex": true
  },
  "model": {
    "type": "Unigram",
    "unk_id": null,
    "vocab": [
      [
        "<|endoftext|>",
        0.0
      ],
      [
        "<|padding|>",
        0.0
      ],
      [
        "Ġ",
        -1.865081798378224
      ],
      [
        "s",
        -3.285241426609584
      ],
      [
        ",",
        -3.6329426624850143
      ],
      [
        ".",
        -3.674742426551809
      ],
      [
        "Ġthe",
        -3.90162933081006
      ],
      [
        "a",
        -4.076883995396738
      ],
      [
        "e",
        -4.176073773571453
      ],
      [
        "Ċ",
        -4.239499413553933
      ],
      [
        "Ġof",
        -4.411777253333501
      ],
      [
        "Ġand",
        -4.620586139344084
      ],
      [
        "Ġto",
        -4.718474854916948
      ],
      [
        "Ġin",
        -4.77759717230801
      ],
      [
        "ed",
        -4.801996016190316
      ],
      [
        "y",
        -4.93127761984832
      ],
      [
        "-",
        -4.9377520193194435
      ],
      [
        "ing",
        -5.012219746776154
      ],
      [
        "t",
        -5.042997396357585
      ],
      [
        "o",
        -5.137795417256452
      ],
      [
        "Ġde",
        -5.248818243717331
      ],
      [
        "n",
        -5.396253423749556
      ],
      [
        "d",
        -5.463320467301521
      ],
      [
        "Ġis",
        -5.479565658238265
      ],
      [
        "en",
        -5.709053425195009
      ],
      [
        "Ġthat",
        -5.711760493002828
      ],
      [
        "Ġbe",
        -5.723821230481381
      ],
      [
        "(",
        -5.7247117645227945
      ],
      [
        "Ġfor",
        -5.77073286338268
      ],
      [
        ":",
        -5.858574469460564
      ],
      [
        "i",
        -5.891092570605968
      ],
      [
        "er",
        -5.921743338165495
      ],
      [
        "al",
        -5.98173346912351
      ],
      [
        "ly",
        -5.989715254550333
      ],
      [
        "Ġwith",
        -6.02504828953124
      ],
      [
        "\"",
        -6.031581161931399
      ],
      [
        "Ġas",
        -6.044985171045287
      ],
      [
        "Ġare",
        -6.045788504792151
      ],
      [
        "r",
        -6.110929655699053
      ],
      [
        "'",
        -6.122674131145221
      ],
      [
        "m",
        -6.125429681956929
      ],
      [
        ")",
        -6.159747282462266
      ],
      [
        "Ġla",
        -6.168606174936228
      ],
      [
        "Ġon",
        -6.173159914096523
      ],
      [
        "Ġit",
        -6.177910008584744
      ],
      [
        "ï¼Į",
        -6.218526742891926
      ],
      [
        "ĠThe",
        -6.294560536218521
      ],
      [
        "Ġby",
        -6.309142543123178
      ],
      [
        "Ġor",
        -6.322052099749371
      ],
      [
        "Ġwas",
        -6.3780667661557615
      ],
      [
        "Ġan",
        -6.408800960444653
      ],
      [
        "Ġque",
        -6.432576966040152
      ],
      [
        "c",
        -6.437965030130936
      ],
      [
        "âĢĻ",
        -6.441760940875183
      ],
      [
        "Ġfrom",
        -6.445960928974152
      ],
      [
        "l",
        -6.481974755850956
      ],
      [
        "Ġre",
        -6.498459982647251
      ],
      [
        "Ġen",
        -6.503282958206114
      ],
      [
        "Ġat",
        -6.517135840046631
      ],
      [
        "k",
        -6.538990917968693
      ],
      [
        "Ġel",
        -6.575930916392036
      ],
      [
        "Ġun",
        -6.585894715418437
      ],
      [
        "ĠA",
        -6.603767455302748
      ],
      [
        "Ġnot",
        -6.661635635532102
      ],
      [
        "have",
        -6.662843076749338
      ],
      [
        "f",
        -6.682873679280403
      ],
      [
        "in",
        -6.7048074296415106
      ],
      [
        "Ġcan",
        -6.710406298032348
      ],
      [
        "The",
        -6.733698694757869
      ],
      [
        "Ġcon",
        -6.760265583481093
      ],
      [
        "Ġund",
        -6.763857560828201
      ],
      [
        "Ġthis",
        -6.76699907264743
      ],
      [
        "an",
        -6.773560677755423
      ],
      [
        "Ġdie",
        -6.803709404275038
      ],
      [
        "Ġyou",
        -6.863687135321751
      ],
      [
        "1",
        -6.870660281619671
      ],
      [
        ";",
        -6.876754737693933
      ],
      [
        "p",
        -6.888919766364122
      ],
      [
        "Ġder",
        -6.889472517206007
      ],
      [
        "ĠS",
        -6.902987069470981
      ],
      [
        "ation",
        -6.913000153112309
      ],
      [
        "which",
        -6.9258826362533625
      ],
      [
        "ĠC",
        -6.938331136742772
      ],
      [
        "A",
        -6.945801102364424
      ],
      [
        "de",
        -6.961073100454843
      ],
      [
        "/",
        -6.965648021653665
      ],
      [
        "Ġtheir",
        -6.969283068502548
      ],
      [
        "Ġve",
        -6.980623466492981
      ],
      [
        "ĠI",
        -7.007646459256334
      ],
      [
        "Ġlos",
        -7.030113829392182
      ],
      [
        "?",
        -7.044328027070572
      ],
      [
        "ãĢĤ",
        -7.047497754599334
      ],
      [
        "2",
        -7.057149994046544
      ],
      [
        "Ġno",
        -7.064617409834639
      ],
      [
        "Ġhe",
        -7.0775021228753445
      ],
      [
        "Ġhas",
        -7.091699976151366
      ],
      [
        "were",
        -7.10397973715366
      ],
      [
        "Ġwill",
        -7.10986508766603
      ],
      [
        "Ġmore",
        -7.12766528503696
      ],
      [
        "h",
        -7.143222020069976
      ],
      [
        "âĢĿ",
        -7.151485869058584
      ],
      [
        "Ġwe",
        -7.1580493267426455
      ],
      [
        "ten",
        -7.18699089073683
      ],
      [
        "ar",
        -7.187112768600425
      ],
      [
        "S",
        -7.20052198618613
      ],
      [
        "w",
        -7.2051063889562705
      ],
      [
        "Ġother",
        -7.212866818856014
      ],
      [
        "Ġall",
        -7.231134500151057
      ],
      [
        "Ġbut",
        -7.239435379987514
      ],
      [
        "Ġhis",
        -7.265696967694941
      ],
      [
        "ĠIn",
        -7.276739088025481
      ],
      [
        "3",
        -7.291692571673977
      ],
      [
        "Ġone",
        -7.299239733531557
      ],
      [
        ").",
        -7.302712649110163
      ],
      [
        "able",
        -7.309603177556751
      ],
      [
        "us",
        -7.309829293834399
      ],
      [
        "Ġwho",
        -7.3216347233749985
      ],
      [
        "b",
        -7.321879659098212
      ],
      [
        "Ġbir",
        -7.330281597674242
      ],
      [
        "ers",
        -7.331828790686128
      ],
      [
        "ĠB",
        -7.337667817571905
      ],
      [
        "Ġalso",
        -7.340808182009336
      ],
      [
        "th",
        -7.341443830244371
      ],
      [
        "ĠâĢľ",
        -7.34605620064888
      ],
      [
        "or",
        -7.351555202682789
      ],
      [
        "|",
        -7.356958932140566
      ],
      [
        "ĠE",
        -7.388897710311943
      ],
      [
        "about",
        -7.396958616124909
      ],
      [
        "your",
        -7.3973044539359005
      ],
      [
        "Ġsu",
        -7.401503320584956
      ],
      [
        "ity",
        -7.407242457917887
      ],
      [
        "Ġdel",
        -7.412549626901802
      ],
      [
        "Ġpara",
        -7.421820649158427
      ],
      [
        "This",
        -7.436184593187171
      ],
      [
        "ĠD",
        -7.4420634728511
      ],
      [
        "u",
        -7.442085716918632
      ],
      [
        "than",
        -7.445592515602849
      ],
      [
        "Ġmay",
        -7.449844511691795
      ],
      [
        "Ġsome",
        -7.472839489278343
      ],
      [
        "ies",
        -7.483336413369557
      ],
      [
        "on",
        -7.487813532464974
      ],
      [
        "Ġout",
        -7.496599287157782
      ],
      [
        "Ġyear",
        -7.506455686201608
      ],
      [
        "ĠP",
        -7.508580790363874
      ],
      [
        "5",
        -7.517397660518101
      ],
      [
        "g",
        -7.520768432685026
      ],
      [
        "Ġdo",
        -7.533768785238262
      ],
      [
        "Ġpor",
        -7.538697846983254
      ],
      [
        "Ġhad",
        -7.543026320458457
      ],
      [
        "Ġper",
        -7.546910115674182
      ],
      [
        "âĢľ",
        -7.548139883345289
      ],
      [
        "4",
        -7.55972627361586
      ],
      [
        "ĠM",
        -7.574613659402999
      ],
      [
        "Ġtime",
        -7.5984442677248065
      ],
      [
        "um",
        -7.601106982456745
      ],
      [
        "Ġ19",
        -7.601612758421444
      ],
      [
        "Ġal",
        -7.624674598672758
      ],
      [
        "Ġuse",
        -7.625110184274437
      ],
      [
        "Ġinto",
        -7.628807632574027
      ],
      [
        "Ġthere",
        -7.629863782339953
      ],
      [
        "Ġzu",
        -7.633439491769723
      ],
      [
        "âĢĵ",
        -7.634629466706936
      ],
      [
        "been",
        -7.6462500772157025
      ],
      [
        "Ġthem",
        -7.658284439661449
      ],
      [
        "ĠF",
        -7.663761070525995
      ],
      [
        "when",
        -7.66640724580428
      ],
      [
        "Ġlas",
        -7.666900082202536
      ],
      [
        "like",
        -7.672264172805823
      ],
      [
        "Ġover",
        -7.672626170920855
      ],
      [
        "would",
        -7.674333784312662
      ],
      [
        "ĠIt",
        -7.675381055505159
      ],
      [
        "I",
        -7.677278168425438
      ],
      [
        "our",
        -7.678360954473094
      ],
      [
        "ĠT",
        -7.69290451344761
      ],
      [
        "Ġuna",
        -7.694762464166741
      ],
      [
        "such",
        -7.699150961761296
      ],
      [
        "den",
        -7.699551181103917
      ],
      [
        "ive",
        -7.707344957980878
      ],
      [
        "how",
        -7.7092662303498685
      ],
      [
        "),",
        -7.718927071370468
      ],
      [
        "Ġpeople",
        -7.724510964201146
      ],
      [
        "ãĢģ",
        -7.730506595390542
      ],
      [
        "Ġmost",
        -7.748263621351411
      ],
      [
        "and",
        -7.748780863087717
      ],
      [
        "Ġup",
        -7.751584604941069
      ],
      [
        "ile",
        -7.752429503127887
      ],
      [
        "Ġim",
        -7.762854265700909
      ],
      [
        "Ġwh",
        -7.769456479717053
      ],
      [
        "Ġmit",
        -7.771711849040347
      ],
      [
        "ever",
        -7.778831243974713
      ],
      [
        "ado",
        -7.779950575278567
      ],
      [
        "ic",
        -7.7906929021831886
      ],
      [
        "first",
        -7.796821017197855
      ],
      [
        "Ġdas",
        -7.80514322584675
      ],
      [
        "ve",
        -7.805298226338479
      ],
      [
        "Ġda",
        -7.816032491505785
      ],
      [
        "ary",
        -7.821386202976539
      ],
      [
        "Ġden",
        -7.826313835455826
      ],
      [
        "what",
        -7.827942313869521
      ],
      [
        "age",
        -7.829883277223839
      ],
      [
        "these",
        -7.832560487495746
      ],
      [
        "Ġdis",
        -7.835798671393704
      ],
      [
        "Ġwork",
        -7.837544156356771
      ],
      [
        "6",
        -7.849145807304405
      ],
      [
        "Ġif",
        -7.850611733648032
      ],
      [
        "In",
        -7.851199744826047
      ],
      [
        "Ġnew",
        -7.852984088836795
      ],
      [
        "used",
        -7.85797800480924
      ],
      [
        "two",
        -7.861535711126342
      ],
      [
        "Ġvon",
        -7.861925057755894
      ],
      [
        "Ġher",
        -7.867883717708381
      ],
      [
        "Ġhigh",
        -7.868322700426679
      ],
      [
        "aciÃ³n",
        -7.875798295548657
      ],
      [
        "Ġist",
        -7.879359035829506
      ],
      [
        "z",
        -7.879715607269311
      ],
      [
        "Ġbu",
        -7.881537674787751
      ],
      [
        "only",
        -7.889830061279012
      ],
      [
        "ĠH",
        -7.895734684562074
      ],
      [
        "know",
        -7.897344372595168
      ],
      [
        "C",
        -7.901009969002599
      ],
      [
        "to",
        -7.902532026621188
      ],
      [
        "!",
        -7.907318160073402
      ],
      [
        "D",
        -7.908455974724388
      ],
      [
        "through",
        -7.90912066715063
      ],
      [
        "||",
        -7.916260111266315
      ],
      [
        "many",
        -7.940246676983133
      ],
      [
        "Ġver",
        -7.942315963925708
      ],
      [
        "Ġauf",
        -7.9502780526777155
      ],
      [
        "need",
        -7.96012916287687
      ],
      [
        "Ġsee",
        -7.961379728192998
      ],
      [
        "ĠfÃ¼r",
        -7.967100168795557
      ],
      [
        "Ġein",
        -7.970902321168067
      ],
      [
        "ally",
        -7.974281216960097
      ],
      [
        "where",
        -7.976381354487508
      ],
      [
        "Ġlo",
        -7.979250993472448
      ],
      [
        "ment",
        -7.979583097110922
      ],
      [
        "Ġman",
        -7.983223973000618
      ],
      [
        "out",
        -7.994568418596577
      ],
      [
        "8",
        -7.9960162155026
      ],
      [
        "ion",
        -8.006468196642729
      ],
      [
        "7",
        -8.009245852732167
      ],
      [
        "way",
        -8.009861586809091
      ],
      [
        "%",
        -8.019516695362865
      ],
      [
        "Ġpart",
        -8.01990409385324
      ],
      [
        "âĢĶ",
        -8.030294635161304
      ],
      [
        "Ġwater",
        -8.033728840735476
      ],
      [
        "Ġmake",
        -8.041630679232679
      ],
      [
        "0",
        -8.042427969060926
      ],
      [
        "less",
        -8.051338265480966
      ],
      [
        "ĠG",
        -8.057087461498972
      ],
      [
        "ĠK",
        -8.067390107744068
      ],
      [
        "Ġmuch",
        -8.081589532986383
      ],
      [
        "Ġgo",
        -8.085540738497473
      ],
      [
        "should",
        -8.086040978075768
      ],
      [
        "Ġdur",
        -8.08682573453815
      ],
      [
        "mÃ¡s",
        -8.09352332968256
      ],
      [
        "ance",
        -8.096491641484798
      ],
      [
        "between",
        -8.096873439756935
      ],
      [
        "help",
        -8.099735112071864
      ],
      [
        "B",
        -8.10048570036465
      ],
      [
        "ĠN",
        -8.10368916209849
      ],
      [
        "come",
        -8.110532907047002
      ],
      [
        "ated",
        -8.111110145256411
      ],
      [
        "E",
        -8.112049408027472
      ],
      [
        "coul",
        -8.11316180403504
      ],
      [
        "Ġsystem",
        -8.124762846162811
      ],
      [
        "Ġsay",
        -8.133400369549008
      ],
      [
        "any",
        -8.14326272431397
      ],
      [
        "ĠR",
        -8.146450942759012
      ],
      [
        "take",
        -8.14738843830065
      ],
      [
        "ate",
        -8.148761507897772
      ],
      [
        "Ġwell",
        -8.151558198621249
      ],
      [
        "said",
        -8.152171426006474
      ],
      [
        "Ġresearch",
        -8.163429162350523
      ],
      [
        "found",
        -8.174509415472771
      ],
      [
        "Ġunder",
        -8.182098023194989
      ],
      [
        "Ġafter",
        -8.188457574718822
      ],
      [
        "ĠU",
        -8.194060339983713
      ],
      [
        "Ġeine",
        -8.196286939413804
      ],
      [
        "9",
        -8.1962877829872
      ],
      [
        "If",
        -8.200271744345294
      ],
      [
        "ful",
        -8.20146528089745
      ],
      [
        "ence",
        -8.20709536981469
      ],
      [
        "ĠO",
        -8.210778481968308
      ],
      [
        "the",
        -8.21092534957905
      ],
      [
        "is",
        -8.21141398058742
      ],
      [
        "Ã³",
        -8.215898757255562
      ],
      [
        "Ġresult",
        -8.22116793040037
      ],
      [
        "ĠHe",
        -8.230558885801011
      ],
      [
        "est",
        -8.238524009019597
      ],
      [
        "ĠJ",
        -8.239742645936627
      ],
      [
        "Ġwir",
        -8.241392264830663
      ],
      [
        "those",
        -8.249437287944655
      ],
      [
        "Ġsich",
        -8.250295484042526
      ],
      [
        "very",
        -8.254524230439456
      ],
      [
        "because",
        -8.26001196502065
      ],
      [
        "Ġnicht",
        -8.263666135596091
      ],
      [
        "v",
        -8.26616189773716
      ],
      [
        "Ġpre",
        -8.268060704303842
      ],
      [
        "Ġlong",
        -8.27385779129083
      ],
      [
        "Ġdes",
        -8.274791380961407
      ],
      [
        "Ġworld",
        -8.27533667642632
      ],
      [
        "number",
        -8.278829819599771
      ],
      [
        "Ġpro",
        -8.282067963545892
      ],
      [
        "Ġcomo",
        -8.287263442812726
      ],
      [
        "x",
        -8.288101795916797
      ],
      [
        "ations",
        -8.290441677370275
      ],
      [
        "Ġshow",
        -8.291910226157023
      ],
      [
        "Ġinformation",
        -8.30021207909503
      ],
      [
        "Ġme",
        -8.300312850957669
      ],
      [
        "each",
        -8.301425390825338
      ],
      [
        "ĠSie",
        -8.302974014628102
      ],
      [
        "Ġjust",
        -8.303530594787038
      ],
      [
        "ĠiÃ§in",
        -8.303571480055668
      ],
      [
        "Ġeven",
        -8.305370332537558
      ],
      [
        "mean",
        -8.312694610957372
      ],
      [
        "que",
        -8.314769219639679
      ],
      [
        "ĠW",
        -8.317422223189586
      ],
      [
        "Ġhuman",
        -8.320303764784025
      ],
      [
        "ler",
        -8.323782741459226
      ],
      [
        "Ġlife",
        -8.325331525605124
      ],
      [
        "red",
        -8.32654746292585
      ],
      [
        "include",
        -8.33331015920317
      ],
      [
        "les",
        -8.333879408258602
      ],
      [
        "Ġget",
        -8.334141198961017
      ],
      [
        "round",
        -8.339755057833298
      ],
      [
        "provide",
        -8.346325245704913
      ],
      [
        "Ġstate",
        -8.348014170190414
      ],
      [
        "xample",
        -8.35037326063957
      ],
      [
        "Ġge",
        -8.35702366710921
      ],
      [
        "same",
        -8.35932894474256
      ],
      [
        "000",
        -8.360421457057122
      ],
      [
        "great",
        -8.365158079480851
      ],
      [
        "Ġmade",
        -8.368071167085555
      ],
      [
        "children",
        -8.368675476526898
      ],
      [
        "Ġdem",
        -8.369889292042762
      ],
      [
        "Ġex",
        -8.37058398647131
      ],
      [
        "ous",
        -8.372729544686997
      ],
      [
        "auch",
        -8.374951583538305
      ],
      [
        "ĠL",
        -8.378165814190561
      ],
      [
        "[",
        -8.380134811585926
      ],
      [
        "]",
        -8.380589612042556
      ],
      [
        "Ġco",
        -8.38118909692258
      ],
      [
        "important",
        -8.385082930783337
      ],
      [
        "Ġwar",
        -8.385919445571126
      ],
      [
        "Ġdifferent",
        -8.385919558120337
      ],
      [
        ".\"",
        -8.38898557165074
      ],
      [
        "level",
        -8.390762870513749
      ],
      [
        "cent",
        -8.391174236810825
      ],
      [
        "There",
        -8.392602434703646
      ],
      [
        "Ġha",
        -8.400382483753516
      ],
      [
        "ight",
        -8.4017379633636
      ],
      [
        "follow",
        -8.402289637223069
      ],
      [
        "Ġdi",
        -8.40995883746613
      ],
      [
        "give",
        -8.412674851345942
      ],
      [
        "un",
        -8.428214296424262
      ],
      [
        "study",
        -8.429839075454016
      ],
      [
        "ĠNew",
        -8.43040101248811
      ],
      [
        "Ġeffect",
        -8.432478987962066
      ],
      [
        "M",
        -8.43296489937617
      ],
      [
        "Ġfind",
        -8.435509883368116
      ],
      [
        "Ġdevelop",
        -8.439865974426066
      ],
      [
        "Ġform",
        -8.447329079501497
      ],
      [
        "Ġplace",
        -8.449178624432367
      ],
      [
        "ada",
        -8.454481106387082
      ],
      [
        "both",
        -8.454517544041897
      ],
      [
        "own",
        -8.455787061726333
      ],
      [
        "Ġhim",
        -8.45674321881746
      ],
      [
        "ĠAmerican",
        -8.456755340890783
      ],
      [
        "Ġprogram",
        -8.468901584606654
      ],
      [
        "small",
        -8.469418042395777
      ],
      [
        "lar",
        -8.473644838886164
      ],
      [
        "Ġaus",
        -8.474922127102076
      ],
      [
        "Ġchange",
        -8.477383183633806
      ],
      [
        "Ġ199",
        -8.477460321261297
      ],
      [
        "now",
        -8.483158519432052
      ],
      [
        "Ġhealth",
        -8.48399745845411
      ],
      [
        "ist",
        -8.485554905802806
      ],
      [
        "Ġsub",
        -8.49180132613445
      ],
      [
        "...",
        -8.496444474466607
      ],
      [
        "Ġpower",
        -8.497218129435439
      ],
      [
        "again",
        -8.50067344449244
      ],
      [
        "T",
        -8.501554900092064
      ],
      [
        "before",
        -8.502788386527895
      ],
      [
        "does",
        -8.502803646860466
      ],
      [
        "ĠRe",
        -8.504388752177384
      ],
      [
        "large",
        -8.50865160713081
      ],
      [
        "grow",
        -8.510674706390335
      ],
      [
        "P",
        -8.510745133613396
      ],
      [
        "ĠV",
        -8.513977494312332
      ],
      [
        "land",
        -8.515228413594896
      ],
      [
        "self",
        -8.515454164544416
      ],
      [
        "every",
        -8.524610745941843
      ],
      [
        "Ġ10",
        -8.526679152237683
      ],
      [
        "Ġback",
        -8.533150527371564
      ],
      [
        "ĠFor",
        -8.53529995180199
      ],
      [
        "Ġson",
        -8.535390569034213
      ],
      [
        "Ġreport",
        -8.537264068377846
      ],
      [
        "look",
        -8.539694355413438
      ],
      [
        "its",
        -8.543266162847004
      ],
      [
        "&",
        -8.543780749709189
      ],
      [
        "Ġprocess",
        -8.549787735887293
      ],
      [
        "Ġday",
        -8.550392725303993
      ],
      [
        "good",
        -8.550892419802327
      ],
      [
        "three",
        -8.550975742301901
      ],
      [
        "man",
        -8.551033518123914
      ],
      [
        "idad",
        -8.553785341158749
      ],
      [
        "cause",
        -8.557088032171787
      ],
      [
        "Ġdata",
        -8.563193922432424
      ],
      [
        "Ġtest",
        -8.563545649578849
      ],
      [
        "ice",
        -8.565111027412717
      ],
      [
        "called",
        -8.565668402259197
      ],
      [
        "Ġpresent",
        -8.56885809622672
      ],
      [
        "Ġvar",
        -8.572189222752694
      ],
      [
        "com",
        -8.572473636681165
      ],
      [
        "F",
        -8.575674691516223
      ],
      [
        "Ġmy",
        -8.578314147216716
      ],
      [
        "Ġfood",
        -8.579290760454711
      ],
      [
        "ÃŃa",
        -8.579822758736489
      ],
      [
        "day",
        -8.582187244708281
      ],
      [
        ".âĢĿ",
        -8.583856218560195
      ],
      [
        "Ġcase",
        -8.584770650668863
      ],
      [
        "ure",
        -8.584864971946812
      ],
      [
        "early",
        -8.589278367543482
      ],
      [
        "Ġconsider",
        -8.589797838573555
      ],
      [
        "Ġschool",
        -8.590479343179533
      ],
      [
        "ine",
        -8.59315125435251
      ],
      [
        "son",
        -8.59338845336283
      ],
      [
        "çļĦ",
        -8.598341945500215
      ],
      [
        "using",
        -8.59920835854088
      ],
      [
        "oder",
        -8.602982546447796
      ],
      [
        "ich",
        -8.604283029566588
      ],
      [
        "Ġpue",
        -8.60467360328083
      ],
      [
        "Ġsever",
        -8.607049865631616
      ],
      [
        "go",
        -8.607182243458745
      ],
      [
        "issue",
        -8.614005770736027
      ],
      [
        "10",
        -8.615327577005232
      ],
      [
        "right",
        -8.616748467205829
      ],
      [
        "ido",
        -8.619999272432295
      ],
      [
        "ish",
        -8.623677687694533
      ],
      [
        "support",
        -8.624375303908675
      ],
      [
        "body",
        -8.624510320005738
      ],
      [
        "Ġmust",
        -8.625288113890008
      ],
      [
        "ante",
        -8.627264407322256
      ],
      [
        "Ġdisease",
        -8.628917584772813
      ],
      [
        "ther",
        -8.630049995569022
      ],
      [
        "ible",
        -8.630786513822327
      ],
      [
        "ĠAn",
        -8.631812847065511
      ],
      [
        "Ġsie",
        -8.63381016497236
      ],
      [
        "Ġpublic",
        -8.636240455063337
      ],
      [
        "Ġdid",
        -8.63708226554355
      ],
      [
        "including",
        -8.637633344777592
      ],
      [
        "Â",
        -8.638908851199204
      ],
      [
        "Ġav",
        -8.64352736193845
      ],
      [
        "government",
        -8.643616577911336
      ],
      [
        "Ġmi",
        -8.644899450353126
      ],
      [
        "ways",
        -8.645315749365862
      ],
      [
        "students",
        -8.647229725082195
      ],
      [
        "Ġbei",
        -8.647393758703382
      ],
      [
        "ĠUniversity",
        -8.653823206034334
      ],
      [
        "Ġcontinu",
        -8.656242224839007
      ],
      [
        "Ġshe",
        -8.656559930558151
      ],
      [
        "Ġ20",
        -8.658503153749406
      ],
      [
        "Ġam",
        -8.659291265960192
      ],
      [
        "ical",
        -8.66248800066578
      ],
      [
        "Ġdesign",
        -8.663820912326106
      ],
      [
        "Ġgeneral",
        -8.664691464503552
      ],
      [
        "common",
        -8.665650261901249
      ],
      [
        "Ġend",
        -8.665765686404557
      ],
      [
        "Ġmain",
        -8.669178927237475
      ],
      [
        "werden",
        -8.67224061572173
      ],
      [
        "leri",
        -8.672431079256052
      ],
      [
        "Ġ18",
        -8.673889633104618
      ],
      [
        "Ġadd",
        -8.674837105344416
      ],
      [
        "Ġproblem",
        -8.675836597360613
      ],
      [
        "H",
        -8.67708588365896
      ],
      [
        "it",
        -8.681225641618683
      ],
      [
        "When",
        -8.682381908564077
      ],
      [
        "oil",
        -8.68828150245294
      ],
      [
        "ĠBe",
        -8.689043926836177
      ],
      [
        "member",
        -8.69146392406536
      ],
      [
        "ities",
        -8.691738977589464
      ],
      [
        "Ġmen",
        -8.691888277479919
      ],
      [
        "require",
        -8.692744964796711
      ],
      [
        "ious",
        -8.693842016092301
      ],
      [
        "der",
        -8.694670467873948
      ],
      [
        "Unit",
        -8.697492264522824
      ],
      [
        "These",
        -8.699377131919974
      ],
      [
        "one",
        -8.70274714091271
      ],
      [
        "Ġset",
        -8.702863227101906
      ],
      [
        "ized",
        -8.707191710373941
      ],
      [
        "Ġlive",
        -8.70750719962876
      ],
      [
        "ability",
        -8.709411410280865
      ],
      [
        "Ġplan",
        -8.710137186061589
      ],
      [
        "law",
        -8.710645630374623
      ],
      [
        "ĠBut",
        -8.714872255875473
      ],
      [
        "risk",
        -8.718911780661342
      ],
      [
        "allow",
        -8.720062165693436
      ],
      [
        "Ġsind",
        -8.725866573988027
      ],
      [
        "ï¼ļ",
        -8.729693104867883
      ],
      [
        "based",
        -8.730959592355905
      ],
      [
        "til",
        -8.734913602623976
      ],
      [
        "ĠBu",
        -8.737570537484673
      ],
      [
        "Ä±",
        -8.737727697035734
      ],
      [
        "ĠHow",
        -8.73863369722049
      ],
      [
        "larÄ±",
        -8.74014274193423
      ],
      [
        "Ġpur",
        -8.742620663541699
      ],
      [
        "ness",
        -8.742930104508385
      ],
      [
        "ian",
        -8.745347042432552
      ],
      [
        "G",
        -8.747758260870988
      ],
      [
        "Ġdown",
        -8.754351206830396
      ],
      [
        "Ġhome",
        -8.754700178563969
      ],
      [
        "Ġab",
        -8.755683548691497
      ],
      [
        "ĠÃ¼ber",
        -8.756584873587897
      ],
      [
        "ciÃ³n",
        -8.756669186445475
      ],
      [
        "N",
        -8.761481722089178
      ],
      [
        "Ġpoint",
        -8.76691926633918
      ],
      [
        "Ġcom",
        -8.769549997885658
      ],
      [
        "Ġperson",
        -8.771007288968152
      ],
      [
        "Ġsocial",
        -8.773585031765977
      ],
      [
        "Ġstill",
        -8.775939307682426
      ],
      [
        "Ġcontrol",
        -8.785797957386198
      ],
      [
        "ĠTo",
        -8.790785312039004
      ],
      [
        "ĠWe",
        -8.792176448934448
      ],
      [
        "Ġesta",
        -8.792502241336587
      ],
      [
        "ship",
        -8.793685611969508
      ],
      [
        "Ġreal",
        -8.795069215160355
      ],
      [
        "energy",
        -8.79782752191499
      ],
      [
        "ant",
        -8.79870678176466
      ],
      [
        "ĠLa",
        -8.799420526140297
      ],
      [
        "Ġob",
        -8.80195080503296
      ],
      [
        "Ġser",
        -8.804048082735623
      ],
      [
        "Ġplant",
        -8.804805680762097
      ],
      [
        "Ġstart",
        -8.80564541067447
      ],
      [
        "Ġchild",
        -8.810186032899933
      ],
      [
        "O",
        -8.811056645564003
      ],
      [
        "Ġcare",
        -8.814166219729417
      ],
      [
        "order",
        -8.816118719097014
      ],
      [
        "think",
        -8.81734889653187
      ],
      [
        "ĠDie",
        -8.818109620289636
      ],
      [
        "lead",
        -8.818320100800078
      ],
      [
        "Ġdevelopment",
        -8.818332606247221
      ],
      [
        "appear",
        -8.819063018736104
      ],
      [
        "force",
        -8.822083065603753
      ],
      [
        "Ġcreat",
        -8.822451031644585
      ],
      [
        "olarak",
        -8.823494806309132
      ],
      [
        "Ġair",
        -8.82468935089538
      ],
      [
        "mong",
        -8.826677801528692
      ],
      [
        "Ġdon",
        -8.831273208528794
      ],
      [
        "ĠDe",
        -8.834133085755285
      ],
      [
        "Ġbr",
        -8.834973776438916
      ],
      [
        "im",
        -8.8358499882571
      ],
      [
        "Ġclass",
        -8.837546040423202
      ],
      [
        "question",
        -8.84023849928298
      ],
      [
        "increase",
        -8.840327187438445
      ],
      [
        "be",
        -8.842404595500017
      ],
      [
        "want",
        -8.843515541572259
      ],
      [
        "einen",
        -8.843975000108653
      ],
      [
        "Ġrespons",
        -8.844376011765663
      ],
      [
        "Ġoccu",
        -8.846452321431542
      ],
      [
        "einer",
        -8.848608350711533
      ],
      [
        "Ġproject",
        -8.849688232080434
      ],
      [
        "Ġlocal",
        -8.852533651658868
      ],
      [
        "Ġnatural",
        -8.853303234722198
      ],
      [
        "Ġland",
        -8.855235706988836
      ],
      [
        "ĠSo",
        -8.855624367163834
      ],
      [
        "Ġcondition",
        -8.855692565246008
      ],
      [
        "second",
        -8.856912473021916
      ],
      [
        "El",
        -8.857108363557607
      ],
      [
        "low",
        -8.85766029702703
      ],
      [
        "species",
        -8.85873087535679
      ],
      [
        "Ġname",
        -8.859280693423374
      ],
      [
        "women",
        -8.864203302771843
      ],
      [
        "la",
        -8.865764810310068
      ],
      [
        "Ġindividual",
        -8.867172358749254
      ],
      [
        "$",
        -8.86770879960391
      ],
      [
        "group",
        -8.869145175920437
      ],
      [
        "another",
        -8.869664828663051
      ],
      [
        "possibl",
        -8.873135784775606
      ],
      [
        "ism",
        -8.875611582480571
      ],
      [
        "gan",
        -8.876529670133603
      ],
      [
        "Ġhat",
        -8.876951031050604
      ],
      [
        "ative",
        -8.879455855910534
      ],
      [
        "Ġsite",
        -8.882463251134
      ],
      [
        "ĠNational",
        -8.884946687280356
      ],
      [
        "Ġhand",
        -8.887215271362392
      ],
      [
        "Ġfree",
        -8.888105593636546
      ],
      [
        "Ġje",
        -8.88942535312276
      ],
      [
        "Ġmodel",
        -8.894115430556425
      ],
      [
        "dan",
        -8.899315657147367
      ],
      [
        "Ġtak",
        -8.900922279484265
      ],
      [
        "ĠAnd",
        -8.901700843589992
      ],
      [
        "major",
        -8.908832238981415
      ],
      [
        "times",
        -8.908989455698741
      ],
      [
        "ados",
        -8.910293543950768
      ],
      [
        "population",
        -8.912489868440884
      ],
      [
        "current",
        -8.914597131415013
      ],
      [
        "Ġperiod",
        -8.915123838762016
      ],
      [
        "history",
        -8.917203702194312
      ],
      [
        "Ġparticular",
        -8.91800410397796
      ],
      [
        "La",
        -8.918161049842325
      ],
      [
        "blood",
        -8.919595892925399
      ],
      [
        "interest",
        -8.921076734777225
      ],
      [
        "side",
        -8.921562950767337
      ],
      [
        "Ġauthor",
        -8.922855636361641
      ],
      [
        "ccording",
        -8.923585083328831
      ],
      [
        "ĠEl",
        -8.923730176169183
      ],
      [
        "Some",
        -8.928222929332481
      ],
      [
        "ating",
        -8.928934369291886
      ],
      [
        "ĠAs",
        -8.92934746938086
      ],
      [
        "Ġexist",
        -8.930292418657219
      ],
      [
        "Ġile",
        -8.933666705785596
      ],
      [
        "Ġinter",
        -8.935283097886149
      ],
      [
        "million",
        -8.94095997331793
      ],
      [
        "Ġeste",
        -8.94360470989349
      ],
      [
        "=",
        -8.944480866613265
      ],
      [
        "four",
        -8.944621815049993
      ],
      [
        "diese",
        -8.945262346050672
      ],
      [
        "Ġbest",
        -8.95070471793792
      ],
      [
        "einem",
        -8.950845611895215
      ],
      [
        "Ġlight",
        -8.950926094934022
      ],
      [
        "Ġsea",
        -8.951935877236041
      ],
      [
        "ward",
        -8.952723283644092
      ],
      [
        "not",
        -8.953540377700023
      ],
      [
        "rate",
        -8.954868614439183
      ],
      [
        "east",
        -8.955385772271907
      ],
      [
        "Ġanimal",
        -8.95582963151888
      ],
      [
        "Ġihr",
        -8.957644162885686
      ],
      [
        "thing",
        -8.959179643729184
      ],
      [
        "treatment",
        -8.95948726340649
      ],
      [
        "Ġlast",
        -8.963255504289377
      ],
      [
        "K",
        -8.963746350893338
      ],
      [
        "ĠNo",
        -8.964100749735648
      ],
      [
        "Ġoff",
        -8.964616115665555
      ],
      [
        "ting",
        -8.965763106235148
      ],
      [
        "since",
        -8.967512174098864
      ],
      [
        "Ġcost",
        -8.970028495023948
      ],
      [
        "ning",
        -8.97287829798463
      ],
      [
        "âĢ¦",
        -8.973467940154755
      ],
      [
        "ÃŃ",
        -8.976102446154439
      ],
      [
        "Ġnach",
        -8.97844949794043
      ],
      [
        "Ġcome",
        -8.97850027264864
      ],
      [
        "Ġ15",
        -8.98000178842276
      ],
      [
        "family",
        -8.98135947867651
      ],
      [
        "Ġsus",
        -8.981516239477667
      ],
      [
        "education",
        -8.981623954806315
      ],
      [
        "Ġplay",
        -8.98230834121904
      ],
      [
        "Ġfact",
        -8.98373076364793
      ],
      [
        "Ġwie",
        -8.984725398129251
      ],
      [
        "R",
        -8.990527740075917
      ],
      [
        "Ġbook",
        -8.990931917762458
      ],
      [
        "cover",
        -8.99113216236381
      ],
      [
        "certain",
        -8.992845655102865
      ],
      [
        "ĠkÃ¶",
        -8.994707575136081
      ],
      [
        "view",
        -8.997760471739847
      ],
      [
        "type",
        -8.99871261454556
      ],
      [
        "value",
        -8.998871530181441
      ],
      [
        "ŀ",
        -8.999833763276305
      ],
      [
        "19",
        -9.00064836195041
      ],
      [
        "Ãº",
        -9.004663916166292
      ],
      [
        "Ġterm",
        -9.00616235534551
      ],
      [
        "Ġdirect",
        -9.008695275532244
      ],
      [
        "Ġrecord",
        -9.011368823153903
      ],
      [
        "Ġmaterial",
        -9.012261036111312
      ],
      [
        "of",
        -9.012859921099473
      ],
      [
        "Ġals",
        -9.013240956648811
      ],
      [
        "up",
        -9.016092018813673
      ],
      [
        "ĠGod",
        -9.017600665183656
      ],
      [
        "Ġpatient",
        -9.020932989775716
      ],
      [
        "Ġopen",
        -9.02274314730636
      ],
      [
        "ĠY",
        -9.023036804920306
      ],
      [
        "nin",
        -9.024550923698792
      ],
      [
        "Ġolan",
        -9.026953978139716
      ],
      [
        "Ġhere",
        -9.03088074201487
      ],
      [
        "lÄ±",
        -9.032669624808936
      ],
      [
        "Ġyap",
        -9.033037494710376
      ],
      [
        "12",
        -9.034489494531051
      ],
      [
        "learn",
        -9.03502546984774
      ],
      [
        "country",
        -9.035237858970545
      ],
      [
        "Ġnon",
        -9.036718631850276
      ],
      [
        "Ġrepresent",
        -9.037035385416273
      ],
      [
        "todo",
        -9.037584292681831
      ],
      [
        "ĠWar",
        -9.037861436243997
      ],
      [
        "ĠâĢĺ",
        -9.04009472478699
      ],
      [
        "We",
        -9.04038150720325
      ],
      [
        "though",
        -9.042280280721002
      ],
      [
        "course",
        -9.042610302565205
      ],
      [
        "www",
        -9.044085064112243
      ],
      [
        "ments",
        -9.044476911051426
      ],
      [
        "mount",
        -9.045116086514694
      ],
      [
        "specific",
        -9.054937997821066
      ],
      [
        "Ġimprov",
        -9.055327280970616
      ],
      [
        "ely",
        -9.056000319661214
      ],
      [
        "measure",
        -9.057658078387956
      ],
      [
        "month",
        -9.057836668603075
      ],
      [
        "try",
        -9.05859961132142
      ],
      [
        "close",
        -9.058777183025612
      ],
      [
        "Ġvor",
        -9.059091924267252
      ],
      [
        "States",
        -9.06008299805841
      ],
      [
        "Ġactual",
        -9.060126563357027
      ],
      [
        "language",
        -9.062124763923554
      ],
      [
        "century",
        -9.064785857487744
      ],
      [
        "kann",
        -9.064980754240596
      ],
      [
        "reason",
        -9.072693964111874
      ],
      [
        "Ġproduc",
        -9.07421063864041
      ],
      [
        "experience",
        -9.074375366541904
      ],
      [
        "Ġcancer",
        -9.075123980325095
      ],
      [
        "near",
        -9.07568670929838
      ],
      [
        "ough",
        -9.07589646750215
      ],
      [
        "ĠAl",
        -9.076260423287795
      ],
      [
        "ors",
        -9.076899516899598
      ],
      [
        "came",
        -9.079311197383175
      ],
      [
        "ĠEurope",
        -9.080632262802329
      ],
      [
        "most",
        -9.081267090294707
      ],
      [
        "L",
        -9.08178442969062
      ],
      [
        "ĠEn",
        -9.082046070119702
      ],
      [
        "Ġdu",
        -9.08468551898314
      ],
      [
        "nnen",
        -9.085276155032776
      ],
      [
        "Ġmethod",
        -9.08774905693322
      ],
      [
        "ĠÃ§ok",
        -9.089269196275174
      ],
      [
        "field",
        -9.092830163076217
      ],
      [
        "Ġturn",
        -9.09503616089623
      ],
      [
        "Ġnur",
        -9.09539818332522
      ],
      [
        "Ġart",
        -9.096329579286571
      ],
      [
        "receiv",
        -9.096579876041597
      ],
      [
        "better",
        -9.096595204086109
      ],
      [
        "contain",
        -9.097309208766733
      ],
      [
        "read",
        -9.10025208831209
      ],
      [
        "tiene",
        -9.101428415055798
      ],
      [
        "J",
        -9.104035511290148
      ],
      [
        "Ġobject",
        -9.104176611396026
      ],
      [
        "Ġlist",
        -9.1064109216052
      ],
      [
        "Ġsin",
        -9.106866301745688
      ],
      [
        "structure",
        -9.107294339422296
      ],
      [
        "action",
        -9.107849949922512
      ],
      [
        "Ä±n",
        -9.10838019338421
      ],
      [
        "clear",
        -9.109310576798922
      ],
      [
        "week",
        -9.109742919221388
      ],
      [
        "Ġpass",
        -9.10979400464635
      ],
      [
        "W",
        -9.11117604952792
      ],
      [
        "ions",
        -9.11125067545878
      ],
      [
        "era",
        -9.11130431874232
      ],
      [
        "Ġevent",
        -9.111781630408418
      ],
      [
        "Ġtam",
        -9.113039391955924
      ],
      [
        "ailable",
        -9.11374693529497
      ],
      [
        "by",
        -9.114769047653176
      ],
      [
        "ĠNorth",
        -9.11633978353938
      ],
      [
        "tain",
        -9.11672409849182
      ],
      [
        "estÃ¡",
        -9.116730730290612
      ],
      [
        "Ġread",
        -9.118439867567329
      ],
      [
        "ather",
        -9.120087021147729
      ],
      [
        "j",
        -9.12100611147522
      ],
      [
        "//",
        -9.121169794762713
      ],
      [
        "Ġcharacter",
        -9.123494358677515
      ],
      [
        "Ġlimit",
        -9.124274792606627
      ],
      [
        "success",
        -9.124704677658002
      ],
      [
        "ted",
        -9.124747761587766
      ],
      [
        "line",
        -9.127743262525463
      ],
      [
        "city",
        -9.128311545085635
      ],
      [
        "Ġ12",
        -9.128790289430846
      ],
      [
        "Ġusu",
        -9.128860528853062
      ],
      [
        "believ",
        -9.129610728797704
      ],
      [
        "ton",
        -9.130715420747377
      ],
      [
        "little",
        -9.130754601354248
      ],
      [
        "Ġobserv",
        -9.13166756891661
      ],
      [
        "Ġcar",
        -9.133923815503996
      ],
      [
        "lich",
        -9.134235042948992
      ],
      [
        "åľ¨",
        -9.135707923026882
      ],
      [
        "zum",
        -9.135735176608431
      ],
      [
        "Ġspace",
        -9.135926000302824
      ],
      [
        "ither",
        -9.137804588844832
      ],
      [
        "V",
        -9.138879913221
      ],
      [
        "keep",
        -9.13978646565598
      ],
      [
        "Ġhav",
        -9.139968046495843
      ],
      [
        "ĠState",
        -9.141283863980274
      ],
      [
        "20",
        -9.141807078007169
      ],
      [
        "Ġlater",
        -9.14185607446999
      ],
      [
        "Ġshort",
        -9.142092948120345
      ],
      [
        "Ġanti",
        -9.143532439749032
      ],
      [
        "Die",
        -9.14372952042682
      ],
      [
        "ĠYou",
        -9.146366578421022
      ],
      [
        "Ġfur",
        -9.146571405789148
      ],
      [
        "ĠUn",
        -9.148494533448938
      ],
      [
        "daha",
        -9.14940889454893
      ],
      [
        "Ġabo",
        -9.1510414772909
      ],
      [
        "ĠJohn",
        -9.153189777635294
      ],
      [
        "science",
        -9.154953798883946
      ],
      [
        "suggest",
        -9.156681819608762
      ],
      [
        "åĴĮ",
        -9.15997008256905
      ],
      [
        "noch",
        -9.160912939846655
      ],
      [
        "*",
        -9.16345738316842
      ],
      [
        "Ġfar",
        -9.1637269231682
      ],
      [
        "size",
        -9.164456560640634
      ],
      [
        "2012",
        -9.16481580781412
      ],
      [
        "aciones",
        -9.166598511375398
      ],
      [
        "Ġregion",
        -9.168431130410053
      ],
      [
        "Ġvisit",
        -9.168581143951892
      ],
      [
        "establish",
        -9.16859193842681
      ],
      [
        "Ġhead",
        -9.16862478971688
      ],
      [
        "ĠDr",
        -9.168739737939386
      ],
      [
        "ants",
        -9.169589477410184
      ],
      [
        "With",
        -9.169796390698728
      ],
      [
        "ner",
        -9.16982123651932
      ],
      [
        "building",
        -9.172191344316923
      ],
      [
        "ĠEs",
        -9.17367724311073
      ],
      [
        "encia",
        -9.17605095513354
      ],
      [
        "11",
        -9.176211982888953
      ],
      [
        "death",
        -9.177766062892406
      ],
      [
        "Ġpost",
        -9.179059762244316
      ],
      [
        "Ġfunction",
        -9.180655669665114
      ],
      [
        "30",
        -9.18089199548995
      ],
      [
        "dom",
        -9.181844169083291
      ],
      [
        "position",
        -9.1835448119366
      ],
      [
        "treat",
        -9.183782272821045
      ],
      [
        "affect",
        -9.184030442637576
      ],
      [
        "sure",
        -9.185337904854023
      ],
      [
        "ether",
        -9.188574617656588
      ],
      [
        "haben",
        -9.19027209114352
      ],
      [
        "Ġword",
        -9.19042186401044
      ],
      [
        "ĠâĢ",
        -9.191041597609612
      ],
      [
        "Ġcall",
        -9.191547923389438
      ],
      [
        "For",
        -9.19157259060026
      ],
      [
        "Ã©",
        -9.192490168405088
      ],
      [
        "similar",
        -9.193146431569776
      ],
      [
        "Ġcaus",
        -9.194042812408366
      ],
      [
        "To",
        -9.196688901017923
      ],
      [
        "ĠSt",
        -9.197233739218834
      ],
      [
        "En",
        -9.200128224357654
      ],
      [
        "aber",
        -9.204145800108392
      ],
      [
        "Ġpr",
        -9.205695932473274
      ],
      [
        "Ġtu",
        -9.206009900810498
      ],
      [
        "Ġ17",
        -9.20606162664348
      ],
      [
        "ĠYor",
        -9.207834832188976
      ],
      [
        "Ġcompar",
        -9.210346242201728
      ],
      [
        "recent",
        -9.211965884610972
      ],
      [
        "Ġhac",
        -9.21201884757576
      ],
      [
        "dem",
        -9.212568444059867
      ],
      [
        "Ġtext",
        -9.213196964291534
      ],
      [
        "_",
        -9.213390113485213
      ],
      [
        "parent",
        -9.215879400770657
      ],
      [
        "making",
        -9.217118681933425
      ],
      [
        "ĠOn",
        -9.217951260607125
      ],
      [
        "Ġ30",
        -9.218615821825097
      ],
      [
        "along",
        -9.22117495856435
      ],
      [
        "Ġhard",
        -9.221863543944645
      ],
      [
        "ize",
        -9.22313755437589
      ],
      [
        "Ġparticip",
        -9.223247573642965
      ],
      [
        "increas",
        -9.223693462241204
      ],
      [
        "stance",
        -9.22500499849602
      ],
      [
        "+",
        -9.225371984499018
      ],
      [
        "Ġsobre",
        -9.225689895150747
      ],
      [
        "spect",
        -9.225905662913734
      ],
      [
        "What",
        -9.225949301280082
      ],
      [
        "prevent",
        -9.226174589311876
      ],
      [
        "left",
        -9.22637565565956
      ],
      [
        "young",
        -9.228802553881328
      ],
      [
        "heart",
        -9.229543120409332
      ],
      [
        "ually",
        -9.229867631142664
      ],
      [
        "Ġ198",
        -9.230843228543511
      ],
      [
        "related",
        -9.235419367758846
      ],
      [
        "ur",
        -9.236207258130737
      ],
      [
        "Ġdam",
        -9.236238930354354
      ],
      [
        "Ġcu",
        -9.238020657413172
      ],
      [
        "mos",
        -9.238346430962483
      ],
      [
        "ales",
        -9.23862724439159
      ],
      [
        "Ġentre",
        -9.2392518124082
      ],
      [
        "http",
        -9.239637925178751
      ],
      [
        "publish",
        -9.241683611643882
      ],
      [
        "2010",
        -9.24265311418529
      ],
      [
        "hold",
        -9.243128849485135
      ],
      [
        "ved",
        -9.24585537133355
      ],
      [
        "oid",
        -9.246259022873367
      ],
      [
        "factor",
        -9.246754794690132
      ],
      [
        "old",
        -9.246792832367412
      ],
      [
        "ĠAfrica",
        -9.24683017304558
      ],
      [
        "significant",
        -9.247245219057136
      ],
      [
        "ndo",
        -9.247513881567809
      ],
      [
        "Ġlow",
        -9.248071115163592
      ],
      [
        "Ġcolor",
        -9.24821449317602
      ],
      [
        "Ġidea",
        -9.250038343749818
      ],
      [
        "surface",
        -9.250110762856002
      ],
      [
        "ory",
        -9.250333316148703
      ],
      [
        "Ġrun",
        -9.251462268873018
      ],
      [
        "things",
        -9.251829203877604
      ],
      [
        "2011",
        -9.253001584182806
      ],
      [
        "put",
        -9.255440753577137
      ],
      [
        "protect",
        -9.25564173613929
      ],
      [
        "light",
        -9.255987285862208
      ],
      [
        "range",
        -9.26089314966676
      ],
      [
        "community",
        -9.263137585373547
      ],
      [
        "biÃ©n",
        -9.26404636471701
      ],
      [
        "ĠGerman",
        -9.267041306925451
      ],
      [
        "Ġ16",
        -9.26754838777339
      ],
      [
        "ter",
        -9.268242354874424
      ],
      [
        "Ġpero",
        -9.269428257776248
      ],
      [
        "tely",
        -9.27113141271123
      ],
      [
        "Ġprim",
        -9.27269875369495
      ],
      [
        "dos",
        -9.276315392748986
      ],
      [
        "icult",
        -9.277354087065424
      ],
      [
        "ge",
        -9.280162163956405
      ],
      [
        "pose",
        -9.2807192977895
      ],
      [
        "Ġdiff",
        -9.281327541588466
      ],
      [
        "access",
        -9.282115590921036
      ],
      [
        "Ġtotal",
        -9.282655788522549
      ],
      [
        "upon",
        -9.284293902572983
      ],
      [
        "ern",
        -9.28445645547646
      ],
      [
        "Ġpa",
        -9.285118387733542
      ],
      [
        "hour",
        -9.287515577744433
      ],
      [
        "strong",
        -9.28801970514334
      ],
      [
        "ĠWorld",
        -9.288024491379108
      ],
      [
        "gree",
        -9.28827219288832
      ],
      [
        "ĠSouth",
        -9.292292907608726
      ],
      [
        "economic",
        -9.292918603861825
      ],
      [
        "Ġfinal",
        -9.292934299262336
      ],
      [
        "Ġviel",
        -9.293309277532888
      ],
      [
        "never",
        -9.295826433787571
      ],
      [
        "Ġ--",
        -9.29680470055996
      ],
      [
        "lower",
        -9.297441941422194
      ],
      [
        "otro",
        -9.300738396568113
      ],
      [
        "together",
        -9.300905137121749
      ],
      [
        "Ġenvironment",
        -9.301121943205784
      ],
      [
        "offer",
        -9.30166132028771
      ],
      [
        "countries",
        -9.302456158106263
      ],
      [
        "Ġsent",
        -9.302697096305154
      ],
      [
        "Y",
        -9.304077627790926
      ],
      [
        "Ġdurch",
        -9.304385243419924
      ],
      [
        "Ġimage",
        -9.304401660167343
      ],
      [
        "ĠAmerica",
        -9.305128719867763
      ],
      [
        "impact",
        -9.306447865723296
      ],
      [
        "technology",
        -9.30695169669208
      ],
      [
        "next",
        -9.306974316928995
      ],
      [
        "Ġpersonal",
        -9.30710837484418
      ],
      [
        "18",
        -9.31174132754612
      ],
      [
        "production",
        -9.313693762612536
      ],
      [
        "north",
        -9.314559485967974
      ],
      [
        "Ġold",
        -9.314840807161822
      ],
      [
        "Ä±nda",
        -9.321928086193315
      ],
      [
        "ĠMay",
        -9.32242539805778
      ],
      [
        ">",
        -9.323473043718636
      ],
      [
        "expect",
        -9.32425204011884
      ],
      [
        "After",
        -9.324346777413355
      ],
      [
        "gibi",
        -9.325501862795493
      ],
      [
        "Ġonline",
        -9.325887300834774
      ],
      [
        "Ġpast",
        -9.331862777455038
      ],
      [
        "ĠAll",
        -9.334041243252727
      ],
      [
        "Ã¡",
        -9.336088079933376
      ],
      [
        "Ġnormal",
        -9.33662303922869
      ],
      [
        "return",
        -9.33792877216376
      ],
      [
        "Ġbrain",
        -9.33793315367586
      ],
      [
        "due",
        -9.338967270043948
      ],
      [
        "knowledge",
        -9.3402204577714
      ],
      [
        "ĠWh",
        -9.340930040949704
      ],
      [
        "Ġcell",
        -9.341313812267307
      ],
      [
        "Ġhouse",
        -9.342154604772968
      ],
      [
        "men",
        -9.342265254379338
      ],
      [
        "practice",
        -9.342394505582693
      ],
      [
        "potential",
        -9.342708096491886
      ],
      [
        "paper",
        -9.344214779182945
      ],
      [
        "Ġ100",
        -9.3444463250091
      ],
      [
        "ddition",
        -9.34508087694033
      ],
      [
        "Ãºn",
        -9.34577524284601
      ],
      [
        "role",
        -9.345931629251334
      ],
      [
        "ĠHealth",
        -9.34746277079637
      ],
      [
        "Ġgas",
        -9.34943464403317
      ],
      [
        "ch",
        -9.349806260006732
      ],
      [
        "physical",
        -9.350209046865947
      ],
      [
        "fore",
        -9.350290813563015
      ],
      [
        "Ġbis",
        -9.35133087137282
      ],
      [
        "inde",
        -9.351490776750495
      ],
      [
        "Ġput",
        -9.351794584949936
      ],
      [
        "discover",
        -9.35249260205293
      ],
      [
        "00",
        -9.353570995633556
      ],
      [
        "15",
        -9.354614287667378
      ],
      [
        "Ġmehr",
        -9.35465258543632
      ],
      [
        "quality",
        -9.35533498371543
      ],
      [
        "2009",
        -9.355394608693054
      ],
      [
        "Ġnational",
        -9.355529905285842
      ],
      [
        "especially",
        -9.356763725652748
      ],
      [
        "ial",
        -9.357200309871043
      ],
      [
        "elves",
        -9.357701637758932
      ],
      [
        "focus",
        -9.359891912403205
      ],
      [
        "Ġuns",
        -9.359912338126197
      ],
      [
        "mente",
        -9.36061548767072
      ],
      [
        "Ġmov",
        -9.361108866370175
      ],
      [
        "ier",
        -9.362214234689452
      ],
      [
        "source",
        -9.364301376854048
      ],
      [
        "Ġsun",
        -9.364379985115464
      ],
      [
        "future",
        -9.36514488696178
      ],
      [
        "Ġask",
        -9.367583988020092
      ],
      [
        "subject",
        -9.367601756778589
      ],
      [
        "stead",
        -9.368733395941966
      ],
      [
        "Ġfull",
        -9.369151747738584
      ],
      [
        "ought",
        -9.370974047511329
      ],
      [
        "Ġkey",
        -9.373005270075788
      ],
      [
        "fully",
        -9.374324495628294
      ],
      [
        "Ġmodern",
        -9.376294773972756
      ],
      [
        "thought",
        -9.376895195575685
      ],
      [
        "ology",
        -9.37728493606099
      ],
      [
        "verage",
        -9.37839021361139
      ],
      [
        "away",
        -9.378435332639514
      ],
      [
        "Ġoriginal",
        -9.378904447098709
      ],
      [
        "ĠAt",
        -9.379087095176128
      ],
      [
        "employ",
        -9.379933761049736
      ],
      [
        "temperature",
        -9.380706571893956
      ],
      [
        "claim",
        -9.380773346897678
      ],
      [
        "concern",
        -9.381209455799969
      ],
      [
        "Ġdocument",
        -9.3832892924732
      ],
      [
        "cells",
        -9.383637206373807
      ],
      [
        "special",
        -9.384527880968031
      ],
      [
        "Ġsur",
        -9.384816463303457
      ],
      [
        "Ġsingle",
        -9.38487371482342
      ],
      [
        "associat",
        -9.384899281974414
      ],
      [
        "2008",
        -9.387359257923032
      ],
      [
        "Â¿",
        -9.38756291330284
      ],
      [
        "ĠBrit",
        -9.387646620808026
      ],
      [
        "Ġlink",
        -9.38954881612489
      ],
      [
        "something",
        -9.390082727122593
      ],
      [
        "all",
        -9.390113571061294
      ],
      [
        "create",
        -9.390133019807775
      ],
      [
        "rule",
        -9.39136868736457
      ],
      [
        "culture",
        -9.391789010603132
      ],
      [
        "sein",
        -9.392545719260015
      ],
      [
        "videnc",
        -9.393480916191567
      ],
      [
        "Ġarm",
        -9.393845724362304
      ],
      [
        "ĠTha",
        -9.393892751507286
      ],
      [
        "half",
        -9.393987916503134
      ],
      [
        "produce",
        -9.395130448312464
      ],
      [
        "ent",
        -9.395329262343752
      ],
      [
        "Ġcomputer",
        -9.396954536451542
      ],
      [
        "Ġfish",
        -9.397472782993598
      ],
      [
        "time",
        -9.39821685005292
      ],
      [
        "U",
        -9.398872993953889
      ],
      [
        "ĠZ",
        -9.399191475849312
      ],
      [
        "political",
        -9.40064984948563
      ],
      [
        "break",
        -9.40175923195657
      ],
      [
        "Ġent",
        -9.402517248265935
      ],
      [
        "page",
        -9.402576032696883
      ],
      [
        "Ġcre",
        -9.406127096871668
      ],
      [
        "learning",
        -9.406199262791462
      ],
      [
        "active",
        -9.407325889732062
      ],
      [
        "Ġbenefi",
        -9.407460355456497
      ],
      [
        "pain",
        -9.40812820006549
      ],
      [
        "Ġalle",
        -9.409996614894991
      ],
      [
        "Ġmar",
        -9.41125025426808
      ],
      [
        "Ġline",
        -9.412054788391476
      ],
      [
        "complete",
        -9.412419485475416
      ],
      [
        "ario",
        -9.41330912723426
      ],
      [
        "Ġrefer",
        -9.413592296921278
      ],
      [
        "Ġfarm",
        -9.41468515995708
      ],
      [
        "Ġhasta",
        -9.415908071350426
      ],
      [
        "quier",
        -9.417489977838018
      ],
      [
        "Ġside",
        -9.417547108469895
      ],
      [
        "ists",
        -9.419521692943071
      ],
      [
        "Ġprepar",
        -9.420464173084111
      ],
      [
        "teacher",
        -9.420993573867207
      ],
      [
        "ization",
        -9.421621224032908
      ],
      [
        "Ġwide",
        -9.421824410352514
      ],
      [
        "drug",
        -9.422290125187034
      ],
      [
        "antes",
        -9.42360615206452
      ],
      [
        "Ġcontra",
        -9.424140200894453
      ],
      [
        "des",
        -9.425984760162878
      ],
      [
        "Ġstudent",
        -9.42704789708326
      ],
      [
        "groups",
        -9.428704948082952
      ],
      [
        "necess",
        -9.428705349832509
      ],
      [
        "Ġcombin",
        -9.42877303851552
      ],
      [
        "wur",
        -9.430502579051986
      ],
      [
        "Ġ14",
        -9.430861792140233
      ],
      [
        "50",
        -9.431092432578469
      ],
      [
        "Ġzur",
        -9.43166405831036
      ],
      [
        "Ġmis",
        -9.431868679655
      ],
      [
        "Ġfue",
        -9.431918848547904
      ],
      [
        "Ġpod",
        -9.433020957326542
      ],
      [
        "ĠScience",
        -9.433901842467948
      ],
      [
        "king",
        -9.434220258192726
      ],
      [
        "ĠX",
        -9.434469106339089
      ],
      [
        "article",
        -9.436259263075952
      ],
      [
        "empt",
        -9.4362629226977
      ],
      [
        "account",
        -9.43651232700031
      ],
      [
        "Ġ11",
        -9.436879258640955
      ],
      [
        "äºĨ",
        -9.442927641664316
      ],
      [
        "dÃŃa",
        -9.44308296796761
      ],
      [
        "over",
        -9.44348594699614
      ],
      [
        "ĠEnglish",
        -9.443770186146638
      ],
      [
        "ĠEarth",
        -9.444256550466717
      ],
      [
        "ĠUS",
        -9.444606572891765
      ],
      [
        "Ġservice",
        -9.444909086083907
      ],
      [
        "Ġkind",
        -9.44616144147823
      ],
      [
        "studies",
        -9.447192729161427
      ],
      [
        "once",
        -9.448412131203604
      ],
      [
        "Ġexce",
        -9.44987655550836
      ],
      [
        "org",
        -9.450226664482331
      ],
      [
        "tes",
        -9.450963912587577
      ],
      [
        "uando",
        -9.451327609402684
      ],
      [
        "activity",
        -9.45155350471934
      ],
      [
        "heat",
        -9.452459768474656
      ],
      [
        "today",
        -9.453180628351893
      ],
      [
        "Ġblack",
        -9.453782722691614
      ],
      [
        "electric",
        -9.453959962245138
      ],
      [
        "ĠCon",
        -9.454687079895894
      ],
      [
        "Ġadv",
        -9.456426397509093
      ],
      [
        "larÄ±n",
        -9.457811783345509
      ],
      [
        "ĠWhat",
        -9.458191884440875
      ],
      [
        "Ġglobal",
        -9.459126090789931
      ],
      [
        "Ġcas",
        -9.459784949581843
      ],
      [
        "ĠCenter",
        -9.4605161240354
      ],
      [
        "Ġstandard",
        -9.463596566662346
      ],
      [
        "Ġsimpl",
        -9.464443985808694
      ],
      [
        "Ġwhite",
        -9.464493837830938
      ],
      [
        "Ġtop",
        -9.464910073586292
      ],
      [
        "nÄ±n",
        -9.466856359241678
      ],
      [
        "climate",
        -9.467488918725518
      ],
      [
        "conduct",
        -9.46780497442751
      ],
      [
        "medical",
        -9.468094189694655
      ],
      [
        "team",
        -9.468607725254229
      ],
      [
        "cision",
        -9.468764444035886
      ],
      [
        "Wh",
        -9.469216110586434
      ],
      [
        "Ġpe",
        -9.472923578999866
      ],
      [
        "ates",
        -9.473078372556472
      ],
      [
        "lines",
        -9.474031506171066
      ],
      [
        "Ġwor",
        -9.474263664584647
      ],
      [
        "How",
        -9.474395593965436
      ],
      [
        "her",
        -9.47640224624208
      ],
      [
        "iert",
        -9.476757036625012
      ],
      [
        "Ġground",
        -9.47697288461162
      ],
      [
        "mejor",
        -9.478283632991651
      ],
      [
        "room",
        -9.479104598534924
      ],
      [
        "Ġsuper",
        -9.48011625228232
      ],
      [
        "moment",
        -9.480640116290337
      ],
      [
        "adult",
        -9.480665854164862
      ],
      [
        "ĠCo",
        -9.481139839405206
      ],
      [
        "matter",
        -9.485690342210429
      ],
      [
        "words",
        -9.48646196727123
      ],
      [
        "nuev",
        -9.487538417305869
      ],
      [
        "draw",
        -9.488578466076625
      ],
      [
        "resources",
        -9.488660728484469
      ],
      [
        "ach",
        -9.488845645645474
      ],
      [
        "muy",
        -9.491697080457945
      ],
      [
        "ĠDer",
        -9.492124723728049
      ],
      [
        "iendo",
        -9.495237245413833
      ],
      [
        "mission",
        -9.495746301925363
      ],
      [
        "amos",
        -9.496188177327785
      ],
      [
        "2007",
        -9.498039638410075
      ],
      [
        "ically",
        -9.498622704246731
      ],
      [
        "move",
        -9.498850129164918
      ],
      [
        "symptom",
        -9.498966175264142
      ],
      [
        "tro",
        -9.499188621100672
      ],
      [
        "went",
        -9.500064278645644
      ],
      [
        "ĠEr",
        -9.501301144545469
      ],
      [
        "Ġtend",
        -9.501369759805758
      ],
      [
        "weight",
        -9.501373859603254
      ],
      [
        "Ġfire",
        -9.5019915429895
      ],
      [
        "attack",
        -9.503023066694489
      ],
      [
        "Ġtrabaj",
        -9.503857889405744
      ],
      [
        "Ġnation",
        -9.504082654684384
      ],
      [
        "Ġpas",
        -9.504746565742156
      ],
      [
        "Ġrelativ",
        -9.505860088039716
      ],
      [
        "Ġ13",
        -9.506271168809736
      ],
      [
        "join",
        -9.50631385931566
      ],
      [
        "ieren",
        -9.506645095174934
      ],
      [
        "Ġzaman",
        -9.50692295606022
      ],
      [
        "tention",
        -9.508971687939704
      ],
      [
        "understand",
        -9.511805926824705
      ],
      [
        "application",
        -9.512468813588288
      ],
      [
        "ological",
        -9.513518762392325
      ],
      [
        "Ġsuppl",
        -9.51452083632182
      ],
      [
        "Ġ50",
        -9.51505313385504
      ],
      [
        "ĠResearch",
        -9.515668654243926
      ],
      [
        "ces",
        -9.516382739769869
      ],
      [
        "six",
        -9.517856338267434
      ],
      [
        "ĠOne",
        -9.518252317427246
      ],
      [
        "chemical",
        -9.518336835385252
      ],
      [
        "commend",
        -9.518912410213709
      ],
      [
        "siÃ³n",
        -9.519442800547752
      ],
      [
        "acros",
        -9.51996384635109
      ],
      [
        "nature",
        -9.520078850562244
      ],
      [
        "Ġyet",
        -9.520361074840425
      ],
      [
        "ĠyÄ±l",
        -9.521081215462385
      ],
      [
        "lik",
        -9.521149780597913
      ],
      [
        "amente",
        -9.521382339918246
      ],
      [
        "Ġyer",
        -9.524197677754254
      ],
      [
        "Ġlarg",
        -9.52465373986115
      ],
      [
        "types",
        -9.52482147647033
      ],
      [
        "section",
        -9.52555464240435
      ],
      [
        "Ġatt",
        -9.525625725008728
      ],
      [
        "ctivities",
        -9.526427360107837
      ],
      [
        "lerin",
        -9.526821146051551
      ],
      [
        "ĠMar",
        -9.529719601886235
      ],
      [
        "town",
        -9.530038129665744
      ],
      [
        "emos",
        -9.531185798102907
      ],
      [
        "living",
        -9.53123232597998
      ],
      [
        "address",
        -9.531764552760205
      ],
      [
        "night",
        -9.532388407500608
      ],
      [
        "Ġprincip",
        -9.533949547470256
      ],
      [
        "uch",
        -9.534058999086076
      ],
      [
        "doctor",
        -9.534157331718603
      ],
      [
        "seen",
        -9.53446929760898
      ],
      [
        "ĠInstitut",
        -9.536704527863296
      ],
      [
        "long",
        -9.537172273755036
      ],
      [
        "Ġact",
        -9.537242573007838
      ],
      [
        "ador",
        -9.540068557112756
      ],
      [
        "16",
        -9.54032303295494
      ],
      [
        "reduce",
        -9.540863500848442
      ],
      [
        "Ġbill",
        -9.541891406465226
      ],
      [
        "iety",
        -9.542255023497049
      ],
      [
        "Ġmal",
        -9.542647019422136
      ],
      [
        "ble",
        -9.543095376570225
      ],
      [
        "Ġmass",
        -9.543702359808815
      ],
      [
        "Ġreduc",
        -9.54389850342846
      ],
      [
        "rÃ¡",
        -9.544004396428702
      ],
      [
        "reach",
        -9.546196315554546
      ],
      [
        "mile",
        -9.546613101596646
      ],
      [
        "kadar",
        -9.54665239246223
      ],
      [
        "spread",
        -9.547567106906984
      ],
      [
        "âĢ¢",
        -9.548846156109317
      ],
      [
        "Ġunter",
        -9.549030949244912
      ],
      [
        "business",
        -9.549537484716293
      ],
      [
        "Ġimport",
        -9.551065763141528
      ],
      [
        "Ġ25",
        -9.55354525532382
      ],
      [
        "describ",
        -9.555082485275706
      ],
      [
        "Ġfat",
        -9.55534479860712
      ],
      [
        "coming",
        -9.556222145897934
      ],
      [
        "Re",
        -9.556230416830324
      ],
      [
        "aÃ±os",
        -9.557109362730149
      ],
      [
        "Ġproduct",
        -9.557547686202849
      ],
      [
        "das",
        -9.559070347223232
      ],
      [
        "ĠHis",
        -9.559507381942746
      ],
      [
        "rights",
        -9.559553145775256
      ],
      [
        "mit",
        -9.560019117493692
      ],
      [
        "Ġpay",
        -9.5602349797701
      ],
      [
        "Ġcontact",
        -9.560419362204367
      ],
      [
        "Ġtri",
        -9.563807898857368
      ],
      [
        "199",
        -9.564112904960744
      ],
      [
        "Ġfin",
        -9.56740174636907
      ],
      [
        "movement",
        -9.567591625428472
      ],
      [
        "ĠAb",
        -9.567954212531683
      ],
      [
        "Ġfee",
        -9.568257724647442
      ],
      [
        "end",
        -9.568770194216771
      ],
      [
        "Ġhab",
        -9.56883664731774
      ],
      [
        "feature",
        -9.569019862134551
      ],
      [
        "Ġgerek",
        -9.5692543602145
      ],
      [
        "ley",
        -9.569574318028389
      ],
      [
        "Ġmarket",
        -9.569639591477518
      ],
      [
        "hora",
        -9.570381955950213
      ],
      [
        "Many",
        -9.570863697129978
      ],
      [
        "Ġcho",
        -9.571210546045911
      ],
      [
        "Ġbase",
        -9.571463275991745
      ],
      [
        "provid",
        -9.572631545460789
      ],
      [
        "ians",
        -9.57374710970461
      ],
      [
        "pressur",
        -9.57445229027578
      ],
      [
        "story",
        -9.575480692540417
      ],
      [
        "Ġbig",
        -9.575604078767851
      ],
      [
        "2013",
        -9.576779199242134
      ],
      [
        "Ġju",
        -9.579763091089443
      ],
      [
        "ï¼",
        -9.580135623515922
      ],
      [
        "14",
        -9.58028856578808
      ],
      [
        "Ġtie",
        -9.58088562638726
      ],
      [
        "fail",
        -9.581699613318127
      ],
      [
        "behavior",
        -9.582143243105415
      ],
      [
        "Ġweb",
        -9.582483380853008
      ],
      [
        "ĠDas",
        -9.58281052000639
      ],
      [
        "Other",
        -9.583535712517016
      ],
      [
        "Ġcol",
        -9.583827086509451
      ],
      [
        "ĠSan",
        -9.58468149814112
      ],
      [
        "ĠDo",
        -9.5848498370802
      ],
      [
        "place",
        -9.5859092892877
      ],
      [
        "Ġwen",
        -9.58679374612054
      ],
      [
        "kill",
        -9.586878352952944
      ],
      [
        "etc",
        -9.587259155591946
      ],
      [
        "bring",
        -9.587804470796906
      ],
      [
        "13",
        -9.587932537123924
      ],
      [
        "ably",
        -9.588356304310498
      ],
      [
        "fficient",
        -9.588873226770454
      ],
      [
        "iÃ³n",
        -9.589548589833251
      ],
      [
        "Ġwrit",
        -9.59061616420112
      ],
      [
        "leas",
        -9.591646772642015
      ],
      [
        "leave",
        -9.592836595319593
      ],
      [
        "tion",
        -9.593097268811116
      ],
      [
        "Ġvi",
        -9.593514055725851
      ],
      [
        "critic",
        -9.59375622024593
      ],
      [
        "ĠIndian",
        -9.595645023600191
      ],
      [
        "Ġstep",
        -9.596407703965284
      ],
      [
        "nswer",
        -9.59691516138223
      ],
      [
        "Ġhear",
        -9.596925814469175
      ],
      [
        "Ġvideo",
        -9.599561062233484
      ],
      [
        "Although",
        -9.600289509182474
      ],
      [
        "Ġfall",
        -9.602246399117194
      ],
      [
        "gard",
        -9.60370577582445
      ],
      [
        "ard",
        -9.603939173501104
      ],
      [
        "ung",
        -9.605038429910696
      ],
      [
        "Ã³n",
        -9.605559342336251
      ],
      [
        "organization",
        -9.607247393393411
      ],
      [
        "Ġmind",
        -9.60730758712695
      ],
      [
        "bi",
        -9.607727790925232
      ],
      [
        "Ġcame",
        -9.607739025682232
      ],
      [
        "ehr",
        -9.60783220437913
      ],
      [
        "depend",
        -9.609160947684597
      ],
      [
        "17",
        -9.610161090216456
      ],
      [
        "Ġexperiment",
        -9.61042015500386
      ],
      [
        "Ġkendi",
        -9.610494782624476
      ],
      [
        "Ġneces",
        -9.611195857884036
      ],
      [
        "Ġsign",
        -9.612663316785657
      ],
      [
        "But",
        -9.612717181126234
      ],
      [
        "ciones",
        -9.613715233488962
      ],
      [
        "ĠSu",
        -9.614140882811649
      ],
      [
        "ĠEin",
        -9.614597769480069
      ],
      [
        "pp",
        -9.615329997925452
      ],
      [
        "estimat",
        -9.616747934232055
      ],
      [
        "Ġcontent",
        -9.617319543562363
      ],
      [
        "æĺ¯",
        -9.617349669122998
      ],
      [
        "cada",
        -9.617527699701489
      ],
      [
        "new",
        -9.618239129921754
      ],
      [
        "leader",
        -9.618274606648397
      ],
      [
        "infection",
        -9.618531088682143
      ],
      [
        "buil",
        -9.619609836427736
      ],
      [
        "Ġbio",
        -9.61983346721249
      ],
      [
        "IV",
        -9.620792118200368
      ],
      [
        "working",
        -9.62209927228773
      ],
      [
        "print",
        -9.622100937422152
      ],
      [
        "popular",
        -9.6224039073367
      ],
      [
        "ĠVer",
        -9.622593112746566
      ],
      [
        "zu",
        -9.622702706841403
      ],
      [
        "hood",
        -9.623176089531624
      ],
      [
        "ĠSe",
        -9.62336926983964
      ],
      [
        "sense",
        -9.62434763768728
      ],
      [
        "born",
        -9.6244199144899
      ],
      [
        "teen",
        -9.624595281266842
      ],
      [
        "Ġcap",
        -9.624880055495522
      ],
      [
        "ï¼Ł",
        -9.624916866134528
      ],
      [
        "ï¼ī",
        -9.625236869710426
      ],
      [
        "ole",
        -9.625300492722731
      ],
      [
        "days",
        -9.62533875823927
      ],
      [
        "Ġcomplet",
        -9.62607939154272
      ],
      [
        "ages",
        -9.62622375505444
      ],
      [
        "ï¼Ī",
        -9.626356969182268
      ],
      [
        "forest",
        -9.627285248334683
      ],
      [
        "talk",
        -9.628644337520878
      ],
      [
        "From",
        -9.630203061338449
      ],
      [
        "they",
        -9.630614488801736
      ],
      [
        "ï¼ģ",
        -9.631446237437318
      ],
      [
        "ĠKing",
        -9.63174358592514
      ],
      [
        "ĠsÃ¼re",
        -9.631752143512148
      ],
      [
        "nun",
        -9.632326046528949
      ],
      [
        "simple",
        -9.63242810818298
      ],
      [
        "ison",
        -9.63253050454865
      ],
      [
        "Ġaccu",
        -9.633581781157034
      ],
      [
        "propert",
        -9.633712922852167
      ],
      [
        "Ġnos",
        -9.63573971221731
      ],
      [
        "idades",
        -9.635946609626558
      ],
      [
        "Ġagre",
        -9.637512306868452
      ],
      [
        "Ġmu",
        -9.638071988320652
      ],
      [
        "pproach",
        -9.638505710204996
      ],
      [
        "management",
        -9.639867914661362
      ],
      [
        "Ġapp",
        -9.639878386463254
      ],
      [
        "courag",
        -9.640099800112912
      ],
      [
        "ures",
        -9.640118060336835
      ],
      [
        "ĠSchool",
        -9.6406358205221
      ],
      [
        "sonra",
        -9.640941111754469
      ],
      [
        "uestra",
        -9.641742716192692
      ],
      [
        "Ġface",
        -9.642241969930092
      ],
      [
        "remov",
        -9.644069356480644
      ],
      [
        "Ġhay",
        -9.64495734656491
      ],
      [
        "Ġma",
        -9.645694749287385
      ],
      [
        "Ġinternational",
        -9.647280587717493
      ],
      [
        "Ġfast",
        -9.647548994013643
      ],
      [
        "ncy",
        -9.649335430329533
      ],
      [
        "ĠMan",
        -9.650372901795867
      ],
      [
        "Â»",
        -9.650833356835678
      ],
      [
        "2006",
        -9.650913057477489
      ],
      [
        "Ġexpl",
        -9.652172726199916
      ],
      [
        "wards",
        -9.652474539883766
      ],
      [
        "No",
        -9.653016654220924
      ],
      [
        "Ġfi",
        -9.653983516249552
      ],
      [
        "Ġrema",
        -9.654100820961876
      ],
      [
        "done",
        -9.65421107093789
      ],
      [
        "speak",
        -9.654327049562283
      ],
      [
        "Ġpersona",
        -9.65448247051726
      ],
      [
        "skin",
        -9.654853490122802
      ],
      [
        "Ġperform",
        -9.659304443534351
      ],
      [
        "cual",
        -9.65953735803477
      ],
      [
        "correct",
        -9.660158462568328
      ],
      [
        "Ġca",
        -9.662502127217651
      ],
      [
        "On",
        -9.663434123938034
      ],
      [
        "2000",
        -9.66381823552904
      ],
      [
        "Ġconcept",
        -9.6641053736624
      ],
      [
        "Ġearth",
        -9.664306485236729
      ],
      [
        "Ġeff",
        -9.664563018016038
      ],
      [
        "ĠChristian",
        -9.666081142771535
      ],
      [
        "Canad",
        -9.667352880569178
      ],
      [
        "fuel",
        -9.667540729441845
      ],
      [
        "official",
        -9.667773866062197
      ],
      [
        "Ġconsum",
        -9.66781978613385
      ],
      [
        "Ġflow",
        -9.66961880051965
      ],
      [
        "environmental",
        -9.669992940660988
      ],
      [
        "scale",
        -9.670069953357755
      ],
      [
        "accept",
        -9.670334292900376
      ],
      [
        "April",
        -9.670369844834296
      ],
      [
        "ĠShe",
        -9.672062940042784
      ],
      [
        "Ġfund",
        -9.672317884091829
      ],
      [
        "nues",
        -9.673146523071235
      ],
      [
        "Ġvari",
        -9.673785892620124
      ],
      [
        "primer",
        -9.674093072697652
      ],
      [
        "epartment",
        -9.674298869450228
      ],
      [
        "jur",
        -9.674720693041078
      ],
      [
        "teach",
        -9.675473413732762
      ],
      [
        "Ġdetermin",
        -9.675764287998804
      ],
      [
        "arak",
        -9.676536755261017
      ],
      [
        "rench",
        -9.677316835156184
      ],
      [
        "Ġcollect",
        -9.67758830918824
      ],
      [
        "ĠJun",
        -9.677718132182836
      ],
      [
        "network",
        -9.677924094572669
      ],
      [
        "problems",
        -9.67852200220418
      ],
      [
        "Ġenter",
        -9.679486589418572
      ],
      [
        "fill",
        -9.680114323615497
      ],
      [
        "begin",
        -9.68073369752945
      ],
      [
        "kein",
        -9.680920010998008
      ],
      [
        "adas",
        -9.68093479063224
      ],
      [
        "complex",
        -9.681957491043102
      ],
      [
        "held",
        -9.6828290454105
      ],
      [
        "Ġextra",
        -9.683154944771536
      ],
      [
        "respect",
        -9.68342224698257
      ],
      [
        "Ġgreen",
        -9.68455505259212
      ],
      [
        "immer",
        -9.686513352758023
      ],
      [
        "warm",
        -9.687305708820707
      ],
      [
        "å¹´",
        -9.687969943719006
      ],
      [
        "ĠBy",
        -9.688395020304572
      ],
      [
        "he",
        -9.688731402502974
      ],
      [
        "ere",
        -9.689207679237978
      ],
      [
        "Ġweiter",
        -9.689856871862771
      ],
      [
        "plain",
        -9.68992898529606
      ],
      [
        "sÄ±",
        -9.690086922958074
      ],
      [
        "water",
        -9.690471112012398
      ],
      [
        "echnique",
        -9.690548319673978
      ],
      [
        "Ġsound",
        -9.690610511078686
      ],
      [
        "understanding",
        -9.690650559186375
      ],
      [
        "pair",
        -9.69084232304956
      ],
      [
        "Ġprev",
        -9.693552469000274
      ],
      [
        "res",
        -9.694124164381464
      ],
      [
        "vision",
        -9.694174428465764
      ],
      [
        "Jew",
        -9.694876436911368
      ],
      [
        "500",
        -9.697308900632098
      ],
      [
        "Ġbulun",
        -9.698220408732498
      ],
      [
        "location",
        -9.698376128841064
      ],
      [
        "money",
        -9.69860663392109
      ],
      [
        "surviv",
        -9.70061584738533
      ],
      [
        "acy",
        -9.700638380895857
      ],
      [
        "Ġ24",
        -9.701994508837924
      ],
      [
        "ill",
        -9.70245638883845
      ],
      [
        "aÃ±o",
        -9.702785728039398
      ],
      [
        "masÄ±",
        -9.702808308837502
      ],
      [
        "Ġcarr",
        -9.703912463897442
      ],
      [
        "Ġbi",
        -9.704266243299184
      ],
      [
        "Ġlate",
        -9.704659209613965
      ],
      [
        "Ġfacilit",
        -9.705547754416276
      ],
      [
        "Ġpar",
        -9.705605609235214
      ],
      [
        "safe",
        -9.705899163857566
      ],
      [
        "charge",
        -9.707359507495514
      ],
      [
        "ugar",
        -9.7085692482415
      ],
      [
        "Ġpos",
        -9.708929070528916
      ],
      [
        "gain",
        -9.711591750783006
      ],
      [
        "deep",
        -9.71204828432497
      ],
      [
        "cultural",
        -9.712326373741574
      ],
      [
        "21",
        -9.71385127902691
      ],
      [
        "Ġeconom",
        -9.7148386818814
      ],
      [
        "consist",
        -9.715071540205894
      ],
      [
        "ire",
        -9.715889188683924
      ],
      [
        "area",
        -9.716044808224066
      ],
      [
        "love",
        -9.716671616844875
      ],
      [
        "2005",
        -9.71772175839316
      ],
      [
        "scientific",
        -9.718561302155583
      ],
      [
        "Ġpermit",
        -9.719178933300077
      ],
      [
        "quick",
        -9.721007621807502
      ],
      [
        "dir",
        -9.721320844591764
      ],
      [
        "25",
        -9.721722596260058
      ],
      [
        "Ġviol",
        -9.721990968776234
      ],
      [
        "tained",
        -9.722053363199535
      ],
      [
        "ement",
        -9.722156615003591
      ],
      [
        "mediate",
        -9.72229192184224
      ],
      [
        "Ġgel",
        -9.723060010802122
      ],
      [
        "ney",
        -9.7234103556637
      ],
      [
        "poor",
        -9.723420417687766
      ],
      [
        "systems",
        -9.72436166212984
      ],
      [
        "California",
        -9.724439807803382
      ],
      [
        "style",
        -9.724702882625484
      ],
      [
        "pattern",
        -9.72581671722298
      ],
      [
        "imiento",
        -9.728863802013516
      ],
      [
        "south",
        -9.729096523717317
      ],
      [
        "ĠOr",
        -9.7309706090999
      ],
      [
        "Ġpolic",
        -9.731165332073234
      ],
      [
        "analysis",
        -9.732990687599754
      ],
      [
        "Ġbin",
        -9.733444674133311
      ],
      [
        "ĠWest",
        -9.733715910649837
      ],
      [
        "basic",
        -9.734313021428358
      ],
      [
        "true",
        -9.73462669588984
      ],
      [
        "Washington",
        -9.734865567039003
      ],
      [
        "rain",
        -9.73492060144983
      ],
      [
        "Ġorganiz",
        -9.735258776666718
      ],
      [
        "Ġyeni",
        -9.735754209833656
      ],
      [
        "Ġbit",
        -9.736703103192044
      ],
      [
        "opportun",
        -9.737561678968364
      ],
      [
        "ones",
        -9.738309191977775
      ],
      [
        "Ġcat",
        -9.738472595790554
      ],
      [
        "Ġtrans",
        -9.739189504248015
      ],
      [
        "President",
        -9.739234586697522
      ],
      [
        "release",
        -9.7426164631323
      ],
      [
        "piece",
        -9.744223561456652
      ],
      [
        "check",
        -9.744375006465544
      ],
      [
        "version",
        -9.744651370433186
      ],
      [
        "sible",
        -9.74511952044897
      ],
      [
        "review",
        -9.745372156347612
      ],
      [
        "ĠRiver",
        -9.74635569278047
      ],
      [
        "beginn",
        -9.74699395069292
      ],
      [
        "rÃŃa",
        -9.747503817935744
      ],
      [
        "demand",
        -9.747810228856313
      ],
      [
        "Ġago",
        -9.747990065937744
      ],
      [
        "solution",
        -9.74909459941152
      ],
      [
        "lot",
        -9.750645322789357
      ],
      [
        "threa",
        -9.751621110077814
      ],
      [
        "tic",
        -9.752445273007424
      ],
      [
        "sequence",
        -9.753101497625035
      ],
      [
        "board",
        -9.753198634244685
      ],
      [
        "craft",
        -9.753456941088285
      ],
      [
        "feel",
        -9.75456957925006
      ],
      [
        "tell",
        -9.755746405734556
      ],
      [
        "ki",
        -9.75584279540101
      ],
      [
        "Ġparte",
        -9.755866114740744
      ],
      [
        "cuent",
        -9.756253997911616
      ],
      [
        "skill",
        -9.75651033551986
      ],
      [
        "You",
        -9.757975496956009
      ],
      [
        "ĠAct",
        -9.758470016496588
      ],
      [
        "bar",
        -9.75914325073752
      ],
      [
        "Ġelement",
        -9.759918604597486
      ],
      [
        "price",
        -9.759921014544666
      ],
      [
        "shape",
        -9.760329201257813
      ],
      [
        "arse",
        -9.76170905124322
      ],
      [
        "Ġcut",
        -9.762197448079606
      ],
      [
        "examin",
        -9.762557090399904
      ],
      [
        "for",
        -9.763716914757117
      ],
      [
        "istic",
        -9.763734228546673
      ],
      [
        "ively",
        -9.765201844542734
      ],
      [
        "reading",
        -9.765512611966296
      ],
      [
        "Ġprotein",
        -9.766456974640054
      ],
      [
        "situation",
        -9.766981993679469
      ],
      [
        "ĠDu",
        -9.767307154985858
      ],
      [
        "eign",
        -9.767378573371294
      ],
      [
        "aron",
        -9.767926726683282
      ],
      [
        "Ġeye",
        -9.768675115658413
      ],
      [
        "60",
        -9.769094219837244
      ],
      [
        "typical",
        -9.769828015045418
      ],
      [
        "ĠGe",
        -9.769889830668046
      ],
      [
        "ĠJe",
        -9.770591253914668
      ],
      [
        "Q",
        -9.771448070961188
      ],
      [
        "wave",
        -9.771846678002875
      ],
      [
        "Ġpo",
        -9.77219541935545
      ],
      [
        "ĠolduÄŁu",
        -9.772335648322626
      ],
      [
        "iz",
        -9.77273117141028
      ],
      [
        "ute",
        -9.773849638642291
      ],
      [
        "Ã©s",
        -9.774662491655077
      ],
      [
        "Australia",
        -9.774721228559969
      ],
      [
        "ĠArt",
        -9.775308459065927
      ],
      [
        "ĠII",
        -9.776133919864554
      ],
      [
        "dependent",
        -9.776258752659803
      ],
      [
        "name",
        -9.776600587156857
      ],
      [
        "scribe",
        -9.77660186563662
      ],
      [
        "guide",
        -9.776625505117034
      ],
      [
        "Ġdiffer",
        -9.77724185790579
      ],
      [
        "mism",
        -9.7776435683471
      ],
      [
        "Ġfile",
        -9.777936413998418
      ],
      [
        "mark",
        -9.778168193450892
      ],
      [
        "ĠInternet",
        -9.779286087794263
      ],
      [
        "ĠWeb",
        -9.77968712745995
      ],
      [
        "ĠPark",
        -9.78083144762262
      ],
      [
        "Ġ40",
        -9.781092003315203
      ],
      [
        "actions",
        -9.782042301608236
      ],
      [
        "Ġrest",
        -9.783285901878576
      ],
      [
        "ĠChina",
        -9.783358317816834
      ],
      [
        "Ġalg",
        -9.783493725049546
      ],
      [
        "September",
        -9.783531546352805
      ],
      [
        "ibility",
        -9.78364391124539
      ],
      [
        "Ġdetail",
        -9.783927118334784
      ],
      [
        "za",
        -9.78448083369702
      ],
      [
        "Ġgib",
        -9.785450151413812
      ],
      [
        "Ġhan",
        -9.785751458827402
      ],
      [
        "writing",
        -9.786199738118098
      ],
      [
        "Ġprivat",
        -9.786481130320782
      ],
      [
        "entir",
        -9.78758109856526
      ],
      [
        "series",
        -9.78769834613901
      ],
      [
        "wise",
        -9.787777908260562
      ],
      [
        "shall",
        -9.78832769769982
      ],
      [
        "tener",
        -9.788683396494411
      ],
      [
        "military",
        -9.789407522752924
      ],
      [
        "mak",
        -9.789733682627956
      ],
      [
        "compani",
        -9.790255497762525
      ],
      [
        "ual",
        -9.790764559033809
      ],
      [
        "separat",
        -9.791304944523878
      ],
      [
        "xercise",
        -9.791631643249302
      ],
      [
        "ator",
        -9.79261518353366
      ],
      [
        "feed",
        -9.792869296887265
      ],
      [
        "gen",
        -9.79474507781844
      ],
      [
        "length",
        -9.795588305489144
      ],
      [
        "ĠPress",
        -9.795767623679074
      ],
      [
        "mpo",
        -9.79611614703806
      ],
      [
        "Ġimplement",
        -9.796946501459246
      ],
      [
        "central",
        -9.796947118838087
      ],
      [
        "unit",
        -9.797149090027482
      ],
      [
        "æľĪ",
        -9.797188637514587
      ],
      [
        "training",
        -9.797885631555216
      ],
      [
        "ĠAugust",
        -9.798060561623126
      ],
      [
        "court",
        -9.798224661686264
      ],
      [
        "travel",
        -9.798283759823338
      ],
      [
        "river",
        -9.79860756848252
      ],
      [
        "clean",
        -9.798846906654672
      ],
      [
        "elationship",
        -9.800123813787163
      ],
      [
        "itional",
        -9.80013559640842
      ],
      [
        "industry",
        -9.800237122093794
      ],
      [
        "Ġ21",
        -9.800493785623893
      ],
      [
        "otra",
        -9.800921574333383
      ],
      [
        "Ġwieder",
        -9.80121032854358
      ],
      [
        "arily",
        -9.801513294753024
      ],
      [
        "William",
        -9.802124208822212
      ],
      [
        "center",
        -9.802269745135265
      ],
      [
        "sonder",
        -9.802742943523851
      ],
      [
        "ches",
        -9.802842872524648
      ],
      [
        "lerini",
        -9.803996243380794
      ],
      [
        "Ġreve",
        -9.804113224429674
      ],
      [
        "ification",
        -9.804387573881003
      ],
      [
        "22",
        -9.804600913716538
      ],
      [
        "lack",
        -9.80620498604894
      ],
      [
        "genetic",
        -9.806542479890174
      ],
      [
        "Ġhier",
        -9.806564892990904
      ],
      [
        "thus",
        -9.80691948925391
      ],
      [
        "ĠGeneral",
        -9.808162884338184
      ],
      [
        "dvance",
        -9.808258547519726
      ],
      [
        "24",
        -9.809230076064154
      ],
      [
        "ground",
        -9.810102377548588
      ],
      [
        "Ġcarbon",
        -9.810607275515215
      ],
      [
        "Ġcamp",
        -9.81090035757615
      ],
      [
        "build",
        -9.81132253782952
      ],
      [
        "TÃ¼rkiye",
        -9.811878924568727
      ],
      [
        "ĠCount",
        -9.81351895204511
      ],
      [
        "minute",
        -9.81502360743376
      ],
      [
        "Ġtax",
        -9.815372693044033
      ],
      [
        "ĠBo",
        -9.815427075160182
      ],
      [
        "Ġqui",
        -9.815823526415196
      ],
      [
        "year",
        -9.817622696285932
      ],
      [
        "ste",
        -9.817728449639617
      ],
      [
        "Ġrealiz",
        -9.818010644083284
      ],
      [
        "terior",
        -9.818394660527789
      ],
      [
        "command",
        -9.818648356784028
      ],
      [
        "appropriat",
        -9.81968177719336
      ],
      [
        "Bu",
        -9.82012671939744
      ],
      [
        "society",
        -9.821372811043728
      ],
      [
        "mother",
        -9.821494490395157
      ],
      [
        "Ġradi",
        -9.821558762722669
      ],
      [
        "ze",
        -9.8223640202429
      ],
      [
        "Ġflo",
        -9.82251762358758
      ],
      [
        "Ġintroduc",
        -9.822656250376877
      ],
      [
        "Ġinform",
        -9.823237615028786
      ],
      [
        "Ġpoll",
        -9.823570842278835
      ],
      [
        "lief",
        -9.824360265806195
      ],
      [
        "stream",
        -9.826090309055326
      ],
      [
        "figure",
        -9.826161231705187
      ],
      [
        "Ġgut",
        -9.82777216517099
      ],
      [
        "Ġfilm",
        -9.828289841329582
      ],
      [
        "Ġexp",
        -9.828993576256964
      ],
      [
        "Ġoperat",
        -9.83033183214992
      ],
      [
        "sexual",
        -9.831559821842458
      ],
      [
        "giv",
        -9.832293656046636
      ],
      [
        "Ġtele",
        -9.832508173843843
      ],
      [
        "Ã§",
        -9.832920543375232
      ],
      [
        "70",
        -9.833642194846083
      ],
      [
        "Church",
        -9.833916590979005
      ],
      [
        "ĠgeÃ§",
        -9.83409045495071
      ],
      [
        "sel",
        -9.834206816226986
      ],
      [
        "Ġplanet",
        -9.834572989338978
      ],
      [
        "proper",
        -9.834836100185925
      ],
      [
        "Ġdiet",
        -9.835004571697384
      ],
      [
        "regular",
        -9.835035233218951
      ],
      [
        "reflect",
        -9.836007495117682
      ],
      [
        "easi",
        -9.836184757751402
      ],
      [
        "products",
        -9.836251205592486
      ],
      [
        "fight",
        -9.836506756944324
      ],
      [
        "policy",
        -9.836567794584605
      ],
      [
        "Ġmemor",
        -9.837372974068357
      ],
      [
        "ĠMarch",
        -9.837513417578323
      ],
      [
        "ĠInternational",
        -9.837737738642105
      ],
      [
        "Ġbar",
        -9.838777907676649
      ],
      [
        "cho",
        -9.838874779781662
      ],
      [
        "haps",
        -9.83888356658536
      ],
      [
        "picture",
        -9.839354735463711
      ],
      [
        "Ġmusic",
        -9.839905162283769
      ],
      [
        "wish",
        -9.84000240392406
      ],
      [
        "Ġinvestig",
        -9.840221604981927
      ],
      [
        "president",
        -9.840581413806875
      ],
      [
        "ite",
        -9.840877325673514
      ],
      [
        "ring",
        -9.8410636428576
      ],
      [
        "disorder",
        -9.842553989195808
      ],
      [
        "vez",
        -9.842852793899162
      ],
      [
        "Ġappro",
        -9.843194177661424
      ],
      [
        "2004",
        -9.843855532047188
      ],
      [
        "volve",
        -9.843894696502918
      ],
      [
        "Ľ",
        -9.845569619043356
      ],
      [
        "ique",
        -9.845918119219135
      ],
      [
        "ĠHer",
        -9.846937506939202
      ],
      [
        "Ġgran",
        -9.84784271428022
      ],
      [
        "Â·",
        -9.847908331224714
      ],
      [
        "Ġshar",
        -9.848223832097354
      ],
      [
        "Ġmedia",
        -9.848324378793864
      ],
      [
        "thous",
        -9.848390294560236
      ],
      [
        "sÃŃ",
        -9.848522309150608
      ],
      [
        "proced",
        -9.84857901024636
      ],
      [
        "burn",
        -9.84862468912856
      ],
      [
        "ĠNe",
        -9.849633669453288
      ],
      [
        "Ġserv",
        -9.849957619714466
      ],
      [
        "idos",
        -9.850692197953348
      ],
      [
        "40",
        -9.850773342614504
      ],
      [
        "°",
        -9.852495990913557
      ],
      [
        "@",
        -9.85320612685018
      ],
      [
        "sources",
        -9.85328945538729
      ],
      [
        "discus",
        -9.85409270803722
      ],
      [
        "Ġorigin",
        -9.85826746310804
      ],
      [
        "collection",
        -9.859353679412612
      ],
      [
        "ĠÃ¶nce",
        -9.8594034682874
      ],
      [
        "cade",
        -9.860057710065618
      ],
      [
        "vida",
        -9.860628267112943
      ],
      [
        "aba",
        -9.86104373734152
      ],
      [
        "Ġwind",
        -9.86266500805568
      ],
      [
        "sample",
        -9.862889193147934
      ],
      [
        "ĠkarÅŁÄ±",
        -9.862897605265076
      ],
      [
        "more",
        -9.863561004155947
      ],
      [
        "erek",
        -9.864038264334338
      ],
      [
        "birth",
        -9.864832714523692
      ],
      [
        "vious",
        -9.86534391722068
      ],
      [
        "larda",
        -9.866250321350869
      ],
      [
        "election",
        -9.866410492906027
      ],
      [
        "bien",
        -9.867106552716455
      ],
      [
        "positive",
        -9.868495919965296
      ],
      [
        "target",
        -9.868555043684916
      ],
      [
        "challenge",
        -9.86887444719541
      ],
      [
        "orts",
        -9.869136668212098
      ],
      [
        "ĠgÃ¼n",
        -9.869882351468686
      ],
      [
        "eason",
        -9.87228090306204
      ],
      [
        "federal",
        -9.872334110167303
      ],
      [
        "entes",
        -9.872429356620758
      ],
      [
        "component",
        -9.872451207916765
      ],
      [
        "Ġcomp",
        -9.87286206430835
      ],
      [
        "Ġforma",
        -9.873216188732254
      ],
      [
        "lÄ±k",
        -9.87327700628103
      ],
      [
        "essential",
        -9.873282137316728
      ],
      [
        "share",
        -9.874140633901522
      ],
      [
        "January",
        -9.874485072693483
      ],
      [
        "Ġdan",
        -9.875722272704682
      ],
      [
        "ĠCan",
        -9.876241558766193
      ],
      [
        "Ġdebe",
        -9.876562428267473
      ],
      [
        "Ġled",
        -9.877637082772496
      ],
      [
        "Education",
        -9.878705540485823
      ],
      [
        "vice",
        -9.87915117440764
      ],
      [
        "cientists",
        -9.879212374767883
      ],
      [
        "legal",
        -9.88115693278097
      ],
      [
        "November",
        -9.881360447263262
      ],
      [
        "X",
        -9.881643024498032
      ],
      [
        "select",
        -9.881860089366604
      ],
      [
        "scription",
        -9.882284363844576
      ],
      [
        "Ġbul",
        -9.882431950370306
      ],
      [
        "speed",
        -9.883101855366164
      ],
      [
        "ĠSi",
        -9.883119045227362
      ],
      [
        "ĠLos",
        -9.883865076743604
      ],
      [
        "ĠDa",
        -9.883897019044602
      ],
      [
        "Ġtransport",
        -9.885125538919688
      ],
      [
        "Â«",
        -9.885562955116834
      ],
      [
        "#",
        -9.88556760150482
      ],
      [
        "company",
        -9.886988147368404
      ],
      [
        "ĠZeit",
        -9.887868986780502
      ],
      [
        "propos",
        -9.889571225939926
      ],
      [
        "ĠInformation",
        -9.88977788218402
      ],
      [
        "probab",
        -9.889851693530508
      ],
      [
        "pleas",
        -9.890689911047795
      ],
      [
        "ĠgÃ¶re",
        -9.89152375934163
      ],
      [
        "vom",
        -9.893287213138985
      ],
      [
        "ĠChrist",
        -9.89357929087879
      ],
      [
        "thir",
        -9.89362863094114
      ],
      [
        "ĠRoman",
        -9.893871016492689
      ],
      [
        "Ġsex",
        -9.89508842241426
      ],
      [
        "machine",
        -9.895177529460508
      ],
      [
        "Ġacid",
        -9.897962350810404
      ],
      [
        "ida",
        -9.89892719268262
      ],
      [
        "capital",
        -9.899547707561071
      ],
      [
        "determine",
        -9.899693204071212
      ],
      [
        "igen",
        -9.900097593812887
      ],
      [
        "per",
        -9.90164470303944
      ],
      [
        "equal",
        -9.902043177266911
      ],
      [
        "ĠÅŁekil",
        -9.90234303798062
      ],
      [
        "Der",
        -9.902536300937513
      ],
      [
        "scientist",
        -9.902748991468352
      ],
      [
        "ver",
        -9.903202637526665
      ],
      [
        "Ġsearch",
        -9.904553097970544
      ],
      [
        "stone",
        -9.905173289906752
      ],
      [
        "traditional",
        -9.905422783752453
      ],
      [
        "Ġva",
        -9.905794614130173
      ],
      [
        "Ġdefin",
        -9.907850226049664
      ],
      [
        "ĠbÃ¼yÃ¼k",
        -9.907901687870174
      ],
      [
        "uffer",
        -9.90800264908701
      ],
      [
        "outhern",
        -9.908332285819007
      ],
      [
        "Ġstar",
        -9.90841570554666
      ],
      [
        "October",
        -9.908929060187248
      ],
      [
        "root",
        -9.909155634106313
      ],
      [
        "father",
        -9.909185387803598
      ],
      [
        "Israel",
        -9.909376109104478
      ],
      [
        "sistance",
        -9.910339698653123
      ],
      [
        "Great",
        -9.91038995929697
      ],
      [
        "Ġ194",
        -9.910593137500523
      ],
      [
        "road",
        -9.912061491543945
      ],
      [
        "church",
        -9.912934891560289
      ],
      [
        "ĠHistory",
        -9.912977705341824
      ],
      [
        "And",
        -9.913140530272289
      ],
      [
        "Ġpi",
        -9.914022364819598
      ],
      [
        "2003",
        -9.914451109635964
      ],
      [
        "happe",
        -9.914489293764731
      ],
      [
        "ĠArm",
        -9.915973091392216
      ],
      [
        "Ġinvol",
        -9.916716732714471
      ],
      [
        "<",
        -9.91676494579372
      ],
      [
        "âĢ",
        -9.917031572304326
      ],
      [
        "Ġmir",
        -9.917505427811122
      ],
      [
        "unos",
        -9.917590310791695
      ],
      [
        "Ġkon",
        -9.918486633984552
      ],
      [
        "Ã¼",
        -9.91864313368897
      ],
      [
        "fruit",
        -9.91867854220257
      ],
      [
        "Ġfea",
        -9.91989585041009
      ],
      [
        "Ġade",
        -9.92000379678494
      ],
      [
        "joy",
        -9.920071802552664
      ],
      [
        "Ġexten",
        -9.920976817627327
      ],
      [
        "iyor",
        -9.921275946237197
      ],
      [
        "trength",
        -9.921753361359189
      ],
      [
        "Ġconnect",
        -9.922067910233109
      ],
      [
        "ything",
        -9.922144369818277
      ],
      [
        ");",
        -9.92296946266614
      ],
      [
        "house",
        -9.924393110892543
      ],
      [
        "drink",
        -9.924495425946406
      ],
      [
        "head",
        -9.925676657768667
      ],
      [
        "ĠOf",
        -9.926338488185122
      ],
      [
        "ĠVor",
        -9.926619739698886
      ],
      [
        "ä¸Ń",
        -9.926634850587403
      ],
      [
        "Ġmicro",
        -9.926846621667895
      ],
      [
        "aries",
        -9.927530096864947
      ],
      [
        "aware",
        -9.92802962722218
      ],
      [
        "recogn",
        -9.928695546976249
      ],
      [
        "solar",
        -9.929354699670103
      ],
      [
        "eren",
        -9.930034655195945
      ],
      [
        "adores",
        -9.930353639264451
      ],
      [
        "website",
        -9.930615388648151
      ],
      [
        "Un",
        -9.933189020084344
      ],
      [
        "operation",
        -9.934349478087364
      ],
      [
        "earl",
        -9.935145291203792
      ],
      [
        "Ġhund",
        -9.935168930043236
      ],
      [
        "tle",
        -9.935172562679698
      ],
      [
        "ped",
        -9.935461719590933
      ],
      [
        "ently",
        -9.93614891866796
      ],
      [
        "Ġfront",
        -9.93678886962002
      ],
      [
        "pite",
        -9.93718667928134
      ],
      [
        "extreme",
        -9.93746259275538
      ],
      [
        "paint",
        -9.937846784032203
      ],
      [
        "ĠkiÅŁi",
        -9.937937831329553
      ],
      [
        "Our",
        -9.939534810260104
      ],
      [
        "Das",
        -9.939988516463554
      ],
      [
        "schon",
        -9.940467336025735
      ],
      [
        "Z",
        -9.94300687406904
      ],
      [
        "vaccin",
        -9.94329883123048
      ],
      [
        "trial",
        -9.943526619512449
      ],
      [
        "Ġgene",
        -9.943945464465871
      ],
      [
        "virus",
        -9.944214562728344
      ],
      [
        "cut",
        -9.944985509108475
      ],
      [
        "Your",
        -9.945164396857344
      ],
      [
        "broad",
        -9.945854898451348
      ],
      [
        "Ġnews",
        -9.947747438206225
      ],
      [
        "arios",
        -9.948198457132376
      ],
      [
        "hope",
        -9.94828800954754
      ],
      [
        "Congres",
        -9.948842967569403
      ],
      [
        "rates",
        -9.949191424159944
      ],
      [
        "term",
        -9.95063033745083
      ],
      [
        "ternal",
        -9.950681155109518
      ],
      [
        "Ġrec",
        -9.951161298620468
      ],
      [
        "Ġgame",
        -9.951851699583392
      ],
      [
        "Ġpres",
        -9.952676441667666
      ],
      [
        "One",
        -9.954289850288308
      ],
      [
        "Ġstress",
        -9.954549881292047
      ],
      [
        "Ġstr",
        -9.955026170571315
      ],
      [
        "ĠPer",
        -9.95552679455016
      ],
      [
        "una",
        -9.9555547650615
      ],
      [
        "Ġreligio",
        -9.957605685134414
      ],
      [
        "larÄ±nÄ±",
        -9.957968214005618
      ],
      [
        "let",
        -9.958251481741415
      ],
      [
        "Ġoppo",
        -9.958977414909306
      ],
      [
        "December",
        -9.95945387014206
      ],
      [
        "easy",
        -9.959654963791856
      ],
      [
        "coast",
        -9.959672017024692
      ],
      [
        "tree",
        -9.959683271794647
      ],
      [
        "mann",
        -9.96021351253711
      ],
      [
        "sive",
        -9.960232739720103
      ],
      [
        "23",
        -9.960269802892576
      ],
      [
        "ãĢĭ",
        -9.960331846485731
      ],
      [
        "Ġolma",
        -9.960464761563657
      ],
      [
        "Ġcelebr",
        -9.960536221218256
      ],
      [
        "Ġappli",
        -9.960890758804805
      ],
      [
        "Ġsei",
        -9.961267144259788
      ],
      [
        "ĠEst",
        -9.961499605300876
      ],
      [
        "fluence",
        -9.961638739276378
      ],
      [
        "reference",
        -9.96212732764488
      ],
      [
        "Ġactiv",
        -9.962405110026896
      ],
      [
        "fuer",
        -9.962495049694532
      ],
      [
        "civil",
        -9.963037132247722
      ],
      [
        "ĠCity",
        -9.96377278148826
      ],
      [
        "ĠIndia",
        -9.964205775595545
      ],
      [
        "trade",
        -9.965472175212357
      ],
      [
        "well",
        -9.96568319460667
      ],
      [
        "Ġserve",
        -9.965683583377912
      ],
      [
        "80",
        -9.965776808550649
      ],
      [
        "Ġutiliz",
        -9.965853981673703
      ],
      [
        "ified",
        -9.966217223152626
      ],
      [
        "London",
        -9.966397655488509
      ],
      [
        "communication",
        -9.966512492501751
      ],
      [
        "title",
        -9.966617475749633
      ],
      [
        "ãĢĬ",
        -9.966734206114817
      ],
      [
        "ä¸İ",
        -9.966995212451728
      ],
      [
        "Ġiyi",
        -9.968721856210236
      ],
      [
        "2001",
        -9.969524708694124
      ],
      [
        "race",
        -9.970542878415165
      ],
      [
        "performance",
        -9.97054806501336
      ],
      [
        "sold",
        -9.970597486263484
      ],
      [
        "ganz",
        -9.970672948624532
      ],
      [
        "aint",
        -9.970827910227642
      ],
      [
        "Ġcross",
        -9.973003388593476
      ],
      [
        "safety",
        -9.973027524618336
      ],
      [
        "Ġadapt",
        -9.973057438822249
      ],
      [
        "seven",
        -9.973575551214418
      ],
      [
        "chieve",
        -9.97404588845061
      ],
      [
        "ĠJahr",
        -9.974475897756598
      ],
      [
        "quite",
        -9.974563101563035
      ],
      [
        "jo",
        -9.974615697008172
      ],
      [
        "rote",
        -9.974778829205569
      ],
      [
        "walk",
        -9.975201293271706
      ],
      [
        "rise",
        -9.975323759273625
      ],
      [
        "grade",
        -9.976006501516991
      ],
      [
        "mas",
        -9.97612461449621
      ],
      [
        "ischen",
        -9.976658655484709
      ],
      [
        "Ġidentif",
        -9.976843917938268
      ],
      [
        "signal",
        -9.9782947248639
      ],
      [
        "director",
        -9.97882377898001
      ],
      [
        "sinde",
        -9.979341798680895
      ],
      [
        "Ġlabor",
        -9.980256479233946
      ],
      [
        "plants",
        -9.980590469311828
      ],
      [
        "saw",
        -9.981726349540486
      ],
      [
        "manufactur",
        -9.982045830267896
      ],
      [
        "aid",
        -9.982195038926672
      ],
      [
        "eight",
        -9.98302507353485
      ],
      [
        "ĠEast",
        -9.983453144550833
      ],
      [
        "Ġmultipl",
        -9.98349251399292
      ],
      [
        "cycle",
        -9.983578794594816
      ],
      [
        "ĠDis",
        -9.984065224653524
      ],
      [
        "professional",
        -9.984283811006664
      ],
      [
        "phone",
        -9.984481006839127
      ],
      [
        "perfect",
        -9.98462646741587
      ],
      [
        "2002",
        -9.98610806666491
      ],
      [
        "Ġmap",
        -9.986771588050129
      ],
      [
        "dicate",
        -9.98678562704529
      ],
      [
        "Ġmulti",
        -9.987750968453252
      ],
      [
        "ĠGo",
        -9.989088145468909
      ],
      [
        "iously",
        -9.989385273229486
      ],
      [
        "therapy",
        -9.98998884071736
      ],
      [
        "deliver",
        -9.990186234850118
      ],
      [
        "tarafÄ±nda",
        -9.990322402141866
      ],
      [
        "ĠiÅŁ",
        -9.990423070172866
      ],
      [
        "Ġpath",
        -9.990494088092984
      ],
      [
        "Ġfun",
        -9.991963476356066
      ],
      [
        "He",
        -9.992720112764207
      ],
      [
        "sleep",
        -9.993513983440227
      ],
      [
        "Ġdeci",
        -9.994019646239636
      ],
      [
        "construction",
        -9.99453876047665
      ],
      [
        "Ġcount",
        -9.99515469025235
      ],
      [
        "ties",
        -9.995426334359893
      ],
      [
        "ago",
        -9.995713306356809
      ],
      [
        "test",
        -9.996462127976196
      ],
      [
        "ĠdeÄŁi",
        -9.996465647268762
      ],
      [
        "dry",
        -9.996755847636589
      ],
      [
        "display",
        -9.997135347725829
      ],
      [
        "Ġcal",
        -9.997162533741532
      ],
      [
        "ear",
        -9.998777743206066
      ],
      [
        "atory",
        -9.998989021805109
      ],
      [
        "Ġfamilie",
        -9.99906297487206
      ],
      [
        "Ġminim",
        -10.000463992887411
      ],
      [
        "Ġho",
        -10.000684717219851
      ],
      [
        "agricultur",
        -10.001020382637712
      ],
      [
        "gency",
        -10.001342387151958
      ],
      [
        "cussion",
        -10.001344891976698
      ],
      [
        "expert",
        -10.00165402548296
      ],
      [
        "astern",
        -10.002576445783776
      ],
      [
        "æľī",
        -10.002626099152408
      ],
      [
        "Ġconoc",
        -10.00316348631324
      ],
      [
        "Ġmark",
        -10.003644687180524
      ],
      [
        "exac",
        -10.00419712749079
      ],
      [
        "acak",
        -10.00462200328064
      ],
      [
        "drive",
        -10.005087238076392
      ],
      [
        "crop",
        -10.005729265029595
      ],
      [
        "Ġrespond",
        -10.006107204809732
      ],
      [
        "decid",
        -10.006235003047054
      ],
      [
        "write",
        -10.006355153262202
      ],
      [
        "bir",
        -10.007353060625432
      ],
      [
        "Ġcl",
        -10.00761830600852
      ],
      [
        "sumption",
        -10.008058583718858
      ],
      [
        "ĠMore",
        -10.008256226146775
      ],
      [
        "Ġmess",
        -10.009262440852993
      ],
      [
        "Ġsure",
        -10.009864012035113
      ],
      [
        "wide",
        -10.011389494786313
      ],
      [
        "Ġ22",
        -10.011537835784663
      ],
      [
        "door",
        -10.012395046180677
      ],
      [
        "dass",
        -10.012905494095293
      ],
      [
        "adopt",
        -10.013109422276685
      ],
      [
        "Ġdate",
        -10.013165113522172
      ],
      [
        "ger",
        -10.0131722495067
      ],
      [
        "Ġdog",
        -10.01372228218872
      ],
      [
        "Island",
        -10.01425169088284
      ],
      [
        "ĠHigh",
        -10.014320401154102
      ],
      [
        "fair",
        -10.014763698217749
      ],
      [
        "che",
        -10.015370228752106
      ],
      [
        "formaciÃ³n",
        -10.01565418141502
      ],
      [
        "Ġpractic",
        -10.017544940966806
      ],
      [
        "Ġhost",
        -10.0180481063097
      ],
      [
        "ĠMit",
        -10.0181390093521
      ],
      [
        "frequent",
        -10.018824046117537
      ],
      [
        "By",
        -10.01886425499523
      ],
      [
        "negativ",
        -10.019929180949786
      ],
      [
        "friend",
        -10.020771746300111
      ],
      [
        "aches",
        -10.021129808977555
      ],
      [
        "detect",
        -10.021256483677048
      ],
      [
        "etwa",
        -10.02237537285975
      ],
      [
        "Ġoldu",
        -10.022403175375686
      ],
      [
        "slow",
        -10.023003991464355
      ],
      [
        "Ġwall",
        -10.023515116599372
      ],
      [
        "titude",
        -10.023717123323236
      ],
      [
        "office",
        -10.023877372301614
      ],
      [
        "Societ",
        -10.024175208286229
      ],
      [
        "itis",
        -10.025562582406993
      ],
      [
        "ĠCom",
        -10.025652260577331
      ],
      [
        "197",
        -10.026337749767803
      ],
      [
        "Ġinclu",
        -10.026418513689354
      ],
      [
        "lichen",
        -10.027191916078865
      ],
      [
        "pack",
        -10.0274028675615
      ],
      [
        "rapid",
        -10.028005454791776
      ],
      [
        "promot",
        -10.028028042919866
      ],
      [
        "software",
        -10.029413827631508
      ],
      [
        "ried",
        -10.030201944374229
      ],
      [
        "Ã¼zerin",
        -10.03037805886022
      ],
      [
        "Ġesto",
        -10.030729234807158
      ],
      [
        "doch",
        -10.03136081142172
      ],
      [
        "Ġwild",
        -10.031475060504397
      ],
      [
        "amiento",
        -10.032169791937235
      ],
      [
        "ĠMost",
        -10.032367342672334
      ],
      [
        "bound",
        -10.034566660891826
      ],
      [
        "empresa",
        -10.034982820678588
      ],
      [
        "Ġwo",
        -10.038095333662756
      ],
      [
        "Ġbiz",
        -10.038180503182952
      ],
      [
        "summer",
        -10.03840759666892
      ],
      [
        "pproxima",
        -10.038750227573866
      ],
      [
        "task",
        -10.038834865127116
      ],
      [
        "mental",
        -10.039495881302964
      ],
      [
        "ĠLe",
        -10.039531165283655
      ],
      [
        "tools",
        -10.041396724960896
      ],
      [
        "spring",
        -10.04179632523078
      ],
      [
        "ford",
        -10.042354089572203
      ],
      [
        "ĠGree",
        -10.04287189948231
      ],
      [
        "ommitte",
        -10.043414939070772
      ],
      [
        "direction",
        -10.044765444295065
      ],
      [
        "declar",
        -10.044767321819652
      ],
      [
        "urban",
        -10.044849634704793
      ],
      [
        "Ġcoll",
        -10.047004037160844
      ],
      [
        "ffective",
        -10.04733570559772
      ],
      [
        "People",
        -10.047992453429964
      ],
      [
        "çŃī",
        -10.04838749212791
      ],
      [
        "Ġconcentr",
        -10.04858741200928
      ],
      [
        "Ġjud",
        -10.049332386338438
      ],
      [
        "Ġsegu",
        -10.049804369893817
      ],
      [
        "maktadÄ±r",
        -10.04991335916625
      ],
      [
        "Ġsol",
        -10.05064281269176
      ],
      [
        "services",
        -10.050877526372348
      ],
      [
        "healthy",
        -10.051305751289332
      ],
      [
        "spective",
        -10.05152840431785
      ],
      [
        "rare",
        -10.051710402033676
      ],
      [
        "financi",
        -10.051973460695324
      ],
      [
        "Ġcode",
        -10.052637213699937
      ],
      [
        "meet",
        -10.052940447091082
      ],
      [
        "Ġilk",
        -10.05349292510668
      ],
      [
        "ran",
        -10.053793085246271
      ],
      [
        "Ġdond",
        -10.054372028689038
      ],
      [
        "Ġhizmet",
        -10.056130777653092
      ],
      [
        "veget",
        -10.056177196277748
      ],
      [
        "ohne",
        -10.056694433028431
      ],
      [
        "predict",
        -10.05689555771993
      ],
      [
        "istrict",
        -10.057646752396389
      ],
      [
        "ĠHar",
        -10.057722176571232
      ],
      [
        "Ġcommunit",
        -10.058053541060254
      ],
      [
        "ssessment",
        -10.05838712189239
      ],
      [
        "Robert",
        -10.05849103729417
      ],
      [
        "Ġradio",
        -10.05874397846858
      ],
      [
        "sort",
        -10.059820954259862
      ],
      [
        "carri",
        -10.059901515976964
      ],
      [
        "Los",
        -10.060250182336269
      ],
      [
        "drop",
        -10.060460919293831
      ],
      [
        "clinic",
        -10.060525413062743
      ],
      [
        "older",
        -10.060712779167426
      ],
      [
        "historical",
        -10.060715456268609
      ],
      [
        "unda",
        -10.060853529119765
      ],
      [
        "ervicio",
        -10.061053322314203
      ],
      [
        "February",
        -10.061193217578094
      ],
      [
        "Ġstop",
        -10.06220843616684
      ],
      [
        "Jesu",
        -10.062587643279311
      ],
      [
        "Ġwood",
        -10.06332696815254
      ],
      [
        "Ġquant",
        -10.063886562849468
      ],
      [
        "kommen",
        -10.063936445410766
      ],
      [
        "âĢĿ.",
        -10.06441206788302
      ],
      [
        "protection",
        -10.064758552608463
      ],
      [
        "Ġgenerat",
        -10.065059187435311
      ],
      [
        "James",
        -10.06559983647427
      ],
      [
        "veh",
        -10.065673044643216
      ],
      [
        "Ġcr",
        -10.06574141214254
      ],
      [
        "Sinc",
        -10.066217235024896
      ],
      [
        "ĠLand",
        -10.066817423752104
      ],
      [
        "birds",
        -10.066860165564483
      ],
      [
        "dÄ±",
        -10.067361032904666
      ],
      [
        "Ġblock",
        -10.067456276954962
      ],
      [
        "lara",
        -10.067729814664547
      ],
      [
        "ĠAir",
        -10.068784822501277
      ],
      [
        "æĪĳ",
        -10.068794532490454
      ],
      [
        "Ġcontribu",
        -10.0692844360168
      ],
      [
        "cool",
        -10.06965623216341
      ],
      [
        "Ġlet",
        -10.069713884328806
      ],
      [
        "trees",
        -10.069925663668617
      ],
      [
        "01",
        -10.06998618666457
      ],
      [
        "ĠUnion",
        -10.070137828969663
      ],
      [
        "cÃ³",
        -10.070204206317634
      ],
      [
        "can",
        -10.070356764556104
      ],
      [
        "ĠÄ°",
        -10.070724965111117
      ],
      [
        "ĠBir",
        -10.071119440983065
      ],
      [
        "security",
        -10.07116716360989
      ],
      [
        "Ġintegr",
        -10.072017934209818
      ],
      [
        "quest",
        -10.072183956218383
      ],
      [
        "gradu",
        -10.07251816371934
      ],
      [
        "named",
        -10.073001821301547
      ],
      [
        "ieve",
        -10.07366775251723
      ],
      [
        "Ġdigital",
        -10.073827184334286
      ],
      [
        "tan",
        -10.074025045408034
      ],
      [
        "Ġmid",
        -10.07469988432116
      ],
      [
        "ismo",
        -10.075721467905788
      ],
      [
        "tract",
        -10.075790777410155
      ],
      [
        "ĠLor",
        -10.075900744118169
      ],
      [
        "extend",
        -10.076061936036345
      ],
      [
        "changes",
        -10.07615232916053
      ],
      [
        "behind",
        -10.076506631035803
      ],
      [
        "ĠJul",
        -10.076938845840044
      ],
      [
        "divid",
        -10.077975067372575
      ],
      [
        "workers",
        -10.078956287283596
      ],
      [
        "Ġprove",
        -10.079491217186032
      ],
      [
        "ĠJournal",
        -10.079870238317232
      ],
      [
        "ĠMe",
        -10.08063061448643
      ],
      [
        "survey",
        -10.08093301944646
      ],
      [
        "Ġrock",
        -10.08122812706879
      ],
      [
        "Ġmut",
        -10.081333622507346
      ],
      [
        "ella",
        -10.08148943965486
      ],
      [
        "ĠZu",
        -10.08186033798862
      ],
      [
        "vey",
        -10.08223514250205
      ],
      [
        "hre",
        -10.08235791043463
      ],
      [
        "Ġneu",
        -10.082714260595628
      ],
      [
        "ĠService",
        -10.082896164145142
      ],
      [
        "west",
        -10.082942104438052
      ],
      [
        "ĠAv",
        -10.083142728250644
      ],
      [
        "Ġ23",
        -10.083792368965788
      ],
      [
        "tended",
        -10.083835751753886
      ],
      [
        "Ġdurum",
        -10.084222665191673
      ],
      [
        "DNA",
        -10.084585556888516
      ],
      [
        "generation",
        -10.086001479700704
      ],
      [
        "medicine",
        -10.086504057288332
      ],
      [
        "stant",
        -10.086688872424132
      ],
      [
        "waste",
        -10.08672455111319
      ],
      [
        "yond",
        -10.086799172402545
      ],
      [
        "ĠAsia",
        -10.087267737752512
      ],
      [
        "former",
        -10.087271110051814
      ],
      [
        "Ġprob",
        -10.090129970335989
      ],
      [
        "Ġauto",
        -10.09028609050639
      ],
      [
        "Ġliter",
        -10.09030477359157
      ],
      [
        "Ġvia",
        -10.091379035148936
      ],
      [
        "ĠDay",
        -10.0917232250884
      ],
      [
        "Ġfai",
        -10.092038292177884
      ],
      [
        "ĠEngl",
        -10.092065194661467
      ],
      [
        "Ġhem",
        -10.092110377370313
      ],
      [
        "ocean",
        -10.092228700124826
      ],
      [
        "los",
        -10.09281888121724
      ],
      [
        "Ġidentifi",
        -10.092866009425716
      ],
      [
        "ĠDur",
        -10.094014680318136
      ],
      [
        "æĹ¥",
        -10.094756156463308
      ],
      [
        "store",
        -10.095044480596458
      ],
      [
        "locat",
        -10.095376994105775
      ],
      [
        "NASA",
        -10.096558450029706
      ],
      [
        "creation",
        -10.096577979655963
      ],
      [
        "Ġdiagnos",
        -10.097227303445584
      ],
      [
        "300",
        -10.097526483331382
      ],
      [
        "track",
        -10.097666483856075
      ],
      [
        "comment",
        -10.100568310469953
      ],
      [
        "ĠRetr",
        -10.1007717564873
      ],
      [
        "raise",
        -10.10089222998708
      ],
      [
        "ĠAls",
        -10.101347958290331
      ],
      [
        "Ġdeb",
        -10.101585103743338
      ],
      [
        "lerde",
        -10.1024674847029
      ],
      [
        "eza",
        -10.10362124635349
      ],
      [
        "stay",
        -10.103741745961376
      ],
      [
        "ĠDavid",
        -10.10409090540473
      ],
      [
        "citizen",
        -10.10434435058521
      ],
      [
        "Ġbilgi",
        -10.104621126962789
      ],
      [
        "iÃ³",
        -10.10719490432783
      ],
      [
        "soll",
        -10.107662924480994
      ],
      [
        "hospital",
        -10.10776532342288
      ],
      [
        "sector",
        -10.108093891721785
      ],
      [
        "Ġki",
        -10.10833585186852
      ],
      [
        "ĠIm",
        -10.108591388511114
      ],
      [
        "ĠHouse",
        -10.109156140750589
      ],
      [
        "iudad",
        -10.10946304046575
      ],
      [
        "ĠBen",
        -10.109679938452114
      ],
      [
        "Ġleg",
        -10.109821045652645
      ],
      [
        "Mexic",
        -10.112469968850489
      ],
      [
        "mix",
        -10.112588788464318
      ],
      [
        "anger",
        -10.112644347164151
      ],
      [
        "poc",
        -10.113109910266296
      ],
      [
        "edad",
        -10.113282565198377
      ],
      [
        "ores",
        -10.11492368865991
      ],
      [
        "lerinin",
        -10.116573917796496
      ],
      [
        "Ġcolon",
        -10.116614505250844
      ],
      [
        "Ġtradition",
        -10.116656861722962
      ],
      [
        "progress",
        -10.116728936777085
      ],
      [
        "Ġconf",
        -10.117251538925304
      ],
      [
        "Ġdar",
        -10.117670269298994
      ],
      [
        "ifference",
        -10.118220459730928
      ],
      [
        "bacteria",
        -10.118308703080723
      ],
      [
        "spend",
        -10.11858052861951
      ],
      [
        "balance",
        -10.119280039048853
      ],
      [
        "Ġnumer",
        -10.12024665178284
      ],
      [
        "ĠBi",
        -10.120817962060348
      ],
      [
        "Ġequip",
        -10.121769182998955
      ],
      [
        "Ġ60",
        -10.121943148668205
      ],
      [
        "Ġfoot",
        -10.122873076537411
      ],
      [
        "ficiency",
        -10.12323188921337
      ],
      [
        "demonstrat",
        -10.123402401143384
      ],
      [
        "larÄ±nÄ±n",
        -10.123589161862
      ],
      [
        "load",
        -10.12458119946238
      ],
      [
        "watch",
        -10.125176146428974
      ],
      [
        "Ġflu",
        -10.12550527486322
      ],
      [
        "mÄ±ÅŁ",
        -10.12551010217602
      ],
      [
        "stage",
        -10.125515013327815
      ],
      [
        "Ġexpress",
        -10.126086923204282
      ],
      [
        "conflict",
        -10.127253941277576
      ],
      [
        "ished",
        -10.127279273340138
      ],
      [
        "hnen",
        -10.127890588637744
      ],
      [
        "puesto",
        -10.128652096693688
      ],
      [
        "Ġcur",
        -10.128996343767511
      ],
      [
        "Association",
        -10.129164908156318
      ],
      [
        "liche",
        -10.129699593327786
      ],
      [
        "mundo",
        -10.12993624223395
      ],
      [
        "kids",
        -10.129955719088352
      ],
      [
        "Ġsahip",
        -10.130009593727545
      ],
      [
        "dead",
        -10.130072384679718
      ],
      [
        "ĠFeder",
        -10.13039981284099
      ],
      [
        "topic",
        -10.131236652938007
      ],
      [
        "ators",
        -10.131453805641158
      ],
      [
        "eine",
        -10.132007265911868
      ],
      [
        "expos",
        -10.132301880438844
      ],
      [
        "90",
        -10.133153060511289
      ],
      [
        "ĠMa",
        -10.133469253058824
      ],
      [
        "credit",
        -10.133802312177538
      ],
      [
        "Ġhabe",
        -10.133958672436556
      ],
      [
        "entra",
        -10.13425849648526
      ],
      [
        "tory",
        -10.134315086033316
      ],
      [
        "ĠMo",
        -10.13474273444026
      ],
      [
        "ĠÅŁey",
        -10.136396625799463
      ],
      [
        "ĠyÃ¼z",
        -10.13652888758949
      ],
      [
        "einfach",
        -10.13660737775504
      ],
      [
        "aged",
        -10.136948871631244
      ],
      [
        "alone",
        -10.138526170684496
      ],
      [
        "Ġinstrument",
        -10.13878615265936
      ],
      [
        "Ġtransfer",
        -10.139370861576497
      ],
      [
        "vantage",
        -10.139527242354804
      ],
      [
        "daily",
        -10.13962160457232
      ],
      [
        "formed",
        -10.14044146579367
      ],
      [
        "cambi",
        -10.140997856810325
      ],
      [
        "lere",
        -10.141587443200123
      ],
      [
        "ĠAus",
        -10.141734778384594
      ],
      [
        "Chinese",
        -10.142002150104274
      ],
      [
        "commercial",
        -10.14225249218206
      ],
      [
        "Ġtan",
        -10.143436806218237
      ],
      [
        "sini",
        -10.144675591247552
      ],
      [
        "Ġboy",
        -10.14485050190758
      ],
      [
        "screen",
        -10.145165318867456
      ],
      [
        "books",
        -10.14569242408836
      ],
      [
        "Ġaqu",
        -10.145837712754934
      ],
      [
        "©",
        -10.146953319117776
      ],
      [
        "basis",
        -10.147552742207058
      ],
      [
        "bridge",
        -10.147733205252957
      ],
      [
        "Ġpartner",
        -10.147882287222377
      ],
      [
        "Ġbur",
        -10.148097950709264
      ],
      [
        "destro",
        -10.148795969904535
      ],
      [
        "ĠProgram",
        -10.14940637144086
      ],
      [
        "ving",
        -10.149647376609918
      ],
      [
        "cil",
        -10.150840336694158
      ],
      [
        "ĠNot",
        -10.150993793318532
      ],
      [
        "iddle",
        -10.151139812820064
      ],
      [
        "meeting",
        -10.151576830148498
      ],
      [
        "George",
        -10.152217841550147
      ],
      [
        "aught",
        -10.15302547997191
      ],
      [
        "custom",
        -10.15365451237269
      ],
      [
        "ĠIh",
        -10.153844154471084
      ],
      [
        "ĠtÃ¼m",
        -10.153852298644646
      ],
      [
        "egg",
        -10.153922025199666
      ],
      [
        "Ġimmun",
        -10.154471680558744
      ],
      [
        "mpre",
        -10.15459867703903
      ],
      [
        "100",
        -10.1546290721328
      ],
      [
        "item",
        -10.154986580877368
      ],
      [
        "ural",
        -10.155762850102295
      ],
      [
        "ĠOnline",
        -10.156191364352852
      ],
      [
        "else",
        -10.157526945147511
      ],
      [
        "Ġarri",
        -10.157696032997626
      ],
      [
        "owner",
        -10.158447822537726
      ],
      [
        "mek",
        -10.158491030801402
      ],
      [
        "ĠMu",
        -10.158535559331662
      ],
      [
        "Ã¶yle",
        -10.159060364898908
      ],
      [
        "weather",
        -10.159790876516336
      ],
      [
        "dark",
        -10.160073244114871
      ],
      [
        "lerine",
        -10.160099976761018
      ],
      [
        "nuclear",
        -10.160603376476736
      ],
      [
        "ĠÃĩ",
        -10.161024323131809
      ],
      [
        "Ġmus",
        -10.161815905965756
      ],
      [
        "26",
        -10.16419263187818
      ],
      [
        "28",
        -10.164231396726406
      ],
      [
        "ĠLaw",
        -10.16424533951984
      ],
      [
        "mains",
        -10.16465274845904
      ],
      [
        "owie",
        -10.164663204203944
      ],
      [
        "Ġbad",
        -10.164805652393316
      ],
      [
        "Ġmetal",
        -10.164905144562209
      ],
      [
        "ische",
        -10.164992473035262
      ],
      [
        "Ġmedic",
        -10.165579927112942
      ],
      [
        "Ġatm",
        -10.166231968457732
      ],
      [
        "chance",
        -10.166962837784002
      ],
      [
        "eighbo",
        -10.167344046535575
      ],
      [
        "Ġdivers",
        -10.167411793035368
      ],
      [
        "peace",
        -10.167971587119768
      ],
      [
        "Ġdesp",
        -10.168605074606695
      ],
      [
        "Ġkullan",
        -10.16896019309486
      ],
      [
        "vam",
        -10.169207559899757
      ],
      [
        "ä¸º",
        -10.16920766242836
      ],
      [
        "cient",
        -10.16955038175199
      ],
      [
        "ĠSystem",
        -10.169719180504952
      ],
      [
        "ĠPaul",
        -10.169722618968738
      ],
      [
        "Government",
        -10.170116974249227
      ],
      [
        "ĠDi",
        -10.170667974264434
      ],
      [
        "connection",
        -10.1709676686947
      ],
      [
        "captur",
        -10.17122486771607
      ],
      [
        "job",
        -10.171527775784789
      ],
      [
        "initial",
        -10.172599667087503
      ],
      [
        "lation",
        -10.172757265519216
      ],
      [
        "France",
        -10.173332982810596
      ],
      [
        "atic",
        -10.173705284213645
      ],
      [
        "ĠLo",
        -10.173758570372977
      ],
      [
        "Ġtant",
        -10.173920800453034
      ],
      [
        "Ġwinter",
        -10.174826449985916
      ],
      [
        "Ġtrain",
        -10.175602620363604
      ],
      [
        "with",
        -10.17593256066259
      ],
      [
        "argument",
        -10.176443405640075
      ],
      [
        "Ġtable",
        -10.176998616593895
      ],
      [
        "spot",
        -10.17738374615179
      ],
      [
        "Ġcategor",
        -10.177619442289377
      ],
      [
        "ell",
        -10.177819000283334
      ],
      [
        "woman",
        -10.177828777477565
      ],
      [
        "Ġdesarroll",
        -10.178156401838637
      ],
      [
        "ello",
        -10.17899422538643
      ],
      [
        "Ġmerc",
        -10.17972745784044
      ],
      [
        "Ä±nÄ±",
        -10.180025173375824
      ],
      [
        "Ġcorn",
        -10.180239747051582
      ],
      [
        "29",
        -10.180440879671249
      ],
      [
        "quÃ©",
        -10.18057409073215
      ],
      [
        "symbol",
        -10.181585328270527
      ],
      [
        "tipo",
        -10.181929007302532
      ],
      [
        "Ù",
        -10.182615578855003
      ],
      [
        "preserv",
        -10.182651347918185
      ],
      [
        "Ġga",
        -10.183163223691334
      ],
      [
        "27",
        -10.184121990614516
      ],
      [
        "Ġunivers",
        -10.184348543256249
      ],
      [
        "Ġgot",
        -10.18437857046994
      ],
      [
        "native",
        -10.185092130289766
      ],
      [
        "particle",
        -10.18517845607433
      ],
      [
        "setting",
        -10.185827146834528
      ],
      [
        "ned",
        -10.186064487261072
      ],
      [
        "garden",
        -10.186065607373056
      ],
      [
        "eague",
        -10.186193573118496
      ],
      [
        "site",
        -10.186529918354776
      ],
      [
        "ĠFirst",
        -10.186787071896369
      ],
      [
        "q",
        -10.18693877292245
      ],
      [
        "fix",
        -10.187190054172396
      ],
      [
        "solo",
        -10.187824963796904
      ],
      [
        "led",
        -10.188786595890589
      ],
      [
        "nual",
        -10.189088775384729
      ],
      [
        "Ġsecret",
        -10.189236178907493
      ],
      [
        "Ġkal",
        -10.189301698229604
      ],
      [
        "ja",
        -10.189352490024053
      ],
      [
        "ĠÃ§Ä±k",
        -10.189443322340884
      ],
      [
        "angle",
        -10.18956509981096
      ],
      [
        "col",
        -10.189881571882848
      ],
      [
        "Ġconvert",
        -10.19028069495049
      ],
      [
        "ĠHol",
        -10.19062470707324
      ],
      [
        "ĠIS",
        -10.190649476375343
      ],
      [
        "ä¸Ĭ",
        -10.190851073679482
      ],
      [
        "Ġident",
        -10.19103393762609
      ],
      [
        "Ġphilosoph",
        -10.191121473416308
      ],
      [
        "aim",
        -10.191457001229136
      ],
      [
        "Ġtrav",
        -10.19175088559892
      ],
      [
        "aria",
        -10.192713950116554
      ],
      [
        "flower",
        -10.192936553249709
      ],
      [
        "Ġmil",
        -10.193124129304763
      ],
      [
        "Ġmill",
        -10.193544044607556
      ],
      [
        "aje",
        -10.194282996175083
      ],
      [
        "medio",
        -10.194918171754177
      ],
      [
        "izing",
        -10.19495151973652
      ],
      [
        "äºº",
        -10.19563052379977
      ],
      [
        "Ġdistin",
        -10.195928864459365
      ],
      [
        "avy",
        -10.196548436930332
      ],
      [
        "ide",
        -10.196786493826902
      ],
      [
        "ĠJahre",
        -10.196812409013347
      ],
      [
        "ĠPro",
        -10.197168585991374
      ],
      [
        "ouncil",
        -10.197532690466169
      ],
      [
        "iente",
        -10.197543472614504
      ],
      [
        "battle",
        -10.197731799975674
      ],
      [
        "curso",
        -10.19789091466713
      ],
      [
        "finden",
        -10.198427382129012
      ],
      [
        "ĠHuman",
        -10.198572487092772
      ],
      [
        "aging",
        -10.199042845433912
      ],
      [
        "ĠGreen",
        -10.199648235598543
      ],
      [
        "Ġmale",
        -10.199655945111694
      ],
      [
        "ction",
        -10.20033442748921
      ],
      [
        "context",
        -10.200704578335282
      ],
      [
        "materials",
        -10.201139858965892
      ],
      [
        "ĠJo",
        -10.201445214775632
      ],
      [
        "Ġfam",
        -10.202259437371264
      ],
      [
        "Ġstand",
        -10.20240638510675
      ],
      [
        "Ġja",
        -10.202796743382477
      ],
      [
        "statement",
        -10.202819476492428
      ],
      [
        "sequent",
        -10.20304209435162
      ],
      [
        "Ġimagin",
        -10.20350556385172
      ],
      [
        "osphere",
        -10.203868436389318
      ],
      [
        "abilities",
        -10.204090192376444
      ],
      [
        "avail",
        -10.204300794543412
      ],
      [
        "Ġideal",
        -10.204799017224392
      ],
      [
        "Ġinstitution",
        -10.205920454866412
      ],
      [
        "error",
        -10.206762716299012
      ],
      [
        "box",
        -10.206888034384628
      ],
      [
        "volume",
        -10.207824688466411
      ],
      [
        "See",
        -10.20827541635862
      ],
      [
        "ĠJu",
        -10.208873789412126
      ],
      [
        "arÃ¡",
        -10.209106556715229
      ],
      [
        "mich",
        -10.209727346094857
      ],
      [
        "station",
        -10.209750167500482
      ],
      [
        "ĠyapÄ±l",
        -10.210098306668312
      ],
      [
        "Ġfazla",
        -10.210716594554071
      ],
      [
        "diabetes",
        -10.21131889087116
      ],
      [
        "ĠHo",
        -10.212194404541233
      ],
      [
        "ĠMr",
        -10.212325089038046
      ],
      [
        "crease",
        -10.212629955715128
      ],
      [
        "dÄ±r",
        -10.212675325267934
      ],
      [
        "ĠSee",
        -10.213450229494835
      ],
      [
        "Ġexpo",
        -10.2134781970958
      ],
      [
        "Ġ28",
        -10.21445497040347
      ],
      [
        "execut",
        -10.214753809184598
      ],
      [
        "ĠÃ¼lke",
        -10.214846983730006
      ],
      [
        "pound",
        -10.215232023116084
      ],
      [
        "volunt",
        -10.215859609032057
      ],
      [
        "ĠEd",
        -10.216347130095627
      ],
      [
        "Ġself",
        -10.216618407843844
      ],
      [
        "Ġhot",
        -10.217695624955818
      ],
      [
        "alternative",
        -10.21780329054649
      ],
      [
        "ĠJapan",
        -10.21784476539247
      ],
      [
        "Ġneuro",
        -10.218766337106256
      ],
      [
        "hace",
        -10.21964366008762
      ],
      [
        "ĠBlack",
        -10.219660815362095
      ],
      [
        "emale",
        -10.219802221423611
      ],
      [
        "Russi",
        -10.219948330321518
      ],
      [
        "ellos",
        -10.220358763829454
      ],
      [
        "gar",
        -10.220661970706198
      ],
      [
        "Ġmedi",
        -10.221436949604255
      ],
      [
        "organism",
        -10.222233320932771
      ],
      [
        "nda",
        -10.222766247875024
      ],
      [
        "All",
        -10.223496099913692
      ],
      [
        "ĠSpiel",
        -10.223736314803896
      ],
      [
        "Ġprefer",
        -10.223986355792617
      ],
      [
        "cities",
        -10.224033157354407
      ],
      [
        "ĠAm",
        -10.2242327936807
      ],
      [
        "status",
        -10.225972598872463
      ],
      [
        "western",
        -10.22604775884138
      ],
      [
        "å¤§",
        -10.22613704408283
      ],
      [
        "neden",
        -10.227256935117062
      ],
      [
        "launch",
        -10.227697761689504
      ],
      [
        "2017",
        -10.227751006363077
      ],
      [
        "09",
        -10.22825889347882
      ],
      [
        "College",
        -10.228259526966566
      ],
      [
        "05",
        -10.228295479593209
      ],
      [
        "Ġdos",
        -10.22852509564656
      ],
      [
        "Ġmotor",
        -10.229067032118117
      ],
      [
        "Ġzwei",
        -10.229716672802912
      ],
      [
        "expand",
        -10.229997597062658
      ],
      [
        "clusion",
        -10.230419225039771
      ],
      [
        "ige",
        -10.230498140269038
      ],
      [
        "lduÄŁunu",
        -10.230674244379486
      ],
      [
        "ium",
        -10.230727744463534
      ],
      [
        "uÃ©s",
        -10.231522008119825
      ],
      [
        "arrow",
        -10.232603179214289
      ],
      [
        "eating",
        -10.23387784641542
      ],
      [
        "industrial",
        -10.234190189998566
      ],
      [
        "Office",
        -10.23478898637818
      ],
      [
        "storm",
        -10.234899487540837
      ],
      [
        "neue",
        -10.236004073420066
      ],
      [
        "Ġpan",
        -10.236362345373925
      ],
      [
        "ised",
        -10.236841437063136
      ],
      [
        "ĠMuseum",
        -10.2378311772026
      ],
      [
        "Ġfavor",
        -10.23855317999374
      ],
      [
        "Ġhabit",
        -10.23943117940372
      ],
      [
        "arasÄ±nda",
        -10.239472325686952
      ],
      [
        "ĠBook",
        -10.239744185480742
      ],
      [
        "iÄŁer",
        -10.23981431853122
      ],
      [
        "scape",
        -10.239997153030991
      ],
      [
        "larÄ±na",
        -10.240912535090228
      ],
      [
        "Ġreci",
        -10.240983177553586
      ],
      [
        "strict",
        -10.241066622282624
      ],
      [
        "Ġilgil",
        -10.2413063900595
      ],
      [
        "hile",
        -10.2413289465875
      ],
      [
        "ries",
        -10.241372424575614
      ],
      [
        "2018",
        -10.24155039850078
      ],
      [
        "ivil",
        -10.242580693787264
      ],
      [
        "Ġmo",
        -10.242581387801913
      ],
      [
        "Ä±na",
        -10.243070063166348
      ],
      [
        "Por",
        -10.243511503634078
      ],
      [
        "Ġconfirm",
        -10.243779970083803
      ],
      [
        "Ġgold",
        -10.24398588940034
      ],
      [
        "mouth",
        -10.24411409043602
      ],
      [
        "nother",
        -10.244392703050709
      ],
      [
        "Ã¶neml",
        -10.244583076853155
      ],
      [
        "ĠÃ¼zer",
        -10.24596914488253
      ],
      [
        "diÄŁi",
        -10.246112133025555
      ],
      [
        "tail",
        -10.247859886167063
      ],
      [
        "Thomas",
        -10.248183540882703
      ],
      [
        "book",
        -10.248336173894485
      ],
      [
        "nte",
        -10.248372867895243
      ],
      [
        "Ġ26",
        -10.248662208599177
      ],
      [
        "equipment",
        -10.249119386268012
      ],
      [
        "vitamin",
        -10.24942637069914
      ],
      [
        "email",
        -10.250080973121062
      ],
      [
        "Ġcor",
        -10.250131456598822
      ],
      [
        "ences",
        -10.25063989106396
      ],
      [
        "engine",
        -10.250946499740104
      ],
      [
        "port",
        -10.25187617991039
      ],
      [
        "ĠPublic",
        -10.251903641494463
      ],
      [
        "Children",
        -10.25229767970892
      ],
      [
        "08",
        -10.252585991233149
      ],
      [
        "fall",
        -10.253133111960224
      ],
      [
        "ĠWater",
        -10.253891783664352
      ],
      [
        "ception",
        -10.254268410290033
      ],
      [
        "nce",
        -10.254552425364675
      ],
      [
        "habitat",
        -10.25507954608866
      ],
      [
        "Ġcorrespond",
        -10.255518158101792
      ],
      [
        "~",
        -10.2561381807084
      ],
      [
        "tool",
        -10.256297711444825
      ],
      [
        "Ġag",
        -10.256572632436065
      ],
      [
        "toda",
        -10.257188316505516
      ],
      [
        "won",
        -10.25771507596062
      ],
      [
        "dÄ±ÄŁÄ±",
        -10.258878869575748
      ],
      [
        "pÃº",
        -10.259781294075484
      ],
      [
        "inside",
        -10.259993137436217
      ],
      [
        "ĠPlan",
        -10.261046410665411
      ],
      [
        "TV",
        -10.261238542713546
      ],
      [
        "fundamental",
        -10.26130387834977
      ],
      [
        "puesta",
        -10.261459233115168
      ],
      [
        "Ġ27",
        -10.26182628617208
      ],
      [
        "that",
        -10.262399381887043
      ],
      [
        "duction",
        -10.26262434391658
      ],
      [
        "ĠLatin",
        -10.262826405223311
      ],
      [
        "èĢĮ",
        -10.264138588724844
      ],
      [
        "Republic",
        -10.264553919215036
      ],
      [
        "BN",
        -10.26463772201302
      ],
      [
        "ify",
        -10.265265678621942
      ],
      [
        "Ġphoto",
        -10.26568916448356
      ],
      [
        "ynÄ±",
        -10.265965482043766
      ],
      [
        "å¯¹",
        -10.266186294153997
      ],
      [
        "Al",
        -10.266357416067535
      ],
      [
        "lin",
        -10.266483465973582
      ],
      [
        "Ġequ",
        -10.266551325746562
      ],
      [
        "198",
        -10.266861255638526
      ],
      [
        "ĠMedic",
        -10.266911969427078
      ],
      [
        "ĠSocial",
        -10.26717246808287
      ],
      [
        "grant",
        -10.267312771901636
      ],
      [
        "Ġbas",
        -10.267955665716157
      ],
      [
        "fresh",
        -10.268422328487455
      ],
      [
        "commit",
        -10.268870120199818
      ],
      [
        "Ġreligion",
        -10.269935127797316
      ],
      [
        "ĠBay",
        -10.270232907137286
      ],
      [
        "verse",
        -10.270293810140345
      ],
      [
        "Right",
        -10.270591796005773
      ],
      [
        "Ġreli",
        -10.271375965110314
      ],
      [
        "off",
        -10.27160355786159
      ],
      [
        "Ġtarih",
        -10.272469869681892
      ],
      [
        "mountain",
        -10.274180483526342
      ],
      [
        "lassen",
        -10.274458352234772
      ],
      [
        "Catholic",
        -10.274487165264622
      ],
      [
        "ĠMi",
        -10.27479537889587
      ],
      [
        "Ġcab",
        -10.275455644710869
      ],
      [
        "horse",
        -10.2756670617166
      ],
      [
        "ĠJust",
        -10.276027234899573
      ],
      [
        "ĠPa",
        -10.276210916942125
      ],
      [
        "ampaign",
        -10.27673421880119
      ],
      [
        "åĪ°",
        -10.276893918555464
      ],
      [
        "Ġkonu",
        -10.27710460062734
      ],
      [
        "asÄ±l",
        -10.27732908333814
      ],
      [
        "phase",
        -10.277489832969255
      ],
      [
        "Ġllev",
        -10.277669368614164
      ],
      [
        "Ġmoral",
        -10.27823413428326
      ],
      [
        "mail",
        -10.278522721386915
      ],
      [
        "historia",
        -10.279479909006351
      ],
      [
        "ution",
        -10.280786484279066
      ],
      [
        "han",
        -10.281295549556187
      ],
      [
        "staff",
        -10.281631286379676
      ],
      [
        "instruction",
        -10.281823196702245
      ],
      [
        "Ä±ndan",
        -10.281889892115736
      ],
      [
        "Ġembar",
        -10.2821996600374
      ],
      [
        "Ġbo",
        -10.28299355398916
      ],
      [
        "ĠSun",
        -10.284264418851985
      ],
      [
        "ncies",
        -10.284320682265149
      ],
      [
        "square",
        -10.284664423967175
      ],
      [
        "pent",
        -10.285625918511236
      ],
      [
        "sight",
        -10.285943213710564
      ],
      [
        "system",
        -10.286288468681024
      ],
      [
        "Ġsav",
        -10.286295151602676
      ],
      [
        "use",
        -10.286417341840355
      ],
      [
        "maxim",
        -10.286748930520188
      ],
      [
        "taining",
        -10.28701460788607
      ],
      [
        "Ġblue",
        -10.28728345388061
      ],
      [
        "Con",
        -10.287572635870871
      ],
      [
        "Ġgeh",
        -10.28880991831507
      ],
      [
        "letter",
        -10.289476591774148
      ],
      [
        "client",
        -10.289852273283415
      ],
      [
        "smok",
        -10.290028469653793
      ],
      [
        "Ġiki",
        -10.290103191423295
      ],
      [
        "Ġfirm",
        -10.290816956363908
      ],
      [
        "Ġgegen",
        -10.291456096082891
      ],
      [
        "Ġacu",
        -10.29170437525508
      ],
      [
        "hance",
        -10.29201826601065
      ],
      [
        "Ġcompos",
        -10.292072146513505
      ],
      [
        "ĠiÃ§eri",
        -10.29308706057375
      ],
      [
        "III",
        -10.29329180057512
      ],
      [
        "Ġrich",
        -10.293713144482073
      ],
      [
        "distribution",
        -10.294246343912022
      ],
      [
        "Ä±yor",
        -10.294291030418576
      ],
      [
        "rous",
        -10.29440616836092
      ],
      [
        "ĠbaÅŁ",
        -10.2944332219226
      ],
      [
        "professor",
        -10.294741807248515
      ],
      [
        "07",
        -10.29485039952042
      ],
      [
        "Ġ200",
        -10.295659748711254
      ],
      [
        "rong",
        -10.295775336707775
      ],
      [
        "iÃ§",
        -10.29597886104861
      ],
      [
        "legis",
        -10.296622153784943
      ],
      [
        "edge",
        -10.297265508244402
      ],
      [
        "vast",
        -10.297602872068149
      ],
      [
        "rail",
        -10.297828254436846
      ],
      [
        "ä»ĸ",
        -10.29804176335327
      ],
      [
        "ling",
        -10.298322364601756
      ],
      [
        "peech",
        -10.30050256002396
      ],
      [
        "Ġsend",
        -10.300672093782682
      ],
      [
        "lands",
        -10.300972820827022
      ],
      [
        "Ġcri",
        -10.301835099290484
      ],
      [
        "emple",
        -10.30244072109735
      ],
      [
        "user",
        -10.302562167525112
      ],
      [
        "Ġsitu",
        -10.302864533831189
      ],
      [
        "ä»¥",
        -10.303818435858297
      ],
      [
        "Ġgrup",
        -10.30398196635665
      ],
      [
        "emph",
        -10.30539130668528
      ],
      [
        "cle",
        -10.305907348290692
      ],
      [
        "fine",
        -10.30646470758109
      ],
      [
        "work",
        -10.306984728438715
      ],
      [
        "ĠMac",
        -10.307148924396984
      ],
      [
        "02",
        -10.307338349879412
      ],
      [
        "Ġanaly",
        -10.307389353333091
      ],
      [
        "beaut",
        -10.307404615073088
      ],
      [
        "feeling",
        -10.307673251164022
      ],
      [
        "ĠWir",
        -10.30801667826818
      ],
      [
        "ached",
        -10.308191268219735
      ],
      [
        "ollte",
        -10.308210845591375
      ],
      [
        "Ġbank",
        -10.308279834985218
      ],
      [
        "hair",
        -10.308921827147705
      ],
      [
        "ĠgÃ¶ster",
        -10.309128038788767
      ],
      [
        "vices",
        -10.309329143442213
      ],
      [
        "ational",
        -10.309692968610944
      ],
      [
        "Ġespecial",
        -10.309698686791952
      ],
      [
        "evolution",
        -10.30982012497956
      ],
      [
        "script",
        -10.31035309439016
      ],
      [
        "physic",
        -10.310516258891484
      ],
      [
        "hird",
        -10.3106171657198
      ],
      [
        "ĠPor",
        -10.311055235100904
      ],
      [
        "ĠWestern",
        -10.311291812554732
      ],
      [
        "bone",
        -10.312110951437834
      ],
      [
        "ficial",
        -10.312686358040269
      ],
      [
        "Ġeco",
        -10.312954868371424
      ],
      [
        "Ġintens",
        -10.313031341083253
      ],
      [
        "upper",
        -10.313135354961457
      ],
      [
        "ãĢĮ",
        -10.313971966666784
      ],
      [
        "vote",
        -10.314251990971462
      ],
      [
        "gav",
        -10.314369189703184
      ],
      [
        "Ġharm",
        -10.314456919675711
      ],
      [
        "meter",
        -10.314574530333
      ],
      [
        "fly",
        -10.31475788495452
      ],
      [
        "ware",
        -10.315032234774622
      ],
      [
        "mayor",
        -10.315419438970432
      ],
      [
        "emissions",
        -10.31542770244052
      ],
      [
        "aughter",
        -10.31696315538948
      ],
      [
        "Ġvisual",
        -10.317677755655335
      ],
      [
        "controll",
        -10.317791731252552
      ],
      [
        "except",
        -10.31798477222095
      ],
      [
        "ettle",
        -10.31803916735485
      ],
      [
        "seek",
        -10.318153569193392
      ],
      [
        "nada",
        -10.318851315273854
      ],
      [
        "mathematic",
        -10.318921238382623
      ],
      [
        "Ġselbst",
        -10.319558241530313
      ],
      [
        "ĠTex",
        -10.320217198799307
      ],
      [
        "genes",
        -10.320552592164235
      ],
      [
        "2016",
        -10.320889391403576
      ],
      [
        "tir",
        -10.320978574155458
      ],
      [
        "iyle",
        -10.32137676787367
      ],
      [
        "Ġpark",
        -10.321513679149136
      ],
      [
        "Charle",
        -10.322457912541664
      ],
      [
        "osis",
        -10.323505542068176
      ],
      [
        "ĠCar",
        -10.324244140347725
      ],
      [
        "mektedir",
        -10.324823222496985
      ],
      [
        "ĠNi",
        -10.325272478515036
      ],
      [
        "clude",
        -10.32587481197349
      ],
      [
        "slave",
        -10.325962653459005
      ],
      [
        "Ġama",
        -10.326747929270027
      ],
      [
        "apanese",
        -10.328081181908606
      ],
      [
        "emerg",
        -10.328696310255676
      ],
      [
        "ĠEx",
        -10.329489092198736
      ],
      [
        "ncient",
        -10.330455996963284
      ],
      [
        "ingly",
        -10.330484426659067
      ],
      [
        "Ġoptim",
        -10.331076334446868
      ],
      [
        "ĠiÅŁlem",
        -10.331171237173889
      ],
      [
        "ĠGu",
        -10.33131463840948
      ],
      [
        "Lake",
        -10.331778505483149
      ],
      [
        "quÃŃ",
        -10.331844263282877
      ],
      [
        "rgest",
        -10.332002884634946
      ],
      [
        "baby",
        -10.332204246890273
      ],
      [
        "DC",
        -10.332720024289404
      ],
      [
        "ĠCourt",
        -10.33317058789464
      ],
      [
        "erno",
        -10.3338806933577
      ],
      [
        "New",
        -10.333989642811106
      ],
      [
        "ãĢį",
        -10.334181526656188
      ],
      [
        "oxide",
        -10.334698623461476
      ],
      [
        "sÄ±nda",
        -10.33509096823684
      ],
      [
        "suit",
        -10.335186176184472
      ],
      [
        "profit",
        -10.335676476609446
      ],
      [
        "vot",
        -10.336514195897683
      ],
      [
        "sine",
        -10.336587291540829
      ],
      [
        "åĲİ",
        -10.336625402124842
      ],
      [
        "icle",
        -10.336716756509167
      ],
      [
        "menos",
        -10.336819333128966
      ],
      [
        "wif",
        -10.3379287542608
      ],
      [
        "principal",
        -10.338029480588157
      ],
      [
        "Ġpu",
        -10.33808867008763
      ],
      [
        "definition",
        -10.338471941376914
      ],
      [
        "steh",
        -10.338701785204185
      ],
      [
        "rew",
        -10.338905924067678
      ],
      [
        "06",
        -10.338965882080464
      ],
      [
        "siz",
        -10.340291690624026
      ],
      [
        "ĠFrank",
        -10.340861608352713
      ],
      [
        "American",
        -10.341537384139968
      ],
      [
        "ĠRo",
        -10.34170927955944
      ],
      [
        "Ġ186",
        -10.341813353216695
      ],
      [
        "ĠThu",
        -10.34183275779919
      ],
      [
        "choo",
        -10.34275895203
      ],
      [
        "college",
        -10.34304622768748
      ],
      [
        "Ġdich",
        -10.34313549958138
      ],
      [
        "Ġperce",
        -10.34420037698398
      ],
      [
        "diversity",
        -10.34505040769394
      ],
      [
        "familiar",
        -10.345427285797516
      ],
      [
        "400",
        -10.345493398361432
      ],
      [
        "Ġimpos",
        -10.345656579901169
      ],
      [
        "Ġpl",
        -10.345817917525425
      ],
      [
        "iron",
        -10.346008890746855
      ],
      [
        "ĠÃ¶zel",
        -10.34666676024803
      ],
      [
        "artist",
        -10.34666706111832
      ],
      [
        "İ",
        -10.347155884842214
      ],
      [
        "Ġexplo",
        -10.347236416268778
      ],
      [
        "ham",
        -10.348096148853555
      ],
      [
        "mesi",
        -10.348139595197107
      ],
      [
        "ĠMary",
        -10.348196484805374
      ],
      [
        "halb",
        -10.348358784692085
      ],
      [
        "Ġdedi",
        -10.348562757307624
      ],
      [
        "rais",
        -10.348659775102714
      ],
      [
        "Ġpunt",
        -10.348757394650868
      ],
      [
        "04",
        -10.34937026106683
      ],
      [
        "buen",
        -10.349425712422232
      ],
      [
        "band",
        -10.350181655827203
      ],
      [
        "tzt",
        -10.350699400143126
      ],
      [
        "Ġbak",
        -10.351429646467716
      ],
      [
        "wait",
        -10.35152081516049
      ],
      [
        "capacit",
        -10.351524381260807
      ],
      [
        "air",
        -10.351872696741635
      ],
      [
        "ained",
        -10.352047024685744
      ],
      [
        "ships",
        -10.352338204182924
      ],
      [
        "Ġyok",
        -10.35303334618381
      ],
      [
        "minor",
        -10.353225210955978
      ],
      [
        "cholar",
        -10.35360300377059
      ],
      [
        "main",
        -10.353609117012631
      ],
      [
        "expression",
        -10.353694087542303
      ],
      [
        "journal",
        -10.354462304216216
      ],
      [
        "About",
        -10.35479745141926
      ],
      [
        "sheet",
        -10.354799766763527
      ],
      [
        "sites",
        -10.354938002776926
      ],
      [
        "freque",
        -10.355276933010751
      ],
      [
        "ĠKinder",
        -10.355670151696696
      ],
      [
        "Ä±r",
        -10.356276387010231
      ],
      [
        "âĤ¬",
        -10.35643237001082
      ],
      [
        "nine",
        -10.35668772801498
      ],
      [
        "Ġreserv",
        -10.356747778321814
      ],
      [
        "fÃ¼r",
        -10.356787277336636
      ],
      [
        "03",
        -10.357870264619772
      ],
      [
        "mes",
        -10.357931048587757
      ],
      [
        "val",
        -10.35948427334133
      ],
      [
        "Ġproces",
        -10.35988449874792
      ],
      [
        "ray",
        -10.361129924655952
      ],
      [
        "prior",
        -10.361449294052347
      ],
      [
        "yan",
        -10.362057156265378
      ],
      [
        "Ġencu",
        -10.362125832753865
      ],
      [
        "ĠSuch",
        -10.362887638731792
      ],
      [
        "Ġinteract",
        -10.363143288847832
      ],
      [
        "chief",
        -10.36383014931432
      ],
      [
        "inin",
        -10.364238875412008
      ],
      [
        "fertil",
        -10.364624319528684
      ],
      [
        "45",
        -10.364864966376729
      ],
      [
        "Common",
        -10.365011563606188
      ],
      [
        "resident",
        -10.365299672676738
      ],
      [
        "Ġnor",
        -10.365459173486908
      ],
      [
        "ĠEven",
        -10.366677122910128
      ],
      [
        "Development",
        -10.366738007912272
      ],
      [
        "sert",
        -10.366792959028064
      ],
      [
        "Ġinfect",
        -10.366908695440438
      ],
      [
        "worth",
        -10.367789706633848
      ],
      [
        "alcohol",
        -10.36835294164174
      ],
      [
        "Ġcompet",
        -10.36846605872612
      ],
      [
        "rÃ¡n",
        -10.368480004798792
      ],
      [
        "gue",
        -10.36853606707279
      ],
      [
        "ĠUN",
        -10.368541051449808
      ],
      [
        "solve",
        -10.369026289985028
      ],
      [
        "ĠEmp",
        -10.369349269284726
      ],
      [
        "Ġchang",
        -10.369351298691283
      ],
      [
        "ottom",
        -10.36943317318912
      ],
      [
        "Smith",
        -10.370325653441904
      ],
      [
        "users",
        -10.37108867083406
      ],
      [
        "ä¹Ł",
        -10.372026742708456
      ],
      [
        "iers",
        -10.372830450792462
      ],
      [
        "zona",
        -10.372838292447032
      ],
      [
        "ĠMenschen",
        -10.373799699256102
      ],
      [
        "producto",
        -10.374462206392735
      ],
      [
        "Ġrestor",
        -10.37483602985781
      ],
      [
        "2019",
        -10.374922201413495
      ],
      [
        "urgery",
        -10.374925073779732
      ],
      [
        "ĠGoogle",
        -10.375087437027958
      ],
      [
        "kep",
        -10.375116727504516
      ],
      [
        "machen",
        -10.375659633831267
      ],
      [
        "Wir",
        -10.37647585700966
      ],
      [
        "truth",
        -10.37659326764514
      ],
      [
        "Ġlea",
        -10.376672965314354
      ],
      [
        "Ġeducat",
        -10.376920781176755
      ],
      [
        "hatte",
        -10.376946269356427
      ],
      [
        "motion",
        -10.377120343918325
      ],
      [
        "ĠProject",
        -10.37717907093284
      ],
      [
        "forward",
        -10.377351024519015
      ],
      [
        "island",
        -10.378971496467598
      ],
      [
        "calculat",
        -10.379260014930518
      ],
      [
        "º",
        -10.379593864609951
      ],
      [
        "shift",
        -10.37974265194856
      ],
      [
        "occa",
        -10.379850369613496
      ],
      [
        "glass",
        -10.380515756054926
      ],
      [
        "polÃŃtic",
        -10.380531876674205
      ],
      [
        "âĢĺ",
        -10.380852780964071
      ],
      [
        "ĠPara",
        -10.380946305072609
      ],
      [
        "ĠdÃ¼nya",
        -10.381028102509866
      ],
      [
        "variable",
        -10.381411263924749
      ],
      [
        "tar",
        -10.381733486761954
      ],
      [
        "mechanism",
        -10.38195403975683
      ],
      [
        "2020",
        -10.38223844697792
      ],
      [
        "2015",
        -10.383381530935472
      ],
      [
        "Ġcircu",
        -10.383633347290797
      ],
      [
        "lying",
        -10.384262981866758
      ],
      [
        "cal",
        -10.384371057413798
      ],
      [
        "Ġgir",
        -10.384549557642416
      ],
      [
        "ä¸Ģ",
        -10.385931713879804
      ],
      [
        "breath",
        -10.385994650667191
      ],
      [
        "panish",
        -10.386066987780325
      ],
      [
        "resource",
        -10.38657104098405
      ],
      [
        "novel",
        -10.38671503711979
      ],
      [
        "ĠHa",
        -10.38711406936216
      ],
      [
        "Onc",
        -10.387820948367118
      ],
      [
        "chen",
        -10.387952420228482
      ],
      [
        "estos",
        -10.388435218895491
      ],
      [
        "tros",
        -10.388602069910148
      ],
      [
        "Ġpoe",
        -10.388934475389702
      ],
      [
        "portion",
        -10.389294450241616
      ],
      [
        "other",
        -10.389571786276909
      ],
      [
        "back",
        -10.390045716755832
      ],
      [
        "aÃŃs",
        -10.390092204186608
      ],
      [
        "sistema",
        -10.39104191951954
      ],
      [
        "Ġvill",
        -10.391312095859972
      ],
      [
        "iÃ±o",
        -10.391314596737324
      ],
      [
        "Ġbirlikte",
        -10.3913933751062
      ],
      [
        "Ġgener",
        -10.391753838908626
      ],
      [
        "absolut",
        -10.391850549946271
      ],
      [
        "Louis",
        -10.39225980510508
      ],
      [
        "ecciÃ³n",
        -10.392927904087715
      ],
      [
        "Tha",
        -10.39316096148926
      ],
      [
        "Ġbuy",
        -10.393335455852808
      ],
      [
        "ĠSea",
        -10.393378219730952
      ],
      [
        "ook",
        -10.393854739337897
      ],
      [
        "196",
        -10.394253199209182
      ],
      [
        "ĠMon",
        -10.394429841283715
      ],
      [
        "liÄŁi",
        -10.39486234559489
      ],
      [
        "session",
        -10.395510032312384
      ],
      [
        "zeit",
        -10.396183460899213
      ],
      [
        "UK",
        -10.397044496838992
      ],
      [
        "acre",
        -10.397055640147729
      ],
      [
        "tres",
        -10.39729661672322
      ],
      [
        "Ġconsult",
        -10.397363962649374
      ],
      [
        "seed",
        -10.397540038702164
      ],
      [
        "Ġband",
        -10.398175593386082
      ],
      [
        "occup",
        -10.398615390532276
      ],
      [
        "ĠfarklÄ±",
        -10.39901890272228
      ],
      [
        "ĠMy",
        -10.399161176996758
      ],
      [
        "Medicine",
        -10.399709455101553
      ],
      [
        "ãĢĤâĢĿ",
        -10.399845744655376
      ],
      [
        "quarter",
        -10.399929733878505
      ],
      [
        "struction",
        -10.40047924989815
      ],
      [
        "Ġyol",
        -10.401180254095545
      ],
      [
        "ĠGene",
        -10.401206000208267
      ],
      [
        "Ġobje",
        -10.40122277575606
      ],
      [
        "geben",
        -10.40143880232193
      ],
      [
        "but",
        -10.402183916053264
      ],
      [
        "ality",
        -10.402340428522432
      ],
      [
        "idence",
        -10.402840205962123
      ],
      [
        "ÃŃculo",
        -10.402863302191856
      ],
      [
        "strateg",
        -10.403369510146334
      ],
      [
        "ĠEuro",
        -10.404624430634335
      ],
      [
        "stehen",
        -10.405784785388605
      ],
      [
        "cademic",
        -10.406104455357468
      ],
      [
        "ĠUs",
        -10.40631678296136
      ],
      [
        "literatur",
        -10.406861676586956
      ],
      [
        "ency",
        -10.407209285207136
      ],
      [
        "normal",
        -10.407218843348415
      ],
      [
        "ĠUm",
        -10.407482159241368
      ],
      [
        "strain",
        -10.40793261051578
      ],
      [
        "ster",
        -10.408986874162396
      ],
      [
        "ography",
        -10.40928283359765
      ],
      [
        "organic",
        -10.40954652335891
      ],
      [
        "ĠAuf",
        -10.40993824959432
      ],
      [
        "ĠPeter",
        -10.410052837059116
      ],
      [
        "acific",
        -10.411309710789748
      ],
      [
        "cosa",
        -10.411374643348612
      ],
      [
        "cer",
        -10.41257782270701
      ],
      [
        "uego",
        -10.412583222282937
      ],
      [
        "click",
        -10.413342661007398
      ],
      [
        "Ġbod",
        -10.41355911603126
      ],
      [
        "toxic",
        -10.41365926606483
      ],
      [
        "install",
        -10.4138765903093
      ],
      [
        "Henr",
        -10.415074832190951
      ],
      [
        "indicat",
        -10.415128739192818
      ],
      [
        "99",
        -10.415240726496863
      ],
      [
        "illustrat",
        -10.415621204562102
      ],
      [
        "lleg",
        -10.416648396058696
      ],
      [
        "elev",
        -10.416839778396367
      ],
      [
        "35",
        -10.416985413330735
      ],
      [
        "agent",
        -10.417225851203328
      ],
      [
        "ĠdoÄŁru",
        -10.41799030653804
      ],
      [
        "zone",
        -10.41804524715948
      ],
      [
        "ood",
        -10.418321816306808
      ],
      [
        "sigu",
        -10.418517542910084
      ],
      [
        "Ġpropi",
        -10.4185904185668
      ],
      [
        "standing",
        -10.418983366755024
      ],
      [
        "conservation",
        -10.419150148123617
      ],
      [
        "ĠTw",
        -10.419176635584044
      ],
      [
        "Ġhaber",
        -10.419564505584953
      ],
      [
        "flood",
        -10.420584259216565
      ],
      [
        "ĠSpace",
        -10.421195835394132
      ],
      [
        "rred",
        -10.421199052257222
      ],
      [
        "con",
        -10.42161180884208
      ],
      [
        "Ġconstruct",
        -10.421878532939797
      ],
      [
        "ĠFall",
        -10.422036141156331
      ],
      [
        "layer",
        -10.422580330112831
      ],
      [
        "ĠMal",
        -10.423925760544266
      ],
      [
        "larÄ±nda",
        -10.42415124408224
      ],
      [
        "Figure",
        -10.42441104028477
      ],
      [
        "Ġdomin",
        -10.424789755928504
      ],
      [
        "zar",
        -10.425159490110872
      ],
      [
        "Ġ80",
        -10.425671308775836
      ],
      [
        "ĠBank",
        -10.426742565437218
      ],
      [
        "hand",
        -10.42819882361013
      ],
      [
        "Ġalan",
        -10.428677293321066
      ],
      [
        "wonder",
        -10.428951669486022
      ],
      [
        "ĠIch",
        -10.4295301815585
      ],
      [
        "ĠRed",
        -10.42973770519734
      ],
      [
        "pinion",
        -10.430631679681646
      ],
      [
        "istics",
        -10.4320524029778
      ],
      [
        "tical",
        -10.43221460838614
      ],
      [
        "Ġ29",
        -10.432361268491835
      ],
      [
        "sistent",
        -10.432434955838282
      ],
      [
        "ĠFree",
        -10.433242305715163
      ],
      [
        "Dur",
        -10.433628255610488
      ],
      [
        "ĠBri",
        -10.433859203968543
      ],
      [
        "tor",
        -10.434014694490038
      ],
      [
        "bei",
        -10.43429982757268
      ],
      [
        "iÃ§inde",
        -10.434468647966026
      ],
      [
        "adece",
        -10.434635209743528
      ],
      [
        "muss",
        -10.434750586733012
      ],
      [
        "gypt",
        -10.434813284002344
      ],
      [
        "insect",
        -10.43540954790168
      ],
      [
        "ories",
        -10.435445262102029
      ],
      [
        "Ġhayat",
        -10.435678378675874
      ],
      [
        "fluid",
        -10.435842711758918
      ],
      [
        "ĠDen",
        -10.436334844359292
      ],
      [
        "æĪĸ",
        -10.436555316089915
      ],
      [
        "orbit",
        -10.43693219670829
      ],
      [
        "å°ı",
        -10.437566202265105
      ],
      [
        "precis",
        -10.437725478518272
      ],
      [
        "Ġej",
        -10.438408407587312
      ],
      [
        "laciÃ³n",
        -10.438954078549138
      ],
      [
        "Ġcit",
        -10.439004780477555
      ],
      [
        "ildlife",
        -10.439618360212105
      ],
      [
        "shop",
        -10.439906770424562
      ],
      [
        "åıĬ",
        -10.440357496882118
      ],
      [
        "chos",
        -10.440720082031554
      ],
      [
        "Ġmet",
        -10.44096703986686
      ],
      [
        "erÃ¡",
        -10.441016683469783
      ],
      [
        "fields",
        -10.441196395634844
      ],
      [
        "Ġalgo",
        -10.441381285098052
      ],
      [
        "rupt",
        -10.441407234725911
      ],
      [
        "Ġrepe",
        -10.442181803155394
      ],
      [
        "ĠTest",
        -10.44220801129452
      ],
      [
        "Ä±nÄ±n",
        -10.442892468667209
      ],
      [
        "milk",
        -10.443585510515888
      ],
      [
        "Ġ90",
        -10.443658582424325
      ],
      [
        "Ġgovern",
        -10.444251629386462
      ],
      [
        "Ġban",
        -10.444262084721348
      ],
      [
        "ĠCO",
        -10.44428960733095
      ],
      [
        "Library",
        -10.444308024068512
      ],
      [
        "ĠDes",
        -10.444341648685487
      ],
      [
        "friends",
        -10.444941587279535
      ],
      [
        "last",
        -10.445400502209814
      ],
      [
        "anyon",
        -10.445829189545847
      ],
      [
        "ä½Ĩ",
        -10.446346001840004
      ],
      [
        "distanc",
        -10.44654967084047
      ],
      [
        "Ġorgan",
        -10.446677447139813
      ],
      [
        "Every",
        -10.447120303242729
      ],
      [
        "pick",
        -10.447601850192264
      ],
      [
        "Ġstudie",
        -10.447720092286572
      ],
      [
        "cloth",
        -10.447885512526538
      ],
      [
        "Ġpel",
        -10.447938195438145
      ],
      [
        "cline",
        -10.448767284022347
      ],
      [
        "partment",
        -10.449368225808923
      ],
      [
        "ĠPh",
        -10.449946485319026
      ],
      [
        "ury",
        -10.452313173005384
      ],
      [
        "poder",
        -10.452937610029243
      ],
      [
        "å°Ĩ",
        -10.453694280872451
      ],
      [
        "cia",
        -10.45370821328499
      ],
      [
        "bate",
        -10.45375827006366
      ],
      [
        "stories",
        -10.454079434350367
      ],
      [
        "Ġkarar",
        -10.454341266509164
      ],
      [
        "Ġarti",
        -10.454411561339812
      ],
      [
        "border",
        -10.45455850376065
      ],
      [
        "ĠSon",
        -10.454790834539178
      ],
      [
        "Ġoffic",
        -10.454914743592791
      ],
      [
        "dato",
        -10.455097301658467
      ],
      [
        "care",
        -10.45511864865186
      ],
      [
        "DA",
        -10.455585849376847
      ],
      [
        "ĠUnd",
        -10.456307935223784
      ],
      [
        "grass",
        -10.45655766126574
      ],
      [
        "ĠDE",
        -10.457447573778945
      ],
      [
        "evaluat",
        -10.457736036046406
      ],
      [
        "Ã³lo",
        -10.457931855636405
      ],
      [
        "rising",
        -10.458000627496409
      ],
      [
        "ĠUse",
        -10.458011015310868
      ],
      [
        "Ġinterpret",
        -10.45810982822666
      ],
      [
        "eros",
        -10.45843214554106
      ],
      [
        "Ġtrib",
        -10.45942166486079
      ],
      [
        "Ġspin",
        -10.459438100366294
      ],
      [
        "æĹ¶",
        -10.45991600138706
      ],
      [
        "Ġdiye",
        -10.460185386453274
      ],
      [
        "mÃ¶glich",
        -10.46081392931316
      ],
      [
        "ball",
        -10.461128853220645
      ],
      [
        "accomp",
        -10.461173298282036
      ],
      [
        "clos",
        -10.46128449585192
      ],
      [
        "enem",
        -10.461966899216645
      ],
      [
        "Ġclar",
        -10.462065520420802
      ],
      [
        "some",
        -10.462389841837496
      ],
      [
        "rought",
        -10.462780232430074
      ],
      [
        "ossil",
        -10.462809159557816
      ],
      [
        "tube",
        -10.463462517616236
      ],
      [
        "Ġoblig",
        -10.463802668360705
      ],
      [
        "Ġautomat",
        -10.464092164484962
      ],
      [
        "ĠHome",
        -10.464907777998024
      ],
      [
        "ĠkullanÄ±l",
        -10.465384208453615
      ],
      [
        "flight",
        -10.465831498597728
      ],
      [
        "Ġpen",
        -10.467069050240992
      ],
      [
        "Ġtra",
        -10.467296757907963
      ],
      [
        "ÃŃan",
        -10.467804641144014
      ],
      [
        "ä¸į",
        -10.468333265727896
      ],
      [
        "volv",
        -10.468529090707086
      ],
      [
        "formation",
        -10.470025694954828
      ],
      [
        "Second",
        -10.47063668494971
      ],
      [
        "events",
        -10.471636521217048
      ],
      [
        "Ġwel",
        -10.471985594219491
      ],
      [
        "shed",
        -10.472431930391252
      ],
      [
        "regulation",
        -10.472953696138228
      ],
      [
        "nos",
        -10.47328825418879
      ],
      [
        "Ġsalt",
        -10.473552484681935
      ],
      [
        "â",
        -10.474162571693984
      ],
      [
        "contract",
        -10.474700025255748
      ],
      [
        "articles",
        -10.474729572293914
      ],
      [
        "bear",
        -10.474988714479446
      ],
      [
        "marine",
        -10.475254327664343
      ],
      [
        "ideas",
        -10.475767146149552
      ],
      [
        "ex",
        -10.47746096748313
      ],
      [
        "uslim",
        -10.477589321717913
      ],
      [
        "maya",
        -10.47764746013008
      ],
      [
        "ä»İ",
        -10.477713286367887
      ],
      [
        "label",
        -10.477752357637367
      ],
      [
        "riage",
        -10.478403365908669
      ],
      [
        "hug",
        -10.479001475984573
      ],
      [
        "doub",
        -10.479016475905588
      ],
      [
        "ĠÃĸ",
        -10.479033844379178
      ],
      [
        "ived",
        -10.47942695846934
      ],
      [
        "sehen",
        -10.48001784323047
      ],
      [
        "Ġvan",
        -10.48020867134448
      ],
      [
        "comprehen",
        -10.480524239168188
      ],
      [
        "ista",
        -10.480839350069528
      ],
      [
        "abilirsiniz",
        -10.480931392463312
      ],
      [
        "fif",
        -10.48099800436572
      ],
      [
        "double",
        -10.481676002109143
      ],
      [
        "stand",
        -10.482476954766105
      ],
      [
        "bajo",
        -10.482590672277436
      ],
      [
        "ĠÃ¼rÃ¼n",
        -10.482802612820494
      ],
      [
        "Ġgra",
        -10.483022061963853
      ],
      [
        "ĠWhite",
        -10.483092606094056
      ],
      [
        "Ġemp",
        -10.484114852977823
      ],
      [
        "lease",
        -10.484194634494353
      ],
      [
        "photograph",
        -10.484502164460215
      ],
      [
        "Ġtrat",
        -10.48451571245036
      ],
      [
        "broke",
        -10.48462764546482
      ],
      [
        "shot",
        -10.48611791775456
      ],
      [
        "Ã©l",
        -10.48616808386844
      ],
      [
        "rank",
        -10.48650582342517
      ],
      [
        "proyect",
        -10.486840414369237
      ],
      [
        "lake",
        -10.487241936064647
      ],
      [
        "Ġmon",
        -10.487404825889282
      ],
      [
        "Compan",
        -10.48758155821494
      ],
      [
        "ecek",
        -10.487647061874831
      ],
      [
        "Ġtras",
        -10.487697349756443
      ],
      [
        "More",
        -10.488136936385455
      ],
      [
        "Ġacces",
        -10.48924079840417
      ],
      [
        "Ġhit",
        -10.489521490145966
      ],
      [
        "ĠPre",
        -10.489525164158074
      ],
      [
        "chas",
        -10.489740364600046
      ],
      [
        "monitor",
        -10.49047240244698
      ],
      [
        "ĠMont",
        -10.49084158591069
      ],
      [
        "ayuda",
        -10.491043030966493
      ],
      [
        "ä½ł",
        -10.492285568383885
      ],
      [
        "technologies",
        -10.493246913765107
      ],
      [
        "liquid",
        -10.493467065503996
      ],
      [
        "Ġhi",
        -10.49365527710594
      ],
      [
        "ĠEnergy",
        -10.493797629251434
      ],
      [
        "USA",
        -10.494329100618424
      ],
      [
        "tur",
        -10.494411039349297
      ],
      [
        "explore",
        -10.494872611122103
      ],
      [
        "tire",
        -10.495661206862044
      ],
      [
        "Â¡",
        -10.496249496566282
      ],
      [
        "2014",
        -10.49655015484618
      ],
      [
        "quate",
        -10.4966141958881
      ],
      [
        "ĠIslam",
        -10.497310950193562
      ],
      [
        "ĠSex",
        -10.498485642479071
      ],
      [
        "ĠPost",
        -10.498952671186824
      ],
      [
        "Ġ31",
        -10.49937423964112
      ],
      [
        "rough",
        -10.499744623945787
      ],
      [
        "ject",
        -10.4998455724248
      ],
      [
        "stem",
        -10.50007466698986
      ],
      [
        "ĠWork",
        -10.50071855484692
      ],
      [
        "ĠCentral",
        -10.501015040823672
      ],
      [
        "sensor",
        -10.501100750307632
      ],
      [
        "hole",
        -10.5011230082622
      ],
      [
        "manage",
        -10.501181533885118
      ],
      [
        "ĠHere",
        -10.501423635479233
      ],
      [
        "75",
        -10.501683591156825
      ],
      [
        "weil",
        -10.501843858265689
      ],
      [
        "index",
        -10.501860184819492
      ],
      [
        "Ġinfra",
        -10.50309729702829
      ],
      [
        "Most",
        -10.503741166590832
      ],
      [
        "Ġaudi",
        -10.504030280818776
      ],
      [
        "gest",
        -10.504467414192192
      ],
      [
        "Richard",
        -10.504508161439738
      ],
      [
        "elimin",
        -10.504595158342347
      ],
      [
        "mar",
        -10.504944151912463
      ],
      [
        "ĠTÃ¼rk",
        -10.505781494857931
      ],
      [
        "ĠAre",
        -10.505808363466402
      ],
      [
        "route",
        -10.506989955259264
      ],
      [
        "ieron",
        -10.50709841376754
      ],
      [
        "cloud",
        -10.5071586455163
      ],
      [
        "Foundation",
        -10.508100141685343
      ],
      [
        "statistic",
        -10.508118228930824
      ],
      [
        "apon",
        -10.508265143742724
      ],
      [
        "nutrition",
        -10.508563688512876
      ],
      [
        "31",
        -10.50861976213554
      ],
      [
        "states",
        -10.508688974415254
      ],
      [
        "ĠNow",
        -10.5096150211034
      ],
      [
        "molecul",
        -10.51091992417929
      ],
      [
        "echnical",
        -10.510922516378258
      ],
      [
        "kid",
        -10.511092734661162
      ],
      [
        "scar",
        -10.512061913272936
      ],
      [
        "Ġalter",
        -10.512120070942691
      ],
      [
        "Ġsolid",
        -10.512234504078071
      ],
      [
        "stellen",
        -10.512304152720974
      ],
      [
        "irgini",
        -10.512761066886222
      ],
      [
        "lerinde",
        -10.513017446512464
      ],
      [
        "operations",
        -10.513324013061686
      ],
      [
        "voice",
        -10.51338266057988
      ],
      [
        "meat",
        -10.51358453294681
      ],
      [
        "je",
        -10.513846801974482
      ],
      [
        "por",
        -10.513888930492488
      ],
      [
        "dange",
        -10.514166449447323
      ],
      [
        "und",
        -10.514486372717606
      ],
      [
        "laborator",
        -10.516063441387876
      ],
      [
        "Ġinternet",
        -10.516230032993509
      ],
      [
        "ĠStudent",
        -10.516319222233326
      ],
      [
        "ignor",
        -10.516458220784772
      ],
      [
        "tivo",
        -10.516966573525236
      ],
      [
        "ĠgroÃŁ",
        -10.51746633300368
      ],
      [
        "ĠOld",
        -10.518467026971456
      ],
      [
        "scope",
        -10.518594269158571
      ],
      [
        "ince",
        -10.51880907434184
      ],
      [
        "electronic",
        -10.519379265225997
      ],
      [
        "ustainable",
        -10.51993971607841
      ],
      [
        "vor",
        -10.520499721282034
      ],
      [
        "Ġreform",
        -10.520799854433031
      ],
      [
        "ĠBar",
        -10.520932924999428
      ],
      [
        "è¢«",
        -10.521098779444904
      ],
      [
        "Ġpes",
        -10.521400235966196
      ],
      [
        "politic",
        -10.521698068578033
      ],
      [
        "cu",
        -10.522596012710745
      ],
      [
        "Ġfo",
        -10.522661922784511
      ],
      [
        "Para",
        -10.522825070244924
      ],
      [
        "zw",
        -10.52290972474148
      ],
      [
        "ĠgÃ¼zel",
        -10.522944556432824
      ],
      [
        "estado",
        -10.523443790281467
      ],
      [
        "biological",
        -10.52363020761161
      ],
      [
        "Ġllam",
[...]
