{
  "version": "1.0",
  "truncation": null,
  "padding": null,
  "added_tokens": [
    {
      "id": 0,
      "content": "<|endoftext|>",
      "single_word": false,
      "lstrip": false,
      "rstrip": false,
      "normalized": false,
      "special": true
    },
    {
      "id": 1,
      "content": "<|padding|>",
      "single_word": false,
      "lstrip": false,
      "rstrip": false,
      "normalized": false,
      "special": true
    }
  ],
  "normalizer": {
    "type": "NFC"
  },
  "pre_tokenizer": {
    "type": "ByteLevel",
    "add_prefix_space": false,
    "trim_offsets": true,
    "use_regex": true
  },
  "post_processor": {
    "type": "ByteLevel",
    "add_prefix_space": true,
    "trim_offsets": false,
    "use_regex": true
  },
  "decoder": {
    "type": "ByteLevel",
    "add_prefix_space": true,
    "trim_offsets": true,
    "use_regex": true
  },
  "model": {
    "type": "Unigram",
    "unk_id": null,
    "vocab": [
      [
        "<|endoftext|>",
        -1.0
      ],
      [
        "<|padding|>",
        -1.0
      ],
      [
        "Ġ",
        -1.0
      ],
      [
        "e",
        -1.0
      ],
      [
        "t",
        -1.0
      ],
      [
        "a",
        -1.0
      ],
      [
        "o",
        -1.0
      ],
      [
        "i",
        -1.0
      ],
      [
        "n",
        -1.0
      ],
      [
        "s",
        -1.0
      ],
      [
        "r",
        -1.0
      ],
      [
        "h",
        -1.0
      ],
      [
        "l",
        -1.0
      ],
      [
        "d",
        -1.0
      ],
      [
        "c",
        -1.0
      ],
      [
        "u",
        -1.0
      ],
      [
        "m",
        -1.0
      ],
      [
        "f",
        -1.0
      ],
      [
        "p",
        -1.0
      ],
      [
        "g",
        -1.0
      ],
      [
        "y",
        -1.0
      ],
      [
        "w",
        -1.0
      ],
      [
        "b",
        -1.0
      ],
      [
        ",",
        -1.0
      ],
      [
        ".",
        -1.0
      ],
      [
        "v",
        -1.0
      ],
      [
        "Ċ",
        -1.0
      ],
      [
        "k",
        -1.0
      ],
      [
        "T",
        -1.0
      ],
      [
        "A",
        -1.0
      ],
      [
        "-",
        -1.0
      ],
      [
        "S",
        -1.0
      ],
      [
        "1",
        -1.0
      ],
      [
        "0",
        -1.0
      ],
      [
        "I",
        -1.0
      ],
      [
        "C",
        -1.0
      ],
      [
        "x",
        -1.0
      ],
      [
        "â",
        -1.0
      ],
      [
        "M",
        -1.0
      ],
      [
        "Ģ",
        -1.0
      ],
      [
        "P",
        -1.0
      ],
      [
        "2",
        -1.0
      ],
      [
        "B",
        -1.0
      ],
      [
        ")",
        -1.0
      ],
      [
        "(",
        -1.0
      ],
      [
        "E",
        -1.0
      ],
      [
        "D",
        -1.0
      ],
      [
        "H",
        -1.0
      ],
      [
        "R",
        -1.0
      ],
      [
        "N",
        -1.0
      ],
      [
        "W",
        -1.0
      ],
      [
        "9",
        -1.0
      ],
      [
        "\"",
        -1.0
      ],
      [
        "F",
        -1.0
      ],
      [
        "L",
        -1.0
      ],
      [
        ":",
        -1.0
      ],
      [
        "'",
        -1.0
      ],
      [
        "O",
        -1.0
      ],
      [
        "G",
        -1.0
      ],
      [
        "z",
        -1.0
      ],
      [
        "q",
        -1.0
      ],
      [
        "3",
        -1.0
      ],
      [
        "5",
        -1.0
      ],
      [
        "j",
        -1.0
      ],
      [
        "8",
        -1.0
      ],
      [
        "4",
        -1.0
      ],
      [
        "U",
        -1.0
      ],
      [
        "6",
        -1.0
      ],
      [
        "7",
        -1.0
      ],
      [
        "J",
        -1.0
      ],
      [
        "Ļ",
        -1.0
      ],
      [
        "|",
        -1.0
      ],
      [
        ";",
        -1.0
      ],
      [
        "V",
        -1.0
      ],
      [
        "/",
        -1.0
      ],
      [
        "K",
        -1.0
      ],
      [
        "ľ",
        -1.0
      ],
      [
        "Ŀ",
        -1.0
      ],
      [
        "Y",
        -1.0
      ],
      [
        "?",
        -1.0
      ],
      [
        "ĵ",
        -1.0
      ],
      [
        "Ķ",
        -1.0
      ],
      [
        "Ã",
        -1.0
      ],
      [
        "%",
        -1.0
      ],
      [
        "!",
        -1.0
      ],
      [
        "Q",
        -1.0
      ],
      [
        "[",
        -1.0
      ],
      [
        "]",
        -1.0
      ],
      [
        "_",
        -1.0
      ],
      [
        "Â",
        -1.0
      ],
      [
        "&",
        -1.0
      ],
      [
        "Z",
        -1.0
      ],
      [
        "X",
        -1.0
      ],
      [
        "$",
        -1.0
      ],
      [
        "=",
        -1.0
      ],
      [
        "ĺ",
        -1.0
      ],
      [
        "©",
        -1.0
      ],
      [
        "*",
        -1.0
      ],
      [
        ">",
        -1.0
      ],
      [
        "¢",
        -1.0
      ],
      [
        "+",
        -1.0
      ],
      [
        "¦",
        -1.0
      ],
      [
        "Î",
        -1.0
      ],
      [
        "Ä",
        -1.0
      ],
      [
        "Ð",
        -1.0
      ],
      [
        "ģ",
        -1.0
      ],
      [
        "°",
        -1.0
      ],
      [
        "<",
        -1.0
      ],
      [
        "¡",
        -1.0
      ],
      [
        "¼",
        -1.0
      ],
      [
        "#",
        -1.0
      ],
      [
        "·",
        -1.0
      ],
      [
        "Å",
        -1.0
      ],
      [
        "Ń",
        -1.0
      ],
      [
        "Ĥ",
        -1.0
      ],
      [
        "±",
        -1.0
      ],
      [
        "×",
        -1.0
      ],
      [
        "¸",
        -1.0
      ],
      [
        "¤",
        -1.0
      ],
      [
        "á",
        -1.0
      ],
      [
        "@",
        -1.0
      ],
      [
        "Ï",
        -1.0
      ],
      [
        "³",
        -1.0
      ],
      [
        "à",
        -1.0
      ],
      [
        "Ù",
        -1.0
      ],
      [
        "Ĩ",
        -1.0
      ],
      [
        "½",
        -1.0
      ],
      [
        "»",
        -1.0
      ],
      [
        "ĳ",
        -1.0
      ],
      [
        "Ñ",
        -1.0
      ],
      [
        "§",
        -1.0
      ],
      [
        "¶",
        -1.0
      ],
      [
        "Ħ",
        -1.0
      ],
      [
        "`",
        -1.0
      ],
      [
        "«",
        -1.0
      ],
      [
        "º",
        -1.0
      ],
      [
        "£",
        -1.0
      ],
      [
        "®",
        -1.0
      ],
      [
        "¿",
        -1.0
      ],
      [
        "²",
        -1.0
      ],
      [
        "¹",
        -1.0
      ],
      [
        "Ī",
        -1.0
      ],
      [
        "Ø",
        -1.0
      ],
      [
        "¬",
        -1.0
      ],
      [
        "¨",
        -1.0
      ],
      [
        "µ",
        -1.0
      ],
      [
        "ł",
        -1.0
      ],
      [
        "~",
        -1.0
      ],
      [
        "´",
        -1.0
      ],
      [
        "ã",
        -1.0
      ],
      [
        "¾",
        -1.0
      ],
      [
        "ĥ",
        -1.0
      ],
      [
        "į",
        -1.0
      ],
      [
        "Ĵ",
        -1.0
      ],
      [
        "å",
        -1.0
      ],
      [
        "^",
        -1.0
      ],
      [
        "¥",
        -1.0
      ],
      [
        "Ĳ",
        -1.0
      ],
      [
        "ª",
        -1.0
      ],
      [
        "Ĺ",
        -1.0
      ],
      [
        "ī",
        -1.0
      ],
      [
        "ĩ",
        -1.0
      ],
      [
        "¯",
        -1.0
      ],
      [
        "\\",
        -1.0
      ],
      [
        "ħ",
        -1.0
      ],
      [
        "É",
        -1.0
      ],
      [
        "æ",
        -1.0
      ],
      [
        "ĸ",
        -1.0
      ],
      [
        "Ê",
        -1.0
      ],
      [
        "ķ",
        -1.0
      ],
      [
        "Į",
        -1.0
      ],
      [
        "Ł",
        -1.0
      ],
      [
        "Ë",
        -1.0
      ],
      [
        "İ",
        -1.0
      ],
      [
        "ļ",
        -1.0
      ],
      [
        "Ľ",
        -1.0
      ],
      [
        "ı",
        -1.0
      ],
      [
        "ï",
        -1.0
      ],
      [
        "Ö",
        -1.0
      ],
      [
        "ç",
        -1.0
      ],
      [
        "Ĭ",
        -1.0
      ],
      [
        "ĭ",
        -1.0
      ],
      [
        "ŀ",
        -1.0
      ],
      [
        "è",
        -1.0
      ],
      [
        "ä",
        -1.0
      ],
      [
        "é",
        -1.0
      ],
      [
        "ì",
        -1.0
      ],
      [
        "ë",
        -1.0
      ],
      [
        "Õ",
        -1.0
      ],
      [
        "Ì",
        -1.0
      ],
      [
        "Ç",
        -1.0
      ],
      [
        "ê",
        -1.0
      ],
      [
        "Û",
        -1.0
      ],
      [
        "í",
        -1.0
      ],
      [
        "Æ",
        -1.0
      ],
      [
        "Ú",
        -1.0
      ],
      [
        "}",
        -1.0
      ],
      [
        "È",
        -1.0
      ],
      [
        "Ü",
        -1.0
      ],
      [
        "Þ",
        -1.0
      ],
      [
        "ð",
        -1.0
      ],
      [
        "Ô",
        -1.0
      ],
      [
        "Ò",
        -1.0
      ],
      [
        "Í",
        -1.0
      ],
      [
        "Ó",
        -1.0
      ],
      [
        "Ý",
        -1.0
      ],
      [
        "ß",
        -1.0
      ],
      [
        "ĉ",
        -1.0
      ],
      [
        "ó",
        -1.0
      ],
      [
        "ġ",
        -1.0
      ],
      [
        "ğ",
        -1.0
      ],
      [
        "Ğ",
        -1.0
      ],
      [
        "ĝ",
        -1.0
      ],
      [
        "Ĝ",
        -1.0
      ],
      [
        "ě",
        -1.0
      ],
      [
        "Ě",
        -1.0
      ],
      [
        "ę",
        -1.0
      ],
      [
        "Ę",
        -1.0
      ],
      [
        "ė",
        -1.0
      ],
      [
        "Ė",
        -1.0
      ],
      [
        "ĕ",
        -1.0
      ],
      [
        "Ĕ",
        -1.0
      ],
      [
        "ē",
        -1.0
      ],
      [
        "Ē",
        -1.0
      ],
      [
        "đ",
        -1.0
      ],
      [
        "Đ",
        -1.0
      ],
      [
        "ď",
        -1.0
      ],
      [
        "Ď",
        -1.0
      ],
      [
        "č",
        -1.0
      ],
      [
        "Č",
        -1.0
      ],
      [
        "ċ",
        -1.0
      ],
      [
        "Ĉ",
        -1.0
      ],
      [
        "ć",
        -1.0
      ],
      [
        "Ć",
        -1.0
      ],
      [
        "ą",
        -1.0
      ],
      [
        "Ą",
        -1.0
      ],
      [
        "ă",
        -1.0
      ],
      [
        "Ă",
        -1.0
      ],
      [
        "ā",
        -1.0
      ],
      [
        "Ā",
        -1.0
      ],
      [
        "ÿ",
        -1.0
      ],
      [
        "þ",
        -1.0
      ],
      [
        "ý",
        -1.0
      ],
      [
        "ü",
        -1.0
      ],
      [
        "û",
        -1.0
      ],
      [
        "ú",
        -1.0
      ],
      [
        "ù",
        -1.0
      ],
      [
        "ø",
        -1.0
      ],
      [
        "÷",
        -1.0
      ],
      [
        "ö",
        -1.0
      ],
      [
        "õ",
        -1.0
      ],
      [
        "ô",
        -1.0
      ],
      [
        "ò",
        -1.0
      ],
      [
        "ñ",
        -1.0
      ],
      [
        "î",
        -1.0
      ],
      [
        "Á",
        -1.0
      ],
      [
        "À",
        -1.0
      ],
      [
        "{",
        -1.0
      ],
      [
        "er",
        -1.0
      ],
      [
        "an",
        -1.0
      ],
      [
        "in",
        -1.0
      ],
      [
        "en",
        -1.0
      ],
      [
        "on",
        -1.0
      ],
      [
        "ar",
        -1.0
      ],
      [
        "es",
        -1.0
      ],
      [
        "ti",
        -1.0
      ],
      [
        "ra",
        -1.0
      ],
      [
        "at",
        -1.0
      ],
      [
        "te",
        -1.0
      ],
      [
        "al",
        -1.0
      ],
      [
        "re",
        -1.0
      ],
      [
        "ri",
        -1.0
      ],
      [
        "is",
        -1.0
      ],
      [
        "or",
        -1.0
      ],
      [
        "le",
        -1.0
      ],
      [
        "st",
        -1.0
      ],
      [
        "li",
        -1.0
      ],
      [
        "ro",
        -1.0
      ],
      [
        "ic",
        -1.0
      ],
      [
        "ng",
        -1.0
      ],
      [
        "ch",
        -1.0
      ],
      [
        "la",
        -1.0
      ],
      [
        "ne",
        -1.0
      ],
      [
        "nt",
        -1.0
      ],
      [
        "ta",
        -1.0
      ],
      [
        "it",
        -1.0
      ],
      [
        "ha",
        -1.0
      ],
      [
        "el",
        -1.0
      ],
      [
        "as",
        -1.0
      ],
      [
        "ing",
        -1.0
      ],
      [
        "na",
        -1.0
      ],
      [
        "ĠS",
        -1.0
      ],
      [
        "ma",
        -1.0
      ],
      [
        "he",
        -1.0
      ],
      [
        "ni",
        -1.0
      ],
      [
        "io",
        -1.0
      ],
      [
        "de",
        -1.0
      ],
      [
        "et",
        -1.0
      ],
      [
        "ia",
        -1.0
      ],
      [
        "ll",
        -1.0
      ],
      [
        "nd",
        -1.0
      ],
      [
        "ol",
        -1.0
      ],
      [
        "to",
        -1.0
      ],
      [
        "ion",
        -1.0
      ],
      [
        "th",
        -1.0
      ],
      [
        "se",
        -1.0
      ],
      [
        "ed",
        -1.0
      ],
      [
        "tion",
        -1.0
      ],
      [
        "am",
        -1.0
      ],
      [
        "il",
        -1.0
      ],
      [
        "me",
        -1.0
      ],
      [
        "us",
        -1.0
      ],
      [
        "ur",
        -1.0
      ],
      [
        "ĠM",
        -1.0
      ],
      [
        "ns",
        -1.0
      ],
      [
        "hi",
        -1.0
      ],
      [
        "lo",
        -1.0
      ],
      [
        "ac",
        -1.0
      ],
      [
        "si",
        -1.0
      ],
      [
        "os",
        -1.0
      ],
      [
        "ĠC",
        -1.0
      ],
      [
        "di",
        -1.0
      ],
      [
        "tr",
        -1.0
      ],
      [
        "co",
        -1.0
      ],
      [
        "ter",
        -1.0
      ],
      [
        "ati",
        -1.0
      ],
      [
        "ie",
        -1.0
      ],
      [
        "________________",
        -1.0
      ],
      [
        "ca",
        -1.0
      ],
      [
        "_______________",
        -1.0
      ],
      [
        "ĠA",
        -1.0
      ],
      [
        "ĠP",
        -1.0
      ],
      [
        "tio",
        -1.0
      ],
      [
        "ea",
        -1.0
      ],
      [
        "ent",
        -1.0
      ],
      [
        "om",
        -1.0
      ],
      [
        "_____________",
        -1.0
      ],
      [
        "ĠB",
        -1.0
      ],
      [
        "un",
        -1.0
      ],
      [
        "no",
        -1.0
      ],
      [
        "ation",
        -1.0
      ],
      [
        "____________",
        -1.0
      ],
      [
        "ou",
        -1.0
      ],
      [
        "ho",
        -1.0
      ],
      [
        "ge",
        -1.0
      ],
      [
        "mi",
        -1.0
      ],
      [
        "ad",
        -1.0
      ],
      [
        "ss",
        -1.0
      ],
      [
        "id",
        -1.0
      ],
      [
        "ec",
        -1.0
      ],
      [
        "rs",
        -1.0
      ],
      [
        "ve",
        -1.0
      ],
      [
        "Ġs",
        -1.0
      ],
      [
        "__________",
        -1.0
      ],
      [
        "sh",
        -1.0
      ],
      [
        "ce",
        -1.0
      ],
      [
        "rt",
        -1.0
      ],
      [
        "pe",
        -1.0
      ],
      [
        "ot",
        -1.0
      ],
      [
        "ĠT",
        -1.0
      ],
      [
        "sa",
        -1.0
      ],
      [
        "_________",
        -1.0
      ],
      [
        "da",
        -1.0
      ],
      [
        "atio",
        -1.0
      ],
      [
        "ai",
        -1.0
      ],
      [
        "ers",
        -1.0
      ],
      [
        "em",
        -1.0
      ],
      [
        "ul",
        -1.0
      ],
      [
        "________",
        -1.0
      ],
      [
        "Ġp",
        -1.0
      ],
      [
        "and",
        -1.0
      ],
      [
        "pa",
        -1.0
      ],
      [
        "----------------",
        -1.0
      ],
      [
        "op",
        -1.0
      ],
      [
        "ir",
        -1.0
      ],
      [
        "---------------",
        -1.0
      ],
      [
        "ĠK",
        -1.0
      ],
      [
        "Ġc",
        -1.0
      ],
      [
        "--------------",
        -1.0
      ],
      [
        "ate",
        -1.0
      ],
      [
        "_______",
        -1.0
      ],
      [
        "ĠD",
        -1.0
      ],
      [
        "------------",
        -1.0
      ],
      [
        "um",
        -1.0
      ],
      [
        "im",
        -1.0
      ],
      [
        "ab",
        -1.0
      ],
      [
        "ci",
        -1.0
      ],
      [
        "ts",
        -1.0
      ],
      [
        "ag",
        -1.0
      ],
      [
        "Ġa",
        -1.0
      ],
      [
        "ist",
        -1.0
      ],
      [
        "ga",
        -1.0
      ],
      [
        "ĠG",
        -1.0
      ],
      [
        "mo",
        -1.0
      ],
      [
        "be",
        -1.0
      ],
      [
        "ba",
        -1.0
      ],
      [
        "----------",
        -1.0
      ],
      [
        "ut",
        -1.0
      ],
      [
        "................",
        -1.0
      ],
      [
        "ĠH",
        -1.0
      ],
      [
        "nc",
        -1.0
      ],
      [
        "ap",
        -1.0
      ],
      [
        "______",
        -1.0
      ],
      [
        "...............",
        -1.0
      ],
      [
        "ine",
        -1.0
      ],
      [
        "ka",
        -1.0
      ],
      [
        "vi",
        -1.0
      ],
      [
        "oc",
        -1.0
      ],
      [
        "po",
        -1.0
      ],
      [
        "sc",
        -1.0
      ],
      [
        "ei",
        -1.0
      ],
      [
        "ee",
        -1.0
      ],
      [
        "..............",
        -1.0
      ],
      [
        "ĠR",
        -1.0
      ],
      [
        "so",
        -1.0
      ],
      [
        "--------",
        -1.0
      ],
      [
        "ct",
        -1.0
      ],
      [
        ".............",
        -1.0
      ],
      [
        "ak",
        -1.0
      ],
      [
        "ĠL",
        -1.0
      ],
      [
        "ke",
        -1.0
      ],
      [
        "ph",
        -1.0
      ],
      [
        "ig",
        -1.0
      ],
      [
        "ant",
        -1.0
      ],
      [
        "tt",
        -1.0
      ],
      [
        "Ma",
        -1.0
      ],
      [
        "tu",
        -1.0
      ],
      [
        "Ġm",
        -1.0
      ],
      [
        "og",
        -1.0
      ],
      [
        "eri",
        -1.0
      ],
      [
        "............",
        -1.0
      ],
      [
        "ĠMa",
        -1.0
      ],
      [
        "_____",
        -1.0
      ],
      [
        "-------",
        -1.0
      ],
      [
        "tic",
        -1.0
      ],
      [
        "ru",
        -1.0
      ],
      [
        "do",
        -1.0
      ],
      [
        "ara",
        -1.0
      ],
      [
        "ari",
        -1.0
      ],
      [
        "oo",
        -1.0
      ],
      [
        "che",
        -1.0
      ],
      [
        "od",
        -1.0
      ],
      [
        "lin",
        -1.0
      ],
      [
        "va",
        -1.0
      ],
      [
        "pr",
        -1.0
      ],
      [
        "...........",
        -1.0
      ],
      [
        "man",
        -1.0
      ],
      [
        "all",
        -1.0
      ],
      [
        "ran",
        -1.0
      ],
      [
        "ali",
        -1.0
      ],
      [
        "Ġt",
        -1.0
      ],
      [
        "ĠN",
        -1.0
      ],
      [
        "au",
        -1.0
      ],
      [
        "ica",
        -1.0
      ],
      [
        "ian",
        -1.0
      ],
      [
        "the",
        -1.0
      ],
      [
        "ly",
        -1.0
      ],
      [
        "------",
        -1.0
      ],
      [
        "ell",
        -1.0
      ],
      [
        "..........",
        -1.0
      ],
      [
        "ki",
        -1.0
      ],
      [
        "ste",
        -1.0
      ],
      [
        "ck",
        -1.0
      ],
      [
        "ĠE",
        -1.0
      ],
      [
        "ess",
        -1.0
      ],
      [
        "bi",
        -1.0
      ],
      [
        "res",
        -1.0
      ],
      [
        "tra",
        -1.0
      ],
      [
        "ana",
        -1.0
      ],
      [
        "est",
        -1.0
      ],
      [
        "gi",
        -1.0
      ],
      [
        "00",
        -1.0
      ],
      [
        "ya",
        -1.0
      ],
      [
        "rd",
        -1.0
      ],
      [
        ".........",
        -1.0
      ],
      [
        "Ġd",
        -1.0
      ],
      [
        "tin",
        -1.0
      ],
      [
        "nte",
        -1.0
      ],
      [
        "men",
        -1.0
      ],
      [
        "____",
        -1.0
      ],
      [
        "wa",
        -1.0
      ],
      [
        "ons",
        -1.0
      ],
      [
        "ĠF",
        -1.0
      ],
      [
        "her",
        -1.0
      ],
      [
        "ill",
        -1.0
      ],
      [
        "pi",
        -1.0
      ],
      [
        "-----",
        -1.0
      ],
      [
        "ay",
        -1.0
      ],
      [
        "lu",
        -1.0
      ],
      [
        "ani",
        -1.0
      ],
      [
        "su",
        -1.0
      ],
      [
        "per",
        -1.0
      ],
      [
        "ere",
        -1.0
      ],
      [
        "ah",
        -1.0
      ],
      [
        "........",
        -1.0
      ],
      [
        "era",
        -1.0
      ],
      [
        "bo",
        -1.0
      ],
      [
        "ry",
        -1.0
      ],
      [
        "lan",
        -1.0
      ],
      [
        "ver",
        -1.0
      ],
      [
        "nn",
        -1.0
      ],
      [
        "rin",
        -1.0
      ],
      [
        "ang",
        -1.0
      ],
      [
        "rat",
        -1.0
      ],
      [
        "ov",
        -1.0
      ],
      [
        "tor",
        -1.0
      ],
      [
        "der",
        -1.0
      ],
      [
        "sta",
        -1.0
      ],
      [
        "nes",
        -1.0
      ],
      [
        "Ġb",
        -1.0
      ],
      [
        "ep",
        -1.0
      ],
      [
        "iv",
        -1.0
      ],
      [
        "ina",
        -1.0
      ],
      [
        "rm",
        -1.0
      ],
      [
        "av",
        -1.0
      ],
      [
        "rn",
        -1.0
      ],
      [
        ".......",
        -1.0
      ],
      [
        "nti",
        -1.0
      ],
      [
        "Co",
        -1.0
      ],
      [
        "chi",
        -1.0
      ],
      [
        "cha",
        -1.0
      ],
      [
        "----",
        -1.0
      ],
      [
        "str",
        -1.0
      ],
      [
        "ow",
        -1.0
      ],
      [
        "nde",
        -1.0
      ],
      [
        "lle",
        -1.0
      ],
      [
        "sti",
        -1.0
      ],
      [
        "han",
        -1.0
      ],
      [
        "rr",
        -1.0
      ],
      [
        "fi",
        -1.0
      ],
      [
        "mp",
        -1.0
      ],
      [
        "oni",
        -1.0
      ],
      [
        "ue",
        -1.0
      ],
      [
        "sp",
        -1.0
      ],
      [
        "ae",
        -1.0
      ],
      [
        "ĠI",
        -1.0
      ],
      [
        "ans",
        -1.0
      ],
      [
        "ik",
        -1.0
      ],
      [
        "ĠW",
        -1.0
      ],
      [
        "one",
        -1.0
      ],
      [
        "ment",
        -1.0
      ],
      [
        "sk",
        -1.0
      ],
      [
        "Ġe",
        -1.0
      ],
      [
        "con",
        -1.0
      ],
      [
        "Ġr",
        -1.0
      ],
      [
        "gr",
        -1.0
      ],
      [
        "Ġco",
        -1.0
      ],
      [
        "___",
        -1.0
      ],
      [
        "ens",
        -1.0
      ],
      [
        "rc",
        -1.0
      ],
      [
        "eg",
        -1.0
      ],
      [
        "art",
        -1.0
      ],
      [
        "......",
        -1.0
      ],
      [
        "ach",
        -1.0
      ],
      [
        "ala",
        -1.0
      ],
      [
        "ide",
        -1.0
      ],
      [
        "ast",
        -1.0
      ],
      [
        "ip",
        -1.0
      ],
      [
        "rg",
        -1.0
      ],
      [
        "bl",
        -1.0
      ],
      [
        "olo",
        -1.0
      ],
      [
        "hu",
        -1.0
      ],
      [
        "les",
        -1.0
      ],
      [
        "Ġi",
        -1.0
      ],
      [
        "iti",
        -1.0
      ],
      [
        "sch",
        -1.0
      ],
      [
        "ber",
        -1.0
      ],
      [
        "tri",
        -1.0
      ],
      [
        "ect",
        -1.0
      ],
      [
        "fe",
        -1.0
      ],
      [
        "cr",
        -1.0
      ],
      [
        "ene",
        -1.0
      ],
      [
        "ua",
        -1.0
      ],
      [
        "har",
        -1.0
      ],
      [
        "lt",
        -1.0
      ],
      [
        "ite",
        -1.0
      ],
      [
        "cu",
        -1.0
      ],
      [
        "ty",
        -1.0
      ],
      [
        "ev",
        -1.0
      ],
      [
        "ĠV",
        -1.0
      ],
      [
        "ini",
        -1.0
      ],
      [
        "uc",
        -1.0
      ],
      [
        "ĠCo",
        -1.0
      ],
      [
        "ld",
        -1.0
      ],
      [
        "ui",
        -1.0
      ],
      [
        "ric",
        -1.0
      ],
      [
        "ko",
        -1.0
      ],
      [
        "pl",
        -1.0
      ],
      [
        "---",
        -1.0
      ],
      [
        "ria",
        -1.0
      ],
      [
        "fo",
        -1.0
      ],
      [
        "ris",
        -1.0
      ],
      [
        "eo",
        -1.0
      ],
      [
        ".....",
        -1.0
      ],
      [
        "Ġh",
        -1.0
      ],
      [
        "lli",
        -1.0
      ],
      [
        "ard",
        -1.0
      ],
      [
        "go",
        -1.0
      ],
      [
        "ich",
        -1.0
      ],
      [
        "ĠO",
        -1.0
      ],
      [
        "Ch",
        -1.0
      ],
      [
        "ona",
        -1.0
      ],
      [
        "ls",
        -1.0
      ],
      [
        "ĠCh",
        -1.0
      ],
      [
        "int",
        -1.0
      ],
      [
        "ten",
        -1.0
      ],
      [
        "cal",
        -1.0
      ],
      [
        "min",
        -1.0
      ],
      [
        "tes",
        -1.0
      ],
      [
        "ib",
        -1.0
      ],
      [
        "lis",
        -1.0
      ],
      [
        "Ca",
        -1.0
      ],
      [
        "ob",
        -1.0
      ],
      [
        "tro",
        -1.0
      ],
      [
        "qu",
        -1.0
      ],
      [
        "tan",
        -1.0
      ],
      [
        "lla",
        -1.0
      ],
      [
        "bu",
        -1.0
      ],
      [
        "oi",
        -1.0
      ],
      [
        "ive",
        -1.0
      ],
      [
        "Pa",
        -1.0
      ],
      [
        "Ġf",
        -1.0
      ],
      [
        "we",
        -1.0
      ],
      [
        "lat",
        -1.0
      ],
      [
        "dr",
        -1.0
      ],
      [
        "hy",
        -1.0
      ],
      [
        "pro",
        -1.0
      ],
      [
        "ili",
        -1.0
      ],
      [
        "ata",
        -1.0
      ],
      [
        "gen",
        -1.0
      ],
      [
        "ud",
        -1.0
      ],
      [
        "ren",
        -1.0
      ],
      [
        "are",
        -1.0
      ],
      [
        "eb",
        -1.0
      ],
      [
        "end",
        -1.0
      ],
      [
        "mb",
        -1.0
      ],
      [
        "ies",
        -1.0
      ],
      [
        "iz",
        -1.0
      ],
      [
        "ĠPa",
        -1.0
      ],
      [
        "nce",
        -1.0
      ],
      [
        "mat",
        -1.0
      ],
      [
        "br",
        -1.0
      ],
      [
        "ting",
        -1.0
      ],
      [
        "ĠBa",
        -1.0
      ],
      [
        "ori",
        -1.0
      ],
      [
        "if",
        -1.0
      ],
      [
        "sto",
        -1.0
      ],
      [
        "nter",
        -1.0
      ],
      [
        "Ġre",
        -1.0
      ],
      [
        "ĠCa",
        -1.0
      ],
      [
        "log",
        -1.0
      ],
      [
        "ĠSa",
        -1.0
      ],
      [
        "ath",
        -1.0
      ],
      [
        "Ba",
        -1.0
      ],
      [
        "cti",
        -1.0
      ],
      [
        "gh",
        -1.0
      ],
      [
        "eu",
        -1.0
      ],
      [
        "ele",
        -1.0
      ],
      [
        "ama",
        -1.0
      ],
      [
        "Ġn",
        -1.0
      ],
      [
        "ore",
        -1.0
      ],
      [
        "mu",
        -1.0
      ],
      [
        "lit",
        -1.0
      ],
      [
        "ds",
        -1.0
      ],
      [
        "cl",
        -1.0
      ],
      [
        "ron",
        -1.0
      ],
      [
        "ze",
        -1.0
      ],
      [
        "ner",
        -1.0
      ],
      [
        "Sa",
        -1.0
      ],
      [
        "ton",
        -1.0
      ],
      [
        "ont",
        -1.0
      ],
      [
        "Ġ1",
        -1.0
      ],
      [
        "ale",
        -1.0
      ],
      [
        "nta",
        -1.0
      ],
      [
        "ort",
        -1.0
      ],
      [
        "Ġin",
        -1.0
      ],
      [
        "gra",
        -1.0
      ],
      [
        "ub",
        -1.0
      ],
      [
        "....",
        -1.0
      ],
      [
        "ass",
        -1.0
      ],
      [
        "ert",
        -1.0
      ],
      [
        "hr",
        -1.0
      ],
      [
        "nu",
        -1.0
      ],
      [
        "Ġg",
        -1.0
      ],
      [
        "ita",
        -1.0
      ],
      [
        "================",
        -1.0
      ],
      [
        "sm",
        -1.0
      ],
      [
        "ted",
        -1.0
      ],
      [
        "oli",
        -1.0
      ],
      [
        "ato",
        -1.0
      ],
      [
        "gu",
        -1.0
      ],
      [
        "ey",
        -1.0
      ],
      [
        "Ġl",
        -1.0
      ],
      [
        "ome",
        -1.0
      ],
      [
        "nis",
        -1.0
      ],
      [
        "ĠKa",
        -1.0
      ],
      [
        "Re",
        -1.0
      ],
      [
        "tions",
        -1.0
      ],
      [
        "ble",
        -1.0
      ],
      [
        "hin",
        -1.0
      ],
      [
        "wi",
        -1.0
      ],
      [
        "ero",
        -1.0
      ],
      [
        "===============",
        -1.0
      ],
      [
        "ions",
        -1.0
      ],
      [
        "St",
        -1.0
      ],
      [
        "eli",
        -1.0
      ],
      [
        "ys",
        -1.0
      ],
      [
        "Ġpr",
        -1.0
      ],
      [
        "for",
        -1.0
      ],
      [
        "nal",
        -1.0
      ],
      [
        "ain",
        -1.0
      ],
      [
        "ano",
        -1.0
      ],
      [
        "rea",
        -1.0
      ],
      [
        "den",
        -1.0
      ],
      [
        "__",
        -1.0
      ],
      [
        "nge",
        -1.0
      ],
      [
        "ost",
        -1.0
      ],
      [
        "ler",
        -1.0
      ],
      [
        "du",
        -1.0
      ],
      [
        "nat",
        -1.0
      ],
      [
        "tur",
        -1.0
      ],
      [
        "ish",
        -1.0
      ],
      [
        "ex",
        -1.0
      ],
      [
        "ous",
        -1.0
      ],
      [
        "mm",
        -1.0
      ],
      [
        "tat",
        -1.0
      ],
      [
        "ĠHa",
        -1.0
      ],
      [
        "Äģ",
        -1.0
      ],
      [
        "ins",
        -1.0
      ],
      [
        "rit",
        -1.0
      ],
      [
        "tal",
        -1.0
      ],
      [
        "rac",
        -1.0
      ],
      [
        "01",
        -1.0
      ],
      [
        "ical",
        -1.0
      ],
      [
        "ind",
        -1.0
      ],
      [
        "...",
        -1.0
      ],
      [
        "nk",
        -1.0
      ],
      [
        "age",
        -1.0
      ],
      [
        "Ã©",
        -1.0
      ],
      [
        "anc",
        -1.0
      ],
      [
        "ster",
        -1.0
      ],
      [
        "10",
        -1.0
      ],
      [
        "und",
        -1.0
      ],
      [
        "ok",
        -1.0
      ],
      [
        "ef",
        -1.0
      ],
      [
        "Ġo",
        -1.0
      ],
      [
        "Ha",
        -1.0
      ],
      [
        "din",
        -1.0
      ],
      [
        "ula",
        -1.0
      ],
      [
        "De",
        -1.0
      ],
      [
        "mer",
        -1.0
      ],
      [
        "=============",
        -1.0
      ],
      [
        "--",
        -1.0
      ],
      [
        "rti",
        -1.0
      ],
      [
        "nic",
        -1.0
      ],
      [
        "ew",
        -1.0
      ],
      [
        "of",
        -1.0
      ],
      [
        "za",
        -1.0
      ],
      [
        "tha",
        -1.0
      ],
      [
        "up",
        -1.0
      ],
      [
        "rop",
        -1.0
      ],
      [
        "fa",
        -1.0
      ],
      [
        "ane",
        -1.0
      ],
      [
        "tte",
        -1.0
      ],
      [
        "Ka",
        -1.0
      ],
      [
        "Me",
        -1.0
      ],
      [
        "shi",
        -1.0
      ],
      [
        "hen",
        -1.0
      ],
      [
        "ĠJ",
        -1.0
      ],
      [
        "ger",
        -1.0
      ],
      [
        "Mo",
        -1.0
      ],
      [
        "sse",
        -1.0
      ],
      [
        "ht",
        -1.0
      ],
      [
        "ssi",
        -1.0
      ],
      [
        "tar",
        -1.0
      ],
      [
        "rk",
        -1.0
      ],
      [
        "our",
        -1.0
      ],
      [
        "ame",
        -1.0
      ],
      [
        "ity",
        -1.0
      ],
      [
        "ram",
        -1.0
      ],
      [
        "eni",
        -1.0
      ],
      [
        "lic",
        -1.0
      ],
      [
        "par",
        -1.0
      ],
      [
        "pt",
        -1.0
      ],
      [
        "ĠSt",
        -1.0
      ],
      [
        "sin",
        -1.0
      ],
      [
        "ĠMe",
        -1.0
      ],
      [
        "rie",
        -1.0
      ],
      [
        "ros",
        -1.0
      ],
      [
        "Pr",
        -1.0
      ],
      [
        "pp",
        -1.0
      ],
      [
        "ĠDe",
        -1.0
      ],
      [
        "ong",
        -1.0
      ],
      [
        "lar",
        -1.0
      ],
      [
        "mar",
        -1.0
      ],
      [
        "aa",
        -1.0
      ],
      [
        "ien",
        -1.0
      ],
      [
        "cho",
        -1.0
      ],
      [
        "000",
        -1.0
      ],
      [
        "nin",
        -1.0
      ],
      [
        "enc",
        -1.0
      ],
      [
        "ff",
        -1.0
      ],
      [
        "ure",
        -1.0
      ],
      [
        "tis",
        -1.0
      ],
      [
        "rb",
        -1.0
      ],
      [
        "ndi",
        -1.0
      ],
      [
        "son",
        -1.0
      ],
      [
        "ek",
        -1.0
      ],
      [
        "des",
        -1.0
      ],
      [
        "ora",
        -1.0
      ],
      [
        "erm",
        -1.0
      ],
      [
        "nda",
        -1.0
      ],
      [
        "ĠMo",
        -1.0
      ],
      [
        "ami",
        -1.0
      ],
      [
        "len",
        -1.0
      ],
      [
        "ction",
        -1.0
      ],
      [
        "In",
        -1.0
      ],
      [
        "Ġma",
        -1.0
      ],
      [
        "oma",
        -1.0
      ],
      [
        "ĠRe",
        -1.0
      ],
      [
        "20",
        -1.0
      ],
      [
        "sen",
        -1.0
      ],
      [
        "ann",
        -1.0
      ],
      [
        "Ġde",
        -1.0
      ],
      [
        "nder",
        -1.0
      ],
      [
        "aw",
        -1.0
      ],
      [
        "rl",
        -1.0
      ],
      [
        "las",
        -1.0
      ],
      [
        "sis",
        -1.0
      ],
      [
        "com",
        -1.0
      ],
      [
        "Se",
        -1.0
      ],
      [
        "ear",
        -1.0
      ],
      [
        "ial",
        -1.0
      ],
      [
        "ling",
        -1.0
      ],
      [
        "sha",
        -1.0
      ],
      [
        "ras",
        -1.0
      ],
      [
        "able",
        -1.0
      ],
      [
        "pu",
        -1.0
      ],
      [
        "pre",
        -1.0
      ],
      [
        "iu",
        -1.0
      ],
      [
        "mon",
        -1.0
      ],
      [
        "met",
        -1.0
      ],
      [
        "Ar",
        -1.0
      ],
      [
        "ier",
        -1.0
      ],
      [
        "ura",
        -1.0
      ],
      [
        "ern",
        -1.0
      ],
      [
        "ĠSh",
        -1.0
      ],
      [
        "ug",
        -1.0
      ],
      [
        "Sh",
        -1.0
      ],
      [
        "af",
        -1.0
      ],
      [
        "eth",
        -1.0
      ],
      [
        "La",
        -1.0
      ],
      [
        "Th",
        -1.0
      ],
      [
        "ER",
        -1.0
      ],
      [
        "rma",
        -1.0
      ],
      [
        "oe",
        -1.0
      ],
      [
        "oa",
        -1.0
      ],
      [
        "tiv",
        -1.0
      ],
      [
        "act",
        -1.0
      ],
      [
        "ete",
        -1.0
      ],
      [
        "11",
        -1.0
      ],
      [
        "ĠBe",
        -1.0
      ],
      [
        "ring",
        -1.0
      ],
      [
        "yl",
        -1.0
      ],
      [
        "oph",
        -1.0
      ],
      [
        "ral",
        -1.0
      ],
      [
        "gl",
        -1.0
      ],
      [
        "ser",
        -1.0
      ],
      [
        "Be",
        -1.0
      ],
      [
        "cat",
        -1.0
      ],
      [
        "ino",
        -1.0
      ],
      [
        "hal",
        -1.0
      ],
      [
        "ĠPr",
        -1.0
      ],
      [
        "dis",
        -1.0
      ],
      [
        "eme",
        -1.0
      ],
      [
        "..",
        -1.0
      ],
      [
        "ĠLa",
        -1.0
      ],
      [
        "abl",
        -1.0
      ],
      [
        "ett",
        -1.0
      ],
      [
        "edi",
        -1.0
      ],
      [
        "ici",
        -1.0
      ],
      [
        "enti",
        -1.0
      ],
      [
        "ism",
        -1.0
      ],
      [
        "Ġk",
        -1.0
      ],
      [
        "IN",
        -1.0
      ],
      [
        "ree",
        -1.0
      ],
      [
        "ther",
        -1.0
      ],
      [
        "ace",
        -1.0
      ],
      [
        "erg",
        -1.0
      ],
      [
        "ida",
        -1.0
      ],
      [
        "Po",
        -1.0
      ],
      [
        "ĠMi",
        -1.0
      ],
      [
        "nia",
        -1.0
      ],
      [
        "car",
        -1.0
      ],
      [
        "Mi",
        -1.0
      ],
      [
        "zi",
        -1.0
      ],
      [
        "red",
        -1.0
      ],
      [
        "ja",
        -1.0
      ],
      [
        "eh",
        -1.0
      ],
      [
        "ech",
        -1.0
      ],
      [
        "ologi",
        -1.0
      ],
      [
        "ise",
        -1.0
      ],
      [
        "rch",
        -1.0
      ],
      [
        "Ġpa",
        -1.0
      ],
      [
        "att",
        -1.0
      ],
      [
        "tho",
        -1.0
      ],
      [
        "ntr",
        -1.0
      ],
      [
        "uri",
        -1.0
      ],
      [
        "rom",
        -1.0
      ],
      [
        "az",
        -1.0
      ],
      [
        "ove",
        -1.0
      ],
      [
        "ade",
        -1.0
      ],
      [
        "ack",
        -1.0
      ],
      [
        "ations",
        -1.0
      ],
      [
        "Ta",
        -1.0
      ],
      [
        "ein",
        -1.0
      ],
      [
        "ness",
        -1.0
      ],
      [
        "ĠU",
        -1.0
      ],
      [
        "oun",
        -1.0
      ],
      [
        "ile",
        -1.0
      ],
      [
        "ĠSe",
        -1.0
      ],
      [
        "ks",
        -1.0
      ],
      [
        "ono",
        -1.0
      ],
      [
        "rap",
        -1.0
      ],
      [
        "Ġdi",
        -1.0
      ],
      [
        "nit",
        -1.0
      ],
      [
        "ĠTa",
        -1.0
      ],
      [
        "ye",
        -1.0
      ],
      [
        "rati",
        -1.0
      ],
      [
        "ima",
        -1.0
      ],
      [
        "Bo",
        -1.0
      ],
      [
        "dia",
        -1.0
      ],
      [
        "eta",
        -1.0
      ],
      [
        "lia",
        -1.0
      ],
      [
        "adi",
        -1.0
      ],
      [
        "ash",
        -1.0
      ],
      [
        "kin",
        -1.0
      ],
      [
        "ena",
        -1.0
      ],
      [
        "nne",
        -1.0
      ],
      [
        "yn",
        -1.0
      ],
      [
        "thi",
        -1.0
      ],
      [
        "ny",
        -1.0
      ],
      [
        "nan",
        -1.0
      ],
      [
        "ung",
        -1.0
      ],
      [
        "isc",
        -1.0
      ],
      [
        "AN",
        -1.0
      ],
      [
        "ps",
        -1.0
      ],
      [
        "tl",
        -1.0
      ],
      [
        "eti",
        -1.0
      ],
      [
        "Na",
        -1.0
      ],
      [
        "ick",
        -1.0
      ],
      [
        "Ġu",
        -1.0
      ],
      [
        "ema",
        -1.0
      ],
      [
        "tre",
        -1.0
      ],
      [
        "Ġca",
        -1.0
      ],
      [
        "02",
        -1.0
      ],
      [
        "ela",
        -1.0
      ],
      [
        "san",
        -1.0
      ],
      [
        "ola",
        -1.0
      ],
      [
        "esi",
        -1.0
      ],
      [
        "An",
        -1.0
      ],
      [
        "ĠBo",
        -1.0
      ],
      [
        "que",
        -1.0
      ],
      [
        "12",
        -1.0
      ],
      [
        "Sc",
        -1.0
      ],
      [
        "wo",
        -1.0
      ],
      [
        "iona",
        -1.0
      ],
      [
        "ĠPo",
        -1.0
      ],
      [
        "can",
        -1.0
      ],
      [
        "oll",
        -1.0
      ],
      [
        "sion",
        -1.0
      ],
      [
        "land",
        -1.0
      ],
      [
        "He",
        -1.0
      ],
      [
        "ker",
        -1.0
      ],
      [
        "ĠPe",
        -1.0
      ],
      [
        "cc",
        -1.0
      ],
      [
        "ĠRa",
        -1.0
      ],
      [
        "ku",
        -1.0
      ],
      [
        "tive",
        -1.0
      ],
      [
        "net",
        -1.0
      ],
      [
        "ese",
        -1.0
      ],
      [
        "hor",
        -1.0
      ],
      [
        "ust",
        -1.0
      ],
      [
        "Ġw",
        -1.0
      ],
      [
        "Pe",
        -1.0
      ],
      [
        "Ġv",
        -1.0
      ],
      [
        "pho",
        -1.0
      ],
      [
        "uk",
        -1.0
      ],
      [
        "Ra",
        -1.0
      ],
      [
        "Ġcon",
        -1.0
      ],
      [
        "ord",
        -1.0
      ],
      [
        "nst",
        -1.0
      ],
      [
        "nf",
        -1.0
      ],
      [
        "ski",
        -1.0
      ],
      [
        "ĠNa",
        -1.0
      ],
      [
        "Te",
        -1.0
      ],
      [
        "rp",
        -1.0
      ],
      [
        "arc",
        -1.0
      ],
      [
        "llo",
        -1.0
      ],
      [
        "Ġsu",
        -1.0
      ],
      [
        "cle",
        -1.0
      ],
      [
        "orm",
        -1.0
      ],
      [
        "Di",
        -1.0
      ],
      [
        "vo",
        -1.0
      ],
      [
        "cro",
        -1.0
      ],
      [
        "Tr",
        -1.0
      ],
      [
        "gs",
        -1.0
      ],
      [
        "iss",
        -1.0
      ],
      [
        "Ġan",
        -1.0
      ],
      [
        "ada",
        -1.0
      ],
      [
        "emi",
        -1.0
      ],
      [
        "ase",
        -1.0
      ],
      [
        "err",
        -1.0
      ],
      [
        "ms",
        -1.0
      ],
      [
        "Li",
        -1.0
      ],
      [
        "igh",
        -1.0
      ],
      [
        "nga",
        -1.0
      ],
      [
        "Su",
        -1.0
      ],
      [
        "ĠIn",
        -1.0
      ],
      [
        "ole",
        -1.0
      ],
      [
        "ĠHe",
        -1.0
      ],
      [
        "ond",
        -1.0
      ],
      [
        "nts",
        -1.0
      ],
      [
        "ret",
        -1.0
      ],
      [
        "ven",
        -1.0
      ],
      [
        "ĠSc",
        -1.0
      ],
      [
        "AR",
        -1.0
      ],
      [
        "rec",
        -1.0
      ],
      [
        "tel",
        -1.0
      ],
      [
        "oto",
        -1.0
      ],
      [
        "03",
        -1.0
      ],
      [
        "pla",
        -1.0
      ],
      [
        "asi",
        -1.0
      ],
      [
        "inte",
        -1.0
      ],
      [
        "ille",
        -1.0
      ],
      [
        "ngs",
        -1.0
      ],
      [
        "sio",
        -1.0
      ],
      [
        "ire",
        -1.0
      ],
      [
        "Ġth",
        -1.0
      ],
      [
        "hil",
        -1.0
      ],
      [
        "fr",
        -1.0
      ],
      [
        "mic",
        -1.0
      ],
      [
        "ith",
        -1.0
      ],
      [
        "lly",
        -1.0
      ],
      [
        "she",
        -1.0
      ],
      [
        "ĠSu",
        -1.0
      ],
      [
        "gn",
        -1.0
      ],
      [
        "alis",
        -1.0
      ],
      [
        "ning",
        -1.0
      ],
      [
        "sl",
        -1.0
      ],
      [
        "ime",
        -1.0
      ],
      [
        "ĠAr",
        -1.0
      ],
      [
        "ĠBr",
        -1.0
      ],
      [
        "ult",
        -1.0
      ],
      [
        "ãģ",
        -1.0
      ],
      [
        "ĠAn",
        -1.0
      ],
      [
        "15",
        -1.0
      ],
      [
        "Br",
        -1.0
      ],
      [
        "08",
        -1.0
      ],
      [
        "Article",
        -1.0
      ],
      [
        "onal",
        -1.0
      ],
      [
        "anti",
        -1.0
      ],
      [
        "por",
        -1.0
      ],
      [
        "ally",
        -1.0
      ],
      [
        "fer",
        -1.0
      ],
      [
        "ional",
        -1.0
      ],
      [
        "non",
        -1.0
      ],
      [
        "phi",
        -1.0
      ],
      [
        "yp",
        -1.0
      ],
      [
        "Al",
        -1.0
      ],
      [
        "aka",
        -1.0
      ],
      [
        "ĠZ",
        -1.0
      ],
      [
        "ava",
        -1.0
      ],
      [
        "ĠTr",
        -1.0
      ],
      [
        "ize",
        -1.0
      ],
      [
        "ogi",
        -1.0
      ],
      [
        "nsi",
        -1.0
      ],
      [
        "19",
        -1.0
      ],
      [
        "use",
        -1.0
      ],
      [
        "rot",
        -1.0
      ],
      [
        "fl",
        -1.0
      ],
      [
        "Ne",
        -1.0
      ],
      [
        "ote",
        -1.0
      ],
      [
        "ence",
        -1.0
      ],
      [
        "rth",
        -1.0
      ],
      [
        "Con",
        -1.0
      ],
      [
        "kh",
        -1.0
      ],
      [
        "ode",
        -1.0
      ],
      [
        "ors",
        -1.0
      ],
      [
        "atu",
        -1.0
      ],
      [
        "yo",
        -1.0
      ],
      [
        "eve",
        -1.0
      ],
      [
        "ters",
        -1.0
      ],
      [
        "Ġch",
        -1.0
      ],
      [
        "04",
        -1.0
      ],
      [
        "ces",
        -1.0
      ],
      [
        "ham",
        -1.0
      ],
      [
        "eno",
        -1.0
      ],
      [
        "eat",
        -1.0
      ],
      [
        "Ġun",
        -1.0
      ],
      [
        "Ġpro",
        -1.0
      ],
      [
        "ĠDi",
        -1.0
      ],
      [
        "gan",
        -1.0
      ],
      [
        "80",
        -1.0
      ],
      [
        "enta",
        -1.0
      ],
      [
        "The",
        -1.0
      ],
      [
        "Cha",
        -1.0
      ],
      [
        "arr",
        -1.0
      ],
      [
        "isi",
        -1.0
      ],
      [
        "ses",
        -1.0
      ],
      [
        "Le",
        -1.0
      ],
      [
        "Da",
        -1.0
      ],
      [
        "05",
        -1.0
      ],
      [
        "ight",
        -1.0
      ],
      [
        "Ġst",
        -1.0
      ],
      [
        "Si",
        -1.0
      ],
      [
        "ĠAl",
        -1.0
      ],
      [
        "oro",
        -1.0
      ],
      [
        "rad",
        -1.0
      ],
      [
        "rid",
        -1.0
      ],
      [
        "ĠTe",
        -1.0
      ],
      [
        "ding",
        -1.0
      ],
      [
        "ĠGa",
        -1.0
      ],
      [
        "ice",
        -1.0
      ],
      [
        "aya",
        -1.0
      ],
      [
        "nth",
        -1.0
      ],
      [
        "oth",
        -1.0
      ],
      [
        "his",
        -1.0
      ],
      [
        "ĠKo",
        -1.0
      ],
      [
        "omi",
        -1.0
      ],
      [
        "cul",
        -1.0
      ],
      [
        "Ġpo",
        -1.0
      ],
      [
        "tional",
        -1.0
      ],
      [
        "osi",
        -1.0
      ],
      [
        "18",
        -1.0
      ],
      [
        "ave",
        -1.0
      ],
      [
        "nch",
        -1.0
      ],
      [
        "let",
        -1.0
      ],
      [
        "So",
        -1.0
      ],
      [
        "roc",
        -1.0
      ],
      [
        "eco",
        -1.0
      ],
      [
        "ator",
        -1.0
      ],
      [
        "ON",
        -1.0
      ],
      [
        "AT",
        -1.0
      ],
      [
        "Ġme",
        -1.0
      ],
      [
        "14",
        -1.0
      ],
      [
        "hl",
        -1.0
      ],
      [
        "rv",
        -1.0
      ],
      [
        "Ga",
        -1.0
      ],
      [
        "dd",
        -1.0
      ],
      [
        "Ġse",
        -1.0
      ],
      [
        "stra",
        -1.0
      ],
      [
        "ico",
        -1.0
      ],
      [
        "ĠLe",
        -1.0
      ],
      [
        "sche",
        -1.0
      ],
      [
        "sit",
        -1.0
      ],
      [
        "yc",
        -1.0
      ],
      [
        "Ge",
        -1.0
      ],
      [
        "06",
        -1.0
      ],
      [
        "Pro",
        -1.0
      ],
      [
        "line",
        -1.0
      ],
      [
        "tia",
        -1.0
      ],
      [
        "21",
        -1.0
      ],
      [
        "07",
        -1.0
      ],
      [
        "Sch",
        -1.0
      ],
      [
        "hat",
        -1.0
      ],
      [
        "ndo",
        -1.0
      ],
      [
        "ization",
        -1.0
      ],
      [
        "Ho",
        -1.0
      ],
      [
        "ĠSi",
        -1.0
      ],
      [
        "aph",
        -1.0
      ],
      [
        "teri",
        -1.0
      ],
      [
        "och",
        -1.0
      ],
      [
        "Gr",
        -1.0
      ],
      [
        "16",
        -1.0
      ],
      [
        "pol",
        -1.0
      ],
      [
        "cen",
        -1.0
      ],
      [
        "ings",
        -1.0
      ],
      [
        "ars",
        -1.0
      ],
      [
        "cation",
        -1.0
      ],
      [
        "ĠLi",
        -1.0
      ],
      [
        "ary",
        -1.0
      ],
      [
        "rou",
        -1.0
      ],
      [
        "pen",
        -1.0
      ],
      [
        "======",
        -1.0
      ],
      [
        "ated",
        -1.0
      ],
      [
        "RA",
        -1.0
      ],
      [
        "tati",
        -1.0
      ],
      [
        "ose",
        -1.0
      ],
      [
        "Ġmi",
        -1.0
      ],
      [
        "nar",
        -1.0
      ],
      [
        "aga",
        -1.0
      ],
      [
        "pha",
        -1.0
      ],
      [
        "Ro",
        -1.0
      ],
      [
        "ance",
        -1.0
      ],
      [
        "sy",
        -1.0
      ],
      [
        "ĠTh",
        -1.0
      ],
      [
        "Mar",
        -1.0
      ],
      [
        "ĠDa",
        -1.0
      ],
      [
        "col",
        -1.0
      ],
      [
        "ES",
        -1.0
      ],
      [
        "13",
        -1.0
      ],
      [
        "inter",
        -1.0
      ],
      [
        "tch",
        -1.0
      ],
      [
        "Ġtr",
        -1.0
      ],
      [
        "abi",
        -1.0
      ],
      [
        "ement",
        -1.0
      ],
      [
        "out",
        -1.0
      ],
      [
        "rai",
        -1.0
      ],
      [
        "tc",
        -1.0
      ],
      [
        "RE",
        -1.0
      ],
      [
        "alo",
        -1.0
      ],
      [
        "ii",
        -1.0
      ],
      [
        "Bi",
        -1.0
      ],
      [
        "nto",
        -1.0
      ],
      [
        "0000",
        -1.0
      ],
      [
        "rus",
        -1.0
      ],
      [
        "omp",
        -1.0
      ],
      [
        "graph",
        -1.0
      ],
      [
        "hol",
        -1.0
      ],
      [
        "ght",
        -1.0
      ],
      [
        "ĠHo",
        -1.0
      ],
      [
        "hes",
        -1.0
      ],
      [
        "pat",
        -1.0
      ],
      [
        "ila",
        -1.0
      ],
      [
        "17",
        -1.0
      ],
      [
        "ĠRo",
        -1.0
      ],
      [
        "unt",
        -1.0
      ],
      [
        "ente",
        -1.0
      ],
      [
        "97",
        -1.0
      ],
      [
        "ira",
        -1.0
      ],
      [
        "emen",
        -1.0
      ],
      [
        "ĠSo",
        -1.0
      ],
      [
        "ĠSch",
        -1.0
      ],
      [
        "cia",
        -1.0
      ],
      [
        "asa",
        -1.0
      ],
      [
        "cke",
        -1.0
      ],
      [
        "dh",
        -1.0
      ],
      [
        "ĠMu",
        -1.0
      ],
      [
        "mis",
        -1.0
      ],
      [
        "yt",
        -1.0
      ],
      [
        "lm",
        -1.0
      ],
      [
        "ĠGr",
        -1.0
      ],
      [
        "To",
        -1.0
      ],
      [
        "lec",
        -1.0
      ],
      [
        "09",
        -1.0
      ],
      [
        "mal",
        -1.0
      ],
      [
        "âĢ",
        -1.0
      ],
      [
        "mor",
        -1.0
      ],
      [
        "aba",
        -1.0
      ],
      [
        "erc",
        -1.0
      ],
      [
        "ines",
        -1.0
      ],
      [
        "eng",
        -1.0
      ],
      [
        "ock",
        -1.0
      ],
      [
        "stic",
        -1.0
      ],
      [
        "lon",
        -1.0
      ],
      [
        "over",
        -1.0
      ],
      [
        "tz",
        -1.0
      ],
      [
        "30",
        -1.0
      ],
      [
        "ĠGe",
        -1.0
      ],
      [
        "inc",
        -1.0
      ],
      [
        "ĠNe",
        -1.0
      ],
      [
        "ater",
        -1.0
      ],
      [
        "arch",
        -1.0
      ],
      [
        "lor",
        -1.0
      ],
      [
        "ration",
        -1.0
      ],
      [
        "avi",
        -1.0
      ],
      [
        "ead",
        -1.0
      ],
      [
        "ean",
        -1.0
      ],
      [
        "ĠCha",
        -1.0
      ],
      [
        "ĠBi",
        -1.0
      ],
      [
        "EN",
        -1.0
      ],
      [
        "78",
        -1.0
      ],
      [
        "sts",
        -1.0
      ],
      [
        "rans",
        -1.0
      ],
      [
        "amp",
        -1.0
      ],
      [
        "bil",
        -1.0
      ],
      [
        "Ã¡",
        -1.0
      ],
      [
        "Mu",
        -1.0
      ],
      [
        "Wa",
        -1.0
      ],
      [
        "gin",
        -1.0
      ],
      [
        "Ko",
        -1.0
      ],
      [
        "aro",
        -1.0
      ],
      [
        "ope",
        -1.0
      ],
      [
        "lac",
        -1.0
      ],
      [
        "ssa",
        -1.0
      ],
      [
        "wor",
        -1.0
      ],
      [
        "cor",
        -1.0
      ],
      [
        "rio",
        -1.0
      ],
      [
        "itt",
        -1.0
      ],
      [
        "idi",
        -1.0
      ],
      [
        "gar",
        -1.0
      ],
      [
        "tie",
        -1.0
      ],
      [
        "****************",
        -1.0
      ],
      [
        "ake",
        -1.0
      ],
      [
        "iy",
        -1.0
      ],
      [
        "ST",
        -1.0
      ],
      [
        "spe",
        -1.0
      ],
      [
        "pin",
        -1.0
      ],
      [
        "dit",
        -1.0
      ],
      [
        "ail",
        -1.0
      ],
      [
        "ogr",
        -1.0
      ],
      [
        "fu",
        -1.0
      ],
      [
        "ograph",
        -1.0
      ],
      [
        "oh",
        -1.0
      ],
      [
        "alt",
        -1.0
      ],
      [
        "hel",
        -1.0
      ],
      [
        "je",
        -1.0
      ],
      [
        "Ġpe",
        -1.0
      ],
      [
        "pan",
        -1.0
      ],
      [
        "mati",
        -1.0
      ],
      [
        "Vi",
        -1.0
      ],
      [
        "emo",
        -1.0
      ],
      [
        "ium",
        -1.0
      ],
      [
        "qui",
        -1.0
      ],
      [
        "mes",
        -1.0
      ],
      [
        "eal",
        -1.0
      ],
      [
        "ple",
        -1.0
      ],
      [
        "hon",
        -1.0
      ],
      [
        "een",
        -1.0
      ],
      [
        "cy",
        -1.0
      ],
      [
        "50",
        -1.0
      ],
      [
        "22",
        -1.0
      ],
      [
        "ede",
        -1.0
      ],
      [
        "war",
        -1.0
      ],
      [
        "AL",
        -1.0
      ],
      [
        "Ã¤",
        -1.0
      ],
      [
        "tation",
        -1.0
      ],
      [
        "ĠY",
        -1.0
      ],
      [
        "TE",
        -1.0
      ],
      [
        "hea",
        -1.0
      ],
      [
        "cher",
        -1.0
      ],
      [
        "rte",
        -1.0
      ],
      [
        "ovi",
        -1.0
      ],
      [
        "ture",
        -1.0
      ],
      [
        "ĠWa",
        -1.0
      ],
      [
        "isa",
        -1.0
      ],
      [
        "hn",
        -1.0
      ],
      [
        "zation",
        -1.0
      ],
      [
        "40",
        -1.0
      ],
      [
        "Ġsa",
        -1.0
      ],
      [
        "Ġno",
        -1.0
      ],
      [
        "tter",
        -1.0
      ],
      [
        "esc",
        -1.0
      ],
      [
        "isti",
        -1.0
      ],
      [
        "ress",
        -1.0
      ],
      [
        "del",
        -1.0
      ],
      [
        "rol",
        -1.0
      ],
      [
        "Bu",
        -1.0
      ],
      [
        "pos",
        -1.0
      ],
      [
        "iat",
        -1.0
      ],
      [
        "TI",
        -1.0
      ],
      [
        "erat",
        -1.0
      ],
      [
        "sco",
        -1.0
      ],
      [
        "als",
        -1.0
      ],
      [
        "aci",
        -1.0
      ],
      [
        "uti",
        -1.0
      ],
      [
        "atin",
        -1.0
      ],
      [
        "tom",
        -1.0
      ],
      [
        "nb",
        -1.0
      ],
      [
        "erin",
        -1.0
      ],
      [
        "ics",
        -1.0
      ],
      [
        "nse",
        -1.0
      ],
      [
        "erv",
        -1.0
      ],
      [
        "lea",
        -1.0
      ],
      [
        "ĠMar",
        -1.0
      ],
      [
        "=====",
        -1.0
      ],
      [
        "rel",
        -1.0
      ],
      [
        "rre",
        -1.0
      ],
      [
        "ood",
        -1.0
      ],
      [
        "IS",
        -1.0
      ],
      [
        "Ġthe",
        -1.0
      ],
      [
        "uni",
        -1.0
      ],
      [
        "ark",
        -1.0
      ],
      [
        "ents",
        -1.0
      ],
      [
        "MA",
        -1.0
      ],
      [
        "No",
        -1.0
      ],
      [
        "aj",
        -1.0
      ],
      [
        "Ġmo",
        -1.0
      ],
      [
        "orn",
        -1.0
      ],
      [
        "bra",
        -1.0
      ],
      [
        "form",
        -1.0
      ],
      [
        "dro",
        -1.0
      ],
      [
        "ym",
        -1.0
      ],
      [
        "los",
        -1.0
      ],
      [
        "dic",
        -1.0
      ],
      [
        "yr",
        -1.0
      ],
      [
        "60",
        -1.0
      ],
      [
        "rge",
        -1.0
      ],
      [
        "lam",
        -1.0
      ],
      [
        "ists",
        -1.0
      ],
      [
        "Ġ2",
        -1.0
      ],
      [
        "yan",
        -1.0
      ],
      [
        "lati",
        -1.0
      ],
      [
        "tti",
        -1.0
      ],
      [
        "cs",
        -1.0
      ],
      [
        "omo",
        -1.0
      ],
      [
        "CA",
        -1.0
      ],
      [
        "mas",
        -1.0
      ],
      [
        "ĠBu",
        -1.0
      ],
      [
        "ito",
        -1.0
      ],
      [
        "amb",
        -1.0
      ],
      [
        "lect",
        -1.0
      ],
      [
        "ivi",
        -1.0
      ],
      [
        "zo",
        -1.0
      ],
      [
        "RI",
        -1.0
      ],
      [
        "Ġ0",
        -1.0
      ],
      [
        "ratio",
        -1.0
      ],
      [
        "ĠTo",
        -1.0
      ],
      [
        "uro",
        -1.0
      ],
      [
        "lie",
        -1.0
      ],
      [
        "ox",
        -1.0
      ],
      [
        "eter",
        -1.0
      ],
      [
        "ban",
        -1.0
      ],
      [
        "gg",
        -1.0
      ],
      [
        "aha",
        -1.0
      ],
      [
        "ensi",
        -1.0
      ],
      [
        "31",
        -1.0
      ],
      [
        "Wi",
        -1.0
      ],
      [
        "isch",
        -1.0
      ],
      [
        "nos",
        -1.0
      ],
      [
        "icat",
        -1.0
      ],
      [
        "rate",
        -1.0
      ],
      [
        "apa",
        -1.0
      ],
      [
        "bar",
        -1.0
      ],
      [
        "aria",
        -1.0
      ],
      [
        "xi",
        -1.0
      ],
      [
        "Ã¢",
        -1.0
      ],
      [
        "cto",
        -1.0
      ],
      [
        "90",
        -1.0
      ],
      [
        "ĠGo",
        -1.0
      ],
      [
        "nen",
        -1.0
      ],
      [
        "sing",
        -1.0
      ],
      [
        "ella",
        -1.0
      ],
      [
        "sel",
        -1.0
      ],
      [
        "grap",
        -1.0
      ],
      [
        "icle",
        -1.0
      ],
      [
        "elle",
        -1.0
      ],
      [
        "ĠVi",
        -1.0
      ],
      [
        "vers",
        -1.0
      ],
      [
        "uch",
        -1.0
      ],
      [
        "cin",
        -1.0
      ],
      [
        "anda",
        -1.0
      ],
      [
        "arm",
        -1.0
      ],
      [
        "rian",
        -1.0
      ],
      [
        "dan",
        -1.0
      ],
      [
        "ĠVa",
        -1.0
      ],
      [
        "ank",
        -1.0
      ],
      [
        "cati",
        -1.0
      ],
      [
        "lity",
        -1.0
      ],
      [
        "rna",
        -1.0
      ],
      [
        "81",
        -1.0
      ],
      [
        "Va",
        -1.0
      ],
      [
        "elli",
        -1.0
      ],
      [
        "tta",
        -1.0
      ],
      [
        "tem",
        -1.0
      ],
      [
        "my",
        -1.0
      ],
      [
        "van",
        -1.0
      ],
      [
        "dl",
        -1.0
      ],
      [
        "ande",
        -1.0
      ],
      [
        "port",
        -1.0
      ],
      [
        "************",
        -1.0
      ],
      [
        "ft",
        -1.0
      ],
      [
        "rri",
        -1.0
      ],
      [
        "Do",
        -1.0
      ],
      [
        "oti",
        -1.0
      ],
      [
        "mit",
        -1.0
      ],
      [
        "inge",
        -1.0
      ],
      [
        "Go",
        -1.0
      ],
      [
        "pri",
        -1.0
      ],
      [
        "rist",
        -1.0
      ],
      [
        "Ġba",
        -1.0
      ],
      [
        "70",
        -1.0
      ],
      [
        "Fa",
        -1.0
      ],
      [
        "late",
        -1.0
      ],
      [
        "23",
        -1.0
      ],
      [
        "tit",
        -1.0
      ],
      [
        "don",
        -1.0
      ],
      [
        "air",
        -1.0
      ],
      [
        "nas",
        -1.0
      ],
      [
        "Lo",
        -1.0
      ],
      [
        "erb",
        -1.0
      ],
      [
        "ky",
        -1.0
      ],
      [
        "Ġha",
        -1.0
      ],
      [
        "AS",
        -1.0
      ],
      [
        "ÃŃ",
        -1.0
      ],
      [
        "elo",
        -1.0
      ],
      [
        "hro",
        -1.0
      ],
      [
        "hem",
        -1.0
      ],
      [
        "rf",
        -1.0
      ],
      [
        "nam",
        -1.0
      ],
      [
        "tric",
        -1.0
      ],
      [
        "erl",
        -1.0
      ],
      [
        "imi",
        -1.0
      ],
      [
        "ado",
        -1.0
      ],
      [
        "iri",
        -1.0
      ],
      [
        "gy",
        -1.0
      ],
      [
        "ication",
        -1.0
      ],
      [
        "opo",
        -1.0
      ],
      [
        "rum",
        -1.0
      ],
      [
        "lc",
        -1.0
      ],
      [
        "vel",
        -1.0
      ],
      [
        "oid",
        -1.0
      ],
      [
        "evi",
        -1.0
      ],
      [
        "omm",
        -1.0
      ],
      [
        "Ġte",
        -1.0
      ],
      [
        "hic",
        -1.0
      ],
      [
        "rdi",
        -1.0
      ],
      [
        "tatio",
        -1.0
      ],
      [
        "Sta",
        -1.0
      ],
      [
        "tica",
        -1.0
      ],
      [
        "ition",
        -1.0
      ],
      [
        "CO",
        -1.0
      ],
      [
        "41",
        -1.0
      ],
      [
        "app",
        -1.0
      ],
      [
        "berg",
        -1.0
      ],
      [
        "stan",
        -1.0
      ],
      [
        "ifi",
        -1.0
      ],
      [
        "bili",
        -1.0
      ],
      [
        "LA",
        -1.0
      ],
      [
        "Par",
        -1.0
      ],
      [
        "ates",
        -1.0
      ],
      [
        "tai",
        -1.0
      ],
      [
        "tas",
        -1.0
      ],
      [
        "bur",
        -1.0
      ],
      [
        "iza",
        -1.0
      ],
      [
        "lus",
        -1.0
      ],
      [
        "phy",
        -1.0
      ],
      [
        "24",
        -1.0
      ],
      [
        "ink",
        -1.0
      ],
      [
        "enn",
        -1.0
      ],
      [
        "cer",
        -1.0
      ],
      [
        "esh",
        -1.0
      ],
      [
        "cent",
        -1.0
      ],
      [
        "51",
        -1.0
      ],
      [
        "LE",
        -1.0
      ],
      [
        "rim",
        -1.0
      ],
      [
        "sia",
        -1.0
      ],
      [
        "ĠCon",
        -1.0
      ],
      [
        "ega",
        -1.0
      ],
      [
        "25",
        -1.0
      ],
      [
        "rne",
        -1.0
      ],
      [
        "ull",
        -1.0
      ],
      [
        "tab",
        -1.0
      ],
      [
        "illi",
        -1.0
      ],
      [
        "tran",
        -1.0
      ],
      [
        "rst",
        -1.0
      ],
      [
        "oca",
        -1.0
      ],
      [
        "rh",
        -1.0
      ],
      [
        "rem",
        -1.0
      ],
      [
        "arn",
        -1.0
      ],
      [
        "ĠNo",
        -1.0
      ],
      [
        "rra",
        -1.0
      ],
      [
        "AC",
        -1.0
      ],
      [
        "lk",
        -1.0
      ],
      [
        "00000",
        -1.0
      ],
      [
        "ĠKi",
        -1.0
      ],
      [
        "We",
        -1.0
      ],
      [
        "nna",
        -1.0
      ],
      [
        "oss",
        -1.0
      ],
      [
        "ges",
        -1.0
      ],
      [
        "ĠPro",
        -1.0
      ],
      [
        "nh",
        -1.0
      ],
      [
        "ws",
        -1.0
      ],
      [
        "52",
        -1.0
      ],
      [
        "dy",
        -1.0
      ],
      [
        "iel",
        -1.0
      ],
      [
        "odi",
        -1.0
      ],
      [
        "ology",
        -1.0
      ],
      [
        "ĠWi",
        -1.0
      ],
      [
        "stor",
        -1.0
      ],
      [
        "IC",
        -1.0
      ],
      [
        "chen",
        -1.0
      ],
      [
        "oy",
        -1.0
      ],
      [
        "ĠDo",
        -1.0
      ],
      [
        "TA",
        -1.0
      ],
      [
        "33",
        -1.0
      ],
      [
        "fic",
        -1.0
      ],
      [
        "Ki",
        -1.0
      ],
      [
        "uma",
        -1.0
      ],
      [
        "ute",
        -1.0
      ],
      [
        "Sp",
        -1.0
      ],
      [
        "Ġbe",
        -1.0
      ],
      [
        "list",
        -1.0
      ],
      [
        "26",
        -1.0
      ],
      [
        "wer",
        -1.0
      ],
      [
        "nati",
        -1.0
      ],
      [
        "ende",
        -1.0
      ],
      [
        "Fr",
        -1.0
      ],
      [
        "32",
        -1.0
      ],
      [
        "dra",
        -1.0
      ],
      [
        "kar",
        -1.0
      ],
      [
        "OR",
        -1.0
      ],
      [
        "ĠJa",
        -1.0
      ],
      [
        "ott",
        -1.0
      ],
      [
        "rde",
        -1.0
      ],
      [
        "Car",
        -1.0
      ],
      [
        "eas",
        -1.0
      ],
      [
        "awa",
        -1.0
      ],
      [
        "val",
        -1.0
      ],
      [
        "iya",
        -1.0
      ],
      [
        "ĠFa",
        -1.0
      ],
      [
        "qua",
        -1.0
      ],
      [
        "rod",
        -1.0
      ],
      [
        "Ġint",
        -1.0
      ],
      [
        "As",
        -1.0
      ],
      [
        "phe",
        -1.0
      ],
      [
        "Fo",
        -1.0
      ],
      [
        "ji",
        -1.0
      ],
      [
        "ika",
        -1.0
      ],
      [
        "king",
        -1.0
      ],
      [
        "nl",
        -1.0
      ],
      [
        "NA",
        -1.0
      ],
      [
        "pti",
        -1.0
      ],
      [
        "Fi",
        -1.0
      ],
      [
        "dar",
        -1.0
      ],
      [
        "ange",
        -1.0
      ],
      [
        "led",
        -1.0
      ],
      [
        "LI",
        -1.0
      ],
      [
        "Man",
        -1.0
      ],
      [
        "61",
        -1.0
      ],
      [
        "28",
        -1.0
      ],
      [
        "lig",
        -1.0
      ],
      [
        "aste",
        -1.0
      ],
      [
        "cie",
        -1.0
      ],
      [
        "99",
        -1.0
      ],
      [
        "eur",
        -1.0
      ],
      [
        "rag",
        -1.0
      ],
      [
        "bal",
        -1.0
      ],
      [
        "lb",
        -1.0
      ],
      [
        "lation",
        -1.0
      ],
      [
        "comp",
        -1.0
      ],
      [
        "Sha",
        -1.0
      ],
      [
        "oge",
        -1.0
      ],
      [
        "sho",
        -1.0
      ],
      [
        "ĠLo",
        -1.0
      ],
      [
        "tim",
        -1.0
      ],
      [
        "ets",
        -1.0
      ],
      [
        "vil",
        -1.0
      ],
      [
        "Ja",
        -1.0
      ],
      [
        "nni",
        -1.0
      ],
      [
        "isto",
        -1.0
      ],
      [
        "tec",
        -1.0
      ],
      [
        "Ð°",
        -1.0
      ],
      [
        "ĠVe",
        -1.0
      ],
      [
        "tru",
        -1.0
      ],
      [
        "nci",
        -1.0
      ],
      [
        "nger",
        -1.0
      ],
      [
        "anu",
        -1.0
      ],
      [
        "Ġpre",
        -1.0
      ],
      [
        "esti",
        -1.0
      ],
      [
        "has",
        -1.0
      ],
      [
        "onc",
        -1.0
      ],
      [
        "pres",
        -1.0
      ],
      [
        "eld",
        -1.0
      ],
      [
        "Art",
        -1.0
      ],
      [
        "tos",
        -1.0
      ],
      [
        "lem",
        -1.0
      ],
      [
        "27",
        -1.0
      ],
      [
        "mme",
        -1.0
      ],
      [
        "ĠPi",
        -1.0
      ],
      [
        "illa",
        -1.0
      ],
      [
        "ory",
        -1.0
      ],
      [
        "91",
        -1.0
      ],
      [
        "nom",
        -1.0
      ],
      [
        "ating",
        -1.0
      ],
      [
        "ational",
        -1.0
      ],
      [
        "uli",
        -1.0
      ],
      [
        "stro",
        -1.0
      ],
      [
        "ook",
        -1.0
      ],
      [
        "rig",
        -1.0
      ],
      [
        "ius",
        -1.0
      ],
      [
        "Pi",
        -1.0
      ],
      [
        "tori",
        -1.0
      ],
      [
        "nation",
        -1.0
      ],
      [
        "chin",
        -1.0
      ],
      [
        "Ve",
        -1.0
      ],
      [
        "sal",
        -1.0
      ],
      [
        "Arti",
        -1.0
      ],
      [
        "71",
        -1.0
      ],
      [
        "rica",
        -1.0
      ],
      [
        "rab",
        -1.0
      ],
      [
        "rei",
        -1.0
      ],
      [
        "yd",
        -1.0
      ],
      [
        "mil",
        -1.0
      ],
      [
        "ically",
        -1.0
      ],
      [
        "000000",
        -1.0
      ],
      [
        "sar",
        -1.0
      ],
      [
        "ngi",
        -1.0
      ],
      [
        "ische",
        -1.0
      ],
      [
        "hou",
        -1.0
      ],
      [
        "hing",
        -1.0
      ],
      [
        "atr",
        -1.0
      ],
      [
        "nv",
        -1.0
      ],
      [
        "inat",
        -1.0
      ],
      [
        "til",
        -1.0
      ],
      [
        "nds",
        -1.0
      ],
      [
        "sso",
        -1.0
      ],
      [
        "Î±",
        -1.0
      ],
      [
        "ulat",
        -1.0
      ],
      [
        "med",
        -1.0
      ],
      [
        "ush",
        -1.0
      ],
      [
        "ign",
        -1.0
      ],
      [
        "NE",
        -1.0
      ],
      [
        "ota",
        -1.0
      ],
      [
        "ual",
        -1.0
      ],
      [
        "hs",
        -1.0
      ],
      [
        "sca",
        -1.0
      ],
      [
        "iste",
        -1.0
      ],
      [
        "amm",
        -1.0
      ],
      [
        "old",
        -1.0
      ],
      [
        "bs",
        -1.0
      ],
      [
        "icu",
        -1.0
      ],
      [
        "chu",
        -1.0
      ],
      [
        "ĠÐ",
        -1.0
      ],
      [
        "hm",
        -1.0
      ],
      [
        "ette",
        -1.0
      ],
      [
        "rep",
        -1.0
      ],
      [
        "yi",
        -1.0
      ],
      [
        "vin",
        -1.0
      ],
      [
        "rni",
        -1.0
      ],
      [
        "itio",
        -1.0
      ],
      [
        "29",
        -1.0
      ],
      [
        "ova",
        -1.0
      ],
      [
        "icr",
        -1.0
      ],
      [
        "usi",
        -1.0
      ],
      [
        "42",
        -1.0
      ],
      [
        "ians",
        -1.0
      ],
      [
        "Ġnon",
        -1.0
      ],
      [
        "arb",
        -1.0
      ],
      [
        "ez",
        -1.0
      ],
      [
        "ken",
        -1.0
      ],
      [
        "rog",
        -1.0
      ],
      [
        "Ġhe",
        -1.0
      ],
      [
        "35",
        -1.0
      ],
      [
        "Ð¾",
        -1.0
      ],
      [
        "ats",
        -1.0
      ],
      [
        "liz",
        -1.0
      ],
      [
        "Ġdis",
        -1.0
      ],
      [
        "SA",
        -1.0
      ],
      [
        "loc",
        -1.0
      ],
      [
        "ĠFr",
        -1.0
      ],
      [
        "els",
        -1.0
      ],
      [
        "unc",
        -1.0
      ],
      [
        "34",
        -1.0
      ],
      [
        "RO",
        -1.0
      ],
      [
        "top",
        -1.0
      ],
      [
        "92",
        -1.0
      ],
      [
        "osa",
        -1.0
      ],
      [
        "uth",
        -1.0
      ],
      [
        "onn",
        -1.0
      ],
      [
        "var",
        -1.0
      ],
      [
        "its",
        -1.0
      ],
      [
        "tle",
        -1.0
      ],
      [
        "sat",
        -1.0
      ],
      [
        "vic",
        -1.0
      ],
      [
        "cre",
        -1.0
      ],
      [
        "ative",
        -1.0
      ],
      [
        "sed",
        -1.0
      ],
      [
        "mbe",
        -1.0
      ],
      [
        "ĠGu",
        -1.0
      ],
      [
        "call",
        -1.0
      ],
      [
        "ection",
        -1.0
      ],
      [
        "unde",
        -1.0
      ],
      [
        "aus",
        -1.0
      ],
      [
        "char",
        -1.0
      ],
      [
        "rse",
        -1.0
      ],
      [
        "0000000",
        -1.0
      ],
      [
        "bel",
        -1.0
      ],
      [
        "44",
        -1.0
      ],
      [
        "hei",
        -1.0
      ],
      [
        "anis",
        -1.0
      ],
      [
        "Ġli",
        -1.0
      ],
      [
        "aki",
        -1.0
      ],
      [
        "lp",
        -1.0
      ],
      [
        "55",
        -1.0
      ],
      [
        "53",
        -1.0
      ],
      [
        "ao",
        -1.0
      ],
      [
        "inn",
        -1.0
      ],
      [
        "hit",
        -1.0
      ],
      [
        "lti",
        -1.0
      ],
      [
        "amo",
        -1.0
      ],
      [
        "ves",
        -1.0
      ],
      [
        "alli",
        -1.0
      ],
      [
        "thr",
        -1.0
      ],
      [
        "CH",
        -1.0
      ],
      [
        "ppe",
        -1.0
      ],
      [
        "dal",
        -1.0
      ],
      [
        "Cr",
        -1.0
      ],
      [
        "Ġla",
        -1.0
      ],
      [
        "oly",
        -1.0
      ],
      [
        "45",
        -1.0
      ],
      [
        "tam",
        -1.0
      ],
      [
        "bility",
        -1.0
      ],
      [
        "vis",
        -1.0
      ],
      [
        "Gu",
        -1.0
      ],
      [
        "43",
        -1.0
      ],
      [
        "bor",
        -1.0
      ],
      [
        "chan",
        -1.0
      ],
      [
        "Ġar",
        -1.0
      ],
      [
        "95",
        -1.0
      ],
      [
        "ĠSp",
        -1.0
      ],
      [
        "hot",
        -1.0
      ],
      [
        "ĠWe",
        -1.0
      ],
      [
        "62",
        -1.0
      ],
      [
        "nie",
        -1.0
      ],
      [
        "gre",
        -1.0
      ],
      [
        "Ti",
        -1.0
      ],
      [
        "85",
        -1.0
      ],
      [
        "Ġ978",
        -1.0
      ],
      [
        "Chi",
        -1.0
      ],
      [
        "itu",
        -1.0
      ],
      [
        "Ġ9",
        -1.0
      ],
      [
        "ĠPar",
        -1.0
      ],
      [
        "eto",
        -1.0
      ],
      [
        "kan",
        -1.0
      ],
      [
        "nist",
        -1.0
      ],
      [
        "sb",
        -1.0
      ],
      [
        "ork",
        -1.0
      ],
      [
        "SE",
        -1.0
      ],
      [
        "Com",
        -1.0
      ],
      [
        "82",
        -1.0
      ],
      [
        "lf",
        -1.0
      ],
      [
        "gal",
        -1.0
      ],
      [
        "bri",
        -1.0
      ],
      [
        "ville",
        -1.0
      ],
      [
        "nz",
        -1.0
      ],
      [
        "ffe",
        -1.0
      ],
      [
        "56",
        -1.0
      ],
      [
        "ape",
        -1.0
      ],
      [
        "iva",
        -1.0
      ],
      [
        "ries",
        -1.0
      ],
      [
        "bac",
        -1.0
      ],
      [
        "urg",
        -1.0
      ],
      [
        "eis",
        -1.0
      ],
      [
        "ller",
        -1.0
      ],
      [
        "Ke",
        -1.0
      ],
      [
        "En",
        -1.0
      ],
      [
        "Î¿",
        -1.0
      ],
      [
        "Ph",
        -1.0
      ],
      [
        "Ġcom",
        -1.0
      ],
      [
        "Ġex",
        -1.0
      ],
      [
        "llin",
        -1.0
      ],
      [
        "eren",
        -1.0
      ],
      [
        "dor",
        -1.0
      ],
      [
        "00000000",
        -1.0
      ],
      [
        "logy",
        -1.0
      ],
      [
        "cons",
        -1.0
      ],
      [
        "Ġsh",
        -1.0
      ],
      [
        "tus",
        -1.0
      ],
      [
        "vill",
        -1.0
      ],
      [
        "rta",
        -1.0
      ],
      [
        "cht",
        -1.0
      ],
      [
        "ige",
        -1.0
      ],
      [
        "dat",
        -1.0
      ],
      [
        "anth",
        -1.0
      ],
      [
        "iro",
        -1.0
      ],
      [
        "win",
        -1.0
      ],
      [
        "cri",
        -1.0
      ],
      [
        "84",
        -1.0
      ],
      [
        "Ġinte",
        -1.0
      ],
      [
        "Tra",
        -1.0
      ],
      [
        "nel",
        -1.0
      ],
      [
        "not",
        -1.0
      ],
      [
        "36",
        -1.0
      ],
      [
        "stin",
        -1.0
      ],
      [
        "gat",
        -1.0
      ],
      [
        "ĠSha",
        -1.0
      ],
      [
        "39",
        -1.0
      ],
      [
        "Ġne",
        -1.0
      ],
      [
        "DE",
        -1.0
      ],
      [
        "Ġta",
        -1.0
      ],
      [
        "cou",
        -1.0
      ],
      [
        "atur",
        -1.0
      ],
      [
        "eric",
        -1.0
      ],
      [
        "bb",
        -1.0
      ],
      [
        "here",
        -1.0
      ],
      [
        "87",
        -1.0
      ],
      [
        "ders",
        -1.0
      ],
      [
        "owe",
        -1.0
      ],
      [
        "54",
        -1.0
      ],
      [
        "ery",
        -1.0
      ],
      [
        "sw",
        -1.0
      ],
      [
        "ĠMan",
        -1.0
      ],
      [
        "alle",
        -1.0
      ],
      [
        "59",
        -1.0
      ],
      [
        "37",
        -1.0
      ],
      [
        "47",
        -1.0
      ],
      [
        "38",
        -1.0
      ],
      [
        "93",
        -1.0
      ],
      [
        "eria",
        -1.0
      ],
      [
        "arti",
        -1.0
      ],
      [
        "ilo",
        -1.0
      ],
      [
        "low",
        -1.0
      ],
      [
        "eck",
        -1.0
      ],
      [
        "ĠKe",
        -1.0
      ],
      [
        "57",
        -1.0
      ],
      [
        "ione",
        -1.0
      ],
      [
        "ĠKu",
        -1.0
      ],
      [
        "rmi",
        -1.0
      ],
      [
        "ool",
        -1.0
      ],
      [
        "98",
        -1.0
      ],
      [
        "ioni",
        -1.0
      ],
      [
        "cont",
        -1.0
      ],
      [
        "iso",
        -1.0
      ],
      [
        "200",
        -1.0
      ],
      [
        "ntin",
        -1.0
      ],
      [
        "ility",
        -1.0
      ],
      [
        "jo",
        -1.0
      ],
      [
        "iga",
        -1.0
      ],
      [
        "Ġen",
        -1.0
      ],
      [
        "Hi",
        -1.0
      ],
      [
        "vit",
        -1.0
      ],
      [
        "andi",
        -1.0
      ],
      [
        "eci",
        -1.0
      ],
      [
        "para",
        -1.0
      ],
      [
        "ĠÎ",
        -1.0
      ],
      [
        "mpl",
        -1.0
      ],
      [
        "EL",
        -1.0
      ],
      [
        "amin",
        -1.0
      ],
      [
        "Ġbi",
        -1.0
      ],
      [
        "88",
        -1.0
      ],
      [
        "72",
        -1.0
      ],
      [
        "lde",
        -1.0
      ],
      [
        "46",
        -1.0
      ],
      [
        "spo",
        -1.0
      ],
      [
        "ij",
        -1.0
      ],
      [
        "ologic",
        -1.0
      ],
      [
        "esse",
        -1.0
      ],
      [
        "65",
        -1.0
      ],
      [
        "ĠPh",
        -1.0
      ],
      [
        "oin",
        -1.0
      ],
      [
        "Ġal",
        -1.0
      ],
      [
        "aut",
        -1.0
      ],
      [
        "ska",
        -1.0
      ],
      [
        "trans",
        -1.0
      ],
      [
        "kl",
        -1.0
      ],
      [
        "ids",
        -1.0
      ],
      [
        "oco",
        -1.0
      ],
      [
        "74",
        -1.0
      ],
      [
        "rme",
        -1.0
      ],
      [
        "Str",
        -1.0
      ],
      [
        "ike",
        -1.0
      ],
      [
        "ild",
        -1.0
      ],
      [
        "essi",
        -1.0
      ],
      [
        "stri",
        -1.0
      ],
      [
        "63",
        -1.0
      ],
      [
        "Ġsp",
        -1.0
      ],
      [
        "arg",
        -1.0
      ],
      [
        "hir",
        -1.0
      ],
      [
        "atic",
        -1.0
      ],
      [
        "yst",
        -1.0
      ],
      [
        "Ġinter",
        -1.0
      ],
      [
        "rman",
        -1.0
      ],
      [
        "89",
        -1.0
      ],
      [
        "bli",
        -1.0
      ],
      [
        "Cl",
        -1.0
      ],
      [
        "mag",
        -1.0
      ],
      [
        "less",
        -1.0
      ],
      [
        "abe",
        -1.0
      ],
      [
        "aca",
        -1.0
      ],
      [
        "obi",
        -1.0
      ],
      [
        "83",
        -1.0
      ],
      [
        "Mon",
        -1.0
      ],
      [
        "Per",
        -1.0
      ],
      [
        "IT",
        -1.0
      ],
      [
        "96",
        -1.0
      ],
      [
        "94",
        -1.0
      ],
      [
        "mel",
        -1.0
      ],
      [
        "ned",
        -1.0
      ],
      [
        "NG",
        -1.0
      ],
      [
        "Ã³",
        -1.0
      ],
      [
        "ĠCar",
        -1.0
      ],
      [
        "cally",
        -1.0
      ],
      [
        "stat",
        -1.0
      ],
      [
        "ept",
        -1.0
      ],
      [
        "tol",
        -1.0
      ],
      [
        "ache",
        -1.0
      ],
      [
        "66",
        -1.0
      ],
      [
        "hos",
        -1.0
      ],
      [
        "ĠNi",
        -1.0
      ],
      [
        "ngu",
        -1.0
      ],
      [
        "64",
        -1.0
      ],
      [
        "NT",
        -1.0
      ],
      [
        "Ġso",
        -1.0
      ],
      [
        "opi",
        -1.0
      ],
      [
        "75",
        -1.0
      ],
      [
        "uf",
        -1.0
      ],
      [
        "ype",
        -1.0
      ],
      [
        "ĠTi",
        -1.0
      ],
      [
        "mma",
        -1.0
      ],
      [
        "tern",
        -1.0
      ],
      [
        "mac",
        -1.0
      ],
      [
        "58",
        -1.0
      ],
      [
        "978",
        -1.0
      ],
      [
        "mus",
        -1.0
      ],
      [
        "ogen",
        -1.0
      ],
      [
        "lim",
        -1.0
      ],
      [
        "86",
        -1.0
      ],
      [
        "dent",
        -1.0
      ],
      [
        "HA",
        -1.0
      ],
      [
        "own",
        -1.0
      ],
      [
        "Ð¸",
        -1.0
      ],
      [
        "73",
        -1.0
      ],
      [
        "48",
        -1.0
      ],
      [
        "sn",
        -1.0
      ],
      [
        "67",
        -1.0
      ],
      [
        "pal",
        -1.0
      ],
      [
        "ĠCr",
        -1.0
      ],
      [
        "ssion",
        -1.0
      ],
      [
        "Ġna",
        -1.0
      ],
      [
        "lio",
        -1.0
      ],
      [
        "run",
        -1.0
      ],
      [
        "zin",
        -1.0
      ],
      [
        "set",
        -1.0
      ],
      [
        "ues",
        -1.0
      ],
      [
        "opa",
        -1.0
      ],
      [
        "Ġpar",
        -1.0
      ],
      [
        "ener",
        -1.0
      ],
      [
        "aco",
        -1.0
      ],
      [
        "ient",
        -1.0
      ],
      [
        "tory",
        -1.0
      ],
      [
        "othe",
        -1.0
      ],
      [
        "pers",
        -1.0
      ],
      [
        "pec",
        -1.0
      ],
      [
        "76",
        -1.0
      ],
      [
        "ides",
        -1.0
      ],
      [
        "ais",
        -1.0
      ],
      [
        "sur",
        -1.0
      ],
      [
        "SI",
        -1.0
      ],
      [
        "AM",
        -1.0
      ],
      [
        "acc",
        -1.0
      ],
      [
        "49",
        -1.0
      ],
      [
        "ih",
        -1.0
      ],
      [
        "nol",
        -1.0
      ],
      [
        "sky",
        -1.0
      ],
      [
        "Int",
        -1.0
      ],
      [
        "bin",
        -1.0
      ],
      [
        "iver",
        -1.0
      ],
      [
        "uto",
        -1.0
      ],
      [
        "duc",
        -1.0
      ],
      [
        "Bar",
        -1.0
      ],
      [
        "rov",
        -1.0
      ],
      [
        "upe",
        -1.0
      ],
      [
        "nm",
        -1.0
      ],
      [
        "rav",
        -1.0
      ],
      [
        "urs",
        -1.0
      ],
      [
        "fin",
        -1.0
      ],
      [
        "Am",
        -1.0
      ],
      [
        "79",
        -1.0
      ],
      [
        "bro",
        -1.0
      ],
      [
        "micro",
        -1.0
      ],
      [
        "onis",
        -1.0
      ],
      [
        "tera",
        -1.0
      ],
      [
        "udi",
        -1.0
      ],
      [
        "Ã¼",
        -1.0
      ],
      [
        "ju",
        -1.0
      ],
      [
        "Ġge",
        -1.0
      ],
      [
        "ular",
        -1.0
      ],
      [
        "eso",
        -1.0
      ],
      [
        "sid",
        -1.0
      ],
      [
        "gis",
        -1.0
      ],
      [
        "77",
        -1.0
      ],
      [
        "sub",
        -1.0
      ],
      [
        "enes",
        -1.0
      ],
      [
        "ĠHi",
        -1.0
      ],
      [
        "logic",
        -1.0
      ],
      [
        "aur",
        -1.0
      ],
      [
        "eva",
        -1.0
      ],
      [
        "rip",
        -1.0
      ],
      [
        "una",
        -1.0
      ],
      [
        "Ġper",
        -1.0
      ],
      [
        "nor",
        -1.0
      ],
      [
        "rce",
        -1.0
      ],
      [
        "uta",
        -1.0
      ],
      [
        "este",
        -1.0
      ],
      [
        "ĠAs",
        -1.0
      ],
      [
        "Ni",
        -1.0
      ],
      [
        "alla",
        -1.0
      ],
      [
        "sma",
        -1.0
      ],
      [
        "mun",
        -1.0
      ],
      [
        "ĠSta",
        -1.0
      ],
      [
        "ctor",
        -1.0
      ],
      [
        "ĠFo",
        -1.0
      ],
      [
        "anta",
        -1.0
      ],
      [
        "68",
        -1.0
      ],
      [
        "asse",
        -1.0
      ],
      [
        "Î½",
        -1.0
      ],
      [
        "thy",
        -1.0
      ],
      [
        "cit",
        -1.0
      ],
      [
        "ume",
        -1.0
      ],
      [
        "uan",
        -1.0
      ],
      [
        "odo",
        -1.0
      ],
      [
        "omet",
        -1.0
      ],
      [
        "reg",
        -1.0
      ],
      [
        "anga",
        -1.0
      ],
      [
        "mina",
        -1.0
      ],
      [
        "onic",
        -1.0
      ],
      [
        "spa",
        -1.0
      ],
      [
        "Ã¶",
        -1.0
      ],
      [
        "dio",
        -1.0
      ],
      [
        "nsk",
        -1.0
      ],
      [
        "menta",
        -1.0
      ],
      [
        "ege",
        -1.0
      ],
      [
        "ering",
        -1.0
      ],
      [
        "ract",
        -1.0
      ],
      [
        "gic",
        -1.0
      ],
      [
        "eed",
        -1.0
      ],
      [
        "pra",
        -1.0
      ],
      [
        "tm",
        -1.0
      ],
      [
        "rob",
        -1.0
      ],
      [
        "Ġto",
        -1.0
      ],
      [
        "Ġfo",
        -1.0
      ],
      [
        "ites",
        -1.0
      ],
      [
        "ben",
        -1.0
      ],
      [
        "cula",
        -1.0
      ],
      [
        "ax",
        -1.0
      ],
      [
        "ING",
        -1.0
      ],
      [
        "ones",
        -1.0
      ],
      [
        "===",
        -1.0
      ],
      [
        "nus",
        -1.0
      ],
      [
        "agi",
        -1.0
      ],
      [
        "erd",
        -1.0
      ],
      [
        "idae",
        -1.0
      ],
      [
        "ability",
        -1.0
      ],
      [
        "spi",
        -1.0
      ],
      [
        "iche",
        -1.0
      ],
      [
        "lum",
        -1.0
      ],
      [
        "ias",
        -1.0
      ],
      [
        "vat",
        -1.0
      ],
      [
        "alu",
        -1.0
      ],
      [
        "uss",
        -1.0
      ],
      [
        "ald",
        -1.0
      ],
      [
        "tero",
        -1.0
      ],
      [
        "sic",
        -1.0
      ],
      [
        "eit",
        -1.0
      ],
      [
        "abo",
        -1.0
      ],
      [
        "Pre",
        -1.0
      ],
      [
        "rsi",
        -1.0
      ],
      [
        "ule",
        -1.0
      ],
      [
        "enb",
        -1.0
      ],
      [
        "Un",
        -1.0
      ],
      [
        "het",
        -1.0
      ],
      [
        "ley",
        -1.0
      ],
      [
        "asti",
        -1.0
      ],
      [
        "ĠFi",
        -1.0
      ],
      [
        "Ġsi",
        -1.0
      ],
      [
        "hara",
        -1.0
      ],
      [
        "tac",
        -1.0
      ],
      [
        "hai",
        -1.0
      ],
      [
        "ED",
        -1.0
      ],
      [
        "sor",
        -1.0
      ],
      [
        "ĠChi",
        -1.0
      ],
      [
        "oul",
        -1.0
      ],
      [
        "ME",
        -1.0
      ],
      [
        "sol",
        -1.0
      ],
      [
        "ties",
        -1.0
      ],
      [
        "ista",
        -1.0
      ],
      [
        "aran",
        -1.0
      ],
      [
        "org",
        -1.0
      ],
      [
        "by",
        -1.0
      ],
      [
        "Ä«",
        -1.0
      ],
      [
        "chr",
        -1.0
      ],
      [
        "bio",
        -1.0
      ],
      [
        "sci",
        -1.0
      ],
      [
        "cel",
        -1.0
      ],
      [
        "69",
        -1.0
      ],
      [
        "ugh",
        -1.0
      ],
      [
        "abil",
        -1.0
      ],
      [
        "ext",
        -1.0
      ],
      [
        "ĠAm",
        -1.0
      ],
      [
        "Ri",
        -1.0
      ],
      [
        "PA",
        -1.0
      ],
      [
        "esa",
        -1.0
      ],
      [
        "lai",
        -1.0
      ],
      [
        "oce",
        -1.0
      ],
      [
        "Ġmu",
        -1.0
      ],
      [
        "inf",
        -1.0
      ],
      [
        "cas",
        -1.0
      ],
      [
        "uct",
        -1.0
      ],
      [
        "Ġtra",
        -1.0
      ],
      [
        "nfo",
        -1.0
      ],
      [
        "dri",
        -1.0
      ],
      [
        "ific",
        -1.0
      ],
      [
        "hri",
        -1.0
      ],
      [
        "mber",
        -1.0
      ],
      [
        "mpa",
        -1.0
      ],
      [
        "gel",
        -1.0
      ],
      [
        "off",
        -1.0
      ],
      [
        "tical",
        -1.0
      ],
      [
        "lv",
        -1.0
      ],
      [
        "iol",
        -1.0
      ],
      [
        "etic",
        -1.0
      ],
      [
        "Ðµ",
        -1.0
      ],
      [
        "Ku",
        -1.0
      ],
      [
        "ized",
        -1.0
      ],
      [
        "ago",
        -1.0
      ],
      [
        "arl",
        -1.0
      ],
      [
        "LL",
        -1.0
      ],
      [
        "mann",
        -1.0
      ],
      [
        "inde",
        -1.0
      ],
      [
        "stu",
        -1.0
      ],
      [
        "urn",
        -1.0
      ],
      [
        "orr",
        -1.0
      ],
      [
        "âĢłâĢłâĢłâĢłâĢł",
        -1.0
      ],
      [
        "ebe",
        -1.0
      ],
      [
        "ËĪ",
        -1.0
      ],
      [
        "athe",
        -1.0
      ],
      [
        "osp",
        -1.0
      ],
      [
        "lid",
        -1.0
      ],
      [
        "ĠBar",
        -1.0
      ],
      [
        "ude",
        -1.0
      ],
      [
        "erf",
        -1.0
      ],
      [
        "achi",
        -1.0
      ],
      [
        "Ġsc",
        -1.0
      ],
      [
        "sea",
        -1.0
      ],
      [
        "eru",
        -1.0
      ],
      [
        "cop",
        -1.0
      ],
      [
        "ante",
        -1.0
      ],
      [
        "US",
        -1.0
      ],
      [
        "xt",
        -1.0
      ],
      [
        "row",
        -1.0
      ],
      [
        "oz",
        -1.0
      ],
      [
        "ios",
        -1.0
      ],
      [
        "eda",
        -1.0
      ],
      [
        "tate",
        -1.0
      ],
      [
        "lab",
        -1.0
      ],
      [
        "ĠQ",
        -1.0
      ],
      [
        "ĠEn",
        -1.0
      ],
      [
        "pon",
        -1.0
      ],
      [
        "SS",
        -1.0
      ],
      [
        "rib",
        -1.0
      ],
      [
        "lik",
        -1.0
      ],
      [
        "assi",
        -1.0
      ],
      [
        "mul",
        -1.0
      ],
      [
        "001",
        -1.0
      ],
      [
        "arin",
        -1.0
      ],
      [
        "Che",
        -1.0
      ],
      [
        "lop",
        -1.0
      ],
      [
        "oba",
        -1.0
      ],
      [
        "hia",
        -1.0
      ],
      [
        "eer",
        -1.0
      ],
      [
        "gon",
        -1.0
      ],
      [
        "ĠRi",
        -1.0
      ],
      [
        "ET",
        -1.0
      ],
      [
        "Fe",
        -1.0
      ],
      [
        "kr",
        -1.0
      ],
      [
        "Ġra",
        -1.0
      ],
      [
        "IA",
        -1.0
      ],
      [
        "roo",
        -1.0
      ],
      [
        "rer",
        -1.0
      ],
      [
        "ological",
        -1.0
      ],
      [
        "die",
        -1.0
      ],
      [
        "ments",
        -1.0
      ],
      [
        "ogy",
        -1.0
      ],
      [
        "wn",
        -1.0
      ],
      [
        "cra",
        -1.0
      ],
      [
        "wan",
        -1.0
      ],
      [
        "cien",
        -1.0
      ],
      [
        "Ġj",
        -1.0
      ],
      [
        "rro",
        -1.0
      ],
      [
        "dha",
        -1.0
      ],
      [
        "Ġho",
        -1.0
      ],
      [
        "NI",
        -1.0
      ],
      [
        "tn",
        -1.0
      ],
      [
        "atch",
        -1.0
      ],
      [
        "lot",
        -1.0
      ],
      [
        "pac",
        -1.0
      ],
      [
        "Tu",
        -1.0
      ],
      [
        "Ġ97",
        -1.0
      ],
      [
        "nian",
        -1.0
      ],
      [
        "reen",
        -1.0
      ],
      [
        "ĠDu",
        -1.0
      ],
      [
        "vent",
        -1.0
      ],
      [
        "Î¹",
        -1.0
      ],
      [
        "kha",
        -1.0
      ],
      [
        "tei",
        -1.0
      ],
      [
        "cus",
        -1.0
      ],
      [
        "eca",
        -1.0
      ],
      [
        "api",
        -1.0
      ],
      [
        "zat",
        -1.0
      ],
      [
        "rent",
        -1.0
      ],
      [
        "ril",
        -1.0
      ],
      [
        "inu",
        -1.0
      ],
      [
        "Inter",
        -1.0
      ],
      [
        "rest",
        -1.0
      ],
      [
        "uo",
        -1.0
      ],
      [
        "Ce",
        -1.0
      ],
      [
        "fie",
        -1.0
      ],
      [
        "esp",
        -1.0
      ],
      [
        "Ġph",
        -1.0
      ],
      [
        "bas",
        -1.0
      ],
      [
        "gene",
        -1.0
      ],
      [
        "hip",
        -1.0
      ],
      [
        "chl",
        -1.0
      ],
      [
        "tw",
        -1.0
      ],
      [
        "ches",
        -1.0
      ],
      [
        "nj",
        -1.0
      ],
      [
        "Wo",
        -1.0
      ],
      [
        "wh",
        -1.0
      ],
      [
        "trac",
        -1.0
      ],
      [
        "pli",
        -1.0
      ],
      [
        "logical",
        -1.0
      ],
      [
        "aris",
        -1.0
      ],
      [
        "imp",
        -1.0
      ],
      [
        "elin",
        -1.0
      ],
      [
        "ied",
        -1.0
      ],
      [
        "trop",
        -1.0
      ],
      [
        "rain",
        -1.0
      ],
      [
        "Ġle",
        -1.0
      ],
      [
        "Ġgr",
        -1.0
      ],
      [
        "dre",
        -1.0
      ],
      [
        "ict",
        -1.0
      ],
      [
        "hoo",
        -1.0
      ],
      [
        "Du",
        -1.0
      ],
      [
        "hed",
        -1.0
      ],
      [
        "hom",
        -1.0
      ],
      [
        "emp",
        -1.0
      ],
      [
        "peri",
        -1.0
      ],
      [
        "under",
        -1.0
      ],
      [
        "lay",
        -1.0
      ],
      [
        "iqu",
        -1.0
      ],
      [
        "aster",
        -1.0
      ],
      [
        "umb",
        -1.0
      ],
      [
        "lei",
        -1.0
      ],
      [
        "rar",
        -1.0
      ],
      [
        "ĠPer",
        -1.0
      ],
      [
        "emb",
        -1.0
      ],
      [
        "lant",
        -1.0
      ],
      [
        "dg",
        -1.0
      ],
      [
        "dae",
        -1.0
      ],
      [
        "meri",
        -1.0
      ],
      [
        "pic",
        -1.0
      ],
      [
        "Ac",
        -1.0
      ],
      [
        "aru",
        -1.0
      ],
      [
        "100",
        -1.0
      ],
      [
        "ife",
        -1.0
      ],
      [
        "uer",
        -1.0
      ],
      [
        "rba",
        -1.0
      ],
      [
        "olu",
        -1.0
      ],
      [
        "ston",
        -1.0
      ],
      [
        "nate",
        -1.0
      ],
      [
        "rand",
        -1.0
      ],
      [
        "nac",
        -1.0
      ],
      [
        "âĢ¦âĢ¦âĢ¦âĢ¦âĢ¦",
        -1.0
      ],
      [
        "lag",
        -1.0
      ],
      [
        "Pl",
        -1.0
      ],
      [
        "omb",
        -1.0
      ],
      [
        "rev",
        -1.0
      ],
      [
        "sam",
        -1.0
      ],
      [
        "cla",
        -1.0
      ],
      [
        "ĠTu",
        -1.0
      ],
      [
        "Ġka",
        -1.0
      ],
      [
        "Ġ9780",
        -1.0
      ],
      [
        "plan",
        -1.0
      ],
      [
        "lg",
        -1.0
      ],
      [
        "nov",
        -1.0
      ],
      [
        "bre",
        -1.0
      ],
      [
        "ĠMon",
        -1.0
      ],
      [
        "iet",
        -1.0
      ],
      [
        "ores",
        -1.0
      ],
      [
        "rak",
        -1.0
      ],
      [
        "Ġcr",
        -1.0
      ],
      [
        "cur",
        -1.0
      ],
      [
        "NS",
        -1.0
      ],
      [
        "ower",
        -1.0
      ],
      [
        "bat",
        -1.0
      ],
      [
        "istic",
        -1.0
      ],
      [
        "nr",
        -1.0
      ],
      [
        "IO",
        -1.0
      ],
      [
        "á¸",
        -1.0
      ],
      [
        "SC",
        -1.0
      ],
      [
        "cio",
        -1.0
      ],
      [
        "ĠFe",
        -1.0
      ],
      [
        "Ġvi",
        -1.0
      ],
      [
        "uar",
        -1.0
      ],
      [
        "ngo",
        -1.0
      ],
      [
        "El",
        -1.0
      ],
      [
        "scr",
        -1.0
      ],
      [
        "onia",
        -1.0
      ],
      [
        "For",
        -1.0
      ],
      [
        "Ð½",
        -1.0
      ],
      [
        "eac",
        -1.0
      ],
      [
        "á¹",
        -1.0
      ],
      [
        "ely",
        -1.0
      ],
      [
        "asc",
        -1.0
      ],
      [
        "Au",
        -1.0
      ],
      [
        "Ġfa",
        -1.0
      ],
      [
        "mos",
        -1.0
      ],
      [
        "imo",
        -1.0
      ],
      [
        "toc",
        -1.0
      ],
      [
        "Ġsub",
        -1.0
      ],
      [
        "ĠUn",
        -1.0
      ],
      [
        "tors",
        -1.0
      ],
      [
        "tell",
        -1.0
      ],
      [
        "gro",
        -1.0
      ],
      [
        "ardi",
        -1.0
      ],
      [
        "cos",
        -1.0
      ],
      [
        "CE",
        -1.0
      ],
      [
        "dle",
        -1.0
      ],
      [
        "pit",
        -1.0
      ],
      [
        "igi",
        -1.0
      ],
      [
        "get",
        -1.0
      ],
      [
        "rah",
        -1.0
      ],
      [
        "cte",
        -1.0
      ],
      [
        "wal",
        -1.0
      ],
      [
        "bh",
        -1.0
      ],
      [
        "utt",
        -1.0
      ],
      [
        "HE",
        -1.0
      ],
      [
        "ĠHu",
        -1.0
      ],
      [
        "ĠThe",
        -1.0
      ],
      [
        "olle",
        -1.0
      ],
      [
        "logica",
        -1.0
      ],
      [
        "dge",
        -1.0
      ],
      [
        "sil",
        -1.0
      ],
      [
        "comm",
        -1.0
      ],
      [
        "kt",
        -1.0
      ],
      [
        "Gra",
        -1.0
      ],
      [
        "Ġac",
        -1.0
      ],
      [
        "ologist",
        -1.0
      ],
      [
        "Ġbr",
        -1.0
      ],
      [
        "Ġbo",
        -1.0
      ],
      [
        "lian",
        -1.0
      ],
      [
        "ndu",
        -1.0
      ],
      [
        "TO",
        -1.0
      ],
      [
        "cea",
        -1.0
      ],
      [
        "EC",
        -1.0
      ],
      [
        "ĠTra",
        -1.0
      ],
      [
        "egi",
        -1.0
      ],
      [
        "work",
        -1.0
      ],
      [
        "hand",
        -1.0
      ],
      [
        "Mat",
        -1.0
      ],
      [
        "ĠLu",
        -1.0
      ],
      [
        "ãĤ",
        -1.0
      ],
      [
        "ait",
        -1.0
      ],
      [
        "lari",
        -1.0
      ],
      [
        "eph",
        -1.0
      ],
      [
        "np",
        -1.0
      ],
      [
        "mani",
        -1.0
      ],
      [
        "ĠEl",
        -1.0
      ],
      [
        "esta",
        -1.0
      ],
      [
        "ido",
        -1.0
      ],
      [
        "sla",
        -1.0
      ],
      [
        "itz",
        -1.0
      ],
      [
        "ever",
        -1.0
      ],
      [
        "Hu",
        -1.0
      ],
      [
        "Mac",
        -1.0
      ],
      [
        "riti",
        -1.0
      ],
      [
        "dem",
        -1.0
      ],
      [
        "rw",
        -1.0
      ],
      [
        "TR",
        -1.0
      ],
      [
        "ix",
        -1.0
      ],
      [
        "dec",
        -1.0
      ],
      [
        "inger",
        -1.0
      ],
      [
        "Qu",
        -1.0
      ],
      [
        "ĠKr",
        -1.0
      ],
      [
        "AP",
        -1.0
      ],
      [
        "Pu",
        -1.0
      ],
      [
        "bit",
        -1.0
      ],
      [
        "ows",
        -1.0
      ],
      [
        "ification",
        -1.0
      ],
      [
        "erna",
        -1.0
      ],
      [
        "eral",
        -1.0
      ],
      [
        "Ġmicro",
        -1.0
      ],
      [
        "mpe",
        -1.0
      ],
      [
        "elect",
        -1.0
      ],
      [
        "wit",
        -1.0
      ],
      [
        "sup",
        -1.0
      ],
      [
        "wat",
        -1.0
      ],
      [
        "Bl",
        -1.0
      ],
      [
        "elec",
        -1.0
      ],
      [
        "IL",
        -1.0
      ],
      [
        "cks",
        -1.0
      ],
      [
        "apo",
        -1.0
      ],
      [
        "oot",
        -1.0
      ],
      [
        "Îµ",
        -1.0
      ],
      [
        "arth",
        -1.0
      ],
      [
        "0000000000000000",
        -1.0
      ],
      [
        "Ġfi",
        -1.0
      ],
      [
        "ĠCl",
        -1.0
      ],
      [
        "Col",
        -1.0
      ],
      [
        "orth",
        -1.0
      ],
      [
        "llu",
        -1.0
      ],
      [
        "hie",
        -1.0
      ],
      [
        "sation",
        -1.0
      ],
      [
        "gle",
        -1.0
      ],
      [
        "oso",
        -1.0
      ],
      [
        "DI",
        -1.0
      ],
      [
        "OS",
        -1.0
      ],
      [
        "AD",
        -1.0
      ],
      [
        "uit",
        -1.0
      ],
      [
        "ibe",
        -1.0
      ],
      [
        "rial",
        -1.0
      ],
      [
        "chn",
        -1.0
      ],
      [
        "San",
        -1.0
      ],
      [
        "epa",
        -1.0
      ],
      [
        "atte",
        -1.0
      ],
      [
        "mai",
        -1.0
      ],
      [
        "equ",
        -1.0
      ],
      [
        "istor",
        -1.0
      ],
      [
        "uin",
        -1.0
      ],
      [
        "sim",
        -1.0
      ],
      [
        "Ġant",
        -1.0
      ],
      [
        "ĠCe",
        -1.0
      ],
      [
        "erman",
        -1.0
      ],
      [
        "nag",
        -1.0
      ],
      [
        "ĠChe",
        -1.0
      ],
      [
        "lad",
        -1.0
      ],
      [
        "Pol",
        -1.0
      ],
      [
        "issi",
        -1.0
      ],
      [
        "ique",
        -1.0
      ],
      [
        "oste",
        -1.0
      ],
      [
        "lou",
        -1.0
      ],
      [
        "Ġve",
        -1.0
      ],
      [
        "sth",
        -1.0
      ],
      [
        "press",
        -1.0
      ],
      [
        "zed",
        -1.0
      ],
      [
        "cap",
        -1.0
      ],
      [
        "ands",
        -1.0
      ],
      [
        "ough",
        -1.0
      ],
      [
        "py",
        -1.0
      ],
      [
        "ogical",
        -1.0
      ],
      [
        "edia",
        -1.0
      ],
      [
        "Or",
        -1.0
      ],
      [
        "side",
        -1.0
      ],
      [
        "leg",
        -1.0
      ],
      [
        "âĢłâĢłâĢłâĢł",
        -1.0
      ],
      [
        "usa",
        -1.0
      ],
      [
        "ities",
        -1.0
      ],
      [
        "EA",
        -1.0
      ],
      [
        "*****",
        -1.0
      ],
      [
        "pur",
        -1.0
      ],
      [
        "lte",
        -1.0
      ],
      [
        "any",
        -1.0
      ],
      [
        "erst",
        -1.0
      ],
      [
        "rli",
        -1.0
      ],
      [
        "oda",
        -1.0
      ],
      [
        "iter",
        -1.0
      ],
      [
        "hre",
        -1.0
      ],
      [
        "Bra",
        -1.0
      ],
      [
        "hang",
        -1.0
      ],
      [
        "yu",
        -1.0
      ],
      [
        "tron",
        -1.0
      ],
      [
        "eet",
        -1.0
      ],
      [
        "rve",
        -1.0
      ],
      [
        "lass",
        -1.0
      ],
      [
        "alist",
        -1.0
      ],
      [
        "ĠMac",
        -1.0
      ],
      [
        "tein",
        -1.0
      ],
      [
        "tea",
        -1.0
      ],
      [
        "ews",
        -1.0
      ],
      [
        "à¸",
        -1.0
      ],
      [
        "tif",
        -1.0
      ],
      [
        "rmo",
        -1.0
      ],
      [
        "ĠPu",
        -1.0
      ],
      [
        "rich",
        -1.0
      ],
      [
        "stru",
        -1.0
      ],
      [
        "onte",
        -1.0
      ],
      [
        "Åį",
        -1.0
      ],
      [
        "part",
        -1.0
      ],
      [
        "gist",
        -1.0
      ],
      [
        "Ab",
        -1.0
      ],
      [
        "ĠAu",
        -1.0
      ],
      [
        "Cor",
        -1.0
      ],
      [
        "Ste",
        -1.0
      ],
      [
        "Ġcha",
        -1.0
      ],
      [
        "ĠStr",
        -1.0
      ],
      [
        "Lu",
        -1.0
      ],
      [
        "ecto",
        -1.0
      ],
      [
        "ĠCom",
        -1.0
      ],
      [
        "ensis",
        -1.0
      ],
      [
        "dt",
        -1.0
      ],
      [
        "ales",
        -1.0
      ],
      [
        "pel",
        -1.0
      ],
      [
        "ket",
        -1.0
      ],
      [
        "cep",
        -1.0
      ],
      [
        "lls",
        -1.0
      ],
      [
        "mini",
        -1.0
      ],
      [
        "zer",
        -1.0
      ],
      [
        "tto",
        -1.0
      ],
      [
        "ped",
        -1.0
      ],
      [
        "Ġdo",
        -1.0
      ],
      [
        "spec",
        -1.0
      ],
      [
        "aman",
        -1.0
      ],
      [
        "had",
        -1.0
      ],
      [
        "ĠRu",
        -1.0
      ],
      [
        "rts",
        -1.0
      ],
      [
        "MI",
        -1.0
      ],
      [
        "hee",
        -1.0
      ],
      [
        "nica",
        -1.0
      ],
      [
        "vir",
        -1.0
      ],
      [
        "mine",
        -1.0
      ],
      [
        "tag",
        -1.0
      ],
      [
        "osh",
        -1.0
      ],
      [
        "mn",
        -1.0
      ],
      [
        "rach",
        -1.0
      ],
      [
        "uru",
        -1.0
      ],
      [
        "hyl",
        -1.0
      ],
      [
        "other",
        -1.0
      ],
      [
        "last",
        -1.0
      ],
      [
        "Ru",
        -1.0
      ],
      [
        "logist",
        -1.0
      ],
      [
        "Ad",
        -1.0
      ],
      [
        "tali",
        -1.0
      ],
      [
        "enter",
        -1.0
      ],
      [
        "tone",
        -1.0
      ],
      [
        "gram",
        -1.0
      ],
      [
        "ject",
        -1.0
      ],
      [
        "ded",
        -1.0
      ],
      [
        "nec",
        -1.0
      ],
      [
        "gli",
        -1.0
      ],
      [
        "ece",
        -1.0
      ],
      [
        "Ġá",
        -1.0
      ],
      [
        "sem",
        -1.0
      ],
      [
        "Har",
        -1.0
      ],
      [
        "acha",
        -1.0
      ],
      [
        "oon",
        -1.0
      ],
      [
        "ution",
        -1.0
      ],
      [
        "tari",
        -1.0
      ],
      [
        "lma",
        -1.0
      ],
      [
        "rke",
        -1.0
      ],
      [
        "tech",
        -1.0
      ],
      [
        "alk",
        -1.0
      ],
      [
        "serv",
        -1.0
      ],
      [
        "bus",
        -1.0
      ],
      [
        "fication",
        -1.0
      ],
      [
        "lif",
        -1.0
      ],
      [
        "isation",
        -1.0
      ],
      [
        "PE",
        -1.0
      ],
      [
        "alc",
        -1.0
      ],
      [
        "cial",
        -1.0
      ],
      [
        "alin",
        -1.0
      ],
      [
        "Ġhy",
        -1.0
      ],
      [
        "ĠSan",
        -1.0
      ],
      [
        "nea",
        -1.0
      ],
      [
        "OL",
        -1.0
      ],
      [
        "tere",
        -1.0
      ],
      [
        "urr",
        -1.0
      ],
      [
        "lut",
        -1.0
      ],
      [
        "Fl",
        -1.0
      ],
      [
        "iki",
        -1.0
      ],
      [
        "onne",
        -1.0
      ],
      [
        "nso",
        -1.0
      ],
      [
        "nop",
        -1.0
      ],
      [
        "ID",
        -1.0
      ],
      [
        "itr",
        -1.0
      ],
      [
        "fil",
        -1.0
      ],
      [
        "uh",
        -1.0
      ],
      [
        "lization",
        -1.0
      ],
      [
        "ĠPre",
        -1.0
      ],
      [
        "ĠWo",
        -1.0
      ],
      [
        "hab",
        -1.0
      ],
      [
        "ray",
        -1.0
      ],
      [
        "ND",
        -1.0
      ],
      [
        "iq",
        -1.0
      ],
      [
        "une",
        -1.0
      ],
      [
        "rant",
        -1.0
      ],
      [
        "uz",
        -1.0
      ],
      [
        "sten",
        -1.0
      ],
      [
        "table",
        -1.0
      ],
      [
        "ĠPl",
        -1.0
      ],
      [
        "astr",
        -1.0
      ],
      [
        "mak",
        -1.0
      ],
      [
        "osc",
        -1.0
      ],
      [
        "stre",
        -1.0
      ],
      [
        "ref",
        -1.0
      ],
      [
        "LO",
        -1.0
      ],
      [
        "eon",
        -1.0
      ],
      [
        "eman",
        -1.0
      ],
      [
        "Äģn",
        -1.0
      ],
      [
        "Ġga",
        -1.0
      ],
      [
        "rato",
        -1.0
      ],
      [
        "radi",
        -1.0
      ],
      [
        "Cu",
        -1.0
      ],
      [
        "itte",
        -1.0
      ],
      [
        "tum",
        -1.0
      ],
      [
        "ĠQu",
        -1.0
      ],
      [
        "uil",
        -1.0
      ],
      [
        "nsa",
        -1.0
      ],
      [
        "liti",
        -1.0
      ],
      [
        "Cal",
        -1.0
      ],
      [
        "ndin",
        -1.0
      ],
      [
        "ĠBl",
        -1.0
      ],
      [
        "ĠOr",
        -1.0
      ],
      [
        "DA",
        -1.0
      ],
      [
        "ouse",
        -1.0
      ],
      [
        "iar",
        -1.0
      ],
      [
        "euro",
        -1.0
      ],
      [
        "post",
        -1.0
      ],
      [
        "ered",
        -1.0
      ],
      [
        "Ġas",
        -1.0
      ],
      [
        "ĠGi",
        -1.0
      ],
      [
        "cis",
        -1.0
      ],
      [
        "hist",
        -1.0
      ],
      [
        "rto",
        -1.0
      ],
      [
        "cker",
        -1.0
      ],
      [
        "sf",
        -1.0
      ],
      [
        "Tri",
        -1.0
      ],
      [
        "nsis",
        -1.0
      ],
      [
        "lth",
        -1.0
      ],
      [
        "rds",
        -1.0
      ],
      [
        "Ġwa",
        -1.0
      ],
      [
        "epi",
        -1.0
      ],
      [
        "itat",
        -1.0
      ],
      [
        "ÑĢ",
        -1.0
      ],
      [
        "itie",
        -1.0
      ],
      [
        "ĠKh",
        -1.0
      ],
      [
        "tent",
        -1.0
      ],
      [
        "oru",
        -1.0
      ],
      [
        "super",
        -1.0
      ],
      [
        "hak",
        -1.0
      ],
      [
        "burg",
        -1.0
      ],
      [
        "Kr",
        -1.0
      ],
      [
        "sig",
        -1.0
      ],
      [
        "xa",
        -1.0
      ],
      [
        "Gi",
        -1.0
      ],
      [
        "iko",
        -1.0
      ],
      [
        "Dr",
        -1.0
      ],
      [
        "mid",
        -1.0
      ],
      [
        "ogica",
        -1.0
      ],
      [
        "kov",
        -1.0
      ],
      [
        "ulo",
        -1.0
      ],
      [
        "ntia",
        -1.0
      ],
      [
        "epe",
        -1.0
      ],
      [
        "Ant",
        -1.0
      ],
      [
        "Ber",
        -1.0
      ],
      [
        "ption",
        -1.0
      ],
      [
        "som",
        -1.0
      ],
      [
        "hau",
        -1.0
      ],
      [
        "Pla",
        -1.0
      ],
      [
        "ntu",
        -1.0
      ],
      [
        "Ed",
        -1.0
      ],
      [
        "alan",
        -1.0
      ],
      [
        "mia",
        -1.0
      ],
      [
        "Ġda",
        -1.0
      ],
      [
        "pas",
        -1.0
      ],
      [
        "ĠZa",
        -1.0
      ],
      [
        "pet",
        -1.0
      ],
      [
        "uen",
        -1.0
      ],
      [
        "ION",
        -1.0
      ],
      [
        "ental",
        -1.0
      ],
      [
        "Edit",
        -1.0
      ],
      [
        "Ġ3",
        -1.0
      ],
      [
        "rgi",
        -1.0
      ],
      [
        "Ïģ",
        -1.0
      ],
      [
        "iou",
        -1.0
      ],
      [
        "raf",
        -1.0
      ],
      [
        "mate",
        -1.0
      ],
      [
        "ams",
        -1.0
      ],
      [
        "ĠAb",
        -1.0
      ],
      [
        "him",
        -1.0
      ],
      [
        "num",
        -1.0
      ],
      [
        "mot",
        -1.0
      ],
      [
        "onta",
        -1.0
      ],
      [
        "cess",
        -1.0
      ],
      [
        "010",
        -1.0
      ],
      [
        "oor",
        -1.0
      ],
      [
        "ctr",
        -1.0
      ],
      [
        "yb",
        -1.0
      ],
      [
        "sati",
        -1.0
      ],
      [
        "nik",
        -1.0
      ],
      [
        "RS",
        -1.0
      ],
      [
        "tain",
        -1.0
      ],
      [
        "rese",
        -1.0
      ],
      [
        "Kar",
        -1.0
      ],
      [
        "ĠAc",
        -1.0
      ],
      [
        "lav",
        -1.0
      ],
      [
        "rite",
        -1.0
      ],
      [
        "cli",
        -1.0
      ],
      [
        "hur",
        -1.0
      ],
      [
        "ĠInt",
        -1.0
      ],
      [
        "meth",
        -1.0
      ],
      [
        "tics",
        -1.0
      ],
      [
        "kk",
        -1.0
      ],
      [
        "colo",
        -1.0
      ],
      [
        "Ver",
        -1.0
      ],
      [
        "riu",
        -1.0
      ],
      [
        "fica",
        -1.0
      ],
      [
        "epo",
        -1.0
      ],
      [
        "umi",
        -1.0
      ],
      [
        "than",
        -1.0
      ],
      [
        "ping",
        -1.0
      ],
      [
        "kal",
        -1.0
      ],
      [
        "lica",
        -1.0
      ],
      [
        "ibu",
        -1.0
      ],
      [
        "das",
        -1.0
      ],
      [
        "ÏĦ",
        -1.0
      ],
      [
        "ious",
        -1.0
      ],
      [
        "ander",
        -1.0
      ],
      [
        "ĠKar",
        -1.0
      ],
      [
        "hra",
        -1.0
      ],
      [
        "iden",
        -1.0
      ],
      [
        "itis",
        -1.0
      ],
      [
        "eba",
        -1.0
      ],
      [
        "allo",
        -1.0
      ],
      [
        "Ġfr",
        -1.0
      ],
      [
        "vie",
        -1.0
      ],
      [
        "inis",
        -1.0
      ],
      [
        "TION",
        -1.0
      ],
      [
        "riz",
        -1.0
      ],
      [
        "fra",
        -1.0
      ],
      [
        "ĠBra",
        -1.0
      ],
      [
        "BA",
        -1.0
      ],
      [
        "gha",
        -1.0
      ],
      [
        "oman",
        -1.0
      ],
      [
        "ibi",
        -1.0
      ],
      [
        "uck",
        -1.0
      ],
      [
        "dea",
        -1.0
      ],
      [
        "ican",
        -1.0
      ],
      [
        "âĢ¦âĢ¦âĢ¦",
        -1.0
      ],
      [
        "ako",
        -1.0
      ],
      [
        "Ġpi",
        -1.0
      ],
      [
        "neu",
        -1.0
      ],
      [
        "nke",
        -1.0
      ],
      [
        "Ġpl",
        -1.0
      ],
      [
        "Ex",
        -1.0
      ],
      [
        "gica",
        -1.0
      ],
      [
        "bou",
        -1.0
      ],
      [
        "elt",
        -1.0
      ],
      [
        "arte",
        -1.0
      ],
      [
        "rsh",
        -1.0
      ],
      [
        "arat",
        -1.0
      ],
      [
        "ello",
        -1.0
      ],
      [
        "ych",
        -1.0
      ],
      [
        "nten",
        -1.0
      ],
      [
        "rda",
        -1.0
      ],
      [
        "aul",
        -1.0
      ],
      [
        "alm",
        -1.0
      ],
      [
        "rali",
        -1.0
      ],
      [
        "780",
        -1.0
      ],
      [
        "dom",
        -1.0
      ],
      [
        "CC",
        -1.0
      ],
      [
        "cid",
        -1.0
      ],
      [
        "llen",
        -1.0
      ],
      [
        "poli",
        -1.0
      ],
      [
        "rso",
        -1.0
      ],
      [
        "try",
        -1.0
      ],
      [
        "hydr",
        -1.0
      ],
      [
        "ees",
        -1.0
      ],
      [
        "hus",
        -1.0
      ],
      [
        "tura",
        -1.0
      ],
      [
        "lip",
        -1.0
      ],
      [
        "edo",
        -1.0
      ],
      [
        "erk",
        -1.0
      ],
      [
        "ĠBer",
        -1.0
      ],
      [
        "hun",
        -1.0
      ],
      [
        "gue",
        -1.0
      ],
      [
        "ĠHar",
        -1.0
      ],
      [
        "sou",
        -1.0
      ],
      [
        "noc",
        -1.0
      ],
      [
        "==",
        -1.0
      ],
      [
        "rang",
        -1.0
      ],
      [
        "fre",
        -1.0
      ],
      [
        "ĠDr",
        -1.0
      ],
      [
        "iner",
        -1.0
      ],
      [
        "mpo",
        -1.0
      ],
      [
        "ipa",
        -1.0
      ],
      [
        "aly",
        -1.0
      ],
      [
        "aram",
        -1.0
      ],
      [
        "roni",
        -1.0
      ],
      [
        "bon",
        -1.0
      ],
      [
        "bla",
        -1.0
      ],
      [
        "Shi",
        -1.0
      ],
      [
        "rbe",
        -1.0
      ],
      [
        "riv",
        -1.0
      ],
      [
        "obe",
        -1.0
      ],
      [
        "hw",
        -1.0
      ],
      [
        "sec",
        -1.0
      ],
      [
        "tine",
        -1.0
      ],
      [
        "tant",
        -1.0
      ],
      [
        "shin",
        -1.0
      ],
      [
        "ento",
        -1.0
      ],
      [
        "ania",
        -1.0
      ],
      [
        "Ġlo",
        -1.0
      ],
      [
        "Ġmicr",
        -1.0
      ],
      [
        "ience",
        -1.0
      ],
      [
        "fac",
        -1.0
      ],
      [
        "lib",
        -1.0
      ],
      [
        "rle",
        -1.0
      ],
      [
        "gas",
        -1.0
      ],
      [
        "atha",
        -1.0
      ],
      [
        "econ",
        -1.0
      ],
      [
        "Ġfor",
        -1.0
      ],
      [
        "nad",
        -1.0
      ],
      [
        "oj",
        -1.0
      ],
      [
        "azi",
        -1.0
      ],
      [
        "rof",
        -1.0
      ],
      [
        "pto",
        -1.0
      ],
      [
        "rz",
        -1.0
      ],
      [
        "Mal",
        -1.0
      ],
      [
        "gt",
        -1.0
      ],
      [
        "ln",
        -1.0
      ],
      [
        "forma",
        -1.0
      ],
      [
        "oga",
        -1.0
      ],
      [
        "xp",
        -1.0
      ],
      [
        "sr",
        -1.0
      ],
      [
        "UR",
        -1.0
      ],
      [
        "ĠPol",
        -1.0
      ],
      [
        "ĠGra",
        -1.0
      ],
      [
        "TH",
        -1.0
      ],
      [
        "AA",
        -1.0
      ],
      [
        "ipp",
        -1.0
      ],
      [
        "clo",
        -1.0
      ],
      [
        "vol",
        -1.0
      ],
      [
        "Ã¦",
        -1.0
      ],
      [
        "sd",
        -1.0
      ],
      [
        "nem",
        -1.0
      ],
      [
        "Bal",
        -1.0
      ],
      [
        "thro",
        -1.0
      ],
      [
        "ĠYa",
        -1.0
      ],
      [
        "ming",
        -1.0
      ],
      [
        "hydro",
        -1.0
      ],
      [
        "eris",
        -1.0
      ],
      [
        "uv",
        -1.0
      ],
      [
        "phil",
        -1.0
      ],
      [
        "add",
        -1.0
      ],
      [
        "hana",
        -1.0
      ],
      [
        "uis",
        -1.0
      ],
      [
        "sul",
        -1.0
      ],
      [
        "zing",
        -1.0
      ],
      [
        "gia",
        -1.0
      ],
      [
        "thin",
        -1.0
      ],
      [
        "medi",
        -1.0
      ],
      [
        "OM",
        -1.0
      ],
      [
        "ants",
        -1.0
      ],
      [
        "odu",
        -1.0
      ],
      [
        "CI",
        -1.0
      ],
      [
        "arma",
        -1.0
      ],
      [
        "eq",
        -1.0
      ],
      [
        "****",
        -1.0
      ],
      [
        "dn",
        -1.0
      ],
      [
        "vid",
        -1.0
      ],
      [
        "ĠFl",
        -1.0
      ],
      [
        "nden",
        -1.0
      ],
      [
        "izi",
        -1.0
      ],
      [
        "Ġbu",
        -1.0
      ],
      [
        "aq",
        -1.0
      ],
      [
        "Is",
        -1.0
      ],
      [
        "amen",
        -1.0
      ],
      [
        "efe",
        -1.0
      ],
      [
        "Dis",
        -1.0
      ],
      [
        "inga",
        -1.0
      ],
      [
        "ĠMat",
        -1.0
      ],
      [
        "Pan",
        -1.0
      ],
      [
        "ior",
        -1.0
      ],
      [
        "ense",
        -1.0
      ],
      [
        "nai",
        -1.0
      ],
      [
        "Ci",
        -1.0
      ],
      [
        "HI",
        -1.0
      ],
      [
        "zz",
        -1.0
      ],
      [
        "lite",
        -1.0
      ],
      [
        "Ġanti",
        -1.0
      ],
      [
        "ĠCu",
        -1.0
      ],
      [
        "isp",
        -1.0
      ],
      [
        "Ġim",
        -1.0
      ],
      [
        "lling",
        -1.0
      ],
      [
        "ÎļÎļÎļÎļÎļÎļÎļÎļ",
        -1.0
      ],
      [
        "hav",
        -1.0
      ],
      [
        "assa",
        -1.0
      ],
      [
        "Ġpol",
        -1.0
      ],
      [
        "new",
        -1.0
      ],
      [
        "ĠSte",
        -1.0
      ],
      [
        "enk",
        -1.0
      ],
      [
        "ashi",
        -1.0
      ],
      [
        "uns",
        -1.0
      ],
      [
        "oria",
        -1.0
      ],
      [
        "boo",
        -1.0
      ],
      [
        "sce",
        -1.0
      ],
      [
        "but",
        -1.0
      ],
      [
        "nw",
        -1.0
      ],
      [
        "mbo",
        -1.0
      ],
      [
        "tid",
        -1.0
      ],
      [
        "iew",
        -1.0
      ],
      [
        "Lin",
        -1.0
      ],
      [
        "inst",
        -1.0
      ],
      [
        "acr",
        -1.0
      ],
      [
        "lich",
        -1.0
      ],
      [
        "hap",
        -1.0
      ],
      [
        "urt",
        -1.0
      ],
      [
        "nsu",
        -1.0
      ],
      [
        "ĠInte",
        -1.0
      ],
      [
        "Micro",
        -1.0
      ],
      [
        "Kh",
        -1.0
      ],
      [
        "gna",
        -1.0
      ],
      [
        "wel",
        -1.0
      ],
      [
        "Ġres",
        -1.0
      ],
      [
        "etra",
        -1.0
      ],
      [
        "Lan",
        -1.0
      ],
      [
        "tig",
        -1.0
      ],
      [
        "ophy",
        -1.0
      ],
      [
        "rva",
        -1.0
      ],
      [
        "gui",
        -1.0
      ],
      [
        "loo",
        -1.0
      ],
      [
        "path",
        -1.0
      ],
      [
        "cta",
        -1.0
      ],
      [
        "yer",
        -1.0
      ],
      [
        "heri",
        -1.0
      ],
      [
        "kel",
        -1.0
      ],
      [
        "aff",
        -1.0
      ],
      [
        "lize",
        -1.0
      ],
      [
        "RT",
        -1.0
      ],
      [
        "ĠVer",
        -1.0
      ],
      [
        "kat",
        -1.0
      ],
      [
        "mato",
        -1.0
      ],
      [
        "Min",
        -1.0
      ],
      [
        "ĠTri",
        -1.0
      ],
      [
        "inal",
        -1.0
      ],
      [
        "ionis",
        -1.0
      ],
      [
        "ĠBal",
        -1.0
      ],
      [
        "pot",
        -1.0
      ],
      [
        "Å¡",
        -1.0
      ],
      [
        "ĠAd",
        -1.0
      ],
      [
        "ogist",
        -1.0
      ],
      [
        "nces",
        -1.0
      ],
      [
        "GE",
        -1.0
      ],
      [
        "ÑĤ",
        -1.0
      ],
      [
        "aso",
        -1.0
      ],
      [
        "gam",
        -1.0
      ],
      [
        "Met",
        -1.0
      ],
      [
        "Jo",
        -1.0
      ],
      [
        "AI",
        -1.0
      ],
      [
        "ĠMal",
        -1.0
      ],
      [
        "Her",
        -1.0
      ],
      [
        "EM",
        -1.0
      ],
      [
        "ffi",
        -1.0
      ],
      [
        "nism",
        -1.0
      ],
      [
        "Ñģ",
        -1.0
      ],
      [
        "search",
        -1.0
      ],
      [
        "arra",
        -1.0
      ],
      [
        "aye",
        -1.0
      ],
      [
        "now",
        -1.0
      ],
      [
        "atis",
        -1.0
      ],
      [
        "xe",
        -1.0
      ],
      [
        "rif",
        -1.0
      ],
      [
        "matic",
        -1.0
      ],
      [
        "ando",
        -1.0
      ],
      [
        "iff",
        -1.0
      ],
      [
        "Za",
        -1.0
      ],
      [
        "lom",
        -1.0
      ],
      [
        "pte",
        -1.0
      ],
      [
        "ecu",
        -1.0
      ],
      [
        "indi",
        -1.0
      ],
      [
        "ĠCor",
        -1.0
      ],
      [
        "onti",
        -1.0
      ],
      [
        "Bio",
        -1.0
      ],
      [
        "aine",
        -1.0
      ],
      [
        "yin",
        -1.0
      ],
      [
        "hma",
        -1.0
      ],
      [
        "each",
        -1.0
      ],
      [
        "osis",
        -1.0
      ],
      [
        "anne",
        -1.0
      ],
      [
        "arian",
        -1.0
      ],
      [
        "hyp",
        -1.0
      ],
      [
        "arp",
        -1.0
      ],
      [
        "Ġcar",
        -1.0
      ],
      [
        "term",
        -1.0
      ],
      [
        "SH",
        -1.0
      ],
      [
        "bul",
        -1.0
      ],
      [
        "Ġva",
        -1.0
      ],
      [
        "Ġro",
        -1.0
      ],
      [
        "Ap",
        -1.0
      ],
      [
        "eau",
        -1.0
      ],
      [
        "roi",
        -1.0
      ],
      [
        "gne",
        -1.0
      ],
      [
        "Ġap",
        -1.0
      ],
      [
        "aku",
        -1.0
      ],
      [
        "nera",
        -1.0
      ],
      [
        "dm",
        -1.0
      ],
      [
        "Mic",
        -1.0
      ],
      [
        "Mor",
        -1.0
      ],
      [
        "star",
        -1.0
      ],
      [
        "exp",
        -1.0
      ],
      [
        "Mas",
        -1.0
      ],
      [
        "olin",
        -1.0
      ],
      [
        "Trans",
        -1.0
      ],
      [
        "002",
        -1.0
      ],
      [
        "eae",
        -1.0
      ],
      [
        "scri",
        -1.0
      ],
      [
        "ĠCi",
        -1.0
      ],
      [
        "nka",
        -1.0
      ],
      [
        "Ġcomp",
        -1.0
      ],
      [
        "Ġ15",
        -1.0
      ],
      [
        "IE",
        -1.0
      ],
      [
        "zen",
        -1.0
      ],
      [
        "hari",
        -1.0
      ],
      [
        "count",
        -1.0
      ],
      [
        "ĠPan",
        -1.0
      ],
      [
        "etri",
        -1.0
      ],
      [
        "ebr",
        -1.0
      ],
      [
        "rama",
        -1.0
      ],
      [
        "eres",
        -1.0
      ],
      [
        "field",
        -1.0
      ],
      [
        "ester",
        -1.0
      ],
      [
        "Ya",
        -1.0
      ],
      [
        "PR",
        -1.0
      ],
      [
        "nio",
        -1.0
      ],
      [
        "niz",
        -1.0
      ],
      [
        "Ġfl",
        -1.0
      ],
      [
        "pera",
        -1.0
      ],
      [
        "cum",
        -1.0
      ],
      [
        "efi",
        -1.0
      ],
      [
        "aft",
        -1.0
      ],
      [
        "prop",
        -1.0
      ],
      [
        "meter",
        -1.0
      ],
      [
        "ishe",
        -1.0
      ],
      [
        "ĠAnt",
        -1.0
      ],
      [
        "ois",
        -1.0
      ],
      [
        "At",
        -1.0
      ],
      [
        "mbi",
        -1.0
      ],
      [
        "cki",
        -1.0
      ],
      [
        "acea",
        -1.0
      ],
      [
        "hop",
        -1.0
      ],
      [
        "thu",
        -1.0
      ],
      [
        "anna",
        -1.0
      ],
      [
        "NO",
        -1.0
      ],
      [
        "plo",
        -1.0
      ],
      [
        "ful",
        -1.0
      ],
      [
        "mand",
        -1.0
      ],
      [
        "izing",
        -1.0
      ],
      [
        "SP",
        -1.0
      ],
      [
        "tet",
        -1.0
      ],
      [
        "fro",
        -1.0
      ],
      [
        "eus",
        -1.0
      ],
      [
        "mou",
        -1.0
      ],
      [
        "Ġad",
        -1.0
      ],
      [
        "dam",
        -1.0
      ],
      [
        "ship",
        -1.0
      ],
      [
        "aren",
        -1.0
      ],
      [
        "MO",
        -1.0
      ],
      [
        "nsc",
        -1.0
      ],
      [
        "Pal",
        -1.0
      ],
      [
        "gua",
        -1.0
      ],
      [
        "ĠShi",
        -1.0
      ],
      [
        "bert",
        -1.0
      ],
      [
        "NC",
        -1.0
      ],
      [
        "nsh",
        -1.0
      ],
      [
        "lov",
        -1.0
      ],
      [
        "time",
        -1.0
      ],
      [
        "UN",
        -1.0
      ],
      [
        "omy",
        -1.0
      ],
      [
        "tun",
        -1.0
      ],
      [
        "opl",
        -1.0
      ],
      [
        "ÉĻ",
        -1.0
      ],
      [
        "CT",
        -1.0
      ],
      [
        "ube",
        -1.0
      ],
      [
        "ej",
        -1.0
      ],
      [
        "dos",
        -1.0
      ],
      [
        "She",
        -1.0
      ],
      [
        "Ġcl",
        -1.0
      ],
      [
        "mol",
        -1.0
      ],
      [
        "ulation",
        -1.0
      ],
      [
        "Can",
        -1.0
      ],
      [
        "ipe",
        -1.0
      ],
      [
        "aras",
        -1.0
      ],
      [
        "Gl",
        -1.0
      ],
      [
        "ÏĤ",
        -1.0
      ],
      [
        "ssen",
        -1.0
      ],
      [
        "nno",
        -1.0
      ],
      [
        "eran",
        -1.0
      ],
      [
        "agu",
        -1.0
      ],
      [
        "db",
        -1.0
      ],
      [
        "Ġtrans",
        -1.0
      ],
      [
        "tee",
        -1.0
      ],
      [
        "duct",
        -1.0
      ],
      [
        "aceae",
        -1.0
      ],
      [
        "tici",
        -1.0
      ],
      [
        "tak",
        -1.0
      ],
      [
        "anic",
        -1.0
      ],
      [
        "Ju",
        -1.0
      ],
      [
        "imat",
        -1.0
      ],
      [
        "ĠInter",
        -1.0
      ],
      [
        "Ġover",
        -1.0
      ],
      [
        "hum",
        -1.0
      ],
      [
        "sand",
        -1.0
      ],
      [
        "hte",
        -1.0
      ],
      [
        "ols",
        -1.0
      ],
      [
        "gor",
        -1.0
      ],
      [
        "ĠJo",
        -1.0
      ],
      [
        "sie",
        -1.0
      ],
      [
        "ewa",
        -1.0
      ],
      [
        "GA",
        -1.0
      ],
      [
        "oke",
        -1.0
      ],
      [
        "Ġsup",
        -1.0
      ],
      [
        "mmer",
        -1.0
      ],
      [
        "tad",
        -1.0
      ],
      [
        "rau",
        -1.0
      ],
      [
        "IR",
        -1.0
      ],
      [
        "gri",
        -1.0
      ],
      [
        "Ġcont",
        -1.0
      ],
      [
        "iot",
        -1.0
      ],
      [
        "ops",
        -1.0
      ],
      [
        "scha",
        -1.0
      ],
      [
        "eam",
        -1.0
      ],
      [
        "cate",
        -1.0
      ],
      [
        "nha",
        -1.0
      ],
      [
        "sent",
        -1.0
      ],
      [
        "pes",
        -1.0
      ],
      [
        "mod",
        -1.0
      ],
      [
        "hag",
        -1.0
      ],
      [
        "kes",
        -1.0
      ],
      [
        "Ġmic",
        -1.0
      ],
      [
        "adh",
        -1.0
      ],
      [
        "inin",
        -1.0
      ],
      [
        "Ġor",
        -1.0
      ],
      [
        "roa",
        -1.0
      ],
      [
        "uff",
        -1.0
      ],
      [
        "cot",
        -1.0
      ],
      [
        "poly",
        -1.0
      ],
      [
        "AB",
        -1.0
      ],
      [
        "Ø§",
        -1.0
      ],
      [
        "rine",
        -1.0
      ],
      [
        "hyd",
        -1.0
      ],
      [
        "rik",
        -1.0
      ],
      [
        "nid",
        -1.0
      ],
      [
        "epr",
        -1.0
      ],
      [
        "nim",
        -1.0
      ],
      [
        "ebo",
        -1.0
      ],
      [
        "Ġstr",
        -1.0
      ],
      [
        "kers",
        -1.0
      ],
      [
        "tud",
        -1.0
      ],
      [
        "hers",
        -1.0
      ],
      [
        "enic",
        -1.0
      ],
      [
        "ination",
        -1.0
      ],
      [
        "Gen",
        -1.0
      ],
      [
        "ĠCal",
        -1.0
      ],
      [
        "Vo",
        -1.0
      ],
      [
        "uda",
        -1.0
      ],
      [
        "nca",
        -1.0
      ],
      [
        "VE",
        -1.0
      ],
      [
        "itch",
        -1.0
      ],
      [
        "way",
        -1.0
      ],
      [
        "mation",
        -1.0
      ],
      [
        "lak",
        -1.0
      ],
      [
        "Res",
        -1.0
      ],
      [
        "Ser",
        -1.0
      ],
      [
        "endo",
        -1.0
      ],
      [
        "Es",
        -1.0
      ],
      [
        "day",
        -1.0
      ],
      [
        "rsa",
        -1.0
      ],
      [
        "IM",
        -1.0
      ],
      [
        "ĠCol",
        -1.0
      ],
      [
        "yth",
        -1.0
      ],
      [
        "ĠVo",
        -1.0
      ],
      [
        "aud",
        -1.0
      ],
      [
        "Ġtri",
        -1.0
      ],
      [
        "ffer",
        -1.0
      ],
      [
        "Sto",
        -1.0
      ],
      [
        "elan",
        -1.0
      ],
      [
        "amu",
        -1.0
      ],
      [
        "pher",
        -1.0
      ],
      [
        "tp",
        -1.0
      ],
      [
        "aza",
        -1.0
      ],
      [
        "Para",
        -1.0
      ],
      [
        "Hy",
        -1.0
      ],
      [
        "ney",
        -1.0
      ],
      [
        "test",
        -1.0
      ],
      [
        "erh",
        -1.0
      ],
      [
        "AG",
        -1.0
      ],
      [
        "tian",
        -1.0
      ],
      [
        "atta",
        -1.0
      ],
      [
        "rien",
        -1.0
      ],
      [
        "lder",
        -1.0
      ],
      [
        "nou",
        -1.0
      ],
      [
        "like",
        -1.0
      ],
      [
        "dw",
        -1.0
      ],
      [
        "ske",
        -1.0
      ],
      [
        "Ġcons",
        -1.0
      ],
      [
        "rche",
        -1.0
      ],
      [
        "Fu",
        -1.0
      ],
      [
        "Ġsta",
        -1.0
      ],
      [
        "obo",
        -1.0
      ],
      [
        "lh",
        -1.0
      ],
      [
        "edu",
        -1.0
      ],
      [
        "Cont",
        -1.0
      ],
      [
        "hae",
        -1.0
      ],
      [
        "rla",
        -1.0
      ],
      [
        "enda",
        -1.0
      ],
      [
        "nding",
        -1.0
      ],
      [
        "erie",
        -1.0
      ],
      [
        "prot",
        -1.0
      ],
      [
        "fel",
        -1.0
      ],
      [
        "stem",
        -1.0
      ],
      [
        "iac",
        -1.0
      ],
      [
        "bol",
        -1.0
      ],
      [
        "Edi",
        -1.0
      ],
      [
        "amma",
        -1.0
      ],
      [
        "lau",
        -1.0
      ],
      [
        "jec",
        -1.0
      ],
      [
        "nell",
        -1.0
      ],
      [
        "flo",
        -1.0
      ],
      [
        "lee",
        -1.0
      ],
      [
        "sign",
        -1.0
      ],
      [
        "nders",
        -1.0
      ],
      [
        "endi",
        -1.0
      ],
      [
        "uction",
        -1.0
      ],
      [
        "tli",
        -1.0
      ],
      [
        "SO",
        -1.0
      ],
      [
        "ĠPal",
        -1.0
      ],
      [
        "Ġce",
        -1.0
      ],
      [
        "ĠGl",
        -1.0
      ],
      [
        "lement",
        -1.0
      ],
      [
        "enne",
        -1.0
      ],
      [
        "Gre",
        -1.0
      ],
      [
        "akh",
        -1.0
      ],
      [
        "tua",
        -1.0
      ],
      [
        "sle",
        -1.0
      ],
      [
        "Ġrec",
        -1.0
      ],
      [
        "isk",
        -1.0
      ],
      [
        "phic",
        -1.0
      ],
      [
        "owi",
        -1.0
      ],
      [
        "sus",
        -1.0
      ],
      [
        "onde",
        -1.0
      ],
      [
        "ider",
        -1.0
      ],
      [
        "Ġy",
        -1.0
      ],
      [
        "Ġpu",
        -1.0
      ],
      [
        "unda",
        -1.0
      ],
      [
        "ethe",
        -1.0
      ],
      [
        "omin",
        -1.0
      ],
      [
        "Ġqu",
        -1.0
      ],
      [
        "rote",
        -1.0
      ],
      [
        "TT",
        -1.0
      ],
      [
        "ogram",
        -1.0
      ],
      [
        "Ġwi",
        -1.0
      ],
      [
        "Ġsuper",
        -1.0
      ],
      [
        "smo",
        -1.0
      ],
      [
        "blo",
        -1.0
      ],
      [
        "110",
        -1.0
      ],
      [
        "cam",
        -1.0
      ],
      [
        "Ġand",
        -1.0
      ],
      [
        "water",
        -1.0
      ],
      [
        "TS",
        -1.0
      ],
      [
        "dian",
        -1.0
      ],
      [
        "erne",
        -1.0
      ],
      [
        "eir",
        -1.0
      ],
      [
        "VI",
        -1.0
      ],
      [
        "erson",
        -1.0
      ],
      [
        "sum",
        -1.0
      ],
      [
        "imm",
        -1.0
      ],
      [
        "ego",
        -1.0
      ],
      [
        "tche",
        -1.0
      ],
      [
        "vert",
        -1.0
      ],
      [
        "ots",
        -1.0
      ],
      [
        "iba",
        -1.0
      ],
      [
        "Ġtran",
        -1.0
      ],
      [
        "ahi",
        -1.0
      ],
      [
        "zh",
        -1.0
      ],
      [
        "ĠHy",
        -1.0
      ],
      [
        "eig",
        -1.0
      ],
      [
        "Ġhi",
        -1.0
      ],
      [
        "ĠJu",
        -1.0
      ],
      [
        "lun",
        -1.0
      ],
      [
        "iation",
        -1.0
      ],
      [
        "roma",
        -1.0
      ],
      [
        "rgan",
        -1.0
      ],
      [
        "arde",
        -1.0
      ],
      [
        "ATI",
        -1.0
      ],
      [
        "read",
        -1.0
      ],
      [
        "esto",
        -1.0
      ],
      [
        "ask",
        -1.0
      ],
      [
        "alization",
        -1.0
      ],
      [
        "Sal",
        -1.0
      ],
      [
        "gge",
        -1.0
      ],
      [
        "multi",
        -1.0
      ],
      [
        "asu",
        -1.0
      ],
      [
        "isin",
        -1.0
      ],
      [
        "âĢ¦âĢ¦",
        -1.0
      ],
      [
        "Tran",
        -1.0
      ],
      [
        "yla",
        -1.0
      ],
      [
        "kas",
        -1.0
      ],
      [
        "back",
        -1.0
      ],
      [
        "bot",
        -1.0
      ],
      [
        "struct",
        -1.0
      ],
      [
        "erica",
        -1.0
      ],
      [
        "oxi",
        -1.0
      ],
      [
        "esis",
        -1.0
      ],
      [
        "strat",
        -1.0
      ],
      [
        "rson",
        -1.0
      ],
      [
        "lob",
        -1.0
      ],
      [
        "itic",
        -1.0
      ],
      [
        "isse",
        -1.0
      ],
      [
        "erw",
        -1.0
      ],
      [
        "aja",
        -1.0
      ],
      [
        "ĠHer",
        -1.0
      ],
      [
        "fen",
        -1.0
      ],
      [
        "enz",
        -1.0
      ],
      [
        "illo",
        -1.0
      ],
      [
        "llar",
        -1.0
      ],
      [
        "opr",
        -1.0
      ],
      [
        "ather",
        -1.0
      ],
      [
        "fla",
        -1.0
      ],
      [
        "sph",
        -1.0
      ],
      [
        "orc",
        -1.0
      ],
      [
        "tist",
        -1.0
      ],
      [
        "vas",
        -1.0
      ],
      [
        "ĠMc",
        -1.0
      ],
      [
        "ging",
        -1.0
      ],
      [
        "etti",
        -1.0
      ],
      [
        "prin",
        -1.0
      ],
      [
        "lism",
        -1.0
      ],
      [
        "init",
        -1.0
      ],
      [
        "ality",
        -1.0
      ],
      [
        "nab",
        -1.0
      ],
      [
        "rae",
        -1.0
      ],
      [
        "mmi",
        -1.0
      ],
      [
        "Ġau",
        -1.0
      ],
      [
        "toni",
        -1.0
      ],
      [
        "ndar",
        -1.0
      ],
      [
        "Des",
        -1.0
      ],
      [
        "omen",
        -1.0
      ],
      [
        "cell",
        -1.0
      ],
      [
        "nae",
        -1.0
      ],
      [
        "ital",
        -1.0
      ],
      [
        "meric",
        -1.0
      ],
      [
        "geni",
        -1.0
      ],
      [
        "gie",
        -1.0
      ],
      [
        "Ïĥ",
        -1.0
      ],
      [
        "ural",
        -1.0
      ],
      [
        "tsch",
        -1.0
      ],
      [
        "soc",
        -1.0
      ],
      [
        "uat",
        -1.0
      ],
      [
        "201",
        -1.0
      ],
      [
        "det",
        -1.0
      ],
      [
        "***",
        -1.0
      ],
      [
        "ĠĠĠĠĠĠĠĠĠĠĠĠĠĠĠĠ",
        -1.0
      ],
      [
        "leo",
        -1.0
      ],
      [
        "glo",
        -1.0
      ],
      [
        "graphic",
        -1.0
      ],
      [
        "bet",
        -1.0
      ],
      [
        "eel",
        -1.0
      ],
      [
        "gio",
        -1.0
      ],
      [
        "gm",
        -1.0
      ],
      [
        "eil",
        -1.0
      ],
      [
        "erre",
        -1.0
      ],
      [
        "disc",
        -1.0
      ],
      [
        "TER",
        -1.0
      ],
      [
        "osta",
        -1.0
      ],
      [
        "Er",
        -1.0
      ],
      [
        "HO",
        -1.0
      ],
      [
        "sian",
        -1.0
      ],
      [
        "phon",
        -1.0
      ],
      [
        "Comp",
        -1.0
      ],
      [
        "mad",
        -1.0
      ],
      [
        "ography",
        -1.0
      ],
      [
        "squ",
        -1.0
      ],
      [
        "aid",
        -1.0
      ],
      [
        "ux",
        -1.0
      ],
      [
        "lve",
        -1.0
      ],
      [
        "Ġmet",
        -1.0
      ],
      [
        "hle",
        -1.0
      ],
      [
        "ĠLan",
        -1.0
      ],
      [
        "Ġ18",
        -1.0
      ],
      [
        "Ġman",
        -1.0
      ],
      [
        "tsu",
        -1.0
      ],
      [
        "eid",
        -1.0
      ],
      [
        "tall",
        -1.0
      ],
      [
        "sses",
        -1.0
      ],
      [
        "pul",
        -1.0
      ],
      [
        "entia",
        -1.0
      ],
      [
        "tb",
        -1.0
      ],
      [
        "ÃŃs",
        -1.0
      ],
      [
        "scu",
        -1.0
      ],
      [
        "ĠMin",
        -1.0
      ],
      [
        "ĠMic",
        -1.0
      ],
      [
        "Pri",
        -1.0
      ],
      [
        "Ġhyp",
        -1.0
      ],
      [
        "ques",
        -1.0
      ],
      [
        "ĠMas",
        -1.0
      ],
      [
        "pis",
        -1.0
      ],
      [
        "zu",
        -1.0
      ],
      [
        "iana",
        -1.0
      ],
      [
        "udo",
        -1.0
      ],
      [
        "put",
        -1.0
      ],
      [
        "ĠIs",
        -1.0
      ],
      [
        "ifo",
        -1.0
      ],
      [
        "cci",
        -1.0
      ],
      [
        "003",
        -1.0
      ],
      [
        "Ġam",
        -1.0
      ],
      [
        "fs",
        -1.0
      ],
      [
        "ulu",
        -1.0
      ],
      [
        "yle",
        -1.0
      ],
      [
        "ĠCO",
        -1.0
      ],
      [
        "ures",
        -1.0
      ],
      [
        "lah",
        -1.0
      ],
      [
        "bia",
        -1.0
      ],
      [
        "Fra",
        -1.0
      ],
      [
        "ĠAp",
        -1.0
      ],
      [
        "tou",
        -1.0
      ],
      [
        "irc",
        -1.0
      ],
      [
        "jan",
        -1.0
      ],
      [
        "lue",
        -1.0
      ],
      [
        "aar",
        -1.0
      ],
      [
        "ĠJe",
        -1.0
      ],
      [
        "Ġ16",
        -1.0
      ],
      [
        "schi",
        -1.0
      ],
      [
        "cept",
        -1.0
      ],
      [
        "BE",
        -1.0
      ],
      [
        "iness",
        -1.0
      ],
      [
        "ners",
        -1.0
      ],
      [
        "ĠShe",
        -1.0
      ],
      [
        "opt",
        -1.0
      ],
      [
        "uts",
        -1.0
      ],
      [
        "âĢĶâĢĶâĢĶâĢĶâĢĶ",
        -1.0
      ],
      [
        "hous",
        -1.0
      ],
      [
        "pir",
        -1.0
      ],
      [
        "enh",
        -1.0
      ],
      [
        "ony",
        -1.0
      ],
      [
        "rtu",
        -1.0
      ],
      [
        "tione",
        -1.0
      ],
      [
        "rmin",
        -1.0
      ],
      [
        "arri",
        -1.0
      ],
      [
        "lex",
        -1.0
      ],
      [
        "Bro",
        -1.0
      ],
      [
        "apt",
        -1.0
      ],
      [
        "cil",
        -1.0
      ],
      [
        "aker",
        -1.0
      ],
      [
        "ĠAt",
        -1.0
      ],
      [
        "dow",
        -1.0
      ],
      [
        "edic",
        -1.0
      ],
      [
        "PO",
        -1.0
      ],
      [
        "hlo",
        -1.0
      ],
      [
        "Ġti",
        -1.0
      ],
      [
        "see",
        -1.0
      ],
      [
        "011",
        -1.0
      ],
      [
        "oper",
        -1.0
      ],
      [
        "tma",
        -1.0
      ],
      [
        "uka",
        -1.0
      ],
      [
        "kon",
        -1.0
      ],
      [
        "ĠFu",
        -1.0
      ],
      [
        "Wor",
        -1.0
      ],
      [
        "Fre",
        -1.0
      ],
      [
        "meta",
        -1.0
      ],
      [
        "photo",
        -1.0
      ],
      [
        "rome",
        -1.0
      ],
      [
        "aun",
        -1.0
      ],
      [
        "ÎļÎļÎļÎļÎļÎļ",
        -1.0
      ],
      [
        "alize",
        -1.0
      ],
      [
        "esch",
        -1.0
      ],
      [
        "OP",
        -1.0
      ],
      [
        "ister",
        -1.0
      ],
      [
        "rect",
        -1.0
      ],
      [
        "light",
        -1.0
      ],
      [
        "eha",
        -1.0
      ],
      [
        "eration",
        -1.0
      ],
      [
        "irs",
        -1.0
      ],
      [
        "ced",
        -1.0
      ],
      [
        "Ġ4",
        -1.0
      ],
      [
        "athi",
        -1.0
      ],
      [
        "uba",
        -1.0
      ],
      [
        "onin",
        -1.0
      ],
      [
        "Äĵ",
        -1.0
      ],
      [
        "uel",
        -1.0
      ],
      [
        "rbi",
        -1.0
      ],
      [
        "iolo",
        -1.0
      ],
      [
        "Ðº",
        -1.0
      ],
      [
        "bha",
        -1.0
      ],
      [
        "Ġz",
        -1.0
      ],
      [
        "far",
        -1.0
      ],
      [
        "OT",
        -1.0
      ],
      [
        "Je",
        -1.0
      ],
      [
        "Ag",
        -1.0
      ],
      [
        "ctions",
        -1.0
      ],
      [
        "ogo",
        -1.0
      ],
      [
        "orti",
        -1.0
      ],
      [
        "ATION",
        -1.0
      ],
      [
        "graphy",
        -1.0
      ],
      [
        "schen",
        -1.0
      ],
      [
        "nya",
        -1.0
      ],
      [
        "yg",
        -1.0
      ],
      [
        "hera",
        -1.0
      ],
      [
        "even",
        -1.0
      ],
      [
        "Ġfe",
        -1.0
      ],
      [
        "kle",
        -1.0
      ],
      [
        "ewi",
        -1.0
      ],
      [
        "iani",
        -1.0
      ],
      [
        "ethyl",
        -1.0
      ],
      [
        "lev",
        -1.0
      ],
      [
        "ĠX",
        -1.0
      ],
      [
        "Ġq",
        -1.0
      ],
      [
        "dica",
        -1.0
      ],
      [
        "cular",
        -1.0
      ],
      [
        "EE",
        -1.0
      ],
      [
        "PI",
        -1.0
      ],
      [
        "ying",
        -1.0
      ],
      [
        "cript",
        -1.0
      ],
      [
        "hio",
        -1.0
      ],
      [
        "stal",
        -1.0
      ],
      [
        "nberg",
        -1.0
      ],
      [
        "Ġpla",
        -1.0
      ],
      [
        "hyper",
        -1.0
      ],
      [
        "erio",
        -1.0
      ],
      [
        "esen",
        -1.0
      ],
      [
        "ãĥ",
        -1.0
      ],
      [
        "ssu",
        -1.0
      ],
      [
        "thes",
        -1.0
      ],
      [
        "Ġdes",
        -1.0
      ],
      [
        "101",
        -1.0
      ],
      [
        "ĠPla",
        -1.0
      ],
      [
        "eder",
        -1.0
      ],
      [
        "itc",
        -1.0
      ],
      [
        "ays",
        -1.0
      ],
      [
        "histo",
        -1.0
      ],
      [
        "bes",
        -1.0
      ],
      [
        "rger",
        -1.0
      ],
      [
        "heo",
        -1.0
      ],
      [
        "well",
        -1.0
      ],
      [
        "sun",
        -1.0
      ],
      [
        "ndra",
        -1.0
      ],
      [
        "enu",
        -1.0
      ],
      [
        "ature",
        -1.0
      ],
      [
        "fri",
        -1.0
      ],
      [
        "upp",
        -1.0
      ],
      [
        "dev",
        -1.0
      ],
      [
        "hid",
        -1.0
      ],
      [
        "ilia",
        -1.0
      ],
      [
        "sau",
        -1.0
      ],
      [
        "anni",
        -1.0
      ],
      [
        "anes",
        -1.0
      ],
      [
        "ĠEr",
        -1.0
      ],
      [
        "Mc",
        -1.0
      ],
      [
        "Cho",
        -1.0
      ],
      [
        "moni",
        -1.0
      ],
      [
        "struc",
        -1.0
      ],
      [
        "111",
        -1.0
      ],
      [
        "sko",
        -1.0
      ],
      [
        "âĢ¦",
        -1.0
      ],
      [
        "anan",
        -1.0
      ],
      [
        "pea",
        -1.0
      ],
      [
        "nite",
        -1.0
      ],
      [
        "ĠSal",
        -1.0
      ],
      [
        "opp",
        -1.0
      ],
      [
        "format",
        -1.0
      ],
      [
        "name",
        -1.0
      ],
      [
        "itan",
        -1.0
      ],
      [
        "geo",
        -1.0
      ],
      [
        "head",
        -1.0
      ],
      [
        "enin",
        -1.0
      ],
      [
        "eol",
        -1.0
      ],
      [
        "isat",
        -1.0
      ],
      [
        "hys",
        -1.0
      ],
      [
        "uga",
        -1.0
      ],
      [
        "anz",
        -1.0
      ],
      [
        "Thi",
        -1.0
      ],
      [
        "rium",
        -1.0
      ],
      [
        "ldi",
        -1.0
      ],
      [
        "ĠMor",
        -1.0
      ],
      [
        "uca",
        -1.0
      ],
      [
        "oad",
        -1.0
      ],
      [
        "hec",
        -1.0
      ],
      [
        "ards",
        -1.0
      ],
      [
        "irt",
        -1.0
      ],
      [
        "OC",
        -1.0
      ],
      [
        "lish",
        -1.0
      ],
      [
        "unte",
        -1.0
      ],
      [
        "phor",
        -1.0
      ],
      [
        "tow",
        -1.0
      ],
      [
        "Han",
        -1.0
      ],
      [
        "hala",
        -1.0
      ],
      [
        "tten",
        -1.0
      ],
      [
        "arit",
        -1.0
      ],
      [
        "house",
        -1.0
      ],
      [
        "trin",
        -1.0
      ],
      [
        "ĠAg",
        -1.0
      ],
      [
        "llan",
        -1.0
      ],
      [
        "icke",
        -1.0
      ],
      [
        "amer",
        -1.0
      ],
      [
        "morph",
        -1.0
      ],
      [
        "tina",
        -1.0
      ],
      [
        "CR",
        -1.0
      ],
      [
        "nee",
        -1.0
      ],
      [
        "ndl",
        -1.0
      ],
      [
        "ĠMet",
        -1.0
      ],
      [
        "Ġcu",
        -1.0
      ],
      [
        "iam",
        -1.0
      ],
      [
        "erra",
        -1.0
      ],
      [
        "pie",
        -1.0
      ],
      [
        "sper",
        -1.0
      ],
      [
        "ntar",
        -1.0
      ],
      [
        "alism",
        -1.0
      ],
      [
        "shu",
        -1.0
      ],
      [
        "script",
        -1.0
      ],
      [
        "isco",
        -1.0
      ],
      [
        "zar",
        -1.0
      ],
      [
        "tap",
        -1.0
      ],
      [
        "Med",
        -1.0
      ],
      [
        "mental",
        -1.0
      ],
      [
        "asta",
        -1.0
      ],
      [
        "chol",
        -1.0
      ],
      [
        "ror",
        -1.0
      ],
      [
        "nak",
        -1.0
      ],
      [
        "Bri",
        -1.0
      ],
      [
        "adr",
        -1.0
      ],
      [
        "mari",
        -1.0
      ],
      [
        "umen",
        -1.0
      ],
      [
        "eros",
        -1.0
      ],
      [
        "uy",
        -1.0
      ],
      [
        "doc",
        -1.0
      ],
      [
        "Sy",
        -1.0
      ],
      [
        "mbr",
        -1.0
      ],
      [
        "Ġ19",
        -1.0
      ],
      [
        "arie",
        -1.0
      ],
      [
        "Ġmon",
        -1.0
      ],
      [
        "tens",
        -1.0
      ],
      [
        "mana",
        -1.0
      ],
      [
        "tial",
        -1.0
      ],
      [
        "agr",
        -1.0
      ],
      [
        "ily",
        -1.0
      ],
      [
        "mult",
        -1.0
      ],
      [
        "fiel",
        -1.0
      ],
      [
        "sting",
        -1.0
      ],
      [
        "ĠFor",
        -1.0
      ],
      [
        "roto",
        -1.0
      ],
      [
        "ision",
        -1.0
      ],
      [
        "Pat",
        -1.0
      ],
      [
        "sv",
        -1.0
      ],
      [
        "ceae",
        -1.0
      ],
      [
        "gni",
        -1.0
      ],
      [
        "via",
        -1.0
      ],
      [
        "fol",
        -1.0
      ],
      [
        "Super",
        -1.0
      ],
      [
        "lock",
        -1.0
      ],
      [
        "ĠCan",
        -1.0
      ],
      [
        "wood",
        -1.0
      ],
      [
        "usc",
        -1.0
      ],
      [
        "ĠKal",
        -1.0
      ],
      [
        "pert",
        -1.0
      ],
      [
        "esu",
        -1.0
      ],
      [
        "dig",
        -1.0
      ],
      [
        "vs",
        -1.0
      ],
      [
        "tral",
        -1.0
      ],
      [
        "orum",
        -1.0
      ],
      [
        "enberg",
        -1.0
      ],
      [
        "pil",
        -1.0
      ],
      [
        "ĠMicro",
        -1.0
      ],
      [
        "alen",
        -1.0
      ],
      [
        "oom",
        -1.0
      ],
      [
        "stein",
        -1.0
      ],
      [
        "ender",
        -1.0
      ],
      [
        "chem",
        -1.0
      ],
      [
        "cet",
        -1.0
      ],
      [
        "ml",
        -1.0
      ],
      [
        "eor",
        -1.0
      ],
      [
        "erte",
        -1.0
      ],
      [
        "book",
        -1.0
      ],
      [
        "igu",
        -1.0
      ],
      [
        "wee",
        -1.0
      ],
      [
        "info",
        -1.0
      ],
      [
        "Ġ17",
        -1.0
      ],
      [
        "Ġel",
        -1.0
      ],
      [
        "hall",
        -1.0
      ],
      [
        "nski",
        -1.0
      ],
      [
        "ader",
        -1.0
      ],
      [
        "tog",
        -1.0
      ],
      [
        "oar",
        -1.0
      ],
      [
        "gla",
        -1.0
      ],
      [
        "eep",
        -1.0
      ],
      [
        "mph",
        -1.0
      ],
      [
        "flu",
        -1.0
      ],
      [
        "ewe",
        -1.0
      ],
      [
        "RC",
        -1.0
      ],
      [
        "ump",
        -1.0
      ],
      [
        "alia",
        -1.0
      ],
      [
        "cz",
        -1.0
      ],
      [
        "eness",
        -1.0
      ],
      [
        "eut",
        -1.0
      ],
      [
        "dol",
        -1.0
      ],
      [
        "ĠBio",
        -1.0
      ],
      [
        "unn",
        -1.0
      ],
      [
        "pter",
        -1.0
      ],
      [
        "ographic",
        -1.0
      ],
      [
        "EP",
        -1.0
      ],
      [
        "lter",
        -1.0
      ],
      [
        "anat",
        -1.0
      ],
      [
        "Kal",
        -1.0
      ],
      [
        "lta",
        -1.0
      ],
      [
        "rina",
        -1.0
      ],
      [
        "roe",
        -1.0
      ],
      [
        "igo",
        -1.0
      ],
      [
        "spr",
        -1.0
      ],
      [
        "Sam",
        -1.0
      ],
      [
        "ichi",
        -1.0
      ],
      [
        "erit",
        -1.0
      ],
      [
        "Ð»",
        -1.0
      ],
      [
        "nber",
        -1.0
      ],
      [
        "rÃ©",
        -1.0
      ],
      [
        "Val",
        -1.0
      ],
      [
        "acu",
        -1.0
      ],
      [
        "uid",
        -1.0
      ],
      [
        "ible",
        -1.0
      ],
      [
        "iru",
        -1.0
      ],
      [
        "ipt",
        -1.0
      ],
      [
        "Ġ10",
        -1.0
      ],
      [
        "aan",
        -1.0
      ],
      [
        "sens",
        -1.0
      ],
      [
        "chel",
        -1.0
      ],
      [
        "ĠMA",
        -1.0
      ],
      [
        "fle",
        -1.0
      ],
      [
        "CS",
        -1.0
      ],
      [
        "rass",
        -1.0
      ],
      [
        "Ġove",
        -1.0
      ],
      [
        "ving",
        -1.0
      ],
      [
        "080",
        -1.0
      ],
      [
        "nig",
        -1.0
      ],
      [
        "bea",
        -1.0
      ],
      [
        "eath",
        -1.0
      ],
      [
        "dus",
        -1.0
      ],
      [
        "Ġmulti",
        -1.0
      ],
      [
        "sme",
        -1.0
      ],
      [
        "Wh",
        -1.0
      ],
      [
        "ages",
        -1.0
      ],
      [
        "was",
        -1.0
      ],
      [
        "Im",
        -1.0
      ],
      [
        "kam",
        -1.0
      ],
      [
        "rell",
        -1.0
      ],
      [
        "tf",
        -1.0
      ],
      [
        "hod",
        -1.0
      ],
      [
        "pper",
        -1.0
      ],
      [
        "imu",
        -1.0
      ],
      [
        "rint",
        -1.0
      ],
      [
        "tik",
        -1.0
      ],
      [
        "ĠEs",
        -1.0
      ],
      [
        "olic",
        -1.0
      ],
      [
        "insk",
        -1.0
      ],
      [
        "âĢĶâĢĶâĢĶâĢĶ",
        -1.0
      ],
      [
        "ntic",
        -1.0
      ],
      [
        "angu",
        -1.0
      ],
      [
        "oka",
        -1.0
      ],
      [
        "olar",
        -1.0
      ],
      [
        "mark",
        -1.0
      ],
      [
        "kis",
        -1.0
      ],
      [
        "onist",
        -1.0
      ],
      [
        "ĠDis",
        -1.0
      ],
      [
        "then",
        -1.0
      ],
      [
        "hik",
        -1.0
      ],
      [
        "Win",
        -1.0
      ],
      [
        "Nu",
        -1.0
      ],
      [
        "ils",
        -1.0
      ],
      [
        "itor",
        -1.0
      ],
      [
        "Ind",
        -1.0
      ],
      [
        "Ð²",
        -1.0
      ],
      [
        "uman",
        -1.0
      ],
      [
        "ross",
        -1.0
      ],
      [
        "Pra",
        -1.0
      ],
      [
        "lys",
        -1.0
      ],
      [
        "II",
        -1.0
      ],
      [
        "dul",
        -1.0
      ],
      [
        "ENT",
        -1.0
      ],
      [
        "Ġab",
        -1.0
      ],
      [
        "tically",
        -1.0
      ],
      [
        "tore",
        -1.0
      ],
      [
        "mie",
        -1.0
      ],
      [
        "iate",
        -1.0
      ],
      [
        "Ġ20",
        -1.0
      ],
      [
        "ĠEx",
        -1.0
      ],
      [
        "IP",
        -1.0
      ],
      [
        "nment",
        -1.0
      ],
      [
        "that",
        -1.0
      ],
      [
        "lang",
        -1.0
      ],
      [
        "ament",
        -1.0
      ],
      [
        "ubi",
        -1.0
      ],
      [
        "rani",
        -1.0
      ],
      [
        "ovic",
        -1.0
      ],
      [
        "lina",
        -1.0
      ],
      [
        "tot",
        -1.0
      ],
      [
        "orin",
        -1.0
      ],
      [
        "Ben",
        -1.0
      ],
      [
        "Ġ11",
        -1.0
      ],
      [
        "holo",
        -1.0
      ],
      [
        "agh",
        -1.0
      ],
      [
        "fect",
        -1.0
      ],
      [
        "abu",
        -1.0
      ],
      [
        "cult",
        -1.0
      ],
      [
        "conc",
        -1.0
      ],
      [
        "angi",
        -1.0
      ],
      [
        "rci",
        -1.0
      ],
      [
        "rca",
        -1.0
      ],
      [
        "harm",
        -1.0
      ],
      [
        "reb",
        -1.0
      ],
      [
        "thor",
        -1.0
      ],
      [
        "action",
        -1.0
      ],
      [
        "ĠCho",
        -1.0
      ],
      [
        "electro",
        -1.0
      ],
      [
        "leb",
        -1.0
      ],
      [
        "tting",
        -1.0
      ],
      [
        "formation",
        -1.0
      ],
      [
        "noi",
        -1.0
      ],
      [
        "ĠSk",
        -1.0
      ],
      [
        "phen",
        -1.0
      ],
      [
        "Ġwe",
        -1.0
      ],
      [
        "story",
        -1.0
      ],
      [
        "thal",
        -1.0
      ],
      [
        "Ġgo",
        -1.0
      ],
      [
        "ttle",
        -1.0
      ],
      [
        "teria",
        -1.0
      ],
      [
        "nner",
        -1.0
      ],
      [
        "lini",
        -1.0
      ],
      [
        "kn",
        -1.0
      ],
      [
        "eles",
        -1.0
      ],
      [
        "ads",
        -1.0
      ],
      [
        "Î»",
        -1.0
      ],
      [
        "004",
        -1.0
      ],
      [
        "sted",
        -1.0
      ],
      [
        "oche",
        -1.0
      ],
      [
        "dde",
        -1.0
      ],
      [
        "rator",
        -1.0
      ],
      [
        "onse",
        -1.0
      ],
      [
        "phal",
        -1.0
      ],
      [
        "hk",
        -1.0
      ],
      [
        "ives",
        -1.0
      ],
      [
        "hine",
        -1.0
      ],
      [
        "chil",
        -1.0
      ],
      [
        "more",
        -1.0
      ],
      [
        "Å«",
        -1.0
      ],
      [
        "ppi",
        -1.0
      ],
      [
        "owski",
        -1.0
      ],
      [
        "rous",
        -1.0
      ],
      [
        "yne",
        -1.0
      ],
      [
        "Cla",
        -1.0
      ],
      [
        "nct",
        -1.0
      ],
      [
        "anto",
        -1.0
      ],
      [
        "sg",
        -1.0
      ],
      [
        "muni",
        -1.0
      ],
      [
        "rks",
        -1.0
      ],
      [
        "Tre",
        -1.0
      ],
      [
        "hwa",
        -1.0
      ],
      [
        "woo",
        -1.0
      ],
      [
        "sop",
        -1.0
      ],
      [
        "acte",
        -1.0
      ],
      [
        "icht",
        -1.0
      ],
      [
        "Äģr",
        -1.0
      ],
      [
        "terr",
        -1.0
      ],
      [
        "omer",
        -1.0
      ],
      [
        "dist",
        -1.0
      ],
      [
        "Ã¨",
        -1.0
      ],
      [
        "aer",
        -1.0
      ],
      [
        "health",
        -1.0
      ],
      [
        "Ġ12",
        -1.0
      ],
      [
        "eff",
        -1.0
      ],
      [
        "On",
        -1.0
      ],
      [
        "sli",
        -1.0
      ],
      [
        "Ġpara",
        -1.0
      ],
      [
        "OU",
        -1.0
      ],
      [
        "tla",
        -1.0
      ],
      [
        "Sar",
        -1.0
      ],
      [
        "ĠGre",
        -1.0
      ],
      [
        "ehe",
        -1.0
      ],
      [
        "shan",
        -1.0
      ],
      [
        "gul",
        -1.0
      ],
      [
        "agg",
        -1.0
      ],
      [
        "oen",
        -1.0
      ],
      [
        "FI",
        -1.0
      ],
      [
        "amar",
        -1.0
      ],
      [
        "Ġgra",
        -1.0
      ],
      [
        "some",
        -1.0
      ],
      [
        "ishi",
        -1.0
      ],
      [
        "abb",
        -1.0
      ],
      [
        "occ",
        -1.0
      ],
      [
        "lane",
        -1.0
      ],
      [
        "ncy",
        -1.0
      ],
      [
        "rita",
        -1.0
      ],
      [
        "teg",
        -1.0
      ],
      [
        "All",
        -1.0
      ],
      [
        "opol",
        -1.0
      ],
      [
        "yto",
        -1.0
      ],
      [
        "hite",
        -1.0
      ],
      [
        "ĠBro",
        -1.0
      ],
      [
        "tani",
        -1.0
      ],
      [
        "Ġni",
        -1.0
      ],
      [
        "sne",
        -1.0
      ],
      [
        "Char",
        -1.0
      ],
      [
        "Cat",
        -1.0
      ],
      [
        "BI",
        -1.0
      ],
      [
        "Ġof",
        -1.0
      ],
      [
        "pid",
        -1.0
      ],
      [
        "Bel",
        -1.0
      ],
      [
        "ĠPra",
        -1.0
      ],
      [
        "omic",
        -1.0
      ],
      [
        "ĠPara",
        -1.0
      ],
      [
        "igen",
        -1.0
      ],
      [
        "Ġpos",
        -1.0
      ],
      [
        "sz",
        -1.0
      ],
      [
        "scho",
        -1.0
      ],
      [
        "tir",
        -1.0
      ],
      [
        "sser",
        -1.0
      ],
      [
        "contr",
        -1.0
      ],
      [
        "lers",
        -1.0
      ],
      [
        "vati",
        -1.0
      ],
      [
        "Sup",
        -1.0
      ],
      [
        "nko",
        -1.0
      ],
      [
        "neur",
        -1.0
      ],
      [
        "FA",
        -1.0
      ],
      [
        "yri",
        -1.0
      ],
      [
        "wic",
        -1.0
      ],
      [
        "ppo",
        -1.0
      ],
      [
        "asp",
        -1.0
      ],
      [
        "Nor",
        -1.0
      ],
      [
        "avo",
        -1.0
      ],
      [
        "unter",
        -1.0
      ],
      [
        "yte",
        -1.0
      ],
      [
        "niu",
        -1.0
      ],
      [
        "owa",
        -1.0
      ],
      [
        "coll",
        -1.0
      ],
      [
        "Ban",
        -1.0
      ],
      [
        "oxy",
        -1.0
      ],
      [
        "ÎļÎļÎļÎļÎļ",
        -1.0
      ],
      [
        "ophil",
        -1.0
      ],
      [
        "eim",
        -1.0
      ],
      [
        "VA",
        -1.0
      ],
      [
        "Cas",
        -1.0
      ],
      [
        "olla",
        -1.0
      ],
      [
        "Sk",
        -1.0
      ],
      [
        "ĠKan",
        -1.0
      ],
      [
        "rame",
        -1.0
      ],
      [
        "anas",
        -1.0
      ],
      [
        "Chan",
        -1.0
      ],
      [
        "nap",
        -1.0
      ],
      [
        "ĠSam",
        -1.0
      ],
      [
        "MP",
        -1.0
      ],
      [
        "PS",
        -1.0
      ],
      [
        "tyl",
        -1.0
      ],
      [
        "source",
        -1.0
      ],
      [
        "Ġci",
        -1.0
      ],
      [
        "ĠSar",
        -1.0
      ],
      [
        "Comm",
        -1.0
      ],
      [
        "fis",
        -1.0
      ],
      [
        "ario",
        -1.0
      ],
      [
        "atus",
        -1.0
      ],
      [
        "adin",
        -1.0
      ],
      [
        "sac",
        -1.0
      ],
      [
        "Ġbio",
        -1.0
      ],
      [
        "appe",
        -1.0
      ],
      [
        "Kan",
        -1.0
      ],
      [
        "iber",
        -1.0
      ],
      [
        "orb",
        -1.0
      ],
      [
        "zan",
        -1.0
      ],
      [
        "tip",
        -1.0
      ],
      [
        "imb",
        -1.0
      ],
      [
        "icia",
        -1.0
      ],
      [
        "chia",
        -1.0
      ],
      [
        "Ġat",
        -1.0
      ],
      [
        "eke",
        -1.0
      ],
      [
        "lep",
        -1.0
      ],
      [
        "Bre",
        -1.0
      ],
      [
        "Ġcor",
        -1.0
      ],
      [
        "cycl",
        -1.0
      ],
      [
        "Pen",
        -1.0
      ],
      [
        "020",
        -1.0
      ],
      [
        "Ġmar",
        -1.0
      ],
      [
        "hani",
        -1.0
      ],
      [
        "Ġwo",
        -1.0
      ],
      [
        "site",
        -1.0
      ],
      [
        "cce",
        -1.0
      ],
      [
        "siv",
        -1.0
      ],
      [
        "lution",
        -1.0
      ],
      [
        "Ġcol",
        -1.0
      ],
      [
        "umm",
        -1.0
      ],
      [
        "stone",
        -1.0
      ],
      [
        "emon",
        -1.0
      ],
      [
        "pace",
        -1.0
      ],
      [
        "with",
        -1.0
      ],
      [
        "rys",
        -1.0
      ],
      [
        "ised",
        -1.0
      ],
      [
        "eate",
        -1.0
      ],
      [
        "Îº",
        -1.0
      ],
      [
        "yam",
        -1.0
      ],
      [
        "urin",
        -1.0
      ],
      [
        "zy",
        -1.0
      ],
      [
        "etu",
        -1.0
      ],
      [
        "ching",
        -1.0
      ],
      [
        "Gal",
        -1.0
      ],
      [
        "Ġbl",
        -1.0
      ],
      [
        "nari",
        -1.0
      ],
      [
        "Ġunder",
        -1.0
      ],
      [
        "nste",
        -1.0
      ],
      [
        "Ġunde",
        -1.0
      ],
      [
        "spor",
        -1.0
      ],
      [
        "ppa",
        -1.0
      ],
      [
        "Ġins",
        -1.0
      ],
      [
        "elm",
        -1.0
      ],
      [
        "ators",
        -1.0
      ],
      [
        "eum",
        -1.0
      ],
      [
        "120",
        -1.0
      ],
      [
        "New",
        -1.0
      ],
      [
        "ĠFra",
        -1.0
      ],
      [
        "hemi",
        -1.0
      ],
      [
        "WA",
        -1.0
      ],
      [
        "ĠSy",
        -1.0
      ],
      [
        "kie",
        -1.0
      ],
      [
        "Î¼",
        -1.0
      ],
      [
        "oat",
        -1.0
      ],
      [
        "leu",
        -1.0
      ],
      [
        "ĠBen",
        -1.0
      ],
      [
        "eron",
        -1.0
      ],
      [
        "Yo",
        -1.0
      ],
      [
        "apu",
        -1.0
      ],
      [
        "ĠEu",
        -1.0
      ],
      [
        "rope",
        -1.0
      ],
      [
        "fir",
        -1.0
      ],
      [
        "Sub",
        -1.0
      ],
      [
        "inar",
        -1.0
      ],
      [
        "sters",
        -1.0
      ],
      [
        "gly",
        -1.0
      ],
      [
        "essa",
        -1.0
      ],
      [
        "tria",
        -1.0
      ],
      [
        "cts",
        -1.0
      ],
      [
        "sthe",
        -1.0
      ],
      [
        "gers",
        -1.0
      ],
      [
        "rha",
        -1.0
      ],
      [
        "cip",
        -1.0
      ],
      [
        "dc",
        -1.0
      ],
      [
        "how",
        -1.0
      ],
      [
        "My",
        -1.0
      ],
      [
        "trol",
        -1.0
      ],
      [
        "isio",
        -1.0
      ],
      [
        "alp",
        -1.0
      ],
      [
        "olli",
        -1.0
      ],
      [
        "agen",
        -1.0
      ],
      [
        "Ġhyper",
        -1.0
      ],
      [
        "Ġund",
        -1.0
      ],
      [
        "lap",
        -1.0
      ],
      [
        "Ġfu",
        -1.0
      ],
      [
        "nalis",
        -1.0
      ],
      [
        "sive",
        -1.0
      ],
      [
        "aps",
        -1.0
      ],
      [
        "Cons",
        -1.0
      ],
      [
        "ipo",
        -1.0
      ],
      [
        "resi",
        -1.0
      ],
      [
        "Anti",
        -1.0
      ],
      [
        "Men",
        -1.0
      ],
      [
        "mono",
        -1.0
      ],
      [
        "iles",
        -1.0
      ],
      [
        "choo",
        -1.0
      ],
      [
        "troph",
        -1.0
      ],
      [
        "ĠSto",
        -1.0
      ],
      [
        "ged",
        -1.0
      ],
      [
        "030",
        -1.0
      ],
      [
        "Ġpoly",
        -1.0
      ],
      [
        "scien",
        -1.0
      ],
      [
        "tsi",
        -1.0
      ],
      [
        "Sho",
        -1.0
      ],
      [
        "ford",
        -1.0
      ],
      [
        "long",
        -1.0
      ],
      [
        "inate",
        -1.0
      ],
      [
        "Mag",
        -1.0
      ],
      [
        "oris",
        -1.0
      ],
      [
        "aver",
        -1.0
      ],
      [
        "Eu",
        -1.0
      ],
      [
        "git",
        -1.0
      ],
      [
        "Gar",
        -1.0
      ],
      [
        "Ġri",
        -1.0
      ],
      [
        "wing",
        -1.0
      ],
      [
        "rick",
        -1.0
      ],
      [
        "cter",
        -1.0
      ],
      [
        "lbe",
        -1.0
      ],
      [
        "eye",
        -1.0
      ],
      [
        "nog",
        -1.0
      ],
      [
        "Ġis",
        -1.0
      ],
      [
        "ved",
        -1.0
      ],
      [
        "inen",
        -1.0
      ],
      [
        "bles",
        -1.0
      ],
      [
        "mt",
        -1.0
      ],
      [
        "ntl",
        -1.0
      ],
      [
        "Rec",
        -1.0
      ],
      [
        "pati",
        -1.0
      ],
      [
        "ogl",
        -1.0
      ],
      [
        "ĠZe",
        -1.0
      ],
      [
        "fec",
        -1.0
      ],
      [
        "outh",
        -1.0
      ],
      [
        "national",
        -1.0
      ],
      [
        "Ġver",
        -1.0
      ],
      [
        "smi",
        -1.0
      ],
      [
        "auto",
        -1.0
      ],
      [
        "Cou",
        -1.0
      ],
      [
        "tut",
        -1.0
      ],
      [
        "raw",
        -1.0
      ],
      [
        "chs",
        -1.0
      ],
      [
        "chm",
        -1.0
      ],
      [
        "nche",
        -1.0
      ],
      [
        "Ã©r",
        -1.0
      ],
      [
        "eek",
        -1.0
      ],
      [
        "archi",
        -1.0
      ],
      [
        "hill",
        -1.0
      ],
      [
        "ising",
        -1.0
      ],
      [
        "rana",
        -1.0
      ],
      [
        "lato",
        -1.0
      ],
      [
        "syn",
        -1.0
      ],
      [
        "Cam",
        -1.0
      ],
      [
        "aug",
        -1.0
      ],
      [
        "Bas",
        -1.0
      ],
      [
        "evo",
        -1.0
      ],
      [
        "lace",
        -1.0
      ],
      [
        "acro",
        -1.0
      ],
      [
        "fan",
        -1.0
      ],
      [
        "erni",
        -1.0
      ],
      [
        "cond",
        -1.0
      ],
      [
        "miss",
        -1.0
      ],
      [
        "yon",
        -1.0
      ],
      [
        "Kha",
        -1.0
      ],
      [
        "ĠLin",
        -1.0
      ],
      [
        "ĠFre",
        -1.0
      ],
      [
        "Ġ6",
        -1.0
      ],
      [
        "ylo",
        -1.0
      ],
      [
        "gno",
        -1.0
      ],
      [
        "zon",
        -1.0
      ],
      [
        "liv",
        -1.0
      ],
      [
        "eS",
        -1.0
      ],
      [
        "006",
        -1.0
      ],
      [
        "Ġgl",
        -1.0
      ],
      [
        "||",
        -1.0
      ],
      [
        "sq",
        -1.0
      ],
      [
        "Ġsy",
        -1.0
      ],
      [
        "ward",
        -1.0
      ],
      [
        "ington",
        -1.0
      ],
      [
        "Mus",
        -1.0
      ],
      [
        "egu",
        -1.0
      ],
      [
        "ntes",
        -1.0
      ],
      [
        "ĠBri",
        -1.0
      ],
      [
        "swa",
        -1.0
      ],
      [
        "Ter",
        -1.0
      ],
      [
        "Geo",
        -1.0
      ],
      [
        "amat",
        -1.0
      ],
      [
        "Mah",
        -1.0
      ],
      [
        "exa",
        -1.0
      ],
      [
        "yna",
        -1.0
      ],
      [
        "olt",
        -1.0
      ],
      [
        "nif",
        -1.0
      ],
      [
        "gani",
        -1.0
      ],
      [
        "Ġdr",
        -1.0
      ],
      [
        "etal",
        -1.0
      ],
      [
        "cant",
        -1.0
      ],
      [
        "**",
        -1.0
      ],
      [
        "sas",
        -1.0
      ],
      [
        "dition",
        -1.0
      ],
      [
        "ĠBel",
        -1.0
      ],
      [
        "psi",
        -1.0
      ],
      [
        "ilin",
        -1.0
      ],
      [
        "ips",
        -1.0
      ],
      [
        "ologists",
        -1.0
      ],
      [
        "iop",
        -1.0
      ],
      [
        "saur",
        -1.0
      ],
      [
        "hype",
        -1.0
      ],
      [
        "Ã³n",
        -1.0
      ],
      [
        "def",
        -1.0
      ],
      [
        "dep",
        -1.0
      ],
      [
        "ĠMah",
        -1.0
      ],
      [
        "Pos",
        -1.0
      ],
      [
        "toma",
        -1.0
      ],
      [
        "DO",
        -1.0
      ],
      [
        "ĠNu",
        -1.0
      ],
      [
        "oha",
        -1.0
      ],
      [
        "eka",
        -1.0
      ],
      [
        "âĢłâĢł",
        -1.0
      ],
      [
        "idge",
        -1.0
      ],
      [
        "iw",
        -1.0
      ],
      [
        "Gro",
        -1.0
      ],
      [
        "tele",
        -1.0
      ],
      [
        "mmo",
        -1.0
      ],
      [
        "artic",
        -1.0
      ],
      [
        "ipi",
        -1.0
      ],
      [
        "bell",
        -1.0
      ],
      [
        "lme",
        -1.0
      ],
      [
        "Op",
        -1.0
      ],
      [
        "MS",
        -1.0
      ],
      [
        "Mil",
        -1.0
      ],
      [
        "rave",
        -1.0
      ],
      [
        "emic",
        -1.0
      ],
      [
        "lst",
        -1.0
      ],
      [
        "icula",
        -1.0
      ],
      [
        "Spe",
        -1.0
      ],
      [
        "Ġ8",
        -1.0
      ],
      [
        "rya",
        -1.0
      ],
      [
        "dir",
        -1.0
      ],
      [
        "lear",
        -1.0
      ],
      [
        "ident",
        -1.0
      ],
      [
        "yat",
        -1.0
      ],
      [
        "mart",
        -1.0
      ],
      [
        "reme",
        -1.0
      ],
      [
        "rsch",
        -1.0
      ],
      [
        "ĠMicr",
        -1.0
      ],
      [
        "Ġinc",
        -1.0
      ],
      [
        "rut",
        -1.0
      ],
      [
        "Inf",
        -1.0
      ],
      [
        "world",
        -1.0
      ],
      [
        "Ġ5",
        -1.0
      ],
      [
        "conf",
        -1.0
      ],
      [
        "amba",
        -1.0
      ],
      [
        "xy",
        -1.0
      ],
      [
        "view",
        -1.0
      ],
      [
        "ttl",
        -1.0
      ],
      [
        "ĠKha",
        -1.0
      ],
      [
        "ÏĢ",
        -1.0
      ],
      [
        "soci",
        -1.0
      ],
      [
        "ĠMy",
        -1.0
      ],
      [
        "Ã¡n",
        -1.0
      ],
      [
        "redi",
        -1.0
      ],
      [
        "hard",
        -1.0
      ],
      [
        "nau",
        -1.0
      ],
      [
        "fun",
        -1.0
      ],
      [
        "ordi",
        -1.0
      ],
      [
        "uran",
        -1.0
      ],
      [
        "typ",
        -1.0
      ],
      [
        "ining",
        -1.0
      ],
      [
        "cture",
        -1.0
      ],
      [
        "ĠGal",
        -1.0
      ],
      [
        "yas",
        -1.0
      ],
      [
        "hay",
        -1.0
      ],
      [
        "dera",
        -1.0
      ],
      [
        "once",
        -1.0
      ],
      [
        "ĠPen",
        -1.0
      ],
      [
        "Ġá¼",
        -1.0
      ],
      [
        "inne",
        -1.0
      ],
      [
        "icit",
        -1.0
      ],
      [
        "chlor",
        -1.0
      ],
      [
        "eic",
        -1.0
      ],
      [
        "wr",
        -1.0
      ],
      [
        "mers",
        -1.0
      ],
      [
        "nting",
        -1.0
      ],
      [
        "Ts",
        -1.0
      ],
      [
        "ckl",
        -1.0
      ],
      [
        "005",
        -1.0
      ],
      [
        "RD",
        -1.0
      ],
      [
        "lack",
        -1.0
      ],
      [
        "007",
        -1.0
      ],
      [
        "nki",
        -1.0
      ],
      [
        "hac",
        -1.0
      ],
      [
        "Fil",
        -1.0
      ],
      [
        "Sol",
        -1.0
      ],
      [
        "Ġmult",
        -1.0
      ],
      [
        "tract",
        -1.0
      ],
      [
        "Ġind",
        -1.0
      ],
      [
        "sson",
        -1.0
      ],
      [
        "tural",
        -1.0
      ],
      [
        "Hel",
        -1.0
      ],
      [
        "nization",
        -1.0
      ],
      [
        "inia",
        -1.0
      ],
      [
        "icha",
        -1.0
      ],
      [
        "Os",
        -1.0
      ],
      [
        "dai",
        -1.0
      ],
      [
        "CL",
        -1.0
      ],
      [
        "ntan",
        -1.0
      ],
      [
        "lw",
        -1.0
      ],
      [
        "################",
        -1.0
      ],
      [
        "mper",
        -1.0
      ],
      [
        "tsa",
        -1.0
      ],
      [
        "sist",
        -1.0
      ],
      [
        "perc",
        -1.0
      ],
      [
        "âĢĶâĢĶâĢĶ",
        -1.0
      ],
      [
        "Sou",
        -1.0
      ],
      [
        "Bla",
        -1.0
      ],
      [
        "chy",
        -1.0
      ],
      [
        "ngel",
        -1.0
      ],
      [
        "hno",
        -1.0
      ],
      [
        "ghe",
        -1.0
      ],
      [
        "vor",
        -1.0
      ],
      [
        "astro",
        -1.0
      ],
      [
        "Ps",
        -1.0
      ],
      [
        "Ġtu",
        -1.0
      ],
      [
        "Ġinf",
        -1.0
      ],
      [
        "ĠHan",
        -1.0
      ],
      [
        "Mer",
        -1.0
      ],
      [
        "usta",
        -1.0
      ],
      [
        "IG",
        -1.0
      ],
      [
        "atan",
        -1.0
      ],
      [
        "sai",
        -1.0
      ],
      [
        "fore",
        -1.0
      ],
      [
        "Ġko",
        -1.0
      ],
      [
        "ĠTrans",
        -1.0
      ],
      [
        "ä¸",
        -1.0
      ],
      [
        "olis",
        -1.0
      ],
      [
        "cut",
        -1.0
      ],
      [
        "Nat",
        -1.0
      ],
      [
        "echa",
        -1.0
      ],
      [
        "sab",
        -1.0
      ],
      [
        "vet",
        -1.0
      ],
      [
        "astic",
        -1.0
      ],
      [
        "sht",
        -1.0
      ],
      [
        "ride",
        -1.0
      ],
      [
        "yli",
        -1.0
      ],
      [
        "Ġov",
        -1.0
      ],
      [
        "ĠSer",
        -1.0
      ],
      [
        "arge",
        -1.0
      ],
      [
        "tex",
        -1.0
      ],
      [
        "anit",
        -1.0
      ],
      [
        "Ze",
        -1.0
      ],
      [
        "itar",
        -1.0
      ],
      [
        "anus",
        -1.0
      ],
      [
        "rida",
        -1.0
      ],
      [
        "mans",
        -1.0
      ],
      [
        "mill",
        -1.0
      ],
      [
        "ames",
        -1.0
      ],
      [
        "ingi",
        -1.0
      ],
      [
        "whi",
        -1.0
      ],
      [
        "ease",
        -1.0
      ],
      [
        "tze",
        -1.0
      ],
      [
        "tul",
        -1.0
      ],
      [
        "Wil",
        -1.0
      ],
      [
        "PH",
        -1.0
      ],
      [
        "ths",
        -1.0
      ],
      [
        "Bor",
        -1.0
      ],
      [
        "eque",
        -1.0
      ],
      [
        "yar",
        -1.0
      ],
      [
        "Chr",
        -1.0
      ],
      [
        "dv",
        -1.0
      ],
      [
        "Mul",
        -1.0
      ],
      [
        "inan",
        -1.0
      ],
      [
        "mir",
        -1.0
      ],
      [
        "tk",
        -1.0
      ],
      [
        "oft",
        -1.0
      ],
      [
        "Hal",
        -1.0
      ],
      [
        "pend",
        -1.0
      ],
      [
        "ĠDes",
        -1.0
      ],
      [
        "alam",
        -1.0
      ],
      [
        "inder",
[...]
