{
  "version": "1.0",
  "truncation": null,
  "padding": null,
  "added_tokens": [
    {
      "id": 0,
      "content": "<|endoftext|>",
      "single_word": false,
      "lstrip": false,
      "rstrip": false,
      "normalized": false,
      "special": true
    },
    {
      "id": 1,
      "content": "<|padding|>",
      "single_word": false,
      "lstrip": false,
      "rstrip": false,
      "normalized": false,
      "special": true
    }
  ],
  "normalizer": {
    "type": "NFC"
  },
  "pre_tokenizer": {
    "type": "ByteLevel",
    "add_prefix_space": false,
    "trim_offsets": true,
    "use_regex": true
  },
  "post_processor": {
    "type": "ByteLevel",
    "add_prefix_space": true,
    "trim_offsets": false,
    "use_regex": true
  },
  "decoder": {
    "type": "ByteLevel",
    "add_prefix_space": true,
    "trim_offsets": true,
    "use_regex": true
  },
  "model": {
    "type": "Unigram",
    "unk_id": null,
    "vocab": [
      [
        "<|endoftext|>",
        -1.0
      ],
      [
        "<|padding|>",
        -1.0
      ],
      [
        "Ġthe",
        -1.0
      ],
      [
        ",",
        -1.0
      ],
      [
        ".",
        -1.0
      ],
      [
        "Ġof",
        -1.0
      ],
      [
        "Ġand",
        -1.0
      ],
      [
        "Ċ",
        -1.0
      ],
      [
        "Ġ",
        -1.0
      ],
      [
        "Ġto",
        -1.0
      ],
      [
        "s",
        -1.0
      ],
      [
        "Ġa",
        -1.0
      ],
      [
        "Ġin",
        -1.0
      ],
      [
        "-",
        -1.0
      ],
      [
        "Ġis",
        -1.0
      ],
      [
        "Ġthat",
        -1.0
      ],
      [
        "Ġfor",
        -1.0
      ],
      [
        "Ġ(",
        -1.0
      ],
      [
        "Ġwith",
        -1.0
      ],
      [
        "Ġare",
        -1.0
      ],
      [
        "Ġas",
        -1.0
      ],
      [
        "ed",
        -1.0
      ],
      [
        "Ġon",
        -1.0
      ],
      [
        "Ġbe",
        -1.0
      ],
      [
        "d",
        -1.0
      ],
      [
        "Ġby",
        -1.0
      ],
      [
        ":",
        -1.0
      ],
      [
        "'",
        -1.0
      ],
      [
        "ĠThe",
        -1.0
      ],
      [
        "ing",
        -1.0
      ],
      [
        "Ġor",
        -1.0
      ],
      [
        "Ġwas",
        -1.0
      ],
      [
        "Ġfrom",
        -1.0
      ],
      [
        "Ġit",
        -1.0
      ],
      [
        "e",
        -1.0
      ],
      [
        ")",
        -1.0
      ],
      [
        "y",
        -1.0
      ],
      [
        "Ġhave",
        -1.0
      ],
      [
        "Ġan",
        -1.0
      ],
      [
        "Ġnot",
        -1.0
      ],
      [
        "Ġthis",
        -1.0
      ],
      [
        "âĢĻ",
        -1.0
      ],
      [
        "Ġat",
        -1.0
      ],
      [
        "ly",
        -1.0
      ],
      [
        "Ġcan",
        -1.0
      ],
      [
        "Ġyou",
        -1.0
      ],
      [
        "The",
        -1.0
      ],
      [
        "t",
        -1.0
      ],
      [
        "Ġwhich",
        -1.0
      ],
      [
        "Ġtheir",
        -1.0
      ],
      [
        "Ġ\"",
        -1.0
      ],
      [
        "Ġthey",
        -1.0
      ],
      [
        ";",
        -1.0
      ],
      [
        "es",
        -1.0
      ],
      [
        "Ġhas",
        -1.0
      ],
      [
        "Ġmore",
        -1.0
      ],
      [
        "Ġwere",
        -1.0
      ],
      [
        "Ġwill",
        -1.0
      ],
      [
        "Ġbut",
        -1.0
      ],
      [
        "Ġone",
        -1.0
      ],
      [
        "Ġhis",
        -1.0
      ],
      [
        "Ġalso",
        -1.0
      ],
      [
        "Ġall",
        -1.0
      ],
      [
        "Ġother",
        -1.0
      ],
      [
        "ĠI",
        -1.0
      ],
      [
        ").",
        -1.0
      ],
      [
        "Ġabout",
        -1.0
      ],
      [
        "a",
        -1.0
      ],
      [
        "Ġyour",
        -1.0
      ],
      [
        "Ġwe",
        -1.0
      ],
      [
        "/",
        -1.0
      ],
      [
        "\"",
        -1.0
      ],
      [
        "Ġwho",
        -1.0
      ],
      [
        "Ġmay",
        -1.0
      ],
      [
        "Ġbeen",
        -1.0
      ],
      [
        "n",
        -1.0
      ],
      [
        "ĠA",
        -1.0
      ],
      [
        "ĠIn",
        -1.0
      ],
      [
        "Ġhe",
        -1.0
      ],
      [
        "Ġhad",
        -1.0
      ],
      [
        "Ġits",
        -1.0
      ],
      [
        "ĠâĢľ",
        -1.0
      ],
      [
        "Ġthan",
        -1.0
      ],
      [
        "Ġt",
        -1.0
      ],
      [
        "?",
        -1.0
      ],
      [
        "Ġinto",
        -1.0
      ],
      [
        "Ġwhen",
        -1.0
      ],
      [
        "Ġwould",
        -1.0
      ],
      [
        "Ġsome",
        -1.0
      ],
      [
        "Ġthese",
        -1.0
      ],
      [
        "Ġtime",
        -1.0
      ],
      [
        "ĠIt",
        -1.0
      ],
      [
        "Ġmost",
        -1.0
      ],
      [
        "Ġpeople",
        -1.0
      ],
      [
        "ĠThis",
        -1.0
      ],
      [
        "Ġso",
        -1.0
      ],
      [
        "Ġsuch",
        -1.0
      ],
      [
        "Ġthem",
        -1.0
      ],
      [
        "r",
        -1.0
      ],
      [
        "),",
        -1.0
      ],
      [
        "Ġonly",
        -1.0
      ],
      [
        "Ġthere",
        -1.0
      ],
      [
        "the",
        -1.0
      ],
      [
        "o",
        -1.0
      ],
      [
        "Ġfirst",
        -1.0
      ],
      [
        "Ġno",
        -1.0
      ],
      [
        "Ġout",
        -1.0
      ],
      [
        "Ġuse",
        -1.0
      ],
      [
        "Ġup",
        -1.0
      ],
      [
        "Ġtwo",
        -1.0
      ],
      [
        "Ġwhat",
        -1.0
      ],
      [
        "Ġused",
        -1.0
      ],
      [
        "Ġdo",
        -1.0
      ],
      [
        "Ġmany",
        -1.0
      ],
      [
        "Ġnew",
        -1.0
      ],
      [
        "Ġif",
        -1.0
      ],
      [
        "Ġ-",
        -1.0
      ],
      [
        "Ġyears",
        -1.0
      ],
      [
        "Ġour",
        -1.0
      ],
      [
        "in",
        -1.0
      ],
      [
        "Ġth",
        -1.0
      ],
      [
        "Ġover",
        -1.0
      ],
      [
        "Ġhow",
        -1.0
      ],
      [
        "Ġ1",
        -1.0
      ],
      [
        "Ġany",
        -1.0
      ],
      [
        "Ġbetween",
        -1.0
      ],
      [
        "Ġcould",
        -1.0
      ],
      [
        "|",
        -1.0
      ],
      [
        "er",
        -1.0
      ],
      [
        "Ġthrough",
        -1.0
      ],
      [
        "Ġshould",
        -1.0
      ],
      [
        "Ġlike",
        -1.0
      ],
      [
        "Ġsaid",
        -1.0
      ],
      [
        "Ġwell",
        -1.0
      ],
      [
        "Ġs",
        -1.0
      ],
      [
        "Ġwater",
        -1.0
      ],
      [
        "on",
        -1.0
      ],
      [
        "1",
        -1.0
      ],
      [
        "A",
        -1.0
      ],
      [
        "2",
        -1.0
      ],
      [
        "In",
        -1.0
      ],
      [
        "Ġwork",
        -1.0
      ],
      [
        "Ġwhere",
        -1.0
      ],
      [
        ".\"",
        -1.0
      ],
      [
        "th",
        -1.0
      ],
      [
        "and",
        -1.0
      ],
      [
        "Ġafter",
        -1.0
      ],
      [
        "Ġbecause",
        -1.0
      ],
      [
        "Ġthose",
        -1.0
      ],
      [
        "Ġi",
        -1.0
      ],
      [
        "Ġvery",
        -1.0
      ],
      [
        "re",
        -1.0
      ],
      [
        "Ġmake",
        -1.0
      ],
      [
        "S",
        -1.0
      ],
      [
        "Ġinformation",
        -1.0
      ],
      [
        "Ġp",
        -1.0
      ],
      [
        "is",
        -1.0
      ],
      [
        "Ġ2",
        -1.0
      ],
      [
        "Ġfound",
        -1.0
      ],
      [
        "Ġsystem",
        -1.0
      ],
      [
        "Ġeven",
        -1.0
      ],
      [
        "Ġeach",
        -1.0
      ],
      [
        "Ġworld",
        -1.0
      ],
      [
        "Ġchildren",
        -1.0
      ],
      [
        "or",
        -1.0
      ],
      [
        "Ġbeing",
        -1.0
      ],
      [
        "Ġmuch",
        -1.0
      ],
      [
        "m",
        -1.0
      ],
      [
        "Ġmade",
        -1.0
      ],
      [
        "Ġway",
        -1.0
      ],
      [
        "Ġduring",
        -1.0
      ],
      [
        "Ġhelp",
        -1.0
      ],
      [
        "âĢĿ",
        -1.0
      ],
      [
        ".,",
        -1.0
      ],
      [
        "Ġsame",
        -1.0
      ],
      [
        "Ġo",
        -1.0
      ],
      [
        "Ġhigh",
        -1.0
      ],
      [
        "to",
        -1.0
      ],
      [
        "Ġpart",
        -1.0
      ],
      [
        "i",
        -1.0
      ],
      [
        "at",
        -1.0
      ],
      [
        "Ġyear",
        -1.0
      ],
      [
        "Ġlife",
        -1.0
      ],
      [
        "Ġjust",
        -1.0
      ],
      [
        ",\"",
        -1.0
      ],
      [
        "ĠHe",
        -1.0
      ],
      [
        "Ġher",
        -1.0
      ],
      [
        "Ġdifferent",
        -1.0
      ],
      [
        "Ġboth",
        -1.0
      ],
      [
        "ng",
        -1.0
      ],
      [
        "Ġc",
        -1.0
      ],
      [
        "Ġbefore",
        -1.0
      ],
      [
        "Ġneed",
        -1.0
      ],
      [
        "Ġstudy",
        -1.0
      ],
      [
        "ĠThey",
        -1.0
      ],
      [
        "ĠâĢĵ",
        -1.0
      ],
      [
        "Ġstudents",
        -1.0
      ],
      [
        "Ġsee",
        -1.0
      ],
      [
        "Ġnumber",
        -1.0
      ],
      [
        "Ġunder",
        -1.0
      ],
      [
        "Ġimportant",
        -1.0
      ],
      [
        "Ġlong",
        -1.0
      ],
      [
        "Ġresearch",
        -1.0
      ],
      [
        "ĠNew",
        -1.0
      ],
      [
        "Ġnow",
        -1.0
      ],
      [
        "ĠIf",
        -1.0
      ],
      [
        "Ġ3",
        -1.0
      ],
      [
        "of",
        -1.0
      ],
      [
        "000",
        -1.0
      ],
      [
        "Ġhealth",
        -1.0
      ],
      [
        ".âĢĿ",
        -1.0
      ],
      [
        "Ġthree",
        -1.0
      ],
      [
        "3",
        -1.0
      ],
      [
        "(",
        -1.0
      ],
      [
        "Ġdata",
        -1.0
      ],
      [
        "an",
        -1.0
      ],
      [
        "Ġoften",
        -1.0
      ],
      [
        "ĠU",
        -1.0
      ],
      [
        "ted",
        -1.0
      ],
      [
        "Ġthen",
        -1.0
      ],
      [
        "ĠFor",
        -1.0
      ],
      [
        "Ġb",
        -1.0
      ],
      [
        "Ġmust",
        -1.0
      ],
      [
        "||",
        -1.0
      ],
      [
        "âĢĶ",
        -1.0
      ],
      [
        "Ġlarge",
        -1.0
      ],
      [
        "he",
        -1.0
      ],
      [
        "Ġstate",
        -1.0
      ],
      [
        "ĠUniversity",
        -1.0
      ],
      [
        "Ġcalled",
        -1.0
      ],
      [
        "Ġwhile",
        -1.0
      ],
      [
        "This",
        -1.0
      ],
      [
        "ĠS",
        -1.0
      ],
      [
        "Ġus",
        -1.0
      ],
      [
        "Ġget",
        -1.0
      ],
      [
        "ĠBut",
        -1.0
      ],
      [
        "Ġusing",
        -1.0
      ],
      [
        "Ġday",
        -1.0
      ],
      [
        "ĠAmerican",
        -1.0
      ],
      [
        "ĠC",
        -1.0
      ],
      [
        "%",
        -1.0
      ],
      [
        "ers",
        -1.0
      ],
      [
        "Ġown",
        -1.0
      ],
      [
        "us",
        -1.0
      ],
      [
        "Ġre",
        -1.0
      ],
      [
        "Ġtake",
        -1.0
      ],
      [
        "Ġgood",
        -1.0
      ],
      [
        "ally",
        -1.0
      ],
      [
        "g",
        -1.0
      ],
      [
        "Ġsmall",
        -1.0
      ],
      [
        "Ġhim",
        -1.0
      ],
      [
        "Ġincluding",
        -1.0
      ],
      [
        "Ġplace",
        -1.0
      ],
      [
        "Ġhuman",
        -1.0
      ],
      [
        "Ġexample",
        -1.0
      ],
      [
        "Ġdoes",
        -1.0
      ],
      [
        "Ġaround",
        -1.0
      ],
      [
        "Ġknown",
        -1.0
      ],
      [
        "as",
        -1.0
      ],
      [
        "Ġpower",
        -1.0
      ],
      [
        "Ġ10",
        -1.0
      ],
      [
        "Ġstill",
        -1.0
      ],
      [
        "Ġknow",
        -1.0
      ],
      [
        "h",
        -1.0
      ],
      [
        "Ġbody",
        -1.0
      ],
      [
        "ĠUnited",
        -1.0
      ],
      [
        "l",
        -1.0
      ],
      [
        "ies",
        -1.0
      ],
      [
        "5",
        -1.0
      ],
      [
        "Ġpublic",
        -1.0
      ],
      [
        "I",
        -1.0
      ],
      [
        "Ġform",
        -1.0
      ],
      [
        "Ġless",
        -1.0
      ],
      [
        "Ġfood",
        -1.0
      ],
      [
        "ĠM",
        -1.0
      ],
      [
        "Ġback",
        -1.0
      ],
      [
        "Ġenergy",
        -1.0
      ],
      [
        "Ġschool",
        -1.0
      ],
      [
        "Ġf",
        -1.0
      ],
      [
        "Ġgovernment",
        -1.0
      ],
      [
        "Ġdid",
        -1.0
      ],
      [
        "Ġcommon",
        -1.0
      ],
      [
        "Ġwithout",
        -1.0
      ],
      [
        "Ġmy",
        -1.0
      ],
      [
        "!",
        -1.0
      ],
      [
        "ĠStates",
        -1.0
      ],
      [
        ",âĢĿ",
        -1.0
      ],
      [
        "4",
        -1.0
      ],
      [
        "Ġdown",
        -1.0
      ],
      [
        "Ġdevelopment",
        -1.0
      ],
      [
        "Ġdisease",
        -1.0
      ],
      [
        "Ġwomen",
        -1.0
      ],
      [
        "Ġwithin",
        -1.0
      ],
      [
        "Ġfew",
        -1.0
      ],
      [
        "Ġarea",
        -1.0
      ],
      [
        "Ġsays",
        -1.0
      ],
      [
        "Ġanother",
        -1.0
      ],
      [
        "Ġevery",
        -1.0
      ],
      [
        "Ġmight",
        -1.0
      ],
      [
        "Ġchange",
        -1.0
      ],
      [
        "Ġ4",
        -1.0
      ],
      [
        "Ġright",
        -1.0
      ],
      [
        "Ġgreat",
        -1.0
      ],
      [
        "Ġearly",
        -1.0
      ],
      [
        "ĠB",
        -1.0
      ],
      [
        "ĠThese",
        -1.0
      ],
      [
        "Ġ5",
        -1.0
      ],
      [
        "st",
        -1.0
      ],
      [
        "Ġprocess",
        -1.0
      ],
      [
        "Ġpercent",
        -1.0
      ],
      [
        "Ġagainst",
        -1.0
      ],
      [
        "Ġspecies",
        -1.0
      ],
      [
        "ĠNational",
        -1.0
      ],
      [
        "âĢĵ",
        -1.0
      ],
      [
        "ĠWe",
        -1.0
      ],
      [
        "Ġinclude",
        -1.0
      ],
      [
        "ĠT",
        -1.0
      ],
      [
        "Ġw",
        -1.0
      ],
      [
        "Ġ&",
        -1.0
      ],
      [
        "Ġfind",
        -1.0
      ],
      [
        "Ġchild",
        -1.0
      ],
      [
        "Ġhistory",
        -1.0
      ],
      [
        "Ġ[",
        -1.0
      ],
      [
        "ĠD",
        -1.0
      ],
      [
        "Ġshe",
        -1.0
      ],
      [
        "Ġde",
        -1.0
      ],
      [
        "ts",
        -1.0
      ],
      [
        "Ġseveral",
        -1.0
      ],
      [
        "ĠAs",
        -1.0
      ],
      [
        "it",
        -1.0
      ],
      [
        "Ġm",
        -1.0
      ],
      [
        "Ġgroup",
        -1.0
      ],
      [
        "Ġrisk",
        -1.0
      ],
      [
        "Ġblood",
        -1.0
      ],
      [
        "ity",
        -1.0
      ],
      [
        "ĠThere",
        -1.0
      ],
      [
        "en",
        -1.0
      ],
      [
        "Ġbecome",
        -1.0
      ],
      [
        "It",
        -1.0
      ],
      [
        "Ġprovide",
        -1.0
      ],
      [
        "Ġlast",
        -1.0
      ],
      [
        "Ġsince",
        -1.0
      ],
      [
        "Ġamong",
        -1.0
      ],
      [
        "Ġ'",
        -1.0
      ],
      [
        "Ġsupport",
        -1.0
      ],
      [
        "Ġavailable",
        -1.0
      ],
      [
        "Ġfamily",
        -1.0
      ],
      [
        "Ġend",
        -1.0
      ],
      [
        "Ġd",
        -1.0
      ],
      [
        "Ġco",
        -1.0
      ],
      [
        "Ġper",
        -1.0
      ],
      [
        "Ġorder",
        -1.0
      ],
      [
        "ĠAnd",
        -1.0
      ],
      [
        "Ġcontrol",
        -1.0
      ],
      [
        "âĢľ",
        -1.0
      ],
      [
        "Ġname",
        -1.0
      ],
      [
        "Ġareas",
        -1.0
      ],
      [
        "Ġresult",
        -1.0
      ],
      [
        "al",
        -1.0
      ],
      [
        "ĠâĢĶ",
        -1.0
      ],
      [
        "Ġpossible",
        -1.0
      ],
      [
        "Ġset",
        -1.0
      ],
      [
        "ĠP",
        -1.0
      ],
      [
        "Ġgo",
        -1.0
      ],
      [
        "Ġoff",
        -1.0
      ],
      [
        "Ġpresent",
        -1.0
      ],
      [
        "Ġmeans",
        -1.0
      ],
      [
        "Ġcountry",
        -1.0
      ],
      [
        "c",
        -1.0
      ],
      [
        "ĠGod",
        -1.0
      ],
      [
        "Ġ20",
        -1.0
      ],
      [
        "Ġfollowing",
        -1.0
      ],
      [
        "Ġsocial",
        -1.0
      ],
      [
        "Ġpoint",
        -1.0
      ],
      [
        "Ġlocal",
        -1.0
      ],
      [
        "Ġuntil",
        -1.0
      ],
      [
        "Ġbetter",
        -1.0
      ],
      [
        "Ġlight",
        -1.0
      ],
      [
        "Ġcause",
        -1.0
      ],
      [
        "Ġgiven",
        -1.0
      ],
      [
        "ĠYou",
        -1.0
      ],
      [
        "ĠJ",
        -1.0
      ],
      [
        "Ġlevel",
        -1.0
      ],
      [
        "Ġ$",
        -1.0
      ],
      [
        "ĠWhen",
        -1.0
      ],
      [
        "Ġperson",
        -1.0
      ],
      [
        "Ġprogram",
        -1.0
      ],
      [
        "ĠE",
        -1.0
      ],
      [
        "Ġmillion",
        -1.0
      ],
      [
        "Ġhome",
        -1.0
      ],
      [
        "Ġme",
        -1.0
      ],
      [
        "]",
        -1.0
      ],
      [
        "Ġtreatment",
        -1.0
      ],
      [
        "Ġlater",
        -1.0
      ],
      [
        "ĠR",
        -1.0
      ],
      [
        "Ġothers",
        -1.0
      ],
      [
        "Ġtimes",
        -1.0
      ],
      [
        "Ġlittle",
        -1.0
      ],
      [
        "Ġhere",
        -1.0
      ],
      [
        "Ġcurrent",
        -1.0
      ],
      [
        "Ġbest",
        -1.0
      ],
      [
        "Ġbased",
        -1.0
      ],
      [
        "Ġe",
        -1.0
      ],
      [
        "Ġland",
        -1.0
      ],
      [
        "Ġcase",
        -1.0
      ],
      [
        "Ġsecond",
        -1.0
      ],
      [
        "Ġcentury",
        -1.0
      ],
      [
        "Ġman",
        -1.0
      ],
      [
        "f",
        -1.0
      ],
      [
        "Ġcells",
        -1.0
      ],
      [
        "Ġsay",
        -1.0
      ],
      [
        "Ġproblems",
        -1.0
      ],
      [
        "C",
        -1.0
      ],
      [
        "Ġfact",
        -1.0
      ],
      [
        "Ġ6",
        -1.0
      ],
      [
        "Ġlow",
        -1.0
      ],
      [
        "Ġcancer",
        -1.0
      ],
      [
        "Ġnatural",
        -1.0
      ],
      [
        "Ġwant",
        -1.0
      ],
      [
        "Ġtoo",
        -1.0
      ],
      [
        "Ġhowever",
        -1.0
      ],
      [
        "ĠH",
        -1.0
      ],
      [
        "Ġpopulation",
        -1.0
      ],
      [
        "Ġfour",
        -1.0
      ],
      [
        "Ġthink",
        -1.0
      ],
      [
        "Ġcertain",
        -1.0
      ],
      [
        "Ġproblem",
        -1.0
      ],
      [
        "Ġthings",
        -1.0
      ],
      [
        "Ġbook",
        -1.0
      ],
      [
        "rs",
        -1.0
      ],
      [
        "Ġmajor",
        -1.0
      ],
      [
        "D",
        -1.0
      ],
      [
        "Ġdon",
        -1.0
      ],
      [
        "Ġlevels",
        -1.0
      ],
      [
        "Ġdays",
        -1.0
      ],
      [
        "0",
        -1.0
      ],
      [
        "Ġusually",
        -1.0
      ],
      [
        "6",
        -1.0
      ],
      [
        "Ġ--",
        -1.0
      ],
      [
        "Ġalong",
        -1.0
      ],
      [
        "Ġcome",
        -1.0
      ],
      [
        "Ġage",
        -1.0
      ],
      [
        "Ġtype",
        -1.0
      ],
      [
        "Ġcommunity",
        -1.0
      ],
      [
        "Ġlikely",
        -1.0
      ],
      [
        "Ġ|",
        -1.0
      ],
      [
        "Ġabove",
        -1.0
      ],
      [
        "ve",
        -1.0
      ],
      [
        "Ġperiod",
        -1.0
      ],
      [
        "Ġsystems",
        -1.0
      ],
      [
        "ry",
        -1.0
      ],
      [
        "Ġmen",
        -1.0
      ],
      [
        "Ġbecame",
        -1.0
      ],
      [
        "ĠTo",
        -1.0
      ],
      [
        "Ġlook",
        -1.0
      ],
      [
        "Ġleast",
        -1.0
      ],
      [
        "Ġreport",
        -1.0
      ],
      [
        "\".",
        -1.0
      ],
      [
        "Ġproject",
        -1.0
      ],
      [
        "Ġparticular",
        -1.0
      ],
      [
        "Ġeducation",
        -1.0
      ],
      [
        "Ġsite",
        -1.0
      ],
      [
        "Ġresults",
        -1.0
      ],
      [
        "If",
        -1.0
      ],
      [
        "Ġcountries",
        -1.0
      ],
      [
        "We",
        -1.0
      ],
      [
        "Ġable",
        -1.0
      ],
      [
        "Ġleft",
        -1.0
      ],
      [
        "Ġnext",
        -1.0
      ],
      [
        "p",
        -1.0
      ],
      [
        "Ġfar",
        -1.0
      ],
      [
        "Ġnon",
        -1.0
      ],
      [
        "ĠâĢĺ",
        -1.0
      ],
      [
        "Ġal",
        -1.0
      ],
      [
        "Ġlaw",
        -1.0
      ],
      [
        "Ġh",
        -1.0
      ],
      [
        "Ġcare",
        -1.0
      ],
      [
        "Ġincrease",
        -1.0
      ],
      [
        "Ġlanguage",
        -1.0
      ],
      [
        "Ġtoday",
        -1.0
      ],
      [
        "Ġgeneral",
        -1.0
      ],
      [
        "Ġcourse",
        -1.0
      ],
      [
        "ĠWorld",
        -1.0
      ],
      [
        "Ġfree",
        -1.0
      ],
      [
        "ĠAmerica",
        -1.0
      ],
      [
        "Ġexperience",
        -1.0
      ],
      [
        "Ġmaking",
        -1.0
      ],
      [
        "ĠWhat",
        -1.0
      ],
      [
        "Ġwords",
        -1.0
      ],
      [
        "Ġsimilar",
        -1.0
      ],
      [
        "Ġnever",
        -1.0
      ],
      [
        "Ġtest",
        -1.0
      ],
      [
        "Ġair",
        -1.0
      ],
      [
        "Ġconditions",
        -1.0
      ],
      [
        "Ġscience",
        -1.0
      ],
      [
        "ĠYork",
        -1.0
      ],
      [
        "ting",
        -1.0
      ],
      [
        "Ġun",
        -1.0
      ],
      [
        "Ġchanges",
        -1.0
      ],
      [
        "Ġgive",
        -1.0
      ],
      [
        "What",
        -1.0
      ],
      [
        "Ġstudies",
        -1.0
      ],
      [
        "Ġ12",
        -1.0
      ],
      [
        "ll",
        -1.0
      ],
      [
        "Ġcity",
        -1.0
      ],
      [
        "Ġshow",
        -1.0
      ],
      [
        "Ġhigher",
        -1.0
      ],
      [
        "ĠWar",
        -1.0
      ],
      [
        "Ġcontain",
        -1.0
      ],
      [
        "Ġheart",
        -1.0
      ],
      [
        "Ġwhether",
        -1.0
      ],
      [
        "Ġfull",
        -1.0
      ],
      [
        "Ġupon",
        -1.0
      ],
      [
        "Ġalways",
        -1.0
      ],
      [
        "Ġtogether",
        -1.0
      ],
      [
        "Ġfuture",
        -1.0
      ],
      [
        "Ġvarious",
        -1.0
      ],
      [
        "8",
        -1.0
      ],
      [
        "Ġdue",
        -1.0
      ],
      [
        "Ġsomething",
        -1.0
      ],
      [
        "Ġtechnology",
        -1.0
      ],
      [
        "Ġaway",
        -1.0
      ],
      [
        "Ġcreate",
        -1.0
      ],
      [
        "Ġgroups",
        -1.0
      ],
      [
        "ĠF",
        -1.0
      ],
      [
        "Ġopen",
        -1.0
      ],
      [
        "Ġr",
        -1.0
      ],
      [
        "Ġresearchers",
        -1.0
      ],
      [
        "Ġenough",
        -1.0
      ],
      [
        "Ġspecific",
        -1.0
      ],
      [
        "Ġeffects",
        -1.0
      ],
      [
        "Ġcases",
        -1.0
      ],
      [
        "Ġspace",
        -1.0
      ],
      [
        "Ġ15",
        -1.0
      ],
      [
        "Ġespecially",
        -1.0
      ],
      [
        "Ġ8",
        -1.0
      ],
      [
        "There",
        -1.0
      ],
      [
        "com",
        -1.0
      ],
      [
        "For",
        -1.0
      ],
      [
        "Ġdeveloped",
        -1.0
      ],
      [
        "Ġpatients",
        -1.0
      ],
      [
        "Ġold",
        -1.0
      ],
      [
        "Ġacross",
        -1.0
      ],
      [
        "ĠSome",
        -1.0
      ],
      [
        "ĠJohn",
        -1.0
      ],
      [
        "Ġlearning",
        -1.0
      ],
      [
        "7",
        -1.0
      ],
      [
        "Ġdeath",
        -1.0
      ],
      [
        "Ġsurface",
        -1.0
      ],
      [
        "Ġside",
        -1.0
      ],
      [
        "Ġfurther",
        -1.0
      ],
      [
        "Ġwar",
        -1.0
      ],
      [
        ".)",
        -1.0
      ],
      [
        "Ġhaving",
        -1.0
      ],
      [
        "Ġyoung",
        -1.0
      ],
      [
        "Ġrather",
        -1.0
      ],
      [
        "ĠState",
        -1.0
      ],
      [
        "Ġlearn",
        -1.0
      ],
      [
        "Ġeither",
        -1.0
      ],
      [
        "Ġfield",
        -1.0
      ],
      [
        "ĠEnglish",
        -1.0
      ],
      [
        "Ġ7",
        -1.0
      ],
      [
        "Ġpolitical",
        -1.0
      ],
      [
        "Ġpotential",
        -1.0
      ],
      [
        "ĠL",
        -1.0
      ],
      [
        "Ġworking",
        -1.0
      ],
      [
        "Ġshort",
        -1.0
      ],
      [
        "Ġdevelop",
        -1.0
      ],
      [
        "Ġnear",
        -1.0
      ],
      [
        "Ġplants",
        -1.0
      ],
      [
        "Ġbrain",
        -1.0
      ],
      [
        "Ġproduction",
        -1.0
      ],
      [
        "Ġlive",
        -1.0
      ],
      [
        "Ġthough",
        -1.0
      ],
      [
        "Ġevidence",
        -1.0
      ],
      [
        "Ġaccess",
        -1.0
      ],
      [
        "Ġfive",
        -1.0
      ],
      [
        "Ġstrong",
        -1.0
      ],
      [
        "Ġmaterial",
        -1.0
      ],
      [
        "ĠNorth",
        -1.0
      ],
      [
        "Ġ30",
        -1.0
      ],
      [
        "Ġnational",
        -1.0
      ],
      [
        "Ġindividual",
        -1.0
      ],
      [
        "Ġsubject",
        -1.0
      ],
      [
        "Ġline",
        -1.0
      ],
      [
        "ns",
        -1.0
      ],
      [
        "Ġmain",
        -1.0
      ],
      [
        "ĠG",
        -1.0
      ],
      [
        "ĠN",
        -1.0
      ],
      [
        "Ġsingle",
        -1.0
      ],
      [
        "for",
        -1.0
      ],
      [
        "Ġeffect",
        -1.0
      ],
      [
        "ĠEarth",
        -1.0
      ],
      [
        "Ġaccording",
        -1.0
      ],
      [
        "Ġplant",
        -1.0
      ],
      [
        "Ġtaken",
        -1.0
      ],
      [
        "10",
        -1.0
      ],
      [
        "Ġthought",
        -1.0
      ],
      [
        "://",
        -1.0
      ],
      [
        "Ġresources",
        -1.0
      ],
      [
        "Ġpast",
        -1.0
      ],
      [
        "ĠOne",
        -1.0
      ],
      [
        "Ġkeep",
        -1.0
      ],
      [
        "ĠW",
        -1.0
      ],
      [
        "ĠHealth",
        -1.0
      ],
      [
        "ĠSouth",
        -1.0
      ],
      [
        "Ġcame",
        -1.0
      ],
      [
        "Ġpublished",
        -1.0
      ],
      [
        "Ġrange",
        -1.0
      ],
      [
        "Ġvalue",
        -1.0
      ],
      [
        "Ġalready",
        -1.0
      ],
      [
        "able",
        -1.0
      ],
      [
        "Ġsource",
        -1.0
      ],
      [
        "Ġread",
        -1.0
      ],
      [
        "Ġneeds",
        -1.0
      ],
      [
        "Ġlead",
        -1.0
      ],
      [
        "Ġrights",
        -1.0
      ],
      [
        "Ġdesign",
        -1.0
      ],
      [
        "Ġeconomic",
        -1.0
      ],
      [
        "ĠOn",
        -1.0
      ],
      [
        "Ġlower",
        -1.0
      ],
      [
        "Ġappear",
        -1.0
      ],
      [
        "Ġseen",
        -1.0
      ],
      [
        "nd",
        -1.0
      ],
      [
        "Ġput",
        -1.0
      ],
      [
        "Ġenvironment",
        -1.0
      ],
      [
        "Ġbegan",
        -1.0
      ],
      [
        "Ġdifficult",
        -1.0
      ],
      [
        "Ġmedical",
        -1.0
      ],
      [
        "Ġgoing",
        -1.0
      ],
      [
        "Ġamount",
        -1.0
      ],
      [
        "Ġmembers",
        -1.0
      ],
      [
        "Ġarticle",
        -1.0
      ],
      [
        "Ġrequire",
        -1.0
      ],
      [
        "Ġwhy",
        -1.0
      ],
      [
        "...",
        -1.0
      ],
      [
        "Ġword",
        -1.0
      ],
      [
        "Ġactivity",
        -1.0
      ],
      [
        "Ġstates",
        -1.0
      ],
      [
        "Ġknowledge",
        -1.0
      ],
      [
        "Ġview",
        -1.0
      ],
      [
        "Ġwhole",
        -1.0
      ],
      [
        "Ġactivities",
        -1.0
      ],
      [
        "Ġdone",
        -1.0
      ],
      [
        "Ġ2012",
        -1.0
      ],
      [
        "Ġclimate",
        -1.0
      ],
      [
        "Ġbelow",
        -1.0
      ],
      [
        "Ġrole",
        -1.0
      ],
      [
        "Ġitself",
        -1.0
      ],
      [
        "Ġaddition",
        -1.0
      ],
      [
        "Ġphysical",
        -1.0
      ],
      [
        "Ġcreated",
        -1.0
      ],
      [
        "Ġclass",
        -1.0
      ],
      [
        "Ġmatter",
        -1.0
      ],
      [
        "Ġunderstand",
        -1.0
      ],
      [
        "):",
        -1.0
      ],
      [
        "Ġissue",
        -1.0
      ],
      [
        "ĠSo",
        -1.0
      ],
      [
        "Ġthemselves",
        -1.0
      ],
      [
        "Ġgrowth",
        -1.0
      ],
      [
        "Ġhand",
        -1.0
      ],
      [
        "Ġcannot",
        -1.0
      ],
      [
        "Ġagain",
        -1.0
      ],
      [
        "Ġbuilding",
        -1.0
      ],
      [
        "Ġreal",
        -1.0
      ],
      [
        "Ġsize",
        -1.0
      ],
      [
        "Ġreally",
        -1.0
      ],
      [
        "Ġanimals",
        -1.0
      ],
      [
        "Ġwhite",
        -1.0
      ],
      [
        "Ġhalf",
        -1.0
      ],
      [
        "Ġconsidered",
        -1.0
      ],
      [
        "Ġways",
        -1.0
      ],
      [
        "Ġliving",
        -1.0
      ],
      [
        "Ġreduce",
        -1.0
      ],
      [
        "Ġ.",
        -1.0
      ],
      [
        "by",
        -1.0
      ],
      [
        "ĠThat",
        -1.0
      ],
      [
        "ĠResearch",
        -1.0
      ],
      [
        "Ġmodel",
        -1.0
      ],
      [
        "Ġ2011",
        -1.0
      ],
      [
        "Ġ2010",
        -1.0
      ],
      [
        "Ġalmost",
        -1.0
      ],
      [
        "Ġincreased",
        -1.0
      ],
      [
        "Ġtook",
        -1.0
      ],
      [
        "As",
        -1.0
      ],
      [
        "Ġquestion",
        -1.0
      ],
      [
        "ability",
        -1.0
      ],
      [
        "ĠAll",
        -1.0
      ],
      [
        "Ġprevent",
        -1.0
      ],
      [
        "Ġmakes",
        -1.0
      ],
      [
        "Ġpressure",
        -1.0
      ],
      [
        "Ġnature",
        -1.0
      ],
      [
        "Ġsignificant",
        -1.0
      ],
      [
        "Ġrelated",
        -1.0
      ],
      [
        "ĠBritish",
        -1.0
      ],
      [
        "Ġpaper",
        -1.0
      ],
      [
        "Ġsymptoms",
        -1.0
      ],
      [
        "Ġscientists",
        -1.0
      ],
      [
        "ĠMay",
        -1.0
      ],
      [
        "Ġregion",
        -1.0
      ],
      [
        "Ġtypes",
        -1.0
      ],
      [
        "ĠAn",
        -1.0
      ],
      [
        "Ġ0",
        -1.0
      ],
      [
        "ĠCenter",
        -1.0
      ],
      [
        "Ġplay",
        -1.0
      ],
      [
        "Ġrate",
        -1.0
      ],
      [
        "9",
        -1.0
      ],
      [
        "Ġassociated",
        -1.0
      ],
      [
        "Ġmonths",
        -1.0
      ],
      [
        "Ġteam",
        -1.0
      ],
      [
        "Ġblack",
        -1.0
      ],
      [
        "ons",
        -1.0
      ],
      [
        "Ġfollow",
        -1.0
      ],
      [
        "Ġaccount",
        -1.0
      ],
      [
        "Ġglobal",
        -1.0
      ],
      [
        "Ġneeded",
        -1.0
      ],
      [
        "b",
        -1.0
      ],
      [
        "Ġproducts",
        -1.0
      ],
      [
        "Ġyet",
        -1.0
      ],
      [
        "Ġonce",
        -1.0
      ],
      [
        "Ġproduce",
        -1.0
      ],
      [
        "Ġoriginal",
        -1.0
      ],
      [
        "Ġkey",
        -1.0
      ],
      [
        "ĠO",
        -1.0
      ],
      [
        "_",
        -1.0
      ],
      [
        "Ġprovided",
        -1.0
      ],
      [
        "Ġcomputer",
        -1.0
      ],
      [
        "Ġquality",
        -1.0
      ],
      [
        "When",
        -1.0
      ],
      [
        "Ġrequired",
        -1.0
      ],
      [
        "ĠDr",
        -1.0
      ],
      [
        "Ġcell",
        -1.0
      ],
      [
        "ĠAt",
        -1.0
      ],
      [
        "Ġprograms",
        -1.0
      ],
      [
        "Ġpage",
        -1.0
      ],
      [
        "Ġquestions",
        -1.0
      ],
      [
        "Ġ11",
        -1.0
      ],
      [
        "Ġmaterials",
        -1.0
      ],
      [
        "Ġprovides",
        -1.0
      ],
      [
        "Ġl",
        -1.0
      ],
      [
        "ions",
        -1.0
      ],
      [
        "Ġself",
        -1.0
      ],
      [
        "Ġ9",
        -1.0
      ],
      [
        "that",
        -1.0
      ],
      [
        "Ġallow",
        -1.0
      ],
      [
        "Ġ100",
        -1.0
      ],
      [
        "Ġrecent",
        -1.0
      ],
      [
        "Ġactually",
        -1.0
      ],
      [
        "Ġtotal",
        -1.0
      ],
      [
        "ĠHis",
        -1.0
      ],
      [
        "Ġsimple",
        -1.0
      ],
      [
        "Ġmodern",
        -1.0
      ],
      [
        "Ġstory",
        -1.0
      ],
      [
        "ty",
        -1.0
      ],
      [
        "ĠScience",
        -1.0
      ],
      [
        "Ġgas",
        -1.0
      ],
      [
        "Ġidea",
        -1.0
      ],
      [
        "ĠNo",
        -1.0
      ],
      [
        "Ġhard",
        -1.0
      ],
      [
        "Ġcost",
        -1.0
      ],
      [
        "ĠInstitute",
        -1.0
      ],
      [
        "lly",
        -1.0
      ],
      [
        "Ġterm",
        -1.0
      ],
      [
        "Ġimpact",
        -1.0
      ],
      [
        "Ġparts",
        -1.0
      ],
      [
        "Ġstudent",
        -1.0
      ],
      [
        "Ġ2009",
        -1.0
      ],
      [
        "Ġissues",
        -1.0
      ],
      [
        "Ġoil",
        -1.0
      ],
      [
        "ar",
        -1.0
      ],
      [
        "Ġschools",
        -1.0
      ],
      [
        "Ġground",
        -1.0
      ],
      [
        "Ġclear",
        -1.0
      ],
      [
        "ĠBy",
        -1.0
      ],
      [
        "Ġpractice",
        -1.0
      ],
      [
        "Ġworks",
        -1.0
      ],
      [
        "Ġstart",
        -1.0
      ],
      [
        "Ġsense",
        -1.0
      ],
      [
        "Ġclose",
        -1.0
      ],
      [
        "Ġplan",
        -1.0
      ],
      [
        "Ġnormal",
        -1.0
      ],
      [
        "Ġservices",
        -1.0
      ],
      [
        "ĠDepartment",
        -1.0
      ],
      [
        "Ġenvironmental",
        -1.0
      ],
      [
        "Ġeffective",
        -1.0
      ],
      [
        "se",
        -1.0
      ],
      [
        "Ġaverage",
        -1.0
      ],
      [
        "Ġfunction",
        -1.0
      ],
      [
        "Ġservice",
        -1.0
      ],
      [
        "Ġapproach",
        -1.0
      ],
      [
        "Ġspecial",
        -1.0
      ],
      [
        "Ġfocus",
        -1.0
      ],
      [
        "u",
        -1.0
      ],
      [
        "Ġnecessary",
        -1.0
      ],
      [
        "Ġloss",
        -1.0
      ],
      [
        "Ġunderstanding",
        -1.0
      ],
      [
        "--",
        -1.0
      ],
      [
        "ic",
        -1.0
      ],
      [
        "Ġhttp",
        -1.0
      ],
      [
        "Ġhead",
        -1.0
      ],
      [
        "To",
        -1.0
      ],
      [
        "Ġshows",
        -1.0
      ],
      [
        "based",
        -1.0
      ],
      [
        "ĠSt",
        -1.0
      ],
      [
        "Ġ2008",
        -1.0
      ],
      [
        "le",
        -1.0
      ],
      [
        "Ġbuilt",
        -1.0
      ],
      [
        "Ġ18",
        -1.0
      ],
      [
        "Ġparents",
        -1.0
      ],
      [
        "Ġmoney",
        -1.0
      ],
      [
        "Ġterms",
        -1.0
      ],
      [
        "Ġmanagement",
        -1.0
      ],
      [
        "Ġ=",
        -1.0
      ],
      [
        "Ġreported",
        -1.0
      ],
      [
        "But",
        -1.0
      ],
      [
        "x",
        -1.0
      ],
      [
        "ĠAfter",
        -1.0
      ],
      [
        "Ġ50",
        -1.0
      ],
      [
        "Ġever",
        -1.0
      ],
      [
        "Ġcontent",
        -1.0
      ],
      [
        "Ġsoil",
        -1.0
      ],
      [
        "Ġtext",
        -1.0
      ],
      [
        "Ġimage",
        -1.0
      ],
      [
        "Ġentire",
        -1.0
      ],
      [
        "Ġfish",
        -1.0
      ],
      [
        "Ġthroughout",
        -1.0
      ],
      [
        "Ġhours",
        -1.0
      ],
      [
        "Ġlonger",
        -1.0
      ],
      [
        "Ġreturn",
        -1.0
      ],
      [
        "Ġtrue",
        -1.0
      ],
      [
        "Ġreading",
        -1.0
      ],
      [
        "Ġreason",
        -1.0
      ],
      [
        "Ġn",
        -1.0
      ],
      [
        "Ġbehavior",
        -1.0
      ],
      [
        "Ġlist",
        -1.0
      ],
      [
        "Ġgreater",
        -1.0
      ],
      [
        "Ġmethod",
        -1.0
      ],
      [
        "Ġcontact",
        -1.0
      ],
      [
        "Ġweight",
        -1.0
      ],
      [
        "Ġposition",
        -1.0
      ],
      [
        "ĠUS",
        -1.0
      ],
      [
        "Ġsix",
        -1.0
      ],
      [
        "te",
        -1.0
      ],
      [
        "Ġwritten",
        -1.0
      ],
      [
        "Ġpurpose",
        -1.0
      ],
      [
        "Ġmove",
        -1.0
      ],
      [
        "ness",
        -1.0
      ],
      [
        "Ġdoctor",
        -1.0
      ],
      [
        "Ġskin",
        -1.0
      ],
      [
        "Ġlate",
        -1.0
      ],
      [
        "Ġscientific",
        -1.0
      ],
      [
        "Ġinterest",
        -1.0
      ],
      [
        "Ġbelieve",
        -1.0
      ],
      [
        "Ġaction",
        -1.0
      ],
      [
        "Ġanalysis",
        -1.0
      ],
      [
        "ĠHow",
        -1.0
      ],
      [
        "Ġgenerally",
        -1.0
      ],
      [
        "Ġproduced",
        -1.0
      ],
      [
        "Ġcaused",
        -1.0
      ],
      [
        "Ġfactors",
        -1.0
      ],
      [
        "Ġindustry",
        -1.0
      ],
      [
        "ĠSchool",
        -1.0
      ],
      [
        "Ġkind",
        -1.0
      ],
      [
        "Ġcomplex",
        -1.0
      ],
      [
        "Ġdesigned",
        -1.0
      ],
      [
        "Ġsometime",
        -1.0
      ],
      [
        "Ġstructure",
        -1.0
      ],
      [
        "ĠGerman",
        -1.0
      ],
      [
        "Ġincludes",
        -1.0
      ],
      [
        "Ġ16",
        -1.0
      ],
      [
        "Ġ14",
        -1.0
      ],
      [
        "Ġfeet",
        -1.0
      ],
      [
        "ĠK",
        -1.0
      ],
      [
        "Ġdamage",
        -1.0
      ],
      [
        "Ġinfluence",
        -1.0
      ],
      [
        "Ġprobably",
        -1.0
      ],
      [
        "ĠCalifornia",
        -1.0
      ],
      [
        "Ġforce",
        -1.0
      ],
      [
        "Ġshown",
        -1.0
      ],
      [
        "ĠEurope",
        -1.0
      ],
      [
        "Ġmilitary",
        -1.0
      ],
      [
        "Ġweek",
        -1.0
      ],
      [
        "ĠEuropean",
        -1.0
      ],
      [
        "Ġinternational",
        -1.0
      ],
      [
        "Ġ2007",
        -1.0
      ],
      [
        "Ġwide",
        -1.0
      ],
      [
        "Ġ25",
        -1.0
      ],
      [
        "www",
        -1.0
      ],
      [
        "Ġtemperature",
        -1.0
      ],
      [
        "Ġoccur",
        -1.0
      ],
      [
        "Ġincreasing",
        -1.0
      ],
      [
        "Ġestablished",
        -1.0
      ],
      [
        "Ġsources",
        -1.0
      ],
      [
        "Ġheld",
        -1.0
      ],
      [
        "Ġbusiness",
        -1.0
      ],
      [
        "est",
        -1.0
      ],
      [
        "Ġ19",
        -1.0
      ],
      [
        "12",
        -1.0
      ],
      [
        "Ġtaking",
        -1.0
      ],
      [
        "Ġsociety",
        -1.0
      ],
      [
        "ĠMarch",
        -1.0
      ],
      [
        "Ġevents",
        -1.0
      ],
      [
        "Ġcall",
        -1.0
      ],
      [
        "Ġpolicy",
        -1.0
      ],
      [
        "Ġtop",
        -1.0
      ],
      [
        "Ġago",
        -1.0
      ],
      [
        "Ġstandard",
        -1.0
      ],
      [
        "Ġseries",
        -1.0
      ],
      [
        "Ġsea",
        -1.0
      ],
      [
        "Ġfinding",
        -1.0
      ],
      [
        "Ġonline",
        -1.0
      ],
      [
        "ĠWith",
        -1.0
      ],
      [
        "Ġmean",
        -1.0
      ],
      [
        "ely",
        -1.0
      ],
      [
        "Ġinvolved",
        -1.0
      ],
      [
        "org",
        -1.0
      ],
      [
        "are",
        -1.0
      ],
      [
        "Ġindividuals",
        -1.0
      ],
      [
        "Ġincluded",
        -1.0
      ],
      [
        "Ġg",
        -1.0
      ],
      [
        "Ġsituation",
        -1.0
      ],
      [
        "ĠWashington",
        -1.0
      ],
      [
        "Ġvariety",
        -1.0
      ],
      [
        "ĠJune",
        -1.0
      ],
      [
        "Ġsimply",
        -1.0
      ],
      [
        "Ġpersonal",
        -1.0
      ],
      [
        "Ġnumbers",
        -1.0
      ],
      [
        "Ġmovement",
        -1.0
      ],
      [
        "Ġgrow",
        -1.0
      ],
      [
        "ĠPress",
        -1.0
      ],
      [
        "Ġ13",
        -1.0
      ],
      [
        "Ġdeep",
        -1.0
      ],
      [
        "Ġaddress",
        -1.0
      ],
      [
        "Ġmaintain",
        -1.0
      ],
      [
        "ated",
        -1.0
      ],
      [
        "k",
        -1.0
      ],
      [
        "Ġcondition",
        -1.0
      ],
      [
        "ĠRiver",
        -1.0
      ],
      [
        "Ġrepresent",
        -1.0
      ],
      [
        "Ġbring",
        -1.0
      ],
      [
        "Ġturn",
        -1.0
      ],
      [
        "Ġpoor",
        -1.0
      ],
      [
        "Ġhouse",
        -1.0
      ],
      [
        "Ġha",
        -1.0
      ],
      [
        "Ġanimal",
        -1.0
      ],
      [
        "Ġfeel",
        -1.0
      ],
      [
        "Ġoutside",
        -1.0
      ],
      [
        "Ġdeveloping",
        -1.0
      ],
      [
        "ĠFrench",
        -1.0
      ],
      [
        "Ġwhose",
        -1.0
      ],
      [
        "Ġimprove",
        -1.0
      ],
      [
        "Ġtraining",
        -1.0
      ],
      [
        "Ġforms",
        -1.0
      ],
      [
        "um",
        -1.0
      ],
      [
        "Ġse",
        -1.0
      ],
      [
        "Ġcarbon",
        -1.0
      ],
      [
        "Ġcauses",
        -1.0
      ],
      [
        "Ġalthough",
        -1.0
      ],
      [
        "T",
        -1.0
      ],
      [
        "Ġca",
        -1.0
      ],
      [
        "ĠApril",
        -1.0
      ],
      [
        "Ġskills",
        -1.0
      ],
      [
        "Ġresponse",
        -1.0
      ],
      [
        "ĠHistory",
        -1.0
      ],
      [
        "Ġpost",
        -1.0
      ],
      [
        "Ġconsider",
        -1.0
      ],
      [
        "red",
        -1.0
      ],
      [
        "You",
        -1.0
      ],
      [
        "Ġbasic",
        -1.0
      ],
      [
        "Ġcomplete",
        -1.0
      ],
      [
        "all",
        -1.0
      ],
      [
        "ĠInternational",
        -1.0
      ],
      [
        "Ġsure",
        -1.0
      ],
      [
        "\",",
        -1.0
      ],
      [
        "Ġdetermine",
        -1.0
      ],
      [
        "ĠII",
        -1.0
      ],
      [
        "Ġmind",
        -1.0
      ],
      [
        "Ġcomes",
        -1.0
      ],
      [
        "ĠWhile",
        -1.0
      ],
      [
        "ĠMany",
        -1.0
      ],
      [
        "During",
        -1.0
      ],
      [
        "Ġmethods",
        -1.0
      ],
      [
        "Ġclaim",
        -1.0
      ],
      [
        "w",
        -1.0
      ],
      [
        "Ġmiles",
        -1.0
      ],
      [
        "Ġadded",
        -1.0
      ],
      [
        "Ġrun",
        -1.0
      ],
      [
        "ĠChina",
        -1.0
      ],
      [
        "Ġlives",
        -1.0
      ],
      [
        "ce",
        -1.0
      ],
      [
        "Ġserious",
        -1.0
      ],
      [
        "Ġlot",
        -1.0
      ],
      [
        "ne",
        -1.0
      ],
      [
        "On",
        -1.0
      ],
      [
        "Ġetc",
        -1.0
      ],
      [
        "Ġmarket",
        -1.0
      ],
      [
        "Ġculture",
        -1.0
      ],
      [
        "Ġfederal",
        -1.0
      ],
      [
        "ĠJuly",
        -1.0
      ],
      [
        "Ġcontinue",
        -1.0
      ],
      [
        "Ġpain",
        -1.0
      ],
      [
        "Ġthird",
        -1.0
      ],
      [
        "Ġcompany",
        -1.0
      ],
      [
        "Ġprotect",
        -1.0
      ],
      [
        "ĠAfrica",
        -1.0
      ],
      [
        "Ġlarger",
        -1.0
      ],
      [
        "Ġuses",
        -1.0
      ],
      [
        "ĠAfrican",
        -1.0
      ],
      [
        "Ġauthor",
        -1.0
      ],
      [
        "tions",
        -1.0
      ],
      [
        "ĠWest",
        -1.0
      ],
      [
        "with",
        -1.0
      ],
      [
        "Ġdecision",
        -1.0
      ],
      [
        "Ġspread",
        -1.0
      ],
      [
        "Ġ17",
        -1.0
      ],
      [
        "Ġtherefore",
        -1.0
      ],
      [
        "Ġoffer",
        -1.0
      ],
      [
        "Ġsites",
        -1.0
      ],
      [
        "Ġteachers",
        -1.0
      ],
      [
        "Ġma",
        -1.0
      ],
      [
        "Ġfall",
        -1.0
      ],
      [
        "Ġpopular",
        -1.0
      ],
      [
        "Ġinstead",
        -1.0
      ],
      [
        "Ġhealthy",
        -1.0
      ],
      [
        "Ġnation",
        -1.0
      ],
      [
        "Ġfo",
        -1.0
      ],
      [
        "Ġled",
        -1.0
      ],
      [
        "ion",
        -1.0
      ],
      [
        "Ġbooks",
        -1.0
      ],
      [
        "Ġreceived",
        -1.0
      ],
      [
        "Ġnearly",
        -1.0
      ],
      [
        "Ġadditional",
        -1.0
      ],
      [
        "Ġwriting",
        -1.0
      ],
      [
        "one",
        -1.0
      ],
      [
        "Ġhimself",
        -1.0
      ],
      [
        "Ġheat",
        -1.0
      ],
      [
        "Ġattention",
        -1.0
      ],
      [
        "Ġ/",
        -1.0
      ],
      [
        "Ġthing",
        -1.0
      ],
      [
        "Ġgrowing",
        -1.0
      ],
      [
        "Ġprimary",
        -1.0
      ],
      [
        "Ġtraditional",
        -1.0
      ],
      [
        "ĠEngland",
        -1.0
      ],
      [
        "ĠMost",
        -1.0
      ],
      [
        "Ġreligious",
        -1.0
      ],
      [
        "ĠCounty",
        -1.0
      ],
      [
        "Ġprivate",
        -1.0
      ],
      [
        "ĠPresident",
        -1.0
      ],
      [
        "ĠChurch",
        -1.0
      ],
      [
        "How",
        -1.0
      ],
      [
        "Ġquite",
        -1.0
      ],
      [
        "Ġbuild",
        -1.0
      ],
      [
        "Ġseems",
        -1.0
      ],
      [
        "Ġbeginning",
        -1.0
      ],
      [
        "Ġdoing",
        -1.0
      ],
      [
        "Ġmusic",
        -1.0
      ],
      [
        "ĠIndia",
        -1.0
      ],
      [
        "M",
        -1.0
      ],
      [
        "Ġfire",
        -1.0
      ],
      [
        "Ġdepend",
        -1.0
      ],
      [
        "Ġ2006",
        -1.0
      ],
      [
        "Ġshall",
        -1.0
      ],
      [
        "Ġet",
        -1.0
      ],
      [
        "Ġcommunities",
        -1.0
      ],
      [
        "Ġdescribed",
        -1.0
      ],
      [
        "Ġsafety",
        -1.0
      ],
      [
        "Ġfamilies",
        -1.0
      ],
      [
        "ĠAct",
        -1.0
      ],
      [
        "Ġbrought",
        -1.0
      ],
      [
        "Ġeasy",
        -1.0
      ],
      [
        "Ġ40",
        -1.0
      ],
      [
        "Ġproper",
        -1.0
      ],
      [
        "ĠJanuary",
        -1.0
      ],
      [
        "Ġvisit",
        -1.0
      ],
      [
        "Ġred",
        -1.0
      ],
      [
        "Ġface",
        -1.0
      ],
      [
        "Ġprevious",
        -1.0
      ],
      [
        "Ġobject",
        -1.0
      ],
      [
        "Ġdirectly",
        -1.0
      ],
      [
        "E",
        -1.0
      ],
      [
        "Ġcolor",
        -1.0
      ],
      [
        "ĠShe",
        -1.0
      ],
      [
        "Ġlargest",
        -1.0
      ],
      [
        "Ġsolar",
        -1.0
      ],
      [
        "Ġthus",
        -1.0
      ],
      [
        "Ġdirect",
        -1.0
      ],
      [
        "B",
        -1.0
      ],
      [
        "11",
        -1.0
      ],
      [
        "Ġtreat",
        -1.0
      ],
      [
        "Ġact",
        -1.0
      ],
      [
        "Ġ24",
        -1.0
      ],
      [
        ");",
        -1.0
      ],
      [
        "ĠSeptember",
        -1.0
      ],
      [
        "Ġbig",
        -1.0
      ],
      [
        "Ġshare",
        -1.0
      ],
      [
        "ĠAlthough",
        -1.0
      ],
      [
        "Because",
        -1.0
      ],
      [
        "Ġearth",
        -1.0
      ],
      [
        "Ġnight",
        -1.0
      ],
      [
        "Ġ21",
        -1.0
      ],
      [
        "like",
        -1.0
      ],
      [
        "Ġefforts",
        -1.0
      ],
      [
        "Ġpoints",
        -1.0
      ],
      [
        "ĠAmericans",
        -1.0
      ],
      [
        "Ġcentral",
        -1.0
      ],
      [
        "Ġwa",
        -1.0
      ],
      [
        "year",
        -1.0
      ],
      [
        "ĠOctober",
        -1.0
      ],
      [
        "Ġideas",
        -1.0
      ],
      [
        "Ġart",
        -1.0
      ],
      [
        "Ġsection",
        -1.0
      ],
      [
        "Ġavoid",
        -1.0
      ],
      [
        "Ġattempt",
        -1.0
      ],
      [
        "up",
        -1.0
      ],
      [
        "ĠCity",
        -1.0
      ],
      [
        "Ġst",
        -1.0
      ],
      [
        "Ġanswer",
        -1.0
      ],
      [
        "ĠAugust",
        -1.0
      ],
      [
        "ĠGeneral",
        -1.0
      ],
      [
        "Ġpre",
        -1.0
      ],
      [
        "Ġappropriate",
        -1.0
      ],
      [
        "Ġimages",
        -1.0
      ],
      [
        "Ġmass",
        -1.0
      ],
      [
        "Ġtakes",
        -1.0
      ],
      [
        "Ġrecord",
        -1.0
      ],
      [
        "Ġtrees",
        -1.0
      ],
      [
        "ĠIndian",
        -1.0
      ],
      [
        "Ġ2005",
        -1.0
      ],
      [
        "Ġhumans",
        -1.0
      ],
      [
        "Ġlack",
        -1.0
      ],
      [
        "ory",
        -1.0
      ],
      [
        "Ġbenefits",
        -1.0
      ],
      [
        "Ġproduct",
        -1.0
      ],
      [
        "Ġsupply",
        -1.0
      ],
      [
        "Ġlocated",
        -1.0
      ],
      [
        "Ġteaching",
        -1.0
      ],
      [
        "Ġfuel",
        -1.0
      ],
      [
        "Ġadd",
        -1.0
      ],
      [
        "Ġlimited",
        -1.0
      ],
      [
        "Ġflow",
        -1.0
      ],
      [
        "Ġtell",
        -1.0
      ],
      [
        "Ġ2000",
        -1.0
      ],
      [
        "Ġmeaning",
        -1.0
      ],
      [
        "ĠJewish",
        -1.0
      ],
      [
        "ĠCanada",
        -1.0
      ],
      [
        "Ġreceive",
        -1.0
      ],
      [
        "Ġdiet",
        -1.0
      ],
      [
        "Ġgreen",
        -1.0
      ],
      [
        "Ġhighly",
        -1.0
      ],
      [
        "ĠKing",
        -1.0
      ],
      [
        "Ġtools",
        -1.0
      ],
      [
        "Ġv",
        -1.0
      ],
      [
        "Ġstarted",
        -1.0
      ],
      [
        "Ġborn",
        -1.0
      ],
      [
        "P",
        -1.0
      ],
      [
        "Ġlost",
        -1.0
      ],
      [
        "Ġcompared",
        -1.0
      ],
      [
        "Ġinfection",
        -1.0
      ],
      [
        "Ġperformance",
        -1.0
      ],
      [
        "Ġleading",
        -1.0
      ],
      [
        "Ġancient",
        -1.0
      ],
      [
        "Ġessential",
        -1.0
      ],
      [
        "Ġwent",
        -1.0
      ],
      [
        "Ġdoesn",
        -1.0
      ],
      [
        "ĠDecember",
        -1.0
      ],
      [
        "Ġbehind",
        -1.0
      ],
      [
        "Ġfoods",
        -1.0
      ],
      [
        "Ġforces",
        -1.0
      ],
      [
        "Ġeasily",
        -1.0
      ],
      [
        "ation",
        -1.0
      ],
      [
        "Ġrates",
        -1.0
      ],
      [
        "Ġworkers",
        -1.0
      ],
      [
        "Ġsound",
        -1.0
      ],
      [
        "F",
        -1.0
      ],
      [
        "Ġdied",
        -1.0
      ],
      [
        "ĠSociety",
        -1.0
      ],
      [
        "Ġlength",
        -1.0
      ],
      [
        "Ġattack",
        -1.0
      ],
      [
        "Ġunit",
        -1.0
      ],
      [
        "One",
        -1.0
      ],
      [
        "Ġproperty",
        -1.0
      ],
      [
        "Ġcritical",
        -1.0
      ],
      [
        "Ġevent",
        -1.0
      ],
      [
        "Ġactive",
        -1.0
      ],
      [
        "R",
        -1.0
      ],
      [
        "Ġpatient",
        -1.0
      ],
      [
        "Ġchemical",
        -1.0
      ],
      [
        "Ġuseful",
        -1.0
      ],
      [
        "Ġmonth",
        -1.0
      ],
      [
        "Ġprotection",
        -1.0
      ],
      [
        "Ġrest",
        -1.0
      ],
      [
        "ary",
        -1.0
      ],
      [
        "ĠRetrieved",
        -1.0
      ],
      [
        "Ġtarget",
        -1.0
      ],
      [
        "Ġindicate",
        -1.0
      ],
      [
        "Ġlove",
        -1.0
      ],
      [
        "Ġnetwork",
        -1.0
      ],
      [
        "Ġwrote",
        -1.0
      ],
      [
        "be",
        -1.0
      ],
      [
        "Ġtests",
        -1.0
      ],
      [
        "âĢ¢",
        -1.0
      ],
      [
        "Ġstep",
        -1.0
      ],
      [
        "ĠGreat",
        -1.0
      ],
      [
        "Ġnorth",
        -1.0
      ],
      [
        "Ġlocation",
        -1.0
      ],
      [
        "Ġeye",
        -1.0
      ],
      [
        "Ġcenter",
        -1.0
      ],
      [
        "Ġtree",
        -1.0
      ],
      [
        "Ġlooking",
        -1.0
      ],
      [
        "Ġnothing",
        -1.0
      ],
      [
        "Ġdifference",
        -1.0
      ],
      [
        "ĠTh",
        -1.0
      ],
      [
        "Ġexposure",
        -1.0
      ],
      [
        "Ġapplication",
        -1.0
      ],
      [
        "ĠEducation",
        -1.0
      ],
      [
        "Ġgetting",
        -1.0
      ],
      [
        "Ġ2013",
        -1.0
      ],
      [
        "Ġsoon",
        -1.0
      ],
      [
        "Ġbasis",
        -1.0
      ],
      [
        "Ġkids",
        -1.0
      ],
      [
        "Ġfeatures",
        -1.0
      ],
      [
        "Ġinside",
        -1.0
      ],
      [
        "Ġvalues",
        -1.0
      ],
      [
        "Ġcut",
        -1.0
      ],
      [
        "Ġcontinued",
        -1.0
      ],
      [
        "ĠCo",
        -1.0
      ],
      [
        "Ġdrug",
        -1.0
      ],
      [
        "Ġsolution",
        -1.0
      ],
      [
        "Ġpass",
        -1.0
      ],
      [
        "Ġstandards",
        -1.0
      ],
      [
        "Ġweeks",
        -1.0
      ],
      [
        "Ġmedia",
        -1.0
      ],
      [
        "Ġremains",
        -1.0
      ],
      [
        "Ġtravel",
        -1.0
      ],
      [
        "Ġrecently",
        -1.0
      ],
      [
        "Ġfile",
        -1.0
      ],
      [
        "Ġtoward",
        -1.0
      ],
      [
        "N",
        -1.0
      ],
      [
        "Ġmeasure",
        -1.0
      ],
      [
        "ĠFirst",
        -1.0
      ],
      [
        "ĠJournal",
        -1.0
      ],
      [
        "Ġtry",
        -1.0
      ],
      [
        "Ġsummer",
        -1.0
      ],
      [
        "Ġbegin",
        -1.0
      ],
      [
        "ĠFrom",
        -1.0
      ],
      [
        "And",
        -1.0
      ],
      [
        "Ġcollection",
        -1.0
      ],
      [
        "Ġelements",
        -1.0
      ],
      [
        "Ġformer",
        -1.0
      ],
      [
        "Ġsample",
        -1.0
      ],
      [
        "which",
        -1.0
      ],
      [
        "Ġlaws",
        -1.0
      ],
      [
        "Ġexercise",
        -1.0
      ],
      [
        "Ġdiseases",
        -1.0
      ],
      [
        "Ġlines",
        -1.0
      ],
      [
        "Ġpositive",
        -1.0
      ],
      [
        "time",
        -1.0
      ],
      [
        "sed",
        -1.0
      ],
      [
        "Ġplaces",
        -1.0
      ],
      [
        "By",
        -1.0
      ],
      [
        "Ġar",
        -1.0
      ],
      [
        "Ġdemand",
        -1.0
      ],
      [
        "Ġnews",
        -1.0
      ],
      [
        "ever",
        -1.0
      ],
      [
        "ĠMore",
        -1.0
      ],
      [
        "Ġensure",
        -1.0
      ],
      [
        "Ġtrade",
        -1.0
      ],
      [
        "Ġcosts",
        -1.0
      ],
      [
        "Ġprojects",
        -1.0
      ],
      [
        "Ġwebsite",
        -1.0
      ],
      [
        "Ġlet",
        -1.0
      ],
      [
        "ĠLondon",
        -1.0
      ],
      [
        "ĠAssociation",
        -1.0
      ],
      [
        "Ġearlier",
        -1.0
      ],
      [
        "Ġexpected",
        -1.0
      ],
      [
        "Ġbillion",
        -1.0
      ],
      [
        "Ġsecurity",
        -1.0
      ],
      [
        "Ġvideo",
        -1.0
      ],
      [
        "Ġdaily",
        -1.0
      ],
      [
        "Ġhands",
        -1.0
      ],
      [
        "20",
        -1.0
      ],
      [
        "Ġsearch",
        -1.0
      ],
      [
        "Ġmember",
        -1.0
      ],
      [
        "Ġobjects",
        -1.0
      ],
      [
        "Ġlink",
        -1.0
      ],
      [
        "Ġmeeting",
        -1.0
      ],
      [
        "Ġhistorical",
        -1.0
      ],
      [
        "from",
        -1.0
      ],
      [
        "ĠHIV",
        -1.0
      ],
      [
        "Ġdiscuss",
        -1.0
      ],
      [
        "Ġsouth",
        -1.0
      ],
      [
        "Ġmiddle",
        -1.0
      ],
      [
        "Ġtold",
        -1.0
      ],
      [
        "Ġdrugs",
        -1.0
      ],
      [
        "Ġcompanies",
        -1.0
      ],
      [
        "Ġmemory",
        -1.0
      ],
      [
        "Ġmultiple",
        -1.0
      ],
      [
        "Ġdescribe",
        -1.0
      ],
      [
        "term",
        -1.0
      ],
      [
        "Ġbirds",
        -1.0
      ],
      [
        "ĠCongress",
        -1.0
      ],
      [
        "Ġsoftware",
        -1.0
      ],
      [
        "ĠEast",
        -1.0
      ],
      [
        "Ġtown",
        -1.0
      ],
      [
        "Ġcar",
        -1.0
      ],
      [
        "Ġadults",
        -1.0
      ],
      [
        "ĠUnion",
        -1.0
      ],
      [
        "Ġasked",
        -1.0
      ],
      [
        "Ġunique",
        -1.0
      ],
      [
        "Ġhope",
        -1.0
      ],
      [
        "Ġnamed",
        -1.0
      ],
      [
        "ĠV",
        -1.0
      ],
      [
        "Ġsomeone",
        -1.0
      ],
      [
        "Ġallows",
        -1.0
      ],
      [
        "Ġdi",
        -1.0
      ],
      [
        "Ġsuggest",
        -1.0
      ],
      [
        "Ġweather",
        -1.0
      ],
      [
        "Ġbirth",
        -1.0
      ],
      [
        "Ġgenetic",
        -1.0
      ],
      [
        "Ġbeyond",
        -1.0
      ],
      [
        "ĠFebruary",
        -1.0
      ],
      [
        "Ġdiscussion",
        -1.0
      ],
      [
        "Ġfinal",
        -1.0
      ],
      [
        "Ġspeed",
        -1.0
      ],
      [
        "Ġlegal",
        -1.0
      ],
      [
        "Ġconstruction",
        -1.0
      ],
      [
        "Ġmeet",
        -1.0
      ],
      [
        "Ġsafe",
        -1.0
      ],
      [
        "Ġeffort",
        -1.0
      ],
      [
        "res",
        -1.0
      ],
      [
        "Ġolder",
        -1.0
      ],
      [
        "Ġ2004",
        -1.0
      ],
      [
        "Ġcultural",
        -1.0
      ],
      [
        "Ġchurch",
        -1.0
      ],
      [
        "Ġremain",
        -1.0
      ],
      [
        "Ġreview",
        -1.0
      ],
      [
        "Ġseem",
        -1.0
      ],
      [
        "ĠHouse",
        -1.0
      ],
      [
        "Ġbase",
        -1.0
      ],
      [
        "Ġsuccess",
        -1.0
      ],
      [
        "Ġminutes",
        -1.0
      ],
      [
        "Ġfather",
        -1.0
      ],
      [
        "Ġperhaps",
        -1.0
      ],
      [
        "Ġanything",
        -1.0
      ],
      [
        "Ġsmaller",
        -1.0
      ],
      [
        "Ġachieve",
        -1.0
      ],
      [
        "Ġprotein",
        -1.0
      ],
      [
        "Ġformed",
        -1.0
      ],
      [
        "ĠCouncil",
        -1.0
      ],
      [
        "ĠGreek",
        -1.0
      ],
      [
        "Ġconcern",
        -1.0
      ],
      [
        "Ġsaw",
        -1.0
      ],
      [
        "Ġgave",
        -1.0
      ],
      [
        "Ġversion",
        -1.0
      ],
      [
        "ĠDNA",
        -1.0
      ],
      [
        "Ġaffect",
        -1.0
      ],
      [
        "ĠChinese",
        -1.0
      ],
      [
        "Ġsleep",
        -1.0
      ],
      [
        "*",
        -1.0
      ],
      [
        "Ġeconomy",
        -1.0
      ],
      [
        "de",
        -1.0
      ],
      [
        "Ġrelationship",
        -1.0
      ],
      [
        "ĠWilliam",
        -1.0
      ],
      [
        "Ġprocesses",
        -1.0
      ],
      [
        "These",
        -1.0
      ],
      [
        "Ġresponsible",
        -1.0
      ],
      [
        "Ġbecomes",
        -1.0
      ],
      [
        "Ġimportance",
        -1.0
      ],
      [
        "Ġmessage",
        -1.0
      ],
      [
        "Ġstress",
        -1.0
      ],
      [
        "Ġmother",
        -1.0
      ],
      [
        "Ġwind",
        -1.0
      ],
      [
        "Ġrecognize",
        -1.0
      ],
      [
        "Ġgoal",
        -1.0
      ],
      [
        "ĠGermany",
        -1.0
      ],
      [
        "H",
        -1.0
      ],
      [
        "Ġbenefit",
        -1.0
      ],
      [
        "An",
        -1.0
      ],
      [
        "Ġsevere",
        -1.0
      ],
      [
        "ĠFrance",
        -1.0
      ],
      [
        "Ġidentify",
        -1.0
      ],
      [
        "Ġgame",
        -1.0
      ],
      [
        "Ġwrite",
        -1.0
      ],
      [
        "ĠJesus",
        -1.0
      ],
      [
        "ĠInternet",
        -1.0
      ],
      [
        "Ġraise",
        -1.0
      ],
      [
        "Ġestimate",
        -1.0
      ],
      [
        "Ġcorrect",
        -1.0
      ],
      [
        "Ġnuclear",
        -1.0
      ],
      [
        "ĠOther",
        -1.0
      ],
      [
        "Ġ22",
        -1.0
      ],
      [
        "Ġcarry",
        -1.0
      ],
      [
        "Ġdegree",
        -1.0
      ],
      [
        "Ġcommand",
        -1.0
      ],
      [
        "Ġreports",
        -1.0
      ],
      [
        "Ġreach",
        -1.0
      ],
      [
        "ĠX",
        -1.0
      ],
      [
        "Ġwinter",
        -1.0
      ],
      [
        "O",
        -1.0
      ],
      [
        "Ġrule",
        -1.0
      ],
      [
        "Ġequipment",
        -1.0
      ],
      [
        "Ġtesting",
        -1.0
      ],
      [
        "Ġrise",
        -1.0
      ],
      [
        "Ġwoman",
        -1.0
      ],
      [
        "Ġscale",
        -1.0
      ],
      [
        "Ġ2003",
        -1.0
      ],
      [
        "Ġperform",
        -1.0
      ],
      [
        "Ġrelatively",
        -1.0
      ],
      [
        "Ġam",
        -1.0
      ],
      [
        "Ġstatus",
        -1.0
      ],
      [
        "ĠYour",
        -1.0
      ],
      [
        "Ġvehicle",
        -1.0
      ],
      [
        "ĠAustralia",
        -1.0
      ],
      [
        "Ġvirus",
        -1.0
      ],
      [
        "Ġask",
        -1.0
      ],
      [
        "Ġcheck",
        -1.0
      ],
      [
        "Ġfront",
        -1.0
      ],
      [
        "Ġelse",
        -1.0
      ],
      [
        "Ġtalk",
        -1.0
      ],
      [
        "ĠJews",
        -1.0
      ],
      [
        "Ġalone",
        -1.0
      ],
      [
        "ĠChristian",
        -1.0
      ],
      [
        "Ġdirection",
        -1.0
      ],
      [
        "ĠDay",
        -1.0
      ],
      [
        "So",
        -1.0
      ],
      [
        "man",
        -1.0
      ],
      [
        "Ġgives",
        -1.0
      ],
      [
        "see",
        -1.0
      ],
      [
        "Ġoccurs",
        -1.0
      ],
      [
        "Ġcharge",
        -1.0
      ],
      [
        "Ġstop",
        -1.0
      ],
      [
        "Ġfactor",
        -1.0
      ],
      [
        "Ġhold",
        -1.0
      ],
      [
        "Ġstatement",
        -1.0
      ],
      [
        "ĠJames",
        -1.0
      ],
      [
        "ĠDavid",
        -1.0
      ],
      [
        "Ġidentified",
        -1.0
      ],
      [
        "Ġapplications",
        -1.0
      ],
      [
        "ĠGovernment",
        -1.0
      ],
      [
        "Ġorganization",
        -1.0
      ],
      [
        "Ġteacher",
        -1.0
      ],
      [
        "15",
        -1.0
      ],
      [
        "Ġnames",
        -1.0
      ],
      [
        "Ġcover",
        -1.0
      ],
      [
        "Ġcharacter",
        -1.0
      ],
      [
        "Ġsuccessful",
        -1.0
      ],
      [
        "Ġriver",
        -1.0
      ],
      [
        "Ġtowards",
        -1.0
      ],
      [
        "Ġtechniques",
        -1.0
      ],
      [
        "Ġindependent",
        -1.0
      ],
      [
        "Ġshape",
        -1.0
      ],
      [
        "ĠNASA",
        -1.0
      ],
      [
        "Ġcode",
        -1.0
      ],
      [
        "ĠCollege",
        -1.0
      ],
      [
        "Ġpay",
        -1.0
      ],
      [
        "Ġconcept",
        -1.0
      ],
      [
        "Ġrelease",
        -1.0
      ],
      [
        "Ġmeasures",
        -1.0
      ],
      [
        "Ġdate",
        -1.0
      ],
      [
        "Ġsent",
        -1.0
      ],
      [
        "not",
        -1.0
      ],
      [
        "Ġprocedure",
        -1.0
      ],
      [
        "Ġdifferences",
        -1.0
      ],
      [
        "Ġmo",
        -1.0
      ],
      [
        "ĠWeb",
        -1.0
      ],
      [
        "Ġsetting",
        -1.0
      ],
      [
        "Ġroom",
        -1.0
      ],
      [
        "Ġmodels",
        -1.0
      ],
      [
        "Ġproviding",
        -1.0
      ],
      [
        "Ġmajority",
        -1.0
      ],
      [
        "et",
        -1.0
      ],
      [
        "Ġjob",
        -1.0
      ],
      [
        "Ġcapital",
        -1.0
      ],
      [
        "Ġfinancial",
        -1.0
      ],
      [
        "Ġ60",
        -1.0
      ],
      [
        "Ġoffice",
        -1.0
      ],
      [
        "Ġsugar",
        -1.0
      ],
      [
        "Ġdiabetes",
        -1.0
      ],
      [
        "Ġdry",
        -1.0
      ],
      [
        "Ġ...",
        -1.0
      ],
      [
        "Ġemissions",
        -1.0
      ],
      [
        "Ġexplain",
        -1.0
      ],
      [
        "Ġsun",
        -1.0
      ],
      [
        "Ġdevice",
        -1.0
      ],
      [
        "Ġinstance",
        -1.0
      ],
      [
        "=",
        -1.0
      ],
      [
        "Ġuser",
        -1.0
      ],
      [
        "ĠPark",
        -1.0
      ],
      [
        "Ġ2001",
        -1.0
      ],
      [
        "ĠService",
        -1.0
      ],
      [
        "ĠDo",
        -1.0
      ],
      [
        "her",
        -1.0
      ],
      [
        "Ġforest",
        -1.0
      ],
      [
        "Ġseparate",
        -1.0
      ],
      [
        "Ġrecords",
        -1.0
      ],
      [
        "Ġtypically",
        -1.0
      ],
      [
        "Some",
        -1.0
      ],
      [
        "Ġwaste",
        -1.0
      ],
      [
        "Ġcold",
        -1.0
      ],
      [
        "his",
        -1.0
      ],
      [
        "Ġaffected",
        -1.0
      ],
      [
        "ĠRoman",
        -1.0
      ],
      [
        "ĠSince",
        -1.0
      ],
      [
        "Ġworked",
        -1.0
      ],
      [
        "Ġtha",
        -1.0
      ],
      [
        "Ġradiation",
        -1.0
      ],
      [
        "Ġprogress",
        -1.0
      ],
      [
        "Ġgot",
        -1.0
      ],
      [
        "Ġanti",
        -1.0
      ],
      [
        "Ġshowed",
        -1.0
      ],
      [
        "Ġinteresting",
        -1.0
      ],
      [
        "Ġbacteria",
        -1.0
      ],
      [
        "Ġapplied",
        -1.0
      ],
      [
        "L",
        -1.0
      ],
      [
        "Ġeyes",
        -1.0
      ],
      [
        "Ġreduced",
        -1.0
      ],
      [
        "Ġweb",
        -1.0
      ],
      [
        "ring",
        -1.0
      ],
      [
        "ĠWestern",
        -1.0
      ],
      [
        "ĠJapan",
        -1.0
      ],
      [
        "Ġleave",
        -1.0
      ],
      [
        "Ġthinking",
        -1.0
      ],
      [
        "Ġnegative",
        -1.0
      ],
      [
        "ĠEven",
        -1.0
      ],
      [
        "men",
        -1.0
      ],
      [
        "Ġdeal",
        -1.0
      ],
      [
        "ĠSan",
        -1.0
      ],
      [
        "Ġstage",
        -1.0
      ],
      [
        "Ġ2002",
        -1.0
      ],
      [
        "Ġleaves",
        -1.0
      ],
      [
        "Ġdisplay",
        -1.0
      ],
      [
        "Ġhelps",
        -1.0
      ],
      [
        "Ġrules",
        -1.0
      ],
      [
        "if",
        -1.0
      ],
      [
        "Ġregions",
        -1.0
      ],
      [
        "Ġcompletely",
        -1.0
      ],
      [
        "Ġequal",
        -1.0
      ],
      [
        "tion",
        -1.0
      ],
      [
        "ĠGeorge",
        -1.0
      ],
      [
        "Ġdark",
        -1.0
      ],
      [
        "tly",
        -1.0
      ],
      [
        "Ġexisting",
        -1.0
      ],
      [
        "Ġconnection",
        -1.0
      ],
      [
        "Ġpractices",
        -1.0
      ],
      [
        "Ġcommercial",
        -1.0
      ],
      [
        "Ġ23",
        -1.0
      ],
      [
        "Ġthousands",
        -1.0
      ],
      [
        "Ġpro",
        -1.0
      ],
      [
        "Ġopportunity",
        -1.0
      ],
      [
        "ĠTexas",
        -1.0
      ],
      [
        "Ġtrying",
        -1.0
      ],
      [
        "Ġpicture",
        -1.0
      ],
      [
        "ations",
        -1.0
      ],
      [
        "Ġplanet",
        -1.0
      ],
      [
        "nt",
        -1.0
      ],
      [
        "Ġpowerful",
        -1.0
      ],
      [
        "He",
        -1.0
      ],
      [
        "ities",
        -1.0
      ],
      [
        "Ġisland",
        -1.0
      ],
      [
        "ĠAlso",
        -1.0
      ],
      [
        "Ġtherapy",
        -1.0
      ],
      [
        "ĠAccording",
        -1.0
      ],
      [
        "Ġgene",
        -1.0
      ],
      [
        "Ġnative",
        -1.0
      ],
      [
        "Ġalternative",
        -1.0
      ],
      [
        "Ġacid",
        -1.0
      ],
      [
        "At",
        -1.0
      ],
      [
        "Ġcontext",
        -1.0
      ],
      [
        "Ġchanged",
        -1.0
      ],
      [
        "Ġreasons",
        -1.0
      ],
      [
        "Ġbaby",
        -1.0
      ],
      [
        "Ġwi",
        -1.0
      ],
      [
        "Ġforeign",
        -1.0
      ],
      [
        "Ġrespect",
        -1.0
      ],
      [
        "Ġpresence",
        -1.0
      ],
      [
        "Ġvolume",
        -1.0
      ],
      [
        "Ġchance",
        -1.0
      ],
      [
        "Ġcities",
        -1.0
      ],
      [
        "Ġnote",
        -1.0
      ],
      [
        "Ġpa",
        -1.0
      ],
      [
        "ĠJapanese",
        -1.0
      ],
      [
        "Ġdiscover",
        -1.0
      ],
      [
        "Ġfigure",
        -1.0
      ],
      [
        "Ġprofessional",
        -1.0
      ],
      [
        "Ġeverything",
        -1.0
      ],
      [
        "Ġmission",
        -1.0
      ],
      [
        "ĠOf",
        -1.0
      ],
      [
        "Ġprice",
        -1.0
      ],
      [
        "v",
        -1.0
      ],
      [
        "Ġrare",
        -1.0
      ],
      [
        "Ġseven",
        -1.0
      ],
      [
        "Ġfemale",
        -1.0
      ],
      [
        "Ġeducational",
        -1.0
      ],
      [
        "Ġgoes",
        -1.0
      ],
      [
        "Ġapply",
        -1.0
      ],
      [
        "Ġdistribution",
        -1.0
      ],
      [
        "Ġdistance",
        -1.0
      ],
      [
        "Ġstaff",
        -1.0
      ],
      [
        "Ġserve",
        -1.0
      ],
      [
        "Ġapproximately",
        -1.0
      ],
      [
        "Ġpopulations",
        -1.0
      ],
      [
        "Ġdevices",
        -1.0
      ],
      [
        "Ġmoved",
        -1.0
      ],
      [
        "me",
        -1.0
      ],
      [
        "Ġexist",
        -1.0
      ],
      [
        "Ġexamples",
        -1.0
      ],
      [
        "While",
        -1.0
      ],
      [
        "ĠMuseum",
        -1.0
      ],
      [
        "ding",
        -1.0
      ],
      [
        "Ġdocument",
        -1.0
      ],
      [
        "Ġclean",
        -1.0
      ],
      [
        "Ġrelative",
        -1.0
      ],
      [
        "ĠLord",
        -1.0
      ],
      [
        "Ġu",
        -1.0
      ],
      [
        "Ġcombination",
        -1.0
      ],
      [
        "ĠChrist",
        -1.0
      ],
      [
        "Ġconflict",
        -1.0
      ],
      [
        "led",
        -1.0
      ],
      [
        "Ġusers",
        -1.0
      ],
      [
        "Ġmental",
        -1.0
      ],
      [
        "Ġkilled",
        -1.0
      ],
      [
        "Ġparty",
        -1.0
      ],
      [
        "Ġcreating",
        -1.0
      ],
      [
        "ĠIsrael",
        -1.0
      ],
      [
        "Ġfeeling",
        -1.0
      ],
      [
        "Ġseason",
        -1.0
      ],
      [
        "Ġvaccine",
        -1.0
      ],
      [
        "Ġsuggests",
        -1.0
      ],
      [
        "Ġcapacity",
        -1.0
      ],
      [
        "Ġcoming",
        -1.0
      ],
      [
        "ĠPeople",
        -1.0
      ],
      [
        "Ġdidn",
        -1.0
      ],
      [
        "Ġcommunication",
        -1.0
      ],
      [
        "Ġla",
        -1.0
      ],
      [
        "Ġbelieved",
        -1.0
      ],
      [
        "13",
        -1.0
      ],
      [
        "ĠRe",
        -1.0
      ],
      [
        "Ġregular",
        -1.0
      ],
      [
        "Ġincome",
        -1.0
      ],
      [
        "Ġ+",
        -1.0
      ],
      [
        "30",
        -1.0
      ],
      [
        "Ġeat",
        -1.0
      ],
      [
        "Ġsouthern",
        -1.0
      ],
      [
        "Ġorigin",
        -1.0
      ],
      [
        "Ġdefined",
        -1.0
      ],
      [
        "Ġorganizations",
        -1.0
      ],
      [
        "ĠEach",
        -1.0
      ],
      [
        "Ġfailure",
        -1.0
      ],
      [
        "Ġmachine",
        -1.0
      ],
      [
        "Ġice",
        -1.0
      ],
      [
        "Ġprofessor",
        -1.0
      ],
      [
        "Ġmale",
        -1.0
      ],
      [
        "ĠMexico",
        -1.0
      ],
      [
        "ĠThus",
        -1.0
      ],
      [
        "Ġmoving",
        -1.0
      ],
      [
        "Ġeating",
        -1.0
      ],
      [
        "Ġtreated",
        -1.0
      ],
      [
        "Ġcon",
        -1.0
      ],
      [
        "Ġreference",
        -1.0
      ],
      [
        "Ġstrength",
        -1.0
      ],
      [
        "Ġargument",
        -1.0
      ],
      [
        "Ġaspect",
        -1.0
      ],
      [
        "Ġquick",
        -1.0
      ],
      [
        "Ġfields",
        -1.0
      ],
      [
        "After",
        -1.0
      ],
      [
        "fully",
        -1.0
      ],
      [
        "Ġtax",
        -1.0
      ],
      [
        "Ġremember",
        -1.0
      ],
      [
        "Ġpr",
        -1.0
      ],
      [
        "Ġwhom",
        -1.0
      ],
      [
        "Ġbad",
        -1.0
      ],
      [
        "Ġreleased",
        -1.0
      ],
      [
        "Ġclinical",
        -1.0
      ],
      [
        "Ġstay",
        -1.0
      ],
      [
        "ĠISBN",
        -1.0
      ],
      [
        "Ġfamous",
        -1.0
      ],
      [
        "Ġfriends",
        -1.0
      ],
      [
        "Ġfunctions",
        -1.0
      ],
      [
        "Ġ1990",
        -1.0
      ],
      [
        "Ġlayer",
        -1.0
      ],
      [
        "Ġevolution",
        -1.0
      ],
      [
        "Ġhighest",
        -1.0
      ],
      [
        "ĠNow",
        -1.0
      ],
      [
        "Ġcross",
        -1.0
      ],
      [
        "Ġrich",
        -1.0
      ],
      [
        "Ġnorthern",
        -1.0
      ],
      [
        "Ġnor",
        -1.0
      ],
      [
        "Ġdisorder",
        -1.0
      ],
      [
        "Ġcourt",
        -1.0
      ],
      [
        "Ġpattern",
        -1.0
      ],
      [
        "ĠHere",
        -1.0
      ],
      [
        "Ġincreases",
        -1.0
      ],
      [
        "Ġannual",
        -1.0
      ],
      [
        "more",
        -1.0
      ],
      [
        "ĠSee",
        -1.0
      ],
      [
        "Ġexpression",
        -1.0
      ],
      [
        "Ġcampaign",
        -1.0
      ],
      [
        "Ġdecades",
        -1.0
      ],
      [
        "Ġpromote",
        -1.0
      ],
      [
        "Ġspring",
        -1.0
      ],
      [
        "Ġdead",
        -1.0
      ],
      [
        "Ġresource",
        -1.0
      ],
      [
        "Ġleaders",
        -1.0
      ],
      [
        "Ġdefinition",
        -1.0
      ],
      [
        "Ġheavy",
        -1.0
      ],
      [
        "our",
        -1.0
      ],
      [
        "Ġimmediately",
        -1.0
      ],
      [
        "Ġgeneration",
        -1.0
      ],
      [
        "Ġ26",
        -1.0
      ],
      [
        "Ġ28",
        -1.0
      ],
      [
        "Ġtable",
        -1.0
      ],
      [
        "Ġinitial",
        -1.0
      ],
      [
        "ĠTheir",
        -1.0
      ],
      [
        "Ġtissue",
        -1.0
      ],
      [
        "Ġchoose",
        -1.0
      ],
      [
        "day",
        -1.0
      ],
      [
        "Ġplans",
        -1.0
      ],
      [
        "Ġestablish",
        -1.0
      ],
      [
        "Ġgarden",
        -1.0
      ],
      [
        "ver",
        -1.0
      ],
      [
        "14",
        -1.0
      ],
      [
        "Ġfilm",
        -1.0
      ],
      [
        "ĠChildren",
        -1.0
      ],
      [
        "Ġmedicine",
        -1.0
      ],
      [
        "Ġconducted",
        -1.0
      ],
      [
        "Ġoverall",
        -1.0
      ],
      [
        "W",
        -1.0
      ],
      [
        "Ġintroduced",
        -1.0
      ],
      [
        "Ġdetails",
        -1.0
      ],
      [
        "Ġrunning",
        -1.0
      ],
      [
        "Ġstories",
        -1.0
      ],
      [
        "Ġjoin",
        -1.0
      ],
      [
        "Ġpatterns",
        -1.0
      ],
      [
        "Ġofficial",
        -1.0
      ],
      [
        "Ġturned",
        -1.0
      ],
      [
        "ĠArmy",
        -1.0
      ],
      [
        "They",
        -1.0
      ],
      [
        "Ġsave",
        -1.0
      ],
      [
        "Ġgain",
        -1.0
      ],
      [
        "Ġsurvey",
        -1.0
      ],
      [
        "ĠCourt",
        -1.0
      ],
      [
        "Ġmanage",
        -1.0
      ],
      [
        "Ġlabor",
        -1.0
      ],
      [
        "Ġmap",
        -1.0
      ],
      [
        "Ġeight",
        -1.0
      ],
      [
        "ĠMedicine",
        -1.0
      ],
      [
        "16",
        -1.0
      ],
      [
        "Ġstyle",
        -1.0
      ],
      [
        "Ġspeech",
        -1.0
      ],
      [
        "Ġoperations",
        -1.0
      ],
      [
        "ĠIsland",
        -1.0
      ],
      [
        "Ġtool",
        -1.0
      ],
      [
        "Ġeveryone",
        -1.0
      ],
      [
        "ĠPaul",
        -1.0
      ],
      [
        "Ġletter",
        -1.0
      ],
      [
        "ĠMedical",
        -1.0
      ],
      [
        "Ġguide",
        -1.0
      ],
      [
        "Ġclearly",
        -1.0
      ],
      [
        "Ġ27",
        -1.0
      ],
      [
        "Ġrapid",
        -1.0
      ],
      [
        "Ġpiece",
        -1.0
      ],
      [
        "Ġsub",
        -1.0
      ],
      [
        "Ġsignal",
        -1.0
      ],
      [
        "Ġtend",
        -1.0
      ],
      [
        "ĠDevelopment",
        -1.0
      ],
      [
        "Ġproperties",
        -1.0
      ],
      [
        "Ġstar",
        -1.0
      ],
      [
        "ĠOur",
        -1.0
      ],
      [
        "Ġspeak",
        -1.0
      ],
      [
        "Ġsexual",
        -1.0
      ],
      [
        "Ġupper",
        -1.0
      ],
      [
        "Ġcivil",
        -1.0
      ],
      [
        "Ġforward",
        -1.0
      ],
      [
        "ĠWater",
        -1.0
      ],
      [
        "Ġstructures",
        -1.0
      ],
      [
        "Ġreligion",
        -1.0
      ],
      [
        "ĠProgram",
        -1.0
      ],
      [
        "Ġ1999",
        -1.0
      ],
      [
        "ĠIs",
        -1.0
      ],
      [
        "Ġchapter",
        -1.0
      ],
      [
        "Ġtemperatures",
        -1.0
      ],
      [
        "covered",
        -1.0
      ],
      [
        "Ġarticles",
        -1.0
      ],
      [
        "Ġchoice",
        -1.0
      ],
      [
        "Ġreplace",
        -1.0
      ],
      [
        "Ġconservation",
        -1.0
      ],
      [
        "See",
        -1.0
      ],
      [
        "Ġatmosphere",
        -1.0
      ],
      [
        "Ġvia",
        -1.0
      ],
      [
        "Ġlearned",
        -1.0
      ],
      [
        "Ġroad",
        -1.0
      ],
      [
        "ĠPublic",
        -1.0
      ],
      [
        "old",
        -1.0
      ],
      [
        "Ġpresident",
        -1.0
      ],
      [
        "Ġliterature",
        -1.0
      ],
      [
        "ĠThomas",
        -1.0
      ],
      [
        "ous",
        -1.0
      ],
      [
        "Ġbroad",
        -1.0
      ],
      [
        "Ġfat",
        -1.0
      ],
      [
        "Ġsquare",
        -1.0
      ],
      [
        "Ġsign",
        -1.0
      ],
      [
        "ĠRobert",
        -1.0
      ],
      [
        "Ġactual",
        -1.0
      ],
      [
        "ĠSpanish",
        -1.0
      ],
      [
        "Ġfrequently",
        -1.0
      ],
      [
        "Ġfruit",
        -1.0
      ],
      [
        "out",
        -1.0
      ],
      [
        "ent",
        -1.0
      ],
      [
        "nce",
        -1.0
      ],
      [
        "Ġproposed",
        -1.0
      ],
      [
        "Ġgiving",
        -1.0
      ],
      [
        "ĠPacific",
        -1.0
      ],
      [
        "Ġremained",
        -1.0
      ],
      [
        "was",
        -1.0
      ],
      [
        "Ġson",
        -1.0
      ],
      [
        "[",
        -1.0
      ],
      [
        "ĠUse",
        -1.0
      ],
      [
        "Ġconsumption",
        -1.0
      ],
      [
        "Ġdegrees",
        -1.0
      ],
      [
        "Ġpersons",
        -1.0
      ],
      [
        "Ġocean",
        -1.0
      ],
      [
        "Ġtechnologies",
        -1.0
      ],
      [
        "ĠLibrary",
        -1.0
      ],
      [
        "Ġbuildings",
        -1.0
      ],
      [
        "Ġadult",
        -1.0
      ],
      [
        "id",
        -1.0
      ],
      [
        "Ġbreast",
        -1.0
      ],
      [
        "ĠEnergy",
        -1.0
      ],
      [
        "Ġresistance",
        -1.0
      ],
      [
        "Ġrock",
        -1.0
      ],
      [
        "Ġcount",
        -1.0
      ],
      [
        "ĠHuman",
        -1.0
      ],
      [
        "Ġremoved",
        -1.0
      ],
      [
        "Ġlimit",
        -1.0
      ],
      [
        "Ġreflect",
        -1.0
      ],
      [
        "Ġobserve",
        -1.0
      ],
      [
        "os",
        -1.0
      ],
      [
        "Ġcontribute",
        -1.0
      ],
      [
        "Ġpages",
        -1.0
      ],
      [
        "Ġsteps",
        -1.0
      ],
      [
        "Ġones",
        -1.0
      ],
      [
        "Ġfreedom",
        -1.0
      ],
      [
        "Ġperformed",
        -1.0
      ],
      [
        "Ġreached",
        -1.0
      ],
      [
        "Ġactions",
        -1.0
      ],
      [
        "Â°",
        -1.0
      ],
      [
        "Ġsigns",
        -1.0
      ],
      [
        "Ġextremely",
        -1.0
      ],
      [
        "Ġnumerous",
        -1.0
      ],
      [
        "ch",
        -1.0
      ],
      [
        "ĠProject",
        -1.0
      ],
      [
        "over",
        -1.0
      ],
      [
        "ĠMa",
        -1.0
      ],
      [
        "Ġsubstance",
        -1.0
      ],
      [
        "Ġrequirements",
        -1.0
      ],
      [
        "ĠInformation",
        -1.0
      ],
      [
        "Ġrace",
        -1.0
      ],
      [
        "Ġelectricity",
        -1.0
      ],
      [
        "Ġcitizens",
        -1.0
      ],
      [
        "ĠAsia",
        -1.0
      ],
      [
        "Ġdigital",
        -1.0
      ],
      [
        "ĠDe",
        -1.0
      ],
      [
        "With",
        -1.0
      ],
      [
        "Ġwon",
        -1.0
      ],
      [
        "Ġauthority",
        -1.0
      ],
      [
        "ĠNot",
        -1.0
      ],
      [
        "Ġsurgery",
        -1.0
      ],
      [
        "Ġcomponents",
        -1.0
      ],
      [
        "Ġpolicies",
        -1.0
      ],
      [
        "Ġopinion",
        -1.0
      ],
      [
        "All",
        -1.0
      ],
      [
        "Ġarmy",
        -1.0
      ],
      [
        "Ġbottom",
        -1.0
      ],
      [
        "Ġdetermined",
        -1.0
      ],
      [
        "Ġgenes",
        -1.0
      ],
      [
        "Ġbodies",
        -1.0
      ],
      [
        "Ġhousehold",
        -1.0
      ],
      [
        "From",
        -1.0
      ],
      [
        "Ġgold",
        -1.0
      ],
      [
        "Ġdestroy",
        -1.0
      ],
      [
        "ĠSpace",
        -1.0
      ],
      [
        "Ġfast",
        -1.0
      ],
      [
        "âĢ¦",
        -1.0
      ],
      [
        "Ġsignificantly",
        -1.0
      ],
      [
        "Ġbalance",
        -1.0
      ],
      [
        "ĠBe",
        -1.0
      ],
      [
        "Ġblue",
        -1.0
      ],
      [
        "Ġprior",
        -1.0
      ],
      [
        "Ġresulting",
        -1.0
      ],
      [
        "Ġmilk",
        -1.0
      ],
      [
        "Ġmid",
        -1.0
      ],
      [
        "Ġplease",
        -1.0
      ],
      [
        "Ġitems",
        -1.0
      ],
      [
        "Ġprinciples",
        -1.0
      ],
      [
        "Ġwrong",
        -1.0
      ],
      [
        "Ġconsist",
        -1.0
      ],
      [
        "ĠBlack",
        -1.0
      ],
      [
        "Ġjoint",
        -1.0
      ],
      [
        "Ġdistrict",
        -1.0
      ],
      [
        "Ġ1998",
        -1.0
      ],
      [
        "Ġenter",
        -1.0
      ],
      [
        "Ġ200",
        -1.0
      ],
      [
        "Ġpp",
        -1.0
      ],
      [
        "Ġviolence",
        -1.0
      ],
      [
        "Ġwarm",
        -1.0
      ],
      [
        "its",
        -1.0
      ],
      [
        "Ġwild",
        -1.0
      ],
      [
        "Ġlo",
        -1.0
      ],
      [
        "Ġcharacteristics",
        -1.0
      ],
      [
        "ĠNews",
        -1.0
      ],
      [
        "Ġcreation",
        -1.0
      ],
      [
        "Ġdatabase",
        -1.0
      ],
      [
        "ĠFoundation",
        -1.0
      ],
      [
        "but",
        -1.0
      ],
      [
        "Although",
        -1.0
      ],
      [
        "ned",
        -1.0
      ],
      [
        "Ġportion",
        -1.0
      ],
      [
        "Ġbone",
        -1.0
      ],
      [
        "Ġblock",
        -1.0
      ],
      [
        "ĠHigh",
        -1.0
      ],
      [
        ">",
        -1.0
      ],
      [
        "ĠSystem",
        -1.0
      ],
      [
        "ĠOffice",
        -1.0
      ],
      [
        "Ġtask",
        -1.0
      ],
      [
        "Ġcoast",
        -1.0
      ],
      [
        "bility",
        -1.0
      ],
      [
        "Ġwanted",
        -1.0
      ],
      [
        "Ġmanner",
        -1.0
      ],
      [
        "Ġoperation",
        -1.0
      ],
      [
        "ĠCatholic",
        -1.0
      ],
      [
        "Ġcontrast",
        -1.0
      ],
      [
        "Ġmeasurement",
        -1.0
      ],
      [
        "Ġconduct",
        -1.0
      ],
      [
        "Ġofficials",
        -1.0
      ],
      [
        "Ġimmune",
        -1.0
      ],
      [
        "Ġdirector",
        -1.0
      ],
      [
        "Ġsu",
        -1.0
      ],
      [
        "Ġwh",
        -1.0
      ],
      [
        "Ġpeace",
        -1.0
      ],
      [
        "Ġurban",
        -1.0
      ],
      [
        "Ġtruth",
        -1.0
      ],
      [
        "Ġtitle",
        -1.0
      ],
      [
        "Ġinstitution",
        -1.0
      ],
      [
        "Ġhundred",
        -1.0
      ],
      [
        "ties",
        -1.0
      ],
      [
        "ĠVirginia",
        -1.0
      ],
      [
        "Ġcapture",
        -1.0
      ],
      [
        "no",
        -1.0
      ],
      [
        "Ġboard",
        -1.0
      ],
      [
        "here",
        -1.0
      ],
      [
        "Ġhuge",
        -1.0
      ],
      [
        "Ġpo",
        -1.0
      ],
      [
        "Ġhot",
        -1.0
      ],
      [
        "Ġoxygen",
        -1.0
      ],
      [
        "Ġefficient",
        -1.0
      ],
      [
        "ically",
        -1.0
      ],
      [
        "Ġauthors",
        -1.0
      ],
      [
        "Ġvision",
        -1.0
      ],
      [
        "eventually",
        -1.0
      ],
      [
        "25",
        -1.0
      ],
      [
        "Ġnotes",
        -1.0
      ],
      [
        "Ġfeature",
        -1.0
      ],
      [
        "Ġstrategies",
        -1.0
      ],
      [
        "Ġcollege",
        -1.0
      ],
      [
        "Ġclasses",
        -1.0
      ],
      [
        "ĠCivil",
        -1.0
      ],
      [
        "Ġwestern",
        -1.0
      ],
      [
        "Ġtrial",
        -1.0
      ],
      [
        "Ġorganic",
        -1.0
      ],
      [
        "Ġcycle",
        -1.0
      ],
      [
        "Ġmoment",
        -1.0
      ],
      [
        "That",
        -1.0
      ],
      [
        "Ġremove",
        -1.0
      ],
      [
        "Ġbecoming",
        -1.0
      ],
      [
        "Ġmouth",
        -1.0
      ],
      [
        "Ġalcohol",
        -1.0
      ],
      [
        "Ġpath",
        -1.0
      ],
      [
        "Ġintended",
        -1.0
      ],
      [
        "Ġpredict",
        -1.0
      ],
      [
        "Ġassessment",
        -1.0
      ],
      [
        "American",
        -1.0
      ],
      [
        "New",
        -1.0
      ],
      [
        "Ġteach",
        -1.0
      ],
      [
        "Ġdrive",
        -1.0
      ],
      [
        "Ġexistence",
        -1.0
      ],
      [
        "Ġmet",
        -1.0
      ],
      [
        "Ġbreak",
        -1.0
      ],
      [
        "Ġreturned",
        -1.0
      ],
      [
        "ĠBritain",
        -1.0
      ],
      [
        "Ġchallenge",
        -1.0
      ],
      [
        "Ġclassroom",
        -1.0
      ],
      [
        "ĠWhite",
        -1.0
      ],
      [
        "Ġbattle",
        -1.0
      ],
      [
        "Ġ80",
        -1.0
      ],
      [
        "Ġwest",
        -1.0
      ],
      [
        "ĠCentral",
        -1.0
      ],
      [
        "Ġbackground",
        -1.0
      ],
      [
        "Ġcompleted",
        -1.0
      ],
      [
        "ĠLaw",
        -1.0
      ],
      [
        "Ġfight",
        -1.0
      ],
      [
        "Ġbit",
        -1.0
      ],
      [
        "Ġbelief",
        -1.0
      ],
      [
        "am",
        -1.0
      ],
      [
        "Ġsp",
        -1.0
      ],
      [
        "Ġextensive",
        -1.0
      ],
      [
        "Ġrecommended",
        -1.0
      ],
      [
        "ying",
        -1.0
      ],
      [
        "Ġspend",
        -1.0
      ],
      [
        "ĠLake",
        -1.0
      ],
      [
        "Ġ29",
        -1.0
      ],
      [
        "00",
        -1.0
      ],
      [
        "Ġli",
        -1.0
      ],
      [
        "Ġreduction",
        -1.0
      ],
      [
        "ĠLatin",
        -1.0
      ],
      [
        "18",
        -1.0
      ],
      [
        "Ġopportunities",
        -1.0
      ],
      [
        "Ġenable",
        -1.0
      ],
      [
        "Ġdisorders",
        -1.0
      ],
      [
        "Ġemail",
        -1.0
      ],
      [
        "Ġbu",
        -1.0
      ],
      [
        "Ġliquid",
        -1.0
      ],
      [
        "Ġrecorded",
        -1.0
      ],
      [
        "Ġsex",
        -1.0
      ],
      [
        "ra",
        -1.0
      ],
      [
        "Ġhour",
        -1.0
      ],
      [
        "Ġdouble",
        -1.0
      ],
      [
        "Ġsaying",
        -1.0
      ],
      [
        "Ġfeed",
        -1.0
      ],
      [
        "Ġlinks",
        -1.0
      ],
      [
        "Ġheard",
        -1.0
      ],
      [
        "ĠUK",
        -1.0
      ],
      [
        "Ġforced",
        -1.0
      ],
      [
        "related",
        -1.0
      ],
      [
        "Ġsurrounding",
        -1.0
      ],
      [
        "Ġ1997",
        -1.0
      ],
      [
        "ism",
        -1.0
      ],
      [
        "Ġadvanced",
        -1.0
      ],
      [
        "Ġexcept",
        -1.0
      ],
      [
        "Ġspent",
        -1.0
      ],
      [
        "Ġhappen",
        -1.0
      ],
      [
        "Ġdecided",
        -1.0
      ],
      [
        "Ġinternal",
        -1.0
      ],
      [
        "ĠIts",
        -1.0
      ],
      [
        "Ġfaith",
        -1.0
      ],
      [
        "Ġwood",
        -1.0
      ],
      [
        "Ġcredit",
        -1.0
      ],
      [
        "ĠLa",
        -1.0
      ],
      [
        "G",
        -1.0
      ],
      [
        "ĠCommission",
        -1.0
      ],
      [
        "ĠCharles",
        -1.0
      ],
      [
        "Ġindustrial",
        -1.0
      ],
      [
        "Ġanyone",
        -1.0
      ],
      [
        "Ġtechnique",
        -1.0
      ],
      [
        "Ġbiological",
        -1.0
      ],
      [
        "Ġking",
        -1.0
      ],
      [
        "&",
        -1.0
      ],
      [
        "Ġslow",
        -1.0
      ],
      [
        "No",
        -1.0
      ],
      [
        "Ġdepression",
        -1.0
      ],
      [
        "ur",
        -1.0
      ],
      [
        "Ġlanguages",
        -1.0
      ],
      [
        "can",
        -1.0
      ],
      [
        "Ġtrack",
        -1.0
      ],
      [
        "Ġkm",
        -1.0
      ],
      [
        "Ġfacilities",
        -1.0
      ],
      [
        "Ġhear",
        -1.0
      ],
      [
        "Ġinterested",
        -1.0
      ],
      [
        "ĠEnvironmental",
        -1.0
      ],
      [
        "ĠThen",
        -1.0
      ],
      [
        "ology",
        -1.0
      ],
      [
        "Ġelement",
        -1.0
      ],
      [
        "Ġhabitat",
        -1.0
      ],
      [
        "less",
        -1.0
      ],
      [
        "Ġagreement",
        -1.0
      ],
      [
        "Ġbox",
        -1.0
      ],
      [
        "ĠWhy",
        -1.0
      ],
      [
        "age",
        -1.0
      ],
      [
        "Many",
        -1.0
      ],
      [
        "Ġmetal",
        -1.0
      ],
      [
        "we",
        -1.0
      ],
      [
        "17",
        -1.0
      ],
      [
        "Ġexpect",
        -1.0
      ],
      [
        "Ġextent",
        -1.0
      ],
      [
        "ĠCompany",
        -1.0
      ],
      [
        "Ġten",
        -1.0
      ],
      [
        "Ġstarting",
        -1.0
      ],
      [
        "Ġengineering",
        -1.0
      ],
      [
        "Ġstars",
        -1.0
      ],
      [
        "Ġinfections",
        -1.0
      ],
      [
        "Ġvisual",
        -1.0
      ],
      [
        "such",
        -1.0
      ],
      [
        "Ġobservation",
        -1.0
      ],
      [
        "Ġstation",
        -1.0
      ],
      [
        "Ġeast",
        -1.0
      ],
      [
        "19",
        -1.0
      ],
      [
        "this",
        -1.0
      ],
      [
        "Ġprices",
        -1.0
      ],
      [
        "Ġyourself",
        -1.0
      ],
      [
        "+",
        -1.0
      ],
      [
        "ĠAir",
        -1.0
      ],
      [
        "Ġsufficient",
        -1.0
      ],
      [
        "Ġgoals",
        -1.0
      ],
      [
        "Ġmonitor",
        -1.0
      ],
      [
        "Most",
        -1.0
      ],
      [
        "Ġhomes",
        -1.0
      ],
      [
        "Ġamounts",
        -1.0
      ],
      [
        "Ġx",
        -1.0
      ],
      [
        "ate",
        -1.0
      ],
      [
        "Ġfundamental",
        -1.0
      ],
      [
        "More",
        -1.0
      ],
      [
        "Ġdebate",
        -1.0
      ],
      [
        "Ġencourage",
        -1.0
      ],
      [
        "Ġobvious",
        -1.0
      ],
      [
        "Ġparticipants",
        -1.0
      ],
      [
        "Ġwww",
        -1.0
      ],
      [
        "Ġconcerns",
        -1.0
      ],
      [
        "Ġagricultural",
        -1.0
      ],
      [
        "Ġregarding",
        -1.0
      ],
      [
        "ĠBook",
        -1.0
      ],
      [
        ".|",
        -1.0
      ],
      [
        "Ġdie",
        -1.0
      ],
      [
        "Ġhost",
        -1.0
      ],
      [
        "Ġcausing",
        -1.0
      ],
      [
        "Ġcombined",
        -1.0
      ],
      [
        "ĠLife",
        -1.0
      ],
      [
        "Ġ90",
        -1.0
      ],
      [
        "Ġtechnical",
        -1.0
      ],
      [
        "Ġradio",
        -1.0
      ],
      [
        "Ġexperiment",
        -1.0
      ],
      [
        "Ġtradition",
        -1.0
      ],
      [
        "Ġchief",
        -1.0
      ],
      [
        "Ġrespond",
        -1.0
      ],
      [
        "Ġoptions",
        -1.0
      ],
      [
        "Ġbrief",
        -1.0
      ],
      [
        "According",
        -1.0
      ],
      [
        "Ġmuscle",
        -1.0
      ],
      [
        "Ġoffered",
        -1.0
      ],
      [
        "Ġwarming",
        -1.0
      ],
      [
        "Ġchallenges",
        -1.0
      ],
      [
        "Ġstorage",
        -1.0
      ],
      [
        "K",
        -1.0
      ],
      [
        "ĠMr",
        -1.0
      ],
      [
        "Ġimproved",
        -1.0
      ],
      [
        "Ġstand",
        -1.0
      ],
      [
        "Ġwall",
        -1.0
      ],
      [
        "Ġstore",
        -1.0
      ],
      [
        "ĠFederal",
        -1.0
      ],
      [
        "Ġship",
        -1.0
      ],
      [
        "Ġrecommend",
        -1.0
      ],
      [
        "called",
        -1.0
      ],
      [
        "ĠCommittee",
        -1.0
      ],
      [
        "Ġfear",
        -1.0
      ],
      [
        "ĠFlorida",
        -1.0
      ],
      [
        "ized",
        -1.0
      ],
      [
        "ĠSea",
        -1.0
      ],
      [
        "Ġdetail",
        -1.0
      ],
      [
        "ls",
        -1.0
      ],
      [
        "Ġagencies",
        -1.0
      ],
      [
        "Ġchemicals",
        -1.0
      ],
      [
        "Ġaccurate",
        -1.0
      ],
      [
        "Ġmentioned",
        -1.0
      ],
      [
        "J",
        -1.0
      ],
      [
        "Ġpractical",
        -1.0
      ],
      [
        "Ġextra",
        -1.0
      ],
      [
        "Ġappeared",
        -1.0
      ],
      [
        "Ġ1980",
        -1.0
      ],
      [
        "Ġbird",
        -1.0
      ],
      [
        "Y",
        -1.0
      ],
      [
        "Ġmorning",
        -1.0
      ],
      [
        "Other",
        -1.0
      ],
      [
        "Ġleader",
        -1.0
      ],
      [
        "ĠHenry",
        -1.0
      ],
      [
        "Ġbuy",
        -1.0
      ],
      [
        "Ġillness",
        -1.0
      ],
      [
        "ning",
        -1.0
      ],
      [
        "ĠMiddle",
        -1.0
      ],
      [
        "Ġ:",
        -1.0
      ],
      [
        "Ġexperiences",
        -1.0
      ],
      [
        "Ġfrequency",
        -1.0
      ],
      [
        "Ġdog",
        -1.0
      ],
      [
        "Ġacademic",
        -1.0
      ],
      [
        "Ġwife",
        -1.0
      ],
      [
        "Ġnations",
        -1.0
      ],
      [
        "ĠTechnology",
        -1.0
      ],
      [
        "Ġoperating",
        -1.0
      ],
      [
        "Ġenjoy",
        -1.0
      ],
      [
        "Ġreducing",
        -1.0
      ],
      [
        "Ġparticles",
        -1.0
      ],
      [
        "Ġcopy",
        -1.0
      ],
      [
        "Ġotherwise",
        -1.0
      ],
      [
        "ĠCanadian",
        -1.0
      ],
      [
        "Ġprepared",
        -1.0
      ],
      [
        "most",
        -1.0
      ],
      [
        "Ġnotice",
        -1.0
      ],
      [
        "Ġ70",
        -1.0
      ],
      [
        "Ġpollution",
        -1.0
      ],
      [
        "Ġshift",
        -1.0
      ],
      [
        "il",
        -1.0
      ],
      [
        "Ġstorm",
        -1.0
      ],
      [
        "Ġcollected",
        -1.0
      ],
      [
        "Ġdangerous",
        -1.0
      ],
      [
        "ĠTwo",
        -1.0
      ],
      [
        "ĠSocial",
        -1.0
      ],
      [
        "Ġengine",
        -1.0
      ],
      [
        "Ġoutput",
        -1.0
      ],
      [
        "Ġadvantage",
        -1.0
      ],
      [
        "nts",
        -1.0
      ],
      [
        "have",
        -1.0
      ],
      [
        "Ġeasier",
        -1.0
      ],
      [
        "Ġeggs",
        -1.0
      ],
      [
        "Ġchronic",
        -1.0
      ],
      [
        "Ġlibrary",
        -1.0
      ],
      [
        "Ġperspective",
        -1.0
      ],
      [
        "Ġstudied",
        -1.0
      ],
      [
        "Ġclick",
        -1.0
      ],
      [
        "el",
        -1.0
      ],
      [
        "Ġbegins",
        -1.0
      ],
      [
        "Ġrisks",
        -1.0
      ],
      [
        "Ġfarm",
        -1.0
      ],
      [
        "ĠRussian",
        -1.0
      ],
      [
        "Ġcom",
        -1.0
      ],
      [
        "Ġlaunch",
        -1.0
      ],
      [
        "Ġconnected",
        -1.0
      ],
      [
        "Ġdiscovery",
        -1.0
      ],
      [
        "Ġengage",
        -1.0
      ],
      [
        "Ġinjury",
        -1.0
      ],
      [
        "Ġwalk",
        -1.0
      ],
      [
        "exactly",
        -1.0
      ],
      [
        "Ġphase",
        -1.0
      ],
      [
        "ĠFood",
        -1.0
      ],
      [
        "Ġready",
        -1.0
      ],
      [
        "Ġletters",
        -1.0
      ],
      [
        "served",
        -1.0
      ],
      [
        "Ġhundreds",
        -1.0
      ],
      [
        "Ġconstant",
        -1.0
      ],
      [
        "z",
        -1.0
      ],
      [
        "Ġshowing",
        -1.0
      ],
      [
        "Ġ1996",
        -1.0
      ],
      [
        "@",
        -1.0
      ],
      [
        "Ġ1995",
        -1.0
      ],
      [
        "Ġcontinues",
        -1.0
      ],
      [
        "Ġfunding",
        -1.0
      ],
      [
        "Ġtroops",
        -1.0
      ],
      [
        "Ġobtained",
        -1.0
      ],
      [
        "ĠMary",
        -1.0
      ],
      [
        "ded",
        -1.0
      ],
      [
        "Ġmeasured",
        -1.0
      ],
      [
        "Ġdiagnosis",
        -1.0
      ],
      [
        "ĠRights",
        -1.0
      ],
      [
        "âĢĿ.",
        -1.0
      ],
      [
        "Ġdecline",
        -1.0
      ],
      [
        "Ġplastic",
        -1.0
      ],
      [
        "Ġreaction",
        -1.0
      ],
      [
        "king",
        -1.0
      ],
      [
        "planning",
        -1.0
      ],
      [
        "Ġprint",
        -1.0
      ],
      [
        "Ġtaught",
        -1.0
      ],
      [
        "Ġex",
        -1.0
      ],
      [
        "ĠOld",
        -1.0
      ],
      [
        "Ġrequest",
        -1.0
      ],
      [
        "Ġelection",
        -1.0
      ],
      [
        "U",
        -1.0
      ],
      [
        "Ġdis",
        -1.0
      ],
      [
        "als",
        -1.0
      ],
      [
        "Ġtopic",
        -1.0
      ],
      [
        "Ġjournal",
        -1.0
      ],
      [
        "allowed",
        -1.0
      ],
      [
        "Ġroot",
        -1.0
      ],
      [
        "Ġgrade",
        -1.0
      ],
      [
        "ĠSuch",
        -1.0
      ],
      [
        "Ġpoverty",
        -1.0
      ],
      [
        "Ġefficiency",
        -1.0
      ],
      [
        "Ġglass",
        -1.0
      ],
      [
        "Ġpainting",
        -1.0
      ],
      [
        "Ġaware",
        -1.0
      ],
      [
        "Ġkinds",
        -1.0
      ],
      [
        "Ġdaughter",
        -1.0
      ],
      [
        "Ġdocuments",
        -1.0
      ],
      [
        "Ġproduc",
        -1.0
      ],
      [
        "Ġmoral",
        -1.0
      ],
      [
        "Now",
        -1.0
      ],
      [
        "ĠSoviet",
        -1.0
      ],
      [
        "Ġseek",
        -1.0
      ],
      [
        "Ġclosely",
        -1.0
      ],
      [
        "Ġuniverse",
        -1.0
      ],
      [
        "Ġargue",
        -1.0
      ],
      [
        "ĠRed",
        -1.0
      ],
      [
        "ĠBay",
        -1.0
      ],
      [
        "Ġsort",
        -1.0
      ],
      [
        "ĠBible",
        -1.0
      ],
      [
        "ĠY",
        -1.0
      ],
      [
        "Ġlatter",
        -1.0
      ],
      [
        "Ġtransfer",
        -1.0
      ],
      [
        "22",
        -1.0
      ],
      [
        "Ġfa",
        -1.0
      ],
      [
        "Ġelectrical",
        -1.0
      ],
      [
        "hat",
        -1.0
      ],
      [
        "Ġgames",
        -1.0
      ],
      [
        "Ġgets",
        -1.0
      ],
      [
        "Ġdomestic",
        -1.0
      ],
      [
        "Ġspirit",
        -1.0
      ],
      [
        "Ġprinciple",
        -1.0
      ],
      [
        "Ġdrinking",
        -1.0
      ],
      [
        "Ġfelt",
        -1.0
      ],
      [
        "Ġiron",
        -1.0
      ],
      [
        "Ġtypical",
        -1.0
      ],
      [
        "ĠWomen",
        -1.0
      ],
      [
        "Ġdivided",
        -1.0
      ],
      [
        "Ġvast",
        -1.0
      ],
      [
        "Ġfiles",
        -1.0
      ],
      [
        "Ġpermanent",
        -1.0
      ],
      [
        "Ġslightly",
        -1.0
      ],
      [
        "Ġdecrease",
        -1.0
      ],
      [
        "use",
        -1.0
      ],
      [
        "Ġexchange",
        -1.0
      ],
      [
        "Ġlooked",
        -1.0
      ],
      [
        "Ġpieces",
        -1.0
      ],
      [
        "Ġselected",
        -1.0
      ],
      [
        "Ġhair",
        -1.0
      ],
      [
        "Ġ31",
        -1.0
      ],
      [
        "Ġrelationships",
        -1.0
      ],
      [
        "Ġextreme",
        -1.0
      ],
      [
        "Ġhappens",
        -1.0
      ],
      [
        "Ġexplore",
        -1.0
      ],
      [
        "ĠSmith",
        -1.0
      ],
      [
        "ĠMars",
        -1.0
      ],
      [
        "Ġcent",
        -1.0
      ],
      [
        "ries",
        -1.0
      ],
      [
        "Ġ1970",
        -1.0
      ],
      [
        "Ġfresh",
        -1.0
      ],
      [
        "ĠSun",
        -1.0
      ],
      [
        "Ġpolice",
        -1.0
      ],
      [
        "Ġregional",
        -1.0
      ],
      [
        "Ġgenerate",
        -1.0
      ],
      [
        "Ġmarriage",
        -1.0
      ],
      [
        "Ġpurchase",
        -1.0
      ],
      [
        "ĠNature",
        -1.0
      ],
      [
        "Ġfun",
        -1.0
      ],
      [
        "Ġconcerned",
        -1.0
      ],
      [
        "Ġprocessing",
        -1.0
      ],
      [
        "ine",
        -1.0
      ],
      [
        "Ġjobs",
        -1.0
      ],
      [
        "Ġ#",
        -1.0
      ],
      [
        "Ġstrategy",
        -1.0
      ],
      [
        "Ġvitamin",
        -1.0
      ],
      [
        "Ġgovernments",
        -1.0
      ],
      [
        "Ġcrops",
        -1.0
      ],
      [
        "Ġpress",
        -1.0
      ],
      [
        "Ġexplained",
        -1.0
      ],
      [
        "where",
        -1.0
      ],
      [
        "Ġsubsequent",
        -1.0
      ],
      [
        "ĠControl",
        -1.0
      ],
      [
        "example",
        -1.0
      ],
      [
        "Ġfine",
        -1.0
      ],
      [
        "Ġsta",
        -1.0
      ],
      [
        "so",
        -1.0
      ],
      [
        "Ġelectric",
        -1.0
      ],
      [
        "Ġflu",
        -1.0
      ],
      [
        "Ġfossil",
        -1.0
      ],
      [
        "Ġperiods",
        -1.0
      ],
      [
        "ĠGroup",
        -1.0
      ],
      [
        "Ġultimate",
        -1.0
      ],
      [
        "Ġfriend",
        -1.0
      ],
      [
        "un",
        -1.0
      ],
      [
        "Ġrural",
        -1.0
      ],
      [
        "Ġlandscape",
        -1.0
      ],
      [
        "Ġresponsibility",
        -1.0
      ],
      [
        "Ġextend",
        -1.0
      ],
      [
        "ĠSouthern",
        -1.0
      ],
      [
        "Ġsh",
        -1.0
      ],
      [
        "Ġlooks",
        -1.0
      ],
      [
        "ĠCarolina",
        -1.0
      ],
      [
        "tes",
        -1.0
      ],
      [
        "ought",
        -1.0
      ],
      [
        "Ġhearing",
        -1.0
      ],
      [
        "Ġmarine",
        -1.0
      ],
      [
        "Ġinvolves",
        -1.0
      ],
      [
        "50",
        -1.0
      ],
      [
        "ĠToday",
        -1.0
      ],
      [
        "Ġmonitoring",
        -1.0
      ],
      [
        "Ġfollows",
        -1.0
      ],
      [
        "Ġdeaths",
        -1.0
      ],
      [
        "les",
        -1.0
      ],
      [
        "Ġ*",
        -1.0
      ],
      [
        "Ġconsistent",
        -1.0
      ],
      [
        "ut",
        -1.0
      ],
      [
        "Ġsolid",
        -1.0
      ],
      [
        "Ġperfect",
        -1.0
      ],
      [
        "ĠStudents",
        -1.0
      ],
      [
        "ĠJoseph",
        -1.0
      ],
      [
        "Ġsequence",
        -1.0
      ],
      [
        "Ġforests",
        -1.0
      ],
      [
        "ta",
        -1.0
      ],
      [
        "Ġflight",
        -1.0
      ],
      [
        "Ġheight",
        -1.0
      ],
      [
        "Ġthreat",
        -1.0
      ],
      [
        "Ġmassive",
        -1.0
      ],
      [
        "Ġformation",
        -1.0
      ],
      [
        "Ġknew",
        -1.0
      ],
      [
        ".;",
        -1.0
      ],
      [
        "Ġaccept",
        -1.0
      ],
      [
        "500",
        -1.0
      ],
      [
        "Ġrelevant",
        -1.0
      ],
      [
        "Ġbeautiful",
        -1.0
      ],
      [
        "ĠMy",
        -1.0
      ],
      [
        "Ġexpert",
        -1.0
      ],
      [
        "Ġconcepts",
        -1.0
      ],
      [
        "ĠRussia",
        -1.0
      ],
      [
        "Ġgirls",
        -1.0
      ],
      [
        "ds",
        -1.0
      ],
      [
        "ia",
        -1.0
      ],
      [
        "Ġhospital",
        -1.0
      ],
      [
        "Ġaccepted",
        -1.0
      ],
      [
        "Ġinterests",
        -1.0
      ],
      [
        "Ġlatest",
        -1.0
      ],
      [
        "Ġadministration",
        -1.0
      ],
      [
        "Ġsyndrome",
        -1.0
      ],
      [
        "Ġexternal",
        -1.0
      ],
      [
        "Ġconsequences",
        -1.0
      ],
      [
        "Ġcouple",
        -1.0
      ],
      [
        "Ġmaximum",
        -1.0
      ],
      [
        "ĠStudies",
        -1.0
      ],
      [
        "you",
        -1.0
      ],
      [
        "Ġcoal",
        -1.0
      ],
      [
        "Ġsend",
        -1.0
      ],
      [
        "Ġsustainable",
        -1.0
      ],
      [
        "Ġinches",
        -1.0
      ],
      [
        "Ġcomponent",
        -1.0
      ],
      [
        "ling",
        -1.0
      ],
      [
        "ey",
        -1.0
      ],
      [
        "Ġfoot",
        -1.0
      ],
      [
        "ĠReport",
        -1.0
      ],
      [
        "Ġselection",
        -1.0
      ],
      [
        "Ġaircraft",
        -1.0
      ],
      [
        "Ġunless",
        -1.0
      ],
      [
        "Ġthousand",
        -1.0
      ],
      [
        "Ġattacks",
        -1.0
      ],
      [
        "Ġwaters",
        -1.0
      ],
      [
        "Ġinter",
        -1.0
      ],
      [
        "Ġdespite",
        -1.0
      ],
      [
        "21",
        -1.0
      ],
      [
        "24",
        -1.0
      ],
      [
        "Ġmotion",
        -1.0
      ],
      [
        "Ġrefer",
        -1.0
      ],
      [
        "Ġstone",
        -1.0
      ],
      [
        "ĠPeter",
        -1.0
      ],
      [
        "Ġvisible",
        -1.0
      ],
      [
        "Ġgoods",
        -1.0
      ],
      [
        "ĠRepublic",
        -1.0
      ],
      [
        "Ġworth",
        -1.0
      ],
      [
        "ĠBoth",
        -1.0
      ],
      [
        "Ġexplains",
        -1.0
      ],
      [
        "Ġkill",
        -1.0
      ],
      [
        "Ġparent",
        -1.0
      ],
      [
        "Ġvoice",
        -1.0
      ],
      [
        "Ġtransport",
        -1.0
      ],
      [
        "Ġcontrolled",
        -1.0
      ],
      [
        "Â·",
        -1.0
      ],
      [
        "Ġviews",
        -1.0
      ],
      [
        "Ġlaboratory",
        -1.0
      ],
      [
        "ha",
        -1.0
      ],
      [
        "ĠProfessor",
        -1.0
      ],
      [
        "Ġoutcome",
        -1.0
      ],
      [
        "referred",
        -1.0
      ],
      [
        "Ġmountain",
        -1.0
      ],
      [
        "ble",
        -1.0
      ],
      [
        "Ġsold",
        -1.0
      ],
      [
        "ay",
        -1.0
      ],
      [
        "Ġprotected",
        -1.0
      ],
      [
        "Ġconclusion",
        -1.0
      ],
      [
        "Ġopening",
        -1.0
      ],
      [
        "Ġmillions",
        -1.0
      ],
      [
        "Ġindeed",
        -1.0
      ],
      [
        "Ġba",
        -1.0
      ],
      [
        "ĠSecond",
        -1.0
      ],
      [
        "gov",
        -1.0
      ],
      [
        "Ġfluid",
        -1.0
      ],
      [
        "ĠAustralian",
        -1.0
      ],
      [
        "ĠAnother",
        -1.0
      ],
      [
        "Our",
        -1.0
      ],
      [
        "Ġhappened",
        -1.0
      ],
      [
        "ĠRichard",
        -1.0
      ],
      [
        "Ġproteins",
        -1.0
      ],
      [
        "co",
        -1.0
      ],
      [
        "Ġdepth",
        -1.0
      ],
      [
        "ists",
        -1.0
      ],
      [
        "Ġdrawing",
        -1.0
      ],
      [
        "Ġscreen",
        -1.0
      ],
      [
        "Ġstruggle",
        -1.0
      ],
      [
        "Ġlisted",
        -1.0
      ],
      [
        "ĠAl",
        -1.0
      ],
      [
        "ĠStreet",
        -1.0
      ],
      [
        "Ġcrisis",
        -1.0
      ],
      [
        "Ġcolleagues",
        -1.0
      ],
      [
        "la",
        -1.0
      ],
      [
        "ĠEgypt",
        -1.0
      ],
      [
        "Ġyellow",
        -1.0
      ],
      [
        "Ġagriculture",
        -1.0
      ],
      [
        "Ġdecade",
        -1.0
      ],
      [
        "Ġle",
        -1.0
      ],
      [
        "Ġnovel",
        -1.0
      ],
      [
        "Ġexperiments",
        -1.0
      ],
      [
        "Ġpublication",
        -1.0
      ],
      [
        "ti",
        -1.0
      ],
      [
        "Ġexhibit",
        -1.0
      ],
      [
        "ĠManagement",
        -1.0
      ],
      [
        "Ġregard",
        -1.0
      ],
      [
        "Ġappearance",
        -1.0
      ],
      [
        "Ġsalt",
        -1.0
      ],
      [
        "Ġleads",
        -1.0
      ],
      [
        "Ġabuse",
        -1.0
      ],
      [
        "Ġmineral",
        -1.0
      ],
      [
        "Ġhi",
        -1.0
      ],
      [
        "Ġpregnancy",
        -1.0
      ],
      [
        "Ġteeth",
        -1.0
      ],
      [
        "ther",
        -1.0
      ],
      [
        "Ġadvice",
        -1.0
      ],
      [
        "Ġwatch",
        -1.0
      ],
      [
        "ĠChicago",
        -1.0
      ],
      [
        "Ġtreatments",
        -1.0
      ],
      [
        "estimated",
        -1.0
      ],
      [
        "Ġfail",
        -1.0
      ],
      [
        "ĠConstitution",
        -1.0
      ],
      [
        "Ġdetect",
        -1.0
      ],
      [
        "Here",
        -1.0
      ],
      [
        "Ġleaving",
        -1.0
      ],
      [
        "Ġawareness",
        -1.0
      ],
      [
        "Ġexcellent",
        -1.0
      ],
      [
        "Ġprevention",
        -1.0
      ],
      [
        "Ġsector",
        -1.0
      ],
      [
        "Ġk",
        -1.0
      ],
      [
        "Ġsides",
        -1.0
      ],
      [
        "Ġagency",
        -1.0
      ],
      [
        "Ġtwenty",
        -1.0
      ],
      [
        "Ġy",
        -1.0
      ],
      [
        "Ġdogs",
        -1.0
      ],
      [
        "Ġfigures",
        -1.0
      ],
      [
        "Ġvegetables",
        -1.0
      ],
      [
        "Ġfi",
        -1.0
      ],
      [
        "Ġseeds",
        -1.0
      ],
      [
        "Ġimpossible",
        -1.0
      ],
      [
        "side",
        -1.0
      ],
      [
        "Ġ<",
        -1.0
      ],
      [
        "Ġshared",
        -1.0
      ],
      [
        "Ġorbit",
        -1.0
      ],
      [
        "Ġcharacters",
        -1.0
      ],
      [
        "na",
        -1.0
      ],
      [
        "Ġoption",
        -1.0
      ],
      [
        "Ġmeant",
        -1.0
      ],
      [
        "Ġcalls",
        -1.0
      ],
      [
        "Ġpaid",
        -1.0
      ],
      [
        "Ġenhance",
        -1.0
      ],
      [
        "Ġeastern",
        -1.0
      ],
      [
        "Ġidentity",
        -1.0
      ],
      [
        "Ġen",
        -1.0
      ],
      [
        "ĠGreen",
        -1.0
      ],
      [
        "Ġvillage",
        -1.0
      ],
      [
        "Ġfacts",
        -1.0
      ],
      [
        "Ġassist",
        -1.0
      ],
      [
        "Ġengineer",
        -1.0
      ],
      [
        "Ġcomparison",
        -1.0
      ],
      [
        "Ġagree",
        -1.0
      ],
      [
        "emergency",
        -1.0
      ],
      [
        "Ġtube",
        -1.0
      ],
      [
        "sing",
        -1.0
      ],
      [
        "Ġfloor",
        -1.0
      ],
      [
        "ality",
        -1.0
      ],
      [
        "Ġfaster",
        -1.0
      ],
      [
        "Ġpossibly",
        -1.0
      ],
      [
        "100",
        -1.0
      ],
      [
        "Ġindex",
        -1.0
      ],
      [
        "?\"",
        -1.0
      ],
      [
        "Ġbank",
        -1.0
      ],
      [
        "Ġmedications",
        -1.0
      ],
      [
        "Ġpark",
        -1.0
      ],
      [
        "Ġstock",
        -1.0
      ],
      [
        "Ġelectronic",
        -1.0
      ],
      [
        "Ġdraw",
        -1.0
      ],
      [
        "Ġmeat",
        -1.0
      ],
      [
        "Ġwalls",
        -1.0
      ],
      [
        "Ġcareer",
        -1.0
      ],
      [
        "ĠAcademy",
        -1.0
      ],
      [
        "Ġdistinct",
        -1.0
      ],
      [
        "Ġhelping",
        -1.0
      ],
      [
        "used",
        -1.0
      ],
      [
        "Ġaid",
        -1.0
      ],
      [
        "Ġassistance",
        -1.0
      ],
      [
        "Ġarms",
        -1.0
      ],
      [
        "ĠNations",
        -1.0
      ],
      [
        "Ġwildlife",
        -1.0
      ],
      [
        "Ġcomputers",
        -1.0
      ],
      [
        "ĠValley",
        -1.0
      ],
      [
        "only",
        -1.0
      ],
      [
        "Ġcomprehensive",
        -1.0
      ],
      [
        "Ġ35",
        -1.0
      ],
      [
        "ir",
        -1.0
      ],
      [
        "Ġpanel",
        -1.0
      ],
      [
        "V",
        -1.0
      ],
      [
        "Ġ1994",
        -1.0
      ],
      [
        "Ġintroduction",
        -1.0
      ],
      [
        "Ġ1960",
        -1.0
      ],
      [
        "ĠTimes",
        -1.0
      ],
      [
        "ĠCO",
        -1.0
      ],
      [
        "Ġdescription",
        -1.0
      ],
      [
        "ĠColumbia",
        -1.0
      ],
      [
        "Ġpassage",
        -1.0
      ],
      [
        "ĠMichael",
        -1.0
      ],
      [
        "Ġimpacts",
        -1.0
      ],
      [
        "Ġcorn",
        -1.0
      ],
      [
        "ad",
        -1.0
      ],
      [
        "Ġlesson",
        -1.0
      ],
      [
        "Ġremaining",
        -1.0
      ],
      [
        "ĠCancer",
        -1.0
      ],
      [
        "Ġsurvival",
        -1.0
      ],
      [
        "Ġvote",
        -1.0
      ],
      [
        "ors",
        -1.0
      ],
      [
        "Ġfoundation",
        -1.0
      ],
      [
        "Ġ>",
        -1.0
      ],
      [
        "Ġselect",
        -1.0
      ],
      [
        "ĠStudy",
        -1.0
      ],
      [
        "Ġexpressed",
        -1.0
      ],
      [
        "Ġnine",
        -1.0
      ],
      [
        "ings",
        -1.0
      ],
      [
        "Ġfamiliar",
        -1.0
      ],
      [
        "Ġjustice",
        -1.0
      ],
      [
        "Ġphilosophy",
        -1.0
      ],
      [
        "Ġextended",
        -1.0
      ],
      [
        "Ġemotional",
        -1.0
      ],
      [
        "Ġhouses",
        -1.0
      ],
      [
        "Ġflowers",
        -1.0
      ],
      [
        "Ġnewspaper",
        -1.0
      ],
      [
        "Ġauthorities",
        -1.0
      ],
      [
        "ĠCan",
        -1.0
      ],
      [
        "Ġgrown",
        -1.0
      ],
      [
        "cy",
        -1.0
      ],
      [
        "Ġexpand",
        -1.0
      ],
      [
        "Ġcamp",
        -1.0
      ],
      [
        "kept",
        -1.0
      ],
      [
        "Ġinput",
        -1.0
      ],
      [
        "free",
        -1.0
      ],
      [
        "Ġcounty",
        -1.0
      ],
      [
        "Ġclosed",
        -1.0
      ],
      [
        "Ġinfected",
        -1.0
      ],
      [
        "ĠTHE",
        -1.0
      ],
      [
        "Ġspiritual",
        -1.0
      ],
      [
        "Ġcontained",
        -1.0
      ],
      [
        "they",
        -1.0
      ],
      [
        "Ġconnect",
        -1.0
      ],
      [
        "Ġequivalent",
        -1.0
      ],
      [
        "Ġmode",
        -1.0
      ],
      [
        "Ġdrink",
        -1.0
      ],
      [
        "Ġassociation",
        -1.0
      ],
      [
        "Ġrefers",
        -1.0
      ],
      [
        "Ġparties",
        -1.0
      ],
      [
        "ĠBoard",
        -1.0
      ],
      [
        "ĠDisease",
        -1.0
      ],
      [
        "what",
        -1.0
      ],
      [
        "Instead",
        -1.0
      ],
      [
        "Ġmagnetic",
        -1.0
      ],
      [
        "Ġminimum",
        -1.0
      ],
      [
        "ĠSciences",
        -1.0
      ],
      [
        "Ġdemonstrate",
        -1.0
      ],
      [
        "ĠOnly",
        -1.0
      ],
      [
        "Ġexamine",
        -1.0
      ],
      [
        "ĠAbout",
        -1.0
      ],
      [
        "Ġobtain",
        -1.0
      ],
      [
        "Ġcrop",
        -1.0
      ],
      [
        "Ġexpress",
        -1.0
      ],
      [
        "].",
        -1.0
      ],
      [
        "Ġoperate",
        -1.0
      ],
      [
        "Ġ300",
        -1.0
      ],
      [
        "ĠItaly",
        -1.0
      ],
      [
        "Ġcircuit",
        -1.0
      ],
      [
        "Ġyouth",
        -1.0
      ],
      [
        "Ġunknown",
        -1.0
      ],
      [
        "Ġconfirm",
        -1.0
      ],
      [
        "ter",
        -1.0
      ],
      [
        "Ġ500",
        -1.0
      ],
      [
        "ĠIII",
        -1.0
      ],
      [
        "Ġsurvive",
        -1.0
      ],
      [
        "how",
        -1.0
      ],
      [
        "Ġinterview",
        -1.0
      ],
      [
        "Ġvaluable",
        -1.0
      ],
      [
        "Ġconcentration",
        -1.0
      ],
      [
        "Another",
        -1.0
      ],
      [
        "Ġseed",
        -1.0
      ],
      [
        "Ġmaster",
        -1.0
      ],
      [
        "Ġho",
        -1.0
      ],
      [
        "Ġdoubt",
        -1.0
      ],
      [
        "Ġtopics",
        -1.0
      ],
      [
        "ĠIndians",
        -1.0
      ],
      [
        "Ġmovements",
        -1.0
      ],
      [
        "ĠParty",
        -1.0
      ],
      [
        "Ġmarked",
        -1.0
      ],
      [
        "Ġapproaches",
        -1.0
      ],
      [
        "Ġresolution",
        -1.0
      ],
      [
        "ĠOr",
        -1.0
      ],
      [
        "Ġra",
        -1.0
      ],
      [
        "Ġrepeated",
        -1.0
      ],
      [
        "ĠArt",
        -1.0
      ],
      [
        "Ġmarried",
        -1.0
      ],
      [
        "Ġassess",
        -1.0
      ],
      [
        "Ġparticipate",
        -1.0
      ],
      [
        "ĠInc",
        -1.0
      ],
      [
        "Ġexpensive",
        -1.0
      ],
      [
        "also",
        -1.0
      ],
      [
        "Dr",
        -1.0
      ],
      [
        "Ġrevealed",
        -1.0
      ],
      [
        "Ġphone",
        -1.0
      ],
      [
        "ĠRome",
        -1.0
      ],
      [
        "Ġwindow",
        -1.0
      ],
      [
        "Ġmoon",
        -1.0
      ],
      [
        "Ġrelations",
        -1.0
      ],
      [
        "âĢĿ,",
        -1.0
      ],
      [
        "Ġgreatly",
        -1.0
      ],
      [
        "Ġkeeping",
        -1.0
      ],
      [
        "level",
        -1.0
      ],
      [
        "Ġsuffer",
        -1.0
      ],
      [
        "Ġideal",
        -1.0
      ],
      [
        "Ġconventional",
        -1.0
      ],
      [
        "Ġsubstantial",
        -1.0
      ],
      [
        "Why",
        -1.0
      ],
      [
        "Ġtiny",
        -1.0
      ],
      [
        "Ġpictures",
        -1.0
      ],
      [
        "Ġcomments",
        -1.0
      ],
      [
        "theory",
        -1.0
      ],
      [
        "Ġcollect",
        -1.0
      ],
      [
        "Ġworldwide",
        -1.0
      ],
      [
        "Ġbright",
        -1.0
      ],
      [
        "Ġtraffic",
        -1.0
      ],
      [
        "Ġswitch",
        -1.0
      ],
      [
        "ĠForce",
        -1.0
      ],
      [
        "ended",
        -1.0
      ],
      [
        "Ġsa",
        -1.0
      ],
      [
        "Ġdeliver",
        -1.0
      ],
      [
        "ĠSpain",
        -1.0
      ],
      [
        "23",
        -1.0
      ],
      [
        "ses",
        -1.0
      ],
      [
        "Ġescape",
        -1.0
      ],
      [
        "ĠReview",
        -1.0
      ],
      [
        "Ġtouch",
        -1.0
      ],
      [
        "Ġisn",
        -1.0
      ],
      [
        "Ġsecondary",
        -1.0
      ],
      [
        "Ġ1993",
        -1.0
      ],
      [
        "Ġtransmission",
        -1.0
      ],
      [
        "ĠGlobal",
        -1.0
      ],
      [
        "Ġliver",
        -1.0
      ],
      [
        "Ġsounds",
        -1.0
      ],
      [
        "Ġnarrow",
        -1.0
      ],
      [
        "ĠNatural",
        -1.0
      ],
      [
        "ĠNorthern",
        -1.0
      ],
      [
        "about",
        -1.0
      ],
      [
        "Ġfair",
        -1.0
      ],
      [
        "ĠAtlantic",
        -1.0
      ],
      [
        "ma",
        -1.0
      ],
      [
        "ĠAgency",
        -1.0
      ],
      [
        "Ġonto",
        -1.0
      ],
      [
        "Ġ1992",
        -1.0
      ],
      [
        "Ġdiversity",
        -1.0
      ],
      [
        "Ġmolecules",
        -1.0
      ],
      [
        "Ġcontribution",
        -1.0
      ],
      [
        "Ġpromise",
        -1.0
      ],
      [
        "ĠOver",
        -1.0
      ],
      [
        "ĠData",
        -1.0
      ],
      [
        "Ġborder",
        -1.0
      ],
      [
        "Ġlegislation",
        -1.0
      ],
      [
        "Ġadvance",
        -1.0
      ],
      [
        "Ġopposite",
        -1.0
      ],
      [
        "long",
        -1.0
      ],
      [
        "Ġfilter",
        -1.0
      ],
      [
        "Ġmaps",
        -1.0
      ],
      [
        "Ġimplementation",
        -1.0
      ],
      [
        "Ġdrop",
        -1.0
      ],
      [
        "Ġmulti",
        -1.0
      ],
      [
        "Ġstroke",
        -1.0
      ],
      [
        "Ġwaves",
        -1.0
      ],
      [
        "ĠYet",
        -1.0
      ],
      [
        "ĠItalian",
        -1.0
      ],
      [
        "Ġlands",
        -1.0
      ],
      [
        "Ġcool",
        -1.0
      ],
      [
        "Ġcomposition",
        -1.0
      ],
      [
        "Ġbo",
        -1.0
      ],
      [
        "Ġvary",
        -1.0
      ],
      [
        "Ġhonor",
        -1.0
      ],
      [
        "ĠMD",
        -1.0
      ],
      [
        "Ġgreenhouse",
        -1.0
      ],
      [
        "Ġorganisms",
        -1.0
      ],
      [
        "ating",
        -1.0
      ],
      [
        "Ġsaving",
        -1.0
      ],
      [
        "Ġsoft",
        -1.0
      ],
      [
        "html",
        -1.0
      ],
      [
        "Ġsets",
        -1.0
      ],
      [
        "Ġcircumstances",
        -1.0
      ],
      [
        "Ġtwice",
        -1.0
      ],
      [
        "Ġvessels",
        -1.0
      ],
      [
        "Ġimplement",
        -1.0
      ],
      [
        "Ġcommittee",
        -1.0
      ],
      [
        "ĠEastern",
        -1.0
      ],
      [
        "Ġerror",
        -1.0
      ],
      [
        "Ġdioxide",
        -1.0
      ],
      [
        "ĠOF",
        -1.0
      ],
      [
        "ĠResources",
        -1.0
      ],
      [
        "Ġlab",
        -1.0
      ],
      [
        "Ġmark",
        -1.0
      ],
      [
        "Ġcurriculum",
        -1.0
      ],
      [
        "Ġmi",
        -1.0
      ],
      [
        "rd",
        -1.0
      ],
      [
        "Ġstem",
        -1.0
      ],
      [
        "ĠGuide",
        -1.0
      ],
      [
        "ĠLike",
        -1.0
      ],
      [
        "Ġbill",
        -1.0
      ],
      [
        "Ġcoastal",
        -1.0
      ],
      [
        "Ġleadership",
        -1.0
      ],
      [
        "01",
        -1.0
      ],
      [
        "Ġgender",
        -1.0
      ],
      [
        "ĠUsing",
        -1.0
      ],
      [
        "ĠThose",
        -1.0
      ],
      [
        "Ġprincipal",
        -1.0
      ],
      [
        "Ġabsolute",
        -1.0
      ],
      [
        "Ġguidelines",
        -1.0
      ],
      [
        "Ġtoxic",
        -1.0
      ],
      [
        "Ġentry",
        -1.0
      ],
      [
        "Ġsatellite",
        -1.0
      ],
      [
        "Last",
        -1.0
      ],
      [
        "Ġinvestigation",
        -1.0
      ],
      [
        "Since",
        -1.0
      ],
      [
        "Ġevaluation",
        -1.0
      ],
      [
        "Ġfilled",
        -1.0
      ],
      [
        "Ġpush",
        -1.0
      ],
      [
        "Ġfell",
        -1.0
      ],
      [
        "Ġpercentage",
        -1.0
      ],
      [
        "Ġterritory",
        -1.0
      ],
      [
        "Ġmechanism",
        -1.0
      ],
      [
        "Ġapparent",
        -1.0
      ],
      [
        "Ġreveal",
        -1.0
      ],
      [
        "Ġedition",
        -1.0
      ],
      [
        "ĠOhio",
        -1.0
      ],
      [
        "Ġroots",
        -1.0
      ],
      [
        "Ġlimits",
        -1.0
      ],
      [
        "Ġbelong",
        -1.0
      ],
      [
        "Ġrecovery",
        -1.0
      ],
      [
        "ca",
        -1.0
      ],
      [
        ":||",
        -1.0
      ],
      [
        "Ġstring",
        -1.0
      ],
      [
        "sis",
        -1.0
      ],
      [
        "Ġnaturally",
        -1.0
      ],
      [
        "Ġharvest",
        -1.0
      ],
      [
        "Ġhistoric",
        -1.0
      ],
      [
        "Ġcontinuous",
        -1.0
      ],
      [
        "Ġphysics",
        -1.0
      ],
      [
        "Ġbroken",
        -1.0
      ],
      [
        "Ġfirm",
        -1.0
      ],
      [
        "other",
        -1.0
      ],
      [
        "Ġdust",
        -1.0
      ],
      [
        "Ġprecise",
        -1.0
      ],
      [
        "Ġinvestment",
        -1.0
      ],
      [
        "including",
        -1.0
      ],
      [
        "Ġmedium",
        -1.0
      ],
      [
        "ĠAdministration",
        -1.0
      ],
      [
        "Ġinterpretation",
        -1.0
      ],
      [
        "Ġcrime",
        -1.0
      ],
      [
        "Ġbones",
        -1.0
      ],
      [
        "Ġmotor",
        -1.0
      ],
      [
        "Ġworse",
        -1.0
      ],
      [
        "Ġships",
        -1.0
      ],
      [
        "ĠRoyal",
        -1.0
      ],
      [
        "water",
        -1.0
      ],
      [
        "Ġvital",
        -1.0
      ],
      [
        "Ġrain",
        -1.0
      ],
      [
        "Ġthreaten",
        -1.0
      ],
      [
        "Ġpair",
        -1.0
      ],
      [
        "Ġsnow",
        -1.0
      ],
      [
        "Ġchildhood",
        -1.0
      ],
      [
        "Note",
        -1.0
      ],
      [
        "linked",
        -1.0
      ],
      [
        "Ġsuffering",
        -1.0
      ],
      [
        "ĠNative",
        -1.0
      ],
      [
        "finally",
        -1.0
      ],
      [
        "line",
        -1.0
      ],
      [
        "ĠParis",
        -1.0
      ],
      [
        "Ġslowly",
        -1.0
      ],
      [
        "Ġdecide",
        -1.0
      ],
      [
        "40",
        -1.0
      ],
      [
        "ĠIreland",
        -1.0
      ],
      [
        "nding",
        -1.0
      ],
      [
        "Ġplaying",
        -1.0
      ],
      [
        "Ġformal",
        -1.0
      ],
      [
        "Ġadequate",
        -1.0
      ],
      [
        "ans",
        -1.0
      ],
      [
        "ive",
        -1.0
      ],
      [
        "Ġwealth",
        -1.0
      ],
      [
        "effectively",
        -1.0
      ],
      [
        "Ġframework",
        -1.0
      ],
      [
        "Ġsignals",
        -1.0
      ],
      [
        "ĠDivision",
        -1.0
      ],
      [
        "Ġformat",
        -1.0
      ],
      [
        "body",
        -1.0
      ],
      [
        "do",
        -1.0
      ],
      [
        "ĠServices",
        -1.0
      ],
      [
        "Ġsky",
        -1.0
      ],
      [
        "ents",
        -1.0
      ],
      [
        "Ġexplanation",
        -1.0
      ],
      [
        "Ġdepartment",
        -1.0
      ],
      [
        "Ġagreed",
        -1.0
      ],
      [
        "Ġenemy",
        -1.0
      ],
      [
        "Ġoccasion",
        -1.0
      ],
      [
        "ĠEmpire",
        -1.0
      ],
      [
        "Ġremote",
        -1.0
      ],
      [
        "Ġpretty",
        -1.0
      ],
      [
        "Ġzone",
        -1.0
      ],
      [
        "Ġinstrument",
        -1.0
      ],
      [
        "Ġbrother",
        -1.0
      ],
      [
        "ĠHoly",
        -1.0
      ],
      [
        "Ġinstruments",
        -1.0
      ],
      [
        "Ġstream",
        -1.0
      ],
      [
        "Ġimmediate",
        -1.0
      ],
      [
        "Ġattend",
        -1.0
      ],
      [
        "Ġdiffer",
        -1.0
      ],
      [
        "Ġdu",
        -1.0
      ],
      [
        "ĠBrown",
        -1.0
      ],
      [
        "Ġbudget",
        -1.0
      ],
      [
        "Ġedge",
        -1.0
      ],
      [
        "Ġfruits",
        -1.0
      ],
      [
        "Ġpowers",
        -1.0
      ],
      [
        "Ġbrown",
        -1.0
      ],
      [
        "Ġinstruction",
        -1.0
      ],
      [
        "Ġstored",
        -1.0
      ],
      [
        "Ġregulations",
        -1.0
      ],
      [
        "Ġcore",
        -1.0
      ],
      [
        "Ġuniversity",
        -1.0
      ],
      [
        "Ġphoto",
        -1.0
      ],
      [
        "Ġpe",
        -1.0
      ],
      [
        "Ġcognitive",
        -1.0
      ],
      [
        "son",
        -1.0
      ],
      [
        "Ġreaders",
        -1.0
      ],
      [
        "Ġtransportation",
        -1.0
      ],
      [
        "Ġparallel",
        -1.0
      ],
      [
        "ĠEncyclopedia",
        -1.0
      ],
      [
        "Ġsensitive",
        -1.0
      ],
      [
        "ĠCa",
        -1.0
      ],
      [
        "Ġstages",
        -1.0
      ],
      [
        "Ġmixed",
        -1.0
      ],
      [
        "Ġ45",
        -1.0
      ],
      [
        "ĠDistrict",
        -1.0
      ],
      [
        "ĠLearning",
        -1.0
      ],
      [
        "will",
        -1.0
      ],
      [
        "Ġsmoke",
        -1.0
      ],
      [
        "Ġlose",
        -1.0
      ],
      [
        "ro",
        -1.0
      ],
      [
        "Ġcolors",
        -1.0
      ],
      [
        "ĠKingdom",
        -1.0
      ],
      [
        "Ġgovern",
        -1.0
      ],
      [
        "Ġformula",
        -1.0
      ],
      [
        "Ġed",
        -1.0
      ],
      [
        "ility",
        -1.0
      ],
      [
        "Ġstudying",
        -1.0
      ],
      [
        "ge",
        -1.0
      ],
      [
        "Ġ1991",
        -1.0
      ],
      [
        "Ġwave",
        -1.0
      ],
      [
        "26",
        -1.0
      ],
      [
        "Ġfixed",
        -1.0
      ],
      [
        "Figure",
        -1.0
      ],
      [
        "ĠFree",
        -1.0
      ],
      [
        "Ġfighting",
        -1.0
      ],
      [
        "Ġemployed",
        -1.0
      ],
      [
        "has",
        -1.0
      ],
      [
        "Ġages",
        -1.0
      ],
      [
        "Ġear",
        -1.0
      ],
      [
        "Ġcamera",
        -1.0
      ],
      [
        "Ġrivers",
        -1.0
      ],
      [
        "Ġaffects",
        -1.0
      ],
      [
        "Ġattached",
        -1.0
      ],
      [
        "scale",
        -1.0
      ],
      [
        "ĠUSA",
        -1.0
      ],
      [
        "Ġconference",
        -1.0
      ],
      [
        "farmers",
        -1.0
      ],
      [
        "Ġdefense",
        -1.0
      ],
      [
        "Ġevaluate",
        -1.0
      ],
      [
        "Ġemployment",
        -1.0
      ],
      [
        "Ġethnic",
        -1.0
      ],
      [
        "Ġapproved",
        -1.0
      ],
      [
        "Ġcompetition",
        -1.0
      ],
      [
        "ĠDon",
        -1.0
      ],
      [
        "known",
        -1.0
      ],
      [
        "Ġholding",
        -1.0
      ],
      [
        "Ġlay",
        -1.0
      ],
      [
        "Ġroute",
        -1.0
      ],
      [
        "Ġbiology",
        -1.0
      ],
      [
        "Ġcarefully",
        -1.0
      ],
      [
        "Ġroutine",
        -1.0
      ],
      [
        "Ġexists",
        -1.0
      ],
      [
        "Ġofficers",
        -1.0
      ],
      [
        "Ġmatch",
        -1.0
      ],
      [
        "Ġprovision",
        -1.0
      ],
      [
        "Ġmuseum",
        -1.0
      ],
      [
        "Ġdivision",
        -1.0
      ],
      [
        "ĠMartin",
        -1.0
      ],
      [
        "Ġ32",
        -1.0
      ],
      [
        "Ġdriving",
        -1.0
      ],
      [
        "Ġderive",
        -1.0
      ],
      [
        "Ġsecure",
        -1.0
      ],
      [
        "Ġsuccessfully",
        -1.0
      ],
      [
        "Ġhorse",
        -1.0
      ],
      [
        "Ġsentence",
        -1.0
      ],
      [
        "Ġprepare",
        -1.0
      ],
      [
        "Ġvariable",
        -1.0
      ],
      [
        "ĠBank",
        -1.0
      ],
      [
        "ĠJust",
        -1.0
      ],
      [
        "ĠUN",
        -1.0
      ],
      [
        "Ġcontract",
        -1.0
      ],
      [
        "Ġgone",
        -1.0
      ],
      [
        "Ġproduces",
        -1.0
      ],
      [
        "Ġsecret",
        -1.0
      ],
      [
        "Ġfavor",
        -1.0
      ],
      [
        "ere",
        -1.0
      ],
      [
        "Ġdebt",
        -1.0
      ],
      [
        "Ġhelpful",
        -1.0
      ],
      [
        "detailed",
        -1.0
      ],
      [
        "Ġchosen",
        -1.0
      ],
      [
        "Ġseemed",
        -1.0
      ],
      [
        "ri",
        -1.0
      ],
      [
        "Ġwarning",
        -1.0
      ],
      [
        "Ġmuscles",
        -1.0
      ],
      [
        "Ġvirtual",
        -1.0
      ],
      [
        "Ġround",
        -1.0
      ],
      [
        "Ġeliminate",
        -1.0
      ],
      [
        "Ġexact",
        -1.0
      ],
      [
        "Ġnutrients",
        -1.0
      ],
      [
        "Ġrelation",
        -1.0
      ],
      [
        "Ġcandidate",
        -1.0
      ],
      [
        "Ġprovince",
        -1.0
      ],
      [
        "Ġanswers",
        -1.0
      ],
      [
        "Ġzero",
        -1.0
      ],
      [
        "Ġyounger",
        -1.0
      ],
      [
        "http",
        -1.0
      ],
      [
        "ess",
        -1.0
      ],
      [
        "Ġmerely",
        -1.0
      ],
      [
        "ĠLe",
        -1.0
      ],
      [
        "Ġtasks",
        -1.0
      ],
      [
        "Ġfunds",
        -1.0
      ],
      [
        "ĠOcean",
        -1.0
      ],
      [
        "Ġdestruction",
        -1.0
      ],
      [
        "Ġdrawn",
        -1.0
      ],
      [
        "Ġnone",
        -1.0
      ],
      [
        "sts",
        -1.0
      ],
      [
        "Ġregister",
        -1.0
      ],
      [
        "Ġspeaking",
        -1.0
      ],
      [
        "Ġsupposed",
        -1.0
      ],
      [
        "Ġtelevision",
        -1.0
      ],
      [
        "Ġne",
        -1.0
      ],
      [
        "their",
        -1.0
      ],
      [
        "Ġch",
        -1.0
      ],
      [
        "Ġdesire",
        -1.0
      ],
      [
        "Ġinfrastructure",
        -1.0
      ],
      [
        "Ġplatform",
        -1.0
      ],
      [
        "Ġrising",
        -1.0
      ],
      [
        "27",
        -1.0
      ],
      [
        "ĠLincoln",
        -1.0
      ],
      [
        "Researchers",
        -1.0
      ],
      [
        "Ġelected",
        -1.0
      ],
      [
        "Ġjourney",
        -1.0
      ],
      [
        "Ġgrass",
        -1.0
      ],
      [
        "Ġexpansion",
        -1.0
      ],
      [
        "Ġdramatic",
        -1.0
      ],
      [
        "Ġhusband",
        -1.0
      ],
      [
        "ĠLaboratory",
        -1.0
      ],
      [
        "Ġdollars",
        -1.0
      ],
      [
        "Ġlabel",
        -1.0
      ],
      [
        "Ġcourses",
        -1.0
      ],
      [
        "Ġinsects",
        -1.0
      ],
      [
        "Ġadopt",
        -1.0
      ],
      [
        "Ġintelligence",
        -1.0
      ],
      [
        "Ġhydrogen",
        -1.0
      ],
      [
        "Ġprogramme",
        -1.0
      ],
      [
        "Ġtrain",
        -1.0
      ],
      [
        "Ġmath",
        -1.0
      ],
      [
        "Ġassume",
        -1.0
      ],
      [
        "Ġdiverse",
        -1.0
      ],
      [
        "Ġrocks",
        -1.0
      ],
      [
        "Ġarchitecture",
        -1.0
      ],
      [
        "Ġpolitics",
        -1.0
      ],
      [
        "Ġfit",
        -1.0
      ],
      [
        "ĠMan",
        -1.0
      ],
      [
        "Ġrevolution",
        -1.0
      ],
      [
        "Ġfalse",
        -1.0
      ],
      [
        "density",
        -1.0
      ],
      [
        "Ġwish",
        -1.0
      ],
      [
        "Ġpresentation",
        -1.0
      ],
      [
        "Ġchoices",
        -1.0
      ],
      [
        "Ġpilot",
        -1.0
      ],
      [
        "ĠIrish",
        -1.0
      ],
      [
        "Ġmobile",
        -1.0
      ],
      [
        "ĠAsian",
        -1.0
      ],
      [
        "ins",
        -1.0
      ],
      [
        "ĠClimate",
        -1.0
      ],
      [
        "Ġrandom",
        -1.0
      ],
      [
        "Ġpreserve",
        -1.0
      ],
      [
        "Ġsharing",
        -1.0
      ],
      [
        "Ġload",
        -1.0
      ],
      [
        "Ġintellectual",
        -1.0
      ],
      [
        "Ġfishing",
        -1.0
      ],
      [
        "Ġweak",
        -1.0
      ],
      [
        "Th",
        -1.0
      ],
      [
        "Ġnetworks",
        -1.0
      ],
      [
        "im",
        -1.0
      ],
      [
        "Ġdemonstrated",
        -1.0
      ],
      [
        "llowing",
        -1.0
      ],
      [
        "Ġminor",
        -1.0
      ],
      [
        "Ġstraight",
        -1.0
      ],
      [
        "Ġcluster",
        -1.0
      ],
      [
        "Ġlisten",
        -1.0
      ],
      [
        "Ġac",
        -1.0
      ],
      [
        "pp",
        -1.0
      ],
      [
        "ie",
        -1.0
      ],
      [
        "Ġfacility",
        -1.0
      ],
      [
        "Ġhousing",
        -1.0
      ],
      [
        "Ġserver",
        -1.0
      ],
      [
        "ĠOxford",
        -1.0
      ],
      [
        "Ġpreparation",
        -1.0
      ],
      [
        "ily",
        -1.0
      ],
      [
        "Ġlung",
        -1.0
      ],
      [
        "Ġbear",
        -1.0
      ],
      [
        "ĠHer",
        -1.0
      ],
      [
        "ot",
        -1.0
      ],
      [
        "Ġweapons",
        -1.0
      ],
      [
        "Ġobserv",
        -1.0
      ],
      [
        "Ġacts",
        -1.0
      ],
      [
        "way",
        -1.0
      ],
      [
        "Ġanalyze",
        -1.0
      ],
      [
        "Ġproposal",
        -1.0
      ],
      [
        "Ġconsiderable",
        -1.0
      ],
      [
        "Ġcomposed",
        -1.0
      ],
      [
        "Ġ(\"",
        -1.0
      ],
      [
        "ĠRevolution",
        -1.0
      ],
      [
        "Ġpounds",
        -1.0
      ],
      [
        "Ġball",
        -1.0
      ],
      [
        "ance",
        -1.0
      ],
      [
        "Ġconsideration",
        -1.0
      ],
      [
        "who",
        -1.0
      ],
      [
        "Ġarm",
        -1.0
      ],
      [
        "Ġinner",
        -1.0
      ],
      [
        "Ġpump",
        -1.0
      ],
      [
        "Ġyield",
        -1.0
      ],
      [
        "Ġprove",
        -1.0
      ],
      [
        "Ġintervention",
        -1.0
      ],
      [
        "Ġ1950",
        -1.0
      ],
      [
        "ĠPart",
        -1.0
      ],
      [
        "were",
        -1.0
      ],
      [
        "ĠDirector",
        -1.0
      ],
      [
        "ĠTime",
        -1.0
      ],
      [
        "Ġsolve",
        -1.0
      ],
      [
        "ĠEarly",
        -1.0
      ],
      [
        "ĠGulf",
        -1.0
      ],
      [
        "ĠConservation",
        -1.0
      ],
      [
        "Ġgraduate",
        -1.0
      ],
      [
        "Ġconsumers",
        -1.0
      ],
      [
        "ĠMark",
        -1.0
      ],
      [
        "ide",
        -1.0
      ],
      [
        "Ġmedication",
        -1.0
      ],
      [
        "28",
        -1.0
      ],
      [
        "Ġtruly",
        -1.0
      ],
      [
        "any",
        -1.0
      ],
      [
        "Ġachievement",
        -1.0
      ],
      [
        "shaped",
        -1.0
      ],
      [
        "supported",
        -1.0
      ],
      [
        "Ġparticipation",
        -1.0
      ],
      [
        "ĠPlan",
        -1.0
      ],
      [
        "Ġinterface",
        -1.0
      ],
      [
        "ving",
        -1.0
      ],
      [
        "Ġrepair",
        -1.0
      ],
      [
        "Ġ150",
        -1.0
      ],
      [
        "Ġstands",
        -1.0
      ],
      [
        "ĠJohnson",
        -1.0
      ],
      [
        "ĠPa",
        -1.0
      ],
      [
        "ĠBoston",
        -1.0
      ],
      [
        "Ġintake",
        -1.0
      ],
      [
        "Ġcenters",
        -1.0
      ],
      [
        "Ġflood",
        -1.0
      ],
      [
        "Ġconsume",
        -1.0
      ],
      [
        "ĠLouis",
        -1.0
      ],
      [
        "Ġlessons",
        -1.0
      ],
      [
        "ĠGeorgia",
        -1.0
      ],
      [
        "Ġwonder",
        -1.0
      ],
      [
        "Ġunusual",
        -1.0
      ],
      [
        "Ġfourth",
        -1.0
      ],
      [
        "Ġdeclare",
        -1.0
      ],
      [
        "Ġcholesterol",
        -1.0
      ],
      [
        "Ġfeeding",
        -1.0
      ],
      [
        "Ġcommitment",
        -1.0
      ],
      [
        "ĠCambridge",
        -1.0
      ],
      [
        "Ġsilver",
        -1.0
      ],
      [
        "ĠPower",
        -1.0
      ],
      [
        "Ġindependence",
        -1.0
      ],
      [
        "now",
        -1.0
      ],
      [
        "ĠMo",
        -1.0
      ],
      [
        "Ġapart",
        -1.0
      ],
      [
        "Ġcomment",
        -1.0
      ],
      [
        "Ġdiagnosed",
        -1.0
      ],
      [
        "ĠÂ©",
        -1.0
      ],
      [
        "ĠSurvey",
        -1.0
      ],
      [
        "Ġmechanisms",
        -1.0
      ],
      [
        "Ġscene",
        -1.0
      ],
      [
        "Ġboys",
        -1.0
      ],
      [
        "Ġpositions",
        -1.0
      ],
      [
        "Ġvictims",
        -1.0
      ],
      [
        "Ġchain",
        -1.0
      ],
      [
        "Ġtransition",
        -1.0
      ],
      [
        "Ġwriter",
        -1.0
      ],
      [
        "ĠEPA",
        -1.0
      ],
      [
        "Ġpapers",
        -1.0
      ],
      [
        "Ġstanding",
        -1.0
      ],
      [
        "Ġsymbol",
        -1.0
      ],
      [
        "Ġsections",
        -1.0
      ],
      [
        ")|",
        -1.0
      ],
      [
        "Ġphrase",
        -1.0
      ],
      [
        "changing",
        -1.0
      ],
      [
        "Ġfrequent",
        -1.0
      ],
      [
        "ces",
        -1.0
      ],
      [
        "',",
        -1.0
      ],
      [
        "Ġfever",
        -1.0
      ],
      [
        "ĠAmong",
        -1.0
      ],
      [
        "Ġskill",
        -1.0
      ],
      [
        "end",
        -1.0
      ],
      [
        "ĠFamily",
        -1.0
      ],
      [
        "Ġdisaster",
        -1.0
      ],
      [
        "Ġgenerations",
        -1.0
      ],
      [
        "ending",
        -1.0
      ],
      [
        "Ġharm",
        -1.0
      ],
      [
        "ĠGoogle",
        -1.0
      ],
      [
        "ĠSe",
        -1.0
      ],
      [
        "Ġmaintenance",
        -1.0
      ],
      [
        "Ġthin",
        -1.0
      ],
      [
        "Ġsmoking",
        -1.0
      ],
      [
        "Ġslaves",
        -1.0
      ],
      [
        "ĠPennsylvania",
        -1.0
      ],
      [
        "century",
        -1.0
      ],
      [
        "Ġimprovement",
        -1.0
      ],
      [
        "Ġregularly",
        -1.0
      ],
      [
        "Ġscreening",
        -1.0
      ],
      [
        "Ġinvolve",
        -1.0
      ],
      [
        "suggested",
        -1.0
      ],
      [
        "29",
        -1.0
      ],
      [
        "Ġrecognition",
        -1.0
      ],
      [
        "Ġmodified",
        -1.0
      ],
      [
        "Ġoutbreak",
        -1.0
      ],
      [
        "Ġpartner",
        -1.0
      ],
      [
        "em",
        -1.0
      ],
      [
        "Ġcalcium",
        -1.0
      ],
      [
        "ĠSecurity",
        -1.0
      ],
      [
        "Ġevil",
        -1.0
      ],
      [
        "Ġnoise",
        -1.0
      ],
      [
        "ĠPost",
        -1.0
      ],
      [
        "Ġtips",
        -1.0
      ],
      [
        "Ġknows",
        -1.0
      ],
      [
        "Ġcopyright",
        -1.0
      ],
      [
        "head",
        -1.0
      ],
      [
        "\")",
        -1.0
      ],
      [
        "Ġspot",
        -1.0
      ],
      [
        "sh",
        -1.0
      ],
      [
        "Ġflat",
        -1.0
      ],
      [
        "ĠPage",
        -1.0
      ],
      [
        "Ġcommitted",
        -1.0
      ],
      [
        "ĠLand",
        -1.0
      ],
      [
        "Ġsuitable",
        -1.0
      ],
      [
        "ea",
        -1.0
      ],
      [
        "Ġuniversal",
        -1.0
      ],
      [
        "Ġcultures",
        -1.0
      ],
      [
        "Ġnutrition",
        -1.0
      ],
      [
        "Ġenvironments",
        -1.0
      ],
      [
        "Ġrecommendation",
        -1.0
      ],
      [
        "Ġinteraction",
        -1.0
      ],
      [
        "Ġburning",
        -1.0
      ],
      [
        "Ġincorporate",
        -1.0
      ],
      [
        "Ġfemales",
        -1.0
      ],
      [
        "Ġmathematics",
        -1.0
      ],
      [
        "Ġcompounds",
        -1.0
      ],
      [
        "ĠHome",
        -1.0
      ],
      [
        "ment",
        -1.0
      ],
      [
        "Ġturns",
        -1.0
      ],
      [
        "Ġstomach",
        -1.0
      ],
      [
        "Ġmagazine",
        -1.0
      ],
      [
        "Ġdefine",
        -1.0
      ],
      [
        "ĠAge",
        -1.0
      ],
      [
        "ĠMichigan",
        -1.0
      ],
      [
        "ĠUn",
        -1.0
      ],
      [
        "Ġfill",
        -1.0
      ],
      [
        "Ġreader",
        -1.0
      ],
      [
        "Ġcloser",
        -1.0
      ],
      [
        "Ġsupporting",
        -1.0
      ],
      [
        "Ġruns",
        -1.0
      ],
      [
        "Ġcard",
        -1.0
      ],
      [
        "Ġsupports",
        -1.0
      ],
      [
        "ĠPlease",
        -1.0
      ],
      [
        "Ġimprov",
        -1.0
      ],
      [
        "Ġbusinesses",
        -1.0
      ],
      [
        "Ġinjuries",
        -1.0
      ],
      [
        "Ġreserved",
        -1.0
      ],
      [
        "Ġwilling",
        -1.0
      ],
      [
        "Ġscientist",
        -1.0
      ],
      [
        "Ġmarkets",
        -1.0
      ],
      [
        "Ġemployees",
        -1.0
      ],
      [
        "Ġagents",
        -1.0
      ],
      [
        "ited",
        -1.0
      ],
      [
        "being",
        -1.0
      ],
      [
        "off",
        -1.0
      ],
      [
        "Ġmeters",
        -1.0
      ],
      [
        "ĠMuslim",
        -1.0
      ],
      [
        "ĠLet",
        -1.0
      ],
      [
        "Ġneighbor",
        -1.0
      ],
      [
        "cally",
        -1.0
      ],
      [
        "ow",
        -1.0
      ],
      [
        "ĠHill",
        -1.0
      ],
      [
        "Ġsteel",
        -1.0
      ],
      [
        "Ġcontrols",
        -1.0
      ],
      [
        "Ġhandle",
        -1.0
      ],
      [
        "?âĢĿ",
        -1.0
      ],
      [
        "widespread",
        -1.0
      ],
      [
        "Ġratio",
        -1.0
      ],
      [
        "Ġmolecular",
        -1.0
      ],
      [
        "Ġcloud",
        -1.0
      ],
      [
        "Ġillustrate",
        -1.0
      ],
      [
        "Ġphysician",
        -1.0
      ],
      [
        "Ġconvert",
        -1.0
      ],
      [
        "Ġ75",
        -1.0
      ],
      [
        "Ġcriminal",
        -1.0
      ],
      [
        "Ġbridge",
        -1.0
      ],
      [
        "Ġframe",
        -1.0
      ],
      [
        "Ġtrouble",
        -1.0
      ],
      [
        "Ġgather",
        -1.0
      ],
      [
        "Ġpermission",
        -1.0
      ],
      [
        "Ġfairly",
        -1.0
      ],
      [
        "soldiers",
        -1.0
      ],
      [
        "Ġdanger",
        -1.0
      ],
      [
        "ĠBC",
        -1.0
      ],
      [
        "Ġcolumn",
        -1.0
      ],
      [
        "Ġtropical",
        -1.0
      ],
      [
        "Ġnewly",
        -1.0
      ],
      [
        "ĠAND",
        -1.0
      ],
      [
        "Ġsports",
        -1.0
      ],
      [
        "ĠHospital",
        -1.0
      ],
      [
        "ĠHall",
        -1.0
      ],
      [
        "ĠSupreme",
        -1.0
      ],
      [
        "ĠChange",
        -1.0
      ],
      [
        "Ġres",
        -1.0
      ],
      [
        "ĠCommunity",
        -1.0
      ],
      [
        "Ġrespective",
        -1.0
      ],
      [
        "Ġexamination",
        -1.0
      ],
      [
        "ĠWindows",
        -1.0
      ],
      [
        "Ġintegrated",
        -1.0
      ],
      [
        "Ġsigned",
        -1.0
      ],
      [
        "Ġsoul",
        -1.0
      ],
      [
        "Ġprominent",
        -1.0
      ],
      [
        "ĠChild",
        -1.0
      ],
      [
        "Ġanxiety",
        -1.0
      ],
      [
        "Ġholds",
        -1.0
      ],
      [
        "Ġpregnant",
        -1.0
      ],
      [
        "Ġcha",
        -1.0
      ],
      [
        "Ġmice",
        -1.0
      ],
      [
        "Ġneck",
        -1.0
      ],
      [
        "Ġplus",
        -1.0
      ],
      [
        "Ġinterpret",
        -1.0
      ],
      [
        "Ġtrained",
        -1.0
      ],
      [
        "Ġresponses",
        -1.0
      ],
      [
        "ĠUnder",
        -1.0
      ],
      [
        "Ġdistributed",
        -1.0
      ],
      [
        "Ġreactions",
        -1.0
      ],
      [
        "Ġsit",
        -1.0
      ],
      [
        "own",
        -1.0
      ],
      [
        "Ġcategories",
        -1.0
      ],
      [
        "Ġvi",
        -1.0
      ],
      [
        "My",
        -1.0
      ],
      [
        "ĠColorado",
        -1.0
      ],
      [
        "ĠHebrew",
        -1.0
      ],
      [
        "Ġtexts",
        -1.0
      ],
      [
        "Ġcattle",
        -1.0
      ],
      [
        "Ġequation",
        -1.0
      ],
      [
        "Ġpick",
        -1.0
      ],
      [
        "May",
        -1.0
      ],
      [
        "Ġtaste",
        -1.0
      ],
      [
        "lived",
        -1.0
      ],
      [
        "Ġinstalled",
        -1.0
      ],
      [
        "ĠMassachusetts",
        -1.0
      ],
      [
        "Ġproportion",
        -1.0
      ],
      [
        "ĠAre",
        -1.0
      ],
      [
        "Ġpartners",
        -1.0
      ],
      [
        "ments",
        -1.0
      ],
      [
        "ĠEnvironment",
        -1.0
      ],
      [
        "li",
        -1.0
      ],
      [
        "Ġnerve",
        -1.0
      ],
      [
        "Ġcars",
        -1.0
      ],
      [
        "Ġmachines",
        -1.0
      ],
      [
        "Ġfund",
        -1.0
      ],
      [
        "Ġgap",
        -1.0
      ],
      [
        "ĠMake",
        -1.0
      ],
      [
        "First",
        -1.0
      ],
      [
        "Ġthick",
        -1.0
      ],
      [
        "Ġinstructions",
        -1.0
      ],
      [
        "ĠLanguage",
        -1.0
      ],
      [
        "Ġtranslation",
        -1.0
      ],
      [
        "Ġends",
        -1.0
      ],
      [
        "Ġcrucial",
        -1.0
      ],
      [
        "Ġstable",
        -1.0
      ],
      [
        "Ġperception",
        -1.0
      ],
      [
        "Ġdelivered",
        -1.0
      ],
      [
        "ĠWildlife",
        -1.0
      ],
      [
        "Ġdoor",
        -1.0
      ],
      [
        "Ġprofessionals",
        -1.0
      ],
      [
        "Ġaudience",
        -1.0
      ],
      [
        "Perhaps",
        -1.0
      ],
      [
        "Ġ1989",
        -1.0
      ],
      [
        "Ġsharp",
        -1.0
      ],
      [
        "ĠObama",
        -1.0
      ],
      [
        "ĠEl",
        -1.0
      ],
      [
        "Ġbreeding",
        -1.0
      ],
      [
        "ĠTV",
        -1.0
      ],
      [
        "Ġexpose",
        -1.0
      ],
      [
        "Ġlicense",
        -1.0
      ],
      [
        "Ġinsurance",
        -1.0
      ],
      [
        "Ġimplications",
        -1.0
      ],
      [
        "Ġtumor",
        -1.0
      ],
      [
        "ĠNetwork",
        -1.0
      ],
      [
        "Ġtheories",
        -1.0
      ],
      [
        "Ġdrought",
        -1.0
      ],
      [
        "Ġcentre",
        -1.0
      ],
      [
        "Ġ400",
        -1.0
      ],
      [
        "Ġreform",
        -1.0
      ],
      [
        "X",
        -1.0
      ],
      [
        "Ġcriteria",
        -1.0
      ],
      [
        "Ġlegs",
        -1.0
      ],
      [
        "About",
        -1.0
      ],
      [
        "Ġlaid",
        -1.0
      ],
      [
        "ĠGo",
        -1.0
      ],
      [
        "Ġcontemporary",
        -1.0
      ],
      [
        "Even",
        -1.0
      ],
      [
        "ĠFrancisco",
        -1.0
      ],
      [
        "%)",
        -1.0
      ],
      [
        "Ġshot",
        -1.0
      ],
      [
        "ĠBill",
        -1.0
      ],
      [
        "Ġslavery",
        -1.0
      ],
      [
        "Ġleg",
        -1.0
      ],
      [
        "Ġestablishment",
        -1.0
      ],
      [
        "Ġwhereas",
        -1.0
      ],
      [
        "Ġopposition",
        -1.0
      ],
      [
        "ol",
        -1.0
      ],
      [
        "Ġcutting",
        -1.0
      ],
      [
        "Ġencouraged",
        -1.0
      ],
      [
        "Ġobjective",
        -1.0
      ],
      [
        "Ġplanets",
        -1.0
      ],
      [
        "Ġdownload",
        -1.0
      ],
      [
        "ĠRead",
        -1.0
      ],
      [
        "Ġsuffered",
        -1.0
      ],
      [
        "Do",
        -1.0
      ],
      [
        "Ġstreet",
        -1.0
      ],
      [
        "âĨĳ",
        -1.0
      ],
      [
        "Ġserving",
        -1.0
      ],
      [
        "Ġowners",
        -1.0
      ],
      [
        "Of",
        -1.0
      ],
      [
        "Ġvulnerable",
        -1.0
      ],
      [
        "Ġegg",
        -1.0
      ],
      [
        "Ġgr",
        -1.0
      ],
      [
        "ved",
        -1.0
      ],
      [
        "Ġemphasis",
        -1.0
      ],
      [
        "Ġsignificance",
        -1.0
      ],
      [
        "Ġbranch",
        -1.0
      ],
      [
        "Ġgrant",
        -1.0
      ],
      [
        "Ġbanks",
        -1.0
      ],
      [
        "Ġplays",
        -1.0
      ],
      [
        "Ġguarantee",
        -1.0
      ],
      [
        "Ġhole",
        -1.0
      ],
      [
        "Ġproved",
        -1.0
      ],
      [
        "Ġmention",
        -1.0
      ],
      [
        "Ġimmigrant",
        -1.0
      ],
      [
        "ĠChristians",
        -1.0
      ],
      [
        "Ġplane",
        -1.0
      ],
      [
        "ĠForest",
        -1.0
      ],
      [
        "Ġemotion",
        -1.0
      ],
      [
        "Ġcelebrate",
        -1.0
      ],
      [
        "Ġmechanical",
        -1.0
      ],
      [
        "Ġdose",
        -1.0
      ],
      [
        "Ġstarts",
        -1.0
      ],
      [
        "ĠOnline",
        -1.0
      ],
      [
        "ĠChapter",
        -1.0
      ],
      [
        "Ġcommunicate",
        -1.0
      ],
      [
        "Ġlake",
        -1.0
      ],
      [
        "Ġalter",
        -1.0
      ],
      [
        "ish",
        -1.0
      ],
      [
        "self",
        -1.0
      ],
      [
        "ĠArctic",
        -1.0
      ],
      [
        "Ġexam",
        -1.0
      ],
      [
        "Ġhappy",
        -1.0
      ],
      [
        "Ġabsence",
        -1.0
      ],
      [
        "ĠLong",
        -1.0
      ],
      [
        "Ġdiameter",
        -1.0
      ],
      [
        "Ġconcluded",
        -1.0
      ],
      [
        "Ġcircle",
        -1.0
      ],
      [
        "Ġkilling",
        -1.0
      ],
      [
        "ĠNavy",
        -1.0
      ],
      [
        "Ġtrip",
        -1.0
      ],
      [
        "Ġmortality",
        -1.0
      ],
      [
        "ĠProtection",
        -1.0
      ],
      [
        "Ġaim",
        -1.0
      ],
      [
        "Ġtowns",
        -1.0
      ],
      [
        "05",
        -1.0
      ],
      [
        "Ġstrike",
        -1.0
      ],
      [
        "Ġdelivery",
        -1.0
      ],
      [
        "ĠVol",
        -1.0
      ],
      [
        "Ġdirected",
        -1.0
      ],
      [
        "Ġacids",
        -1.0
      ],
      [
        "Ġviruses",
        -1.0
      ],
      [
        "ĠPrevention",
        -1.0
      ],
      [
        "ĠMinister",
        -1.0
      ],
      [
        "Ġmoderate",
        -1.0
      ],
      [
        "Ġburn",
        -1.0
      ],
      [
        "2012",
        -1.0
      ],
      [
        "Ġartificial",
        -1.0
      ],
      [
        "ĠFort",
        -1.0
      ],
      [
        "Ġregarded",
        -1.0
      ],
      [
        "Ġconsumer",
        -1.0
      ],
      [
        "Ġexamined",
        -1.0
      ],
      [
        "ill",
        -1.0
      ],
      [
        "Ġstrain",
        -1.0
      ],
      [
        "Ġlists",
        -1.0
      ],
      [
        "Ġreceiv",
        -1.0
      ],
      [
        "Your",
        -1.0
      ],
      [
        "Ġpackage",
        -1.0
      ],
      [
        "land",
        -1.0
      ],
      [
        "Ġgranted",
        -1.0
      ],
      [
        "Ġartists",
        -1.0
      ],
      [
        "ried",
        -1.0
      ],
      [
        "'.",
        -1.0
      ],
      [
        "ĠHo",
        -1.0
      ],
      [
        "Ġdelay",
        -1.0
      ],
      [
        "Ġmountains",
        -1.0
      ],
      [
        "ĠConvention",
        -1.0
      ],
      [
        "Ġbattery",
        -1.0
      ],
      [
        "lity",
        -1.0
      ],
      [
        "ĠHistorical",
        -1.0
      ],
      [
        "ĠIslam",
        -1.0
      ],
      [
        "ood",
        -1.0
      ],
      [
        "Ġhit",
        -1.0
      ],
      [
        "Ġorgans",
        -1.0
      ],
      [
        "Ġrecogniz",
        -1.0
      ],
      [
        "some",
        -1.0
      ],
      [
        "Ġcatch",
        -1.0
      ],
      [
        "Ġscholars",
        -1.0
      ],
      [
        "Ġgiant",
        -1.0
      ],
      [
        "ĠDictionary",
        -1.0
      ],
      [
        "Ġvoltage",
        -1.0
      ],
      [
        "Ġenzyme",
        -1.0
      ],
      [
        "ĠConference",
        -1.0
      ],
      [
        "Ġkidney",
        -1.0
      ],
      [
        "Ġillegal",
        -1.0
      ],
      [
        "Ġequally",
        -1.0
      ],
      [
        "Ġexecutive",
        -1.0
      ],
      [
        "roughly",
        -1.0
      ],
      [
        "power",
        -1.0
      ],
      [
        "Q",
        -1.0
      ],
      [
        "Ġtransform",
        -1.0
      ],
      [
        "obesity",
        -1.0
      ],
      [
        "ĠMar",
        -1.0
      ],
      [
        "ĠIllinois",
        -1.0
      ],
      [
        "Ġpu",
        -1.0
      ],
      [
        "Ġoral",
        -1.0
      ],
      [
        "ves",
        -1.0
      ],
      [
        "Ġpeak",
        -1.0
      ],
      [
        "ĠSenate",
        -1.0
      ],
      [
        "Ġconstruct",
        -1.0
      ],
      [
        "ĠJan",
        -1.0
      ],
      [
        "ently",
        -1.0
      ],
      [
        "Ġsheet",
        -1.0
      ],
      [
        "Ġusual",
        -1.0
      ],
      [
        "Ġrealize",
        -1.0
      ],
      [
        "Ġsenior",
        -1.0
      ],
      [
        "Ġcollaboration",
        -1.0
      ],
      [
        "Ġmix",
        -1.0
      ],
      [
        ".).",
        -1.0
      ],
      [
        "Ġrelief",
        -1.0
      ],
      [
        "Ġfarmer",
        -1.0
      ],
      [
        "Ġcrew",
        -1.0
      ],
      [
        "organized",
        -1.0
      ],
      [
        "Ġlots",
        -1.0
      ],
      [
        "Ġsettlement",
        -1.0
      ],
      [
        "Ġenormous",
        -1.0
      ],
      [
        "ĠJerusalem",
        -1.0
      ],
      [
        "work",
        -1.0
      ],
      [
        "Ġdistinguish",
        -1.0
      ],
      [
        "ĠWell",
        -1.0
      ],
      [
        "National",
        -1.0
      ],
      [
        "ĠBureau",
        -1.0
      ],
      [
        "2008",
        -1.0
      ],
      [
        "Ġpsychological",
        -1.0
      ],
      [
        "Ġprovider",
        -1.0
      ],
      [
        "Ġgrain",
        -1.0
      ],
      [
        "Ġfly",
        -1.0
      ],
      [
        "Ġfinished",
        -1.0
      ],
      [
        "Ġstatistics",
        -1.0
      ],
      [
        "Ġwear",
        -1.0
      ],
      [
        "ĠSecretary",
        -1.0
      ],
      [
        "Ġextract",
        -1.0
      ],
      [
        "Ġcreative",
        -1.0
      ],
      [
        "Ġpassing",
        -1.0
      ],
      [
        "Ġdomain",
        -1.0
      ],
      [
        "Ġblocks",
        -1.0
      ],
      [
        "ĠZealand",
        -1.0
      ],
      [
        "making",
        -1.0
      ],
      [
        "Ġrecover",
        -1.0
      ],
      [
        "nearby",
        -1.0
      ],
      [
        "Ġspacecraft",
        -1.0
      ],
      [
        "ĠSafety",
        -1.0
      ],
      [
        "ese",
        -1.0
      ],
      [
        "Ġmanag",
        -1.0
      ],
      [
        "ĠMoon",
        -1.0
      ],
      [
        "2010",
        -1.0
      ],
      [
        "Ġcategory",
        -1.0
      ],
      [
        "ĠFather",
        -1.0
      ],
      [
        "ĠThree",
        -1.0
      ],
      [
        "Ġouter",
        -1.0
      ],
      [
        "ss",
        -1.0
      ],
      [
        "nes",
        -1.0
      ],
      [
        "Ġflag",
        -1.0
      ],
      [
        "Ġcharacteristic",
        -1.0
      ],
      [
        "ĠNa",
        -1.0
      ],
      [
        "Ġrenewable",
        -1.0
      ],
      [
        "Ġtrend",
        -1.0
      ],
      [
        "Ġbehaviour",
        -1.0
      ],
      [
        "two",
        -1.0
      ],
      [
        "ke",
        -1.0
      ],
      [
        "31",
        -1.0
      ],
      [
        "Ġsick",
        -1.0
      ],
      [
        "ĠRepublican",
        -1.0
      ],
      [
        "Ġharmful",
        -1.0
      ],
      [
        "Ġacquired",
        -1.0
      ],
      [
        "Ġslave",
        -1.0
      ],
      [
        "Ġasthma",
        -1.0
      ],
      [
        "Ġgradually",
        -1.0
      ],
      [
        "Ġongoing",
        -1.0
      ],
      [
        "Ġcombat",
        -1.0
      ],
      [
        "Ġarrangement",
        -1.0
      ],
      [
        "Ġmammal",
        -1.0
      ],
      [
        "Ġvariation",
        -1.0
      ],
      [
        "Ġinteract",
        -1.0
      ],
      [
        "ates",
        -1.0
      ],
      [
        "ĠYoung",
        -1.0
      ],
      [
        "Ġconcrete",
        -1.0
      ],
      [
        "ĠHa",
        -1.0
      ],
      [
        "Ġcompare",
        -1.0
      ],
      [
        "Ġrestore",
        -1.0
      ],
      [
        "Ġlifestyle",
        -1.0
      ],
      [
        "made",
        -1.0
      ],
      [
        "Ġcoverage",
        -1.0
      ],
      [
        "Ġangle",
        -1.0
      ],
      [
        "mm",
        -1.0
      ],
      [
        "Ġport",
        -1.0
      ],
      [
        "ice",
        -1.0
      ],
      [
        "Ġ65",
        -1.0
      ],
      [
        "Ġprotocol",
        -1.0
      ],
      [
        "ĠMe",
        -1.0
      ],
      [
        "Ġourselves",
        -1.0
      ],
      [
        "Ġwrites",
        -1.0
      ],
      [
        "ĠEdward",
        -1.0
      ],
      [
        "ĠOrganization",
        -1.0
      ],
      [
        "ĠBooks",
        -1.0
      ],
      [
        "well",
        -1.0
      ],
      [
        "Ġarray",
        -1.0
      ],
      [
        "Ġphenomenon",
        -1.0
      ],
      [
        "Ġjudge",
        -1.0
      ],
      [
        "200",
        -1.0
      ],
      [
        "Ġartist",
        -1.0
      ],
      [
        "ĠIslamic",
        -1.0
      ],
      [
        "Ġisolated",
        -1.0
      ],
      [
        "Ġchannel",
        -1.0
      ],
      [
        "Ġemploy",
        -1.0
      ],
      [
        "Ġstat",
        -1.0
      ],
      [
        "Ġhazard",
        -1.0
      ],
      [
        "Ġexpanded",
        -1.0
      ],
      [
        "Ġbreathing",
        -1.0
      ],
      [
        "Ġautism",
        -1.0
      ],
      [
        "ĠIslands",
        -1.0
      ],
      [
        "Ġexperimental",
        -1.0
      ],
      [
        "Ġexcess",
        -1.0
      ],
      [
        "Ġexception",
        -1.0
      ],
      [
        "ĠBefore",
        -1.0
      ],
      [
        "ĠFigure",
        -1.0
      ],
      [
        "experts",
        -1.0
      ],
      [
        "35",
        -1.0
      ],
      [
        "low",
        -1.0
      ],
      [
        "Ġpasse",
        -1.0
      ],
      [
        "Ġpar",
        -1.0
      ],
      [
        "Ġminute",
        -1.0
      ],
      [
        "Ġconcentrations",
        -1.0
      ],
      [
        "Ġduty",
        -1.0
      ],
      [
        "Ġ1930",
        -1.0
      ],
      [
        "ĠGood",
        -1.0
      ],
      [
        "llowed",
        -1.0
      ],
      [
        "Ġworship",
        -1.0
      ],
      [
        "Ġdetected",
        -1.0
      ],
      [
        "residents",
        -1.0
      ],
      [
        "Ġedit",
        -1.0
      ],
      [
        "ĠPolicy",
        -1.0
      ],
      [
        "Ġ1988",
        -1.0
      ],
      [
        "Ġleaf",
        -1.0
      ],
      [
        "Ġintense",
        -1.0
      ],
      [
        "ĠPh",
        -1.0
      ],
      [
        "Ġjudgment",
        -1.0
      ],
      [
        "Today",
        -1.0
      ],
      [
        "Ġmissing",
        -1.0
      ],
      [
        "Ġtemple",
        -1.0
      ],
      [
        "Ġarrive",
        -1.0
      ],
      [
        "Ġtrust",
        -1.0
      ],
      [
        "Ġ33",
        -1.0
      ],
      [
        "des",
        -1.0
      ],
      [
        "Ġturning",
        -1.0
      ],
      [
        "Ġfiber",
        -1.0
      ],
      [
        "ĠAny",
        -1.0
      ],
      [
        "Ġracial",
        -1.0
      ],
      [
        "Ġversions",
        -1.0
      ],
      [
        "ray",
        -1.0
      ],
      [
        "ĠHarvard",
        -1.0
      ],
      [
        "Ġpartnership",
        -1.0
      ],
      [
        "Ġsettle",
        -1.0
      ],
      [
        ".'",
        -1.0
      ],
      [
        "Ġbranches",
        -1.0
      ],
      [
        "ĠCreek",
        -1.0
      ],
      [
        "Ġcharacterized",
        -1.0
      ],
      [
        "Ġblog",
        -1.0
      ],
      [
        "Ġroads",
        -1.0
      ],
      [
        "Ġplac",
        -1.0
      ],
      [
        "friendly",
        -1.0
      ],
      [
        "when",
        -1.0
      ],
      [
        "Ġspectrum",
        -1.0
      ],
      [
        "ĠJustice",
        -1.0
      ],
      [
        "ĠMississippi",
        -1.0
      ],
      [
        "Ġofficer",
        -1.0
      ],
      [
        "ĠYear",
        -1.0
      ],
      [
        "Ġsensor",
        -1.0
      ],
      [
        "Ġsession",
        -1.0
      ],
      [
        "Ġfinds",
        -1.0
      ],
      [
        "ĠCommon",
        -1.0
      ],
      [
        "Ġidentification",
        -1.0
      ],
      [
        "Ġnitrogen",
        -1.0
      ],
      [
        "Ġtaxes",
        -1.0
      ],
      [
        "Ġcreature",
        -1.0
      ],
      [
        "Ġsurfaces",
        -1.0
      ],
      [
        "Ġ36",
        -1.0
      ],
      [
        "Ġwo",
        -1.0
      ],
      [
        "ĠHave",
        -1.0
      ],
      [
        "Ġasking",
        -1.0
      ],
      [
        "ĠSunday",
        -1.0
      ],
      [
        "Ġassumed",
        -1.0
      ],
      [
        "Ġdependent",
        -1.0
      ],
      [
        "Ġpull",
        -1.0
      ],
      [
        "Ġheaven",
        -1.0
      ],
      [
        "Ġconfidence",
        -1.0
      ],
      [
        "Ġcareful",
        -1.0
      ],
      [
        "Ġcovers",
        -1.0
      ],
      [
        "Ġdesigns",
        -1.0
      ],
      [
        "Ġmild",
        -1.0
      ],
      [
        "Ġrank",
        -1.0
      ],
      [
        "ĠEvery",
        -1.0
      ],
      [
        "Ġplayers",
        -1.0
      ],
      [
        "ĠâĢ¦",
        -1.0
      ],
      [
        "Ġlies",
        -1.0
      ],
      [
        "32",
        -1.0
      ],
      [
        "Ġcalling",
        -1.0
      ],
      [
        "Ġtissues",
        -1.0
      ],
      [
        "Ġinsulin",
        -1.0
      ],
      [
        "Ġfeedback",
        -1.0
      ],
      [
        "],",
        -1.0
      ],
      [
        "Ġtea",
        -1.0
      ],
      [
        "Ġimplemented",
        -1.0
      ],
      [
        "60",
        -1.0
      ],
      [
        "Ġattribute",
        -1.0
      ],
      [
        "Ġtr",
        -1.0
      ],
      [
        "Ġfarming",
        -1.0
      ],
      [
        "Ġinteractions",
        -1.0
      ],
      [
        "Ġmanager",
        -1.0
      ],
      [
        "Ġclothing",
        -1.0
      ],
      [
        "ered",
        -1.0
      ],
      [
        "Ġeffectiveness",
        -1.0
      ],
      [
        "j",
        -1.0
      ],
      [
        "Ġengines",
        -1.0
      ],
      [
        "ĠCentre",
        -1.0
      ],
      [
        "Ġsoldier",
        -1.0
      ],
      [
        "Ġhorses",
        -1.0
      ],
      [
        "Ġad",
        -1.0
      ],
      [
        "tory",
        -1.0
      ],
      [
        "Ġcards",
        -1.0
      ],
      [
        "Ġgases",
        -1.0
      ],
      [
        "ĠDesign",
        -1.0
      ],
      [
        "Ġsin",
        -1.0
      ],
      [
        "Ġradical",
        -1.0
      ],
      [
        "Ġcollapse",
        -1.0
      ],
      [
        "Ġte",
        -1.0
      ],
      [
        "Ġplate",
        -1.0
      ],
      [
        "Ġwriters",
        -1.0
      ],
      [
        "Ġindigenous",
        -1.0
      ],
      [
        "Ġfavorite",
        -1.0
      ],
      [
        "Ġscheme",
        -1.0
      ],
      [
        "ĠBa",
        -1.0
      ],
      [
        "ĠKorea",
        -1.0
      ],
      [
        "Ġordinary",
        -1.0
      ],
      [
        "Ġoffering",
        -1.0
      ],
      [
        "ĠPhiladelphia",
        -1.0
      ],
      [
        "Ġworkshop",
        -1.0
      ],
      [
        "Ġdiscrimination",
        -1.0
      ],
      [
        "Ġcovering",
        -1.0
      ],
      [
        "Ġchemistry",
        -1.0
      ],
      [
        "Ġsediment",
        -1.0
      ],
      [
        "Ġnet",
        -1.0
      ],
      [
        "Ġbar",
        -1.0
      ],
      [
        "Ġraw",
        -1.0
      ],
      [
        "02",
        -1.0
      ],
      [
        "Ġexcessive",
        -1.0
      ],
      [
        "units",
        -1.0
      ],
      [
        "ĠWhere",
        -1.0
      ],
      [
        "Ġassociate",
        -1.0
      ],
      [
        "Ġdoctrine",
        -1.0
      ],
      [
        "claimed",
        -1.0
      ],
      [
        "Ġdealing",
        -1.0
      ],
      [
        "ĠSpecial",
        -1.0
      ],
      [
        "Ġexploration",
        -1.0
      ],
      [
        "Ġerrors",
        -1.0
      ],
      [
        "wide",
        -1.0
      ],
      [
        "ĠScotland",
        -1.0
      ],
      [
        "2007",
        -1.0
      ],
      [
        "ĠSa",
        -1.0
      ],
      [
        "2009",
        -1.0
      ],
      [
        "Ġbi",
        -1.0
      ],
      [
        "Ġusage",
        -1.0
      ],
      [
        "ĠChristianity",
        -1.0
      ],
      [
        "Ġmathematical",
        -1.0
      ],
      [
        "ĠCoast",
        -1.0
      ],
      [
        "Ġbeneficial",
        -1.0
      ],
      [
        "ĠLos",
        -1.0
      ],
      [
        "Ġaddressed",
        -1.0
      ],
      [
        "Ġcommunications",
        -1.0
      ],
      [
        "Ġpresents",
        -1.0
      ],
      [
        "Ġdynamic",
        -1.0
      ],
      [
        "Ġowner",
        -1.0
      ],
      [
        "2006",
        -1.0
      ],
      [
        "Ġlaser",
        -1.0
      ],
      [
        "Ġbeings",
        -1.0
      ],
      [
        "om",
        -1.0
      ],
      [
        "Ġmixture",
        -1.0
      ],
      [
        "Ġfashion",
        -1.0
      ],
      [
        "ied",
        -1.0
      ],
      [
        "Ġcomm",
        -1.0
      ],
      [
        "Ġinflammation",
        -1.0
      ],
      [
        "Ġvariables",
        -1.0
      ],
      [
        "Ġprisoner",
        -1.0
      ],
      [
        "Ġremoval",
        -1.0
      ],
      [
        "Ġhabits",
        -1.0
      ],
      [
        "decisions",
        -1.0
      ],
      [
        "Ġchart",
        -1.0
      ],
      [
        "Ġinvestigate",
        -1.0
      ],
      [
        "Ġexport",
        -1.0
      ],
      [
        "Ġorgan",
        -1.0
      ],
      [
        "ĠDutch",
        -1.0
      ],
      [
        "Ġtrans",
        -1.0
      ],
      [
        "Ġseconds",
        -1.0
      ],
      [
        "Ġhunting",
        -1.0
      ],
      [
        "Ġtribes",
        -1.0
      ],
      [
        "Ġprison",
        -1.0
      ],
      [
        "Ġmining",
        -1.0
      ],
      [
        "People",
        -1.0
      ],
      [
        "ĠWho",
        -1.0
      ],
      [
        "Ġreverse",
        -1.0
      ],
      [
        "ĠChristmas",
        -1.0
      ],
      [
        "Ġupdated",
        -1.0
      ],
      [
        "Ġimaging",
        -1.0
      ],
      [
        "Ġbreed",
        -1.0
      ],
      [
        "Ġacute",
        -1.0
      ],
      [
        "Ġdifficulties",
        -1.0
      ],
      [
        "Ġheads",
        -1.0
      ],
      [
        "ld",
        -1.0
      ],
      [
        "ages",
        -1.0
      ],
      [
        "Ġseparated",
        -1.0
      ],
      [
        "Ġpure",
        -1.0
      ],
      [
        "Ġencounter",
        -1.0
      ],
      [
        "ery",
        -1.0
      ],
      [
        "ĠZ",
        -1.0
      ],
      [
        "first",
        -1.0
      ],
      [
        "..",
        -1.0
      ],
      [
        "ck",
        -1.0
      ],
      [
        "Ġhardware",
        -1.0
      ],
      [
        "ĠHeritage",
        -1.0
      ],
      [
        "Ġclient",
        -1.0
      ],
      [
        "Ġprofile",
        -1.0
      ],
      [
        "Ġremarkable",
        -1.0
      ],
      [
        "very",
        -1.0
      ],
      [
        "ĠBattle",
        -1.0
      ],
      [
        "Ġbegun",
        -1.0
      ],
      [
        "Ġunion",
        -1.0
      ],
      [
        "life",
        -1.0
      ],
      [
        "$",
        -1.0
      ],
      [
        "Ġrice",
        -1.0
      ],
      [
        "ĠMount",
        -1.0
      ],
      [
        "Ġwor",
        -1.0
      ],
      [
        "ĠThrough",
        -1.0
      ],
      [
        "ĠThough",
        -1.0
      ],
      [
        "Ġecological",
        -1.0
      ],
      [
        "Ġvegetation",
        -1.0
      ],
      [
        "Ġsucceed",
        -1.0
      ],
      [
        "Ġwitness",
        -1.0
      ],
      [
        "2011",
        -1.0
      ],
      [
        "med",
        -1.0
      ],
      [
        "Ġfunctional",
        -1.0
      ],
      [
        "Ġadds",
        -1.0
      ],
      [
        "ĠBig",
        -1.0
      ],
      [
        "Ġoccurring",
        -1.0
      ],
      [
        "Ġspecialist",
        -1.0
      ],
      [
        "Ġboy",
        -1.0
      ],
      [
        "Ġgravity",
        -1.0
      ],
      [
        "ĠAgriculture",
        -1.0
      ],
      [
        "Ġdesert",
        -1.0
      ],
      [
        "Ġvalley",
        -1.0
      ],
      [
        "Ġdisabilities",
        -1.0
      ],
      [
        "Ġdesired",
        -1.0
      ],
      [
        "Ġmembrane",
        -1.0
      ],
      [
        "%.",
        -1.0
      ],
      [
        "Ġran",
        -1.0
      ],
      [
        "Ġuniform",
        -1.0
      ],
      [
        "Ġpointed",
        -1.0
      ],
      [
        "ĠEngineering",
        -1.0
      ],
      [
        "Ġregime",
        -1.0
      ],
      [
        "Ġdriven",
        -1.0
      ],
      [
        "Ġoldest",
        -1.0
      ],
      [
        "Ġabnormal",
        -1.0
      ],
      [
        "ĠAIDS",
        -1.0
      ],
      [
        "Ġimagine",
        -1.0
      ],
      [
        "Ġcalories",
        -1.0
      ],
      [
        "Ġcomplicated",
        -1.0
      ],
      [
        "Ġpayment",
        -1.0
      ],
      [
        "Ġtraditions",
        -1.0
      ],
      [
        "Ġsell",
        -1.0
      ],
      [
        "Ġintroduce",
        -1.0
      ],
      [
        "Ġitem",
        -1.0
      ],
      [
        "Ġda",
        -1.0
      ],
      [
        "Ġtrends",
        -1.0
      ],
      [
        "Ġfellow",
        -1.0
      ],
      [
        "John",
        -1.0
      ],
      [
        "Ġglucose",
        -1.0
      ],
      [
        "Ġcont",
        -1.0
      ],
      [
        "ton",
        -1.0
      ],
      [
        "Ġprefer",
        -1.0
      ],
      [
        "ĠSection",
        -1.0
      ],
      [
        "Ġforth",
        -1.0
      ],
      [
        "Not",
        -1.0
      ],
      [
        "Ġvisited",
        -1.0
      ],
      [
        "Ġstores",
        -1.0
      ],
      [
        "Ġinformed",
        -1.0
      ],
      [
        "mail",
        -1.0
      ],
      [
        "Ġphotos",
        -1.0
      ],
      [
        "Ġholes",
        -1.0
      ],
      [
        "Ġsong",
        -1.0
      ],
      [
        "Ġnervous",
        -1.0
      ],
      [
        "art",
        -1.0
      ],
      [
        "Ġinfants",
        -1.0
      ],
      [
        "Ġpreventing",
        -1.0
      ],
      [
        "Ġagent",
        -1.0
      ],
      [
        "ĠKansas",
        -1.0
      ],
      [
        "Ġflows",
        -1.0
      ],
      [
        "Ġsuperior",
        -1.0
      ],
      [
        "Ġspecifi",
        -1.0
      ],
      [
        "Ġguidance",
        -1.0
      ],
      [
        "ĠMarine",
        -1.0
      ],
      [
        "Ġimport",
        -1.0
      ],
      [
        "there",
        -1.0
      ],
      [
        "era",
        -1.0
      ],
      [
        "Ġrepresentation",
        -1.0
      ],
      [
        "ĠVolume",
        -1.0
      ],
      [
        "Ġbeauty",
        -1.0
      ],
      [
        "Ġmigration",
        -1.0
      ],
      [
        "Ġbound",
        -1.0
      ],
      [
        "eat",
        -1.0
      ],
      [
        "ĠSaint",
        -1.0
      ],
      [
        "Ġproof",
        -1.0
      ],
      [
        "Ġcat",
        -1.0
      ],
      [
        "Ġsight",
        -1.0
      ],
      [
        "45",
        -1.0
      ],
      [
        "field",
        -1.0
      ],
      [
        "Ġquarter",
        -1.0
      ],
      [
        "Ġquantity",
        -1.0
      ],
      [
        "ĠCh",
        -1.0
      ],
      [
        "Ġbreath",
        -1.0
      ],
      [
        "Ġoccupation",
        -1.0
      ],
      [
        "Ġwait",
        -1.0
      ],
      [
        "ĠEU",
        -1.0
      ],
      [
        "Ġdetection",
        -1.0
      ],
      [
        "04",
        -1.0
      ],
      [
        "underlying",
        -1.0
      ],
      [
        "ms",
        -1.0
      ],
      [
        "Ġ1940",
        -1.0
      ],
      [
        "Ġsurround",
        -1.0
      ],
      [
        "Ġresident",
        -1.0
      ],
      [
        "ested",
        -1.0
      ],
      [
        "03",
        -1.0
      ],
      [
        "ĠParliament",
        -1.0
      ],
      [
        "Ġ1920",
        -1.0
      ],
      [
        "Ġ1986",
        -1.0
      ],
      [
        "Ġexceed",
        -1.0
      ],
      [
        "Ġserves",
        -1.0
      ],
      [
        "ĠAlzheimer",
        -1.0
      ],
      [
        "Ġphotographs",
        -1.0
      ],
      [
        "Ġshelter",
        -1.0
      ],
      [
        "Ġevening",
        -1.0
      ],
      [
        "Ġsplit",
        -1.0
      ],
      [
        "Ġcooling",
        -1.0
      ],
      [
        "2000",
        -1.0
      ],
      [
        "Ġsacrifice",
        -1.0
      ],
      [
        "ĠQ",
        -1.0
      ],
      [
        "ĠList",
        -1.0
      ],
      [
        "ĠSometime",
        -1.0
      ],
      [
        "Ġstuff",
        -1.0
      ],
      [
        "ĠSir",
        -1.0
      ],
      [
        "ĠMissouri",
        -1.0
      ],
      [
        "Ġseat",
        -1.0
      ],
      [
        "Ġflying",
        -1.0
      ],
      [
        "ĠLi",
        -1.0
      ],
      [
        "Ġcontinuing",
        -1.0
      ],
      [
        "ĠNe",
        -1.0
      ],
      [
        "Ġinfluenza",
        -1.0
      ],
      [
        "Ġschedule",
        -1.0
      ],
      [
        "wise",
        -1.0
      ],
      [
        "ĠBrazil",
        -1.0
      ],
      [
        "Ġtelescope",
        -1.0
      ],
      [
        "Ġpaint",
        -1.0
      ],
      [
        "Ġbee",
        -1.0
      ],
      [
        "Ġresearcher",
        -1.0
      ],
      [
        "ĠMaryland",
        -1.0
      ],
      [
        "Ġappeal",
        -1.0
      ],
      [
        "Ġecosystems",
        -1.0
      ],
      [
        "new",
        -1.0
      ],
      [
        "Ġvariations",
        -1.0
      ],
      [
        "Ġinvention",
        -1.0
      ],
      [
        "Click",
        -1.0
      ],
      [
        "Ġantibiotics",
        -1.0
      ],
      [
        "Ġdefeat",
        -1.0
      ],
      [
        "Ġcounter",
        -1.0
      ],
      [
        "arrived",
        -1.0
      ],
      [
        "Ġexclusive",
        -1.0
      ],
      [
        "Ġvarieties",
        -1.0
      ],
      [
        "Ġexisted",
        -1.0
      ],
      [
        "Ġint",
        -1.0
      ],
      [
        "Ġsocieties",
        -1.0
      ],
      [
        "ears",
        -1.0
      ],
      [
        "Ġdemocracy",
        -1.0
      ],
      [
        "Ġtank",
        -1.0
      ],
      [
        "Ġdates",
        -1.0
      ],
      [
        "Ġabsorb",
        -1.0
      ],
      [
        "Ġfacing",
        -1.0
      ],
      [
        "06",
        -1.0
      ],
      [
        "ĠTestament",
        -1.0
      ],
      [
        "Ġbus",
        -1.0
      ],
      [
        "der",
        -1.0
      ],
      [
        "ĠFish",
        -1.0
      ],
      [
        "Ġfarms",
        -1.0
      ],
      [
        "Ġmothers",
        -1.0
      ],
      [
        "Ġmusical",
        -1.0
      ],
      [
        "Ġdistinction",
        -1.0
      ],
      [
        "Ġfin",
        -1.0
      ],
      [
        "ĠDC",
        -1.0
      ],
      [
        "Ġmoisture",
        -1.0
      ],
      [
        "Ġemphasize",
        -1.0
      ],
      [
        "Ġchurches",
        -1.0
      ],
      [
        "entered",
        -1.0
      ],
      [
        "ĠAlaska",
        -1.0
      ],
      [
        "Ġreaching",
        -1.0
      ],
      [
        "go",
        -1.0
      ],
      [
        "Ġaccomplish",
        -1.0
      ],
      [
        "Ġcoffee",
        -1.0
      ],
      [
        "Ġ,",
        -1.0
      ],
      [
        "Ġrose",
        -1.0
      ],
      [
        "Ġcancers",
        -1.0
      ],
      [
        "ĠQueen",
        -1.0
      ],
      [
        "Ġdoi",
        -1.0
      ],
      [
        "Ġeveryday",
        -1.0
      ],
      [
        "Source",
        -1.0
      ],
      [
        "state",
        -1.0
      ],
      [
        "Ġregulation",
        -1.0
      ],
      [
        "2005",
        -1.0
      ],
      [
        "biggest",
        -1.0
      ],
      [
        "ĠAlexander",
        -1.0
      ],
      [
        "Ġcolour",
        -1.0
      ],
      [
        "Ġapp",
        -1.0
      ],
      [
        "Is",
        -1.0
      ],
      [
        "rly",
        -1.0
      ],
      [
        "Ġdecreased",
        -1.0
      ],
      [
        "Ġearthquake",
        -1.0
      ],
      [
        "Ġmor",
        -1.0
      ],
      [
        "Ġsustain",
        -1.0
      ],
      [
        "Ġfaculty",
        -1.0
      ],
      [
        "ĠArab",
        -1.0
      ],
      [
        "Ġecosystem",
        -1.0
      ],
      [
        "Ġscore",
        -1.0
      ],
      [
        "Ġplayer",
        -1.0
      ],
      [
        "Ġvessel",
        -1.0
      ],
      [
        "Ġaccident",
        -1.0
      ],
      [
        "Ġarise",
        -1.0
      ],
      [
        "Ġ34",
        -1.0
      ],
      [
        "Ġadjust",
        -1.0
      ],
      [
        "Ġband",
        -1.0
      ],
      [
        "Â©",
        -1.0
      ],
      [
        "Ġquantum",
        -1.0
[...]
