{
  "version": "1.0",
  "truncation": null,
  "padding": null,
  "added_tokens": [
    {
      "id": 0,
      "content": "<|endoftext|>",
      "single_word": false,
      "lstrip": false,
      "rstrip": false,
      "normalized": false,
      "special": true
    },
    {
      "id": 1,
      "content": "<|padding|>",
      "single_word": false,
      "lstrip": false,
      "rstrip": false,
      "normalized": false,
      "special": true
    }
  ],
  "normalizer": {
    "type": "NFC"
  },
  "pre_tokenizer": {
    "type": "ByteLevel",
    "add_prefix_space": false,
    "trim_offsets": true,
    "use_regex": true
  },
  "post_processor": {
    "type": "ByteLevel",
    "add_prefix_space": true,
    "trim_offsets": false,
    "use_regex": true
  },
  "decoder": {
    "type": "ByteLevel",
    "add_prefix_space": true,
    "trim_offsets": true,
    "use_regex": true
  },
  "model": {
    "type": "BPE",
    "dropout": null,
    "unk_token": null,
    "continuing_subword_prefix": null,
    "end_of_word_suffix": null,
    "fuse_unk": false,
    "byte_fallback": false,
    "ignore_merges": false,
    "vocab": {
      "<|endoftext|>": 0,
      "<|padding|>": 1,
      "!": 2,
      "\"": 3,
      "#": 4,
      "$": 5,
      "%": 6,
      "&": 7,
      "'": 8,
      "(": 9,
      ")": 10,
      "*": 11,
      "+": 12,
      ",": 13,
      "-": 14,
      ".": 15,
      "/": 16,
      "0": 17,
      "1": 18,
      "2": 19,
      "3": 20,
      "4": 21,
      "5": 22,
      "6": 23,
      "7": 24,
      "8": 25,
      "9": 26,
      ":": 27,
      ";": 28,
      "<": 29,
      "=": 30,
      ">": 31,
      "?": 32,
      "@": 33,
      "A": 34,
      "B": 35,
      "C": 36,
      "D": 37,
      "E": 38,
      "F": 39,
      "G": 40,
      "H": 41,
      "I": 42,
      "J": 43,
      "K": 44,
      "L": 45,
      "M": 46,
      "N": 47,
      "O": 48,
      "P": 49,
      "Q": 50,
      "R": 51,
      "S": 52,
      "T": 53,
      "U": 54,
      "V": 55,
      "W": 56,
      "X": 57,
      "Y": 58,
      "Z": 59,
      "[": 60,
      "\\": 61,
      "]": 62,
      "^": 63,
      "_": 64,
      "`": 65,
      "a": 66,
      "b": 67,
      "c": 68,
      "d": 69,
      "e": 70,
      "f": 71,
      "g": 72,
      "h": 73,
      "i": 74,
      "j": 75,
      "k": 76,
      "l": 77,
      "m": 78,
      "n": 79,
      "o": 80,
      "p": 81,
      "q": 82,
      "r": 83,
      "s": 84,
      "t": 85,
      "u": 86,
      "v": 87,
      "w": 88,
      "x": 89,
      "y": 90,
      "z": 91,
      "|": 92,
      "}": 93,
      "~": 94,
      "¡": 95,
      "¢": 96,
      "£": 97,
      "¤": 98,
      "¥": 99,
      "¦": 100,
      "§": 101,
      "¨": 102,
      "©": 103,
      "ª": 104,
      "«": 105,
      "¬": 106,
      "®": 107,
      "¯": 108,
      "°": 109,
      "±": 110,
      "²": 111,
      "³": 112,
      "´": 113,
      "µ": 114,
      "¶": 115,
      "·": 116,
      "¸": 117,
      "¹": 118,
      "º": 119,
      "»": 120,
      "¼": 121,
      "½": 122,
      "¾": 123,
      "¿": 124,
      "Â": 125,
      "Ã": 126,
      "Ä": 127,
      "Å": 128,
      "Æ": 129,
      "Ç": 130,
      "È": 131,
      "É": 132,
      "Ê": 133,
      "Ë": 134,
      "Ì": 135,
      "Í": 136,
      "Î": 137,
      "Ï": 138,
      "Ð": 139,
      "Ñ": 140,
      "Ò": 141,
      "Ó": 142,
      "Ô": 143,
      "Õ": 144,
      "Ö": 145,
      "×": 146,
      "Ø": 147,
      "Ù": 148,
      "Ú": 149,
      "Û": 150,
      "Ü": 151,
      "Ý": 152,
      "Þ": 153,
      "ß": 154,
      "à": 155,
      "á": 156,
      "â": 157,
      "ã": 158,
      "ä": 159,
      "å": 160,
      "æ": 161,
      "ç": 162,
      "è": 163,
      "é": 164,
      "ê": 165,
      "ë": 166,
      "ì": 167,
      "í": 168,
      "ï": 169,
      "ð": 170,
      "ó": 171,
      "ĉ": 172,
      "Ċ": 173,
      "Ġ": 174,
      "Ģ": 175,
      "ģ": 176,
      "Ĥ": 177,
      "ĥ": 178,
      "Ħ": 179,
      "ħ": 180,
      "Ĩ": 181,
      "ĩ": 182,
      "Ī": 183,
      "ī": 184,
      "Ĭ": 185,
      "ĭ": 186,
      "Į": 187,
      "į": 188,
      "İ": 189,
      "ı": 190,
      "Ĳ": 191,
      "ĳ": 192,
      "Ĵ": 193,
      "ĵ": 194,
      "Ķ": 195,
      "ķ": 196,
      "ĸ": 197,
      "Ĺ": 198,
      "ĺ": 199,
      "Ļ": 200,
      "ļ": 201,
      "Ľ": 202,
      "ľ": 203,
      "Ŀ": 204,
      "ŀ": 205,
      "Ł": 206,
      "ł": 207,
      "Ń": 208,
      "th": 209,
      "the": 210,
      "âĢ": 211,
      "Ġthe": 212,
      "in": 213,
      "ing": 214,
      "an": 215,
      "and": 216,
      "on": 217,
      "of": 218,
      "Th": 219,
      "en": 220,
      "ion": 221,
      "tion": 222,
      "Ġof": 223,
      "ve": 224,
      "ch": 225,
      "ent": 226,
      "ou": 227,
      "Ġand": 228,
      "âĢĻ": 229,
      "or": 230,
      "for": 231,
      "ation": 232,
      "00": 233,
      "om": 234,
      "wh": 235,
      "qu": 236,
      "ment": 237,
      "19": 238,
      "al": 239,
      "gh": 240,
      "The": 241,
      "ly": 242,
      "ow": 243,
      "Ġw": 244,
      "to": 245,
      "Ġto": 246,
      "at": 247,
      "that": 248,
      "ar": 249,
      "ther": 250,
      "ver": 251,
      "er": 252,
      "re": 253,
      "ed": 254,
      "ro": 255,
      "pro": 256,
      "ex": 257,
      "âĢľ": 258,
      "âĢĿ": 259,
      "vi": 260,
      "con": 261,
      "com": 262,
      "rom": 263,
      "from": 264,
      "In": 265,
      "our": 266,
      "oun": 267,
      "un": 268,
      "ur": 269,
      "ough": 270,
      "igh": 271,
      "ic": 272,
      "Ġwi": 273,
      "Ġwith": 274,
      "ha": 275,
      "have": 276,
      "200": 277,
      "ive": 278,
      "ally": 279,
      "Ġthat": 280,
      "ra": 281,
      "ri": 282,
      "Ġwa": 283,
      "Ġwas": 284,
      "Ġwh": 285,
      "no": 286,
      "not": 287,
      "Ġwor": 288,
      "other": 289,
      "ol": 290,
      "ction": 291,
      "âĢĵ": 292,
      "âĢĶ": 293,
      "20": 294,
      "over": 295,
      "ight": 296,
      "it": 297,
      "is": 298,
      "ir": 299,
      "il": 300,
      "im": 301,
      "ity": 302,
      "if": 303,
      "this": 304,
      "iz": 305,
      "ter": 306,
      "st": 307,
      "ct": 308,
      "out": 309,
      "Ġwil": 310,
      "Ġwill": 311,
      "Ġtheir": 312,
      "own": 313,
      "This": 314,
      "ist": 315,
      "you": 316,
      "ect": 317,
      "ound": 318,
      "id": 319,
      "Ġwhi": 320,
      "Ġwhich": 321,
      "per": 322,
      "comp": 323,
      "oul": 324,
      "ould": 325,
      "ical": 326,
      "all": 327,
      "Ġwould": 328,
      "ject": 329,
      "by": 330,
      "be": 331,
      "Ġbe": 332,
      "bl": 333,
      "ble": 334,
      "pl": 335,
      "ul": 336,
      "bout": 337,
      "Ġwork": 338,
      "ition": 339,
      "ven": 340,
      "Ġwer": 341,
      "able": 342,
      "act": 343,
      "ill": 344,
      "18": 345,
      "bu": 346,
      "but": 347,
      "ure": 348,
      "str": 349,
      "rough": 350,
      "Ġ(": 351,
      "Ġfor": 352,
      "comm": 353,
      "through": 354,
      "enc": 355,
      "ence": 356,
      "ount": 357,
      "Un": 358,
      "cont": 359,
      "ig": 360,
      "ign": 361,
      "gra": 362,
      "ag": 363,
      "age": 364,
      "Ġwe": 365,
      "Ġwere": 366,
      "ult": 367,
      "about": 368,
      "10": 369,
      "ated": 370,
      "ĠC": 371,
      "'s": 372,
      "high": 373,
      "vel": 374,
      "Wh": 375,
      "how": 376,
      "low": 377,
      "now": 378,
      "your": 379,
      "ant": 380,
      "199": 381,
      "pre": 382,
      "ck": 383,
      "ous": 384,
      "ay": 385,
      "ific": 386,
      "form": 387,
      "ak": 388,
      "am": 389,
      "um": 390,
      "ack": 391,
      "ber": 392,
      "formation": 393,
      "sion": 394,
      "Ġpro": 395,
      "ate": 396,
      "ative": 397,
      "ater": 398,
      "Ġwater": 399,
      "ial": 400,
      "ish": 401,
      "umber": 402,
      "irst": 403,
      "first": 404,
      "ĠS": 405,
      "ĠA": 406,
      "Ġin": 407,
      "Ġinto": 408,
      "ain": 409,
      "Ġby": 410,
      "ĠM": 411,
      "Ġfrom": 412,
      "||": 413,
      "tw": 414,
      "ew": 415,
      "new": 416,
      ").": 417,
      "ĠCh": 418,
      "though": 419,
      "fect": 420,
      "ffect": 421,
      "Ġwhen": 422,
      "Ġwho": 423,
      "ĠP": 424,
      "iff": 425,
      "iffer": 426,
      "very": 427,
      "blish": 428,
      "Ġwhat": 429,
      "evel": 430,
      "ple": 431,
      "New": 432,
      "ĠB": 433,
      "tim": 434,
      "time": 435,
      "ract": 436,
      "uct": 437,
      "Ġbetw": 438,
      "Ġbeen": 439,
      "evelo": 440,
      "evelop": 441,
      "ople": 442,
      "ample": 443,
      "ong": 444,
      "bo": 445,
      "example": 446,
      "der": 447,
      "under": 448,
      "ifferent": 449,
      "000": 450,
      "ome": 451,
      "ang": 452,
      "chang": 453,
      "can": 454,
      "any": 455,
      "than": 456,
      "struct": 457,
      "ility": 458,
      "bility": 459,
      "anc": 460,
      "ance": 461,
      "cl": 462,
      "clu": 463,
      "Ġinclu": 464,
      "Ġinclud": 465,
      "ac": 466,
      "as": 467,
      "ad": 468,
      "ach": 469,
      "plac": 470,
      "us": 471,
      "uch": 472,
      "ut": 473,
      "ust": 474,
      "just": 475,
      "art": 476,
      "part": 477,
      "are": 478,
      "Ġare": 479,
      "arch": 480,
      "chil": 481,
      "child": 482,
      "develop": 483,
      "po": 484,
      "ph": 485,
      "up": 486,
      "Ġh": 487,
      "sh": 488,
      "should": 489,
      "Ġhis": 490,
      "Ġhe": 491,
      "por": 492,
      "port": 493,
      "two": 494,
      "od": 495,
      "ood": 496,
      "end": 497,
      "vid": 498,
      "Ġprovid": 499,
      "view": 500,
      "og": 501,
      "olog": 502,
      "ost": 503,
      "most": 504,
      "oc": 505,
      "acc": 506,
      "gr": 507,
      "grou": 508,
      "cent": 509,
      "could": 510,
      "ary": 511,
      "Ġway": 512,
      "ok": 513,
      "ature": 514,
      "Ġhave": 515,
      "book": 516,
      "dition": 517,
      "iver": 518,
      "Univer": 519,
      "import": 520,
      "important": 521,
      "number": 522,
      "ud": 523,
      "stud": 524,
      "student": 525,
      "ard": 526,
      "had": 527,
      "has": 528,
      "some": 529,
      "Ġinter": 530,
      "ap": 531,
      "appro": 532,
      "ast": 533,
      "uc": 534,
      "duc": 535,
      "ful": 536,
      "ular": 537,
      "know": 538,
      "12": 539,
      "may": 540,
      "way": 541,
      "day": 542,
      "dis": 543,
      "Ġis": 544,
      "ĠH": 545,
      "Ġcan": 546,
      "Ġnot": 547,
      "Ġf": 548,
      "ĠThe": 549,
      "Ġthis": 550,
      "Ġcon": 551,
      "ook": 552,
      "many": 553,
      "buil": 554,
      "graph": 555,
      "eople": 556,
      "people": 557,
      "ake": 558,
      "ution": 559,
      "commun": 560,
      "Ġinformation": 561,
      "Ġprogra": 562,
      "mor": 563,
      "more": 564,
      "lect": 565,
      "land": 566,
      "stand": 567,
      "vol": 568,
      "ollow": 569,
      "Ġfollow": 570,
      "Ġfound": 571,
      "tra": 572,
      "It": 573,
      "ĠSt": 574,
      "ĠState": 575,
      "fter": 576,
      "ff": 577,
      "Ġproble": 578,
      "ible": 579,
      "ĠG": 580,
      "Ġyou": 581,
      "Ġex": 582,
      "upport": 583,
      "op": 584,
      "right": 585,
      "grow": 586,
      "illion": 587,
      "ĠF": 588,
      "ric": 589,
      "childr": 590,
      "children": 591,
      "gen": 592,
      "gener": 593,
      "ran": 594,
      "ry": 595,
      "ident": 596,
      "ving": 597,
      "vent": 598,
      "ient": 599,
      "val": 600,
      "after": 601,
      "aus": 602,
      "caus": 603,
      "Ġbecaus": 604,
      "ever": 605,
      "est": 606,
      "pres": 607,
      "present": 608,
      "es": 609,
      "ies": 610,
      "ear": 611,
      "year": 612,
      "et": 613,
      "el": 614,
      "ell": 615,
      "ces": 616,
      "ot": 617,
      "ik": 618,
      "lik": 619,
      "like": 620,
      "pos": 621,
      "ian": 622,
      "earch": 623,
      "Ġproces": 624,
      "ities": 625,
      "col": 626,
      "tran": 627,
      "ark": 628,
      "arg": 629,
      "em": 630,
      "stem": 631,
      "ystem": 632,
      "ember": 633,
      "Ġm": 634,
      "Ġmake": 635,
      "Ġprogram": 636,
      "Ġproblem": 637,
      "ĠW": 638,
      "understand": 639,
      "state": 640,
      "blic": 641,
      "ublic": 642,
      "You": 643,
      "ience": 644,
      "ious": 645,
      "di": 646,
      "divid": 647,
      "ational": 648,
      "ulation": 649,
      "Ġher": 650,
      "Ġhum": 651,
      "Ġhuman": 652,
      "Ġwher": 653,
      "Ġproduc": 654,
      "count": 655,
      "duct": 656,
      "again": 657,
      "pect": 658,
      "rit": 659,
      "ĠJ": 660,
      "ĠR": 661,
      "aterial": 662,
      "vir": 663,
      "different": 664,
      "ved": 665,
      "âĢĺ": 666,
      "partic": 667,
      "particular": 668,
      "larg": 669,
      "ually": 670,
      "uction": 671,
      "ub": 672,
      "ob": 673,
      "ab": 674,
      "back": 675,
      "group": 676,
      "plant": 677,
      "play": 678,
      "mer": 679,
      "meric": 680,
      "ĠAmeric": 681,
      "ĠAmerican": 682,
      "ĠD": 683,
      "Ġre": 684,
      "cre": 685,
      "Ġa": 686,
      "Ġd": 687,
      "Ġde": 688,
      "Ġdo": 689,
      "ia": 690,
      "ind": 691,
      "ail": 692,
      "ire": 693,
      "quire": 694,
      "reat": 695,
      "creas": 696,
      "Ġincreas": 697,
      "ĠIn": 698,
      "ĠE": 699,
      "ĠL": 700,
      "Ġcont": 701,
      "Ġb": 702,
      "Ġdis": 703,
      "Ġmore": 704,
      "Ġcomp": 705,
      "aw": 706,
      "Ġhas": 707,
      "ĠT": 708,
      "Ġc": 709,
      "ce": 710,
      "le": 711,
      "ĠI": 712,
      "ĠN": 713,
      "Ġas": 714,
      "Ġrequire": 715,
      "cience": 716,
      "ivi": 717,
      "activi": 718,
      "ip": 719,
      "ship": 720,
      "level": 721,
      "long": 722,
      "cho": 723,
      "chool": 724,
      "old": 725,
      "rect": 726,
      "direct": 727,
      "ground": 728,
      "public": 729,
      "Ġexper": 730,
      "Ġexpl": 731,
      "Ġbas": 732,
      "Ġbut": 733,
      "conom": 734,
      "Ġbetwe": 735,
      "Ġbetween": 736,
      "Ġdisc": 737,
      "ĠCom": 738,
      "Ġdes": 739,
      "Ġdesign": 740,
      "Ġyour": 741,
      "Ġwhil": 742,
      "Ġsome": 743,
      "rof": 744,
      "ru": 745,
      "valu": 746,
      "study": 747,
      "Ġwrit": 748,
      "Ġbefor": 749,
      "log": 750,
      "nolog": 751,
      "chnolog": 752,
      "Ġhel": 753,
      "Ġhelp": 754,
      "ower": 755,
      "power": 756,
      "pri": 757,
      "ec": 758,
      "pec": 759,
      "each": 760,
      "system": 761,
      "only": 762,
      "one": 763,
      "viron": 764,
      "vironment": 765,
      "Ġwhere": 766,
      "Ġworl": 767,
      "Ġworld": 768,
      "oci": 769,
      "ual": 770,
      "dividual": 771,
      "early": 772,
      "ission": 773,
      "ĠAn": 774,
      "tern": 775,
      "15": 776,
      "11": 777,
      "17": 778,
      "earn": 779,
      "spec": 780,
      "Ġexperience": 781,
      "Ġabout": 782,
      "13": 783,
      "On": 784,
      "ĠEn": 785,
      "overn": 786,
      "overnment": 787,
      "development": 788,
      "ame": 789,
      "fer": 790,
      "country": 791,
      "16": 792,
      "Ġother": 793,
      "cient": 794,
      "Ġwom": 795,
      "used": 796,
      "lif": 797,
      "learn": 798,
      "ll": 799,
      "Ġwell": 800,
      "light": 801,
      "government": 802,
      "occ": 803,
      "ocial": 804,
      "Ġpo": 805,
      "Ġbecause": 806,
      "take": 807,
      "ailable": 808,
      "vailable": 809,
      "Ġcondition": 810,
      "such": 811,
      "Ġmuch": 812,
      "Ġproduct": 813,
      "aid": 814,
      "ide": 815,
      "les": 816,
      "loc": 817,
      "look": 818,
      "Ġcontro": 819,
      "ĠPro": 820,
      "Ġreport": 821,
      "Ġproject": 822,
      "ources": 823,
      "Ġfact": 824,
      "environment": 825,
      "species": 826,
      "specific": 827,
      "ignific": 828,
      "Ġmay": 829,
      "term": 830,
      "ism": 831,
      "blood": 832,
      "app": 833,
      "appear": 834,
      "__": 835,
      "life": 836,
      "ĠHow": 837,
      "ĠHowever": 838,
      "allow": 839,
      "Ġform": 840,
      "Ġcall": 841,
      "Ġfind": 842,
      "ically": 843,
      "ick": 844,
      "ink": 845,
      "ine": 846,
      "ext": 847,
      "li": 848,
      "both": 849,
      "bod": 850,
      "body": 851,
      "ection": 852,
      "Ġhist": 853,
      "Ġhistor": 854,
      "Ġdist": 855,
      "Ġhome": 856,
      "plan": 857,
      "object": 858,
      "ization": 859,
      "ĠNational": 860,
      "ucces": 861,
      "var": 862,
      "Ġthan": 863,
      "ological": 864,
      "Ġcl": 865,
      "Ġyear": 866,
      "Ġsh": 867,
      "Ġ19": 868,
      "Ġbecom": 869,
      "position": 870,
      "elf": 871,
      "Ġhim": 872,
      "Ġhand": 873,
      "build": 874,
      "Ġfood": 875,
      "Ġheal": 876,
      "Ġhealth": 877,
      "against": 878,
      "Ġst": 879,
      "struction": 880,
      "duction": 881,
      "cond": 882,
      "ord": 883,
      "cord": 884,
      "Ġword": 885,
      "ten": 886,
      "Ġhad": 887,
      "order": 888,
      "Ġwomen": 889,
      "reatment": 890,
      "percent": 891,
      "search": 892,
      "Ġresearch": 893,
      "trans": 894,
      "imate": 895,
      "Ġstill": 896,
      "Ġdef": 897,
      "hap": 898,
      "Ġp": 899,
      "Ġpol": 900,
      "pt": 901,
      "rop": 902,
      "Ġpop": 903,
      "Ġpopulation": 904,
      "Ġprof": 905,
      "tain": 906,
      "pend": 907,
      "Ġpre": 908,
      "cept": 909,
      "good": 910,
      "ĠFor": 911,
      "Ġstart": 912,
      "Ġwar": 913,
      "structure": 914,
      "vice": 915,
      "effect": 916,
      "),": 917,
      "ffic": 918,
      "50": 919,
      "30": 920,
      "Ġtime": 921,
      "ĠK": 922,
      "Ġdesc": 923,
      "Ġdescri": 924,
      "Ġcontain": 925,
      "Unit": 926,
      "occur": 927,
      "appl": 928,
      "gre": 929,
      "volution": 930,
      "ubject": 931,
      "Ġcap": 932,
      "Ġcell": 933,
      "Ġdec": 934,
      "Ġmaterial": 935,
      "ference": 936,
      "ĠBut": 937,
      "ology": 938,
      "ency": 939,
      "14": 940,
      "Ġclas": 941,
      "eas": 942,
      "Ġdiseas": 943,
      "easure": 944,
      "outh": 945,
      "ath": 946,
      "Ġpract": 947,
      "ignificant": 948,
      "think": 949,
      "special": 950,
      "Ġwant": 951,
      "Ġinterest": 952,
      "ug": 953,
      "get": 954,
      "ily": 955,
      "amily": 956,
      "unction": 957,
      "ove": 958,
      "acter": 959,
      "ace": 960,
      "impro": 961,
      "Ġdown": 962,
      "aking": 963,
      "ribut": 964,
      "standard": 965,
      "around": 966,
      "When": 967,
      "What": 968,
      "ized": 969,
      "United": 970,
      "Ġcalled": 971,
      "ward": 972,
      "ix": 973,
      "ince": 974,
      "Ġpoin": 975,
      "Ġpoint": 976,
      "ines": 977,
      "Ġcontin": 978,
      "Ġcontinu": 979,
      "Ġdoes": 980,
      "ially": 981,
      "pecially": 982,
      "Ġpeople": 983,
      "Ġcompl": 984,
      "cientist": 985,
      "another": 986,
      "even": 987,
      "vention": 988,
      "Ġbefore": 989,
      "ne": 990,
      "need": 991,
      "nown": 992,
      "known": 993,
      "urn": 994,
      "turn": 995,
      "use": 996,
      "ource": 997,
      "law": 998,
      "uring": 999,
      "Ġduring": 1000,
      "thing": 1001,
      "cientific": 1002,
      "ĠIf": 1003,
      "perform": 1004,
      "ĠâĢľ": 1005,
      "eng": 1006,
      "ĠEng": 1007,
      "Ġnew": 1008,
      "said": 1009,
      "Ġmust": 1010,
      "activit": 1011,
      "ave": 1012,
      "Ġfamily": 1013,
      "centur": 1014,
      "ural": 1015,
      "vari": 1016,
      "various": 1017,
      "und": 1018,
      "ption": 1019,
      "educ": 1020,
      "aracter": 1021,
      "character": 1022,
      "addition": 1023,
      "tradition": 1024,
      "ĠIt": 1025,
      "Ġsuch": 1026,
      "ĠO": 1027,
      "vices": 1028,
      "neces": 1029,
      "ifference": 1030,
      "ĠEx": 1031,
      "Ġyears": 1032,
      "atural": 1033,
      "great": 1034,
      "Ġreg": 1035,
      "Ġregion": 1036,
      "Ġrel": 1037,
      "Ġrem": 1038,
      "Ġremain": 1039,
      "mall": 1040,
      "elect": 1041,
      "Ġreduc": 1042,
      "ustr": 1043,
      "Ġfew": 1044,
      "Ġcol": 1045,
      "Ġl": 1046,
      "Ġfl": 1047,
      "Ġcontrol": 1048,
      "ĠAl": 1049,
      "Ġhigh": 1050,
      "Ġfunction": 1051,
      "Ġfirst": 1052,
      "rain": 1053,
      "ax": 1054,
      "Ġindividual": 1055,
      "ib": 1056,
      "iven": 1057,
      "ĠAnd": 1058,
      "kill": 1059,
      "ĠComm": 1060,
      "Ġ200": 1061,
      "accord": 1062,
      "Ġmeasure": 1063,
      "national": 1064,
      "approach": 1065,
      "vidence": 1066,
      "ublish": 1067,
      "urr": 1068,
      "urrent": 1069,
      "Ġcurrent": 1070,
      "ential": 1071,
      "imple": 1072,
      "Ġcare": 1073,
      "estion": 1074,
      "question": 1075,
      "Ġcomplet": 1076,
      "Ġout": 1077,
      "Ġwithout": 1078,
      "Ġ198": 1079,
      "phy": 1080,
      "Ġdeterm": 1081,
      "ĠCon": 1082,
      "Ġmillion": 1083,
      "Ġman": 1084,
      "Ġtwo": 1085,
      "Ġmost": 1086,
      "Ġonly": 1087,
      "ugg": 1088,
      "uggest": 1089,
      "however": 1090,
      "community": 1091,
      "among": 1092,
      "Ġbeli": 1093,
      "natural": 1094,
      "studies": 1095,
      "Ġrecord": 1096,
      "Ġdeath": 1097,
      "gan": 1098,
      "organ": 1099,
      "Ġmod": 1100,
      "Ġmodel": 1101,
      "urop": 1102,
      "ĠEurop": 1103,
      "row": 1104,
      "Ġwhile": 1105,
      "Ġuse": 1106,
      "Ġit": 1107,
      "stit": 1108,
      "stitution": 1109,
      "stitut": 1110,
      "Ġone": 1111,
      "ĠU": 1112,
      "Ġno": 1113,
      "Ġon": 1114,
      "Ġthrough": 1115,
      "Ġg": 1116,
      "Ġgiven": 1117,
      "Ġgo": 1118,
      "leg": 1119,
      "Ġt": 1120,
      "Ġtreatment": 1121,
      "Ġteach": 1122,
      "Ġtest": 1123,
      "Ġan": 1124,
      "att": 1125,
      "Ġall": 1126,
      "Ġneed": 1127,
      "Ġ\"": 1128,
      "Ġup": 1129,
      "Ġmany": 1130,
      "ĠV": 1131,
      "Ġlike": 1132,
      "Ġused": 1133,
      "Ġprot": 1134,
      "Ġprotect": 1135,
      "ĠThis": 1136,
      "'t": 1137,
      "ating": 1138,
      "Ġat": 1139,
      "ator": 1140,
      "atient": 1141,
      "Ġpatient": 1142,
      "Ġdat": 1143,
      "Ġdata": 1144,
      "Ġsystem": 1145,
      "Ġper": 1146,
      "Ġproper": 1147,
      "Ġgl": 1148,
      "fficient": 1149,
      "Ġ20": 1150,
      "Ġincluding": 1151,
      "Ġcould": 1152,
      "Ġpart": 1153,
      "Ġun": 1154,
      "Ġn": 1155,
      "Ġtra": 1156,
      "Ġover": 1157,
      "Ġdiscover": 1158,
      "Ġshould": 1159,
      "Ġcomm": 1160,
      "Ġacc": 1161,
      "Ġany": 1162,
      "Ġs": 1163,
      "Ġor": 1164,
      "Ġsub": 1165,
      "Ġsmall": 1166,
      "Ġsp": 1167,
      "Ġschool": 1168,
      "Ġsay": 1169,
      "Ġsupport": 1170,
      "Ġsame": 1171,
      "Ġdi": 1172,
      "Ġres": 1173,
      "Ġresult": 1174,
      "Ġresp": 1175,
      "Ġrespon": 1176,
      "os": 1177,
      "thos": 1178,
      "those": 1179,
      "Ġso": 1180,
      "less": 1181,
      "Ġshow": 1182,
      "Ġhow": 1183,
      "Ġsur": 1184,
      "Ġunder": 1185,
      "Ġclos": 1186,
      "Ġcons": 1187,
      "Ġconsid": 1188,
      "Ġconsider": 1189,
      "Ġ2": 1190,
      "Ġsaid": 1191,
      "Ġits": 1192,
      "ĠTh": 1193,
      "Ġtrans": 1194,
      "Ġafter": 1195,
      "Ġsever": 1196,
      "Ġstate": 1197,
      "Ġlarg": 1198,
      "Ġcom": 1199,
      "Ġ18": 1200,
      "ork": 1201,
      "twork": 1202,
      "York": 1203,
      "Ġname": 1204,
      "Ġstor": 1205,
      "Ġchang": 1206,
      "Ġch": 1207,
      "Ġthose": 1208,
      "Ġcre": 1209,
      "Ġstudent": 1210,
      "ulture": 1211,
      "ultural": 1212,
      "ock": 1213,
      "Ġdid": 1214,
      "Ġgener": 1215,
      "Ġresources": 1216,
      "Ġnumber": 1217,
      "Ġknow": 1218,
      "Ġprocess": 1219,
      "ations": 1220,
      "Ġeffect": 1221,
      "Ġcommon": 1222,
      "ron": 1223,
      "particip": 1224,
      "Ġprevent": 1225,
      "partment": 1226,
      "Ġlong": 1227,
      "rang": 1228,
      "angu": 1229,
      "anguage": 1230,
      "Ġlanguage": 1231,
      "Ġavailable": 1232,
      "Ġseveral": 1233,
      "oung": 1234,
      "erg": 1235,
      "ergy": 1236,
      "energy": 1237,
      "ers": 1238,
      "ertain": 1239,
      "Univers": 1240,
      "University": 1241,
      "sible": 1242,
      "possible": 1243,
      "Ã©": 1244,
      "strong": 1245,
      "imp": 1246,
      "impact": 1247,
      "Ġcertain": 1248,
      "Ġcar": 1249,
      "Ġcas": 1250,
      "Ġmain": 1251,
      "Ġmove": 1252,
      "econd": 1253,
      "Ġsecond": 1254,
      "ĠAr": 1255,
      "oper": 1256,
      "Ġproduction": 1257,
      "Ġdiff": 1258,
      "ablish": 1259,
      "establish": 1260,
      "usually": 1261,
      "ociet": 1262,
      "identif": 1263,
      "aj": 1264,
      "ajor": 1265,
      "Ġmajor": 1266,
      "Ġj": 1267,
      "Ġnor": 1268,
      "Ġco": 1269,
      "Ġcour": 1270,
      "Ġdifferent": 1271,
      "Ġjust": 1272,
      "ceive": 1273,
      "Ġlive": 1274,
      "Ġlater": 1275,
      "perature": 1276,
      "emperature": 1277,
      "ith": 1278,
      "Ġprom": 1279,
      "Ġchildren": 1280,
      "thod": 1281,
      "ĠGod": 1282,
      "iod": 1283,
      "Ġperiod": 1284,
      "thre": 1285,
      "three": 1286,
      "Ġaccount": 1287,
      "man": 1288,
      "Ġconf": 1289,
      "amount": 1290,
      "education": 1291,
      "Ġif": 1292,
      "Ġcaus": 1293,
      "ĠNew": 1294,
      "Ġloc": 1295,
      "Ġpublish": 1296,
      "Ġlast": 1297,
      "Ġbl": 1298,
      "organization": 1299,
      "Ġfre": 1300,
      "Ġreceive": 1301,
      "echnolog": 1302,
      "Ġtechnolog": 1303,
      "place": 1304,
      "Ġme": 1305,
      "Ġmean": 1306,
      "Ġmethod": 1307,
      "Ġmark": 1308,
      "âĢ¦": 1309,
      "Ġblack": 1310,
      "Ġdiscus": 1311,
      "rate": 1312,
      "Ġmad": 1313,
      "Ġmade": 1314,
      "Ġad": 1315,
      "Ġadd": 1316,
      "Ġmight": 1317,
      "Ġmember": 1318,
      "Ġread": 1319,
      "eld": 1320,
      "ield": 1321,
      "Ġfield": 1322,
      "vest": 1323,
      "Ġeven": 1324,
      "Ġstudy": 1325,
      "Ġspace": 1326,
      "Ġadv": 1327,
      "Ġrepresent": 1328,
      "bove": 1329,
      "improve": 1330,
      "Ġhistory": 1331,
      "Ġeach": 1332,
      "âĢ¢": 1333,
      "ument": 1334,
      "ocument": 1335,
      "arm": 1336,
      "Ġhous": 1337,
      "Ġsocial": 1338,
      "commend": 1339,
      "Ġclimate": 1340,
      "vision": 1341,
      "Ġpractic": 1342,
      "conomic": 1343,
      "Ġgroup": 1344,
      "ĠPre": 1345,
      "Ġthere": 1346,
      "red": 1347,
      "Ġbre": 1348,
      "ctor": 1349,
      "century": 1350,
      "Ġmaintain": 1351,
      "Ġlarge": 1352,
      "equ": 1353,
      "ĠHe": 1354,
      "Ġexplain": 1355,
      "Ġdevelop": 1356,
      "Ġglob": 1357,
      "Ġnever": 1358,
      "Ġnext": 1359,
      "Ġatt": 1360,
      "Ġattack": 1361,
      "olution": 1362,
      "Ġcor": 1363,
      "Ġcost": 1364,
      "Ġpar": 1365,
      "Ġlife": 1366,
      "Ġboth": 1367,
      "Ġne": 1368,
      "Ġnetwork": 1369,
      "100": 1370,
      "radi": 1371,
      "Ġoften": 1372,
      "Ġorig": 1373,
      "Ġorigin": 1374,
      "countri": 1375,
      "ĠChri": 1376,
      "ĠChrist": 1377,
      "Ġsomething": 1378,
      "ather": 1379,
      "Ġcover": 1380,
      "atter": 1381,
      "atch": 1382,
      "urch": 1383,
      "Ġtake": 1384,
      "Ġle": 1385,
      "Ġlead": 1386,
      "Ġleast": 1387,
      "Ġal": 1388,
      "Ġals": 1389,
      "Ġalso": 1390,
      "Ġalong": 1391,
      "Ġalway": 1392,
      "Ġalmost": 1393,
      "ality": 1394,
      "ox": 1395,
      "Ġpower": 1396,
      "Ġget": 1397,
      "Ġvi": 1398,
      "vious": 1399,
      "Ġ199": 1400,
      "Ġpri": 1401,
      "Ġlevel": 1402,
      "Ġlearn": 1403,
      "Ġday": 1404,
      "Ġimportant": 1405,
      "Ġplan": 1406,
      "havi": 1407,
      "Ġop": 1408,
      "Ġopen": 1409,
      "Ġqu": 1410,
      "Ġpers": 1411,
      "Ġperson": 1412,
      "Ġstudents": 1413,
      "Ġlocal": 1414,
      "Ġclass": 1415,
      "Ġthree": 1416,
      "pression": 1417,
      "Ġpres": 1418,
      "iqu": 1419,
      "Ġpopular": 1420,
      "Ġtext": 1421,
      "Ġtru": 1422,
      "Ġtri": 1423,
      "Ġtemperature": 1424,
      "Ġgood": 1425,
      "Ġexample": 1426,
      "Ġright": 1427,
      "Ġback": 1428,
      "Ġk": 1429,
      "Ġus": 1430,
      "Ġusing": 1431,
      "Ġour": 1432,
      "Ġ2012": 1433,
      "Ġ2011": 1434,
      "ww": 1435,
      "rug": 1436,
      "face": 1437,
      "Ġsurface": 1438,
      "Ġgive": 1439,
      "having": 1440,
      "Ġfrequ": 1441,
      "every": 1442,
      "Ġvery": 1443,
      "Ġevery": 1444,
      "Ġcomplex": 1445,
      "Ġgra": 1446,
      "Ġquality": 1447,
      "ugh": 1448,
      "Ġdoctor": 1449,
      "Ġsince": 1450,
      "Ġsup": 1451,
      "Ġsucces": 1452,
      "Ġmon": 1453,
      "Ġmonth": 1454,
      "ĠIntern": 1455,
      "40": 1456,
      "ĠJew": 1457,
      "Ġlit": 1458,
      "Ġpolit": 1459,
      "Ġpolitical": 1460,
      "Ġpolic": 1461,
      "Ġrec": 1462,
      "Ġrecog": 1463,
      "Ġbehavi": 1464,
      "ĠOn": 1465,
      "Ġdiffic": 1466,
      "Ġdifficult": 1467,
      "Ġ3": 1468,
      "ĠUniversity": 1469,
      "Ġrecent": 1470,
      "Ġheart": 1471,
      "ĠSh": 1472,
      "av": 1473,
      "Ġ2010": 1474,
      "ĠBrit": 1475,
      "ĠBritish": 1476,
      "Ġnear": 1477,
      "Ġparent": 1478,
      "Ġbo": 1479,
      "Ġplant": 1480,
      "Ġlook": 1481,
      "Ġgrow": 1482,
      "ird": 1483,
      "air": 1484,
      "Ġgu": 1485,
      "Ġnow": 1486,
      "Ġgovernment": 1487,
      "Ġleave": 1488,
      "Ġlink": 1489,
      "nes": 1490,
      "ness": 1491,
      "countries": 1492,
      "living": 1493,
      "Ġ1": 1494,
      "appropri": 1495,
      "uth": 1496,
      "uthor": 1497,
      "Ġauthor": 1498,
      "Ġdepend": 1499,
      "Ġkind": 1500,
      "Ġwind": 1501,
      "Ġke": 1502,
      "ize": 1503,
      "ge": 1504,
      "gether": 1505,
      "urther": 1506,
      "ite": 1507,
      "ep": 1508,
      "Ġkeep": 1509,
      "happ": 1510,
      "yp": 1511,
      "Ġtyp": 1512,
      "ĠRe": 1513,
      "ociated": 1514,
      "Ġrelig": 1515,
      "esearch": 1516,
      "ĠResearch": 1517,
      "run": 1518,
      "Ġstre": 1519,
      "artic": 1520,
      "article": 1521,
      "Ġbrain": 1522,
      "Ġresearchers": 1523,
      "Ġbelie": 1524,
      "Ġanim": 1525,
      "Ġanimal": 1526,
      "Ġim": 1527,
      "Ġimage": 1528,
      "Ġimm": 1529,
      "Ġcannot": 1530,
      "ium": 1531,
      "ich": 1532,
      "Ġeffective": 1533,
      "volved": 1534,
      "Ġreturn": 1535,
      "Qu": 1536,
      "uff": 1537,
      "60": 1538,
      "Ġprevious": 1539,
      "Ġdifference": 1540,
      "Ġwid": 1541,
      "young": 1542,
      "ĠAll": 1543,
      "Ġitself": 1544,
      "rin": 1545,
      "Ġprin": 1546,
      "ren": 1547,
      "Ġpain": 1548,
      "Ġ197": 1549,
      "Ġpost": 1550,
      "Ġhead": 1551,
      "ĠY": 1552,
      "Ġaround": 1553,
      "Ġdrug": 1554,
      "especially": 1555,
      "Ġpublic": 1556,
      "Ġexist": 1557,
      "ash": 1558,
      "oh": 1559,
      "ĠJoh": 1560,
      "ĠJohn": 1561,
      "ĠPh": 1562,
      "ĠUS": 1563,
      "Ġmo": 1564,
      "Ġmoder": 1565,
      "Ġpot": 1566,
      "Ġpotential": 1567,
      "fort": 1568,
      "ffort": 1569,
      "Ġpresent": 1570,
      "Ġconsum": 1571,
      "Ġabove": 1572,
      "ifi": 1573,
      "ĠCol": 1574,
      "Ġcollect": 1575,
      "Ġfactor": 1576,
      "abor": 1577,
      "ably": 1578,
      "Ġsign": 1579,
      "Ġdem": 1580,
      "empl": 1581,
      "emplo": 1582,
      "activities": 1583,
      "Ġaffect": 1584,
      "Ġlim": 1585,
      "Ġlimit": 1586,
      "Ġtravel": 1587,
      "Ġconduct": 1588,
      "Ġlist": 1589,
      "Ġlitt": 1590,
      "Ġlittle": 1591,
      "centr": 1592,
      "Ġsignificant": 1593,
      "Ġser": 1594,
      "Ġservices": 1595,
      "Ġservice": 1596,
      "Ġsuggest": 1597,
      "Ġexperi": 1598,
      "iple": 1599,
      "Ġenvironment": 1600,
      "Ġro": 1601,
      "Ġbu": 1602,
      "bution": 1603,
      "Ġpercent": 1604,
      "ĠâĢĵ": 1605,
      "ified": 1606,
      "actually": 1607,
      "Ġdocument": 1608,
      "oward": 1609,
      "Ġtoward": 1610,
      "Ġrelative": 1611,
      "Ġcreate": 1612,
      "ĠInternational": 1613,
      "Ġdisease": 1614,
      "ĠAmerica": 1615,
      "ability": 1616,
      "ah": 1617,
      "ader": 1618,
      "Ġleader": 1619,
      "Ġlef": 1620,
      "Ġleft": 1621,
      "aper": 1622,
      "Ġpaper": 1623,
      "Ġinf": 1624,
      "Ġinfl": 1625,
      "Ġinfection": 1626,
      "Ġinflu": 1627,
      "active": 1628,
      "itive": 1629,
      "ĠNor": 1630,
      "ĠNorth": 1631,
      "ĠInstitut": 1632,
      "ĠUnited": 1633,
      "Ġchild": 1634,
      "Ġdevelopment": 1635,
      "Ġac": 1636,
      "Ġacro": 1637,
      "Ġgreat": 1638,
      "ociety": 1639,
      "Ġexpect": 1640,
      "cer": 1641,
      "Ġcancer": 1642,
      "Ġconcer": 1643,
      "Ġconcern": 1644,
      "applic": 1645,
      "Ġfurther": 1646,
      "amp": 1647,
      "building": 1648,
      "imil": 1649,
      "imilar": 1650,
      "Ġsimilar": 1651,
      "ĠChristian": 1652,
      "ograph": 1653,
      "ĠStud": 1654,
      "Ġclear": 1655,
      "Ġknown": 1656,
      "ception": 1657,
      "Ġfollowing": 1658,
      "fic": 1659,
      "ficial": 1660,
      "fric": 1661,
      "ĠAfric": 1662,
      "Ġrecogn": 1663,
      "Ġmovement": 1664,
      "Ġgen": 1665,
      "ĠThere": 1666,
      "Ġtre": 1667,
      "ĠInd": 1668,
      "ĠIndian": 1669,
      "Ġind": 1670,
      "Ġbelieve": 1671,
      "tention": 1672,
      "Ġwritten": 1673,
      ".\"": 1674,
      "ĠSome": 1675,
      "ĠSouth": 1676,
      "Ġsometime": 1677,
      "Ġopport": 1678,
      "Ġopportun": 1679,
      "came": 1680,
      "Ġbecame": 1681,
      "ength": 1682,
      "alleng": 1683,
      "Ġchalleng": 1684,
      "engine": 1685,
      "ification": 1686,
      "Ġmil": 1687,
      "Ġlaw": 1688,
      "Ġenergy": 1689,
      "Ġv": 1690,
      "erv": 1691,
      "Ġquestion": 1692,
      "Ġstr": 1693,
      "Ġless": 1694,
      "Ġthink": 1695,
      "Ġ10": 1696,
      "Ġob": 1697,
      "ĠWh": 1698,
      "Ġanother": 1699,
      "Ġallow": 1700,
      "Ġelect": 1701,
      "Ġbody": 1702,
      "Ġown": 1703,
      "Ġag": 1704,
      "Ġra": 1705,
      "Ġrather": 1706,
      "Ġth": 1707,
      "Ġbook": 1708,
      "Ġdirect": 1709,
      "Ġagainst": 1710,
      "ond": 1711,
      "Ġmanage": 1712,
      "ilities": 1713,
      "Ġthroughout": 1714,
      "ribution": 1715,
      "Ġwhite": 1716,
      "Ġspecies": 1717,
      "Ġfour": 1718,
      "Ġindustr": 1719,
      "____": 1720,
      "pread": 1721,
      "Ġregard": 1722,
      "augh": 1723,
      "af": 1724,
      "ue": 1725,
      "Ġvari": 1726,
      "Ġunderstand": 1727,
      "Ġoccur": 1728,
      "Ġplace": 1729,
      "ision": 1730,
      "Ġdecision": 1731,
      "Ġrecommend": 1732,
      "ountain": 1733,
      "Ġgrowth": 1734,
      "atic": 1735,
      "istic": 1736,
      "Ġblood": 1737,
      "agno": 1738,
      "Ġdiagno": 1739,
      "igure": 1740,
      "vestig": 1741,
      "uture": 1742,
      "Ġfuture": 1743,
      "Ġrespect": 1744,
      "ervation": 1745,
      "Ġprofes": 1746,
      "Ġprim": 1747,
      "attle": 1748,
      "lection": 1749,
      "Ġhard": 1750,
      "Ġext": 1751,
      "Ġsubject": 1752,
      "Ġcollection": 1753,
      "ptom": 1754,
      "mptom": 1755,
      "Ġthem": 1756,
      "Ġthey": 1757,
      "employ": 1758,
      "empt": 1759,
      "Ġattempt": 1760,
      "ymptom": 1761,
      "gin": 1762,
      "Ġbegin": 1763,
      "greater": 1764,
      "Ġbegan": 1765,
      "Ġconcept": 1766,
      "ĠEngl": 1767,
      "ĠEnglish": 1768,
      "Ġcreated": 1769,
      "Ġrelated": 1770,
      "Ġadult": 1771,
      "event": 1772,
      "az": 1773,
      "happen": 1774,
      "Ġconsist": 1775,
      "uper": 1776,
      "ivil": 1777,
      "thern": 1778,
      "ither": 1779,
      "outhern": 1780,
      "Ġpas": 1781,
      "Ġmaking": 1782,
      "Ġmult": 1783,
      "Ġmin": 1784,
      "stance": 1785,
      "Ġlikely": 1786,
      "ĠScience": 1787,
      "Ġscience": 1788,
      "Ġsc": 1789,
      "ounc": 1790,
      "hab": 1791,
      "habit": 1792,
      "Ġcomb": 1793,
      "Ġshor": 1794,
      "Ġshort": 1795,
      "Ġterm": 1796,
      "Ġrelation": 1797,
      "Ġrelationship": 1798,
      "Ġinternational": 1799,
      "Ġprofession": 1800,
      "Ġparticular": 1801,
      "Ġmarket": 1802,
      "Ġset": 1803,
      "Ġse": 1804,
      "Ġsee": 1805,
      "Ġseem": 1806,
      "Ġem": 1807,
      "Ġemerg": 1808,
      "Ġchem": 1809,
      "Ġchemical": 1810,
      "Ġsaf": 1811,
      "Ġevent": 1812,
      "Ġlow": 1813,
      "Ġpl": 1814,
      "Ġorgan": 1815,
      "Ġr": 1816,
      "Ġrul": 1817,
      "Ġamong": 1818,
      "Ġri": 1819,
      "Ġris": 1820,
      "Ġrisk": 1821,
      "Ġthough": 1822,
      "Ġph": 1823,
      "Ġ&": 1824,
      "Ġphy": 1825,
      "Ġ4": 1826,
      "Ġ[": 1827,
      "Ġab": 1828,
      "Ġappear": 1829,
      "Ġplay": 1830,
      "Ġaddition": 1831,
      "Ġoper": 1832,
      "Ġcommun": 1833,
      "Ġend": 1834,
      "ĠUn": 1835,
      "Ġvalu": 1836,
      "Ġequ": 1837,
      "equence": 1838,
      "Ġcountry": 1839,
      "Ġorder": 1840,
      "Ġdisorder": 1841,
      "Ġscientist": 1842,
      "aken": 1843,
      "Ġtaken": 1844,
      "ĠEurope": 1845,
      "Ġreligious": 1846,
      "Ġsurvi": 1847,
      "Ġnature": 1848,
      "Ġthing": 1849,
      "Ġlight": 1850,
      "Ġquick": 1851,
      "ank": 1852,
      "ld": 1853,
      "orld": 1854,
      "ĠWorld": 1855,
      "ĠCent": 1856,
      "Ġdra": 1857,
      "Ġdet": 1858,
      "Ġdetail": 1859,
      "gram": 1860,
      "Ġindic": 1861,
      "Ġuniver": 1862,
      "Ġexperiment": 1863,
      "Ġmanagement": 1864,
      "Ġmemor": 1865,
      "Ġearly": 1866,
      "Ġland": 1867,
      "Ġref": 1868,
      "Ġcharacter": 1869,
      "Ġfac": 1870,
      "Ġflow": 1871,
      "Ġcorrect": 1872,
      "ens": 1873,
      "Ġsens": 1874,
      "enough": 1875,
      "Ġmen": 1876,
      "Ġphys": 1877,
      "Ġphysical": 1878,
      "Ġcontribut": 1879,
      "Ġthreat": 1880,
      "ĠWith": 1881,
      "activity": 1882,
      "Ġnon": 1883,
      "ugust": 1884,
      "Ġreflect": 1885,
      "ologist": 1886,
      "Ġ15": 1887,
      "Ġpossible": 1888,
      "Ġperform": 1889,
      "portion": 1890,
      "Ġacces": 1891,
      "Ġcame": 1892,
      "Ġaddre": 1893,
      "Ġdraw": 1894,
      "Ġ17": 1895,
      "Ġturn": 1896,
      "Ġleg": 1897,
      "Ġobject": 1898,
      "undred": 1899,
      "Ġfund": 1900,
      "Ġinfluence": 1901,
      "Ġserious": 1902,
      "Ġlos": 1903,
      "ile": 1904,
      "Ġbecome": 1905,
      "Ġstep": 1906,
      "ĠEngland": 1907,
      "rink": 1908,
      "Ġinclude": 1909,
      "ferred": 1910,
      "Ġobtain": 1911,
      "Ġdisplay": 1912,
      "ĠEnvironment": 1913,
      "Ġmodern": 1914,
      "ĠZ": 1915,
      "Ġwhol": 1916,
      "Ġhour": 1917,
      "ĠSchool": 1918,
      "Ġdue": 1919,
      "Ġmatter": 1920,
      "Ġnorm": 1921,
      "Ġdefin": 1922,
      "Ġtogether": 1923,
      "elve": 1924,
      "Ġchange": 1925,
      "Ġchanges": 1926,
      "ept": 1927,
      "Ġaccept": 1928,
      "eptember": 1929,
      "Ġbehavior": 1930,
      "ory": 1931,
      "Ġpass": 1932,
      "Ġsymptom": 1933,
      "Ġregular": 1934,
      "Ġnatural": 1935,
      "Ġvacc": 1936,
      "Ġexp": 1937,
      "Ġexpos": 1938,
      "Ġbro": 1939,
      ".âĢĿ": 1940,
      "ĠWhile": 1941,
      "Ġshe": 1942,
      "Ġgeneral": 1943,
      "Ġgenerally": 1944,
      "Ġsol": 1945,
      "Ġjob": 1946,
      "ĠChurch": 1947,
      "Ġalthough": 1948,
      "ĠAlthough": 1949,
      "ĠSp": 1950,
      "Ġthird": 1951,
      "ĠCount": 1952,
      "Ġprinc": 1953,
      "Ġprinciple": 1954,
      "Ġmultiple": 1955,
      "irc": 1956,
      "Ġcirc": 1957,
      "Ġcamp": 1958,
      "How": 1959,
      "Ġ$": 1960,
      "Ġkey": 1961,
      "Ġtechnology": 1962,
      "ĠThey": 1963,
      "atory": 1964,
      "hib": 1965,
      "Ġculture": 1966,
      "Ġpast": 1967,
      "//": 1968,
      "://": 1969,
      "ef": 1970,
      "enef": 1971,
      "Ġbenef": 1972,
      "Ġbenefit": 1973,
      "ung": 1974,
      "ĠCl": 1975,
      "line": 1976,
      "Ġspecific": 1977,
      "Ġ5": 1978,
      "ĠYou": 1979,
      "top": 1980,
      "Ġyoung": 1981,
      "Ġeas": 1982,
      "Ġhowever": 1983,
      "ush": 1984,
      "virus": 1985,
      "Ġcentury": 1986,
      "Ġcommunities": 1987,
      "Ġrole": 1988,
      "Ġcontact": 1989,
      "Ġdetect": 1990,
      "Ġreach": 1991,
      "www": 1992,
      "Ġbreak": 1993,
      "Ġblock": 1994,
      "Ġmeet": 1995,
      "according": 1996,
      "strument": 1997,
      "Ġdel": 1998,
      "rench": 1999,
      "ĠThat": 2000,
      "Ġbeing": 2001,
      "ĠFrench": 2002,
      "Ġestablish": 2003,
      "Ġcho": 2004,
      "Ġstandard": 2005,
      "Ġtrain": 2006,
      "Ġcommunic": 2007,
      "ict": 2008,
      "ustain": 2009,
      "Ġbird": 2010,
      "ham": 2011,
      "Ġrun": 2012,
      "Ġbest": 2013,
      "Ġrest": 2014,
      "ĠProgram": 2015,
      "Ġchurch": 2016,
      "positive": 2017,
      "icture": 2018,
      "Ġsuper": 2019,
      "version": 2020,
      "edge": 2021,
      "ledge": 2022,
      "Ġknowledge": 2023,
      "Ġgrad": 2024,
      "Ġelectric": 2025,
      "occup": 2026,
      "Ġthought": 2027,
      "Ġcommunity": 2028,
      "Ġapp": 2029,
      "Ġamount": 2030,
      "ecember": 2031,
      "Ġrate": 2032,
      "Ġbuilding": 2033,
      "ĠAfter": 2034,
      "ocus": 2035,
      "Ġfocus": 2036,
      "Ġmus": 2037,
      "pher": 2038,
      "uter": 2039,
      "Ġcomputer": 2040,
      "Ġshown": 2041,
      "Ġrock": 2042,
      "Ġear": 2043,
      "Ġearli": 2044,
      "Ġearth": 2045,
      "Ġli": 2046,
      "Ġusually": 2047,
      "ĠWhen": 2048,
      "Ġeducation": 2049,
      "Ġelectron": 2050,
      "Ġspecial": 2051,
      "Ġdegre": 2052,
      "Ġdecl": 2053,
      "ycl": 2054,
      "clear": 2055,
      "useum": 2056,
      "ĠGre": 2057,
      "istory": 2058,
      "ĠHistory": 2059,
      "leas": 2060,
      "Ġreleas": 2061,
      "Ġreas": 2062,
      "Ġreason": 2063,
      "aster": 2064,
      "ccord": 2065,
      "Ġcountries": 2066,
      "action": 2067,
      "iction": 2068,
      "Ġpriv": 2069,
      "iv": 2070,
      "Ġsource": 2071,
      "rown": 2072,
      "ĠOr": 2073,
      "Ġglobal": 2074,
      "Ġseen": 2075,
      "Ġpur": 2076,
      "Ġpurpos": 2077,
      "Ġareas": 2078,
      "ibility": 2079,
      "Ġriver": 2080,
      "verage": 2081,
      "ER": 2082,
      "ourn": 2083,
      "ournal": 2084,
      "Ġlower": 2085,
      "Ġput": 2086,
      "Ġalre": 2087,
      "Ġalread": 2088,
      "Ġalready": 2089,
      "Ġmy": 2090,
      "range": 2091,
      "ĠComp": 2092,
      "full": 2093,
      "fully": 2094,
      "Ġcrit": 2095,
      "Ġaccomp": 2096,
      "appropriate": 2097,
      "ination": 2098,
      "Ġvariet": 2099,
      "Ġmet": 2100,
      "Ġliter": 2101,
      "riend": 2102,
      "Ġfriend": 2103,
      "ĠYork": 2104,
      "Ġ16": 2105,
      "Ġel": 2106,
      "Ġcent": 2107,
      "Ġidentif": 2108,
      "Ġbelow": 2109,
      "Ġhundred": 2110,
      "Ġadm": 2111,
      "Ġeasily": 2112,
      "ĠâĢĺ": 2113,
      "Ġview": 2114,
      "Ġgre": 2115,
      "Ġprogre": 2116,
      "Ġgreen": 2117,
      "Ġpage": 2118,
      "Ġpicture": 2119,
      "oto": 2120,
      "Ġphoto": 2121,
      "Ġmed": 2122,
      "Ġmedical": 2123,
      "Ġmedic": 2124,
      "Ġ12": 2125,
      "Ġvol": 2126,
      "volve": 2127,
      "Ġ6": 2128,
      "Ġneces": 2129,
      "Ġlabor": 2130,
      "Ġstudies": 2131,
      "Ġnational": 2132,
      "Ġradi": 2133,
      "alth": 2134,
      "ĠHealth": 2135,
      "Ġcases": 2136,
      "Ġcase": 2137,
      "Ġtradition": 2138,
      "Ġapproach": 2139,
      "Ġapplic": 2140,
      "Ġconclu": 2141,
      "ospher": 2142,
      "Ġbased": 2143,
      "ancient": 2144,
      "Ġfull": 2145,
      "Ġ7": 2146,
      "Ġstrong": 2147,
      "built": 2148,
      "Ġbi": 2149,
      "Ġfish": 2150,
      "ĠJewish": 2151,
      "ĠWash": 2152,
      "ĠWe": 2153,
      "Ġimpact": 2154,
      "Ġvarious": 2155,
      "Ġgr": 2156,
      "ustri": 2157,
      "Ġindustri": 2158,
      "80": 2159,
      "Ġstructure": 2160,
      "Ġenough": 2161,
      "ĠStates": 2162,
      "encour": 2163,
      "imply": 2164,
      "Ġline": 2165,
      "ĠâĢĶ": 2166,
      "Ġact": 2167,
      "Ġ-": 2168,
      "Ġe": 2169,
      "Ġeffort": 2170,
      "Ġeconomic": 2171,
      "Ġevidence": 2172,
      "Ġeither": 2173,
      "Ġeconom": 2174,
      "Ġen": 2175,
      "Ġent": 2176,
      "Ġentire": 2177,
      "Ġart": 2178,
      "Ġevalu": 2179,
      "Ġ9": 2180,
      "Ġve": 2181,
      "Ġveget": 2182,
      "Ġespecially": 2183,
      "Ġhaving": 2184,
      "Ġplac": 2185,
      "Ġmor": 2186,
      "Ġcontent": 2187,
      "Ġaccording": 2188,
      "Ġimprove": 2189,
      "ently": 2190,
      "Ġide": 2191,
      "Ġhappen": 2192,
      "Ġnearly": 2193,
      "Ġsurve": 2194,
      "Ġkid": 2195,
      "bably": 2196,
      "Ġprobably": 2197,
      "Ġ--": 2198,
      "oftw": 2199,
      "oftware": 2200,
      "Ġ2009": 2201,
      "ĠWar": 2202,
      "Ġcharacteristic": 2203,
      "Ġfree": 2204,
      "Ġhold": 2205,
      "NA": 2206,
      "Ġlet": 2207,
      "Ġground": 2208,
      "Ġ'": 2209,
      "Ġparticip": 2210,
      "Ġtw": 2211,
      "Ġprotection": 2212,
      "Ġcompany": 2213,
      "ouble": 2214,
      "approx": 2215,
      "approximate": 2216,
      "Â°": 2217,
      "Ġarticle": 2218,
      "Ġha": 2219,
      "Ġfire": 2220,
      "Ġdemand": 2221,
      "Ġoption": 2222,
      "Ġrout": 2223,
      "stant": 2224,
      "Ġgas": 2225,
      "Ġneg": 2226,
      "Ġ14": 2227,
      "If": 2228,
      "cri": 2229,
      "Ġprivate": 2230,
      "ĠAct": 2231,
      "Ġtreat": 2232,
      "Ġactivities": 2233,
      "Ġagain": 2234,
      "Ġpos": 2235,
      "Ġpropos": 2236,
      "Ġoppos": 2237,
      "Ġdetermine": 2238,
      "Ġsett": 2239,
      "ĠWhat": 2240,
      "Ġemploy": 2241,
      "Ġ8": 2242,
      "Ġ2008": 2243,
      "Ġ30": 2244,
      "Ġactivity": 2245,
      "Ġliving": 2246,
      "ĠQu": 2247,
      "Ġcolor": 2248,
      "Ġpublished": 2249,
      "implement": 2250,
      "Ġsimple": 2251,
      "Ġreview": 2252,
      "Ġreally": 2253,
      "Ġphotograph": 2254,
      "Ġrange": 2255,
      "Ġengine": 2256,
      "Ġcivil": 2257,
      "Ġprovide": 2258,
      "Ġunt": 2259,
      "Ġuntil": 2260,
      "ouncil": 2261,
      "Ġtry": 2262,
      "For": 2263,
      "ociation": 2264,
      "ĠAugust": 2265,
      "ĠAustr": 2266,
      "ĠAd": 2267,
      "urround": 2268,
      "Ġcommand": 2269,
      "rid": 2270,
      "ridge": 2271,
      "Ġrequired": 2272,
      "ounter": 2273,
      "Ġfail": 2274,
      "Ġwild": 2275,
      "Ġheld": 2276,
      "Ġreligion": 2277,
      "Ġprimary": 2278,
      "ĠMay": 2279,
      "ues": 2280,
      "Ġresponsible": 2281,
      "fact": 2282,
      "ufact": 2283,
      "Ġmanufact": 2284,
      "roduc": 2285,
      "ĠEduc": 2286,
      "ĠCenter": 2287,
      "Ġletter": 2288,
      "ull": 2289,
      "niqu": 2290,
      "chniqu": 2291,
      "Ġthous": 2292,
      "Ġthousand": 2293,
      "Ġcause": 2294,
      "Ġwithin": 2295,
      "uck": 2296,
      "Ġflu": 2297,
      "ister": 2298,
      "Ġaction": 2299,
      "rection": 2300,
      "Ġdirection": 2301,
      "Ġpropert": 2302,
      "itt": 2303,
      "Ġmilit": 2304,
      "Ġmilitary": 2305,
      "ruit": 2306,
      "Ġdon": 2307,
      "ĠWill": 2308,
      "Ġshare": 2309,
      "nect": 2310,
      "Ġconnect": 2311,
      "Ġnorth": 2312,
      "arth": 2313,
      "ĠEarth": 2314,
      "Ġnorthern": 2315,
      "ĠRiver": 2316,
      "Ġaway": 2317,
      "ĠColleg": 2318,
      "Ġdrink": 2319,
      "Ġperformance": 2320,
      "Ġmuscl": 2321,
      "Ġremember": 2322,
      "Ġupon": 2323,
      "ton": 2324,
      "Ġdemon": 2325,
      "Ġdemonstr": 2326,
      "Ġoffer": 2327,
      "Ġbacter": 2328,
      "Ġseries": 2329,
      "Ġmag": 2330,
      "erman": 2331,
      "ĠGerman": 2332,
      "Ġcommonly": 2333,
      "Ġattention": 2334,
      "abe": 2335,
      "Ġdescribe": 2336,
      "Ġdescrib": 2337,
      "ĠGen": 2338,
      "attern": 2339,
      "Ġpattern": 2340,
      "Ġequip": 2341,
      "Ġextre": 2342,
      "Ġextrem": 2343,
      "Ġextend": 2344,
      "Ġagre": 2345,
      "ild": 2346,
      "ĠChild": 2347,
      "Ġpred": 2348,
      "ĠPres": 2349,
      "ĠPresident": 2350,
      "Ġold": 2351,
      "ĠUnion": 2352,
      "ments": 2353,
      "Ġpredict": 2354,
      "Ġ2013": 2355,
      "Ġ13": 2356,
      "Ġtaking": 2357,
      "ĠEuropean": 2358,
      "Ġwhe": 2359,
      "Ġwhether": 2360,
      "Ġwhy": 2361,
      "Ġtransport": 2362,
      "Ġ196": 2363,
      "Ġ194": 2364,
      "Ġposition": 2365,
      "ĠAustral": 2366,
      "Ġsite": 2367,
      "Ġquite": 2368,
      "Ġsw": 2369,
      "Ġskill": 2370,
      "Ġkill": 2371,
      "Ġscientific": 2372,
      "Ġcity": 2373,
      "Ġdone": 2374,
      "ummer": 2375,
      "Ġoffic": 2376,
      "Ġinterpre": 2377,
      "Ġuniqu": 2378,
      "Ġaltern": 2379,
      "Ġjournal": 2380,
      "ĠJournal": 2381,
      "Ġjo": 2382,
      "Ġjoin": 2383,
      "Ġjud": 2384,
      "oid": 2385,
      "void": 2386,
      "Ġpoll": 2387,
      "ĠPl": 2388,
      "ivit": 2389,
      "Ġstat": 2390,
      "Ġbillion": 2391,
      "IV": 2392,
      "Ġactually": 2393,
      "Ġ11": 2394,
      "Ġorganization": 2395,
      "Ġrefer": 2396,
      "ov": 2397,
      "Ġtax": 2398,
      "Ġmention": 2399,
      "Ġlay": 2400,
      "Ġcontroll": 2401,
      "Ġfin": 2402,
      "Ġfinanc": 2403,
      "Ġfe": 2404,
      "Ġfeature": 2405,
      "Ġfeel": 2406,
      "Ġfeet": 2407,
      ",\"": 2408,
      "Ġtoday": 2409,
      "Ġalternative": 2410,
      "Ġcompar": 2411,
      "Ġemission": 2412,
      "amil": 2413,
      "Ġfamil": 2414,
      "Ġfamilies": 2415,
      "Ġfil": 2416,
      "Ġnam": 2417,
      "Ġfigure": 2418,
      "Ġfar": 2419,
      "uclear": 2420,
      "Ġevolution": 2421,
      "educational": 2422,
      "Ġneigh": 2423,
      "Ġdecreas": 2424,
      "ner": 2425,
      "ning": 2426,
      "Ġbeginning": 2427,
      "An": 2428,
      "Ġhigher": 2429,
      "ired": 2430,
      "ĠJap": 2431,
      "ĠJapan": 2432,
      "ĠX": 2433,
      "Ġcharg": 2434,
      "argument": 2435,
      "Ġ2007": 2436,
      "Ġlargest": 2437,
      "rought": 2438,
      "Ġspe": 2439,
      "Ġspeak": 2440,
      "ise": 2441,
      "cise": 2442,
      "Ġte": 2443,
      "Ġtechniqu": 2444,
      "Ġteam": 2445,
      "Ġtown": 2446,
      "Ġimag": 2447,
      "arily": 2448,
      "arri": 2449,
      "Ġant": 2450,
      "etic": 2451,
      "Ġgenetic": 2452,
      "Ġexposure": 2453,
      "ellow": 2454,
      "Ġdiabe": 2455,
      "There": 2456,
      "Ġmusic": 2457,
      "Ġdecad": 2458,
      "Ġdiscussion": 2459,
      "Ġconcentr": 2460,
      "Ġcount": 2461,
      "Ġill": 2462,
      "Ġillustr": 2463,
      "Ġtell": 2464,
      "ring": 2465,
      "Ġbring": 2466,
      "Ġlearning": 2467,
      "Ġbrought": 2468,
      "itud": 2469,
      "hibit": 2470,
      "Ġrecover": 2471,
      "Ġ25": 2472,
      "Ġcomplete": 2473,
      "Ġmind": 2474,
      "pril": 2475,
      "ĠApril": 2476,
      "Ġsurpri": 2477,
      "Ġcontext": 2478,
      "Ġsoil": 2479,
      "alk": 2480,
      "Ġtalk": 2481,
      "Ġwalk": 2482,
      "ek": 2483,
      "Ġweek": 2484,
      "ĠGreek": 2485,
      "Ġweight": 2486,
      "Ġhere": 2487,
      "Ġele": 2488,
      "Ġelements": 2489,
      "Äģ": 2490,
      "Ġsays": 2491,
      "uel": 2492,
      "Ġfuel": 2493,
      "Ġfruit": 2494,
      "Ġstrate": 2495,
      "Ġstrateg": 2496,
      "Ġcritical": 2497,
      "Ġsk": 2498,
      "Ġskin": 2499,
      "Ġsize": 2500,
      "Ġtherefor": 2501,
      "ford": 2502,
      "Ġacid": 2503,
      "Ġsuccess": 2504,
      "Ġ100": 2505,
      "Ġ0": 2506,
      "Ġbuilt": 2507,
      "Ġmother": 2508,
      "Ġsix": 2509,
      "ĠRepublic": 2510,
      "ask": 2511,
      "ass": 2512,
      "Ġmass": 2513,
      "rank": 2514,
      "pleas": 2515,
      "Â·": 2516,
      "cription": 2517,
      "Ġfall": 2518,
      "Ġwood": 2519,
      "hood": 2520,
      "Ġthus": 2521,
      "Ġonline": 2522,
      "ital": 2523,
      "Ġcapital": 2524,
      "Ġbig": 2525,
      "ĠIndi": 2526,
      "Ġagric": 2527,
      "Ġage": 2528,
      "Ġar": 2529,
      "epar": 2530,
      "Ġsepar": 2531,
      "Ġdeep": 2532,
      "Ġself": 2533,
      "arget": 2534,
      "Ġtarget": 2535,
      "Ġindustry": 2536,
      "Ġam": 2537,
      "Ġ|": 2538,
      "Ġgreater": 2539,
      "Ġcolleg": 2540,
      "Ġcoll": 2541,
      "press": 2542,
      "rim": 2543,
      "Ġimmun": 2544,
      "nother": 2545,
      "ĠOther": 2546,
      "Ġexam": 2547,
      "Ġextra": 2548,
      "Ġexpress": 2549,
      "Ġair": 2550,
      "Ġwhole": 2551,
      "Ġarm": 2552,
      "ration": 2553,
      "istration": 2554,
      "Ġcop": 2555,
      "idd": 2556,
      "iddle": 2557,
      "leep": 2558,
      "Ġprep": 2559,
      "Ġprepar": 2560,
      "ĠPhil": 2561,
      "Ġside": 2562,
      "rive": 2563,
      "Ġnegative": 2564,
      "Ġteachers": 2565,
      "Ġfive": 2566,
      "ensive": 2567,
      "Ġaverage": 2568,
      "importance": 2569,
      "Ġsources": 2570,
      "Ġspread": 2571,
      "Ġsimply": 2572,
      "Ġsuff": 2573,
      "ĠDecember": 2574,
      "Ġcollabor": 2575,
      "Ġarch": 2576,
      "ĠMarch": 2577,
      "Ġstop": 2578,
      "Ġminut": 2579,
      "Ġcome": 2580,
      "ecur": 2581,
      "ecurity": 2582,
      "encies": 2583,
      "Ġexperienc": 2584,
      "Ġadmin": 2585,
      "Ġdam": 2586,
      "Ġdamage": 2587,
      "Ġparticularly": 2588,
      "exual": 2589,
      "Ġonce": 2590,
      "central": 2591,
      "Ġobs": 2592,
      "Ġobser": 2593,
      "Ġobserv": 2594,
      "Ġnight": 2595,
      "ĠChildren": 2596,
      "Ġlarger": 2597,
      "Ġdri": 2598,
      "Ġdiver": 2599,
      "Ġdeliver": 2600,
      "Ġcarri": 2601,
      "Ġcarb": 2602,
      "Ġcarbon": 2603,
      "Ġcarry": 2604,
      "Ġweb": 2605,
      "Ġlength": 2606,
      "Ġstrength": 2607,
      "ĠAfrican": 2608,
      ",âĢĿ": 2609,
      "ĠSeptember": 2610,
      "Ġnuclear": 2611,
      "Ġdistribution": 2612,
      "tock": 2613,
      "Ġpresident": 2614,
      "put": 2615,
      "articles": 2616,
      "ift": 2617,
      "ruary": 2618,
      "bruary": 2619,
      "eason": 2620,
      "ront": 2621,
      "Ġfront": 2622,
      "Ġcommitt": 2623,
      "ĠEnergy": 2624,
      "Ġlocated": 2625,
      "Ġprovides": 2626,
      "Ġidea": 2627,
      "Ġideas": 2628,
      "Ġtype": 2629,
      "Ġtypes": 2630,
      "Ġtypically": 2631,
      "Ġmedia": 2632,
      "ivity": 2633,
      "Ġnothing": 2634,
      "Ġphysic": 2635,
      "Ġmech": 2636,
      "Ġmechan": 2637,
      "ĠJun": 2638,
      "Ġlove": 2639,
      "Ġcoast": 2640,
      "off": 2641,
      "cret": 2642,
      "troduc": 2643,
      "bert": 2644,
      "tober": 2645,
      "ctober": 2646,
      "ĠOctober": 2647,
      "Ġfinancial": 2648,
      "Ġexplor": 2649,
      "forn": 2650,
      "fornia": 2651,
      "ifornia": 2652,
      "alifornia": 2653,
      "ĠCalifornia": 2654,
      "Ġenvironmental": 2655,
      "Ġanti": 2656,
      "Ġdescription": 2657,
      "Ġnut": 2658,
      "Ġnutri": 2659,
      "Ġserve": 2660,
      "Ġhop": 2661,
      "Ġhy": 2662,
      "ney": 2663,
      "yn": 2664,
      "Ġsyn": 2665,
      "orn": 2666,
      "itor": 2667,
      "Ġmonitor": 2668,
      "Ġsociety": 2669,
      "ĠFirst": 2670,
      "Ġconsumption": 2671,
      "mospher": 2672,
      "Ġatmospher": 2673,
      "Ġpric": 2674,
      "Ġpay": 2675,
      "Ġpath": 2676,
      "Ġmagn": 2677,
      "Ġhouse": 2678,
      "Ġsuccessful": 2679,
      "Ġconver": 2680,
      "ĠEducation": 2681,
      "Ġtask": 2682,
      "Ġreceived": 2683,
      "ĠTo": 2684,
      "Ġlo": 2685,
      "Ġlate": 2686,
      "Ġlot": 2687,
      "Ġlack": 2688,
      "Ġpromot": 2689,
      "urchas": 2690,
      "Ġpoor": 2691,
      "Ġobvious": 2692,
      "Ġconstruction": 2693,
      "Ġuseful": 2694,
      "avi": 2695,
      "Ġarea": 2696,
      "Ġdiet": 2697,
      "Ġguid": 2698,
      "bodies": 2699,
      "ĠRo": 2700,
      "ĠRobert": 2701,
      "Ġsafet": 2702,
      "ccording": 2703,
      "aff": 2704,
      "ĠAfrica": 2705,
      "Â©": 2706,
      "ĠSociety": 2707,
      "Ġsearch": 2708,
      "Ġspec": 2709,
      "ĠCan": 2710,
      "ĠCanad": 2711,
      "ify": 2712,
      "ĠWilli": 2713,
      "ĠWilliam": 2714,
      "Ġhabit": 2715,
      "Ġconsequence": 2716,
      "Ġconservation": 2717,
      "pital": 2718,
      "ospital": 2719,
      "igital": 2720,
      "ĠOrgan": 2721,
      "Ġanything": 2722,
      "Ġeverything": 2723,
      "Ġnormal": 2724,
      "Ġsolution": 2725,
      "Ġsample": 2726,
      "Ġsit": 2727,
      "Ġsitu": 2728,
      "Ġmechanism": 2729,
      "Ġver": 2730,
      "Ġreal": 2731,
      "Ġoriginal": 2732,
      "ĠGreat": 2733,
      "ĠGovernment": 2734,
      "But": 2735,
      "Ġnecess": 2736,
      "Ġnecessary": 2737,
      "rary": 2738,
      "Ġrare": 2739,
      "older": 2740,
      "Ġtr": 2741,
      "Ġstand": 2742,
      "Ġenter": 2743,
      "Ġsuffer": 2744,
      "ose": 2745,
      "ice": 2746,
      "Ġclose": 2747,
      "Ġ=": 2748,
      "Ġimplement": 2749,
      "Ġeventually": 2750,
      "Ġperhap": 2751,
      "epend": 2752,
      "Ġindepend": 2753,
      "Ġdeveloped": 2754,
      "Ġstory": 2755,
      "Ġvariety": 2756,
      "Ġresist": 2757,
      "Ġprovided": 2758,
      "Ġshap": 2759,
      "cript": 2760,
      "Ġequipment": 2761,
      "Ġviol": 2762,
      "Ġgain": 2763,
      "empor": 2764,
      "ĠII": 2765,
      "Ġtend": 2766,
      "Ġseason": 2767,
      "Ġselect": 2768,
      "achi": 2769,
      "Ġachi": 2770,
      "Ġachie": 2771,
      "Ġachieve": 2772,
      "irth": 2773,
      "Ġbirth": 2774,
      "Ġfrequently": 2775,
      "ĠMany": 2776,
      "Ġreli": 2777,
      "Ġstrugg": 2778,
      "Ġshall": 2779,
      "Ġillness": 2780,
      "Ġbuild": 2781,
      "ĠProject": 2782,
      "Ġcontra": 2783,
      "ĠIndia": 2784,
      "Ġtrack": 2785,
      "Ġtrad": 2786,
      "Ġslow": 2787,
      "Ġwave": 2788,
      "Ġresident": 2789,
      "Ġresource": 2790,
      "ington": 2791,
      "ĠWashington": 2792,
      "Ġseparate": 2793,
      "Ġbasic": 2794,
      "Ġask": 2795,
      "rogen": 2796,
      "Ġdefinition": 2797,
      "Ġprimarily": 2798,
      "Ġliterature": 2799,
      "Ġhistorical": 2800,
      "Ġspring": 2801,
      "oil": 2802,
      "Ġoil": 2803,
      "Ġplanet": 2804,
      "anger": 2805,
      "Ġavoid": 2806,
      "ibrary": 2807,
      "self": 2808,
      "Ġhimself": 2809,
      "plic": 2810,
      "Ġability": 2811,
      "Ġfra": 2812,
      "rap": 2813,
      "ĠHigh": 2814,
      "ĠHIV": 2815,
      "ĠGener": 2816,
      "Ġobserved": 2817,
      "Ġcours": 2818,
      "Ġcourse": 2819,
      "Ġcourt": 2820,
      "eck": 2821,
      "Ġcheck": 2822,
      "Ġwide": 2823,
      "Ġfarm": 2824,
      "Ġharm": 2825,
      "Ġkept": 2826,
      "Ġincludes": 2827,
      "Ġencour": 2828,
      "Ġpolicy": 2829,
      "Ġunit": 2830,
      "Ġ50": 2831,
      "Ġcapac": 2832,
      "ON": 2833,
      "Ġalways": 2834,
      "elves": 2835,
      "selves": 2836,
      "Ġthemselves": 2837,
      "Ġconstant": 2838,
      "creen": 2839,
      "Ġten": 2840,
      "ĠNove": 2841,
      "Ġmanag": 2842,
      "Ġsubstance": 2843,
      "Ġanal": 2844,
      "Ġanaly": 2845,
      "ĠAustralia": 2846,
      "Ġbacteria": 2847,
      "Ġappl": 2848,
      "Ġrespons": 2849,
      "Ġspo": 2850,
      "Ġsustain": 2851,
      "Ġdatab": 2852,
      "Ġhyd": 2853,
      "Ġfarmer": 2854,
      "Ġminim": 2855,
      "Ġ2006": 2856,
      "Ġ2000": 2857,
      "Ġcycl": 2858,
      "Ġago": 2859,
      "Ġexten": 2860,
      "Ġvir": 2861,
      "Ġable": 2862,
      "ĠMar": 2863,
      "ecut": 2864,
      "Ġcut": 2865,
      "Ġbelieved": 2866,
      "icro": 2867,
      "Ġmicro": 2868,
      "tter": 2869,
      "Ġbetter": 2870,
      "ĠOffic": 2871,
      "ĠNovem": 2872,
      "ĠNovember": 2873,
      "Ġsouth": 2874,
      "Ġsound": 2875,
      "aim": 2876,
      "Ġclaim": 2877,
      "Ġbroad": 2878,
      "ead": 2879,
      "stead": 2880,
      "head": 2881,
      "Ch": 2882,
      "Ġvalue": 2883,
      "Ġincrease": 2884,
      "Ġmix": 2885,
      "Ġmission": 2886,
      "Ġsummer": 2887,
      "Ġsl": 2888,
      "Ġsection": 2889,
      "Ġ24": 2890,
      "particles": 2891,
      "Ġreference": 2892,
      "Ġdetermin": 2893,
      "ĠSystem": 2894,
      "io": 2895,
      "oth": 2896,
      "iving": 2897,
      "irit": 2898,
      "Ġspirit": 2899,
      "aily": 2900,
      "Ġdaily": 2901,
      "Ġcolon": 2902,
      "Ġindicate": 2903,
      "Ġsafety": 2904,
      "Ġadop": 2905,
      "Ġburn": 2906,
      "Ġphil": 2907,
      "Ġphilos": 2908,
      "epartment": 2909,
      "ĠDepartment": 2910,
      "ĠDevelop": 2911,
      "Ġhospital": 2912,
      "Ġincluded": 2913,
      "Ġthings": 2914,
      "rup": 2915,
      "Ġexpert": 2916,
      "Ġagricultural": 2917,
      "erve": 2918,
      "Ġexact": 2919,
      "Ġarrive": 2920,
      "Ġapplications": 2921,
      "Ġapplication": 2922,
      "Ġcapacity": 2923,
      "Ġcompos": 2924,
      "IN": 2925,
      "Ġprofessional": 2926,
      "Ġwall": 2927,
      "ĠCong": 2928,
      "ĠCongre": 2929,
      "Ġquickly": 2930,
      "ately": 2931,
      "uk": 2932,
      "ework": 2933,
      "ĠWork": 2934,
      "While": 2935,
      "unch": 2936,
      "ĠCommun": 2937,
      "ĠCommission": 2938,
      "mission": 2939,
      "ranch": 2940,
      "Ġacros": 2941,
      "Ġacross": 2942,
      "Ġhypo": 2943,
      "poin": 2944,
      "point": 2945,
      "appoint": 2946,
      "Ġquant": 2947,
      "ĠGu": 2948,
      "acy": 2949,
      "Ġclearly": 2950,
      "Ġcentral": 2951,
      "Ġren": 2952,
      "Ġpleas": 2953,
      "Ġaccur": 2954,
      "ĠInternet": 2955,
      "ĠCouncil": 2956,
      "Ġsleep": 2957,
      "Ġprint": 2958,
      "Ġ2005": 2959,
      "Ġsites": 2960,
      "Ġborn": 2961,
      "Ġvirus": 2962,
      "Ġversion": 2963,
      "Ġaccess": 2964,
      "ulate": 2965,
      "Ġpollution": 2966,
      "Ġrunning": 2967,
      "'re": 2968,
      "irm": 2969,
      "Ġconfirm": 2970,
      "Ġactive": 2971,
      "Ġever": 2972,
      "urb": 2973,
      "Ġneighb": 2974,
      "We": 2975,
      "Ġincreased": 2976,
      "Ġincreasing": 2977,
      "Ġrep": 2978,
      "Ġrespond": 2979,
      "ID": 2980,
      "ordin": 2981,
      "Ġmone": 2982,
      "Ġmoney": 2983,
      "Ġdevices": 2984,
      "hind": 2985,
      "Ġbehind": 2986,
      "Ġwon": 2987,
      "Ġwatch": 2988,
      "Ġwin": 2989,
      "Ġwinter": 2990,
      "Ġfeed": 2991,
      "ĠPublic": 2992,
      "Ġlost": 2993,
      "Ġhost": 2994,
      "raf": 2995,
      "raft": 2996,
      "ircraft": 2997,
      "ray": 2998,
      "Ġsituation": 2999,
      "uary": 3000,
      "anuary": 3001,
      "ĠJanuary": 3002,
      "uit": 3003,
      "Ġhor": 3004,
      "ĠYour": 3005,
      "Ġbreast": 3006,
      "ĠDis": 3007,
      "Ġinvolved": 3008,
      "unt": 3009,
      "Ġvolunt": 3010,
      "tt": 3011,
      "ttp": 3012,
      "Ġhttp": 3013,
      "Ġbott": 3014,
      "Ġimpro": 3015,
      "Ġopportunity": 3016,
      "Ġopportunities": 3017,
      "enn": 3018,
      "ustom": 3019,
      "Ġcustom": 3020,
      "ĠInstitute": 3021,
      "irgin": 3022,
      "ĠVirgin": 3023,
      "Ġbrother": 3024,
      "Ġcontract": 3025,
      "Ġconsidered": 3026,
      "ĠCounty": 3027,
      "Ġfresh": 3028,
      "Ġmeans": 3029,
      "Ġwent": 3030,
      "Ġeng": 3031,
      "Ġmiddle": 3032,
      "avor": 3033,
      "Ġcells": 3034,
      "Ġhal": 3035,
      "Ġhalf": 3036,
      "Ġbelief": 3037,
      "OR": 3038,
      "Ġdanger": 3039,
      "Ġsoldi": 3040,
      "Ġwoman": 3041,
      "Ġemp": 3042,
      "Ġemphas": 3043,
      "Ġgrant": 3044,
      "Ġsurround": 3045,
      "Ġdistance": 3046,
      "Ġdistric": 3047,
      "SA": 3048,
      "Ġconstruct": 3049,
      "Ġremove": 3050,
      "athe": 3051,
      "athem": 3052,
      "athematic": 3053,
      "Ġroad": 3054,
      "Ġpositive": 3055,
      "Ġlog": 3056,
      "adem": 3057,
      "Ġacadem": 3058,
      "Ġunderstanding": 3059,
      "estimate": 3060,
      "Ġchoose": 3061,
      "ĠHis": 3062,
      "Ġstaff": 3063,
      "Ġann": 3064,
      "Ġannual": 3065,
      "Ġinvestig": 3066,
      "Ġmeaning": 3067,
      "Ġancient": 3068,
      "Ã¡": 3069,
      "ÃŃ": 3070,
      "Ġphiloso": 3071,
      "olec": 3072,
      "Ġmolec": 3073,
      "Ġmarri": 3074,
      "Ġcombination": 3075,
      "Ġexc": 3076,
      "Ġsun": 3077,
      "Ġsecret": 3078,
      "entially": 3079,
      "cap": 3080,
      "cop": 3081,
      "cial": 3082,
      "Ġey": 3083,
      "Ġregulation": 3084,
      "Ġface": 3085,
      "wher": 3086,
      "Ġfavor": 3087,
      "Ġsoftware": 3088,
      "Ġagriculture": 3089,
      "abilities": 3090,
      "Ġappropriate": 3091,
      "Ġreaction": 3092,
      "where": 3093,
      "Ġimp": 3094,
      "Ġet": 3095,
      "Ġetc": 3096,
      "Ġcultural": 3097,
      "Ġenj": 3098,
      "otion": 3099,
      "Ġemotion": 3100,
      "Ġemb": 3101,
      "water": 3102,
      "ĠGeneral": 3103,
      "aving": 3104,
      "Ġmoving": 3105,
      "Ġmoved": 3106,
      "which": 3107,
      "ĠWater": 3108,
      "ĠWest": 3109,
      "Ġstatus": 3110,
      "Ġsurvey": 3111,
      "Ġexpression": 3112,
      "Ġexecut": 3113,
      "Ġremo": 3114,
      "Ġremoved": 3115,
      "ĠJu": 3116,
      "ĠJuly": 3117,
      "quare": 3118,
      "Ġroot": 3119,
      "Ġroom": 3120,
      "Ġpurchas": 3121,
      "ĠCar": 3122,
      "Ġsolar": 3123,
      "oud": 3124,
      "Ġpowerful": 3125,
      "Ġcontribution": 3126,
      "Ġwww": 3127,
      "Ġdevice": 3128,
      "Ġperfect": 3129,
      "Ġwarm": 3130,
      "Ġgoing": 3131,
      "Ġgoal": 3132,
      "Ġexpand": 3133,
      "emporary": 3134,
      "Ġred": 3135,
      "udd": 3136,
      "Ġmach": 3137,
      "Ġplanning": 3138,
      "Ġstage": 3139,
      "ĠCompany": 3140,
      "Ġwriting": 3141,
      "ĠBritain": 3142,
      "AR": 3143,
      "Ġwonder": 3144,
      "With": 3145,
      "Ġadvanc": 3146,
      "Ġadvant": 3147,
      "Ġadvantage": 3148,
      "Ġadvance": 3149,
      "And": 3150,
      "grad": 3151,
      "clud": 3152,
      "ured": 3153,
      "ĠOne": 3154,
      "Ġvolum": 3155,
      "Ġdirectly": 3156,
      "Ġ40": 3157,
      "Ġfacilities": 3158,
      "Ġadap": 3159,
      "Ġinteraction": 3160,
      "Ġveh": 3161,
      "Ġvehic": 3162,
      "ĠCont": 3163,
      "ĠFr": 3164,
      "ĠFrance": 3165,
      "ĠFranc": 3166,
      "Ġ2004": 3167,
      "ĠNo": 3168,
      "Ġchoice": 3169,
      "Ġserved": 3170,
      "Ġtech": 3171,
      "Ġrich": 3172,
      "Ġappli": 3173,
      "ĠDevelopment": 3174,
      "Ġbackground": 3175,
      "Ġenjo": 3176,
      "itiz": 3177,
      "Ġcitiz": 3178,
      "Ġbank": 3179,
      "Ġcod": 3180,
      "Ġsurg": 3181,
      "gg": 3182,
      "Ġegg": 3183,
      "urg": 3184,
      "Ġeight": 3185,
      "Ġeffic": 3186,
      "Ġcur": 3187,
      "Ġcal": 3188,
      "Ġcalc": 3189,
      "Ġcrim": 3190,
      "Ġscreen": 3191,
      "Ġsecurity": 3192,
      "Ġcompet": 3193,
      "Ġsupp": 3194,
      "Ġsupply": 3195,
      "Ġsuppl": 3196,
      "Ġsupple": 3197,
      "ĠArch": 3198,
      "Ġhabitat": 3199,
      "Ġattribut": 3200,
      "Ġattend": 3201,
      "Ġattract": 3202,
      "Ġattach": 3203,
      "Ġtraining": 3204,
      "acific": 3205,
      "Ġdiseases": 3206,
      "nov": 3207,
      "ES": 3208,
      "Ġrap": 3209,
      "Ġrapid": 3210,
      "Ġtraditional": 3211,
      "ercise": 3212,
      "Ġexercise": 3213,
      "stall": 3214,
      "Ġoccurred": 3215,
      "Ġencourage": 3216,
      "Ġelement": 3217,
      "oot": 3218,
      "Ġfoot": 3219,
      "Ġbasis": 3220,
      "Ġfight": 3221,
      "Ġfather": 3222,
      "Ġweather": 3223,
      "Ġwindow": 3224,
      "Ġtook": 3225,
      "mok": 3226,
      "Ġsmok": 3227,
      "ĠSpace": 3228,
      "ĠCanada": 3229,
      "Ġmountain": 3230,
      "Ġslave": 3231,
      "Ġgave": 3232,
      "Ġfailure": 3233,
      "Ġdatabas": 3234,
      "ĠDiseas": 3235,
      "Ġwro": 3236,
      "Ġwrot": 3237,
      "ultimate": 3238,
      "Ġdrive": 3239,
      "Ġdrop": 3240,
      "Ġcrop": 3241,
      "Ġdog": 3242,
      "approximately": 3243,
      "Ġsea": 3244,
      "Ġintroduc": 3245,
      "ohol": 3246,
      "cohol": 3247,
      "Ġalcohol": 3248,
      "Ġshar": 3249,
      "Ġshift": 3250,
      "Ġcenter": 3251,
      "Ġmiles": 3252,
      "cause": 3253,
      "bas": 3254,
      "based": 3255,
      "ĠWeb": 3256,
      "ĠMost": 3257,
      "Ġlonger": 3258,
      "Ġaddres": 3259,
      "Ġaddress": 3260,
      "Ġactual": 3261,
      "25": 3262,
      "ĠPark": 3263,
      "ĠPol": 3264,
      "Ġcitizens": 3265,
      "pective": 3266,
      "Ġperspective": 3267,
      "ĠFrom": 3268,
      "Ġgame": 3269,
      "Ġgovern": 3270,
      "Ġ193": 3271,
      "Ġ195": 3272,
      "Ġagencies": 3273,
      "ĠJune": 3274,
      "Ġprote": 3275,
      "Ġprotein": 3276,
      "Ġtechn": 3277,
      "Ġmajority": 3278,
      "sociated": 3279,
      "Ġassociated": 3280,
      "Ġproblems": 3281,
      "itch": 3282,
      "Ġsch": 3283,
      "aunch": 3284,
      "Ġlaunch": 3285,
      "ensure": 3286,
      "Ġensure": 3287,
      "Ġprior": 3288,
      "ronic": 3289,
      "Ġrecently": 3290,
      "Ġcauses": 3291,
      "Ġcaused": 3292,
      "ĠPeople": 3293,
      "ulated": 3294,
      "Ġearlier": 3295,
      "Ġadditional": 3296,
      "Ġoff": 3297,
      "ĠDNA": 3298,
      "Ġsubstant": 3299,
      "Ġresistance": 3300,
      "Ġdecid": 3301,
      "Ġdiabet": 3302,
      "ought": 3303,
      "aughter": 3304,
      "Ġcloud": 3305,
      "Ġidentify": 3306,
      "Ġidentifi": 3307,
      "Ġseek": 3308,
      "istry": 3309,
      "Ġthen": 3310,
      "ann": 3311,
      "Ġintern": 3312,
      "Ġdoesn": 3313,
      "Ġdistribut": 3314,
      "Ġenc": 3315,
      "Ġsafe": 3316,
      "ermany": 3317,
      "ĠGermany": 3318,
      "Ġalone": 3319,
      "Ġadministration": 3320,
      "Ġefficient": 3321,
      "ufficient": 3322,
      "Ġeat": 3323,
      "Ġcorre": 3324,
      "Ġ2003": 3325,
      "Ġ2001": 3326,
      "Ġ2002": 3327,
      "wise": 3328,
      "Ġoccup": 3329,
      "ĠHer": 3330,
      "nection": 3331,
      "Ġconnection": 3332,
      "jection": 3333,
      "jur": 3334,
      "Ġelection": 3335,
      "ĠArm": 3336,
      "ĠArt": 3337,
      "Ġnutrition": 3338,
      "Ġmotion": 3339,
      "Ġsuppos": 3340,
      "Ġmis": 3341,
      "ĠPart": 3342,
      "ĠProf": 3343,
      "ump": 3344,
      "ĠChines": 3345,
      "ware": 3346,
      "Ġdeb": 3347,
      "Ġlines": 3348,
      "Ġexchang": 3349,
      "Ġpersonal": 3350,
      "Americ": 3351,
      "amin": 3352,
      "Ġacquire": 3353,
      "Ġ21": 3354,
      "Ġsure": 3355,
      "Ġ190": 3356,
      "ief": 3357,
      "Ġchief": 3358,
      "iber": 3359,
      "axim": 3360,
      "Ġreading": 3361,
      "Ġofficial": 3362,
      "Ġlocation": 3363,
      "Ġaggre": 3364,
      "ym": 3365,
      "Ġsym": 3366,
      "Ġsymb": 3367,
      "Ġsymbol": 3368,
      "Ġfram": 3369,
      "ĠGr": 3370,
      "ĠDr": 3371,
      "ASA": 3372,
      "ĠNASA": 3373,
      "ĠNot": 3374,
      "rick": 3375,
      "Ġnation": 3376,
      "Ġy": 3377,
      "Ġyet": 3378,
      "Ġyield": 3379,
      "Ġyellow": 3380,
      "Ġz": 3381,
      "Ġvid": 3382,
      "Ġship": 3383,
      "Ġir": 3384,
      "Ġec": 3385,
      "Ġvide": 3386,
      "Ġvideo": 3387,
      "avy": 3388,
      "Ġheavy": 3389,
      "avid": 3390,
      "ĠDavid": 3391,
      "Ġimportance": 3392,
      "ett": 3393,
      "Ġinterpret": 3394,
      "ĠAt": 3395,
      "ort": 3396,
      "ert": 3397,
      "Ġadapt": 3398,
      "aught": 3399,
      "Ġboard": 3400,
      "Ġeasy": 3401,
      "Ġproperty": 3402,
      "Ġproperties": 3403,
      "Ġflood": 3404,
      "AT": 3405,
      "Ġtherefore": 3406,
      "Ġreduce": 3407,
      "Ġpractice": 3408,
      "come": 3409,
      "Ġseven": 3410,
      "ĠNorthern": 3411,
      "After": 3412,
      "Ġfrequency": 3413,
      "Ġprec": 3414,
      "Ġinvolve": 3415,
      "ĠCommitt": 3416,
      "mitt": 3417,
      "ĠQ": 3418,
      "Ġadjust": 3419,
      "Ġcommer": 3420,
      "Ġcommercial": 3421,
      "room": 3422,
      "Ġclassroom": 3423,
      "roduction": 3424,
      "vant": 3425,
      "Ġelectricity": 3426,
      "Ġvegetable": 3427,
      "ĠSpec": 3428,
      "Ġreader": 3429,
      "Ġcomes": 3430,
      "ĠVirginia": 3431,
      "ouch": 3432,
      "ĠGreen": 3433,
      "vit": 3434,
      "vil": 3435,
      "ĠFl": 3436,
      "ĠBl": 3437,
      "ĠBlack": 3438,
      "Ġpack": 3439,
      "Ġmaxim": 3440,
      "dom": 3441,
      "Ġconvention": 3442,
      "ier": 3443,
      "Ġeasier": 3444,
      "Ġimproved": 3445,
      "Ġglass": 3446,
      "Ġdark": 3447,
      "Ġpress": 3448,
      "Ġpressure": 3449,
      "Ġpresence": 3450,
      "Ġviolence": 3451,
      "Ġestablished": 3452,
      "Ġvis": 3453,
      "Ġvisit": 3454,
      "Ġvisual": 3455,
      "Ġvill": 3456,
      "Ġvillage": 3457,
      "Ġvit": 3458,
      "Ġvitamin": 3459,
      "Ġconditions": 3460,
      "side": 3461,
      "Ġoutside": 3462,
      "oxide": 3463,
      "Ġguide": 3464,
      "Ġunivers": 3465,
      "Ġtechnologies": 3466,
      "âĨ": 3467,
      "Ġstar": 3468,
      "board": 3469,
      "Ġcard": 3470,
      "Ġdest": 3471,
      "Ġdestro": 3472,
      "Ġdestroy": 3473,
      "Ġwildlife": 3474,
      "Ġfilm": 3475,
      "Ġrequirements": 3476,
      "Ġspend": 3477,
      "Ġeth": 3478,
      "Ġcontrast": 3479,
      "Ġblue": 3480,
      "ides": 3481,
      "Ġdivid": 3482,
      "Ġcapt": 3483,
      "Ġvirt": 3484,
      "Ġcreating": 3485,
      "Ġattitud": 3486,
      "ynam": 3487,
      "Ġpaint": 3488,
      "Ġdistrict": 3489,
      "ĠRom": 3490,
      "ĠRoman": 3491,
      "Ġbottom": 3492,
      "lict": 3493,
      "Ġconflict": 3494,
      "Ġreve": 3495,
      "Ġreveal": 3496,
      "Ġstri": 3497,
      "Ġrelatively": 3498,
      "Ġcro": 3499,
      "Ġdepartment": 3500,
      "Ġliqu": 3501,
      "Ġlib": 3502,
      "Ġlibrary": 3503,
      "mental": 3504,
      "Ġsignal": 3505,
      "ville": 3506,
      "Ġmachine": 3507,
      "Ġmedicine": 3508,
      "ĠAccording": 3509,
      "Ġep": 3510,
      "Ġvalues": 3511,
      "Ġgiving": 3512,
      "Ġpotentially": 3513,
      "Ġwhom": 3514,
      "Ġenjoy": 3515,
      "Ġextreme": 3516,
      "Ġscal": 3517,
      "Ġemail": 3518,
      "ĠBook": 3519,
      "Ġident": 3520,
      "Ġaccident": 3521,
      "Ġpatients": 3522,
      "Ġoptim": 3523,
      "Ġswitch": 3524,
      "Ġstay": 3525,
      "Ġlevels": 3526,
      "Ġbrok": 3527,
      "ĠTran": 3528,
      "wide": 3529,
      "Ġrequ": 3530,
      "Ġrequest": 3531,
      "Ġsymptoms": 3532,
      "Ġtrue": 3533,
      "Ġtruth": 3534,
      "ouse": 3535,
      "ĠHouse": 3536,
      "house": 3537,
      "Ġlabe": 3538,
      "Ġsomeone": 3539,
      "aby": 3540,
      "Ġbaby": 3541,
      "ina": 3542,
      "ĠChina": 3543,
      "Ġimpossible": 3544,
      "Ġcold": 3545,
      "Ġmemory": 3546,
      "Ġmolecul": 3547,
      "ĠUnder": 3548,
      "Ġnecessarily": 3549,
      "Ġinstead": 3550,
      "ĠLibrary": 3551,
      "ĠLond": 3552,
      "ĠLondon": 3553,
      "Ġlif": 3554,
      "Ġindependent": 3555,
      "Ġsent": 3556,
      "ĠRus": 3557,
      "Ġfile": 3558,
      "Ġmorning": 3559,
      "ych": 3560,
      "sych": 3561,
      "Ġpsych": 3562,
      "Ġchronic": 3563,
      "ĠGrou": 3564,
      "Ġliquid": 3565,
      "force": 3566,
      "Ġchance": 3567,
      "ĠMich": 3568,
      "ĠMuseum": 3569,
      "Ġdescribed": 3570,
      "urban": 3571,
      "ĠTechnolog": 3572,
      "ĠLaw": 3573,
      "Ġresponsibility": 3574,
      "Ġresponse": 3575,
      "Ġhar": 3576,
      "Ġannounc": 3577,
      "ĠSo": 3578,
      "Ġgold": 3579,
      "hold": 3580,
      "Ġhousehold": 3581,
      "Ġmap": 3582,
      "hibition": 3583,
      "igration": 3584,
      "Ġemergency": 3585,
      "Ġdistin": 3586,
      "Ġdistinct": 3587,
      "Ġcombin": 3588,
      "Ġvict": 3589,
      "Ġvictim": 3590,
      "ecause": 3591,
      "ĠBecause": 3592,
      "Ġmot": 3593,
      "Ġhot": 3594,
      "Ġhol": 3595,
      "oll": 3596,
      "Ġphilosophy": 3597,
      "Ġmilk": 3598,
      "Ġnative": 3599,
      "iency": 3600,
      "Ġefficiency": 3601,
      "ie": 3602,
      "Ġpie": 3603,
      "Ġpiece": 3604,
      "Ġpieces": 3605,
      "Ġrenew": 3606,
      "Ġcool": 3607,
      "Ġdeveloping": 3608,
      "Ġfinding": 3609,
      "Ġestimate": 3610,
      "ervice": 3611,
      "ĠService": 3612,
      "Ġimplic": 3613,
      "field": 3614,
      "Ġsense": 3615,
      "Ġharvest": 3616,
      "ĠCivil": 3617,
      "ore": 3618,
      "ĠMore": 3619,
      "org": 3620,
      "Ġproduce": 3621,
      "Ġproduced": 3622,
      "ories": 3623,
      "orpor": 3624,
      "ĠPacific": 3625,
      "Ġminutes": 3626,
      "ĠCanadian": 3627,
      "rief": 3628,
      "Ġbranch": 3629,
      "Ġbox": 3630,
      "Ġreduction": 3631,
      "Ġbattle": 3632,
      "ĠDuring": 3633,
      "Ġtable": 3634,
      "Ġvariable": 3635,
      "amm": 3636,
      "ames": 3637,
      "ĠJames": 3638,
      "Ġstream": 3639,
      "ĠJust": 3640,
      "Ġencounter": 3641,
      "Ġcounter": 3642,
      "Ġtechnical": 3643,
      "ĠInformation": 3644,
      "ancy": 3645,
      "Ġscientists": 3646,
      "corpor": 3647,
      "athol": 3648,
      "atholic": 3649,
      "ĠCatholic": 3650,
      "Ġbreath": 3651,
      "Ġ23": 3652,
      "Ġ22": 3653,
      "riter": 3654,
      "Ġwriter": 3655,
      "ĠReg": 3656,
      "ipp": 3657,
      "Ġvot": 3658,
      "Ġforce": 3659,
      "volving": 3660,
      "Ġeconomy": 3661,
      "Ġadopt": 3662,
      "Ġintervention": 3663,
      "Ġphas": 3664,
      "Ġdigital": 3665,
      "Ġrais": 3666,
      "idence": 3667,
      "Ġolder": 3668,
      "Ġprincip": 3669,
      "aries": 3670,
      "ebruary": 3671,
      "ĠFebruary": 3672,
      "egr": 3673,
      "tegr": 3674,
      "Ġorganism": 3675,
      "Ġsquare": 3676,
      "Ġlegis": 3677,
      "Ġlegisl": 3678,
      "Ġcooper": 3679,
      "Ġexcept": 3680,
      "Ġworking": 3681,
      "Ġradiation": 3682,
      "Ġargument": 3683,
      "Ġadvoc": 3684,
      "Ġfear": 3685,
      "Ġbiological": 3686,
      "Ġengineer": 3687,
      "Ġcircuit": 3688,
      "Ġframework": 3689,
      "Ġcircum": 3690,
      "Ġcircumstance": 3691,
      "Ġdemoc": 3692,
      "centuries": 3693,
      "Ġpolicies": 3694,
      "Ġwords": 3695,
      "Ġposs": 3696,
      "Ġpossib": 3697,
      "Ġpossibility": 3698,
      "Ġtrend": 3699,
      "Ġtrust": 3700,
      "Ġtrouble": 3701,
      "Ġlaboratory": 3702,
      "Ġgrowing": 3703,
      "Ġcompre": 3704,
      "Ġcompreh": 3705,
      "Ġcomprehensive": 3706,
      "Ġcompan": 3707,
      "Ġcompanies": 3708,
      "Ġcompon": 3709,
      "Ġcomponent": 3710,
      "Ġknew": 3711,
      "ĠWhite": 3712,
      "Ġdangerous": 3713,
      "Ġeating": 3714,
      "Ġmouth": 3715,
      "Ġformer": 3716,
      "Ġcred": 3717,
      "Ġcredit": 3718,
      "Ġexpensive": 3719,
      "Ġschol": 3720,
      "Ġscholar": 3721,
      "itect": 3722,
      "Ġarchitect": 3723,
      "Ġcommunication": 3724,
      "Ġexception": 3725,
      "Ġfem": 3726,
      "Ġfemal": 3727,
      "eral": 3728,
      "ederal": 3729,
      "Ġfederal": 3730,
      "Ġmineral": 3731,
      "Ġstrik": 3732,
      "ĠFederal": 3733,
      "Ġvisible": 3734,
      "Ġexhibit": 3735,
      "Ġfluid": 3736,
      "troduction": 3737,
      "ror": 3738,
      "aint": 3739,
      "Ġadver": 3740,
      "Ġadvice": 3741,
      "Ġaspect": 3742,
      "ĠRich": 3743,
      "ĠRichard": 3744,
      "work": 3745,
      "ĠFre": 3746,
      "roll": 3747,
      "Ġport": 3748,
      "ĠReport": 3749,
      "Ġcurrently": 3750,
      "Ex": 3751,
      "EN": 3752,
      "AN": 3753,
      "Ġnutrient": 3754,
      "ĠStudent": 3755,
      "Ġapproximately": 3756,
      "Ġclu": 3757,
      "Ġeducational": 3758,
      "Ġcopy": 3759,
      "Ġreported": 3760,
      "Ġtouch": 3761,
      "Ġreplac": 3762,
      "Ġsevere": 3763,
      "Ġsaw": 3764,
      "obile": 3765,
      "ĠChar": 3766,
      "ĠCharles": 3767,
      "Ġreferred": 3768,
      "Ġrepro": 3769,
      "rong": 3770,
      "Ġwrong": 3771,
      "ĠIm": 3772,
      "Ġwrote": 3773,
      "Ġinstrument": 3774,
      "Ġrecognized": 3775,
      "ugar": 3776,
      "Ġsugar": 3777,
      "Ġexistence": 3778,
      "Ġradio": 3779,
      "Ġnovel": 3780,
      "Ġhair": 3781,
      "Ġeastern": 3782,
      "estern": 3783,
      "ĠWestern": 3784,
      "Ġdiabetes": 3785,
      "iness": 3786,
      "Ġplaces": 3787,
      "Ġproc": 3788,
      "Ġproced": 3789,
      "Ġprocedure": 3790,
      "Ġgather": 3791,
      "Ġgard": 3792,
      "Ġgarden": 3793,
      "Ġparticipant": 3794,
      "amous": 3795,
      "Ġfamous": 3796,
      "Ġround": 3797,
      "American": 3798,
      "Ġdry": 3799,
      "Ġfair": 3800,
      "Ġchap": 3801,
      "Ġchapter": 3802,
      "Ġneighbor": 3803,
      "cadem": 3804,
      "Ġtransfer": 3805,
      "Ġworkers": 3806,
      "ynamic": 3807,
      "Ġoperations": 3808,
      "Ġmagnetic": 3809,
      "Ġleaving": 3810,
      "To": 3811,
      "70": 3812,
      "irector": 3813,
      "exic": 3814,
      "ĠMexic": 3815,
      "tic": 3816,
      "St": 3817,
      "Some": 3818,
      "stic": 3819,
      "omestic": 3820,
      "ĠMan": 3821,
      "ean": 3822,
      "Ġclean": 3823,
      "ocean": 3824,
      "Ġocean": 3825,
      "ĠMexico": 3826,
      "Ġbecomes": 3827,
      "Ġgot": 3828,
      "ĠThom": 3829,
      "ĠThomas": 3830,
      "Ġdom": 3831,
      "Ġdomestic": 3832,
      "IS": 3833,
      "Ġremark": 3834,
      "Ġintegr": 3835,
      "ube": 3836,
      "Ġresolution": 3837,
      "Ġwish": 3838,
      "izing": 3839,
      "Ġregister": 3840,
      "Ġrestr": 3841,
      "stron": 3842,
      "stronom": 3843,
      "Ġdepression": 3844,
      "Ġreplace": 3845,
      "Ġstrategies": 3846,
      "ux": 3847,
      "uro": 3848,
      "Ġneuro": 3849,
      "Ġrain": 3850,
      "Ġsuit": 3851,
      "Ġrestrict": 3852,
      "Ġ1990": 3853,
      "ĠSince": 3854,
      "Ġgreenhouse": 3855,
      "ĠTim": 3856,
      "Ġsouthern": 3857,
      "Ġeveryone": 3858,
      "Ġencourag": 3859,
      "Ġapply": 3860,
      "ameter": 3861,
      "Ġcompound": 3862,
      "Ġmanner": 3863,
      "Ġfinal": 3864,
      "Ġfinally": 3865,
      "Ġfinish": 3866,
      "However": 3867,
      "Ġ186": 3868,
      "Ġ26": 3869,
      "Ġ28": 3870,
      "Ġ27": 3871,
      "Ġox": 3872,
      "siness": 3873,
      "Ġbusiness": 3874,
      "Ġcommission": 3875,
      "Ġimmed": 3876,
      "Ġimmedi": 3877,
      "Ġimmediately": 3878,
      "ocused": 3879,
      "Ġspok": 3880,
      "oday": 3881,
      "ĠAm": 3882,
      "Ġmembers": 3883,
      "se": 3884,
      "Ġthese": 3885,
      "ĠThese": 3886,
      "Ġelse": 3887,
      "Ġwhose": 3888,
      "eg": 3889,
      "Ġunique": 3890,
      "ĠShe": 3891,
      "ators": 3892,
      "ĠAs": 3893,
      "ĠAp": 3894,
      "Ġelim": 3895,
      "ĠAcadem": 3896,
      "Ġloss": 3897,
      "sues": 3898,
      "Ġissues": 3899,
      "Ġsometimes": 3900,
      "uge": 3901,
      "Ġhuge": 3902,
      "Ġeffects": 3903,
      "Ġstories": 3904,
      "ĠConstitution": 3905,
      "Ġvaccine": 3906,
      "ĠPlan": 3907,
      "Ġworth": 3908,
      "Ġinstance": 3909,
      "Ġpartner": 3910,
      "Ġtreated": 3911,
      "Ġtrees": 3912,
      "astic": 3913,
      "Ġplastic": 3914,
      "________": 3915,
      "Ġlab": 3916,
      "Ġborder": 3917,
      "Ġsolid": 3918,
      "equently": 3919,
      "Ġhyper": 3920,
      "Ġgrown": 3921,
      "Ġtechniques": 3922,
      "Ġinvest": 3923,
      "Ġcomfort": 3924,
      "fortun": 3925,
      "fortunately": 3926,
      "Ġinterview": 3927,
      "ĠReview": 3928,
      "ĠSovi": 3929,
      "ĠSoviet": 3930,
      "let": 3931,
      "omen": 3932,
      "Ġdouble": 3933,
      "Ġagree": 3934,
      "yond": 3935,
      "Ġbeyond": 3936,
      "Ġinflamm": 3937,
      "Ġbound": 3938,
      "ĠFound": 3939,
      "'ll": 3940,
      "Ġ189": 3941,
      "Ġcompletely": 3942,
      "ĠPar": 3943,
      "Ġload": 3944,
      "'ve": 3945,
      "Ġprecise": 3946,
      "Ġmarriage": 3947,
      "Ġexces": 3948,
      "Ġforces": 3949,
      "Ġheat": 3950,
      "Ġinfant": 3951,
      "Ġkidney": 3952,
      "ĠAustralian": 3953,
      "arian": 3954,
      "Ġphysician": 3955,
      "Ġmar": 3956,
      "Ġappar": 3957,
      "ato": 3958,
      "IC": 3959,
      "ography": 3960,
      "Ã¼": 3961,
      "Ġvisitor": 3962,
      "Ġspiritual": 3963,
      "ĠFlor": 3964,
      "ĠFlorid": 3965,
      "Ġresults": 3966,
      "Ġanalys": 3967,
      "Ġanalysis": 3968,
      "Ġanalyz": 3969,
      "Ġap": 3970,
      "Ġappre": 3971,
      "Ġpractical": 3972,
      "rint": 3973,
      "ty": 3974,
      "overty": 3975,
      "Ġret": 3976,
      "ont": 3977,
      "Ġrevolution": 3978,
      "Ġfill": 3979,
      "Ġfirm": 3980,
      "ense": 3981,
      "ĠRet": 3982,
      "ĠRetri": 3983,
      "ĠRetrie": 3984,
      "ĠRetrieved": 3985,
      "Ġoutput": 3986,
      "Ġappro": 3987,
      "Ġnames": 3988,
      "Ġpractices": 3989,
      "Ġbrief": 3990,
      "ĠRes": 3991,
      "ĠResources": 3992,
      "itude": 3993,
      "Ġthick": 3994,
      "ively": 3995,
      "pite": 3996,
      "Ġdespite": 3997,
      "Ġnum": 3998,
      "Ġnumer": 3999,
      "Ġnumerous": 4000,
      "uman": 4001,
      "ĠHuman": 4002,
      "Ġnamed": 4003,
      "ĠEven": 4004,
      "Ġanimals": 4005,
      "sociation": 4006,
      "ĠAssociation": 4007,
      "Ġincreases": 4008,
      "Ġarg": 4009,
      "Ġocc": 4010,
      "ĠUN": 4011,
      "Ġuses": 4012,
      "ĠChinese": 4013,
      "cle": 4014,
      "Ġter": 4015,
      "Ġterrit": 4016,
      "Ġdays": 4017,
      "Ġdead": 4018,
      "Ġtraffic": 4019,
      "Ġcook": 4020,
      "error": 4021,
      "Ġerror": 4022,
      "Ġdivision": 4023,
      "Ġproportion": 4024,
      "Ġportion": 4025,
      "Ġo": 4026,
      "Ġobe": 4027,
      "Ġ60": 4028,
      "Ġtypical": 4029,
      "Ġsexual": 4030,
      "ival": 4031,
      "Ġequival": 4032,
      "Ġequal": 4033,
      "Ġlegal": 4034,
      "Ġfat": 4035,
      "Ġrat": 4036,
      "Ġrural": 4037,
      "Ġdesigned": 4038,
      "):": 4039,
      "Ġteaching": 4040,
      "Ġteacher": 4041,
      "ĠEd": 4042,
      "ĠEast": 4043,
      "ĠEm": 4044,
      "orm": 4045,
      "ior": 4046,
      "orge": 4047,
      "rad": 4048,
      "Ġrid": 4049,
      "IT": 4050,
      "Ġsequence": 4051,
      "Ġagency": 4052,
      "Ġagent": 4053,
      "rapy": 4054,
      "Ġconclusion": 4055,
      "Ġconclud": 4056,
      "Ġstud": 4057,
      "Ġarticles": 4058,
      "sue": 4059,
      "Ġissue": 4060,
      "issue": 4061,
      "Ġtissue": 4062,
      "Ġocca": 4063,
      "Ġoccasion": 4064,
      "ension": 4065,
      "imension": 4066,
      "Ġscen": 4067,
      "Ġinstitution": 4068,
      "Ġconstitution": 4069,
      "iet": 4070,
      "Ġrace": 4071,
      "Ġexcell": 4072,
      "ellig": 4073,
      "tellig": 4074,
      "telligence": 4075,
      "ĠSc": 4076,
      "ĠScot": 4077,
      "ĠSocial": 4078,
      "Ġtrade": 4079,
      "Ġtree": 4080,
      "Ġpolitic": 4081,
      "Ġtel": 4082,
      "wer": 4083,
      "with": 4084,
      "aith": 4085,
      "Ġfaith": 4086,
      "mith": 4087,
      "Ġfix": 4088,
      "aut": 4089,
      "autif": 4090,
      "autiful": 4091,
      "fore": 4092,
      "ĠTherefore": 4093,
      "ector": 4094,
      "Ġconsult": 4095,
      "Ġinjur": 4096,
      "Ġneither": 4097,
      "ĠFoundation": 4098,
      "Ġspac": 4099,
      "Ġsector": 4100,
      "Ġstem": 4101,
      "swer": 4102,
      "Ġanswer": 4103,
      "levant": 4104,
      "Ġrelevant": 4105,
      "Ġspeed": 4106,
      "annel": 4107,
      "Ġchannel": 4108,
      "Ġproviding": 4109,
      "Ġlabel": 4110,
      "Ġtransl": 4111,
      "Al": 4112,
      "Although": 4113,
      "lo": 4114,
      "load": 4115,
      "Ġhydrogen": 4116,
      "âĨĳ": 4117,
      "ĠLord": 4118,
      "ĠLearn": 4119,
      "ĠLabor": 4120,
      "tood": 4121,
      "umm": 4122,
      "Ġsumm": 4123,
      "Ġwealth": 4124,
      "umb": 4125,
      "ĠColumb": 4126,
      "ĠSmith": 4127,
      "24": 4128,
      "Ġhealthy": 4129,
      "ĠÂ": 4130,
      "Ġurban": 4131,
      "Ġelev": 4132,
      "ruc": 4133,
      "rant": 4134,
      "igrant": 4135,
      "Ġimmigrant": 4136,
      "Ġdeal": 4137,
      "inal": 4138,
      "Ġdomin": 4139,
      "Ġclin": 4140,
      "Ġclinical": 4141,
      "Ġmal": 4142,
      "ral": 4143,
      "ĠCentral": 4144,
      "Ġsentence": 4145,
      "Ġhighly": 4146,
      "Ġprepare": 4147,
      "ĠDay": 4148,
      "ĠNe": 4149,
      "ream": 4150,
      "Ġyourself": 4151,
      "Ġx": 4152,
      "Ġrecycl": 4153,
      "tend": 4154,
      "Ġclick": 4155,
      "atur": 4156,
      "Ġobl": 4157,
      "Ġindustrial": 4158,
      "estim": 4159,
      "estimated": 4160,
      "Ġestimated": 4161,
      "Ġeduc": 4162,
      "Ġotherwise": 4163,
      "Ġcomplic": 4164,
      "ographic": 4165,
      "ouple": 4166,
      "emple": 4167,
      "Ġhydro": 4168,
      "exas": 4169,
      "ĠTexas": 4170,
      "astern": 4171,
      "Ġextern": 4172,
      "asc": 4173,
      "cycl": 4174,
      "ĠEncycl": 4175,
      "cious": 4176,
      "Ġconscious": 4177,
      "Ġindex": 4178,
      "rust": 4179,
      "Ġtwent": 4180,
      "ĠGroup": 4181,
      "ĠRevolution": 4182,
      "Ġcurric": 4183,
      "Ġ29": 4184,
      "Ġdate": 4185,
      "Ġdaughter": 4186,
      "Ġlung": 4187,
      "Ġauthority": 4188,
      "ĠCour": 4189,
      "ĠCourt": 4190,
      "ĠCo": 4191,
      "lim": 4192,
      "uslim": 4193,
      "Ġcritic": 4194,
      "ech": 4195,
      "Ġspeech": 4196,
      "Ġspeaking": 4197,
      "ĠSch": 4198,
      "Ġpurpose": 4199,
      "ĠMuslim": 4200,
      "ĠNetwork": 4201,
      "Ġnormally": 4202,
      "II": 4203,
      "ION": 4204,
      "Ġdiscuss": 4205,
      "Ġachieved": 4206,
      "Ġ+": 4207,
      "Ġcat": 4208,
      "Ġcouple": 4209,
      "Ġrecognize": 4210,
      "Ġice": 4211,
      "anish": 4212,
      "ĠSpanish": 4213,
      "Ġextremely": 4214,
      "Ġgrand": 4215,
      "According": 4216,
      "ĠFrancis": 4217,
      "ĠEncyclop": 4218,
      "ĠLaboratory": 4219,
      "Ġparents": 4220,
      "ĠRuss": 4221,
      "ĠRussian": 4222,
      "Ġmental": 4223,
      "Ġplants": 4224,
      "ildlife": 4225,
      "Ġmonths": 4226,
      "23": 4227,
      "Ġ1999": 4228,
      "bre": 4229,
      "rel": 4230,
      "related": 4231,
      "Ġcomposition": 4232,
      "Ġcities": 4233,
      "Ġdiscrim": 4234,
      "ĠCity": 4235,
      "claim": 4236,
      "Ġadequ": 4237,
      "Ġadvi": 4238,
      "Ġextent": 4239,
      "Ġdoll": 4240,
      "Ġeast": 4241,
      "ĠThus": 4242,
      "irl": 4243,
      "Ġgirl": 4244,
      "Ġacademic": 4245,
      "mark": 4246,
      "Ġpark": 4247,
      "Ġbase": 4248,
      "Ġprogres": 4249,
      "Ġhours": 4250,
      "Ġminor": 4251,
      "22": 4252,
      "ault": 4253,
      "Ġexclu": 4254,
      "Ġinstall": 4255,
      "Ġoperating": 4256,
      "Ġpreg": 4257,
      "Ġpregn": 4258,
      "Ġpregnancy": 4259,
      "then": 4260,
      "ke": 4261,
      "Ġcurricul": 4262,
      "Ġcontamin": 4263,
      "Ġeye": 4264,
      "Ġeyes": 4265,
      "eorge": 4266,
      "ĠGeorge": 4267,
      "ike": 4268,
      "Ġadded": 4269,
      "osystem": 4270,
      "Ġecosystem": 4271,
      "amental": 4272,
      "Ġfundamental": 4273,
      "Ġder": 4274,
      "Ġderive": 4275,
      "Ġcontrover": 4276,
      "Ġ90": 4277,
      "Ġtransmission": 4278,
      "ffair": 4279,
      "Ġsoldiers": 4280,
      "Ġ70": 4281,
      "Ġvo": 4282,
      "Ġvoice": 4283,
      "Ġdioxide": 4284,
      "Ġcoordin": 4285,
      "ordinary": 4286,
      "ingle": 4287,
      "Ġsingle": 4288,
      "Ġsal": 4289,
      "Ġsim": 4290,
      "Ġspect": 4291,
      "Ġsufficient": 4292,
      "ĠRussia": 4293,
      "Ġgett": 4294,
      "Ġgetting": 4295,
      "Ġsettle": 4296,
      "Ġdollar": 4297,
      "Ġfast": 4298,
      "Ġdram": 4299,
      "Ġserver": 4300,
      "ĠAg": 4301,
      "ĠAgency": 4302,
      "ĠNatural": 4303,
      "pond": 4304,
      "Ġmeeting": 4305,
      "ĠEngine": 4306,
      "Ġterritory": 4307,
      "Ġgroups": 4308,
      "29": 4309,
      "Ġinfluenc": 4310,
      "Ġsurger": 4311,
      "Ġdesire": 4312,
      "ram": 4313,
      "rael": 4314,
      "Ġdescend": 4315,
      "Ġmotiv": 4316,
      "Ġmotor": 4317,
      "Ġgames": 4318,
      "Ã¶": 4319,
      "Ã³": 4320,
      "oseph": 4321,
      "ĠJoseph": 4322,
      "Ġextract": 4323,
      "ĠCarol": 4324,
      "ĠCarolina": 4325,
      "ĠVol": 4326,
      "Ġmaximum": 4327,
      "Ġtrigg": 4328,
      "Ġtrial": 4329,
      "berg": 4330,
      "ĠCollege": 4331,
      "eace": 4332,
      "Ġpeace": 4333,
      "Ġcontinue": 4334,
      "Ġcompared": 4335,
      "Ġmid": 4336,
      "PA": 4337,
      "Ġplaced": 4338,
      "Ġidentified": 4339,
      "Ġsoon": 4340,
      "Ġgeneration": 4341,
      "Ġprevention": 4342,
      "ypt": 4343,
      "gypt": 4344,
      "ĠEgypt": 4345,
      "ĠEach": 4346,
      "ĠNow": 4347,
      "Ã¢": 4348,
      "Ġappoint": 4349,
      "Ġvolcan": 4350,
      "Ġgraph": 4351,
      "uggestion": 4352,
      "Ġdomain": 4353,
      "Ġcode": 4354,
      "From": 4355,
      "Many": 4356,
      "Ġposses": 4357,
      "Ġinside": 4358,
      "ĠCommon": 4359,
      "ĠRight": 4360,
      "Ġdep": 4361,
      "raw": 4362,
      "Ġoriginally": 4363,
      "Ġwrite": 4364,
      "Ġultimate": 4365,
      "Ġjudg": 4366,
      "Ġworldwide": 4367,
      "Ġjoint": 4368,
      "Ġbodies": 4369,
      "Ġes": 4370,
      "Ġescap": 4371,
      "Ġess": 4372,
      "Ġessential": 4373,
      "ones": 4374,
      "Ġessentially": 4375,
      "ĠTeach": 4376,
      "lob": 4377,
      "Ġpoverty": 4378,
      "rupt": 4379,
      "paper": 4380,
      "pic": 4381,
      "Ġtopic": 4382,
      "Ġdownload": 4383,
      "Ġang": 4384,
      "Ġdev": 4385,
      "aturally": 4386,
      "Ġsetting": 4387,
      "Ġsettl": 4388,
      "yl": 4389,
      "ĠEl": 4390,
      "Ġupper": 4391,
      "rac": 4392,
      "rack": 4393,
      "rab": 4394,
      "ĠArab": 4395,
      "ĠColumbia": 4396,
      "Ġrefuge": 4397,
      "Not": 4398,
      "otic": 4399,
      "Ġneeded": 4400,
      "Ġstorage": 4401,
      "Ġsurvival": 4402,
      "Ġsurvive": 4403,
      "Ġiron": 4404,
      "Ġcomment": 4405,
      "Ġobjective": 4406,
      "Ġengage": 4407,
      "Ġengag": 4408,
      "Ġproducts": 4409,
      "ogn": 4410,
      "ognitive": 4411,
      "Ġsensitive": 4412,
      "ĠOf": 4413,
      "burg": 4414,
      "ING": 4415,
      "Ġliber": 4416,
      "Ġartist": 4417,
      "usion": 4418,
      "ivision": 4419,
      "Ġtube": 4420,
      "Ġrh": 4421,
      "Ġcorpor": 4422,
      "Ġgravit": 4423,
      "Ġreality": 4424,
      "ED": 4425,
      "Ġperman": 4426,
      "Ġelectronic": 4427,
      "Ġwidely": 4428,
      "Ġpoly": 4429,
      "Ġlimited": 4430,
      "Ġsurgery": 4431,
      "ĠWomen": 4432,
      "enomen": 4433,
      "Ġphenomen": 4434,
      "ĠOld": 4435,
      "Ġtold": 4436,
      "ison": 4437,
      "Ġcomparison": 4438,
      "Ġpoison": 4439,
      "Ġ1980": 4440,
      "agues": 4441,
      "leagues": 4442,
      "Ġcolleagues": 4443,
      "Ġcolum": 4444,
      "Ġcolumn": 4445,
      "Ġdidn": 4446,
      "Ġdiffer": 4447,
      "Ġdig": 4448,
      "au": 4449,
      "Ġdou": 4450,
      "Ġdoub": 4451,
      "bit": 4452,
      "emb": 4453,
      "eb": 4454,
      "eleb": 4455,
      "Ġceleb": 4456,
      "omb": 4457,
      "ĠOb": 4458,
      "ĠAb": 4459,
      "ĠOver": 4460,
      "Ġvehicles": 4461,
      "Ġvehicle": 4462,
      "Ġcreation": 4463,
      "Ġlesson": 4464,
      "BN": 4465,
      "SBN": 4466,
      "ĠISBN": 4467,
      "Ġdecades": 4468,
      "Ġsil": 4469,
      "ĠJapanes": 4470,
      "ĠJapanese": 4471,
      "udience": 4472,
      "Ġhypothe": 4473,
      "ecution": 4474,
      "utom": 4475,
      "Ġdisturb": 4476,
      "Ġhighest": 4477,
      "Ġstorm": 4478,
      "Ġterror": 4479,
      "ĠTw": 4480,
      "Ġsec": 4481,
      "Ġsort": 4482,
      "Ġunknown": 4483,
      "name": 4484,
      "26": 4485,
      "27": 4486,
      "amb": 4487,
      "ambridge": 4488,
      "Ġautom": 4489,
      "Ġ1960": 4490,
      "Ġmaster": 4491,
      "28": 4492,
      "Ġ1998": 4493,
      "198": 4494,
      "ĠPress": 4495,
      "ĠUK": 4496,
      "Ġusers": 4497,
      "ĠStudies": 4498,
      "Ġtwice": 4499,
      "Ġexactly": 4500,
      "Ġconvert": 4501,
      "Ġelimin": 4502,
      "ceed": 4503,
      "ucceed": 4504,
      "ĠOnce": 4505,
      "Ġexceed": 4506,
      "Ġproceed": 4507,
      "Ġprov": 4508,
      "rig": 4509,
      "Ġdisappear": 4510,
      "Ġhaz": 4511,
      "Ġhazard": 4512,
      "Ġhapp": 4513,
      "break": 4514,
      "Ġapproved": 4515,
      "erved": 4516,
      "21": 4517,
      "Ġcros": 4518,
      "Ġcross": 4519,
      "ĠThen": 4520,
      "ĠContro": 4521,
      "Ġcenturies": 4522,
      "Ġvictor": 4523,
      "Ġfully": 4524,
      "Ġsuccessfully": 4525,
      "Ġspot": 4526,
      "ĠArmy": 4527,
      "Ġtaught": 4528,
      "Ġfocused": 4529,
      "Ġapplied": 4530,
      "Ġantib": 4531,
      "ĠLake": 4532,
      "Ġdirector": 4533,
      "Ġmedium": 4534,
      "ĠAng": 4535,
      "ague": 4536,
      "rastructure": 4537,
      "Ġinfrastructure": 4538,
      "Ġstock": 4539,
      "Ġslight": 4540,
      "Ġflight": 4541,
      "Ġhighlight": 4542,
      "Ġdisaster": 4543,
      "Ġval": 4544,
      "Ġtele": 4545,
      "Ġtelevision": 4546,
      "Ġvision": 4547,
      "Ġprovision": 4548,
      "Ġ/": 4549,
      "Ġ80": 4550,
      "Ġhope": 4551,
      "Ġmolecular": 4552,
      "ĠControl": 4553,
      "Ġvalid": 4554,
      "Ġscale": 4555,
      "Ġstudi": 4556,
      "Ġvaluable": 4557,
      "cover": 4558,
      "Ġenh": 4559,
      "Ġenhance": 4560,
      "ates": 4561,
      "Ġgreate": 4562,
      "Ġgreatest": 4563,
      "Ġhunt": 4564,
      "Ġprogramm": 4565,
      "ceiving": 4566,
      "he": 4567,
      "Ġrise": 4568,
      "eign": 4569,
      "Ġforeign": 4570,
      "Ġmetal": 4571,
      "ler": 4572,
      "Ġmer": 4573,
      "Ġmatch": 4574,
      "ĠAtl": 4575,
      "ĠAtlant": 4576,
      "Ġcaptured": 4577,
      "Ġvary": 4578,
      "ĠFurther": 4579,
      "Ġoxy": 4580,
      "Ġoxygen": 4581,
      "ĠJud": 4582,
      "Ġexcellent": 4583,
      "yle": 4584,
      "Ġstyle": 4585,
      "Ġsave": 4586,
      "Ġsend": 4587,
      "Ġhear": 4588,
      "ĠHar": 4589,
      "Ġparticles": 4590,
      "Ġdoubt": 4591,
      "Ġsustainable": 4592,
      "Ġpreviously": 4593,
      "Ġaccessible": 4594,
      "oment": 4595,
      "Ġmoment": 4596,
      "Ġequivalent": 4597,
      "Ġleadership": 4598,
      "Ġrules": 4599,
      "ĠCap": 4600,
      "iotic": 4601,
      "Ġantibiotic": 4602,
      "Ġoperation": 4603,
      "ĠClass": 4604,
      "iodiver": 4605,
      "Ġarrange": 4606,
      "Ġfert": 4607,
      "Ġdegree": 4608,
      "Ġdegrees": 4609,
      "One": 4610,
      "Ġfacility": 4611,
      "ĠFrank": 4612,
      "Ġauthorities": 4613,
      "ĠProfes": 4614,
      "ĠOrganization": 4615,
      "ĠMiddle": 4616,
      "Ġcolour": 4617,
      "Ġ1970": 4618,
      "omet": 4619,
      "ĠChang": 4620,
      "Ġball": 4621,
      "Ġoverall": 4622,
      "Ġbit": 4623,
      "Ġbar": 4624,
      "Ġbur": 4625,
      "Ġbright": 4626,
      "Ġcopyright": 4627,
      "Ġnar": 4628,
      "Ġnarrow": 4629,
      "Ġnaturally": 4630,
      "Ġbatter": 4631,
      "Ġlatter": 4632,
      "Ġimproving": 4633,
      "Ġbigg": 4634,
      "Ġsmaller": 4635,
      "her": 4636,
      "Ġlik": 4637,
      "Ġcarefully": 4638,
      "drom": 4639,
      "Ġsyndrom": 4640,
      "Ġsynthe": 4641,
      "ĠToday": 4642,
      "Ġcontemporary": 4643,
      "srael": 4644,
      "ĠIsrael": 4645,
      "Ġge": 4646,
      "Ġ1997": 4647,
      "Ġrule": 4648,
      "Ġdeclar": 4649,
      "war": 4650,
      "arter": 4651,
      "Ġquarter": 4652,
      "Ġexpected": 4653,
      "ype": 4654,
      "atric": 4655,
      "iatric": 4656,
      "Ġpurposes": 4657,
      "Ġchildhood": 4658,
      "Ġdepth": 4659,
      "ĠDirector": 4660,
      "Ġstreet": 4661,
      "election": 4662,
      "Ġselection": 4663,
      "Ġpush": 4664,
      "rush": 4665,
      "ratic": 4666,
      "Ġdamag": 4667,
      "Ġbelong": 4668,
      "Ġorganized": 4669,
      "Ġcompetition": 4670,
      "ourney": 4671,
      "Ġjourney": 4672,
      "ĠRec": 4673,
      "Ġbad": 4674,
      "road": 4675,
      "Ġspecifically": 4676,
      "ropical": 4677,
      "Ġleading": 4678,
      "Ġmamm": 4679,
      "Ġskills": 4680,
      "ascular": 4681,
      "Ġessay": 4682,
      "Ġcampa": 4683,
      "Ġcampaign": 4684,
      "Research": 4685,
      "ley": 4686,
      "That": 4687,
      "Other": 4688,
      "ĠClimate": 4689,
      "Ġwound": 4690,
      "ously": 4691,
      "Ġvia": 4692,
      "Ġcapture": 4693,
      "Ġcreature": 4694,
      "well": 4695,
      "word": 4696,
      "Ġcomments": 4697,
      "Ġlived": 4698,
      "Ġwait": 4699,
      "tocol": 4700,
      "nowledge": 4701,
      "Ġopposite": 4702,
      "ĠGuide": 4703,
      "Ġevil": 4704,
      "Ġratio": 4705,
      "ĠPort": 4706,
      "ĠLou": 4707,
      "ĠLouis": 4708,
      "Ġcurriculum": 4709,
      "ĠLe": 4710,
      "ĠBe": 4711,
      "Ġfemale": 4712,
      "Ġrestriction": 4713,
      "ictionary": 4714,
      "Ġorganic": 4715,
      "Ġearn": 4716,
      "Ġstatistic": 4717,
      "Ġidentity": 4718,
      "ĠSouthern": 4719,
      "Ġsituations": 4720,
      "Ġobservations": 4721,
      "ĠFlorida": 4722,
      "Ġquot": 4723,
      "Ġdepos": 4724,
      "ruption": 4725,
      "Ġmathematic": 4726,
      "atically": 4727,
      "what": 4728,
      "Ġfreed": 4729,
      "Ġfreedom": 4730,
      "ĠElect": 4731,
      "lectual": 4732,
      "Ġdriver": 4733,
      "Ġopin": 4734,
      "Ġopinion": 4735,
      "ĠYear": 4736,
      "ĠYoung": 4737,
      "ĠRead": 4738,
      "Ġadminist": 4739,
      "Ġadministr": 4740,
      "Ġadminister": 4741,
      "Ġminister": 4742,
      "Ġtribe": 4743,
      "Ġdecline": 4744,
      "crib": 4745,
      "Ġmuseum": 4746,
      "stream": 4747,
      "Ġcoming": 4748,
      "Ġneighborhood": 4749,
      "Ġrobo": 4750,
      "Ġtransform": 4751,
      "Ġreform": 4752,
      "ĠFood": 4753,
      "Ġrang": 4754,
      "Ġslightly": 4755,
      "Ġprefer": 4756,
      "atell": 4757,
      "atellite": 4758,
      "Ġthre": 4759,
      "va": 4760,
      "Ġsnow": 4761,
      "Ġflo": 4762,
      "Ġfloor": 4763,
      "ĠSecond": 4764,
      "ĠSun": 4765,
      "Ġmarine": 4766,
      "Ġcontinued": 4767,
      "Ġut": 4768,
      "Ġutil": 4769,
      "Ġ1996": 4770,
      "Ġindependence": 4771,
      "ĠAsia": 4772,
      "ctic": 4773,
      "Ġrever": 4774,
      "Ġforest": 4775,
      "HE": 4776,
      "Ġbehaviour": 4777,
      "Ġroll": 4778,
      "All": 4779,
      "Ġnerve": 4780,
      "Ġmut": 4781,
      "ute": 4782,
      "olute": 4783,
      "ĠArctic": 4784,
      "ĠThose": 4785,
      ");": 4786,
      "Ġopposition": 4787,
      "wood": 4788,
      "Ġquestions": 4789,
      "Ġcriminal": 4790,
      "bell": 4791,
      "rill": 4792,
      "rific": 4793,
      "ĠSw": 4794,
      "Ġneut": 4795,
      "Ġconference": 4796,
      "Ġstreng": 4797,
      "Ġstrengthen": 4798,
      "Ġdriving": 4799,
      "izes": 4800,
      "ĠInter": 4801,
      "Ġsignificantly": 4802,
      "ĠProt": 4803,
      "upre": 4804,
      "uprem": 4805,
      "Ġmanufacturing": 4806,
      "Ġking": 4807,
      "Ġinternal": 4808,
      "Ġrepresentative": 4809,
      "ĠThrough": 4810,
      "Ġlake": 4811,
      "Ġelectr": 4812,
      "Ġelectrical": 4813,
      "Ġdemocrac": 4814,
      "Ġprogress": 4815,
      "Ġsystems": 4816,
      "Ġfactors": 4817,
      "ĠEnvironmental": 4818,
      "Ġ<": 4819,
      "lobal": 4820,
      "Ġmagaz": 4821,
      "ĠGlobal": 4822,
      "vider": 4823,
      "Ġprovider": 4824,
      "Ġuser": 4825,
      "ĠTechnology": 4826,
      "Ġliver": 4827,
      "Ġdelay": 4828,
      "umption": 4829,
      "Ġminimum": 4830,
      "Ġbeautiful": 4831,
      "Ġshape": 4832,
      "ĠDe": 4833,
      "ecraft": 4834,
      "Ġspacecraft": 4835,
      "mitted": 4836,
      "Ġsex": 4837,
      "ĠAlex": 4838,
      "ĠAlexand": 4839,
      "Ġsus": 4840,
      "Ġsuspect": 4841,
      "Ġleaf": 4842,
      "charg": 4843,
      "Ġsomewhat": 4844,
      "ĠNature": 4845,
      "Ġpermanent": 4846,
      "Ġfos": 4847,
      "ury": 4848,
      "oft": 4849,
      "elt": 4850,
      "Ġfelt": 4851,
      "Ġmulti": 4852,
      "norm": 4853,
      "Ġabnorm": 4854,
      "Ġabs": 4855,
      "Ġabsolute": 4856,
      "Ġabsor": 4857,
      "Ġabund": 4858,
      "Ġabsorb": 4859,
      "ĠPsych": 4860,
      "ĠCongres": 4861,
      "Ġmaterials": 4862,
      "Ġrough": 4863,
      "waren": 4864,
      "Ġinstruction": 4865,
      "Ġoblig": 4866,
      "Ġgradu": 4867,
      "ĠTHE": 4868,
      "Ġmedications": 4869,
      "ĠUse": 4870,
      "buse": 4871,
      "Ġfilter": 4872,
      "Ġraise": 4873,
      "Ġrail": 4874,
      "Ġrad": 4875,
      "Ġdiscovered": 4876,
      "ĠManage": 4877,
      "ĠManagement": 4878,
      "Ġshad": 4879,
      "These": 4880,
      "Ġobservation": 4881,
      "78": 4882,
      "ĠDo": 4883,
      "ivenes": 4884,
      "Ġrecognition": 4885,
      "Ġdistinction": 4886,
      "acrific": 4887,
      "ellectual": 4888,
      "Ġvast": 4889,
      "ĠWind": 4890,
      "ĠWindow": 4891,
      "Ġ1995": 4892,
      "Ġ#": 4893,
      "Ġdeposit": 4894,
      "Ġhoriz": 4895,
      "Ġdynamic": 4896,
      "Ġreserved": 4897,
      "Ġreserve": 4898,
      "ometer": 4899,
      "Ġparameter": 4900,
      "Ġdiameter": 4901,
      "Ġfollowed": 4902,
      "Ġimmediate": 4903,
      "cident": 4904,
      "quake": 4905,
      "Ġearthquake": 4906,
      "ĠEastern": 4907,
      "warenes": 4908,
      "Ġasked": 4909,
      "Ġprett": 4910,
      "embly": 4911,
      "embran": 4912,
      "Ġrapidly": 4913,
      "ĠSpain": 4914,
      "ĠSpirit": 4915,
      "ĠSpring": 4916,
      "Ġtransition": 4917,
      "Ġserving": 4918,
      "ĠPhoto": 4919,
      "ĠPhy": 4920,
      "Ġderived": 4921,
      "Ġsecure": 4922,
      "Ġarchitecture": 4923,
      "ĠEvery": 4924,
      "Ġ188": 4925,
      "Ġsucceed": 4926,
      "Ġfamili": 4927,
      "Ġfamiliar": 4928,
      "Â®": 4929,
      "Ġdepict": 4930,
      "ĠProtection": 4931,
      "Ġenem": 4932,
      "Ġwif": 4933,
      "Ġwire": 4934,
      "Ġpassage": 4935,
      "Ġaccurate": 4936,
      "Ġaccuracy": 4937,
      "Ġcontinent": 4938,
      "Ġnearby": 4939,
      "ĠInstead": 4940,
      "Ġchemistry": 4941,
      "Ġpoet": 4942,
      "Ġble": 4943,
      "Ġlayer": 4944,
      "Ġconstitut": 4945,
      "Ġmachines": 4946,
      "xford": 4947,
      "ĠOxford": 4948,
      "rest": 4949,
      "Ġarrest": 4950,
      "Ġlatest": 4951,
      "ĠPrevention": 4952,
      "Ġsupplies": 4953,
      "Ġstres": 4954,
      "Ġstress": 4955,
      "ĠTwo": 4956,
      "ĠDivision": 4957,
      "Ġanyone": 4958,
      "Ġrights": 4959,
      "Ġsport": 4960,
      "Ġaccompl": 4961,
      "Ġaccomplish": 4962,
      "Ġevents": 4963,
      "ĠKing": 4964,
      "ĠKingdom": 4965,
      "ĠSe": 4966,
      "ĠSecret": 4967,
      "Ġatmosphere": 4968,
      "Ġoffice": 4969,
      "Ġappearance": 4970,
      "ignificance": 4971,
      "istance": 4972,
      "Ġbecoming": 4973,
      "ius": 4974,
      "ensus": 4975,
      "ilit": 4976,
      "Ġfacilit": 4977,
      "ites": 4978,
      "xiet": 4979,
      "Ġapparently": 4980,
      "ĠEdward": 4981,
      "Ġpump": 4982,
      "Ġprice": 4983,
      "Ġprices": 4984,
      "we": 4985,
      "Ġgod": 4986,
      "iology": 4987,
      "Ġchain": 4988,
      "Ġenable": 4989,
      "90": 4990,
      "Ġreact": 4991,
      "Ġelsewhere": 4992,
      "while": 4993,
      "Ġmoon": 4994,
      "Ġpreserve": 4995,
      "Ġchanged": 4996,
      "Ġideal": 4997,
      "Ġadj": 4998,
      "Ġkingdom": 4999,
      "ĠBy": 5000,
      "Ġunlike": 5001,
      "Ġspent": 5002,
      "hapter": 5003,
      "ĠLif": 5004,
      "Ġstim": 5005,
      "Ġilleg": 5006,
      "fl": 5007,
      "Ġcorn": 5008,
      "ĠAnt": 5009,
      "elines": 5010,
      "Ġguidelines": 5011,
      "Ġfiber": 5012,
      "ĠConvention": 5013,
      "Ġsm": 5014,
      "Ġprocesses": 5015,
      "Ġseed": 5016,
      "tended": 5017,
      "ĠAnother": 5018,
      "Another": 5019,
      "Ġimper": 5020,
      "vail": 5021,
      "Ġpersist": 5022,
      "IDS": 5023,
      "Ġdrill": 5024,
      "Ġexternal": 5025,
      "Ġgrew": 5026,
      "xic": 5027,
      "Ġartific": 5028,
      "Ġkil": 5029,
      "Ġcarried": 5030,
      "eter": 5031,
      "ĠPeter": 5032,
      "RE": 5033,
      "Ġcapable": 5034,
      "ĠMark": 5035,
      "Ġreduced": 5036,
      "Ġlives": 5037,
      "Ġagreement": 5038,
      "Ġweak": 5039,
      "Ġrank": 5040,
      "Ġgift": 5041,
      "Ġmassive": 5042,
      "Ġorbit": 5043,
      "Ġwarning": 5044,
      "ĠAc": 5045,
      "ĠAcces": 5046,
      "ĠAbout": 5047,
      "Ġpermission": 5048,
      "roke": 5049,
      "key": 5050,
      "Ġrepe": 5051,
      "Ġrepeated": 5052,
      "Ġrepair": 5053,
      "Ġpair": 5054,
      "Ġund": 5055,
      "istor": 5056,
      "ĠHistor": 5057,
      "Ġstarted": 5058,
      "ft": 5059,
      "Ġdraft": 5060,
      "ĠConf": 5061,
      "Ġneck": 5062,
      "ateg": 5063,
      "Ġcateg": 5064,
      "Ġcategories": 5065,
      "Ġexplan": 5066,
      "Ġexplo": 5067,
      "Ġclient": 5068,
      "ĠPer": 5069,
      "Ġer": 5070,
      "Ġperceive": 5071,
      "par": 5072,
      "Ġdestruction": 5073,
      "ST": 5074,
      "Com": 5075,
      "Ġhorse": 5076,
      "Ġcommit": 5077,
      "ounce": 5078,
      "ĠOce": 5079,
      "ĠOcean": 5080,
      "ulf": 5081,
      "Ġson": 5082,
      "Ġrespectively": 5083,
      "Ġmovi": 5084,
      "Ġmoist": 5085,
      "Ġethn": 5086,
      "Ġethnic": 5087,
      "Ġpick": 5088,
      "rigin": 5089,
      "ĠBudd": 5090,
      "udden": 5091,
      "Ġsudden": 5092,
      "Ġimpos": 5093,
      "Ġpossibly": 5094,
      "Ġevolved": 5095,
      "Ġchanging": 5096,
      "Ġflex": 5097,
      "Ġstroke": 5098,
      "Ġstrain": 5099,
      "Ġtrying": 5100,
      "redient": 5101,
      "Ġlooking": 5102,
      "Ġenforce": 5103,
      "Ġkilometer": 5104,
      "Ġisland": 5105,
      "Ġdecide": 5106,
      "AL": 5107,
      "co": 5108,
      "ĠFrancisco": 5109,
      "Ġphilosoph": 5110,
      "Ġjudge": 5111,
      "ĠAgr": 5112,
      "ĠAgric": 5113,
      "ĠAgriculture": 5114,
      "Ġbuy": 5115,
      "Ġbud": 5116,
      "Ġbudget": 5117,
      "van": 5118,
      "ylvan": 5119,
      "ylvania": 5120,
      "iability": 5121,
      "espite": 5122,
      "ester": 5123,
      "Ġthreaten": 5124,
      "Pro": 5125,
      "roop": 5126,
      "Ġtroop": 5127,
      "Ġtemple": 5128,
      "ishop": 5129,
      "uish": 5130,
      "inguish": 5131,
      "Ġdistinguish": 5132,
      "Ġfeeling": 5133,
      "Ġtour": 5134,
      "ircle": 5135,
      "ucle": 5136,
      "Ġnucle": 5137,
      "Ġhorm": 5138,
      "Ġcategory": 5139,
      "Ġarrived": 5140,
      "Ġblog": 5141,
      "cribe": 5142,
      "Ġheight": 5143,
      "Ġhon": 5144,
      "Ġhonor": 5145,
      "Ġlocations": 5146,
      "Ġenhanc": 5147,
      "ĠPower": 5148,
      "Ġstatement": 5149,
      "Ġ1994": 5150,
      "Ġschem": 5151,
      "Ġmeant": 5152,
      "tal": 5153,
      "Ġtotal": 5154,
      "Ġcoal": 5155,
      "Ġcalcium": 5156,
      "west": 5157,
      "Ġqual": 5158,
      "Ġstruggle": 5159,
      "Ġfeedback": 5160,
      "Ġengines": 5161,
      "Ġeffectivenes": 5162,
      "Ġdesert": 5163,
      "Ġtechnique": 5164,
      "Ġcollege": 5165,
      "Ġwife": 5166,
      "ade": 5167,
      "Ġcult": 5168,
      "Ġcultiv": 5169,
      "Ġrot": 5170,
      "ott": 5171,
      "Ġnegot": 5172,
      "Ġremot": 5173,
      "ulner": 5174,
      "Ġvulner": 5175,
      "aul": 5176,
      "ĠPaul": 5177,
      "Ġbul": 5178,
      "Ġbomb": 5179,
      "Ġdiscrimination": 5180,
      "Ġvoc": 5181,
      "Ġpaid": 5182,
      "Ġmodified": 5183,
      "thodox": 5184,
      "Stud": 5185,
      "son": 5186,
      "Ġprison": 5187,
      "ĠMon": 5188,
      "ists": 5189,
      "ĠCongress": 5190,
      "Ġkids": 5191,
      "Ġscan": 5192,
      "ogen": 5193,
      "ogue": 5194,
      "Ġprompt": 5195,
      "Ġdrought": 5196,
      "Ġdream": 5197,
      "lease": 5198,
      "ode": 5199,
      "Ġvolume": 5200,
      "Ã¤": 5201,
      "Ġmeat": 5202,
      "Ġmeter": 5203,
      "Ġhistorian": 5204,
      "Ġrecon": 5205,
      "Ġreceiving": 5206,
      "Ġretain": 5207,
      "ĠSee": 5208,
      "ĠSpecial": 5209,
      "Ġinvestment": 5210,
      "ĠEconomic": 5211,
      "riteria": 5212,
      "Most": 5213,
      "More": 5214,
      "ĠKore": 5215,
      "Ġrender": 5216,
      "Ġjustice": 5217,
      "Ġcruc": 5218,
      "Ġdefined": 5219,
      "Ġworship": 5220,
      "Ġpartnership": 5221,
      "Ġmoral": 5222,
      "Ġarmy": 5223,
      "Ġboy": 5224,
      "Ġargu": 5225,
      "Ġfertil": 5226,
      "ĠLife": 5227,
      "Ġdefend": 5228,
      "ĠCre": 5229,
      "res": 5230,
      "reg": 5231,
      "ĠCreek": 5232,
      "Ġprograms": 5233,
      "Ġmanufactur": 5234,
      "ĠOffice": 5235,
      "Ġperhaps": 5236,
      "ĠIII": 5237,
      "Ġprovince": 5238,
      "Ġsilver": 5239,
      "theless": 5240,
      "Ġunless": 5241,
      "Ġcrucial": 5242,
      "ĠCommitte": 5243,
      "Ġign": 5244,
      "Ġabsence": 5245,
      "weight": 5246,
      "ĠOur": 5247,
      "Ġfiles": 5248,
      "Ġapprec": 5249,
      "Ġdied": 5250,
      "Ġdiv": 5251,
      "Ġgender": 5252,
      "Ġgene": 5253,
      "Ġgenes": 5254,
      "een": 5255,
      "eenth": 5256,
      "tween": 5257,
      "Ġgoes": 5258,
      "Ġmes": 5259,
      "Ġmess": 5260,
      "Ġmessage": 5261,
      "ants": 5262,
      "Ġidentification": 5263,
      "Ġfun": 5264,
      "Ġfaster": 5265,
      "ĠSuch": 5266,
      "ĠBefore": 5267,
      "overeign": 5268,
      "lam": 5269,
      "Ġstrict": 5270,
      "Figure": 5271,
      "certain": 5272,
      "ulating": 5273,
      "Ġterms": 5274,
      "Ġphone": 5275,
      "Ġsuperior": 5276,
      "inary": 5277,
      "lin": 5278,
      "ĠMin": 5279,
      "ĠMinister": 5280,
      "ĠMountain": 5281,
      "ĠMo": 5282,
      "ĠMont": 5283,
      "irty": 5284,
      "Ġdimension": 5285,
      "Ġbone": 5286,
      "astro": 5287,
      "Ġelectro": 5288,
      "Ġexport": 5289,
      "Ġoutbreak": 5290,
      "Ġrespir": 5291,
      "Ġintroduced": 5292,
      "Ġsatellite": 5293,
      "Ġremoval": 5294,
      "ĠFurthermore": 5295,
      "Ġimmune": 5296,
      "Ġ1992": 5297,
      "Ġ1993": 5298,
      "Ġ1991": 5299,
      "Ġperception": 5300,
      "osis": 5301,
      "Ġpray": 5302,
      "Ġarray": 5303,
      "Ġdefense": 5304,
      "Ġgradually": 5305,
      "http": 5306,
      "Ġinfect": 5307,
      "Ġexamin": 5308,
      "Ġexamination": 5309,
      "Ġnarr": 5310,
      "Ġprotocol": 5311,
      "During": 5312,
      "easuring": 5313,
      "ifications": 5314,
      "Ġdetection": 5315,
      "Ġrelease": 5316,
      "Ġreleased": 5317,
      "Ġproperly": 5318,
      "Ġpregnant": 5319,
      "Ġcognitive": 5320,
      "Ġcry": 5321,
      "Ġentry": 5322,
      "Ġprofess": 5323,
      "Ġprofessor": 5324,
      "Ġirrig": 5325,
      "Ġstrip": 5326,
      "brew": 5327,
      "ĠHebrew": 5328,
      "Ġrelief": 5329,
      "ree": 5330,
      "Ġexisting": 5331,
      "Ġdramatic": 5332,
      "Ġwebs": 5333,
      "Ġwebsite": 5334,
      "ĠHere": 5335,
      "porter": 5336,
      "Ġroof": 5337,
      "Ġpull": 5338,
      "Ġimport": 5339,
      "born": 5340,
      "ĠAir": 5341,
      "ĠAnn": 5342,
      "tellectual": 5343,
      "ĠAdm": 5344,
      "ĠAdmin": 5345,
      "ĠAdministration": 5346,
      "Ġracial": 5347,
      "Ġdebate": 5348,
      "Ġpp": 5349,
      "Ġpet": 5350,
      "Ġdiagnos": 5351,
      "Ġdiagnosis": 5352,
      "Ġcomput": 5353,
      "zz": 5354,
      "Ġben": 5355,
      "Ġbene": 5356,
      "Ġbeneficial": 5357,
      "Ġden": 5358,
      "Ġplease": 5359,
      "Ġmort": 5360,
      "Ġmortality": 5361,
      "à¤": 5362,
      "Ġcollap": 5363,
      "ĠAddition": 5364,
      "Ġbiology": 5365,
      "Ġdust": 5366,
      "Ġnations": 5367,
      "Ġfrag": 5368,
      "ĠCommittee": 5369,
      "Ġ*": 5370,
      "Ġalter": 5371,
      "terior": 5372,
      "enior": 5373,
      "Ġshot": 5374,
      "Ġchrom": 5375,
      "Ġinjury": 5376,
      "Ġinjuries": 5377,
      "Ġstrategy": 5378,
      "Because": 5379,
      "Ġmale": 5380,
      "Ġstates": 5381,
      "Ġmonument": 5382,
      "Ġhom": 5383,
      "ĠLanguage": 5384,
      "ĠBar": 5385,
      "ama": 5386,
      "ĠObama": 5387,
      "Ĥ¬": 5388,
      "âĤ¬": 5389,
      "ĠWildlife": 5390,
      "Ġdischarg": 5391,
      "Ġrespiratory": 5392,
      "Ġreproduc": 5393,
      "Ġautomatically": 5394,
      "Ġdramatically": 5395,
      "ĠTrans": 5396,
      "Ġpromis": 5397,
      "Ġuncertain": 5398,
      "ashion": 5399,
      "Ġsubstantial": 5400,
      "itial": 5401,
      "Ġinitial": 5402,
      "Ġ>": 5403,
      "Ġlibert": 5404,
      "Ġdefic": 5405,
      "ĠAtlantic": 5406,
      "iti": 5407,
      "itiative": 5408,
      "Ġtit": 5409,
      "Ġtitle": 5410,
      "Ġi": 5411,
      "Ġtank": 5412,
      "ender": 5413,
      "Ġbill": 5414,
      "mon": 5415,
      "Ġearliest": 5416,
      "Ġsaving": 5417,
      "ĠFamily": 5418,
      "shop": 5419,
      "free": 5420,
      "fford": 5421,
      "ĠThree": 5422,
      "zym": 5423,
      "Ġenzym": 5424,
      "raz": 5425,
      "razil": 5426,
      "raight": 5427,
      "Ġstraight": 5428,
      "35": 5429,
      "45": 5430,
      "emoc": 5431,
      "ĠDemoc": 5432,
      "Ġitem": 5433,
      "ĠPublish": 5434,
      "Ġstret": 5435,
      "Ġstretch": 5436,
      "RO": 5437,
      "structural": 5438,
      "Ġrelations": 5439,
      "Ġguard": 5440,
      "Ġobserve": 5441,
      "Ġparall": 5442,
      "Ġparallel": 5443,
      "Ġconfidence": 5444,
      "Ġzone": 5445,
      "rum": 5446,
      "Ġspectrum": 5447,
      "Ġtum": 5448,
      "Ġtumor": 5449,
      "rich": 5450,
      "ĠConference": 5451,
      "ĠCons": 5452,
      "ĠConservation": 5453,
      "Ġcausing": 5454,
      "ĠMary": 5455,
      "ĠMc": 5456,
      "ĠMicro": 5457,
      "ĠStudy": 5458,
      "Ġacres": 5459,
      "Ġaccomm": 5460,
      "Ġacute": 5461,
      "Ġacqu": 5462,
      "Ġsurrounding": 5463,
      "75": 5464,
      "Ġ185": 5465,
      "ĠBas": 5466,
      "Ġbond": 5467,
      "Ġlisten": 5468,
      "ĠAmong": 5469,
      "rew": 5470,
      "Ġmetab": 5471,
      "Ġmetabol": 5472,
      "ĠRel": 5473,
      "ĠBible": 5474,
      "Ġfraction": 5475,
      "Ġdiverse": 5476,
      "Ġworse": 5477,
      "Ġconcret": 5478,
      "Ġjump": 5479,
      "bel": 5480,
      "Ġvar": 5481,
      "Ġfrequent": 5482,
      "Ġrenewable": 5483,
      "Ġpharm": 5484,
      "Ġphra": 5485,
      "ĠHome": 5486,
      "ĠRome": 5487,
      "Ġgenome": 5488,
      "Ġintended": 5489,
      "ĠCO": 5490,
      "Ġdefect": 5491,
      "kin": 5492,
      "Ġadvanced": 5493,
      "ĠMass": 5494,
      "ĠMassach": 5495,
      "ĠTra": 5496,
      "Now": 5497,
      "Ġappreci": 5498,
      "ipl": 5499,
      "Ġdiscipl": 5500,
      "Ġepid": 5501,
      "Ġepidem": 5502,
      "ĠSea": 5503,
      "ET": 5504,
      "Joh": 5505,
      "Ġcycle": 5506,
      "avour": 5507,
      "ĠMassachus": 5508,
      "ĠMassachusett": 5509,
      "ervative": 5510,
      "ĠJes": 5511,
      "ĠJesus": 5512,
      "Ġdiscovery": 5513,
      "Ġprofit": 5514,
      "itation": 5515,
      "itis": 5516,
      "Ġmill": 5517,
      "Ġmobile": 5518,
      "vailability": 5519,
      "athemat": 5520,
      "athematical": 5521,
      "Ġinterface": 5522,
      "Ġforward": 5523,
      "Ġvirtually": 5524,
      "Ġvirtual": 5525,
      "Ġaccommod": 5526,
      "Ġdetermined": 5527,
      "Ġpat": 5528,
      "ata": 5529,
      "Ġpound": 5530,
      "Ġsalt": 5531,
      "int": 5532,
      "oint": 5533,
      "Ġwit": 5534,
      "Ġwitness": 5535,
      "Ġliteracy": 5536,
      "ĠSecretary": 5537,
      "Ġ500": 5538,
      "500": 5539,
      "pire": 5540,
      "ĠEmpire": 5541,
      "otherap": 5542,
      "Ġsoft": 5543,
      "Ġpolice": 5544,
      "de": 5545,
      "Ph": 5546,
      "Photo": 5547,
      "Ġbroken": 5548,
      "Ġnur": 5549,
      "aur": 5550,
      "Ġourselves": 5551,
      "embl": 5552,
      "Ġmainten": 5553,
      "Ġmaintenance": 5554,
      "itting": 5555,
      "Ġsecondary": 5556,
      "ĠRegion": 5557,
      "ĠMart": 5558,
      "Ġsuitable": 5559,
      "ĠOnline": 5560,
      "Ġprop": 5561,
      "Ġconcentration": 5562,
      "teroid": 5563,
      "Ġincreasingly": 5564,
      "idden": 5565,
      "aven": 5566,
      "Ġfacult": 5567,
      "Ġkm": 5568,
      "ma": 5569,
      "abl": 5570,
      "Ġenabl": 5571,
      "Ġenorm": 5572,
      "Ġwest": 5573,
      "Ġclosely": 5574,
      "Ġevid": 5575,
      "urric": 5576,
      "DA": 5577,
      "Ġpsychological": 5578,
      "36": 5579,
      "Ġincorpor": 5580,
      "ĠHospital": 5581,
      "Ġactiv": 5582,
      "Ġcam": 5583,
      "Ġcamer": 5584,
      "Ġsoul": 5585,
      "Ġsuscept": 5586,
      "Ġbrown": 5587,
      "ĠBrown": 5588,
      "Ġcompleted": 5589,
      "ĠMed": 5590,
      "ĠMedic": 5591,
      "ĠMedicine": 5592,
      "ĠMedical": 5593,
      "Ġexamine": 5594,
      "Ġkilled": 5595,
      "izabe": 5596,
      "ĠElizabe": 5597,
      "ĠBoth": 5598,
      "mit": 5599,
      "Ġpermit": 5600,
      "Ġargue": 5601,
      "venue": 5602,
      "ĠArchive": 5603,
      "Ġchallenges": 5604,
      "Ġchallenge": 5605,
      "Ġmeasured": 5606,
      "Ġcontinues": 5607,
      "irror": 5608,
      "Ġdispos": 5609,
      "ĠJack": 5610,
      "Ġflag": 5611,
      "ĠExpl": 5612,
      "Ġlegislation": 5613,
      "Ġinten": 5614,
      "Ġcalories": 5615,
      "Ġdiagnostic": 5616,
      "Ġvulnerable": 5617,
      "heim": 5618,
      "ĠDemocratic": 5619,
      "Ġdemocratic": 5620,
      "ervices": 5621,
      "ĠServices": 5622,
      "Ġ1950": 5623,
      "Ġrailroad": 5624,
      "Ġprincipal": 5625,
      "Ġheard": 5626,
      "ĠData": 5627,
      "En": 5628,
      "Ġsong": 5629,
      "38": 5630,
      "Ġaffected": 5631,
      "Ġtwelve": 5632,
      "ope": 5633,
      "Ġphase": 5634,
      "ĠCoast": 5635,
      "ĠBrazil": 5636,
      "Ġartificial": 5637,
      "Ġcri": 5638,
      "Ġexposed": 5639,
      "ey": 5640,
      "alley": 5641,
      "ĠValley": 5642,
      "Ġvalley": 5643,
      "ery": 5644,
      "vey": 5645,
      "urvey": 5646,
      "ĠSurvey": 5647,
      "Ġprove": 5648,
      "Ġsolve": 5649,
      "Ġtwenty": 5650,
      "ĠAcademy": 5651,
      "ĠVict": 5652,
      "Ġdrain": 5653,
      "ĠIll": 5654,
      "Ġuniversity": 5655,
      "Ġsenior": 5656,
      "Ġsides": 5657,
      "Ġdecided": 5658,
      "Ġedge": 5659,
      "Ġignor": 5660,
      "Ġroutine": 5661,
      "Ġdefinite": 5662,
      "olester": 5663,
      "Ġcholester": 5664,
      "Ġcholesterol": 5665,
      "Ġengineering": 5666,
      "Ġsem": 5667,
      "Ġpoem": 5668,
      "Ġmagnitude": 5669,
      "Ġreject": 5670,
      "Ġunion": 5671,
      "EC": 5672,
      "Ġgeomet": 5673,
      "Ġproposed": 5674,
      "Ġconducted": 5675,
      "ĠJews": 5676,
      "Ġsyndrome": 5677,
      "First": 5678,
      "AC": 5679,
      "Ġ35": 5680,
      "Ġpreserved": 5681,
      "ĠViet": 5682,
      "Ġsurf": 5683,
      "Ġsurfac": 5684,
      "Ġtip": 5685,
      "equent": 5686,
      "Ġharmful": 5687,
      "ĠGrand": 5688,
      "Ġdatabase": 5689,
      "Ġste": 5690,
      "Ġstone": 5691,
      "Ġstick": 5692,
      "ĠGe": 5693,
      "ĠGeorg": 5694,
      "ĠGeorgia": 5695,
      "class": 5696,
      "ĠTheir": 5697,
      "pir": 5698,
      "irt": 5699,
      "ĠOp": 5700,
      "istric": 5701,
      "istrict": 5702,
      "ĠDistrict": 5703,
      "ĠDef": 5704,
      "urance": 5705,
      "rist": 5706,
      "Ġefforts": 5707,
      "Ġanalog": 5708,
      "tical": 5709,
      "Ġcelebr": 5710,
      "Ar": 5711,
      "ĠUp": 5712,
      "ĠRecord": 5713,
      "Ġneutral": 5714,
      "Ġplain": 5715,
      "Ġbal": 5716,
      "Ġbalance": 5717,
      "Ġband": 5718,
      "Ġrand": 5719,
      "Ġrandom": 5720,
      "ĠStand": 5721,
      "ĠStandard": 5722,
      "ĠStre": 5723,
      "ĠStreet": 5724,
      "Ġdesired": 5725,
      "ĠIndepend": 5726,
      "Ġclim": 5727,
      "Ġgall": 5728,
      "Ġdriven": 5729,
      "48": 5730,
      "Ġtherapy": 5731,
      "Ġindividuals": 5732,
      "uild": 5733,
      "Ġmuscle": 5734,
      "Ġcharge": 5735,
      "Ġfellow": 5736,
      "uzz": 5737,
      "Ġadequate": 5738,
      "Ġgluc": 5739,
      "Ġglucose": 5740,
      "Ġcalculation": 5741,
      "Ġaccum": 5742,
      "Ġaccel": 5743,
      "Ġacceler": 5744,
      "cles": 5745,
      "Ġshell": 5746,
      "Ġcriteria": 5747,
      "Ġcast": 5748,
      "Ġcand": 5749,
      "Ġcandid": 5750,
      "cope": 5751,
      "Ġrecruit": 5752,
      "Ġexplanation": 5753,
      "Ġregim": 5754,
      "stract": 5755,
      "ĠSunday": 5756,
      "Ġtropical": 5757,
      "Ġstudied": 5758,
      "vin": 5759,
      "ĠClin": 5760,
      "edition": 5761,
      "Ġedition": 5762,
      "Ġexpedition": 5763,
      "Ġexpan": 5764,
      "Ġexpansion": 5765,
      "Ġextension": 5766,
      "Ġutility": 5767,
      "Ġneeds": 5768,
      "Ġinnov": 5769,
      "Ġ300": 5770,
      "oy": 5771,
      "ploy": 5772,
      "Ġdeploy": 5773,
      "Ġclo": 5774,
      "Ġclothing": 5775,
      "emor": 5776,
      "Ġdecade": 5777,
      "ĠJustice": 5778,
      "Ġcatch": 5779,
      "Ġcert": 5780,
      "Ġhorizont": 5781,
      "Ġabstract": 5782,
      "Ġexcit": 5783,
      "itz": 5784,
      "Ġcertainly": 5785,
      "Ġeffectively": 5786,
      "Ġentirely": 5787,
      "Ġlargely": 5788,
      "ĠUnfortunately": 5789,
      "inder": 5790,
      "Ġimplications": 5791,
      "Ġbenefits": 5792,
      "ress": 5793,
      "Ġtimes": 5794,
      "Ġmethods": 5795,
      "Ġimpress": 5796,
      "ithm": 5797,
      "Ġflat": 5798,
      "Ġtransplant": 5799,
      "Ġshop": 5800,
      "oph": 5801,
      "Ġsupplement": 5802,
      "Ġpassed": 5803,
      "Ġmembran": 5804,
      "ĠWhy": 5805,
      "Ġpretty": 5806,
      "Ġrecall": 5807,
      "Ġrecip": 5808,
      "Ġrefused": 5809,
      "Ġbarri": 5810,
      "Ġmeasurements": 5811,
      "ĠAngel": 5812,
      "gov": 5813,
      "ittle": 5814,
      "ĠLat": 5815,
      "ĠLatin": 5816,
      "Ġnegoti": 5817,
      "Ġsn": 5818,
      "Ġreducing": 5819,
      "ling": 5820,
      "Cl": 5821,
      "ĠAre": 5822,
      "Ġsociet": 5823,
      "Ġpriest": 5824,
      "cape": 5825,
      "outer": 5826,
      "Ġhardware": 5827,
      "ĠMichig": 5828,
      "ĠMicha": 5829,
      "ĠMichael": 5830,
      "ai": 5831,
      "awai": 5832,
      "Ġfift": 5833,
      "ophy": 5834,
      "ĠWil": 5835,
      "ĠWood": 5836,
      "thentic": 5837,
      "que": 5838,
      "quarter": 5839,
      "icide": 5840,
      "Ġsand": 5841,
      "Ġsoci": 5842,
      "ĠJohnson": 5843,
      "ĠMinnes": 5844,
      "Ġwheel": 5845,
      "nel": 5846,
      "coln": 5847,
      "incoln": 5848,
      "ĠLincoln": 5849,
      "Ġgun": 5850,
      "Ġanxiet": 5851,
      "urrican": 5852,
      "Ġrestor": 5853,
      "Ġdeficiency": 5854,
      "Ġworkshop": 5855,
      "ago": 5856,
      "icago": 5857,
      "ĠChicago": 5858,
      "Ġvent": 5859,
      "Ġfashion": 5860,
      "Ġenormous": 5861,
      "ĠCollection": 5862,
      "ĠCambridge": 5863,
      "Ġinteresting": 5864,
      "Ġhistoric": 5865,
      "Ġabdom": 5866,
      "ĠPrin": 5867,
      "ĠVietn": 5868,
      "Ġpersonnel": 5869,
      "stronaut": 5870,
      "urt": 5871,
      "ensity": 5872,
      "Ġdensity": 5873,
      "Ġfeatures": 5874,
      "rus": 5875,
      "Ġaband": 5876,
      "Ġabandon": 5877,
      "ners": 5878,
      "Ġpartners": 5879,
      "ovascular": 5880,
      "ĠColor": 5881,
      "ĠColorad": 5882,
      "ĠPortug": 5883,
      "33": 5884,
      "ze": 5885,
      "ale": 5886,
      "Ġmere": 5887,
      "Ġmerc": 5888,
      "Ġmercury": 5889,
      "ĠCentury": 5890,
      "Ġshoot": 5891,
      "ĠMinistry": 5892,
      "ĠMartin": 5893,
      "theast": 5894,
      "Ġboundaries": 5895,
      "ĠQueen": 5896,
      "ession": 5897,
      "Ġsession": 5898,
      "Ġsacrific": 5899,
      "Ġprediction": 5900,
      "Ġbiggest": 5901,
      "Ġmainly": 5902,
      "ĠSan": 5903,
      "RI": 5904,
      "ula": 5905,
      "Ġflowers": 5906,
      "Ġdebt": 5907,
      "Ġrub": 5908,
      "Ġmerely": 5909,
      "ĠPenn": 5910,
      "apon": 5911,
      "Ġweapon": 5912,
      "ĠÂ£": 5913,
      "Ġled": 5914,
      "ied": 5915,
      "Ġburied": 5916,
      "plied": 5917,
      "Ġoccupied": 5918,
      "Ġcreative": 5919,
      "Ġcrew": 5920,
      "ĠMoreover": 5921,
      "Ġpreval": 5922,
      "ĠMr": 5923,
      "zheim": 5924,
      "ĠAlzheim": 5925,
      "Ġecological": 5926,
      "enry": 5927,
      "ĠHenry": 5928,
      "Ġmechanical": 5929,
      "Ġ150": 5930,
      "Ġthinking": 5931,
      "Ġgenerated": 5932,
      "flow": 5933,
      "Ġspecified": 5934,
      "Ġur": 5935,
      "outheast": 5936,
      "ancer": 5937,
      "ĠCancer": 5938,
      "Ġbalanc": 5939,
      "hak": 5940,
      "Ġsignificance": 5941,
      "ĠCommunity": 5942,
      "Ġpercentage": 5943,
      "ĠBank": 5944,
      "ĠUnivers": 5945,
      "Ġtim": 5946,
      "Ġvalve": 5947,
      "Ġpan": 5948,
      "Ġpanel": 5949,
      "Ġflash": 5950,
      "Ġincome": 5951,
      "ĠChief": 5952,
      "Ġcompare": 5953,
      "Ġannually": 5954,
      "Ġsurge": 5955,
      "Ġconsistent": 5956,
      "akers": 5957,
      "Ġdevot": 5958,
      "ĠWik": 5959,
      "Ġbirds": 5960,
      "Ġaccurately": 5961,
      "Ġpromote": 5962,
      "Ġallowed": 5963,
      "Ġstrang": 5964,
      "eveloper": 5965,
      "ĠExper": 5966,
      "Ġmelt": 5967,
      "habitants": 5968,
      "ĠParis": 5969,
      "Ġswe": 5970,
      "Ġsweet": 5971,
      "upreme": 5972,
      "ĠItal": 5973,
      "ĠItalian": 5974,
      "ĠItaly": 5975,
      "ians": 5976,
      "By": 5977,
      "oured": 5978,
      "Ġcombined": 5979,
      "ĠQuestion": 5980,
      "Ġexhibition": 5981,
      "vasion": 5982,
      "ogle": 5983,
      "oogle": 5984,
      "ĠGoogle": 5985,
      "particle": 5986,
      "ĠGulf": 5987,
      "ĠPost": 5988,
      "Ġoptical": 5989,
      "Ġvertical": 5990,
      "ĠNavy": 5991,
      "Ġheavi": 5992,
      "Ġblind": 5993,
      "ĠBay": 5994,
      "osaur": 5995,
      "Ġemissions": 5996,
      "raq": 5997,
      "ĠIraq": 5998,
      "Ġlaid": 5999,
      "down": 6000,
      "Ġprohibit": 6001,
      "Ġproved": 6002,
      "Ġultimately": 6003,
      "Ġnarrative": 6004,
      "ĠAlask": 6005,
      "Ġconventional": 6006,
      "Ġstore": 6007,
      "Ġlabour": 6008,
      "udio": 6009,
      "iles": 6010,
      "Ġmarg": 6011,
      "Ġofficers": 6012,
      "Re": 6013,
      "He": 6014,
      "Health": 6015,
      "health": 6016,
      "ĠVictor": 6017,
      "orough": 6018,
      "Ġthorough": 6019,
      "ĠThough": 6020,
      "ors": 6021,
      "Ġcalculated": 6022,
      "Ġbridge": 6023,
      "ĠMichigan": 6024,
      "Ġvital": 6025,
      "Ġpasseng": 6026,
      "Ġschools": 6027,
      "Ġlivestock": 6028,
      "raham": 6029,
      "ĠAbraham": 6030,
      "Ġlibr": 6031,
      "Ġlibraries": 6032,
      "Cont": 6033,
      "John": 6034,
      "Ġseems": 6035,
      "Ġinterior": 6036,
      "Ġinteract": 6037,
      "ĠSometime": 6038,
      "Ġinteractive": 6039,
      "ball": 6040,
      "ĠRock": 6041,
      "Ġshock": 6042,
      "Ġclock": 6043,
      "Ġsheet": 6044,
      "ĠPrinc": 6045,
      "Ġindicated": 6046,
      "Ġsold": 6047,
      "Ġdial": 6048,
      "ĠScott": 6049,
      "ĠScotland": 6050,
      "ĠMac": 6051,
      "Ġentertain": 6052,
      "rand": 6053,
      "ĠLand": 6054,
      "Ġpossibilities": 6055,
      "Today": 6056,
      "lor": 6057,
      "Ġchlor": 6058,
      "Ġspecim": 6059,
      "39": 6060,
      "Ġdemonstrated": 6061,
      "atever": 6062,
      "Ġwhatever": 6063,
      "Ġgenerate": 6064,
      "Ġgenerations": 6065,
      "Ġboat": 6066,
      "Ġempire": 6067,
      "Ġspl": 6068,
      "Ġsimpl": 6069,
      "Ġsimulation": 6070,
      "Ġsimult": 6071,
      "Ġshut": 6072,
      "ENT": 6073,
      "Ġgrain": 6074,
      "olk": 6075,
      "Ġapparent": 6076,
      "Ġelder": 6077,
      "Ġprescrib": 6078,
      "Ġextin": 6079,
      "Ġextinction": 6080,
      "diction": 6081,
      "ĠCor": 6082,
      "ĠCamp": 6083,
      "estival": 6084,
      "ĠPlease": 6085,
      "Ġcraft": 6086,
      "Ġcomple": 6087,
      "Ġheaven": 6088,
      "ĠAndrew": 6089,
      "Ġmodul": 6090,
      "ĠHawai": 6091,
      "Ġbreed": 6092,
      "Ġbread": 6093,
      "prof": 6094,
      "Ġexecutive": 6095,
      "Ġfasc": 6096,
      "ĠEPA": 6097,
      "Ġadults": 6098,
      "Ġshows": 6099,
      "ito": 6100,
      "ĠJackson": 6101,
      "Ġconcentrations": 6102,
      "ĠGood": 6103,
      "ĠGold": 6104,
      "ĠGovern": 6105,
      "Ġendanger": 6106,
      "Ġfle": 6107,
      "Ġchair": 6108,
      "Ġperformed": 6109,
      "Ġmolecules": 6110,
      "ĠBuddh": 6111,
      "ĠPhilipp": 6112,
      "Ġenemy": 6113,
      "Ġcapabilities": 6114,
      "Ġdisabilities": 6115,
      "Ġdisput": 6116,
      "Ġtoxic": 6117,
      "Ġcurve": 6118,
      "Ġbones": 6119,
      "Ġcircle": 6120,
      "Ġindig": 6121,
      "Ġconservative": 6122,
      "Ġtesting": 6123,
      "standing": 6124,
      "Ġvector": 6125,
      "Ġveter": 6126,
      "pot": 6127,
      "bet": 6128,
      "hio": 6129,
      "ĠOhio": 6130,
      "ĠAdam": 6131,
      "Ġcontinuous": 6132,
      "elling": 6133,
      "Ġrecept": 6134,
      "acred": 6135,
      "Ġhelpful": 6136,
      "Ġtheory": 6137,
      "ĠHol": 6138,
      "Ġtool": 6139,
      "Ġtools": 6140,
      "Ġaircraft": 6141,
      "Ġalg": 6142,
      "greg": 6143,
      "uto": 6144,
      "avig": 6145,
      "Ġnavig": 6146,
      "Ġnone": 6147,
      "cale": 6148,
      "Ġmuscles": 6149,
      "western": 6150,
      "fall": 6151,
      "Ġtail": 6152,
      "Ġintense": 6153,
      "Ġvolt": 6154,
      "Ġvoltage": 6155,
      "Ġcelebrate": 6156,
      "Ġrainfall": 6157,
      "Ġapple": 6158,
      "Ġseat": 6159,
      "Ġsat": 6160,
      "Ġsatis": 6161,
      "Ġsatisf": 6162,
      "rish": 6163,
      "ĠIrish": 6164,
      "Ġcompri": 6165,
      "ĠPri": 6166,
      "Ġscri": 6167,
      "Ġscript": 6168,
      "Ġtransmitted": 6169,
      "ĠPers": 6170,
      "Ġconsciousness": 6171,
      "Ġoccurring": 6172,
      "ĠHistorical": 6173,
      "Ġcorner": 6174,
      "Since": 6175,
      "rince": 6176,
      "AS": 6177,
      "Ġcivilization": 6178,
      "Ġsuggestion": 6179,
      "Ġhouses": 6180,
      "ociate": 6181,
      "Ġfine": 6182,
      "Ġfit": 6183,
      "Ġtrip": 6184,
      "Ġmanif": 6185,
      "Ġmanifest": 6186,
      "ĠTest": 6187,
      "Ġmath": 6188,
      "Ġprepared": 6189,
      "Ġraised": 6190,
      "Ġreflection": 6191,
      "Ġcourses": 6192,
      "Ġservant": 6193,
      "37": 6194,
      "Ġ187": 6195,
      "Ġimages": 6196,
      "Ġtransportation": 6197,
      "Ġprob": 6198,
      "Ġprobability": 6199,
      "Ġparticipate": 6200,
      "Ġaware": 6201,
      "ĠComputer": 6202,
      "herit": 6203,
      "itrogen": 6204,
      "Ġnitrogen": 6205,
      "iter": 6206,
      "Ġcoin": 6207,
      "escent": 6208,
      "olescent": 6209,
      "Ġadolescent": 6210,
      "Ġgap": 6211,
      "apt": 6212,
      "te": 6213,
      "Ġwaste": 6214,
      "At": 6215,
      "Ġquiet": 6216,
      "Ġmount": 6217,
      "Ġbow": 6218,
      "orithm": 6219,
      "Ġalgorithm": 6220,
      "emia": 6221,
      "tension": 6222,
      "mentary": 6223,
      "Ġsettlement": 6224,
      "ĠMinnesot": 6225,
      "Ġinde": 6226,
      "Ġstation": 6227,
      "Ġmedicines": 6228,
      "Ġmedication": 6229,
      "Ġemployment": 6230,
      "abric": 6231,
      "Ġfabric": 6232,
      "Ġfolk": 6233,
      "ĠSecurity": 6234,
      "ĠLeg": 6235,
      "Ġthirty": 6236,
      "Ġimplementation": 6237,
      "US": 6238,
      "UR": 6239,
      "Ġfavorite": 6240,
      "includ": 6241,
      "Ġexclud": 6242,
      "Ġpromin": 6243,
      "Ġprominent": 6244,
      "Ġpromise": 6245,
      "win": 6246,
      "Con": 6247,
      "atellites": 6248,
      "Ä«": 6249,
      "Ġmathematical": 6250,
      "ĠFigure": 6251,
      "Ġcoun": 6252,
      "Ġcaught": 6253,
      "Ġpassion": 6254,
      "ĠRoy": 6255,
      "ĠRoyal": 6256,
      "Ġpackage": 6257,
      "Ġprotest": 6258,
      "Ġlifest": 6259,
      "Ġlifestyle": 6260,
      "Ġrevi": 6261,
      "Ġreproduct": 6262,
      "Ġreproduction": 6263,
      "issues": 6264,
      "Ġtissues": 6265,
      "Ġbuff": 6266,
      "About": 6267,
      "Ġindeed": 6268,
      "Ġrecommendations": 6269,
      "34": 6270,
      "Ġchart": 6271,
      "Ġche": 6272,
      "Ġuniverse": 6273,
      "Ġuniversities": 6274,
      "Ġconversion": 6275,
      "ĠWell": 6276,
      "Ġpsychology": 6277,
      "Ġtruly": 6278,
      "Ġtruck": 6279,
      "ries": 6280,
      "esign": 6281,
      "ĠDesign": 6282,
      "Ġsharp": 6283,
      "Ġpool": 6284,
      "Ġready": 6285,
      "Ġreadily": 6286,
      "Ġgrade": 6287,
      "Ġexchange": 6288,
      "ATION": 6289,
      "Ġstead": 6290,
      "Ġemotional": 6291,
      "ĠTimes": 6292,
      "Ġhormone": 6293,
      "Ġparticipation": 6294,
      "vileg": 6295,
      "Ġprivileg": 6296,
      "band": 6297,
      "usband": 6298,
      "Ġhusband": 6299,
      "Ġhit": 6300,
      "Ġverb": 6301,
      "Ġ1930": 6302,
      "Ġconsumers": 6303,
      "Ġequally": 6304,
      "Ġbeneath": 6305,
      "Ġmentioned": 6306,
      "post": 6307,
      "see": 6308,
      "Ġdut": 6309,
      "Ġdefault": 6310,
      "habilit": 6311,
      "led": 6312,
      "nowled": 6313,
      "acknowled": 6314,
      "lia": 6315,
      "ĠParlia": 6316,
      "ĠGl": 6317,
      "Ġexperienced": 6318,
      "Ġcorrel": 6319,
      "gl": 6320,
      "Ġ45": 6321,
      "Ġadvent": 6322,
      "Ġrecommended": 6323,
      "itage": 6324,
      "ĠHeritage": 6325,
      "Ġheritage": 6326,
      "Ġpotato": 6327,
      "Ġcitizen": 6328,
      "Ġmoisture": 6329,
      "Ġways": 6330,
      "Ġremote": 6331,
      "ume": 6332,
      "ĠVolume": 6333,
      "ĠDisease": 6334,
      "Ġsubstitut": 6335,
      "Ġsubs": 6336,
      "Ġsubsequent": 6337,
      "Ġarrang": 6338,
      "Ã¨": 6339,
      "cidence": 6340,
      "Ġmammal": 6341,
      "Ġsteam": 6342,
      "Ġsteel": 6343,
      "Ġpainting": 6344,
      "Ġapproval": 6345,
      "Ġintegrated": 6346,
      "ĠSaf": 6347,
      "Ġeducators": 6348,
      "Ġclasses": 6349,
      "Ġvarieties": 6350,
      "ĠSupreme": 6351,
      "olar": 6352,
      "ĠBuild": 6353,
      "Ġconst": 6354,
      "Ġconstrain": 6355,
      "Ġturb": 6356,
      "Ġpreferred": 6357,
      "Ġtransferred": 6358,
      "Ġsought": 6359,
      "Ġconsiderable": 6360,
      "holder": 6361,
      "Ġthin": 6362,
      "ĠWord": 6363,
      "Ġshowed": 6364,
      "Ġformula": 6365,
      "velength": 6366,
      "Ġwarming": 6367,
      "Ġwavelength": 6368,
      "Ġproposal": 6369,
      "Ġcamera": 6370,
      "ase": 6371,
      "ĠModer": 6372,
      "Ġdrawn": 6373,
      "Ġcounty": 6374,
      "Ġsky": 6375,
      "Ġdemonstrate": 6376,
      "Ġstated": 6377,
      "ĠMis": 6378,
      "ĠMiss": 6379,
      "ĠMissour": 6380,
      "Ġsubsequently": 6381,
      "ario": 6382,
      "fill": 6383,
      "fulfill": 6384,
      "Ġangle": 6385,
      "Ġinform": 6386,
      "atform": 6387,
      "Ġplatform": 6388,
      "iform": 6389,
      "Ġuniform": 6390,
      "ĠUSA": 6391,
      "Ġguidance": 6392,
      "UN": 6393,
      "ĠWikip": 6394,
      "Ġcontrary": 6395,
      "ĠChapter": 6396,
      "ĠLong": 6397,
      "ĠAgain": 6398,
      "ĠColorado": 6399,
      "ĠEnd": 6400,
      "ĠConnect": 6401,
      "Ġnerv": 6402,
      "Ġnervous": 6403,
      "Ġnest": 6404,
      "Ġnan": 6405,
      "Ġnine": 6406,
      "Ġradical": 6407,
      "Ġflexible": 6408,
      "Ġ180": 6409,
      "Ġchick": 6410,
      "Once": 6411,
      "ĠForce": 6412,
      "Ġslowly": 6413,
      "Ġsick": 6414,
      "Click": 6415,
      "Ġstatist": 6416,
      "Ġmeasuring": 6417,
      "Ġmirror": 6418,
      "Ġvolunte": 6419,
      "unish": 6420,
      "Ġpunish": 6421,
      "fish": 6422,
      "Ġstuff": 6423,
      "Ġneur": 6424,
      "Ġmusical": 6425,
      "Ġevaluation": 6426,
      "Ġtun": 6427,
      "Ġtunnel": 6428,
      "unct": 6429,
      "Ġsnake": 6430,
      "Read": 6431,
      "Ġformat": 6432,
      "Ġcharacterized": 6433,
      "ĠWilson": 6434,
      "ĠDec": 6435,
      "Ġenterpri": 6436,
      "Ġlift": 6437,
      "olve": 6438,
      "Ġremoving": 6439,
      "slam": 6440,
      "ĠIslam": 6441,
      "Ġdefine": 6442,
      "rine": 6443,
      "ctrine": 6444,
      "Ġparty": 6445,
      "yright": 6446,
      "opyright": 6447,
      "ira": 6448,
      "47": 6449,
      "49": 6450,
      "46": 6451,
      "arctic": 6452,
      "ĠAntarctic": 6453,
      "ĠEffect": 6454,
      "Ġassociation": 6455,
      "arwin": 6456,
      "ĠDarwin": 6457,
      "ĠDictionary": 6458,
      "Ġ31": 6459,
      "ĠCentre": 6460,
      "Ġsupplements": 6461,
      "Ġwheat": 6462,
      "Ġdegrad": 6463,
      "ĠFish": 6464,
      "lecture": 6465,
      "Ġneglect": 6466,
      "ureau": 6467,
      "ĠBureau": 6468,
      "ãģ": 6469,
      "ij": 6470,
      "Ġscatter": 6471,
      "na": 6472,
      "thma": 6473,
      "ĠCooper": 6474,
      "Ġlayers": 6475,
      "ĠNeuro": 6476,
      "Ġsched": 6477,
      "Ġschedul": 6478,
      "Ġdivided": 6479,
      "edia": 6480,
      "ĠEncyclopedia": 6481,
      "ĠWikipedia": 6482,
      "Ġreached": 6483,
      "Ġemphasis": 6484,
      "ĠâĨĳ": 6485,
      "Ġcouncil": 6486,
      "Ġliterary": 6487,
      "Ġscar": 6488,
      "ĠOrigin": 6489,
      "emon": 6490,
      "Ġvaccines": 6491,
      "32": 6492,
      "á¸": 6493,
      "Ġpassword": 6494,
      "Ġneuron": 6495,
      "Ġcattle": 6496,
      "Ġreliable": 6497,
      "Ã±": 6498,
      "Ġrecovery": 6499,
      "Ġsuppress": 6500,
      "Ġremarkable": 6501,
      "ios": 6502,
      "phone": 6503,
      "Ġtelephone": 6504,
      "Ġgone": 6505,
      "stone": 6506,
      "rone": 6507,
      "Ġcareful": 6508,
      "espread": 6509,
      "Ġwidespread": 6510,
      "ĠMissis": 6511,
      "Ġroughly": 6512,
      "Ġsurvived": 6513,
      "Ġanxiety": 6514,
      "People": 6515,
      "Ġamaz": 6516,
      "quito": 6517,
      "osquito": 6518,
      "ĠParty": 6519,
      "ĠÂ©": 6520,
      "Ġallerg": 6521,
      "ĠPerhap": 6522,
      "Ġouter": 6523,
      "Ġdevast": 6524,
      "Ġfertiliz": 6525,
      "Ġphrase": 6526,
      "ĠMaryland": 6527,
      "Ġaren": 6528,
      "Ġcombat": 6529,
      "Ġdie": 6530,
      "ee": 6531,
      "See": 6532,
      "Ġcommittee": 6533,
      "offee": 6534,
      "eak": 6535,
      "Ġpeak": 6536,
      "ause": 6537,
      "ane": 6538,
      "Ġsimultane": 6539,
      "Ġsimultaneously": 6540,
      "Ġlose": 6541,
      "Ġwebsites": 6542,
      "Ġabnormal": 6543,
      "ĠYet": 6544,
      "ĠSafet": 6545,
      "ĠClark": 6546,
      "ethod": 6547,
      "Learn": 6548,
      "Ġpollut": 6549,
      "utism": 6550,
      "ĠOut": 6551,
      "Ġdropp": 6552,
      "istant": 6553,
      "Ġrealize": 6554,
      "Ġcommunications": 6555,
      "Ġcommunicate": 6556,
      "Ġpatent": 6557,
      "Ġdiscour": 6558,
      "Ġcoffee": 6559,
      "Ġcit": 6560,
      "Ġcer": 6561,
      "Ġceremon": 6562,
      "itially": 6563,
      "alax": 6564,
      "Ġgalax": 6565,
      "Ġrelax": 6566,
      "Ġsight": 6567,
      "ture": 6568,
      "Ġmixture": 6569,
      "Ġremind": 6570,
      "liminary": 6571,
      "Ġfever": 6572,
      "Ġrational": 6573,
      "aval": 6574,
      "ieval": 6575,
      "Ġmedieval": 6576,
      "Ġinterval": 6577,
      "arrival": 6578,
      "Ġinterfer": 6579,
      "Ġpest": 6580,
      "Ġpen": 6581,
      "Ġstopp": 6582,
      "Ġimplant": 6583,
      "Ġplate": 6584,
      "Ġscope": 6585,
      "Ġscor": 6586,
      "Ġproof": 6587,
      "OT": 6588,
      "Ġcore": 6589,
      "Ġsqu": 6590,
      "Ġofficially": 6591,
      "Ġmild": 6592,
      "cession": 6593,
      "cess": 6594,
      "Ġargues": 6595,
      "chem": 6596,
      "ches": 6597,
      "ĠReserve": 6598,
      "Ġcardi": 6599,
      "Ġcardiovascular": 6600,
      "ulatory": 6601,
      "Ġregulatory": 6602,
      "Ġregulate": 6603,
      "Ġcalculate": 6604,
      "Ġtrigger": 6605,
      "ĠHarv": 6606,
      "ĠHarvard": 6607,
      "ĠOrthodox": 6608,
      "avery": 6609,
      "Ġslavery": 6610,
      "ava": 6611,
      "Ġ1940": 6612,
      "Ġchemotherap": 6613,
      "uous": 6614,
      "ĠBlue": 6615,
      "Ġsunlight": 6616,
      "Ġrequir": 6617,
      "Ġconvey": 6618,
      "Ġtransformation": 6619,
      "Ġtransmit": 6620,
      "Ġscenario": 6621,
      "99": 6622,
      "Ġmist": 6623,
      "Ġmistake": 6624,
      "thetic": 6625,
      "ultra": 6626,
      "Ġultra": 6627,
      "rag": 6628,
      "Ġmagazine": 6629,
      "Ġfemales": 6630,
      "Ġthrow": 6631,
      "controll": 6632,
      "Ġdrugs": 6633,
      "AM": 6634,
      "Ġpossession": 6635,
      "Ġawarenes": 6636,
      "Ġsocieties": 6637,
      "Ġcenters": 6638,
      "Ġcentre": 6639,
      "Ġhearing": 6640,
      "ĠExample": 6641,
      "Ġconven": 6642,
      "Ġconqu": 6643,
      "Ġconvin": 6644,
      "Ġabilities": 6645,
      "Ġadopted": 6646,
      "Ġev": 6647,
      "Ġirrit": 6648,
      "urkey": 6649,
      "rade": 6650,
      "Ġevolutionary": 6651,
      "icides": 6652,
      "Ġpesticides": 6653,
      "icip": 6654,
      "unicip": 6655,
      "Ġanticip": 6656,
      "Ġpip": 6657,
      "Ġseparated": 6658,
      "ĠLike": 6659,
      "Ġregional": 6660,
      "Ġdrinking": 6661,
      "Ġregarding": 6662,
      "ĠPrim": 6663,
      "Ġexcav": 6664,
      "Ġidentical": 6665,
      "ĠAuthor": 6666,
      "ĠAlbert": 6667,
      "irable": 6668,
      "ĠSuper": 6669,
      "reland": 6670,
      "ĠIreland": 6671,
      "Ġindigen": 6672,
      "Ġindigenous": 6673,
      "draw": 6674,
      "arthrit": 6675,
      "Ġturned": 6676,
      "Ġregardless": 6677,
      "ĠChem": 6678,
      "Ġcontribute": 6679,
      "ographical": 6680,
      "Ġsister": 6681,
      "ĠCommand": 6682,
      "ĠReference": 6683,
      "evertheless": 6684,
      "Ġabsorption": 6685,
      "Ġthousands": 6686,
      "ĠMediter": 6687,
      "ĠMediterran": 6688,
      "ĠMediterranean": 6689,
      "eanwhile": 6690,
      "Ġevaluate": 6691,
      "Ġoperate": 6692,
      "Ġobjects": 6693,
      "yd": 6694,
      "hyd": 6695,
      "hydrate": 6696,
      "bohydrate": 6697,
      "Ġupd": 6698,
      "Ġacquired": 6699,
      "Ġconnected": 6700,
      "ĠOnly": 6701,
      "Ġlegend": 6702,
      "Ġmarried": 6703,
      "Ġcovered": 6704,
      "Ġcontrolled": 6705,
      "Ġgro": 6706,
      "Ġgrid": 6707,
      "Ġboost": 6708,
      "ĠMexican": 6709,
      "Ġdoing": 6710,
      "Ġtee": 6711,
      "Ġteeth": 6712,
      "enz": 6713,
      "Ġinfluenz": 6714,
      "CO": 6715,
      "Ġproductivity": 6716,
      "Ġbiodiver": 6717,
      "Child": 6718,
      "Ġpoetry": 6719,
      "Ġinfluential": 6720,
      "ĠOF": 6721,
      "Ġcoastal": 6722,
      "ĠDisorder": 6723,
      "Ġenlarg": 6724,
      "Ġenroll": 6725,
      "ĠField": 6726,
      "ĠCheck": 6727,
      "Ġcomplicated": 6728,
      "Ġcomplications": 6729,
      "comfort": 6730,
      "Î±": 6731,
      "Ġpathway": 6732,
      "Ġswim": 6733,
      "ĠDefense": 6734,
      "Ġsmart": 6735,
      "Ġcopper": 6736,
      "Ġurg": 6737,
      "urrency": 6738,
      "Ġuniversal": 6739,
      "Ġcommitment": 6740,
      "Ġhidden": 6741,
      "rence": 6742,
      "fare": 6743,
      "Ġcorres": 6744,
      "Ġcorrespond": 6745,
      "Ġextens": 6746,
      "Ġextensive": 6747,
      "ecutive": 6748,
      "Ġpromotion": 6749,
      "Ġobtained": 6750,
      "Ġinput": 6751,
      "Ġparlia": 6752,
      "Ġimprovement": 6753,
      "ibilities": 6754,
      "Ġresponsibilities": 6755,
      "Ġrobot": 6756,
      "ĠPhilad": 6757,
      "ĠPhiladel": 6758,
      "ĠPhiladelph": 6759,
      "ĠPhiladelphia": 6760,
      "Ġvote": 6761,
      "Ġtast": 6762,
      "ole": 6763,
      "ĠParliament": 6764,
      "cket": 6765,
      "ĠFranklin": 6766,
      "Ġembry": 6767,
      "ĠÂ»": 6768,
      "Ġformation": 6769,
      "vas": 6770,
      "vasive": 6771,
      "ĠRoad": 6772,
      "Ġdress": 6773,
      "Ġtract": 6774,
      "Ġton": 6775,
      "Ġtemporary": 6776,
      "ĠTri": 6777,
      "Ġreward": 6778,
      "ĠSub": 6779,
      "2012": 6780,
      "31": 6781,
      "Ġradioactive": 6782,
      "ges": 6783,
      "go": 6784,
      "oly": 6785,
      "ĠHoly": 6786,
      "Ġtoo": 6787,
      "ĠBo": 6788,
      "ĠBoard": 6789,
      "do": 6790,
      "ino": 6791,
      "ĠIllino": 6792,
      "ĠIllinois": 6793,
      "Ġorganis": 6794,
      "Ġaff": 6795,
      "eff": 6796,
      "ĠJeff": 6797,
      "No": 6798,
      "ivery": 6799,
      "Ġdelivery": 6800,
      "Ġcrack": 6801,
      "Ġweakness": 6802,
      "abies": 6803,
      "Ġbabies": 6804,
      "Ġtempor": 6805,
      "Ġfly": 6806,
      "Ġfault": 6807,
      "pha": 6808,
      "Ġalpha": 6809,
      "Ġimmigration": 6810,
      "44": 6811,
      "logy": 6812,
      "Ġholid": 6813,
      "Ġholiday": 6814,
      "ider": 6815,
      "ĠConsider": 6816,
      "Ġreserv": 6817,
      "Ġexcess": 6818,
      "Ġnotice": 6819,
      "Ġregularly": 6820,
      "Ġastronom": 6821,
      "Ġdeliber": 6822,
      "Ġclothe": 6823,
      "Note": 6824,
      "ĠVietnam": 6825,
      "Ġcirculation": 6826,
      "cast": 6827,
      "Ġbroadcast": 6828,
      "65": 6829,
      "Ġdivine": 6830,
      "Ġprem": 6831,
      "Ġadher": 6832,
      "ĠOreg": 6833,
      "Ġpreservation": 6834,
      "Ġupdated": 6835,
      "urrender": 6836,
      "Ġtranspar": 6837,
      "ĠÃ": 6838,
      "Ġlecture": 6839,
      "Ġpor": 6840,
      "Ġvocab": 6841,
      "Ġrates": 6842,
      "bor": 6843,
      "borne": 6844,
      "throp": 6845,
      "Ġindependently": 6846,
      "Ġprofound": 6847,
      "ana": 6848,
      "oma": 6849,
      "Ġ1989": 6850,
      "Ġtechnological": 6851,
      "foot": 6852,
      "EL": 6853,
      "Every": 6854,
      "Ġconfident": 6855,
      "Ġconfront": 6856,
      "print": 6857,
      "emble": 6858,
      "Ġadministrative": 6859,
      "Ġaccompan": 6860,
      "Ġaccompanied": 6861,
      "Ġaccompany": 6862,
      "care": 6863,
      "DF": 6864,
      "Ġcoverage": 6865,
      "Why": 6866,
      "Ġsusceptible": 6867,
      "itted": 6868,
      "Ġadmitted": 6869,
      "Ġsupporter": 6870,
      "Ġfindings": 6871,
      "Ġunemploy": 6872,
      "agg": 6873,
      "Ġ75": 6874,
      "Ġarter": 6875,
      "Ġmonitoring": 6876,
      "Ġinterpretation": 6877,
      "ĠPhys": 6878,
      "Ġprecip": 6879,
      "Ġprecipitation": 6880,
      "Ġparties": 6881,
      "Your": 6882,
      "ĠEngineer": 6883,
      "shire": 6884,
      "Ġterritories": 6885,
      "Ġhormones": 6886,
      "Ġcelebration": 6887,
      "Ġextraordinary": 6888,
      "Ġordinary": 6889,
      "Ġadverse": 6890,
      "Ġadvert": 6891,
      "vert": 6892,
      "Ġobserver": 6893,
      "Ġresponses": 6894,
      "Ġdigest": 6895,
      "ĠModern": 6896,
      "agn": 6897,
      "agnetic": 6898,
      "Ġpropag": 6899,
      "Ġbacterial": 6900,
      "Ġmoderate": 6901,
      "Ġsubstantially": 6902,
      "Ġass": 6903,
      "Ġasses": 6904,
      "Ġassign": 6905,
      "Ġassess": 6906,
      "Ġassessment": 6907,
      "Ġassistance": 6908,
      "Ġassist": 6909,
      "Ġassumption": 6910,
      "Ġassum": 6911,
      "Ġassume": 6912,
      "Ġassociate": 6913,
      "Ġassembl": 6914,
      "Ġassembly": 6915,
      "Ġassoci": 6916,
      "Ġassistant": 6917,
      "istan": 6918,
      "akistan": 6919,
      "ĠPakistan": 6920,
      "Ġassault": 6921,
      "Ġassert": 6922,
      "Ġstandards": 6923,
      "Ġabuse": 6924,
      "type": 6925,
      "Ġbooks": 6926,
      "Ġprofile": 6927,
      "Ġmyth": 6928,
      "orrow": 6929,
      "Ġbrow": 6930,
      "Ġbra": 6931,
      "iological": 6932,
      "Ġflavor": 6933,
      "Ġ978": 6934,
      "ĠNaz": 6935,
      "ĠHill": 6936,
      "Ġbreaking": 6937,
      "ĠOregon": 6938,
      "Ġmunicip": 6939,
      "ĠCorp": 6940,
      "Ġpreference": 6941,
      "ĠRepublican": 6942,
      "Ġwonderful": 6943,
      "Ġhealthcare": 6944,
      "read": 6945,
      "Ġfurn": 6946,
      "Ġfung": 6947,
      "Ġbroader": 6948,
      "Ġfairly": 6949,
      "Ġtap": 6950,
      "Ġtower": 6951,
      "rud": 6952,
      "Ġtrap": 6953,
      "Ġtrail": 6954,
      "ilot": 6955,
      "Ġpilot": 6956,
      "ĠNative": 6957,
      "rian": 6958,
      "utri": 6959,
      "utrition": 6960,
      "Ġadoption": 6961,
      "Ġdoctrine": 6962,
      "Ġcertific": 6963,
      "Ġbull": 6964,
      "Ġmakes": 6965,
      "Ġcarbohydrate": 6966,
      "Ġdrawing": 6967,
      "Ġexplore": 6968,
      "otton": 6969,
      "Ġcotton": 6970,
      "ĠLawrence": 6971,
      "Ġoccurrence": 6972,
      "rook": 6973,
      "Ġfro": 6974,
      "Ġheavily": 6975,
      "Ġchoic": 6976,
      "Ġchoices": 6977,
      "Ġstring": 6978,
      "Ġstruck": 6979,
      "Ġexecution": 6980,
      "Ġnotion": 6981,
      "Ġnoise": 6982,
      "Ġconfusion": 6983,
      "Ġflour": 6984,
      "Ġvegetation": 6985,
      "ias": 6986,
      "product": 6987,
      "Ġliterally": 6988,
      "Ġprevalence": 6989,
      "Ġimprovements": 6990,
      "Ġpresented": 6991,
      "call": 6992,
      "called": 6993,
      "ĠScientist": 6994,
      "omach": 6995,
      "Ġstomach": 6996,
      "Ġprevail": 6997,
      "Ġraw": 6998,
      "Ġfell": 6999,
      "cell": 7000,
      "logical": 7001,
      "Ġlearned": 7002,
      "uthentic": 7003,
      "Ġju": 7004,
      "ĠFund": 7005,
      "Ġinnovative": 7006,
      "Ġselected": 7007,
      "Ġproph": 7008,
      "phere": 7009,
      "Ġdecrease": 7010,
      "ĠIndones": 7011,
      "ĠIndustri": 7012,
      "ĠAdv": 7013,
      "Ġengineers": 7014,
      "Ad": 7015,
      "Ġusual": 7016,
      "Ġpul": 7017,
      "Ġsplit": 7018,
      "Ġinches": 7019,
      "Ġphenomenon": 7020,
      "Ġthread": 7021,
      "HO": 7022,
      "urder": 7023,
      "Ġmurder": 7024,
      "Ġmice": 7025,
      "aution": 7026,
      "ae": 7027,
      "Ġarchae": 7028,
      "Ġalgae": 7029,
      "Ġrarely": 7030,
      "Ġreturned": 7031,
      "Ġinflammation": 7032,
      "Ġmigration": 7033,
      "Ġpreparation": 7034,
      "Ġprescription": 7035,
      "ĠBer": 7036,
      "ĠBerlin": 7037,
      "ĠBattle": 7038,
      "Ġepis": 7039,
      "Ġmostly": 7040,
      "Ġgardens": 7041,
      "Ġrestaur": 7042,
      "veloc": 7043,
      "pon": 7044,
      "Ġoppon": 7045,
      "Ġphysically": 7046,
      "Ġfertility": 7047,
      "ĠStat": 7048,
      "ĠStatistic": 7049,
      "Ġfavour": 7050,
      "olf": 7051,
      "Ġmeal": 7052,
      "Ġera": 7053,
      "Ġerup": 7054,
      "ĠSaint": 7055,
      "Ġcomplaint": 7056,
      "Ġgram": 7057,
      "ĠAIDS": 7058,
      "Ġaudience": 7059,
      "Ġexplosion": 7060,
      "Ġfought": 7061,
      "oston": 7062,
      "ĠBoston": 7063,
      "ĠNations": 7064,
      "Ġsacred": 7065,
      "Ġcup": 7066,
      "Ġfrequencies": 7067,
      "âĪ": 7068,
      "Ġinitiative": 7069,
      "Ġroles": 7070,
      "theastern": 7071,
      "abb": 7072,
      "Ġamb": 7073,
      "Ġamend": 7074,
      "Ġcalend": 7075,
      "Ġproduces": 7076,
      "Ġproducing": 7077,
      "Ġloose": 7078,
      "Ġaccord": 7079,
      "Ġ400": 7080,
      "Ġestablishment": 7081,
      "ĠDiscover": 7082,
      "omin": 7083,
      "Ġpredomin": 7084,
      "omy": 7085,
      "Ġatom": 7086,
      "ĠSafety": 7087,
      "Ġpermitted": 7088,
      "Ġsubmitted": 7089,
      "ĠCha": 7090,
      "Ġleaves": 7091,
      "ĠOpen": 7092,
      "Ġteen": 7093,
      "ĠMethod": 7094,
      "emember": 7095,
      "ster": 7096,
      "Ġcluster": 7097,
      "Ġmyster": 7098,
      "Ġbrand": 7099,
      "Ġintens": 7100,
      "Ġintensity": 7101,
      "Ġantibodies": 7102,
      "ĠLeague": 7103,
      "ĠCro": 7104,
      "Ġherb": 7105,
      "Ġoccasionally": 7106,
      "ĠAN": 7107,
      "ĠAND": 7108,
      "Our": 7109,
      "Ġgraduate": 7110,
      "ĠJeffers": 7111,
      "ĠClick": 7112,
      "Ġresidence": 7113,
      "Ġfunding": 7114,
      "á¹": 7115,
      "Ġweeks": 7116,
      "vince": 7117,
      "Ã¦": 7118,
      "Ġcompanion": 7119,
      "Ġsupplied": 7120,
      "ĠAustri": 7121,
      "Ġvariations": 7122,
      "Ġcolonial": 7123,
      "Ġwrites": 7124,
      "Ġdeclin": 7125,
      "ĠAgricultural": 7126,
      "chemical": 7127,
      "Ġcrow": 7128,
      "Ġcrowd": 7129,
      "ĠElizabeth": 7130,
      "Ġpure": 7131,
      "05": 7132,
      "01": 7133,
      "brid": 7134,
      "Ġhybrid": 7135,
      "ĠMemor": 7136,
      "Ġcommemor": 7137,
      "roid": 7138,
      "connect": 7139,
      "car": 7140,
      "Ġpolar": 7141,
      "Ġflexibility": 7142,
      "olved": 7143,
      "aved": 7144,
      "Ġloved": 7145,
      "Ġimpression": 7146,
      "Ġelabor": 7147,
      "ĠEar": 7148,
      "ĠEarly": 7149,
      "ĠJefferson": 7150,
      "ĠNov": 7151,
      "ald": 7152,
      "Last": 7153,
      "Ġstimulate": 7154,
      "Ġinfected": 7155,
      "Ġcollected": 7156,
      "Ġshared": 7157,
      "Ġformed": 7158,
      "vad": 7159,
      "Ġbind": 7160,
      "Ġquantities": 7161,
      "Ġirreg": 7162,
      "Ġarchive": 7163,
      "Ġpup": 7164,
      "Ġrig": 7165,
      "Ġannounce": 7166,
      "Ġvocabul": 7167,
      "Ġvocabulary": 7168,
      "ĠLittle": 7169,
      "ĠPhysic": 7170,
      "ĠArtic": 7171,
      "ĠFour": 7172,
      "95": 7173,
      "ky": 7174,
      "Ġcompetitive": 7175,
      "Ġasthma": 7176,
      "2010": 7177,
      "So": 7178,
      "Ġreput": 7179,
      "Ġfiction": 7180,
      "Ġoutdo": 7181,
      "pired": 7182,
      "2011": 7183,
      "Ġrequires": 7184,
      "Ġreplaced": 7185,
      "Ġannounced": 7186,
      "ilitary": 7187,
      "Ġsummary": 7188,
      "Ġstimul": 7189,
      "profit": 7190,
      "Ġcond": 7191,
      "men": 7192,
      "Ġpocket": 7193,
      "Under": 7194,
      "ougl": 7195,
      "Ġexcessive": 7196,
      "Ġtowards": 7197,
      "Ġblow": 7198,
      "Ġsharing": 7199,
      "Ġgreatly": 7200,
      "Ġanywhere": 7201,
      "Ġfourth": 7202,
      "Ġquantity": 7203,
      "Ġquantum": 7204,
      "velocity": 7205,
      "Ġagreed": 7206,
      "iant": 7207,
      "Ġgiant": 7208,
      "ĠDespite": 7209,
      "Ġafford": 7210,
      "Ġequality": 7211,
      "uscript": 7212,
      "Ġmanuscript": 7213,
      "Ġmanip": 7214,
      "ced": 7215,
      "Ġforced": 7216,
      "editor": 7217,
      "Ġeditor": 7218,
      "Ġdetailed": 7219,
      "Ġdetails": 7220,
      "lands": 7221,
      "bodi": 7222,
      "acco": 7223,
      "bacco": 7224,
      "ĠRos": 7225,
      "Ġcollaboration": 7226,
      "ĠThank": 7227,
      "Ġchip": 7228,
      "ronounc": 7229,
      "amination": 7230,
      "Ġcontamination": 7231,
      "Ġimpair": 7232,
      "Ġguar": 7233,
      "Ġguarant": 7234,
      "Ġeliminate": 7235,
      "Ġdecor": 7236,
      "Ġdecay": 7237,
      "ĠMaterial": 7238,
      "ht": 7239,
      "htm": 7240,
      "html": 7241,
      "tle": 7242,
      "Ġhappiness": 7243,
      "Ġhappy": 7244,
      "Ġ1920": 7245,
      "Ġbibl": 7246,
      "Ġsuspend": 7247,
      "Ġexpend": 7248,
      "nesday": 7249,
      "Ġcriticism": 7250,
      "ĠWithout": 7251,
      "runk": 7252,
      "Ġdominant": 7253,
      "Ġaffirm": 7254,
      "Ġsaved": 7255,
      "ĠMoon": 7256,
      "bon": 7257,
      "Ġhurrican": 7258,
      "ĠPhilos": 7259,
      "ĠPhilosophy": 7260,
      "Ġshadow": 7261,
      "EM": 7262,
      "Ġconvinced": 7263,
      "Ġcopies": 7264,
      "Ġclimb": 7265,
      "ĠRespon": 7266,
      "ĠWrit": 7267,
      "Ġremained": 7268,
      "Ġremains": 7269,
      "Ġfoss": 7270,
      "Ġfossil": 7271,
      "Ġfoster": 7272,
      "Ġresemble": 7273,
      "ĠChristianity": 7274,
      "Ġmyself": 7275,
      "ĠMissouri": 7276,
      "conduct": 7277,
      "ĠArticle": 7278,
      "Ġabundant": 7279,
      "Ġinternet": 7280,
      "Ġsalmon": 7281,
      "ĠFather": 7282,
      "Ġfeather": 7283,
      "ental": 7284,
      "Ġsail": 7285,
      "ifth": 7286,
      "Ġfifth": 7287,
      "traction": 7288,
      "haust": 7289,
      "Ġexhaust": 7290,
      "Ġexer": 7291,
      "Ġexerc": 7292,
      "Ġexercis": 7293,
      "ĠBehavi": 7294,
      "Ġabundance": 7295,
      "CR": 7296,
      "ĠAmaz": 7297,
      "Ġstatistical": 7298,
      "odium": 7299,
      "ĠMod": 7300,
      "ĠModel": 7301,
      "Ġreproductive": 7302,
      "Ġves": 7303,
      "Ġvess": 7304,
      "Ġvessel": 7305,
      "Ġparts": 7306,
      "Ġintroduction": 7307,
      "Ġinfectious": 7308,
      "BC": 7309,
      "Be": 7310,
      "Before": 7311,
      "Ġmeasurement": 7312,
      "Ġmeasures": 7313,
      "Ġspray": 7314,
      "Ġdeveloper": 7315,
      "utch": 7316,
      "ĠDutch": 7317,
      "telligent": 7318,
      "carbon": 7319,
      "ĠLiter": 7320,
      "Ġpractition": 7321,
      "odd": 7322,
      "Ġclinic": 7323,
      "Ġhandle": 7324,
      "imal": 7325,
      "ĠAnimal": 7326,
      "ĠFollow": 7327,
      "ĠFin": 7328,
      "ĠFinally": 7329,
      "aturday": 7330,
      "uesday": 7331,
      "Ġeveryday": 7332,
      "ĠMonday": 7333,
      "Ġclassified": 7334,
      "ique": 7335,
      "ĠSte": 7336,
      "ĠSteph": 7337,
      "ingredient": 7338,
      "Ġingredient": 7339,
      "Ġdifferences": 7340,
      "Ġcosts": 7341,
      "Ġoccurs": 7342,
      "Ġfarmers": 7343,
      "Ġweigh": 7344,
      "Ġmanufacturers": 7345,
      "197": 7346,
      "Ġachievement": 7347,
      "ĠFact": 7348,
      "ecast": 7349,
      "Ġoutcome": 7350,
      "Ġfailed": 7351,
      "Ġconcrete": 7352,
      "ĠTemple": 7353,
      "usual": 7354,
      "Ġunusual": 7355,
      "ritual": 7356,
      "writ": 7357,
      "Ġcryst": 7358,
      "Ġroute": 7359,
      "Ġappe": 7360,
      "Ġappeal": 7361,
      "Ġcatal": 7362,
      "Ġminority": 7363,
      "onym": 7364,
      "inosaur": 7365,
      "ĠTime": 7366,
      "ĠFree": 7367,
      "ĠMain": 7368,
      "ĠFri": 7369,
      "ĠFriday": 7370,
      "Ġimagine": 7371,
      "eline": 7372,
      "Ġurine": 7373,
      "atitis": 7374,
      "rat": 7375,
      "ĠDemocrat": 7376,
      "Ġerect": 7377,
      "Ġstarting": 7378,
      "Ġsurfaces": 7379,
      "Ġcomprom": 7380,
      "Ġcompens": 7381,
      "Ġcompil": 7382,
      "Ġboil": 7383,
      "Ġleaders": 7384,
      "Ġ65": 7385,
      "dict": 7386,
      "ĠAtt": 7387,
      "ĠAri": 7388,
      "ĠAriz": 7389,
      "ĠArizon": 7390,
      "Ġcutt": 7391,
      "Ġcutting": 7392,
      "Ġapproaches": 7393,
      "Gen": 7394,
      "General": 7395,
      "Ġirregular": 7396,
      "Ġvariation": 7397,
      "Ħ¢": 7398,
      "âĦ¢": 7399,
      "Ġothers": 7400,
      "Ġitems": 7401,
      "sect": 7402,
      "Ġinsect": 7403,
      "Ġdinosaur": 7404,
      "Ġdependent": 7405,
      "ĠPlant": 7406,
      "Ġdistant": 7407,
      "Ġcrime": 7408,
      "Ġhill": 7409,
      "Ġcollision": 7410,
      "Ġscore": 7411,
      "Ġempt": 7412,
      "Ġproven": 7413,
      "Ġyard": 7414,
      "ĠBetween": 7415,
      "une": 7416,
      "ĠBlood": 7417,
      "Ġampl": 7418,
      "Ġven": 7419,
      "Ġhaven": 7420,
      "ĠApple": 7421,
      "ĠAppro": 7422,
      "Ġcheap": 7423,
      "Ġdefe": 7424,
      "Ġpig": 7425,
      "ĠCurrent": 7426,
      "ĠForest": 7427,
      "ĠFort": 7428,
      "forest": 7429,
      "Ġpursue": 7430,
      "everal": 7431,
      "Ġtension": 7432,
      "Ġmosquito": 7433,
      "Ġglac": 7434,
      "Ġcompli": 7435,
      "plication": 7436,
      "Ġworry": 7437,
      "Ġworst": 7438,
      "rice": 7439,
      "Ġrice": 7440,
      "uke": 7441,
      "pe": 7442,
      "ĠPolic": 7443,
      "ĠPolicy": 7444,
      "Ġconj": 7445,
      "Ġconjunction": 7446,
      "Ġ36": 7447,
      "ĠIslamic": 7448,
      "Ġsubmit": 7449,
      "comes": 7450,
      "Ġoutcomes": 7451,
      "Ġteles": 7452,
      "Ġtelescope": 7453,
      "Ġreverse": 7454,
      "Ġrose": 7455,
      "Ġeverywhere": 7456,
      "Ġpleasure": 7457,
      "Ġanniver": 7458,
      "Ġcalendar": 7459,
      "Ġneighbour": 7460,
      "Ġcollapse": 7461,
      "Ġrow": 7462,
      "ĠElectronic": 7463,
      "ĠOrder": 7464,
      "Ġframe": 7465,
      "Ġfluor": 7466,
      "Ġtendency": 7467,
      "Ġcontains": 7468,
      "aker": 7469,
      "Ġsulf": 7470,
      "Ġparticipants": 7471,
      "ĠAncient": 7472,
      "Ġadjac": 7473,
      "Ġfulfill": 7474,
      "Ġest": 7475,
      "Ġ.": 7476,
      "Ġstructural": 7477,
      "Ġritual": 7478,
      "Ġodd": 7479,
      "Ġactivi": 7480,
      "ĠâĢ¦": 7481,
      "Ġparticle": 7482,
      "Ġance": 7483,
      "Ġancest": 7484,
      "Ġancestors": 7485,
      "ili": 7486,
      "Ġprovin": 7487,
      "Ġprovinces": 7488,
      "Ġsurviv": 7489,
      "apping": 7490,
      "Ġwear": 7491,
      "PS": 7492,
      "world": 7493,
      "ĠWall": 7494,
      "ĠSpecies": 7495,
      "ĠÎ": 7496,
      "wealth": 7497,
      "Ġacknowled": 7498,
      "iment": 7499,
      "Ġshark": 7500,
      "Ġlifetime": 7501,
      "berries": 7502,
      "amber": 7503,
      "Ġchamber": 7504,
      "Ġplus": 7505,
      "Ġsupposed": 7506,
      "Ġindustries": 7507,
      "Ġdestroyed": 7508,
      "ĠIran": 7509,
      "Ġteens": 7510,
      "Ġspecimens": 7511,
      "Ġlens": 7512,
      "Children": 7513,
      "scape": 7514,
      "Ġlandscape": 7515,
      "acebook": 7516,
      "ene": 7517,
      "ether": 7518,
      "ĠChange": 7519,
      "ĠMount": 7520,
      "Ġhousing": 7521,
      "Over": 7522,
      "ĠArchitect": 7523,
      "rilliant": 7524,
      "auc": 7525,
      "Ġadjacent": 7526,
      "ĠThird": 7527,
      "ĠPoint": 7528,
      "Ġcloser": 7529,
      "Ġclosed": 7530,
      "Ġcareer": 7531,
      "Ġarrival": 7532,
      "Ġens": 7533,
      "Ġru": 7534,
      "Ġmerch": 7535,
      "itivity": 7536,
      "Ġsensitivity": 7537,
      "ativity": 7538,
      "ĠEducational": 7539,
      "Through": 7540,
      "OS": 7541,
      "Ġinvestigation": 7542,
      "Ġresulting": 7543,
      "Even": 7544,
      "ĠMill": 7545,
      "Ġescape": 7546,
      "IG": 7547,
      "IL": 7548,
      "Ġgraphic": 7549,
      "Ġsmo": 7550,
      "Ġsmooth": 7551,
      "Ġcris": 7552,
      "Ġcrisis": 7553,
      "Ġsovereign": 7554,
      "Ġsequ": 7555,
      "Ġsin": 7556,
      "Ġsu": 7557,
      "Ġsuicide": 7558,
      "Ġsell": 7559,
      "efin": 7560,
      "Ġshield": 7561,
      "Ġshallow": 7562,
      "Ġminute": 7563,
      "ĠRelig": 7564,
      "Ġconfig": 7565,
      "Ġconfigur": 7566,
      "eries": 7567,
      "ĠAlzheimer": 7568,
      "otechnolog": 7569,
      "Ġsmoke": 7570,
      "Ð°": 7571,
      "Ġcharacteristics": 7572,
      "verse": 7573,
      "Ġlock": 7574,
      "ĠAsian": 7575,
      "Ġcommod": 7576,
      "Ġgeographic": 7577,
      "ĠCaptain": 7578,
      "ĠPaper": 7579,
      "Ġtrick": 7580,
      "Ġdeleg": 7581,
      "Ġvac": 7582,
      "Ġactivist": 7583,
      "ston": 7584,
      "Ġstatements": 7585,
      "Ġcelebrated": 7586,
      "Ġjuice": 7587,
      "ĠSam": 7588,
      "ĠSamuel": 7589,
      "Ġbattery": 7590,
      "Ġbatteries": 7591,
      "ĠClinical": 7592,
      "ĠNumber": 7593,
      "Ġlic": 7594,
      "Ġlicens": 7595,
      "Ġlicense": 7596,
      "Ġallows": 7597,
      "Ġsaying": 7598,
      "ulpt": 7599,
      "Ġsculpt": 7600,
      "Ġscr": 7601,
      "ĠLearning": 7602,
      "ĠPolit": 7603,
      "onald": 7604,
      "Ġenforcement": 7605,
      "Ġunderground": 7606,
      "Ġensuring": 7607,
      "unk": 7608,
      "Ġphos": 7609,
      "Ġphosph": 7610,
      "ĠMos": 7611,
      "Ġvideos": 7612,
      "Ġtreas": 7613,
      "yroid": 7614,
      "Ġthyroid": 7615,
      "ML": 7616,
      "arthritis": 7617,
      "Ġalarm": 7618,
      "Ġholy": 7619,
      "Student": 7620,
      "National": 7621,
      "Ġeruption": 7622,
      "Ġpatterns": 7623,
      "**": 7624,
      "ologically": 7625,
      "Ġguarantee": 7626,
      "Ġportray": 7627,
      "Ġmouse": 7628,
      "Ġsurpris": 7629,
      "Ġsurprise": 7630,
      "ĠGovernor": 7631,
      "ĠMor": 7632,
      "wers": 7633,
      "Ġcandidates": 7634,
      "Ġcandidate": 7635,
      "Ġsubsid": 7636,
      "Ġresid": 7637,
      "Ġresolve": 7638,
      "ĠEgyptian": 7639,
      "ĠHall": 7640,
      "iplinary": 7641,
      "Ġwireless": 7642,
      "Ġbishop": 7643,
      "ĠMake": 7644,
      "Ġundergo": 7645,
      "Ġfract": 7646,
      "ĠPract": 7647,
      "Ġinterested": 7648,
      "rater": 7649,
      "ĠProtest": 7650,
      "ĠGuard": 7651,
      "Ġviolent": 7652,
      "ynast": 7653,
      "forced": 7654,
      "Ġstrongly": 7655,
      "Ġsustainability": 7656,
      "Ġatmospheric": 7657,
      "Ġexpressed": 7658,
      "Ġcolonies": 7659,
      "Ġplot": 7660,
      "ĠDoctor": 7661,
      "Ġstood": 7662,
      "stood": 7663,
      "Ġunderstood": 7664,
      "ĠAdd": 7665,
      "add": 7666,
      "ĠRad": 7667,
      "Ġburd": 7668,
      "Ġlin": 7669,
      "Ġlinear": 7670,
      "Ġtextbook": 7671,
      "spaper": 7672,
      "Ġnewspaper": 7673,
      "Ġbear": 7674,
      "aria": 7675,
      "Ġmalaria": 7676,
      "Ġmales": 7677,
      "Ġboundary": 7678,
      "presentative": 7679,
      "Ġblank": 7680,
      "Å¡": 7681,
      "Ġalleg": 7682,
      "ĠTradition": 7683,
      "ĠPrize": 7684,
      "Ġdialect": 7685,
      "Ġdialogue": 7686,
      "Ġbarrel": 7687,
      "Ġicon": 7688,
      "Ġhole": 7689,
      "including": 7690,
      "Ġlaws": 7691,
      "ĠAss": 7692,
      "ĠAssembly": 7693,
      "ĠPerson": 7694,
      "Ġorganizations": 7695,
      "Ġappears": 7696,
      "Ġappeared": 7697,
      "Ġmiss": 7698,
      "Ġjur": 7699,
      "Ġjuris": 7700,
      "Ġjurisdiction": 7701,
      "Ġcomponents": 7702,
      "rm": 7703,
      "Ġwithdraw": 7704,
      "ediatric": 7705,
      "ebrate": 7706,
      "ĠPal": 7707,
      "ĠPalest": 7708,
      "Ġparas": 7709,
      "Ġaccepted": 7710,
      "Ġtroops": 7711,
      "third": 7712,
      "aylor": 7713,
      "Ġexplic": 7714,
      "Ġexplicit": 7715,
      "Ġdiscipline": 7716,
      "Ġrising": 7717,
      "Ġcontaining": 7718,
      "Ġachieving": 7719,
      "Ġkne": 7720,
      "Ġzer": 7721,
      "Ġzero": 7722,
      "Ġzones": 7723,
      "Ġofficer": 7724,
      "osevel": 7725,
      "ĠRoosevel": 7726,
      "Ġrecre": 7727,
      "Ġfib": 7728,
      "function": 7729,
      "ĠGra": 7730,
      "ĠMy": 7731,
      "Ġdy": 7732,
      "ony": 7733,
      "Ġduty": 7734,
      "Ġduties": 7735,
      "Ġfaculty": 7736,
      "Ġdemocracy": 7737,
      "Ġaspects": 7738,
      "Ġseg": 7739,
      "ĠPrinciple": 7740,
      "Christ": 7741,
      "Ġqualities": 7742,
      "Ġ1988": 7743,
      "88": 7744,
      "08": 7745,
      "Ġdepending": 7746,
      "Ġcompletion": 7747,
      "ette": 7748,
      "ĠType": 7749,
      "Ġfriends": 7750,
      "ologists": 7751,
      "osm": 7752,
      "Ġcosm": 7753,
      "ifies": 7754,
      "Ġvaries": 7755,
      "Ġgalaxies": 7756,
      "atri": 7757,
      "ĠConstant": 7758,
      "ologic": 7759,
      "Artic": 7760,
      "Ġapplies": 7761,
      "Ġelementary": 7762,
      "Ġbio": 7763,
      "Ġbiom": 7764,
      "Ġnet": 7765,
      "Ġphones": 7766,
      "Ġstones": 7767,
      "Ġsynthetic": 7768,
      "Ġalign": 7769,
      "fficiency": 7770,
      "Ġexploit": 7771,
      "ĠVer": 7772,
      "ĠVi": 7773,
      "ĠView": 7774,
      "Her": 7775,
      "Here": 7776,
      "Ġscene": 7777,
      "Ġillegal": 7778,
      "ordination": 7779,
      "Please": 7780,
      "Ġancestr": 7781,
      "Ġmethan": 7782,
      "oney": 7783,
      "Ġhoney": 7784,
      "auty": 7785,
      "Ġbeauty": 7786,
      "racy": 7787,
      "Ġburden": 7788,
      "Ġpriority": 7789,
      "pace": 7790,
      "Ġcomfortable": 7791,
      "III": 7792,
      "Ġtaste": 7793,
      "Ġsodium": 7794,
      "ownload": 7795,
      "Ġlie": 7796,
      "Ġrival": 7797,
      "rash": 7798,
      "Ġcrash": 7799,
      "urk": 7800,
      "ĠTurk": 7801,
      "author": 7802,
      "Ġsuggested": 7803,
      "Ġsuggests": 7804,
      "Ġextended": 7805,
      "Ġdeclared": 7806,
      "Ġeleph": 7807,
      "ĠExecutive": 7808,
      "Ġvaccination": 7809,
      "box": 7810,
      "Ġdiscussed": 7811,
      "Ġoffered": 7812,
      "Ġattached": 7813,
      "World": 7814,
      "Ġmonkey": 7815,
      "Ġextinct": 7816,
      "Ġqualified": 7817,
      "inter": 7818,
      "Ġvoter": 7819,
      "vapor": 7820,
      "owder": 7821,
      "Ġpowder": 7822,
      "ippi": 7823,
      "ĠTech": 7824,
      "Ġherself": 7825,
      "Ġconsumer": 7826,
      "Ġreign": 7827,
      "Ġlinked": 7828,
      "ĠHealthwise": 7829,
      "Ġcrown": 7830,
      "Ġcow": 7831,
      "Ġswallow": 7832,
      "Ġcensus": 7833,
      "ara": 7834,
      "ament": 7835,
      "ĠTestament": 7836,
      "Ġsmell": 7837,
      "Ġcrystal": 7838,
      "Ġmarch": 7839,
      "Ġmonarch": 7840,
      "Ġmig": 7841,
      "Ġmigr": 7842,
      "Ġseal": 7843,
      "Ġwine": 7844,
      "Ġaccused": 7845,
      "Ġconfused": 7846,
      "Ġprivacy": 7847,
      "orth": 7848,
      "worth": 7849,
      "Ġminimize": 7850,
      "izz": 7851,
      "ridges": 7852,
      "Ġwages": 7853,
      "Ġpredators": 7854,
      "Ġevident": 7855,
      "rie": 7856,
      "Ġretrie": 7857,
      "Ġterri": 7858,
      "Ġinvent": 7859,
      "Ġpurchase": 7860,
      "Ġvariability": 7861,
      "Ð¾": 7862,
      "fection": 7863,
      "ĠCorpor": 7864,
      "Ġpoints": 7865,
      "Ġremaining": 7866,
      "Ġstored": 7867,
      "ĠWeek": 7868,
      "ifying": 7869,
      "Ġstable": 7870,
      "Ġunable": 7871,
      "Ġunf": 7872,
      "Ġrevealed": 7873,
      "lfare": 7874,
      "Ġwelfare": 7875,
      "tol": 7876,
      "Ġcru": 7877,
      "rustr": 7878,
      "Ġcord": 7879,
      "Ġdetermination": 7880,
      "Ġdifficulty": 7881,
      "Ġdifficulties": 7882,
      "Ġlies": 7883,
      "Ġtight": 7884,
      "Ġtall": 7885,
      "night": 7886,
      "Ġchar": 7887,
      "Ġchest": 7888,
      "Ġinfluenza": 7889,
      "Ġfracture": 7890,
      "rove": 7891,
      "rol": 7892,
      "Ġjudgment": 7893,
      "Ġchose": 7894,
      "Ġchoos": 7895,
      "Ġrestore": 7896,
      "Ġincident": 7897,
      "ĠSimilar": 7898,
      "adder": 7899,
      "Ġbladder": 7900,
      "Ġharder": 7901,
      "itarian": 7902,
      "itative": 7903,
      "upiter": 7904,
      "Ġoldest": 7905,
      "ĠLouisian": 7906,
      "ĠPhysical": 7907,
      "imeter": 7908,
      "emeter": 7909,
      "Ġowner": 7910,
      "Ġownership": 7911,
      "Ġessence": 7912,
      "Ġplent": 7913,
      "Ġsemi": 7914,
      "ste": 7915,
      "stein": 7916,
      "Ġgravity": 7917,
      "Ġdisciple": 7918,
      "Ġvolunteers": 7919,
      "astname": 7920,
      "Ġrecorded": 7921,
      "Ġrecords": 7922,
      "ished": 7923,
      "Ġempty": 7924,
      "Ġhurt": 7925,
      "Ġstake": 7926,
      "Ġstations": 7927,
      "Ġstakeholder": 7928,
      "Ġbigger": 7929,
      "Ġcatastro": 7930,
      "aud": 7931,
      "Ġfixed": 7932,
      "Ġdipl": 7933,
      "ĠAlaska": 7934,
      "Ġvirtue": 7935,
      "cus": 7936,
      "cussion": 7937,
      "Just": 7938,
      "Ġallowing": 7939,
      "Ġlegislature": 7940,
      "Ġsurgical": 7941,
      "CC": 7942,
      "Ġflower": 7943,
      "ĠAlexander": 7944,
      "ĠUnit": 7945,
      "Ġ:": 7946,
      "Ġed": 7947,
      "Ġedit": 7948,
      "Ġedges": 7949,
      "Ġly": 7950,
      "Ġlym": 7951,
      "Ġlymph": 7952,
      "Ġran": 7953,
      "blem": 7954,
      "ĠProblem": 7955,
      "Ġjoined": 7956,
      "ĠNether": 7957,
      "ĠNetherlands": 7958,
      "Ġabroad": 7959,
      "ĠNobel": 7960,
      "Ġvictory": 7961,
      "abama": 7962,
      "ĠAlabama": 7963,
      "Ġdiagnosed": 7964,
      "atrix": 7965,
      "ĠTreatment": 7966,
      "ĠDrug": 7967,
      "Ġprimitive": 7968,
      "Ġwanted": 7969,
      "Despite": 7970,
      "ĠResource": 7971,
      "Source": 7972,
      "Ġsuspic": 7973,
      "Ġreef": 7974,
      "Ġpublication": 7975,
      "Ġcooperation": 7976,
      "196": 7977,
      "Ġforms": 7978,
      "Ġconvenient": 7979,
      "ĠFair": 7980,
      "ĠFacebook": 7981,
      "Ġtranslation": 7982,
      "Ġexplained": 7983,
      "ĠMedia": 7984,
      "Åį": 7985,
      "min": 7986,
      "ĠSeveral": 7987,
      "iego": 7988,
      "Copyright": 7989,
      "Ġprojects": 7990,
      "Ġconcerned": 7991,
      "Ġrab": 7992,
      "Ġrac": 7993,
      "ĠWal": 7994,
      "Ġpunishment": 7995,
      "Ġreplacement": 7996,
      "DC": 7997,
      "Ġobst": 7998,
      "ĠTransport": 7999,
      "ĠSeattle": 8000,
      "lean": 8001,
      "lerance": 8002,
      "Ġintellectual": 8003,
      "Ġbrush": 8004,
      "2000": 8005,
      "07": 8006,
      "09": 8007,
      "06": 8008,
      "Ġrepeat": 8009,
      "Researchers": 8010,
      "Ġtimber": 8011,
      "Ġopponent": 8012,
      "Sh": 8013,
      "Ġentit": 8014,
      "Ġentitled": 8015,
      "Ġparad": 8016,
      "Ġsmoking": 8017,
      "test": 8018,
      "cons": 8019,
      "conscious": 8020,
      "Ġinstitutions": 8021,
      "04": 8022,
      "Ġclub": 8023,
      "ĠUnlike": 8024,
      "Ġcampus": 8025,
      "rmal": 8026,
      "Ġnice": 8027,
      "roud": 8028,
      "rance": 8029,
      "Ġentrance": 8030,
      "electric": 8031,
      "Ġtrace": 8032,
      "Ġtraum": 8033,
      "Ġfestival": 8034,
      "ĠIndex": 8035,
      "Ġsitting": 8036,
      "Ġnumbers": 8037,
      "ĠMinnesota": 8038,
      "Ġwider": 8039,
      "Ġtried": 8040,
      "uther": 8041,
      "Ġexpertise": 8042,
      "?\"": 8043,
      "Ġhall": 8044,
      "Ġhang": 8045,
      "Ġmanufacture": 8046,
      "Ġmanufactured": 8047,
      "Ġgar": 8048,
      "Ġfrustr": 8049,
      "ĠGard": 8050,
      "Ġspoken": 8051,
      "Ġwrap": 8052,
      "Ġethical": 8053,
      "Ġprinciples": 8054,
      "mail": 8055,
      "Ġdistress": 8056,
      "Ġdisrupt": 8057,
      "TML": 8058,
      "aneous": 8059,
      "ĠMajor": 8060,
      "Ġpersonality": 8061,
      "ĠArizona": 8062,
      "ĠZe": 8063,
      "ĠZeal": 8064,
      "ĠZealand": 8065,
      "acob": 8066,
      "ĠJacob": 8067,
      "Ġstores": 8068,
      "usiness": 8069,
      "Ġaris": 8070,
      "Ġarise": 8071,
      "Ġarbit": 8072,
      "55": 8073,
      "raction": 8074,
      "Ġdivers": 8075,
      "Ġdiversity": 8076,
      "ĠProtocol": 8077,
      "Ġtransaction": 8078,
      "Ġreduces": 8079,
      "03": 8080,
      "02": 8081,
      "Ġenemies": 8082,
      "Ġintelligence": 8083,
      "ĠRights": 8084,
      "Ġtriang": 8085,
      "cal": 8086,
      "ocal": 8087,
      "ĠSpecific": 8088,
      "ierarch": 8089,
      "Ġcommitted": 8090,
      "Ġfilled": 8091,
      "Ġlegislative": 8092,
      "Ġloop": 8093,
      "Ġloan": 8094,
      "ĠPortugues": 8095,
      "Ġusage": 8096,
      "ĠPage": 8097,
      "ĠPeace": 8098,
      "osome": 8099,
      "Ġchromosome": 8100,
      "Ġdietary": 8101,
      "Ġstability": 8102,
      "Ġdisability": 8103,
      "Ġopposed": 8104,
      "AP": 8105,
      "ĠLet": 8106,
      "Ġgrave": 8107,
      "Ġexperts": 8108,
      "rhe": 8109,
      "ĠProceed": 8110,
      "ĠProcess": 8111,
      "ĠProduct": 8112,
      "Ġplenty": 8113,
      "Ġ1986": 8114,
      "Ġ1987": 8115,
      "76": 8116,
      "Ġrein": 8117,
      "Ġreinforce": 8118,
      "umin": 8119,
      "Ġtin": 8120,
      "Ġtiny": 8121,
      "Ġdense": 8122,
      "Ġexpense": 8123,
      "Ġhung": 8124,
      "Ġhierarch": 8125,
      "ĠArg": 8126,
      "opath": 8127,
      "Ġovercome": 8128,
      "ĠPractice": 8129,
      "Ġrect": 8130,
      "ypes": 8131,
      "ĠQual": 8132,
      "Ġdestination": 8133,
      "ĠKorea": 8134,
      "ĠKorean": 8135,
      "Ġsensors": 8136,
      "ĠBuddha": 8137,
      "Ġdebri": 8138,
      "Ġperceived": 8139,
      "apor": 8140,
      "Ġvapor": 8141,
      "Ġtrait": 8142,
      "iography": 8143,
      "43": 8144,
      "Ġpupil": 8145,
      "Ġclassical": 8146,
      "Ġyounger": 8147,
      "ĠJo": 8148,
      "ongo": 8149,
      "Ġongo": 8150,
      "Ġongoing": 8151,
      "ongue": 8152,
      "Ġtongue": 8153,
      "Ġvelocity": 8154,
      "Ġabor": 8155,
      "mar": 8156,
      "Ġgrammar": 8157,
      "Ġscrap": 8158,
      "Ġtea": 8159,
      "42": 8160,
      "Ġ32": 8161,
      "Ġuncertainty": 8162,
      "Ġcomplain": 8163,
      "ĠPhilip": 8164,
      "Im": 8165,
      "Ġprisoners": 8166,
      "Ġformal": 8167,
      "Ġabortion": 8168,
      "Ġconsensus": 8169,
      "Ġcapability": 8170,
      "Ġrecipient": 8171,
      "Ġorient": 8172,
      "lastname": 8173,
      "Ġcave": 8174,
      "ĠHave": 8175,
      "ĠHel": 8176,
      "Ġcontaminated": 8177,
      "CE": 8178,
      "Ġsuffering": 8179,
      "41": 8180,
      "ĠOften": 8181,
      "Ġawareness": 8182,
      "Ġconstantly": 8183,
      "romagnetic": 8184,
      "Ġturt": 8185,
      "yndrom": 8186,
      "Ġdict": 8187,
      "ervatory": 8188,
      "ĠJava": 8189,
      "Ġ`": 8190,
      "Ġdiplom": 8191,
      "ĠAdditionally": 8192,
      "Ġdeficit": 8193,
      "cretion": 8194,
      "amine": 8195,
      "ĠSection": 8196,
      "Ġwhites": 8197,
      "Ġthresh": 8198,
      "Ġthreshold": 8199,
      "teg": 8200,
      "tegrit": 8201,
      "ifact": 8202,
      "Ġartifact": 8203,
      "ĠKey": 8204,
      "ĠJer": 8205,
      "ĠJerus": 8206,
      "ĠJerusal": 8207,
      "ĠJerusalem": 8208,
      "merg": 8209,
      "mergency": 8210,
      "Ġinvolvement": 8211,
      "Ġelected": 8212,
      "Ġshowing": 8213,
      "Ġalphabet": 8214,
      "Ġtests": 8215,
      "ĠDavi": 8216,
      "Ġhappened": 8217,
      "Ġrealized": 8218,
      "eep": 8219,
      "ĠKeep": 8220,
      "Ġholes": 8221,
      "Ġproducers": 8222,
      "ĠIN": 8223,
      "2008": 8224,
      "2009": 8225,
      "restri": 8226,
      "Ġterrestri": 8227,
      "ĠRadio": 8228,
      "Ġleak": 8229,
      "ĠCare": 8230,
      "Ġsurviving": 8231,
      "Ġcomposed": 8232,
      "ivities": 8233,
      "Ġplann": 8234,
      "Ġplanned": 8235,
      "ĠWhether": 8236,
      "ĠWher": 8237,
      "ĠWho": 8238,
      "ĠWhere": 8239,
      "ĠLuther": 8240,
      "Ġdefeat": 8241,
      "ĠCensus": 8242,
      "hand": 8243,
      "Ġcash": 8244,
      "Ġimagination": 8245,
      "ĠRoosevelt": 8246,
      "2007": 8247,
      "Ġ1985": 8248,
      "85": 8249,
      "ĠFire": 8250,
      "Ġseverity": 8251,
      "ĠStudents": 8252,
      "Ġtwentie": 8253,
      "ĠBrook": 8254,
      "Ġinherit": 8255,
      "Ġresistant": 8256,
      "ĠGrant": 8257,
      "ĠOrlean": 8258,
      "Ġextensively": 8259,
      "advant": 8260,
      "Ġdisadvant": 8261,
      "expect": 8262,
      "Ġgras": 8263,
      "Ġgrass": 8264,
      "Ġbranches": 8265,
      "together": 8266,
      "Ġbutton": 8267,
      "arrhe": 8268,
      "Ġdiarrhe": 8269,
      "Ġattain": 8270,
      "Ġinvolving": 8271,
      "quir": 8272,
      "Ġdim": 8273,
      "ĠAdvanc": 8274,
      "Ġamino": 8275,
      "Ġhun": 8276,
      "gun": 8277,
      "Ġbegun": 8278,
      "Ġmarked": 8279,
      "Ġpolymer": 8280,
      "Ġimpl": 8281,
      "ampl": 8282,
      "Ġsampl": 8283,
      "oupl": 8284,
      "Ġelectromagnetic": 8285,
      "Ġofficials": 8286,
      "Ġdoubl": 8287,
      "Ġexploration": 8288,
      "Ġcreativity": 8289,
      "ĠJupiter": 8290,
      "Ġlogical": 8291,
      "bus": 8292,
      "Ġarchaeological": 8293,
      "iance": 8294,
      "Ġaccordance": 8295,
      "June": 8296,
      "ĠHarri": 8297,
      "ennial": 8298,
      "Ġantenn": 8299,
      "Ġasset": 8300,
      "Ġunpre": 8301,
      "ĠGarden": 8302,
      "ĠPlace": 8303,
      "Ġflesh": 8304,
      "Ġfleet": 8305,
      "Ġmixed": 8306,
      "Ġthank": 8307,
      "osexual": 8308,
      "ange": 8309,
      "2006": 8310,
      "2005": 8311,
      "Ġcongreg": 8312,
      "Ġconception": 8313,
      "Ġdepart": 8314,
      "Ġshorter": 8315,
      "swers": 8316,
      "Ġanswers": 8317,
      "Ġbreathe": 8318,
      "process": 8319,
      "Ġsurveill": 8320,
      "Ġsurveillance": 8321,
      "ibl": 8322,
      "Ġevapor": 8323,
      "Ġpatch": 8324,
      "ĠSha": 8325,
      "lines": 8326,
      "Ġcasual": 8327,
      "structive": 8328,
      "Ġunpreced": 8329,
      "Ġincorporated": 8330,
      "Ġarchitectural": 8331,
      "Ġdesirable": 8332,
      "contin": 8333,
      "Ġcounterpart": 8334,
      "Ġseiz": 8335,
      "Ġseizure": 8336,
      "Ġsegreg": 8337,
      "ĠEmper": 8338,
      "Ġmorph": 8339,
      "ĠThink": 8340,
      "ĠLink": 8341,
      "Ġthereby": 8342,
      "she": 8343,
      "sheet": 8344,
      "Ġaffili": 8345,
      "Ġdrag": 8346,
      "Ġbag": 8347,
      "Ġlogic": 8348,
      "ustainable": 8349,
      "Ġprovincial": 8350,
      "person": 8351,
      "ĠEditor": 8352,
      "ĠDocument": 8353,
      "ĠObject": 8354,
      "ĠCommonwealth": 8355,
      "Ġliberal": 8356,
      "ĠCal": 8357,
      "Ġheadquarter": 8358,
      "ĠCenters": 8359,
      "Ġhandling": 8360,
      "Ġhands": 8361,
      "Ġmodels": 8362,
      "bra": 8363,
      "gebra": 8364,
      "Ġpra": 8365,
      "ĠAge": 8366,
      "Ġacknowledg": 8367,
      "Ġoperational": 8368,
      "Ġoperated": 8369,
      "Ġtranslated": 8370,
      "Ġconcentrated": 8371,
      "Ġquantitative": 8372,
      "86": 8373,
      "oup": 8374,
      "Ġdisk": 8375,
      "ki": 8376,
      "making": 8377,
      "May": 8378,
      "ylinder": 8379,
      "Ġthro": 8380,
      "Ġthroat": 8381,
      "berry": 8382,
      "Ġappointed": 8383,
      "Ġbought": 8384,
      "fgh": 8385,
      "fghan": 8386,
      "fghanistan": 8387,
      "friend": 8388,
      "Ġdish": 8389,
      "Ġ1984": 8390,
      "Ġcurrency": 8391,
      "ĠMarine": 8392,
      "Ġconstit": 8393,
      "Ġconceive": 8394,
      "Ġconvi": 8395,
      "Ġcustomers": 8396,
      "Ġadmission": 8397,
      "olecular": 8398,
      "Ġswelling": 8399,
      "ĠCommunic": 8400,
      "Ġmanual": 8401,
      "Ġcooperative": 8402,
      "Ġconsistently": 8403,
      "ĠOper": 8404,
      "orrect": 8405,
      "correct": 8406,
      "ĠKnow": 8407,
      "actic": 8408,
      "Ġyouth": 8409,
      "77": 8410,
      "ĠChristm": 8411,
      "ĠChristmas": 8412,
      "met": 8413,
      "Ġsymmet": 8414,
      "eteenth": 8415,
      "ineteenth": 8416,
      "Ġnineteenth": 8417,
      "Ġbath": 8418,
      "Ġregistration": 8419,
      "Ġfascin": 8420,
      "Ġfascinating": 8421,
      "ĠVis": 8422,
      "ĠLetter": 8423,
      "ĠWay": 8424,
      "ĠApoll": 8425,
      "Ã§": 8426,
      "Ġmode": 8427,
      "ĠHeart": 8428,
      "Ġinfluenced": 8429,
      "Ġsupported": 8430,
      "Ġunlikely": 8431,
      "onic": 8432,
      "Ġempower": 8433,
      "Ġfinance": 8434,
      "ĠHoloc": 8435,
      "ĠMember": 8436,
      "ĠRepresentative": 8437,
      "Ġimmense": 8438,
      "Ġpreliminary": 8439,
      "Ġsatellites": 8440,
      "ĠPlay": 8441,
      "Ġpuzz": 8442,
      "mann": 8443,
      "Ġrobotic": 8444,
      "Ġcatastroph": 8445,
      "Ġirrigation": 8446,
      "ĠPop": 8447,
      "ĠPopulation": 8448,
      "ĠYellow": 8449,
      "visible": 8450,
      "ĠClub": 8451,
      "Ġpoliticians": 8452,
      "Ġintake": 8453,
      "Ġdisturbance": 8454,
      "Ġlaunched": 8455,
      "Ġgives": 8456,
      "vis": 8457,
      "ĠBusiness": 8458,
      "ĠProfess": 8459,
      "ĠProfessor": 8460,
      "ĠProfession": 8461,
      "orial": 8462,
      "utorial": 8463,
      "Ġterritorial": 8464,
      "Ġdenied": 8465,
      "Ġfacilitate": 8466,
      "iscons": 8467,
      "ĠWiscons": 8468,
      "ĠWisconsin": 8469,
      "nessee": 8470,
      "ennessee": 8471,
      "Ġheadach": 8472,
      "Ġlowest": 8473,
      "Ġcompost": 8474,
      "Ġphilosophical": 8475,
      "Ġcondem": 8476,
      "Ġclassification": 8477,
      "Ġadvis": 8478,
      "Ġregions": 8479,
      "Ġepisode": 8480,
      "abil": 8481,
      "Ġstabil": 8482,
      "ĠLab": 8483,
      "Ġwake": 8484,
      "Ġscre": 8485,
      "ĠTop": 8486,
      "Ġcheaper": 8487,
      "Ġepidemic": 8488,
      "ĠFind": 8489,
      "ĠKenn": 8490,
      "Ġaim": 8491,
      "Ġsegment": 8492,
      "ĠBird": 8493,
      "bird": 8494,
      "Ġdeclare": 8495,
      "2004": 8496,
      "ĠChalleng": 8497,
      "piration": 8498,
      "ĠArchae": 8499,
      "ĠDecl": 8500,
      "Ġhence": 8501,
      "Ġmanaged": 8502,
      "ĠTennessee": 8503,
      "ĠTreat": 8504,
      "Ð¸": 8505,
      "Ġshel": 8506,
      "Ġshelter": 8507,
      "ĠJones": 8508,
      "Ġdetermines": 8509,
      "ĠFreder": 8510,
      "ĠFrederick": 8511,
      "UT": 8512,
      "ĠAllah": 8513,
      "Engl": 8514,
      "Ġobserving": 8515,
      "Ġsolving": 8516,
      "ĠGenetic": 8517,
      "Ġrabbit": 8518,
      "Ġ~": 8519,
      "yth": 8520,
      "Ġrhyth": 8521,
      "Ġrhythm": 8522,
      "ucky": 8523,
      "entucky": 8524,
      "ĠKentucky": 8525,
      "ighth": 8526,
      "Ġrailway": 8527,
      "Ġeggs": 8528,
      "Ġunits": 8529,
      "Ġreasonable": 8530,
      "âĪĴ": 8531,
      "89": 8532,
      "ĠJul": 8533,
      "ĠBre": 8534,
      "icated": 8535,
      "edicated": 8536,
      "Ġdedicated": 8537,
      "Ġjudic": 8538,
      "Ġdistributed": 8539,
      "Ġunemployment": 8540,
      "produc": 8541,
      "Ġtick": 8542,
      "Ġsword": 8543,
      "Ġcharter": 8544,
      "Ġalert": 8545,
      "ĠElectric": 8546,
      "Ġion": 8547,
      "Ġhomosexual": 8548,
      "Ġ..": 8549,
      "Ġ...": 8550,
      "Ġbatt": 8551,
      "ĠDougl": 8552,
      "January": 8553,
      "amilton": 8554,
      "Ġwage": 8555,
      "Ġ1983": 8556,
      "Ġ1982": 8557,
      "Ġ1981": 8558,
      "arett": 8559,
      "igarett": 8560,
      "ĠEmperor": 8561,
      "ĠMonitor": 8562,
      "CT": 8563,
      "jured": 8564,
      "Ġprecaution": 8565,
      "Ġoverwh": 8566,
      "Ġoverwhel": 8567,
      "Ġoverwhelm": 8568,
      "Ġcourage": 8569,
      "ĠImage": 8570,
      "Ġrepublic": 8571,
      "Ġiniti": 8572,
      "Ġspott": 8573,
      "ĠCopyright": 8574,
      "thlet": 8575,
      "complet": 8576,
      "Ġfewer": 8577,
      "ĠNutrition": 8578,
      "ĠAction": 8579,
      "Ġskull": 8580,
      "Ġparticipating": 8581,
      "hal": 8582,
      "half": 8583,
      "ĠExplor": 8584,
      "LE": 8585,
      "ĠTru": 8586,
      "ircles": 8587,
      "Ġsho": 8588,
      "ĠFuture": 8589,
      "ĠFDA": 8590,
      "ĠUSDA": 8591,
      "pograph": 8592,
      "Ġsequenc": 8593,
      "Ġinnovation": 8594,
      "Ġresembl": 8595,
      "Ġmand": 8596,
      "Ġcontinuously": 8597,
      "volt": 8598,
      "awn": 8599,
      "Ġdwell": 8600,
      "ĠPsychology": 8601,
      "Ġcervi": 8602,
      "Ġborrow": 8603,
      "Ġunexpect": 8604,
      "ĠMarsh": 8605,
      "Ġcontinually": 8606,
      "Ġhomework": 8607,
      "Ġgrace": 8608,
      "ĠAny": 8609,
      "itler": 8610,
      "ĠHitler": 8611,
      "itter": 8612,
      "ĠTwitter": 8613,
      "itan": 8614,
      "olitan": 8615,
      "ropolitan": 8616,
      "iture": 8617,
      "Ġexpenditure": 8618,
      "Ġfurniture": 8619,
      "oman": 8620,
      "Ġhunter": 8621,
      "Ġdental": 8622,
      "Ġconstructed": 8623,
      "herent": 8624,
      "Ġprogression": 8625,
      "Ġsizes": 8626,
      "Ġfootball": 8627,
      "control": 8628,
      "Ġreasons": 8629,
      "Ġworks": 8630,
      "Ġworked": 8631,
      "EP": 8632,
      "ĠPrince": 8633,
      "Ġmature": 8634,
      "ĠLiterature": 8635,
      "Ġsignature": 8636,
      "ĠChemistry": 8637,
      "ĠChemical": 8638,
      "Ġmembership": 8639,
      "ĠLocal": 8640,
      "Ġpollutants": 8641,
      "Pl": 8642,
      "Ġprecision": 8643,
      "ĠForeign": 8644,
      "Ġhungr": 8645,
      "centive": 8646,
      "Ġhazardous": 8647,
      "Ġcircular": 8648,
      "Ġpatri": 8649,
      "human": 8650,
      "Ġbulb": 8651,
      "bur": 8652,
      "burgh": 8653,
      "quatic": 8654,
      "Ġvice": 8655,
      "cripture": 8656,
      "Ġdimin": 8657,
      "Ġpatron": 8658,
      "AD": 8659,
      "Ġcorruption": 8660,
      "quality": 8661,
      "Ġwise": 8662,
      "alse": 8663,
      "Ġfalse": 8664,
      "Ġdose": 8665,
      "Ġpal": 8666,
      "Work": 8667,
      "Ġspecialized": 8668,
      "Ġsurrender": 8669,
      "ttoman": 8670,
      "Ġgeographical": 8671,
      "ĠConfed": 8672,
      "ĠConfeder": 8673,
      "ĠMag": 8674,
      "ĠMagaz": 8675,
      "'m": 8676,
      "ĠIndependence": 8677,
      "ĠCarib": 8678,
      "ĠCaribbe": 8679,
      "Ġcombine": 8680,
      "ĠAmend": 8681,
      "ĠAmendment": 8682,
      "ĠStrate": 8683,
      "ĠStrateg": 8684,
      "ilt": 8685,
      "Ġreports": 8686,
      "Ġdefeated": 8687,
      "atern": 8688,
      "Ġdisorders": 8689,
      "Ġadvertis": 8690,
      "emper": 8691,
      "Ġtemper": 8692,
      "ĠScottish": 8693,
      "Ġscratch": 8694,
      "Ġalumin": 8695,
      "Ġalt": 8696,
      "Ġaltitude": 8697,
      "Ġwet": 8698,
      "Ġwetlands": 8699,
      "Ġcited": 8700,
      "ĠPope": 8701,
      "omato": 8702,
      "Ġprolong": 8703,
      "Ġlimb": 8704,
      "Ġprotected": 8705,
      "Ġcontained": 8706,
      "ĠAmazon": 8707,
      "Ġpainful": 8708,
      "ĠSmall": 8709,
      "2003": 8710,
      "ĠWild": 8711,
      "ĠCDC": 8712,
      "ĠCorn": 8713,
      "Ġbeliever": 8714,
      "Ġnecessity": 8715,
      "Ġrequirement": 8716,
      "ulin": 8717,
      "Ġvoluntary": 8718,
      "ĠPolish": 8719,
      "ĠPoland": 8720,
      "Ġorganiz": 8721,
      "ĠPeriod": 8722,
      "Ġmobility": 8723,
      "Ġplayers": 8724,
      "zen": 8725,
      "Ġfrozen": 8726,
      "aware": 8727,
      "Ġoxid": 8728,
      "Ġpermanently": 8729,
      "Ġengaged": 8730,
      "rd": 8731,
      "Ġmargin": 8732,
      "Ġmarginal": 8733,
      "Ġacceptable": 8734,
      "Ġrelating": 8735,
      "Ġprojection": 8736,
      "Ġprostate": 8737,
      "asma": 8738,
      "Ġplasma": 8739,
      "Ġprotective": 8740,
      "Ġoptions": 8741,
      "Ġtakes": 8742,
      "Ġcoupl": 8743,
      "Ġ48": 8744,
      "aired": 8745,
      "Ġrevenue": 8746,
      "Ġemploye": 8747,
      "Ġemployees": 8748,
      "Ġemployed": 8749,
      "Ġenrich": 8750,
      "Ġmeaningful": 8751,
      "Ġgallon": 8752,
      "ĠBerk": 8753,
      "ĠBern": 8754,
      "ulsion": 8755,
      "ule": 8756,
      "Ġpartially": 8757,
      "Ġignore": 8758,
      "ĠApp": 8759,
      "Ġsan": 8760,
      "Ġsanct": 8761,
      "ĠOct": 8762,
      "irect": 8763,
      "Ġster": 8764,
      "Ġcounties": 8765,
      "ĠMemorial": 8766,
      "Ġmac": 8767,
      "Ġviruses": 8768,
      "Ġsuddenly": 8769,
      "Ġimperial": 8770,
      "Ġfootprint": 8771,
      "Ġfighting": 8772,
      "Ġentered": 8773,
      "Ġinvolves": 8774,
      "Ġevaluated": 8775,
      "Ġillumin": 8776,
      "Ġpresentation": 8777,
      "Ġstrategic": 8778,
      "Ġoperators": 8779,
      "Ġconsequences": 8780,
      "Ġindicators": 8781,
      "ĠAngeles": 8782,
      "cour": 8783,
      "ĠInc": 8784,
      "Ġnoun": 8785,
      "Ġlisted": 8786,
      "Ġencouraged": 8787,
      "ĠImm": 8788,
      "ĠImpro": 8789,
      "mpic": 8790,
      "lympic": 8791,
      "ĠOlympic": 8792,
      "Ġtrem": 8793,
      "Ġtremend": 8794,
      "Ġtremendous": 8795,
      "2001": 8796,
      "2002": 8797,
      "ĠUnderstanding": 8798,
      "Ġpitch": 8799,
      "Ġpremature": 8800,
      "ĠEngineering": 8801,
      "Ġarbitrary": 8802,
      "Ġsecular": 8803,
      "Ġ37": 8804,
      "Ġspending": 8805,
      "Dr": 8806,
      "ĠAD": 8807,
      "Ġcontrovers": 8808,
      "Ġcontroversial": 8809,
      "Ġgirls": 8810,
      "peare": 8811,
      "Ġpossess": 8812,
      "ĠHTML": 8813,
      "Ġclay": 8814,
      "English": 8815,
      "ahoma": 8816,
      "lahoma": 8817,
      "klahoma": 8818,
      "ĠOklahoma": 8819,
      "ĠStephen": 8820,
      "Ġimplies": 8821,
      "Ġsevent": 8822,
      "ĠChronic": 8823,
      "ĠDiego": 8824,
      "Ġinvestigate": 8825,
      "ĠConfederate": 8826,
      "Ġowners": 8827,
      "Ġirre": 8828,
      "Ġlas": 8829,
      "Ġlaser": 8830,
      "Ġauto": 8831,
      "Ġsha": 8832,
      "Ġkitch": 8833,
      "Ġmask": 8834,
      "Ġ1945": 8835,
      "ĠIndonesia": 8836,
      "Ġprophet": 8837,
      "ĠPhilippines": 8838,
      "Ġrefrig": 8839,
      "ĠAmericans": 8840,
      "Ġscores": 8841,
      "ĠHelp": 8842,
      "Ġtop": 8843,
      "Ġcomparative": 8844,
      "Ġexploitation": 8845,
      "ĠPass": 8846,
      "IR": 8847,
      "IA": 8848,
      "Ġdamaged": 8849,
      "Ġairplan": 8850,
      "Ġcough": 8851,
      "Ġplayed": 8852,
      "ĠPolitical": 8853,
      "iabet": 8854,
      "patitis": 8855,
      "96": 8856,
      "Ġcoordination": 8857,
      "Ġseparation": 8858,
      "Ġcorrection": 8859,
      "phistic": 8860,
      "Ġsophistic": 8861,
      "Ġsophisticated": 8862,
      "Ġhonest": 8863,
      "Ġmagnet": 8864,
      "ĠBush": 8865,
      "Ġrush": 8866,
      "Ġring": 8867,
      "Ġenact": 8868,
      "ĠContact": 8869,
      "ĠContin": 8870,
      "Ġvein": 8871,
      "Ġtemporarily": 8872,
      "Ġrubber": 8873,
      "made": 8874,
      "Ġhumid": 8875,
      "Ġdrift": 8876,
      "ĠMcC": 8877,
      "Ġsurvivors": 8878,
      "Ġbasically": 8879,
      "Ġu": 8880,
      "Ġupl": 8881,
      "Ġoz": 8882,
      "Ġozone": 8883,
      "Ġelevated": 8884,
      "Ġlunch": 8885,
      "aturated": 8886,
      "ĠDon": 8887,
      "ĠDel": 8888,
      "iel": 8889,
      "aniel": 8890,
      "ĠDaniel": 8891,
      "Ġdance": 8892,
      "Ġvegetables": 8893,
      "Ġproto": 8894,
      "Ġprototype": 8895,
      "Ġproclaim": 8896,
      "Ġruin": 8897,
      "Ġcontradict": 8898,
      "Ġterminal": 8899,
      "ĠOl": 8900,
      "lock": 8901,
      "Ġcameras": 8902,
      "ĠLeader": 8903,
      "Ġterrible": 8904,
      "Ġoffers": 8905,
      "Ġjuven": 8906,
      "Ġphot": 8907,
      "Ġexamined": 8908,
      "Ġdigit": 8909,
      "ternative": 8910,
      "Ġcollaborative": 8911,
      "Ġrestoration": 8912,
      "Ġconsideration": 8913,
      "Ġsurprising": 8914,
      "Ġvig": 8915,
      "Ġvib": 8916,
      "oom": 8917,
      "Ġbloom": 8918,
      "Ġscreening": 8919,
      "ĠAvoid": 8920,
      "Ġdur": 8921,
      "Ġduration": 8922,
      "Article": 8923,
      "gu": 8924,
      "ĠEvolution": 8925,
      "Ġimpri": 8926,
      "Ġimprison": 8927,
      "ĠBaby": 8928,
      "Ġgroundwater": 8929,
      "Ġfreshwater": 8930,
      "bury": 8931,
      "Ġpreced": 8932,
      "Ġtested": 8933,
      "ĠLight": 8934,
      "Ġputt": 8935,
      "Ġputting": 8936,
      "Ġbreeding": 8937,
      "Ġmutations": 8938,
      "ĠDepression": 8939,
      "ĠDeath": 8940,
      "________________": 8941,
      "Ġdemographic": 8942,
      "articip": 8943,
      "ognition": 8944,
      "efficient": 8945,
      "athed": 8946,
      "athedral": 8947,
      "Ġtough": 8948,
      "ĠMet": 8949,
      "ĠMus": 8950,
      "ĠMusic": 8951,
      "Ġrocket": 8952,
      "Ġspinal": 8953,
      "Ġphilosopher": 8954,
      "ĠÂ·": 8955,
      "dimension": 8956,
      "Ġcervical": 8957,
      "ĠNorthwest": 8958,
      "Ġgovernor": 8959,
      "Ġsteps": 8960,
      "Ġinclusion": 8961,
      "Ġmood": 8962,
      "Ġmail": 8963,
      "ĠTaylor": 8964,
      "ĠTake": 8965,
      "Origin": 8966,
      "ĠHind": 8967,
      "ĠHindu": 8968,
      "kind": 8969,
      "Ġmankind": 8970,
      "Ġpersu": 8971,
      "Ġpersecution": 8972,
      "Ġthreatened": 8973,
      "ĠEdition": 8974,
      "ĠMad": 8975,
      "Ġsigns": 8976,
      "Ġhistorically": 8977,
      "Ġreferring": 8978,
      "ĠEvent": 8979,
      "Ġterrain": 8980,
      "Ġhonour": 8981,
      "Î¿": 8982,
      "Ġbarriers": 8983,
      "Ġsettlers": 8984,
      "Ġsettled": 8985,
      "Ġpetition": 8986,
      "ĠQur": 8987,
      "ĠText": 8988,
      "ped": 8989,
      "Ġequipped": 8990,
      "Ġrod": 8991,
      "Ġabdominal": 8992,
      "Ġconsiderably": 8993,
      "ĠTrade": 8994,
      "ĠPDF": 8995,
      "PDF": 8996,
      "aver": 8997,
      "Ġassessments": 8998,
      "Ġarrangement": 8999,
      "Ġresidents": 9000,
      "Ġresidential": 9001,
      "ised": 9002,
      "ĠColon": 9003,
      "Ġefficacy": 9004,
      "Ġlegacy": 9005,
      "amond": 9006,
      "Ġdiamond": 9007,
      "mond": 9008,
      "emic": 9009,
      "iginal": 9010,
      "Though": 9011,
      "ĠMal": 9012,
      "Ġexperimental": 9013,
      "Ġcatalog": 9014,
      "ĠMagazine": 9015,
      "los": 9016,
      "Ġenclos": 9017,
      "ĠLos": 9018,
      "Ġdeserve": 9019,
      "Ġdescendants": 9020,
      "Ġwarfare": 9021,
      "Ġtorn": 9022,
      "reas": 9023,
      "Ġbias": 9024,
      "Ġwhereas": 9025,
      "Ġthrone": 9026,
      "Ġthrive": 9027,
      "Ġcircumstances": 9028,
      "Ġtomato": 9029,
      "Ġrepresented": 9030,
      "ĠGeographic": 9031,
      "98": 9032,
      "Ġ38": 9033,
      "ewise": 9034,
      "Ġneural": 9035,
      "abin": 9036,
      "Ġcabin": 9037,
      "66": 9038,
      "OL": 9039,
      "Of": 9040,
      "Ġfifteen": 9041,
      "ĠDigital": 9042,
      "Ġlooked": 9043,
[...]
